{
  "version": "1.0",
  "truncation": null,
  "padding": null,
  "added_tokens": [
    {
      "id": 0,
      "content": "<|endoftext|>",
      "single_word": false,
      "lstrip": false,
      "rstrip": false,
      "normalized": true,
      "special": true
    },
    {
      "id": 1,
      "content": "<s>",
      "single_word": false,
      "lstrip": false,
      "rstrip": false,
      "normalized": false,
      "special": true
    },
    {
      "id": 2,
      "content": "</s>",
      "single_word": false,
      "lstrip": false,
      "rstrip": false,
      "normalized": false,
      "special": true
    },
    {
      "id": 3,
      "content": "<unk>",
      "single_word": false,
      "lstrip": false,
      "rstrip": false,
      "normalized": false,
      "special": true
    },
    {
      "id": 4,
      "content": "<pad>",
      "single_word": false,
      "lstrip": false,
      "rstrip": false,
      "normalized": false,
      "special": true
    }
  ],
  "normalizer": null,
  "pre_tokenizer": {
    "type": "ByteLevel",
    "add_prefix_space": false,
    "trim_offsets": true,
    "use_regex": true
  },
  "post_processor": {
    "type": "ByteLevel",
    "add_prefix_space": true,
    "trim_offsets": false,
    "use_regex": true
  },
  "decoder": {
    "type": "ByteLevel",
    "add_prefix_space": true,
    "trim_offsets": true,
    "use_regex": true
  },
  "model": {
    "type": "BPE",
    "dropout": null,
    "unk_token": null,
    "continuing_subword_prefix": "",
    "end_of_word_suffix": "",
    "fuse_unk": false,
    "byte_fallback": false,
    "ignore_merges": false,
    "vocab": {
      "<|endoftext|>": 0,
      "<s>": 1,
      "</s>": 2,
      "<unk>": 3,
      "<pad>": 4,
      "!": 5,
      "\"": 6,
      "#": 7,
      "$": 8,
      "%": 9,
      "&": 10,
      "'": 11,
      "(": 12,
      ")": 13,
      "*": 14,
      "+": 15,
      ",": 16,
      "-": 17,
      ".": 18,
      "/": 19,
      "0": 20,
      "1": 21,
      "2": 22,
      "3": 23,
      "4": 24,
      "5": 25,
      "6": 26,
      "7": 27,
      "8": 28,
      "9": 29,
      ":": 30,
      ";": 31,
      "<": 32,
      "=": 33,
      ">": 34,
      "?": 35,
      "@": 36,
      "A": 37,
      "B": 38,
      "C": 39,
      "D": 40,
      "E": 41,
      "F": 42,
      "G": 43,
      "H": 44,
      "I": 45,
      "J": 46,
      "K": 47,
      "L": 48,
      "M": 49,
      "N": 50,
      "O": 51,
      "P": 52,
      "Q": 53,
      "R": 54,
      "S": 55,
      "T": 56,
      "U": 57,
      "V": 58,
      "W": 59,
      "X": 60,
      "Y": 61,
      "Z": 62,
      "[": 63,
      "\\": 64,
      "]": 65,
      "^": 66,
      "_": 67,
      "`": 68,
      "a": 69,
      "b": 70,
      "c": 71,
      "d": 72,
      "e": 73,
      "f": 74,
      "g": 75,
      "h": 76,
      "i": 77,
      "j": 78,
      "k": 79,
      "l": 80,
      "m": 81,
      "n": 82,
      "o": 83,
      "p": 84,
      "q": 85,
      "r": 86,
      "s": 87,
      "t": 88,
      "u": 89,
      "v": 90,
      "w": 91,
      "x": 92,
      "y": 93,
      "z": 94,
      "{": 95,
      "|": 96,
      "}": 97,
      "~": 98,
      "¡": 99,
      "¢": 100,
      "£": 101,
      "¤": 102,
      "¥": 103,
      "¦": 104,
      "§": 105,
      "¨": 106,
      "©": 107,
      "ª": 108,
      "«": 109,
      "¬": 110,
      "®": 111,
      "¯": 112,
      "°": 113,
      "±": 114,
      "²": 115,
      "³": 116,
      "´": 117,
      "µ": 118,
      "¶": 119,
      "·": 120,
      "¸": 121,
      "¹": 122,
      "º": 123,
      "»": 124,
      "¼": 125,
      "½": 126,
      "¾": 127,
      "¿": 128,
      "À": 129,
      "Á": 130,
      "Â": 131,
      "Ã": 132,
      "Ä": 133,
      "Å": 134,
      "Æ": 135,
      "Ç": 136,
      "È": 137,
      "É": 138,
      "Ê": 139,
      "Ë": 140,
      "Ì": 141,
      "Í": 142,
      "Î": 143,
      "Ï": 144,
      "Ð": 145,
      "Ñ": 146,
      "Ò": 147,
      "Ó": 148,
      "Ô": 149,
      "Õ": 150,
      "Ö": 151,
      "×": 152,
      "Ø": 153,
      "Ù": 154,
      "Ú": 155,
      "Û": 156,
      "Ü": 157,
      "Ý": 158,
      "Þ": 159,
      "ß": 160,
      "à": 161,
      "á": 162,
      "â": 163,
      "ã": 164,
      "ä": 165,
      "å": 166,
      "æ": 167,
      "ç": 168,
      "è": 169,
      "é": 170,
      "ê": 171,
      "ë": 172,
      "ì": 173,
      "í": 174,
      "î": 175,
      "ï": 176,
      "ð": 177,
      "ñ": 178,
      "ò": 179,
      "ó": 180,
      "ô": 181,
      "õ": 182,
      "ö": 183,
      "÷": 184,
      "ø": 185,
      "ù": 186,
      "ú": 187,
      "û": 188,
      "ü": 189,
      "ý": 190,
      "þ": 191,
      "ÿ": 192,
      "Ā": 193,
      "ā": 194,
      "Ă": 195,
      "ă": 196,
      "Ą": 197,
      "ą": 198,
      "Ć": 199,
      "ć": 200,
      "Ĉ": 201,
      "ĉ": 202,
      "Ċ": 203,
      "ċ": 204,
      "Č": 205,
      "č": 206,
      "Ď": 207,
      "ď": 208,
      "Đ": 209,
      "đ": 210,
      "Ē": 211,
      "ē": 212,
      "Ĕ": 213,
      "ĕ": 214,
      "Ė": 215,
      "ė": 216,
      "Ę": 217,
      "ę": 218,
      "Ě": 219,
      "ě": 220,
      "Ĝ": 221,
      "ĝ": 222,
      "Ğ": 223,
      "ğ": 224,
      "Ġ": 225,
      "ġ": 226,
      "Ģ": 227,
      "ģ": 228,
      "Ĥ": 229,
      "ĥ": 230,
      "Ħ": 231,
      "ħ": 232,
      "Ĩ": 233,
      "ĩ": 234,
      "Ī": 235,
      "ī": 236,
      "Ĭ": 237,
      "ĭ": 238,
      "Į": 239,
      "į": 240,
      "İ": 241,
      "ı": 242,
      "Ĳ": 243,
      "ĳ": 244,
      "Ĵ": 245,
      "ĵ": 246,
      "Ķ": 247,
      "ķ": 248,
      "ĸ": 249,
      "Ĺ": 250,
      "ĺ": 251,
      "Ļ": 252,
      "ļ": 253,
      "Ľ": 254,
      "ľ": 255,
      "Ŀ": 256,
      "ŀ": 257,
      "Ł": 258,
      "ł": 259,
      "Ń": 260,
      "ä¸": 261,
      "ï¼": 262,
      "ãĢ": 263,
      "ï¼Į": 264,
      "äº": 265,
      "åħ": 266,
      "åı": 267,
      "ãĢģ": 268,
      "çļ": 269,
      "çļĦ": 270,
      "æľ": 271,
      "å®": 272,
      "åĬ": 273,
      "ãĢĤ": 274,
      "ä»": 275,
      "âĢ": 276,
      "åĪ": 277,
      "ä½": 278,
      "å¤": 279,
      "åĲ": 280,
      "ç»": 281,
      "æĸ": 282,
      "è¿": 283,
      "åľ": 284,
      "è®": 285,
      "ä¼": 286,
      "çĶ": 287,
      "å¹": 288,
      "åĮ": 289,
      "å¸": 290,
      "åĽ": 291,
      "è´": 292,
      "åį": 293,
      "å±": 294,
      "å·": 295,
      "æĹ": 296,
      "æĶ": 297,
      "å¼": 298,
      "æĪ": 299,
      "åº": 300,
      "éĩ": 301,
      "è¯": 302,
      "è¡": 303,
      "çĽ": 304,
      "æĿ": 305,
      "æĬ": 306,
      "äºº": 307,
      "åĨ": 308,
      "ä¹": 309,
      "æī": 310,
      "æĺ": 311,
      "ä¸ļ": 312,
      "ä¸Ģ": 313,
      "æł": 314,
      "éĢ": 315,
      "âĢľ": 316,
      "âĢĿ": 317,
      "åĴ": 318,
      "å¯": 319,
      "æķ": 320,
      "å·¥": 321,
      "ä¸Ń": 322,
      "æ°": 323,
      "ä¿": 324,
      "åĴĮ": 325,
      "åŃ": 326,
      "å¸Ĥ": 327,
      "èµ": 328,
      "å°": 329,
      "åĩ": 330,
      "æİ": 331,
      "è§": 332,
      "ä½ľ": 333,
      "éĻ": 334,
      "åľ¨": 335,
      "è¡Į": 336,
      "çŃ": 337,
      "åıĳ": 338,
      "Ġt": 339,
      "å¹´": 340,
      "æĢ": 341,
      "åĳ": 342,
      "ä¸º": 343,
      "çº": 344,
      "çİ": 345,
      "æ³": 346,
      "æĮ": 347,
      "ç§": 348,
      "åħ¨": 349,
      "åħ¬": 350,
      "æľī": 351,
      "å¤§": 352,
      "åŁ": 353,
      "é¢": 354,
      "éĹ": 355,
      "å»": 356,
      "ä¼ļ": 357,
      "åĽ½": 358,
      "Ġa": 359,
      "çĲ": 360,
      "å®ŀ": 361,
      "åĮº": 362,
      "åİ": 363,
      "è¦": 364,
      "åĬ¨": 365,
      "å¿": 366,
      "çĶŁ": 367,
      "å»º": 368,
      "è¦ģ": 369,
      "å±ķ": 370,
      "æµ": 371,
      "äºĨ": 372,
      "è¿Ľ": 373,
      "é¡": 374,
      "éĥ": 375,
      "å¾": 376,
      "çĲĨ": 377,
      "åĬ¡": 378,
      "å½": 379,
      "èĢ": 380,
      "çī": 381,
      "æĶ¿": 382,
      "éĿ": 383,
      "in": 384,
      "æĸ°": 385,
      "ç®": 386,
      "åĮĸ": 387,
      "20": 388,
      "æ±": 389,
      "æ²": 390,
      "æ³ķ": 391,
      "ä¸į": 392,
      "he": 393,
      "æŀ": 394,
      "äº§": 395,
      "æŃ": 396,
      "å¥": 397,
      "ä¸Ĭ": 398,
      "ä»¥": 399,
      "æı": 400,
      "åľ°": 401,
      "æĺ¯": 402,
      "éĺ": 403,
      "å¼Ģ": 404,
      "çŃī": 405,
      "æĪĲ": 406,
      "å·¥ä½ľ": 407,
      "èĩ": 408,
      "æĹ¶": 409,
      "åĲĪ": 410,
      "é¡¹": 411,
      "å¯¹": 412,
      "çĶ¨": 413,
      "åĩº": 414,
      "ç¤": 415,
      "æĹ¥": 416,
      "åĬĽ": 417,
      "ï¼ī": 418,
      "æ°ĳ": 419,
      "ä¾": 420,
      "ç«": 421,
      "ï¼Ī": 422,
      "èĥ": 423,
      "éĥ¨": 424,
      "è®¾": 425,
      "åħ³": 426,
      "åŃ¦": 427,
      "çľ": 428,
      "ä¿Ŀ": 429,
      "æĭ": 430,
      "æıĲ": 431,
      "èµĦ": 432,
      "èģ": 433,
      "ç½": 434,
      "éķ": 435,
      "æ´": 436,
      "çĽ®": 437,
      "å®ļ": 438,
      "æĥ": 439,
      "ä½ĵ": 440,
      "æĸ¹": 441,
      "åĵ": 442,
      "é«": 443,
      "é«ĺ": 444,
      "èĤ": 445,
      "re": 446,
      "ä¸»": 447,
      "è½": 448,
      "æ¬": 449,
      "è¾": 450,
      "ï¼ļ": 451,
      "ç¨": 452,
      "å®¶": 453,
      "ç®¡": 454,
      "åĬł": 455,
      "éĩį": 456,
      "èĥ½": 457,
      "ç»ı": 458,
      "on": 459,
      "æ¸": 460,
      "ä¸ª": 461,
      "å§": 462,
      "å®ī": 463,
      "åĪĨ": 464,
      "éĢļ": 465,
      "å¢": 466,
      "åģ": 467,
      "çİ°": 468,
      "åī": 469,
      "æłĩ": 470,
      "æĸĩ": 471,
      "er": 472,
      "èĲ": 473,
      "æľĪ": 474,
      "åĲĮ": 475,
      "äºĭ": 476,
      "åĳĺ": 477,
      "Ł¥": 478,
      "æľ¬": 479,
      "åĪ°": 480,
      "Ġthe": 481,
      "æľº": 482,
      "æĦ": 483,
      "è·": 484,
      "åĪ¶": 485,
      "çĤ": 486,
      "è°": 487,
      "åıĬ": 488,
      "åıĳå±ķ": 489,
      "åĿ": 490,
      "å¼º": 491,
      "æľį": 492,
      "Ġs": 493,
      "ç¬": 494,
      "åľº": 495,
      "è§Ħ": 496,
      "åºĶ": 497,
      "ä¸ĭ": 498,
      "äºİ": 499,
      "éĿ¢": 500,
      "éĽ": 501,
      "éģ": 502,
      "æİ¨": 503,
      "åº¦": 504,
      "å¿ĥ": 505,
      "ä½į": 506,
      "ä¸İ": 507,
      "éķ¿": 508,
      "æĿ¥": 509,
      "ä¼ģ": 510,
      "åĵģ": 511,
      "é¡¹çĽ®": 512,
      "æľįåĬ¡": 513,
      "ï¼Ľ": 514,
      "èĩª": 515,
      "åı¸": 516,
      "00": 517,
      "å§Ķ": 518,
      "å¹³": 519,
      "æ¯": 520,
      "Ġw": 521,
      "çĤ¹": 522,
      "åħĥ": 523,
      "åħļ": 524,
      "Ġo": 525,
      "åħ¥": 526,
      "å¥½": 527,
      "æ¡": 528,
      "æĻ": 529,
      "éĩĳ": 530,
      "æį": 531,
      "å±Ģ": 532,
      "at": 533,
      "æĮģ": 534,
      "ä¿¡": 535,
      "éļ": 536,
      "å»ºè®¾": 537,
      "è¿ĩ": 538,
      "æ°´": 539,
      "æĥħ": 540,
      "nd": 541,
      "æ´»": 542,
      "ç¾": 543,
      "ç¤¾": 544,
      "Ġc": 545,
      "ä¼ģä¸ļ": 546,
      "çľģ": 547,
      "äº¤": 548,
      "ä»¶": 549,
      "éĩı": 550,
      "åħ¬åı¸": 551,
      "åĬŀ": 552,
      "ç»Ħ": 553,
      "åĲĦ": 554,
      "åħ±": 555,
      "ä¸ī": 556,
      "æĿĳ": 557,
      "æľŁ": 558,
      "åĨħ": 559,
      "æ²»": 560,
      "ç¬¬": 561,
      "it": 562,
      "æĪĳ": 563,
      "ãĢĭ": 564,
      "ãĢĬ": 565,
      "é£": 566,
      "ç¨ĭ": 567,
      "ç³": 568,
      "åŁº": 569,
      "èī": 570,
      "å¤ļ": 571,
      "çł": 572,
      "æĸ½": 573,
      "ç¡": 574,
      "åįķ": 575,
      "ou": 576,
      "or": 577,
      "ç³»": 578,
      "è´£": 579,
      "åīį": 580,
      "ä»»": 581,
      "ä»£": 582,
      "çĿ": 583,
      "åķ": 584,
      "æŁ¥": 585,
      "is": 586,
      "æ¬¡": 587,
      "es": 588,
      "202": 589,
      "æ¶": 590,
      "è´¨": 591,
      "éĹ´": 592,
      "æĺİ": 593,
      "æĬ¥": 594,
      "åĲİ": 595,
      "æĢ§": 596,
      "æĬĢ": 597,
      "è®®": 598,
      "å¯¼": 599,
      "åĨľ": 600,
      "Ġf": 601,
      "en": 602,
      "æ±Ĥ": 603,
      "é¢ĺ": 604,
      "æĶ¯": 605,
      "æ·": 606,
      "å¼ı": 607,
      "ç§ĳ": 608,
      "è®¡": 609,
      "åĪĽ": 610,
      "åķĨ": 611,
      "Ġp": 612,
      "ç®¡çĲĨ": 613,
      "ing": 614,
      "Ġb": 615,
      "æĽ": 616,
      "çĶµ": 617,
      "ä¸ĩ": 618,
      "æķĻ": 619,
      "å°Ĩ": 620,
      "æĬķ": 621,
      "ç²": 622,
      "å°ı": 623,
      "åħ¶": 624,
      "éĹ¨": 625,
      "åĳĬ": 626,
      "åŁİ": 627,
      "èĢħ": 628,
      "çĽĳ": 629,
      "çº§": 630,
      "è¡¨": 631,
      "åİ¿": 632,
      "äºĮ": 633,
      "èĤ²": 634,
      "çĸ": 635,
      "åı¯": 636,
      "èĬ": 637,
      "æº": 638,
      "çĽ¸": 639,
      "ä¾Ľ": 640,
      "è®°": 641,
      "è´¹": 642,
      "ä¹¦": 643,
      "è¯ģ": 644,
      "è¶": 645,
      "ä¸ĵ": 646,
      "è·¯": 647,
      "èģĶ": 648,
      "éĺ²": 649,
      "an": 650,
      "æķĪ": 651,
      "ç«ĭ": 652,
      "æķ°": 653,
      "æģ": 654,
      "éĩĩ": 655,
      "è°ĥ": 656,
      "æĶ¶": 657,
      "é¢Ĩ": 658,
      "çİ¯": 659,
      "æĶ¹": 660,
      "éĻ¢": 661,
      "èĮ": 662,
      "å¢ŀ": 663,
      "Ġto": 664,
      "åĲį": 665,
      "ç½ĳ": 666,
      "éģĵ": 667,
      "al": 668,
      "æ£": 669,
      "è§£": 670,
      "æ¡Ī": 671,
      "å®īåħ¨": 672,
      "ç»Ł": 673,
      "æį®": 674,
      "åºľ": 675,
      "ed": 676,
      "åĢ": 677,
      "ç¤º": 678,
      "åĲĳ": 679,
      "Ġm": 680,
      "æĦı": 681,
      "å¹¶": 682,
      "ç¥": 683,
      "éĢł": 684,
      "å½ĵ": 685,
      "çī©": 686,
      "ä»¬": 687,
      "åĪ©": 688,
      "ç±": 689,
      "èĲ¥": 690,
      "ä¼ł": 691,
      "æĶ¿åºľ": 692,
      "Ġand": 693,
      "å¤Ħ": 694,
      "æĢ»": 695,
      "éĽĨ": 696,
      "æ·±": 697,
      "æºĲ": 698,
      "ç»ĵ": 699,
      "è´Ń": 700,
      "æīĢ": 701,
      "åĨ³": 702,
      "éĹ®": 703,
      "æĿ¡": 704,
      "ä¸ŃåĽ½": 705,
      "ar": 706,
      "éľ": 707,
      "è½¦": 708,
      "éĵ": 709,
      "è¿Ĳ": 710,
      "ç´": 711,
      "éĶ": 712,
      "è¿Ļ": 713,
      "æĮĩ": 714,
      "æĽ´": 715,
      "å¾Ĺ": 716,
      "åįģ": 717,
      "Ġin": 718,
      "å¼Ģå±ķ": 719,
      "åı°": 720,
      "å°±": 721,
      "å¦": 722,
      "Ġof": 723,
      "ä¹ĭ": 724,
      "è¿Ľè¡Į": 725,
      "ä»ĸ": 726,
      "æł¼": 727,
      "çī¹": 728,
      "åĩĨ": 729,
      "åŃĲ": 730,
      "æ´»åĬ¨": 731,
      "çķ": 732,
      "çłĶ": 733,
      "èĲ½": 734,
      "äººæ°ĳ": 735,
      "æķ´": 736,
      "åĨµ": 737,
      "le": 738,
      "æĬ¤": 739,
      "éĻĲ": 740,
      "æŃ¥": 741,
      "ç©": 742,
      "çĻ": 743,
      "èį": 744,
      "å¢ĥ": 745,
      "ä¼ĺ": 746,
      "å¹¿": 747,
      "å¤©": 748,
      "ç¡®": 749,
      "å¤ĸ": 750,
      "å±±": 751,
      "åıĤ": 752,
      "æµ·": 753,
      "ç²¾": 754,
      "Ġd": 755,
      "å®¡": 756,
      "åįĹ": 757,
      "çº¿": 758,
      "ä¹ł": 759,
      "è¿ĳ": 760,
      "äº§ä¸ļ": 761,
      "èĮĥ": 762,
      "æĢģ": 763,
      "åįĩ": 764,
      "ç¤¾ä¼ļ": 765,
      "åįķä½į": 766,
      "é¦": 767,
      "æľ¯": 768,
      "å·ŀ": 769,
      "åıĸ": 770,
      "åģļ": 771,
      "åĿļ": 772,
      "å®Į": 773,
      "åİŁ": 774,
      "ä¸ľ": 775,
      "åĮ»": 776,
      "æ£Ģ": 777,
      "åĽĽ": 778,
      "æŀĦ": 779,
      "ç¾¤": 780,
      "åŀ": 781,
      "æģ¯": 782,
      "æŃ£": 783,
      "ç»Ń": 784,
      "æµģ": 785,
      "é¢Ħ": 786,
      "ç¼": 787,
      "æİ¥": 788,
      "ic": 789,
      "åı·": 790,
      "æĥħåĨµ": 791,
      "çģ": 792,
      "ä¼Ĺ": 793,
      "é£İ": 794,
      "ä»İ": 795,
      "èµ·": 796,
      "è¢": 797,
      "æµİ": 798,
      "om": 799,
      "æĪĸ": 800,
      "éĥ¨éĹ¨": 801,
      "äººåĳĺ": 802,
      "ç»ĩ": 803,
      "ħ§": 804,
      "éª": 805,
      "åįı": 806,
      "èģĮ": 807,
      "Ġh": 808,
      "ä»·": 809,
      "as": 810,
      "åĮĹ": 811,
      "éħ": 812,
      "è¦ģæ±Ĥ": 813,
      "å¤ĩ": 814,
      "èĪ": 815,
      "æķĻèĤ²": 816,
      "ä¹¡": 817,
      "ion": 818,
      "è®¤": 819,
      "èĩ³": 820,
      "éĢļè¿ĩ": 821,
      "èī²": 822,
      "æĿĥ": 823,
      "ä¹Ł": 824,
      "å¸¸": 825,
      "éľĢ": 826,
      "éĹ®é¢ĺ": 827,
      "ç»Ħç»ĩ": 828,
      "ç¦": 829,
      "10": 830,
      "é©": 831,
      "ç§į": 832,
      "æľĢ": 833,
      "æīĵ": 834,
      "ç»ıæµİ": 835,
      "åħ·": 836,
      "çŃĸ": 837,
      "æī§": 838,
      "æ¯Ķ": 839,
      "å²": 840,
      "åıĹ": 841,
      "è¢«": 842,
      "ç§¯": 843,
      "èĭ": 844,
      "æ±Ł": 845,
      "çİ¯å¢ĥ": 846,
      "åĬ©": 847,
      "åĪĴ": 848,
      "æ®": 849,
      "å¼ķ": 850,
      "éĺŁ": 851,
      "å¹²": 852,
      "è¥": 853,
      "æİ¨è¿Ľ": 854,
      "å¦Ĥ": 855,
      "çŁ¥": 856,
      "èĬĤ": 857,
      "çĽ¸åħ³": 858,
      "Ġth": 859,
      "åŁŁ": 860,
      "æ»": 861,
      "éķĩ": 862,
      "ä¸Ńå¿ĥ": 863,
      "è¥¿": 864,
      "éĩĩè´Ń": 865,
      "æŀľ": 866,
      "æĪ·": 867,
      "åĽŃ": 868,
      "å½¢": 869,
      "çĥ": 870,
      "ç±»": 871,
      "èĲ½å®ŀ": 872,
      "èŀ": 873,
      "åĸ": 874,
      "æĶ¾": 875,
      "çĦ": 876,
      "ä¿¡æģ¯": 877,
      "è¾¾": 878,
      "èĤ¡": 879,
      "æĮī": 880,
      "èĢģ": 881,
      "çĿĢ": 882,
      "å·²": 883,
      "æĸĩåĮĸ": 884,
      "æ¸¸": 885,
      "æİ§": 886,
      "åı£": 887,
      "il": 888,
      "æł¡": 889,
      "è¯·": 890,
      "æŁ": 891,
      "åįİ": 892,
      "æĬĢæľ¯": 893,
      "èŀį": 894,
      "çĶ±": 895,
      "åĽ½å®¶": 896,
      "Ġn": 897,
      "è½¬": 898,
      "çŁ": 899,
      "äºĶ": 900,
      "çĶŁäº§": 901,
      "å¤į": 902,
      "å¸Ĥåľº": 903,
      "å®£": 904,
      "æ¬¾": 905,
      "è´¨éĩı": 906,
      "æł¸": 907,
      "çħ§": 908,
      "æĹł": 909,
      "ç®Ĺ": 910,
      "èĢĥ": 911,
      "ç¾İ": 912,
      "çĿ£": 913,
      "ä¼ļè®®": 914,
      "åĽ¢": 915,
      "å·¥ç¨ĭ": 916,
      "201": 917,
      "åŀĭ": 918,
      "ä¸¤": 919,
      "âĢĿï¼Į": 920,
      "ä¸ĩåħĥ": 921,
      "æ¶Ī": 922,
      "è¿ĺ": 923,
      "éĻ©": 924,
      "è´Ł": 925,
      "åħĪ": 926,
      "è¯Ħ": 927,
      "æıĲåįĩ": 928,
      "æ¸ħ": 929,
      "æĭĽ": 930,
      "èİ": 931,
      "æľª": 932,
      "æİ¨åĬ¨": 933,
      "æīĭ": 934,
      "ä¾Ŀ": 935,
      "Ġy": 936,
      "åŁ¹": 937,
      "å¸¦": 938,
      "è´£ä»»": 939,
      "æıĲä¾Ľ": 940,
      "éļľ": 941,
      "ä½¿": 942,
      "è¯´": 943,
      "åģ¥": 944,
      "è¯Ĩ": 945,
      "è´¢": 946,
      "æĹ¶éĹ´": 947,
      "æ¹": 948,
      "åĬłå¼º": 949,
      "æ°Ķ": 950,
      "åĪĽæĸ°": 951,
      "å£": 952,
      "å¸ĥ": 953,
      "æİĴ": 954,
      "ent": 955,
      "ä¸¥": 956,
      "ç¾¤ä¼Ĺ": 957,
      "Ġl": 958,
      "éªĮ": 959,
      "æŃ¤": 960,
      "è§ģ": 961,
      "è£": 962,
      "å¿«": 963,
      "éĻħ": 964,
      "éĴ": 965,
      "åħ»": 966,
      "æ¨": 967,
      "æŀģ": 968,
      "ve": 969,
      "ä¸ĢæŃ¥": 970,
      "ro": 971,
      "è§Ħå®ļ": 972,
      "ç«Ļ": 973,
      "æĪĺ": 974,
      "st": 975,
      "Ġe": 976,
      "éĥ½": 977,
      "åĽ´": 978,
      "éĩįè¦ģ": 979,
      "Ġre": 980,
      "æī¹": 981,
      "åĽł": 982,
      "ä¿Ŀéļľ": 983,
      "éĩįçĤ¹": 984,
      "æĹħ": 985,
      "æ²³": 986,
      "æĦŁ": 987,
      "æŀĹ": 988,
      "ç¥ŀ": 989,
      "ä¸¾": 990,
      "æĪ¿": 991,
      "Ġ1": 992,
      "éĩĮ": 993,
      "æĬĬ": 994,
      "èº": 995,
      "èµĦæºĲ": 996,
      "å¾ĭ": 997,
      "ãĢĤâĢĿ": 998,
      "å¸Ī": 999,
      "è®©": 1000,
      "æľīéĻĲ": 1001,
      "å®ŀæĸ½": 1002,
      "åĮħ": 1003,
      "Ġï¼Ī": 1004,
      "æĺĵ": 1005,
      "Ġyou": 1006,
      "åĶ": 1007,
      "æĤ": 1008,
      "æ³¨": 1009,
      "æĶ¿çŃĸ": 1010,
      "èº«": 1011,
      "äº§åĵģ": 1012,
      "æī¿": 1013,
      "æĸĻ": 1014,
      "é»": 1015,
      "ä¹ī": 1016,
      "æĢĿ": 1017,
      "ç½®": 1018,
      "éĢī": 1019,
      "å®¹": 1020,
      "ä»Ĭ": 1021,
      "æĸ¹å¼ı": 1022,
      "çĶŁæĢģ": 1023,
      "æĸĩä»¶": 1024,
      "åħ¨éĿ¢": 1025,
      "æľºæŀĦ": 1026,
      "åŃ¦ä¹ł": 1027,
      "æł¹": 1028,
      "ct": 1029,
      "äº¬": 1030,
      "æ¨¡": 1031,
      "é£Ł": 1032,
      "éĤ": 1033,
      "ä»½": 1034,
      "et": 1035,
      "å±ħ": 1036,
      "è§Ĩ": 1037,
      "å¤´": 1038,
      "12": 1039,
      "æ¢": 1040,
      "Ġg": 1041,
      "æĻº": 1042,
      "å¿Ĺ": 1043,
      "ĠI": 1044,
      "ä¿ĥ": 1045,
      "è¯¥": 1046,
      "çĶ³": 1047,
      "ä¹¦è®°": 1048,
      "è¡ĮæĶ¿": 1049,
      "å®ŀçİ°": 1050,
      "ç§ĳæĬĢ": 1051,
      "è´Łè´£": 1052,
      "æĥ³": 1053,
      "æĪĳä»¬": 1054,
      "è¯ī": 1055,
      "çª": 1056,
      "åº·": 1057,
      "å®£ä¼ł": 1058,
      "åĸĦ": 1059,
      "èµĽ": 1060,
      "æľīéĻĲåħ¬åı¸": 1061,
      "Ġis": 1062,
      "åħ´": 1063,
      "éħį": 1064,
      "2023": 1065,
      "åŁİå¸Ĥ": 1066,
      "çº¦": 1067,
      "èĢĮ": 1068,
      "ly": 1069,
      "ç²¾ç¥ŀ": 1070,
      "å±Ĥ": 1071,
      "å¹³åı°": 1072,
      "åıĺ": 1073,
      "æĸŃ": 1074,
      "çĽĬ": 1075,
      "åĽŀ": 1076,
      "èİ·": 1077,
      "çľŁ": 1078,
      "ä½ı": 1079,
      "è¿Ľä¸ĢæŃ¥": 1080,
      "åħħ": 1081,
      "ç§¯æŀģ": 1082,
      "ç©¶": 1083,
      "çĪ": 1084,
      "è¿Ŀ": 1085,
      "æīį": 1086,
      "ur": 1087,
      "æ¯ı": 1088,
      "è®²": 1089,
      "æµĭ": 1090,
      "éĿĴ": 1091,
      "çľĭ": 1092,
      "çĦ¶": 1093,
      "æİª": 1094,
      "çĹ": 1095,
      "ç§°": 1096,
      "åĵį": 1097,
      "åī¯": 1098,
      "åĬ¿": 1099,
      "æĬĵ": 1100,
      "çİĩ": 1101,
      "è®Ń": 1102,
      "ĠT": 1103,
      "å¯Ł": 1104,
      "è§Ĥ": 1105,
      "è±": 1106,
      "30": 1107,
      "æĴ": 1108,
      "âĢĶ": 1109,
      "åıį": 1110,
      "è¡¥": 1111,
      "éĿ©": 1112,
      "å°ĳ": 1113,
      "å½±": 1114,
      "çı": 1115,
      "åħ³äºİ": 1116,
      "Ġbe": 1117,
      "æ¼": 1118,
      "æĭħ": 1119,
      "æĬķæłĩ": 1120,
      "Ġfor": 1121,
      "åŃĹ": 1122,
      "çĽ´": 1123,
      "åĪ«": 1124,
      "å®¢": 1125,
      "èµĦéĩĳ": 1126,
      "âĢĻ": 1127,
      "åĨĽ": 1128,
      "ç»´": 1129,
      "ut": 1130,
      "æłĩåĩĨ": 1131,
      "ot": 1132,
      "ä¿ĿæĬ¤": 1133,
      "çĸ«": 1134,
      "åŃĺ": 1135,
      "æĮģç»Ń": 1136,
      "åĳ¨": 1137,
      "æĬķèµĦ": 1138,
      "å®¤": 1139,
      "è¯ķ": 1140,
      "11": 1141,
      "çłĶç©¶": 1142,
      "ç³»ç»Ł": 1143,
      "é¢Ŀ": 1144,
      "åĪĹ": 1145,
      "æĸ¹éĿ¢": 1146,
      "Ġon": 1147,
      "é¢Ĩå¯¼": 1148,
      "åĭ": 1149,
      "äº¿": 1150,
      "éĶĢ": 1151,
      "å®ĮæĪĲ": 1152,
      "èĦ": 1153,
      "åĪĩ": 1154,
      "èĥ½åĬĽ": 1155,
      "å¼ł": 1156,
      "è¶³": 1157,
      "id": 1158,
      "éĿŀ": 1159,
      "æ»¡": 1160,
      "çĶŁæ´»": 1161,
      "ç»Ļ": 1162,
      "éĺ³": 1163,
      "é¾": 1164,
      "çº¢": 1165,
      "è¯Ŀ": 1166,
      "ä¸»è¦ģ": 1167,
      "åĲĮæĹ¶": 1168,
      "åĢ¼": 1169,
      "ĠS": 1170,
      "âĢĿãĢĤ": 1171,
      "èµ°": 1172,
      "ce": 1173,
      "ä¾ĭ": 1174,
      "è¶ħ": 1175,
      "éļ¾": 1176,
      "é¦ĸ": 1177,
      "åĿļæĮģ": 1178,
      "æĻ¯": 1179,
      "çºª": 1180,
      "æıĲé«ĺ": 1181,
      "ĠC": 1182,
      "ay": 1183,
      "ç»ıèĲ¥": 1184,
      "æļ": 1185,
      "ow": 1186,
      "ä½Ļ": 1187,
      "è£ħ": 1188,
      "æĢ¥": 1189,
      "ç¬¬ä¸Ģ": 1190,
      "èŃ": 1191,
      "èŃ¦": 1192,
      "ä»£è¡¨": 1193,
      "å¹²éĥ¨": 1194,
      "åĲĪä½ľ": 1195,
      "ç»¼": 1196,
      "æ®µ": 1197,
      "åľŁ": 1198,
      "ch": 1199,
      "çĽĳçĿ£": 1200,
      "æĮ¥": 1201,
      "ol": 1202,
      "è¡Ĺ": 1203,
      "è®º": 1204,
      "æľīåħ³": 1205,
      "èģļ": 1206,
      "ä½ľä¸º": 1207,
      "æ·±åħ¥": 1208,
      "çĬ": 1209,
      "us": 1210,
      "çĸĹ": 1211,
      "ĠA": 1212,
      "åħ¶ä»ĸ": 1213,
      "èį¯": 1214,
      "im": 1215,
      "çİ°åľº": 1216,
      "ç»¿": 1217,
      "éĢŁ": 1218,
      "æĳ": 1219,
      "åį«": 1220,
      "åħŃ": 1221,
      "æĶ¯æĮģ": 1222,
      "ç¤¾åĮº": 1223,
      "æĿĲ": 1224,
      "äºī": 1225,
      "åıĮ": 1226,
      "åİĨ": 1227,
      "æĻ®": 1228,
      "ä¸Ģä¸ª": 1229,
      "åĬŁ": 1230,
      "éĢģ": 1231,
      "åħī": 1232,
      "çĻ¾": 1233,
      "ä¸įæĸŃ": 1234,
      "åŁºç¡": 1235,
      "åĨħå®¹": 1236,
      "ç¨³": 1237,
      "ra": 1238,
      "åŁºç¡Ģ": 1239,
      "åħ¨åĽ½": 1240,
      "åģļå¥½": 1241,
      "ç©º": 1242,
      "æł¹æį®": 1243,
      "è´¯": 1244,
      "åĶ®": 1245,
      "ç¨İ": 1246,
      "ç»Ĩ": 1247,
      "æĮīçħ§": 1248,
      "ith": 1249,
      "çīĮ": 1250,
      "èĳ": 1251,
      "ĠâĢľ": 1252,
      "è±¡": 1253,
      "ç»¼åĲĪ": 1254,
      "åĨľä¸ļ": 1255,
      "åĪĻ": 1256,
      "è¡ĮåĬ¨": 1257,
      "ig": 1258,
      "æĹħæ¸¸": 1259,
      "æ¹ĸ": 1260,
      "ver": 1261,
      "åģ¥åº·": 1262,
      "ä¿®": 1263,
      "çĥŃ": 1264,
      "åĪ¶åº¦": 1265,
      "åºı": 1266,
      "çķĮ": 1267,
      "çĽĳç®¡": 1268,
      "ç¦ı": 1269,
      "ä½¿çĶ¨": 1270,
      "æľºåĪ¶": 1271,
      "ll": 1272,
      "åŁ¹è®Ń": 1273,
      "éĻ¤": 1274,
      "åħ¬åħ±": 1275,
      "åıĤåĬł": 1276,
      "çªģ": 1277,
      "éĵ¶": 1278,
      "15": 1279,
      "æł·": 1280,
      "åı²": 1281,
      "åİ»": 1282,
      "çĲĥ": 1283,
      "æķ°æį®": 1284,
      "é¢Ħç®Ĺ": 1285,
      "æ£ĢæŁ¥": 1286,
      "åĮĹäº¬": 1287,
      "è¡Įä¸ļ": 1288,
      "ation": 1289,
      "åĳ½": 1290,
      "ç´§": 1291,
      "ä»¥ä¸Ĭ": 1292,
      "é¾Ļ": 1293,
      "åħ¨å¸Ĥ": 1294,
      "æ¶Īè´¹": 1295,
      "åĩı": 1296,
      "è´«": 1297,
      "å±ŀ": 1298,
      "å±Ĭ": 1299,
      "æİªæĸ½": 1300,
      "Ġst": 1301,
      "æĶ¹éĿ©": 1302,
      "çĹħ": 1303,
      "æī§è¡Į": 1304,
      "ä½İ": 1305,
      "äºĴ": 1306,
      "èĬ±": 1307,
      "å½ķ": 1308,
      "å¢ŀéķ¿": 1309,
      "Ġthat": 1310,
      "ç¡®ä¿Ŀ": 1311,
      "èĩ´": 1312,
      "æľīæķĪ": 1313,
      "çĮ": 1314,
      "äº¤éĢļ": 1315,
      "Ġwith": 1316,
      "é«ĺè´¨éĩı": 1317,
      "åĿĩ": 1318,
      "äºĪ": 1319,
      "å¼ºåĮĸ": 1320,
      "ä½Ĩ": 1321,
      "è¡¨ç¤º": 1322,
      "äº¤æĺĵ": 1323,
      "å½»": 1324,
      "æĶ¯åĩº": 1325,
      "æīĺ": 1326,
      "åĽ¾": 1327,
      "Ġ2": 1328,
      "æ³ķå¾ĭ": 1329,
      "çĻ»": 1330,
      "çİĭ": 1331,
      "å¤®": 1332,
      "19": 1333,
      "èĻ": 1334,
      "æĺ¥": 1335,
      "ä½ĵç³»": 1336,
      "æĭĽæłĩ": 1337,
      "çıŃ": 1338,
      "ä¸ĸ": 1339,
      "çī¹èī²": 1340,
      "æĺ¾": 1341,
      "ç±³": 1342,
      "è¾ĥ": 1343,
      "è§ĦåĪĴ": 1344,
      "äº¿åħĥ": 1345,
      "é¥": 1346,
      "ä¸ĵä¸ļ": 1347,
      "åħ¬åĳĬ": 1348,
      "ç»ĵåĲĪ": 1349,
      "å»ºç«ĭ": 1350,
      "am": 1351,
      "æīĵéĢł": 1352,
      "åĨľæĿĳ": 1353,
      "åĨį": 1354,
      "åĦ": 1355,
      "ad": 1356,
      "éĩįå¤§": 1357,
      "æŃ¢": 1358,
      "ç¥¨": 1359,
      "è¿ĳå¹³": 1360,
      "ä¹łè¿ĳå¹³": 1361,
      "çĶ³è¯·": 1362,
      "ä»ĺ": 1363,
      "æķħ": 1364,
      "äººæīį": 1365,
      "è´¢æĶ¿": 1366,
      "ä»Ĭå¹´": 1367,
      "æ²»çĲĨ": 1368,
      "å¡": 1369,
      "è¡Įä¸º": 1370,
      "ä¹¡æĿĳ": 1371,
      "é¢ĨåŁŁ": 1372,
      "æľºåħ³": 1373,
      "æ°´å¹³": 1374,
      "ä»¥åıĬ": 1375,
      "ä¾ĽåºĶ": 1376,
      "æĮĩå¯¼": 1377,
      "åĻ": 1378,
      "åıĳå¸ĥ": 1379,
      "å¯Į": 1380,
      "èī¯": 1381,
      "è¾¹": 1382,
      "ä¸ļåĬ¡": 1383,
      "æıĲåĩº": 1384,
      "éĻį": 1385,
      "ç¼ĸ": 1386,
      "ç«ł": 1387,
      "ĭç»": 1388,
      "è´¯å½»": 1389,
      "ir": 1390,
      "äºĳ": 1391,
      "æĹ¶ä»£": 1392,
      "æĬ¥åĳĬ": 1393,
      "Ġit": 1394,
      "çĪ±": 1395,
      "ä»»åĬ¡": 1396,
      "è®¾æĸ½": 1397,
      "çĭ": 1398,
      "åĪĿ": 1399,
      "åıĤä¸İ": 1400,
      "ä¿ĥè¿Ľ": 1401,
      "æ²¡": 1402,
      "çģ«": 1403,
      "2022": 1404,
      "åĦ¿": 1405,
      "æĹı": 1406,
      "ä¹Ĳ": 1407,
      "çº³": 1408,
      "um": 1409,
      "ç½ļ": 1410,
      "æ¥": 1411,
      "åı¯ä»¥": 1412,
      "åĽ½éĻħ": 1413,
      "ç¬¬äºĮ": 1414,
      "ç½²": 1415,
      "çĸ«æĥħ": 1416,
      "å®ĮåĸĦ": 1417,
      "2024": 1418,
      "è§ĦèĮĥ": 1419,
      "æĢĿæĥ³": 1420,
      "å½±åĵį": 1421,
      "åł": 1422,
      "å¸®": 1423,
      "se": 1424,
      "äºĽ": 1425,
      "åħ¶ä¸Ń": 1426,
      "æķĳ": 1427,
      "è§£åĨ³": 1428,
      "åŁºæľ¬": 1429,
      "åĬłå¿«": 1430,
      "å¾·": 1431,
      "ĠM": 1432,
      "èīº": 1433,
      "åĮ»çĸĹ": 1434,
      "æĲ": 1435,
      "åİħ": 1436,
      "åºķ": 1437,
      "åıĬæĹ¶": 1438,
      "çŃ¾": 1439,
      "2020": 1440,
      "åĪ¤": 1441,
      "å¿ħ": 1442,
      "åºŃ": 1443,
      "æĦıè§ģ": 1444,
      "æŁĲ": 1445,
      "å¯Ĩ": 1446,
      "å¸Ń": 1447,
      "åı¬": 1448,
      "éľĢæ±Ĥ": 1449,
      "åį°": 1450,
      "æī§æ³ķ": 1451,
      "å¤±": 1452,
      "èģĶåĲĪ": 1453,
      "å§Ķåĳĺ": 1454,
      "çŃĳ": 1455,
      "åŃ¦çĶŁ": 1456,
      "æĶ¿æ²»": 1457,
      "åıĳæĮ¥": 1458,
      "åºĶæĢ¥": 1459,
      "éŁ": 1460,
      "çĽ®æłĩ": 1461,
      "åŃ¦æł¡": 1462,
      "åħ¬å¼Ģ": 1463,
      "ä¸Ńåįİ": 1464,
      "èģĶç³»": 1465,
      "æ½": 1466,
      "é»Ħ": 1467,
      "âĢ¦": 1468,
      "å¹´åº¦": 1469,
      "åħħåĪĨ": 1470,
      "çīĩ": 1471,
      "çĽ®åīį": 1472,
      "000": 1473,
      "è¿ŀ": 1474,
      "ç¢": 1475,
      "è¯¢": 1476,
      "åĲĪåĲĮ": 1477,
      "å®Ī": 1478,
      "éļı": 1479,
      "æĸ¹æ¡Ī": 1480,
      "åĻ¨": 1481,
      "æ¸©": 1482,
      "ä¸Ńå¤®": 1483,
      "ä¾¿": 1484,
      "æĸĩæĺİ": 1485,
      "é©¬": 1486,
      "åĽ°": 1487,
      "ä¸»é¢ĺ": 1488,
      "ç§ĳåŃ¦": 1489,
      "é£İéĻ©": 1490,
      "Ġan": 1491,
      "æĦ¿": 1492,
      "æī¶": 1493,
      "çģ¾": 1494,
      "æ¼Ķ": 1495,
      "è®¡åĪĴ": 1496,
      "ç´ł": 1497,
      "äº«": 1498,
      "ill": 1499,
      "æĿİ": 1500,
      "ç»ľ": 1501,
      "æ¤": 1502,
      "åºĨ": 1503,
      "Ġwe": 1504,
      "ä¾Ŀæ³ķ": 1505,
      "è¯¾": 1506,
      "å¿µ": 1507,
      "æĶ¿åºľéĩĩè´Ń": 1508,
      "å®ŀéĻħ": 1509,
      "åĬ±": 1510,
      "ter": 1511,
      "éĩĳèŀį": 1512,
      "2021": 1513,
      "âĢĿâĢľ": 1514,
      "æķ°åŃĹ": 1515,
      "å·¥ä¸ļ": 1516,
      "è®¿": 1517,
      "è·µ": 1518,
      "è´§": 1519,
      "æ¿": 1520,
      "æ¶ī": 1521,
      "å¾®": 1522,
      "æĪĸèĢħ": 1523,
      "å¥ĸ": 1524,
      "èĭı": 1525,
      "è¶Ĭ": 1526,
      "Ġpro": 1527,
      "äºĨè§£": 1528,
      "å®³": 1529,
      "ç»©": 1530,
      "ä½ľçĶ¨": 1531,
      "éĢĤ": 1532,
      "åįł": 1533,
      "ĠP": 1534,
      "è®¸": 1535,
      "te": 1536,
      "æ¸¯": 1537,
      "æľ¬æ¬¡": 1538,
      "Ġas": 1539,
      "éĥ¨åĪĨ": 1540,
      "åį³": 1541,
      "è¿°": 1542,
      "ï¼ĮâĢľ": 1543,
      "æ±¡": 1544,
      "å¾ģ": 1545,
      "éĺ²æİ§": 1546,
      "åľ°åĮº": 1547,
      "å±¥": 1548,
      "å¾Ī": 1549,
      "èı": 1550,
      "ä½ķ": 1551,
      "é«ĺè´¨éĩıåıĳå±ķ": 1552,
      "ĠB": 1553,
      "çŁ³": 1554,
      "é¦Ĩ": 1555,
      "Ġare": 1556,
      "her": 1557,
      "æĶ¶åħ¥": 1558,
      "14": 1559,
      "å¥³": 1560,
      "æĪª": 1561,
      "ä¸´": 1562,
      "å®ģ": 1563,
      "æĿĲæĸĻ": 1564,
      "å°±ä¸ļ": 1565,
      "éĵ¾": 1566,
      "è¿Ŀæ³ķ": 1567,
      "çļĦéĩįè¦ģ": 1568,
      "åħ±åĲĮ": 1569,
      "è´Łè´£äºº": 1570,
      "ä¸°": 1571,
      "æĪĲä¸º": 1572,
      "é¡»": 1573,
      "åħ«": 1574,
      "å¸Ĥå§Ķ": 1575,
      "åħļåĳĺ": 1576,
      "çķ¥": 1577,
      "Ġwh": 1578,
      "åģľ": 1579,
      "ç»§": 1580,
      "ä¸ĵé¡¹": 1581,
      "æĻºèĥ½": 1582,
      "un": 1583,
      "Ġ3": 1584,
      "åįĪ": 1585,
      "æ¿Ģ": 1586,
      "è¢«åĳĬ": 1587,
      "è¾ĵ": 1588,
      "å½¢æĪĲ": 1589,
      "çİ°ä»£": 1590,
      "éĥ¨ç½²": 1591,
      "åı¬å¼Ģ": 1592,
      "ers": 1593,
      "ä¸ĥ": 1594,
      "åĮºåŁŁ": 1595,
      "18": 1596,
      "çĽĸ": 1597,
      "åĬŀçĲĨ": 1598,
      "éľĢè¦ģ": 1599,
      "ç´¢": 1600,
      "è®¾å¤ĩ": 1601,
      "13": 1602,
      "16": 1603,
      "ç«ŀ": 1604,
      "æĿ¡ä»¶": 1605,
      "if": 1606,
      "æĴŃ": 1607,
      "äºĭä¸ļ": 1608,
      "æ¥¼": 1609,
      "50": 1610,
      "Ġha": 1611,
      "æĮ¯": 1612,
      "ç½ĳç»ľ": 1613,
      "çł´": 1614,
      "åĪĩå®ŀ": 1615,
      "ge": 1616,
      "åĤ": 1617,
      "ke": 1618,
      "åħ·æľī": 1619,
      "åı¤": 1620,
      "æľŁéĹ´": 1621,
      "åŃ£": 1622,
      "å¼Ģåıĳ": 1623,
      "ul": 1624,
      "éĽĨåĽ¢": 1625,
      "åħļçļĦ": 1626,
      "éĢĢ": 1627,
      "èĪª": 1628,
      "å£«": 1629,
      "å·±": 1630,
      "åį«çĶŁ": 1631,
      "è®°èĢħ": 1632,
      "åŃĺåľ¨": 1633,
      "åºĵ": 1634,
      "æłĳ": 1635,
      "è¿ĩç¨ĭ": 1636,
      "åŁºå±Ĥ": 1637,
      "èµĦæł¼": 1638,
      "æĤ£": 1639,
      "%ï¼Į": 1640,
      "å²Ĺ": 1641,
      "æķ´æĶ¹": 1642,
      "éĵ¶è¡Į": 1643,
      "Ġor": 1644,
      "å¤ĦçĲĨ": 1645,
      "åĪ©çĶ¨": 1646,
      "åĬ³": 1647,
      "ç¤ºèĮĥ": 1648,
      "Ġcon": 1649,
      "ä»¥æĿ¥": 1650,
      "çĻ½": 1651,
      "%ãĢĤ": 1652,
      "äº¤æµģ": 1653,
      "åº§": 1654,
      "çŁ¥è¯Ĩ": 1655,
      "è°Ī": 1656,
      "åįļ": 1657,
      "æľĽ": 1658,
      "pp": 1659,
      "å±ħæ°ĳ": 1660,
      "æŃ¦": 1661,
      "ç¦»": 1662,
      "ç»ķ": 1663,
      "åĬŀåħ¬": 1664,
      "éĵģ": 1665,
      "è½½": 1666,
      "çĶµåŃĲ": 1667,
      "åİĭ": 1668,
      "åıĳçİ°": 1669,
      "çĬ¶": 1670,
      "çĮ®": 1671,
      "ä¼ĺåĮĸ": 1672,
      "éĢļçŁ¥": 1673,
      "ä¸»ä½ĵ": 1674,
      "ess": 1675,
      "è®¢": 1676,
      "ä¸»ä¹ī": 1677,
      "åĵģçīĮ": 1678,
      "éĻĪ": 1679,
      "åºĶå½ĵ": 1680,
      "ä»¥ä¸ĭ": 1681,
      "åĲ¯": 1682,
      "æ¤į": 1683,
      "åıĳçĶŁ": 1684,
      "Ġ(": 1685,
      "one": 1686,
      "åĽº": 1687,
      "èħ": 1688,
      "ç§»": 1689,
      "ä¹Ŀ": 1690,
      "åİĨåı²": 1691,
      "17": 1692,
      "åºĹ": 1693,
      "ä¸¥æł¼": 1694,
      "å·ŀå¸Ĥ": 1695,
      "å¾ħ": 1696,
      "æ²¡æľī": 1697,
      "å·¡": 1698,
      "ä¸ĸçķĮ": 1699,
      "èĩªå·±": 1700,
      "æ±ĩ": 1701,
      "ä¾ĽåºĶåķĨ": 1702,
      "ä¿ĿéĻ©": 1703,
      "ĠW": 1704,
      "æİ¢": 1705,
      "ç®Ģ": 1706,
      "åıª": 1707,
      "oo": 1708,
      "æĵ": 1709,
      "å¾Ģ": 1710,
      "å·Ŀ": 1711,
      "ç¬¦": 1712,
      "çŃ¹": 1713,
      "æŁĵ": 1714,
      "åİŁåĳĬ": 1715,
      "æĥł": 1716,
      "Ġcom": 1717,
      "è®¾è®¡": 1718,
      "åħ·ä½ĵ": 1719,
      "24": 1720,
      "æĪĲæŀľ": 1721,
      "å³": 1722,
      "çĻ»è®°": 1723,
      "å¨": 1724,
      "ate": 1725,
      "çĶ°": 1726,
      "è¾Ĩ": 1727,
      "é£Łåĵģ": 1728,
      "ï¼Ł": 1729,
      "æĶ»": 1730,
      "æĿ¿": 1731,
      "äºļ": 1732,
      "æķ´æ²»": 1733,
      "åĲ¬": 1734,
      "çī¢": 1735,
      "Ġhe": 1736,
      "ä»ĸä»¬": 1737,
      "å¢ŀå¼º": 1738,
      "æİĪ": 1739,
      "ĠĊ": 1740,
      "è´¸": 1741,
      "100": 1742,
      "å£°": 1743,
      "äºĭé¡¹": 1744,
      "æĸ°æĹ¶ä»£": 1745,
      "åĪ¸": 1746,
      "åĽ´ç»ķ": 1747,
      "è¡Ĺéģĵ": 1748,
      "åħĭ": 1749,
      "éĴĪ": 1750,
      "æĪĳå¸Ĥ": 1751,
      "200": 1752,
      "Ġyour": 1753,
      "åĲĦé¡¹": 1754,
      "ä¼ĺåĬ¿": 1755,
      "ç»¿èī²": 1756,
      "å·¥ä½ľçļĦ": 1757,
      "çº·": 1758,
      "è¿ľ": 1759,
      "åŁºåľ°": 1760,
      "æħ": 1761,
      "ld": 1762,
      "ab": 1763,
      "æ±½": 1764,
      "å¢ŀåĬł": 1765,
      "ä»ħ": 1766,
      "æĸ½å·¥": 1767,
      "èĮĥåĽ´": 1768,
      "å¥Ĺ": 1769,
      "å»ºçŃĳ": 1770,
      "Ġde": 1771,
      "Ġat": 1772,
      "ck": 1773,
      "æĢ»ä¹¦è®°": 1774,
      "ä»ĭç»": 1775,
      "èĳ£": 1776,
      "ä»ĭç»į": 1777,
      "ber": 1778,
      "åıĭ": 1779,
      "åģĩ": 1780,
      "æĭī": 1781,
      "æ¨¡å¼ı": 1782,
      "æ²¹": 1783,
      "æĪĺçķ¥": 1784,
      "è´·": 1785,
      "èĩªçĦ¶": 1786,
      "æĦıè¯Ĩ": 1787,
      "åıĸå¾Ĺ": 1788,
      "çĭ¬": 1789,
      "éĽĨä¸Ń": 1790,
      "åĬĽéĩı": 1791,
      "Ġmo": 1792,
      "2019": 1793,
      "ĠH": 1794,
      "èįī": 1795,
      "æĭ¬": 1796,
      "å®īæİĴ": 1797,
      "ĠThe": 1798,
      "æ¡¥": 1799,
      "25": 1800,
      "è¯»": 1801,
      "é¼": 1802,
      "èĤ¡ä»½": 1803,
      "å¤§ä¼ļ": 1804,
      "æĺİç¡®": 1805,
      "ri": 1806,
      "åħį": 1807,
      "ĠF": 1808,
      "è¨": 1809,
      "ç«¯": 1810,
      "è¨Ģ": 1811,
      "äººçļĦ": 1812,
      "çķĻ": 1813,
      "è®¤çľŁ": 1814,
      "ä¸Ĭæµ·": 1815,
      "å®ŀè·µ": 1816,
      "åºĶçĶ¨": 1817,
      "åħ¨çľģ": 1818,
      "æįŁ": 1819,
      "est": 1820,
      "æ³ķéĻ¢": 1821,
      "ç¼´": 1822,
      "æī©": 1823,
      "ç¬¦åĲĪ": 1824,
      "Ġse": 1825,
      "åĲ¦": 1826,
      "åĪ¶å®ļ": 1827,
      "åĮħæĭ¬": 1828,
      "rom": 1829,
      "ç¬¬ä¸ī": 1830,
      "å¤Ħç½ļ": 1831,
      "èĥ½æºĲ": 1832,
      "ç»Ī": 1833,
      "ĠD": 1834,
      "å¼ķå¯¼": 1835,
      "åįĬ": 1836,
      "å¹´æĿ¥": 1837,
      "æĮ¯åħ´": 1838,
      "å»ºè®®": 1839,
      "å¤§åŃ¦": 1840,
      "Ġex": 1841,
      "ç§Ģ": 1842,
      "pe": 1843,
      "ç»§ç»Ń": 1844,
      "å°Ķ": 1845,
      "è¿Ĳè¡Į": 1846,
      "åĮ»éĻ¢": 1847,
      "åŁºéĩĳ": 1848,
      "ä¹°": 1849,
      "Ġne": 1850,
      "ä»·æł¼": 1851,
      "å°½": 1852,
      "èŀįåĲĪ": 1853,
      "åĪĺ": 1854,
      "éĶĢåĶ®": 1855,
      "è°ĥçłĶ": 1856,
      "æĶ¹éĢł": 1857,
      "ment": 1858,
      "ä¸»ä»»": 1859,
      "åĬłå¤§": 1860,
      "åİĤ": 1861,
      "å§Ķä¼ļ": 1862,
      "ä¼į": 1863,
      "ä½ĵèĤ²": 1864,
      "åĴĮåĽ½": 1865,
      "é²": 1866,
      "å§ĭ": 1867,
      "é¢ĳ": 1868,
      "ist": 1869,
      "å®īåħ¨çĶŁäº§": 1870,
      "ç»Łä¸Ģ": 1871,
      "åĲ«": 1872,
      "åıĪ": 1873,
      "ç»´æĬ¤": 1874,
      "æĸ¯": 1875,
      "ä¹Ī": 1876,
      "åĬŀæ³ķ": 1877,
      "éģĹ": 1878,
      "ort": 1879,
      "igh": 1880,
      "å®ľ": 1881,
      "åįĥ": 1882,
      "ãĢĤâĢľ": 1883,
      "Â·": 1884,
      "åª": 1885,
      "è§Ħæ¨¡": 1886,
      "å±¥è¡Į": 1887,
      "ure": 1888,
      "åĨĮ": 1889,
      "æ¦": 1890,
      "qu": 1891,
      "éģĩ": 1892,
      "è´¦": 1893,
      "ãĢĭï¼Į": 1894,
      "ï¼īï¼Į": 1895,
      "å½¢å¼ı": 1896,
      "å¥ĭ": 1897,
      "å¿ĹæĦ¿": 1898,
      "çĦ¦": 1899,
      "èĳ£äºĭ": 1900,
      "æ·±åĮĸ": 1901,
      "ç²®": 1902,
      "è¯¦": 1903,
      "ä¼łç»Ł": 1904,
      "ĠR": 1905,
      "æī¬": 1906,
      "ä¸ªäºº": 1907,
      "çĶŁæĢģçİ¯å¢ĥ": 1908,
      "ä¹łè¿ĳå¹³æĢ»ä¹¦è®°": 1909,
      "ä¸Ķ": 1910,
      "éĻĦ": 1911,
      "ity": 1912,
      "æŀĲ": 1913,
      "èī¯å¥½": 1914,
      "éĽ¨": 1915,
      "åį¡": 1916,
      "åĤ¨": 1917,
      "äº²": 1918,
      "ph": 1919,
      "æ¡Īä»¶": 1920,
      "åĬĽåº¦": 1921,
      "çļĦä¸Ģ": 1922,
      "ç»ĵæŀľ": 1923,
      "è°ĥæŁ¥": 1924,
      "Ġv": 1925,
      "éļĲ": 1926,
      "èĦ±": 1927,
      "åħ¬å®ī": 1928,
      "éĢĲ": 1929,
      "å¼ºè°ĥ": 1930,
      "å§Ķåĳĺä¼ļ": 1931,
      "åħ±åĴĮåĽ½": 1932,
      "è¿Ĳè¾ĵ": 1933,
      "æ´¾": 1934,
      "å®ĺ": 1935,
      "æĽ´å¤ļ": 1936,
      "ä¿¡çĶ¨": 1937,
      "ä»£çĲĨ": 1938,
      "åĢŁ": 1939,
      "ç¨³å®ļ": 1940,
      "å¼Ĥ": 1941,
      "åĪ»": 1942,
      "ä½ł": 1943,
      "Ġåľ¨": 1944,
      "em": 1945,
      "æ±½è½¦": 1946,
      "Ġhave": 1947,
      "26": 1948,
      "Ġcan": 1949,
      "ä¸Ńåįİäººæ°ĳ": 1950,
      "ant": 1951,
      "âĢĿãĢģ": 1952,
      "èĩªæ²»": 1953,
      "ä¸Ńåįİäººæ°ĳåħ±åĴĮåĽ½": 1954,
      "åĲĦç±»": 1955,
      "å®¶åºŃ": 1956,
      "å½©": 1957,
      "æ±ī": 1958,
      "éĴĪå¯¹": 1959,
      "Ġä¸Ģ": 1960,
      "æ²Ļ": 1961,
      "åĬª": 1962,
      "é¡º": 1963,
      "¤Ĳ": 1964,
      "æĪĲåĳĺ": 1965,
      "åįıè°ĥ": 1966,
      "âĢĺ": 1967,
      "åĪĽä¸ļ": 1968,
      "è¯ģæĺİ": 1969,
      "å»¶": 1970,
      "åªĴ": 1971,
      "é¸": 1972,
      "èį£": 1973,
      "èıľ": 1974,
      "è´µ": 1975,
      "éĽ¶": 1976,
      "Ġ0": 1977,
      "æĸĹ": 1978,
      "23": 1979,
      "å·²ç»ı": 1980,
      "åħļå§Ķ": 1981,
      "æĪĲç«ĭ": 1982,
      "æĺŁ": 1983,
      "é¤Ĳ": 1984,
      "ä¸ĵå®¶": 1985,
      "éĺ¶": 1986,
      "æĹ¥èµ·": 1987,
      "äººæ°ĳæĶ¿åºľ": 1988,
      "âĢĶâĢĶ": 1989,
      "ĠL": 1990,
      "åħ³ç³»": 1991,
      "art": 1992,
      "ãĢĭï¼Ī": 1993,
      "Ġ4": 1994,
      "ç§Ł": 1995,
      "ust": 1996,
      "çŁŃ": 1997,
      "æį¢": 1998,
      "çĽĳæµĭ": 1999,
      "åĪ¶éĢł": 2000,
      "åĩ»": 2001,
      "ive": 2002,
      "ain": 2003,
      "ä¸ŃçļĦ": 2004,
      "åį±": 2005,
      "åĬªåĬĽ": 2006,
      "éģĵè·¯": 2007,
      "è¾¾åĪ°": 2008,
      "éĺŁä¼į": 2009,
      "çĸ«æĥħéĺ²æİ§": 2010,
      "åľ°æĸ¹": 2011,
      "é¦Ļ": 2012,
      "åĨĻ": 2013,
      "è§Ĵ": 2014,
      "28": 2015,
      "çłģ": 2016,
      "åģ¿": 2017,
      "ä¸»åĬ¨": 2018,
      "æĹ©": 2019,
      "å¤§å®¶": 2020,
      "æħ§": 2021,
      "Ġfrom": 2022,
      "åĨ³å®ļ": 2023,
      "æ³ķæ²»": 2024,
      "è½»": 2025,
      "éĶ®": 2026,
      "åĲįç§°": 2027,
      "ä»¤": 2028,
      "æ°ĳæĹı": 2029,
      "Ġthis": 2030,
      "åĬŁèĥ½": 2031,
      "åĢº": 2032,
      "åĬ³åĬ¨": 2033,
      "ĠG": 2034,
      "èģĺ": 2035,
      "å¹¿å¤§": 2036,
      "åħ¨åĬĽ": 2037,
      "è®¼": 2038,
      "ä¸Ńå°ı": 2039,
      "éĩĩåıĸ": 2040,
      "Ġus": 2041,
      "ç´¯": 2042,
      "è´´": 2043,
      "è¿Ľè¡ĮäºĨ": 2044,
      "æł¸å¿ĥ": 2045,
      "çĸ¾": 2046,
      "èĮ¶": 2047,
      "è´¡": 2048,
      "è§ī": 2049,
      "è¯īè®¼": 2050,
      "æı´": 2051,
      "op": 2052,
      "èģĮå·¥": 2053,
      "æĶ¯ä»ĺ": 2054,
      "èİ·å¾Ĺ": 2055,
      "çĵ": 2056,
      "åĿĢ": 2057,
      "çŃĶ": 2058,
      "æľªæĿ¥": 2059,
      "é¼ĵ": 2060,
      "éŁ³": 2061,
      "ä¸¾åĬŀ": 2062,
      "åĺ": 2063,
      "æĭŁ": 2064,
      "è¿İ": 2065,
      "æĽ´åĬł": 2066,
      "60": 2067,
      "th": 2068,
      "Ġwas": 2069,
      "åŃ©": 2070,
      "å°±æĺ¯": 2071,
      "å¥¹": 2072,
      "æ³ķè§Ħ": 2073,
      "å¼ĢæĶ¾": 2074,
      "èµĦäº§": 2075,
      "ç£": 2076,
      "ĠE": 2077,
      "ï¼īãĢĤ": 2078,
      "åĪĨæŀĲ": 2079,
      "é»ĳ": 2080,
      "éĢĴ": 2081,
      "åģļåĪ°": 2082,
      "ç½ª": 2083,
      "æŃ¤æ¬¡": 2084,
      "Ġal": 2085,
      "å®¡è®¡": 2086,
      "Ġr": 2087,
      "åĪĨåĪ«": 2088,
      "æĶ»åĿļ": 2089,
      "ç»ĥ": 2090,
      "ç³»åĪĹ": 2091,
      "åħ¸": 2092,
      "åıĳå±ķçļĦ": 2093,
      "ç»ŁçŃ¹": 2094,
      "åĲ¸": 2095,
      "æľ¬é¡¹çĽ®": 2096,
      "æĭĵ": 2097,
      "èĵ": 2098,
      "Ġch": 2099,
      "çĶµè¯Ŀ": 2100,
      "äºĭæķħ": 2101,
      "èĭ±": 2102,
      "Ġwill": 2103,
      "çªģåĩº": 2104,
      "åĢĻ": 2105,
      "éħĴ": 2106,
      "ä¸½": 2107,
      "40": 2108,
      "Ġsh": 2109,
      "æŀĦå»º": 2110,
      "Ġnum": 2111,
      "éĽª": 2112,
      "æ°¸": 2113,
      "åĲĮæ¯Ķ": 2114,
      "æī¿æĭħ": 2115,
      "çĩ": 2116,
      "åĩł": 2117,
      "æ¯Ĵ": 2118,
      "èĢĥæł¸": 2119,
      "æıĲäº¤": 2120,
      "Ġnot": 2121,
      "ï¼ģ": 2122,
      "åħ³éĶ®": 2123,
      "å®Ŀ": 2124,
      "æ®ĭ": 2125,
      "el": 2126,
      "æı¡": 2127,
      "ä¿Ŀè¯ģ": 2128,
      "ç«¥": 2129,
      "22": 2130,
      "é©»": 2131,
      "ä¼°": 2132,
      "åħ»èĢģ": 2133,
      "all": 2134,
      "äººå¤§": 2135,
      "ä¼ĳ": 2136,
      "è¦Ĩ": 2137,
      "è°ĥæķ´": 2138,
      "åĲĮå¿Ĺ": 2139,
      "è®°å½ķ": 2140,
      "ç¤¾ä¼ļä¸»ä¹ī": 2141,
      "æīİ": 2142,
      "åħ¨çĲĥ": 2143,
      "æĮĩåĩº": 2144,
      "å·¥ä½ľäººåĳĺ": 2145,
      "èĤ¡ä¸ľ": 2146,
      "å¸Į": 2147,
      "os": 2148,
      "ies": 2149,
      "Ġby": 2150,
      "èģļçĦ¦": 2151,
      "é½": 2152,
      "çĨ": 2153,
      "ard": 2154,
      "è¶ħè¿ĩ": 2155,
      "æ±¡æŁĵ": 2156,
      "éĩĳé¢Ŀ": 2157,
      "æĵį": 2158,
      "ç¨ĭåºı": 2159,
      "å³°": 2160,
      "åĲĦçº§": 2161,
      "âĢ¦âĢ¦": 2162,
      "å°ıåĮº": 2163,
      "ĠN": 2164,
      "ï¼ļâĢľ": 2165,
      "Ġsu": 2166,
      "Ġnumber": 2167,
      "éĿ¢ç§¯": 2168,
      "å¸Ĥæ°ĳ": 2169,
      "åľ°çĤ¹": 2170,
      "æĻºæħ§": 2171,
      "è¯ģåĪ¸": 2172,
      "æ´ģ": 2173,
      "äºĨä¸Ģ": 2174,
      "æİ¢ç´¢": 2175,
      "ä¹¡æĿĳæĮ¯åħ´": 2176,
      "Ġu": 2177,
      "ä¸įå¾Ĺ": 2178,
      "å¸®åĬ©": 2179,
      "åľŁåľ°": 2180,
      "èģĮä¸ļ": 2181,
      "nt": 2182,
      "èĴ": 2183,
      "ome": 2184,
      "è½¦è¾Ĩ": 2185,
      "é¥®": 2186,
      "ç»ıéªĮ": 2187,
      "red": 2188,
      "çŁ¿": 2189,
      "å¤ª": 2190,
      "ä½ľåĩº": 2191,
      "è¯Ĭ": 2192,
      "æ´¥": 2193,
      "æĬķæłĩäºº": 2194,
      "and": 2195,
      "å§Ķæīĺ": 2196,
      "æ»¡è¶³": 2197,
      "ĠäºĮ": 2198,
      "çİ°ä»£åĮĸ": 2199,
      "éļĲæĤ£": 2200,
      "äº®": 2201,
      "è®²è¯Ŀ": 2202,
      "éĿĴå¹´": 2203,
      "åħ°": 2204,
      "27": 2205,
      "ç¿": 2206,
      "å¼ķé¢Ĩ": 2207,
      "éĹ»": 2208,
      "åĬ©åĬĽ": 2209,
      "é½Ĳ": 2210,
      "ä¼Ł": 2211,
      "æ³ķå®ļ": 2212,
      "çĬ¯": 2213,
      "ç²¾åĩĨ": 2214,
      "åĽŃåĮº": 2215,
      "æľ¨": 2216,
      "è¿½": 2217,
      "åłĤ": 2218,
      "æ£Ģæµĭ": 2219,
      "æİ¥åıĹ": 2220,
      "Ġle": 2221,
      "ä¸įåĲĮ": 2222,
      "2018": 2223,
      "èĥľ": 2224,
      "å¿ħé¡»": 2225,
      "å»ī": 2226,
      "ç©ºéĹ´": 2227,
      "éĩįåºĨ": 2228,
      "è´¯å½»èĲ½å®ŀ": 2229,
      "çŃīæĸ¹éĿ¢": 2230,
      "29": 2231,
      "å¤§åĬĽ": 2232,
      "è´¡çĮ®": 2233,
      "å¼Ģå§ĭ": 2234,
      "æĬĹ": 2235,
      "è·¨": 2236,
      "ight": 2237,
      "åı¯èĥ½": 2238,
      "è¿Ľåħ¥": 2239,
      "æ¹¾": 2240,
      "è®¤ä¸º": 2241,
      "ä¹Łæĺ¯": 2242,
      "åħ³æ³¨": 2243,
      "è¦ĨçĽĸ": 2244,
      "åįĩçº§": 2245,
      "å¸ģ": 2246,
      "æĭ¨": 2247,
      "å·´": 2248,
      "åŁ¹èĤ²": 2249,
      "èĪ¬": 2250,
      "æĺĮ": 2251,
      "çħ": 2252,
      "res": 2253,
      "å¤Ł": 2254,
      "æĸ°åĮº": 2255,
      "ĥåľ": 2256,
      "èĦ±è´«": 2257,
      "æĿ¡ä¾ĭ": 2258,
      "æĿ¨": 2259,
      "åŀĥåľ": 2260,
      "åŀĥåľ¾": 2261,
      "çī¹åĪ«": 2262,
      "ud": 2263,
      "è¾ĸ": 2264,
      "è¯´æĺİ": 2265,
      "åŃ©åŃĲ": 2266,
      "æĺł": 2267,
      "çīĪ": 2268,
      "Ġ5": 2269,
      "çĲĨå¿µ": 2270,
      "ä¸°å¯Į": 2271,
      "ie": 2272,
      "åºŁ": 2273,
      "ä¿ĿæĮģ": 2274,
      "å¹ħ": 2275,
      "çºł": 2276,
      "ç¦ģ": 2277,
      "ç¬¬åįģ": 2278,
      "åĪĽå»º": 2279,
      "è¯Ħä»·": 2280,
      "åħ¬ç¤º": 2281,
      "21": 2282,
      "è¯ļ": 2283,
      "ä»·åĢ¼": 2284,
      "å¸ĤæĶ¿åºľ": 2285,
      "åģ¥åħ¨": 2286,
      "åħļå»º": 2287,
      "èµĦæĸĻ": 2288,
      "phone": 2289,
      "æİĴæŁ¥": 2290,
      "æ²Ł": 2291,
      "èģĮè´£": 2292,
      "æĶ¿åįı": 2293,
      "ä¸Ģæ¬¡": 2294,
      "ç¡®å®ļ": 2295,
      "çľ¼": 2296,
      "éĤ£": 2297,
      "æİ§åĪ¶": 2298,
      "çĶ»": 2299,
      "ç«ŀäºī": 2300,
      "æ³¨åĨĮ": 2301,
      "éĢīæĭ": 2302,
      "é£ŀ": 2303,
      "æĶ¿åĬ¡": 2304,
      "å®¡æī¹": 2305,
      "æ¡£": 2306,
      "åħļç»Ħ": 2307,
      "åĪ°äºĨ": 2308,
      "ä»ª": 2309,
      "è®¸åı¯": 2310,
      "Ġwor": 2311,
      "æ¶Īéĺ²": 2312,
      "æĹĹ": 2313,
      "ide": 2314,
      "ä½ĵéªĮ": 2315,
      "å¯¹äºİ": 2316,
      "èĹ": 2317,
      "éĺ¶æ®µ": 2318,
      "æī¾": 2319,
      "è¿ĲåĬ¨": 2320,
      "è´¹çĶ¨": 2321,
      "iv": 2322,
      "åĴ¨": 2323,
      "ç»ĵæŀĦ": 2324,
      "æļĸ": 2325,
      "çİī": 2326,
      "å¤Ħç½®": 2327,
      "å²Ĺä½į": 2328,
      "ä¸Ģä½ĵ": 2329,
      "æĳĦ": 2330,
      "åªĴä½ĵ": 2331,
      "åħµ": 2332,
      "äº©": 2333,
      "çłĶåıĳ": 2334,
      "æĪªèĩ³": 2335,
      "åĩĢ": 2336,
      "Ġab": 2337,
      "è¿ĳæĹ¥": 2338,
      "åĨľæ°ĳ": 2339,
      "åĥ": 2340,
      "our": 2341,
      "è£ģ": 2342,
      "ä¼ĺç§Ģ": 2343,
      "ä½ıæĪ¿": 2344,
      "out": 2345,
      "ä¼¤": 2346,
      "åĿĹ": 2347,
      "ï¼īãĢģ": 2348,
      "Ġall": 2349,
      "æ³¢": 2350,
      "æĪĳåĽ½": 2351,
      "åĴ¨è¯¢": 2352,
      "è½®": 2353,
      "ç¯": 2354,
      "é«ĺåº¦": 2355,
      "æĺ¯åĲ¦": 2356,
      "åĽ°éļ¾": 2357,
      "å¸ĮæľĽ": 2358,
      "åĩºçİ°": 2359,
      "æĬĵå¥½": 2360,
      "Ġä¸ī": 2361,
      "åİŁåĪĻ": 2362,
      "ä¸¤ä¸ª": 2363,
      "æ¬¢": 2364,
      "èİ·åıĸ": 2365,
      "åŁİä¹¡": 2366,
      "å²Ľ": 2367,
      "è¯Ń": 2368,
      "å¤§çļĦ": 2369,
      "åĽ½åĨħ": 2370,
      "æ¸ł": 2371,
      "çĶ³æĬ¥": 2372,
      "Ġpl": 2373,
      "èĩªæ²»åĮº": 2374,
      "æĸ°çļĦ": 2375,
      "ĠO": 2376,
      "Ġdo": 2377,
      "ci": 2378,
      "åı¸æ³ķ": 2379,
      "éĤ®": 2380,
      "ç»Łè®¡": 2381,
      "æķĻå¸Ī": 2382,
      "è´·æ¬¾": 2383,
      "æ°ĳçĶŁ": 2384,
      "å±ķç¤º": 2385,
      "è¯Ħä¼°": 2386,
      "ä¸įä»ħ": 2387,
      "çľģå§Ķ": 2388,
      "æīĢæľī": 2389,
      "æŃ£åľ¨": 2390,
      "åŁ¹åħ»": 2391,
      "åĿļåĨ³": 2392,
      "ãĢĭãĢĬ": 2393,
      "å¤ı": 2394,
      "rou": 2395,
      "è°¢": 2396,
      "æ£Ģå¯Ł": 2397,
      "èīºæľ¯": 2398,
      "æĬ¥åĲį": 2399,
      "çļĦéĹ®é¢ĺ": 2400,
      "ww": 2401,
      "åĨł": 2402,
      "å°ıç»Ħ": 2403,
      "åºĦ": 2404,
      "ç»ıè´¹": 2405,
      "è¿ĩç¨ĭä¸Ń": 2406,
      "ãĢĶ": 2407,
      "æ£®": 2408,
      "æľĢé«ĺ": 2409,
      "80": 2410,
      "ãĢķ": 2411,
      "æ¸¸å®¢": 2412,
      "æľŁéĻĲ": 2413,
      "ally": 2414,
      "æĪĲåĬŁ": 2415,
      "èĶ": 2416,
      "å²ģ": 2417,
      "è¿ĻäºĽ": 2418,
      "ç½Ĺ": 2419,
      "éľ²": 2420,
      "çļĦå·¥ä½ľ": 2421,
      "è·Ł": 2422,
      "æ¾": 2423,
      "åĩıå°ĳ": 2424,
      "å±ĭ": 2425,
      "çĿĢåĬĽ": 2426,
      "åĪĨç±»": 2427,
      "è¿ĳå¹´æĿ¥": 2428,
      "æľ¬éĻ¢": 2429,
      "åŁİåĮº": 2430,
      "éº": 2431,
      "ç¢³": 2432,
      "åĨ³çŃĸ": 2433,
      "å²¸": 2434,
      "åī§": 2435,
      "åħ¨éĥ¨": 2436,
      "å·®": 2437,
      "åĵįåºĶ": 2438,
      "è¿Ļä¸ª": 2439,
      "gh": 2440,
      "ç´¯è®¡": 2441,
      "åĦ¿ç«¥": 2442,
      "åĬŀåħ¬å®¤": 2443,
      "æİ¨å¹¿": 2444,
      "åĲ¯åĬ¨": 2445,
      "å¹¸": 2446,
      "åĲī": 2447,
      "èĲ¥éĢł": 2448,
      "ä¸ĢèĪ¬": 2449,
      "ould": 2450,
      "ine": 2451,
      "èĤ¡ä»½æľīéĻĲåħ¬åı¸": 2452,
      "çĥŁ": 2453,
      "æĪĲæķĪ": 2454,
      "æĿ¾": 2455,
      "çļĦæĸ°": 2456,
      "å»ºæĪĲ": 2457,
      "æĹ¢": 2458,
      "çĽĺ": 2459,
      "per": 2460,
      "é¹": 2461,
      "å½ĵåľ°": 2462,
      "æĬķåħ¥": 2463,
      "åħ¬åĽŃ": 2464,
      "å½ĵåīį": 2465,
      "çĲĨè®º": 2466,
      "æĹ¥å¸¸": 2467,
      "åħĪè¿Ľ": 2468,
      "éĻĨ": 2469,
      "çº¿ä¸Ĭ": 2470,
      "æĿĳæ°ĳ": 2471,
      "æĭĽæłĩæĸĩä»¶": 2472,
      "ag": 2473,
      "ç½ĳç«Ļ": 2474,
      "é©¾": 2475,
      "ä¸¾è¡Į": 2476,
      "æ²¿": 2477,
      "åĩºå¸Ń": 2478,
      "è§Ĩé¢ĳ": 2479,
      "ä¸ĬåįĪ": 2480,
      "çİ¯èĬĤ": 2481,
      "è¿ĲèĲ¥": 2482,
      "è®¨": 2483,
      "æĻļ": 2484,
      "ç§įæ¤į": 2485,
      "Ġso": 2486,
      "å°ļ": 2487,
      "æ´ª": 2488,
      "ä¼ļä¸Ĭ": 2489,
      "è®¾ç½®": 2490,
      "éĴ¢": 2491,
      "çĸĳ": 2492,
      "ç¾İåĽ½": 2493,
      "å®¡æŁ¥": 2494,
      "å¤ľ": 2495,
      "åħ¬è·¯": 2496,
      "èĪŀ": 2497,
      "70": 2498,
      "ak": 2499,
      "ç¼º": 2500,
      "Ġj": 2501,
      "éĩĬ": 2502,
      "èĭĹ": 2503,
      "æķ°éĩı": 2504,
      "åĨ¬": 2505,
      "èģĶç½ĳ": 2506,
      "å¦Ĥä¸ĭ": 2507,
      "æµĻ": 2508,
      "éĨ": 2509,
      "ä¸»ç®¡": 2510,
      "cc": 2511,
      "ä¸¥éĩį": 2512,
      "é¼ĵåĬ±": 2513,
      "é«ĺæķĪ": 2514,
      "éĢīæĭ©": 2515,
      "åŃ¦éĻ¢": 2516,
      "äºĪä»¥": 2517,
      "é©¶": 2518,
      "èĢķ": 2519,
      "æī©å¤§": 2520,
      "31": 2521,
      "ä¹ĭæĹ¥èµ·": 2522,
      "åİŁåĽł": 2523,
      "æĴĳ": 2524,
      "å¦Ĥä½ķ": 2525,
      "æ¶Īè´¹èĢħ": 2526,
      "è°ĭ": 2527,
      "åıĮæĸ¹": 2528,
      "ice": 2529,
      "age": 2530,
      "æĽ´å¥½": 2531,
      "è¡Ģ": 2532,
      "åįıè®®": 2533,
      "åĭĩ": 2534,
      "èĹı": 2535,
      "å´": 2536,
      "éĽĨä½ĵ": 2537,
      "æ´²": 2538,
      "çĥĪ": 2539,
      "Ġhas": 2540,
      "æ°Ľ": 2541,
      "æ¢ģ": 2542,
      "lo": 2543,
      "fe": 2544,
      "åįıåĲĮ": 2545,
      "æĢĢ": 2546,
      "35": 2547,
      "åįĸ": 2548,
      "åı¦": 2549,
      "å¯¹è±¡": 2550,
      "æĮĩæłĩ": 2551,
      "å¹ķ": 2552,
      "åĸľ": 2553,
      "ä¸ĵé¢ĺ": 2554,
      "éĺ¿": 2555,
      "æĭ¥": 2556,
      "ä¸Ĭå¸Ĥ": 2557,
      "è¯ģä¹¦": 2558,
      "ear": 2559,
      "ä»Ģ": 2560,
      "ä¸¾æİª": 2561,
      "Ġk": 2562,
      "åħ¨ä½ĵ": 2563,
      "çĽ´æİ¥": 2564,
      "è¯º": 2565,
      "ç¼ĸåĪ¶": 2566,
      "æĬĢèĥ½": 2567,
      "åĥı": 2568,
      "æ¯ķ": 2569,
      "èº«ä»½": 2570,
      "åĳ³": 2571,
      "å¹´çļĦ": 2572,
      "åĽ¢éĺŁ": 2573,
      "æķĻåŃ¦": 2574,
      "çĩĥ": 2575,
      "ä¾Ŀæį®": 2576,
      "æ½®": 2577,
      "åĲĪçĲĨ": 2578,
      "åıĳæĶ¾": 2579,
      "è½¬åŀĭ": 2580,
      "åĲ¨": 2581,
      "ast": 2582,
      "å½ĵäºĭ": 2583,
      "éī": 2584,
      "The": 2585,
      "ä¼ĺè´¨": 2586,
      "å½Ĵ": 2587,
      "å¹¿ä¸ľ": 2588,
      "å±±ä¸ľ": 2589,
      "åıįæĺł": 2590,
      "è¸": 2591,
      "Ġad": 2592,
      "ä¸įèĥ½": 2593,
      "æĤī": 2594,
      "èĸ": 2595,
      "æ¸ħåįķ": 2596,
      "äº§æĿĥ": 2597,
      "æ¶¦": 2598,
      "pt": 2599,
      "åİļ": 2600,
      "åįĹçľģ": 2601,
      "éī´": 2602,
      "æĶ¯æĴĳ": 2603,
      "é²ľ": 2604,
      "åķĨä¸ļ": 2605,
      "Ġcomp": 2606,
      "ä¹¡éķĩ": 2607,
      "æ¢°": 2608,
      "æĹ§": 2609,
      "åľºæīĢ": 2610,
      "å¸¦æĿ¥": 2611,
      "æ±ł": 2612,
      "å®¢æĪ·": 2613,
      "å¸¦åĬ¨": 2614,
      "æīİå®ŀ": 2615,
      "æ±Łèĭı": 2616,
      "ä¹ĭä¸Ģ": 2617,
      "å¾Ħ": 2618,
      "Ġwhe": 2619,
      "çĶŁçī©": 2620,
      "æĵįä½ľ": 2621,
      "åĲįåįķ": 2622,
      "ail": 2623,
      "æĺ¾ç¤º": 2624,
      "åħ¬åĬ¡": 2625,
      "æĸ°éĹ»": 2626,
      "æµģç¨ĭ": 2627,
      "æĮĤ": 2628,
      "æĭħå½ĵ": 2629,
      "çĬ¯ç½ª": 2630,
      "åıĳè¡Į": 2631,
      "å¯¹æİ¥": 2632,
      "æĶ¯éĥ¨": 2633,
      "åĿļå®ļ": 2634,
      "èĲ¥ä¸ļ": 2635,
      "å®ŀè¡Į": 2636,
      "åħ±äº«": 2637,
      "ction": 2638,
      "çĽŁ": 2639,
      "å§ĭç»": 2640,
      "çİ¯ä¿Ŀ": 2641,
      "çļĦåıĳå±ķ": 2642,
      "**": 2643,
      "å®¡è®®": 2644,
      "çŃ¾è®¢": 2645,
      "ç½ĳä¸Ĭ": 2646,
      "å§ĭç»Ī": 2647,
      "åĨ°": 2648,
      "è¿Ļä¸Ģ": 2649,
      "ĠJ": 2650,
      "èĲ¥åķĨ": 2651,
      "è®¤è¯Ĩ": 2652,
      "ç®Ģç§°": 2653,
      "æ¸łéģĵ": 2654,
      "å¹¼": 2655,
      "äººæ°ĳæ³ķéĻ¢": 2656,
      "è¾ĸåĮº": 2657,
      "äºĭåĬ¡": 2658,
      "éĢłæĪĲ": 2659,
      "è®¡ç®Ĺ": 2660,
      "lephone": 2661,
      "çĳ": 2662,
      "å®ĥ": 2663,
      "äºĮåįģ": 2664,
      "å¦ĩ": 2665,
      "æĮĩæĮ¥": 2666,
      "able": 2667,
      "åĪĳ": 2668,
      "æĬ½": 2669,
      "æĪĲç»©": 2670,
      "çī©ä¸ļ": 2671,
      "ä¸Ĭè¿°": 2672,
      "æī¶è´«": 2673,
      "æĸ¹åĲĳ": 2674,
      "æ¶īåıĬ": 2675,
      "äºĮæĺ¯": 2676,
      "çĶ¨äºİ": 2677,
      "å°ģ": 2678,
      "ake": 2679,
      "ook": 2680,
      "å°ıæĹ¶": 2681,
      "telephone": 2682,
      "ä¸ĭåįĪ": 2683,
      "äººæ°ĳå¸ģ": 2684,
      "èĥ½å¤Ł": 2685,
      "åĪ¤åĨ³": 2686,
      "éļıçĿĢ": 2687,
      "æĿĥçĽĬ": 2688,
      "æī£": 2689,
      "è¯ķçĤ¹": 2690,
      "èģĶåĬ¨": 2691,
      "åĽĽå·Ŀ": 2692,
      "åĩĿ": 2693,
      "å±Ģéķ¿": 2694,
      "ä»į": 2695,
      "Ġbut": 2696,
      "ä¸Ģæī¹": 2697,
      "ä¸»å¸Ń": 2698,
      "æ³Ľ": 2699,
      "éĺ²èĮĥ": 2700,
      "æ¯ĶèµĽ": 2701,
      "å©": 2702,
      "å®¡æł¸": 2703,
      "ç»Ŀ": 2704,
      "åŁºç¡Ģè®¾æĸ½": 2705,
      "æĸ¹æ³ķ": 2706,
      "ç¬¬äºĮåįģ": 2707,
      "90": 2708,
      "ç»ĻäºĪ": 2709,
      "ther": 2710,
      "èµ·æĿ¥": 2711,
      "èĲ½åľ°": 2712,
      "æĭĽåķĨ": 2713,
      "çĶŁåĳ½": 2714,
      "å¥¥": 2715,
      "æ°ĽåĽ´": 2716,
      "å·¦": 2717,
      "æķ´ä½ĵ": 2718,
      "çİ°åľ¨": 2719,
      "æī«": 2720,
      "èĲ¥åķĨçİ¯å¢ĥ": 2721,
      "çĽĽ": 2722,
      "è¡ĮæĶ¿å¤Ħç½ļ": 2723,
      "æĺ¯ä¸Ģ": 2724,
      "è®¤å®ļ": 2725,
      "è´Ńä¹°": 2726,
      "æ½ľ": 2727,
      "åľĪ": 2728,
      "ä¸ªæľĪ": 2729,
      "å¸®æī¶": 2730,
      "åħħåĪĨåıĳæĮ¥": 2731,
      "å®Ĺ": 2732,
      "ç²®é£Ł": 2733,
      "éħįåĲĪ": 2734,
      "åĭŁ": 2735,
      "æ´ĭ": 2736,
      "çī©æµģ": 2737,
      "èª": 2738,
      "are": 2739,
      "èŀįèµĦ": 2740,
      "æĪªæŃ¢": 2741,
      "Ġen": 2742,
      "çº³åħ¥": 2743,
      "ind": 2744,
      "ä¸»æĮģ": 2745,
      "od": 2746,
      "ä¸ŃåĽ½çī¹èī²": 2747,
      "åįıä¼ļ": 2748,
      "éŃ": 2749,
      "Ġ6": 2750,
      "æŀ¶": 2751,
      "åĪļ": 2752,
      "æĿŁ": 2753,
      "æĸĩæĹħ": 2754,
      "çĽĳçĿ£ç®¡çĲĨ": 2755,
      "ä»Ģä¹Ī": 2756,
      "æĸ¹ç±³": 2757,
      "æĬ¢": 2758,
      "åķĨåĬ¡": 2759,
      "çľģçº§": 2760,
      "çªģçł´": 2761,
      "æľīåĬĽ": 2762,
      "so": 2763,
      "å½ĵäºĭäºº": 2764,
      "äº§ä¸ļåıĳå±ķ": 2765,
      "éģ¿": 2766,
      "ich": 2767,
      "ä¸ºäºĨ": 2768,
      "æĽ¾": 2769,
      "éĩĩçĶ¨": 2770,
      "ime": 2771,
      "æľįåĬ¡ä¸Ńå¿ĥ": 2772,
      "ä»ĭ": 2773,
      "ä¸ĭéĻį": 2774,
      "åıĹåĪ°": 2775,
      "ä½¿åĳ½": 2776,
      "åıĹçĲĨ": 2777,
      "æĶ¹åĸĦ": 2778,
      "æ£®æŀĹ": 2779,
      "é¡¾": 2780,
      "ä¸Ģæĺ¯": 2781,
      "ç¬Ķ": 2782,
      "ä¹ħ": 2783,
      "Ġup": 2784,
      "å¹¸ç¦ı": 2785,
      "è´¢åĬ¡": 2786,
      "å°Ħ": 2787,
      "Ġme": 2788,
      "Ġout": 2789,
      "åĺī": 2790,
      "ack": 2791,
      "éĿł": 2792,
      "åħ¬éĩĮ": 2793,
      "çļĦéĢļçŁ¥": 2794,
      "åı³": 2795,
      "ä¸ĬçļĦ": 2796,
      "ä¸ĭä¸ĢæŃ¥": 2797,
      "éħįå¥Ĺ": 2798,
      "åı¶": 2799,
      "åĲĦåľ°": 2800,
      "åıĺåĮĸ": 2801,
      "very": 2802,
      "èĪ¹": 2803,
      "ry": 2804,
      "çīµ": 2805,
      "ä¸Ģå®ļ": 2806,
      "æĹ¥èĩ³": 2807,
      "èĥĮ": 2808,
      "åĪ°ä½į": 2809,
      "å¸ĥå±Ģ": 2810,
      "45": 2811,
      "çļĦæĺ¯": 2812,
      "ç¬¬åĽĽ": 2813,
      "éĩįè§Ĩ": 2814,
      "æĢ»ä½ĵ": 2815,
      "æŃĮ": 2816,
      "çħ¤": 2817,
      "éĢĶ": 2818,
      "ä¹īåĬ¡": 2819,
      "äºĭä»¶": 2820,
      "ac": 2821,
      "éĺµ": 2822,
      "èĭ¥": 2823,
      "åķĨåĵģ": 2824,
      "ãĢĤï¼Ī": 2825,
      "äººæ°ĳç¾¤ä¼Ĺ": 2826,
      "åĲĪæł¼": 2827,
      "çķħ": 2828,
      "éĶĭ": 2829,
      "å¨ģ": 2830,
      "æĲŃ": 2831,
      "ç¤¼": 2832,
      "å¹´äºº": 2833,
      "èĩªèº«": 2834,
      "ç»ıæµİç¤¾ä¼ļ": 2835,
      "æŃ£å¼ı": 2836,
      "æľīåºı": 2837,
      "..": 2838,
      "%ï¼Ľ": 2839,
      "åħ·å¤ĩ": 2840,
      "äºĭå®ŀ": 2841,
      "èµĭ": 2842,
      "ä¾Ŀæīĺ": 2843,
      "æĿ¥èĩª": 2844,
      "Ġour": 2845,
      "æ¬§": 2846,
      "äºĭä¸ļåįķä½į": 2847,
      "ite": 2848,
      "å¹¿æ³Ľ": 2849,
      "åħ¬çĽĬ": 2850,
      "æµĻæ±Ł": 2851,
      "æĦıä¹ī": 2852,
      "Ġmore": 2853,
      "éĩİ": 2854,
      "è¿Ķ": 2855,
      "æ®ĭçĸ¾": 2856,
      "èĩªå·±çļĦ": 2857,
      "Ġlo": 2858,
      "åĬłå·¥": 2859,
      "æľĿ": 2860,
      "ĠU": 2861,
      "éĺħ": 2862,
      "éĴ±": 2863,
      "æİĮ": 2864,
      "äºĴèģĶç½ĳ": 2865,
      "ong": 2866,
      "Ġim": 2867,
      "Ġte": 2868,
      "ä¸»ç®¡éĥ¨éĹ¨": 2869,
      "çº¢èī²": 2870,
      "ãĢģâĢľ": 2871,
      "é¡¹çĽ®å»ºè®¾": 2872,
      "åĲĥ": 2873,
      "æ°Ķè±¡": 2874,
      "åĩĨå¤ĩ": 2875,
      "åĲĪæ³ķ": 2876,
      "è½¬åĮĸ": 2877,
      "__": 2878,
      "Ġtheir": 2879,
      "ip": 2880,
      "éĤĢ": 2881,
      "éķ¿æľŁ": 2882,
      "æĭ¨æ¬¾": 2883,
      "500": 2884,
      "åħ¨åĮº": 2885,
      "æķ°åŃĹåĮĸ": 2886,
      "æĿĤ": 2887,
      "æ³ī": 2888,
      "å¾½": 2889,
      "çºłçº·": 2890,
      "ä¸ŃåĽ½çī¹èī²ç¤¾ä¼ļä¸»ä¹ī": 2891,
      "ore": 2892,
      "Ġä¼ļè®®": 2893,
      "36": 2894,
      "äº§ä¸ļéĵ¾": 2895,
      "èĳĹ": 2896,
      "æĻĵ": 2897,
      "åį°åıĳ": 2898,
      "æ¿ĢåĬ±": 2899,
      "åĨ²": 2900,
      "æĻ¯åĮº": 2901,
      "åŃ£åº¦": 2902,
      "æ·±åĪ»": 2903,
      "du": 2904,
      "é«ĺæł¡": 2905,
      "è½¯": 2906,
      "è¯¦ç»Ĩ": 2907,
      "ç»ıè¿ĩ": 2908,
      "å¸ĤåľºçĽĳç®¡": 2909,
      "ç¡¬": 2910,
      "åľ°åĿĢ": 2911,
      "æ¦Ĥ": 2912,
      "ated": 2913,
      "ä¼łæī¿": 2914,
      "äº§çĶŁ": 2915,
      "2017": 2916,
      "å¦Ĥæŀľ": 2917,
      "æĪĲæľ¬": 2918,
      "çªĹ": 2919,
      "å®½": 2920,
      "ç»ıçĲĨ": 2921,
      "ĠTh": 2922,
      "å®¿": 2923,
      "åĲ´": 2924,
      "éĽ·": 2925,
      "iz": 2926,
      "è§Ī": 2927,
      "å¡«": 2928,
      "æ¶¨": 2929,
      "åĽ½æľī": 2930,
      "è§Ħå®ļçļĦ": 2931,
      "æ±Ľ": 2932,
      "èµĦæľ¬": 2933,
      "å¼Ģæłĩ": 2934,
      "æĭĵå±ķ": 2935,
      "çļĦäºº": 2936,
      "è·ĳ": 2937,
      "Ġæį®": 2938,
      "äººæ¬¡": 2939,
      "ï¼ļ[": 2940,
      "æ³°": 2941,
      "çĽ¸åºĶ": 2942,
      "è¿ģ": 2943,
      "éĺ²æ²»": 2944,
      "Ġthey": 2945,
      "åĲĮæĦı": 2946,
      "æķħäºĭ": 2947,
      "åľ³": 2948,
      "è¡¥åĬ©": 2949,
      "çĶ·": 2950,
      "ç¼ĸåı·": 2951,
      "å¿«éĢŁ": 2952,
      "è¿Ļæĺ¯": 2953,
      "çĭ¬ç«ĭ": 2954,
      "æ°´åĪ©": 2955,
      "è®¾ç«ĭ": 2956,
      "æī¿è¯º": 2957,
      "ç§ĭ": 2958,
      "æ¯į": 2959,
      "ç»©æķĪ": 2960,
      "æ·±åľ³": 2961,
      "99": 2962,
      "è´«åĽ°": 2963,
      "å¾Ĳ": 2964,
      "Ġwork": 2965,
      "æĸ°åŀĭ": 2966,
      "ãĢģãĢĬ": 2967,
      "éĿ©åĳ½": 2968,
      "åĭ¤": 2969,
      "åĪĽéĢł": 2970,
      "ç®±": 2971,
      "for": 2972,
      "ä¹Į": 2973,
      "ÃĹ": 2974,
      "èµ´": 2975,
      "éģµ": 2976,
      "å¤«": 2977,
      "å£®": 2978,
      "æĸ°èĥ½æºĲ": 2979,
      "æ»¨": 2980,
      "ĠIn": 2981,
      "åĲĮæ¯Ķå¢ŀéķ¿": 2982,
      "ĠåĽĽ": 2983,
      "æģ¢": 2984,
      "åĬŀäºĭ": 2985,
      "è¾ħ": 2986,
      "å¿ĹæĦ¿èĢħ": 2987,
      "åĲ¸å¼ķ": 2988,
      "Ġcl": 2989,
      "Ġone": 2990,
      "å°ĳå¹´": 2991,
      "æİĪæĿĥ": 2992,
      "æķ£": 2993,
      "ç¨İåĬ¡": 2994,
      "ous": 2995,
      "éĹ²": 2996,
      "èµĶ": 2997,
      "çº¸": 2998,
      "åĮ»èį¯": 2999,
      "'s": 3000,
      "é¢Ħè®¡": 3001,
      "çĿ£ä¿ĥ": 3002,
      "å½¢åĬ¿": 3003,
      "ç©¿": 3004,
      "æ®Ĭ": 3005,
      "è¡¥è´´": 3006,
      "ä½³": 3007,
      "æĽ²": 3008,
      "æĺİæĺ¾": 3009,
      "åħ¬ä¼Ĺ": 3010,
      "å½¹": 3011,
      "åįģåĽĽ": 3012,
      "ä½ľé£İ": 3013,
      "æĬķæłĩæĸĩä»¶": 3014,
      "ood": 3015,
      "ä¸īæĺ¯": 3016,
      "æİ¨åĩº": 3017,
      "Ġmy": 3018,
      "åĬ¨åĬĽ": 3019,
      "çģµ": 3020,
      "åĩºåı£": 3021,
      "å¾ĹåĪ°": 3022,
      "ä¹ĭéĹ´": 3023,
      "ä¸Ģèµ·": 3024,
      "èĩªè§ī": 3025,
      "æ¶µ": 3026,
      "æĪı": 3027,
      "ä½ľåĵģ": 3028,
      "å¸¸å§Ķä¼ļ": 3029,
      "åĨľäº§åĵģ": 3030,
      "å¸¸æĢģ": 3031,
      "éĴŁ": 3032,
      "åħļåĳĺå¹²éĥ¨": 3033,
      "ost": 3034,
      "åĴĮç¤¾ä¼ļ": 3035,
      "çĶ¨æĪ·": 3036,
      "åĵģè´¨": 3037,
      "é«ĺéĢŁ": 3038,
      "é¡¹çĽ®çļĦ": 3039,
      "åĮ»ä¿Ŀ": 3040,
      "çĨŁ": 3041,
      "èµ¢": 3042,
      "ans": 3043,
      "æļĤ": 3044,
      "çŃīå¤ļ": 3045,
      "èĴĻ": 3046,
      "ase": 3047,
      "åº§è°Ī": 3048,
      "èĳ£äºĭä¼ļ": 3049,
      "åĪ¶ä½ľ": 3050,
      "èĤĥ": 3051,
      "çºªå¾ĭ": 3052,
      "è¿ĲçĶ¨": 3053,
      "åĮĹäº¬å¸Ĥ": 3054,
      "33": 3055,
      "èį¯åĵģ": 3056,
      "Ġapp": 3057,
      "ç§ĺ": 3058,
      "æģ¢å¤į": 3059,
      "ä¸ĢäºĽ": 3060,
      "æĪ¿å±ĭ": 3061,
      "åħĪåĲİ": 3062,
      "åĨ·": 3063,
      "éľĩ": 3064,
      "æŃ£å¸¸": 3065,
      "Ġcont": 3066,
      "æ®ĸ": 3067,
      "ç§ĳçłĶ": 3068,
      "æºª": 3069,
      "çģ¾å®³": 3070,
      "æĸ°å¢ŀ": 3071,
      "å®ŀéªĮ": 3072,
      "ç¬¬äºĶ": 3073,
      "çļĦæĸ¹å¼ı": 3074,
      "éĹŃ": 3075,
      "ä»¥ä¸ĭç®Ģç§°": 3076,
      "åĪ©çĽĬ": 3077,
      "è¯ģæį®": 3078,
      "ä½ľä¸ļ": 3079,
      "æ³ķäºº": 3080,
      "ach": 3081,
      "Ġman": 3082,
      "æĭĽèģĺ": 3083,
      "éĿŀå¸¸": 3084,
      "éĺ³å¸Ĥ": 3085,
      "æĭį": 3086,
      "æŃ»": 3087,
      "èĻļ": 3088,
      "æķĳæı´": 3089,
      "å§ĵ": 3090,
      "çļĦè§Ħå®ļ": 3091,
      "åıĬåħ¶": 3092,
      "å·©": 3093,
      "Ġ7": 3094,
      "ions": 3095,
      "å¾ª": 3096,
      "å·¥èµĦ": 3097,
      "åİ»å¹´": 3098,
      "åĩ½": 3099,
      "éħ¸": 3100,
      "Ġfe": 3101,
      "çī¹æ®Ĭ": 3102,
      "åĳ¨è¾¹": 3103,
      "çĶĺ": 3104,
      "Ġä¸º": 3105,
      "çĶ¨åľ°": 3106,
      "è¯Ħå®¡": 3107,
      "åºĶå¯¹": 3108,
      "å·¨": 3109,
      "èªī": 3110,
      "è®¯": 3111,
      "éĨĴ": 3112,
      "æĬĬæı¡": 3113,
      "ä¸Ĭä¸ĭ": 3114,
      "ia": 3115,
      "åĮĹäº¬æĹ¶éĹ´": 3116,
      "æľīçļĦ": 3117,
      "æŃ¤å¤ĸ": 3118,
      "åĽ½åĬ¡": 3119,
      "æ°ĳèĲ¥": 3120,
      "çī©èµĦ": 3121,
      "Ġres": 3122,
      "è¯¦è§ģ": 3123,
      "ike": 3124,
      "è¿Ŀåıį": 3125,
      "éĢı": 3126,
      "å¯¼èĩ´": 3127,
      "è´¸æĺĵ": 3128,
      "çºªå§Ķ": 3129,
      "act": 3130,
      "Ġabout": 3131,
      "ue": 3132,
      "åħ±äº§": 3133,
      "æ²ŁéĢļ": 3134,
      "¹ģ": 3135,
      "æĬķè¯ī": 3136,
      "åħ¬åħ±èµĦæºĲ": 3137,
      "åį°ä»¶": 3138,
      "ä¿¡æģ¯åĮĸ": 3139,
      "èĢĥè¯ķ": 3140,
      "ç¹ģ": 3141,
      "åį·": 3142,
      "å¼ĥ": 3143,
      "ä»ªå¼ı": 3144,
      "æķĪçİĩ": 3145,
      "èĦ±è´«æĶ»åĿļ": 3146,
      "èĢĥå¯Ł": 3147,
      "å¸Ĥéķ¿": 3148,
      "èĵĿ": 3149,
      "å®ļæľŁ": 3150,
      "å¾ĭå¸Ī": 3151,
      "ç§ĳæĬĢåĪĽæĸ°": 3152,
      "ä¸įå°ĳ": 3153,
      "èµµ": 3154,
      "è·Ŀ": 3155,
      "åĩºåı°": 3156,
      "åĨľä¸ļåĨľæĿĳ": 3157,
      "åĳ¼": 3158,
      "å¿ł": 3159,
      "ult": 3160,
      "æľĭ": 3161,
      "åľºæĻ¯": 3162,
      "ä¹±": 3163,
      "å¹¿è¥¿": 3164,
      "å·¥ä½ľæĹ¥": 3165,
      "Ġun": 3166,
      "ance": 3167,
      "åŃ¦ä¹łè´¯å½»": 3168,
      "åĩĨç¡®": 3169,
      "ä¼Ļ": 3170,
      "æł¼å±Ģ": 3171,
      "æ³ķå¾ĭæ³ķè§Ħ": 3172,
      "çĸĨ": 3173,
      "ç¡®è®¤": 3174,
      "æ´»åĬĽ": 3175,
      "æ¡Īä¾ĭ": 3176,
      "çī§": 3177,
      "Ġwhich": 3178,
      "æĪĲéķ¿": 3179,
      "åĽ½åĬ¡éĻ¢": 3180,
      "éĶĻ": 3181,
      "å¸Ĥçº§": 3182,
      "ib": 3183,
      "æ·±åº¦": 3184,
      "åĵĪ": 3185,
      "åĨ³ç®Ĺ": 3186,
      "éªĮæĶ¶": 3187,
      "å¯¼åĲĳ": 3188,
      "æĮĸ": 3189,
      "èĤ¥": 3190,
      "æµĵ": 3191,
      "ĠY": 3192,
      "ign": 3193,
      "Ġinc": 3194,
      "å¾Īå¤ļ": 3195,
      "ire": 3196,
      "èĤī": 3197,
      "æįŁå¤±": 3198,
      "å¤©æ°Ķ": 3199,
      "å¹³æĸ¹ç±³": 3200,
      "çģ¯": 3201,
      "æķĪæŀľ": 3202,
      "ap": 3203,
      "è¿Ļæł·": 3204,
      "å®īå¾½": 3205,
      "æľīåħ³éĥ¨éĹ¨": 3206,
      "èįĲ": 3207,
      "å·©åĽº": 3208,
      "è¿ĺæľī": 3209,
      "æĤ¨": 3210,
      "Ġtime": 3211,
      "å¤įåį°ä»¶": 3212,
      "åħ¸åŀĭ": 3213,
      "å¤©æ´¥": 3214,
      "ç§ģ": 3215,
      "èħĲ": 3216,
      "äººå·¥": 3217,
      "æ³¨æĦı": 3218,
      "åī¯ä¹¦è®°": 3219,
      "ä¸Ģçº¿": 3220,
      "åħļä¸Ńå¤®": 3221,
      "èĤ¡ç¥¨": 3222,
      "Ġ10": 3223,
      "æł¡åĽŃ": 3224,
      "æ¢¦": 3225,
      "åĲĦéĥ¨éĹ¨": 3226,
      "ame": 3227,
      "ä¸»é¢ĺæķĻèĤ²": 3228,
      "æŁ¥è¯¢": 3229,
      "å·¥ä¼ļ": 3230,
      "æ£ĢéªĮ": 3231,
      "ä¼ļè®¡": 3232,
      "é±": 3233,
      "çīĽ": 3234,
      "å¾®ä¿¡": 3235,
      "ĠK": 3236,
      "äººåı£": 3237,
      "æļ¨": 3238,
      "åĳĪ": 3239,
      "æ¯Ķä¾ĭ": 3240,
      "æ¯ķä¸ļ": 3241,
      "ç¨İæĶ¶": 3242,
      "çĽ¾": 3243,
      "æľ«": 3244,
      "éĥĳ": 3245,
      "é±¼": 3246,
      "éª¨": 3247,
      "æĹ¥ä¸ĬåįĪ": 3248,
      "--": 3249,
      "éªĹ": 3250,
      "é¡¶": 3251,
      "300": 3252,
      "è¡¡": 3253,
      "æĢ»ç»ĵ": 3254,
      "ç¯ĩ": 3255,
      "æĶ¶è´¹": 3256,
      "ä¸Ĭè¯ī": 3257,
      "ä¸īå¹´": 3258,
      "è´¢äº§": 3259,
      "åĲ¬åıĸ": 3260,
      "æ°ĳäºĭ": 3261,
      "éĢļæĬ¥": 3262,
      "ä¸Ńå°ıä¼ģä¸ļ": 3263,
      "æ¾³": 3264,
      "æĹ¥åīį": 3265,
      "èģĮèĥ½": 3266,
      "åĽłä¸º": 3267,
      "Ġqu": 3268,
      "éĢļéģĵ": 3269,
      "åĿĽ": 3270,
      "æ®ĭçĸ¾äºº": 3271,
      "ace": 3272,
      "å¹¼åĦ¿": 3273,
      "to": 3274,
      "Ġwho": 3275,
      "å¤±ä¿¡": 3276,
      "å±ŀäºİ": 3277,
      "ä¼łæĴŃ": 3278,
      "ov": 3279,
      "åħ±å»º": 3280,
      "ä¹ĺ": 3281,
      "çľŁå®ŀ": 3282,
      "å®ĩ": 3283,
      "ä½įäºİ": 3284,
      "å»ºè®¾é¡¹çĽ®": 3285,
      "Ġ8": 3286,
      "å«": 3287,
      "ç¬¬åħŃ": 3288,
      "reat": 3289,
      "åĲİçļĦ": 3290,
      "æľĢå¤§": 3291,
      "æĬµ": 3292,
      "å®£è®²": 3293,
      "è´¢æĶ¿æĭ¨æ¬¾": 3294,
      "éĵģè·¯": 3295,
      "åħĪçĶŁ": 3296,
      "Ġoff": 3297,
      "éĻįä½İ": 3298,
      "é¾Ħ": 3299,
      "åħ¬åħ±èµĦæºĲäº¤æĺĵ": 3300,
      "æĭħä¿Ŀ": 3301,
      "è¿Ŀè§Ħ": 3302,
      "çĽ¸åħ³éĥ¨éĹ¨": 3303,
      "åħļç»Ħç»ĩ": 3304,
      "ne": 3305,
      "Ġé¡¹çĽ®": 3306,
      "æıĲä¾ĽäºĨ": 3307,
      "çŃīæĸ¹å¼ı": 3308,
      "åĽĽä¸ª": 3309,
      "Ġother": 3310,
      "æĮĳ": 3311,
      "æľĢç»Ī": 3312,
      "åĨħçļĦ": 3313,
      "ä¾§": 3314,
      "éĽĦ": 3315,
      "èĢģå¸Ī": 3316,
      "ä»£çĲĨæľºæŀĦ": 3317,
      "url": 3318,
      "Ġæľ¬": 3319,
      "ep": 3320,
      "éĿ¢å¯¹": 3321,
      "ç»ıæµİåıĳå±ķ": 3322,
      "og": 3323,
      "åŃĻ": 3324,
      "çĽ´æĴŃ": 3325,
      "è°ĥè§£": 3326,
      "æłĳç«ĭ": 3327,
      "åĲĦåİ¿": 3328,
      "ä¸īä¸ª": 3329,
      "é¢ĦèŃ¦": 3330,
      "è¯¯": 3331,
      "è¾ī": 3332,
      "Ġper": 3333,
      "æ¼ı": 3334,
      "ä¼´": 3335,
      "å¥½çļĦ": 3336,
      "èĢģäºº": 3337,
      "é©¾é©¶": 3338,
      "éĥ½æĺ¯": 3339,
      "èĩªçĦ¶èµĦæºĲ": 3340,
      "å®ı": 3341,
      "æ²ī": 3342,
      "ç¼´çº³": 3343,
      "ç»ĵæĿŁ": 3344,
      "åĮĸè§£": 3345,
      "38": 3346,
      "å¼ĢåıĳåĮº": 3347,
      "æľĭåıĭ": 3348,
      "åħ¨åİ¿": 3349,
      "ree": 3350,
      "ations": 3351,
      "ä»£è¡¨äºº": 3352,
      "ç»ĦæĪĲ": 3353,
      "Ġany": 3354,
      "ä¸ĢçĽ´": 3355,
      "èĩªè¡Į": 3356,
      "å¿ĹæĦ¿æľįåĬ¡": 3357,
      "å¼±": 3358,
      "å¹³åĿĩ": 3359,
      "æİ¥å¾ħ": 3360,
      "æĹłæ³ķ": 3361,
      "çº¦å®ļ": 3362,
      "è¡¥åħħ": 3363,
      "37": 3364,
      "è¿ŀç»Ń": 3365,
      "éĢĤçĶ¨": 3366,
      "éĤĢè¯·": 3367,
      "ä¿®å¤į": 3368,
      "Ġalso": 3369,
      "çļĦæĥħåĨµ": 3370,
      "34": 3371,
      "ass": 3372,
      "çĶ±äºİ": 3373,
      "èµĦæł¼è¦ģæ±Ĥ": 3374,
      "å±±å¸Ĥ": 3375,
      "åįĹäº¬": 3376,
      "è¯Ī": 3377,
      "æĲº": 3378,
      "è£ħå¤ĩ": 3379,
      "ç®¡æİ§": 3380,
      "å®¾": 3381,
      "ile": 3382,
      "çĪĨ": 3383,
      "çĽĳå¯Ł": 3384,
      "Ġev": 3385,
      "ç§ĳæĻ®": 3386,
      "ç¾İä¸½": 3387,
      "åĶĲ": 3388,
      "åħļæĶ¯éĥ¨": 3389,
      "çĿ£å¯¼": 3390,
      "çľŁæŃ£": 3391,
      "æĢ§åĴĮ": 3392,
      "ç¼ĵ": 3393,
      "ä»»ä½ķ": 3394,
      "æ»¡æĦı": 3395,
      "ä¸Ģä½ĵåĮĸ": 3396,
      "åĽ¢ç»ĵ": 3397,
      "å¡Ķ": 3398,
      "æ¿Ģåıĳ": 3399,
      "Ġyear": 3400,
      "åħ»æ®ĸ": 3401,
      "éļĶ": 3402,
      "Ġget": 3403,
      "è°·": 3404,
      "çļĦå¤§": 3405,
      "åīĤ": 3406,
      "åħ¬å¸ĥ": 3407,
      "çŃīå·¥ä½ľ": 3408,
      "ents": 3409,
      "form": 3410,
      "æĮĩç¤º": 3411,
      "æī¹åĩĨ": 3412,
      "è¿ĻéĩĮ": 3413,
      "åŁİéķĩ": 3414,
      "ff": 3415,
      "ãĢĭãĢĤ": 3416,
      "æ¢ħ": 3417,
      "é¤Ĳé¥®": 3418,
      "ence": 3419,
      "è¿ħ": 3420,
      "ä¼ģä¸ļçļĦ": 3421,
      "åĩºè¡Į": 3422,
      "ä¸ªå·¥ä½ľæĹ¥": 3423,
      "å¯»": 3424,
      "å¥ĭæĸĹ": 3425,
      "å°¼": 3426,
      "æĸ°æĹ¶ä»£ä¸ŃåĽ½çī¹èī²ç¤¾ä¼ļä¸»ä¹ī": 3427,
      "åĳĺå·¥": 3428,
      "æĬķèµĦèĢħ": 3429,
      "é¢Ĩå¯¼å°ıç»Ħ": 3430,
      "ç½ļæ¬¾": 3431,
      "å®ŀåľ°": 3432,
      "é¦ĸæ¬¡": 3433,
      "æłı": 3434,
      "èµĦè´¨": 3435,
      "erv": 3436,
      "åŁºç¡Ģä¸Ĭ": 3437,
      "ç´łè´¨": 3438,
      "Ġgo": 3439,
      "å¼ķè¿Ľ": 3440,
      "èµ°è®¿": 3441,
      "æĻ®éĢļ": 3442,
      "ç«¹": 3443,
      "é£Łåĵģå®īåħ¨": 3444,
      "æĭ¿": 3445,
      "è§¦": 3446,
      "çĶ²": 3447,
      "ä¸įè¶³": 3448,
      "æ¯ıå¤©": 3449,
      "95": 3450,
      "åĨĽäºº": 3451,
      "Ġsp": 3452,
      "çĶµåķĨ": 3453,
      "æķ´åĲĪ": 3454,
      "çıł": 3455,
      "ru": 3456,
      "æĩ": 3457,
      "ä¸¾æĬ¥": 3458,
      "ays": 3459,
      "æķĳåĬ©": 3460,
      "æıĲåīį": 3461,
      "ick": 3462,
      "åĤ¨å¤ĩ": 3463,
      "è®²è§£": 3464,
      "çľĭåĪ°": 3465,
      "å¹¿åľº": 3466,
      "ç±į": 3467,
      "ä¼ĺåħĪ": 3468,
      "2016": 3469,
      "æĿ¥åĪ°": 3470,
      "æ¢¯": 3471,
      "äº¤éĢļè¿Ĳè¾ĵ": 3472,
      "ark": 3473,
      "èµ°è¿Ľ": 3474,
      "ä¸ºä¸»": 3475,
      "ount": 3476,
      "åĵª": 3477,
      "çıŃåŃĲ": 3478,
      "èĩªåĬ¨": 3479,
      "å¼ĺ": 3480,
      "å¿ĥçĲĨ": 3481,
      "åĲĦç§į": 3482,
      "èĦĳ": 3483,
      "è´µå·ŀ": 3484,
      "åľĨ": 3485,
      "ï¼İ": 3486,
      "ä¸įåĬ¨": 3487,
      "æ¯Ľ": 3488,
      "Ġsome": 3489,
      "æ¡£æ¡Ī": 3490,
      "çĳŀ": 3491,
      "ary": 3492,
      "æ²³åĮĹ": 3493,
      "éĻĦä»¶": 3494,
      "æīĭæľº": 3495,
      "æ±ĩæĬ¥": 3496,
      "å¸¸æĢģåĮĸ": 3497,
      "å°ıåŃ¦": 3498,
      "é¦Ī": 3499,
      "æķ¬": 3500,
      "æĭĨ": 3501,
      "æĪĲéĥ½": 3502,
      "å»ºè®¾çļĦ": 3503,
      "åģľè½¦": 3504,
      "av": 3505,
      "æĬ«": 3506,
      "èŀįåħ¥": 3507,
      "çīµå¤´": 3508,
      "æľºæ¢°": 3509,
      "æĸ°æĹ¶ä»£ä¸ŃåĽ½çī¹èī²ç¤¾ä¼ļä¸»ä¹īæĢĿæĥ³": 3510,
      "ĠV": 3511,
      "å½°": 3512,
      "çŁĽ": 3513,
      "è·µè¡Į": 3514,
      "ä¸Ģå¹´": 3515,
      "å¤ĩæ¡Ī": 3516,
      "æĤ£èĢħ": 3517,
      "æľĢåĲİ": 3518,
      "åĲĦé¡¹å·¥ä½ľ": 3519,
      "ç¥Ŀ": 3520,
      "æĬ¥ä»·": 3521,
      "48": 3522,
      "ä¸Ńæłĩ": 3523,
      "å±ķçİ°": 3524,
      "æİĮæı¡": 3525,
      "ãĢĲ": 3526,
      "éĢĲæŃ¥": 3527,
      "èĻ½": 3528,
      "ä¿Ĺ": 3529,
      "äºĴåĬ¨": 3530,
      "åħ¼": 3531,
      "åĢį": 3532,
      "ĠIt": 3533,
      "çĬ¶æĢģ": 3534,
      "æ³ķå®ļä»£è¡¨äºº": 3535,
      "éĻķ": 3536,
      "ä¹łè¿ĳå¹³æĸ°æĹ¶ä»£ä¸ŃåĽ½çī¹èī²ç¤¾ä¼ļä¸»ä¹īæĢĿæĥ³": 3537,
      "æĪªæŃ¢æĹ¶éĹ´": 3538,
      "åĬ¨æĢģ": 3539,
      "è°ĭåĪĴ": 3540,
      "Ġhis": 3541,
      "æļ´": 3542,
      "çŁĽçĽ¾": 3543,
      "æį·": 3544,
      "æĿŃ": 3545,
      "çĹĩ": 3546,
      "çĬ¶åĨµ": 3547,
      "èĥ¡": 3548,
      "Ġpart": 3549,
      "å¥ĩ": 3550,
      "åºĬ": 3551,
      "æ²»çĸĹ": 3552,
      "vel": 3553,
      "åį±éĻ©": 3554,
      "æ³¨éĩį": 3555,
      "ä¸įæĺ¯": 3556,
      "äºĮåįģå¤§": 3557,
      "è®¸åı¯è¯ģ": 3558,
      "æ¬¡ä¼ļè®®": 3559,
      "éĩĩè´Ńé¡¹çĽ®": 3560,
      "ä½ĵçİ°": 3561,
      "ãĢĳ": 3562,
      "ical": 3563,
      "å®īè£ħ": 3564,
      "å¸¸å§Ķ": 3565,
      "å¡ĳ": 3566,
      "çī¹çĤ¹": 3567,
      "çĶŁåĬ¨": 3568,
      "å¯¹å¤ĸ": 3569,
      "cn": 3570,
      "æģ¶": 3571,
      "ä¸ļä¸»": 3572,
      "åĮºå§Ķ": 3573,
      "èĩªä¸»": 3574,
      "æ±¡æ°´": 3575,
      "éĢĢå½¹": 3576,
      "çī¹åĪ«æĺ¯": 3577,
      "éĿ¢åĲĳ": 3578,
      "åĩ¡": 3579,
      "è¡¨åĨ³": 3580,
      "é¡ºåĪ©": 3581,
      "ub": 3582,
      "æ¯ıå¹´": 3583,
      "ç»ĨåĮĸ": 3584,
      "æŃ¦æ±ī": 3585,
      "åįıä½ľ": 3586,
      "æķĪçĽĬ": 3587,
      "åĭŁéĽĨ": 3588,
      "å¥ĸåĬ±": 3589,
      "ĠCh": 3590,
      "æī§è¡Įäºº": 3591,
      "çŀ": 3592,
      "æ¹ĸåĮĹ": 3593,
      "com": 3594,
      "è¿Ŀæ³ķè¡Įä¸º": 3595,
      "Ġdis": 3596,
      "èº«ä»½è¯ģ": 3597,
      "ĠãĢĬ": 3598,
      "ition": 3599,
      "Ġlike": 3600,
      "æ³½": 3601,
      "åħ¨ä¼ļ": 3602,
      "æĥħå½¢": 3603,
      "æīĭç»Ń": 3604,
      "æľ±": 3605,
      "åİ¦": 3606,
      "Ġneed": 3607,
      "çĶµåĬĽ": 3608,
      "ï¼īï¼Ľ": 3609,
      "èĻĳ": 3610,
      "æīĢåľ¨": 3611,
      "Ġnew": 3612,
      "èģĶç³»æĸ¹å¼ı": 3613,
      "now": 3614,
      "æ¸Ķ": 3615,
      "æĬ¥éģĵ": 3616,
      "Ġtra": 3617,
      "è¡ĮæĶ¿æī§æ³ķ": 3618,
      "çŁ¥è¯Ĩäº§æĿĥ": 3619,
      "å±±åĮº": 3620,
      "75": 3621,
      "ç§©": 3622,
      "åħ¨å¹´": 3623,
      "åĢ¡": 3624,
      "æīĵåĩ»": 3625,
      "ç£ĭ": 3626,
      "68": 3627,
      "çĶ³è¯·äºº": 3628,
      "98": 3629,
      "äº«åıĹ": 3630,
      "åĪ©æ¶¦": 3631,
      "ä¸ĢæĿ¡": 3632,
      "çº¿ä¸ĭ": 3633,
      "ç§©åºı": 3634,
      "éĻµ": 3635,
      "éŁ©": 3636,
      "äººåĬĽ": 3637,
      "æłĩå¿Ĺ": 3638,
      "çĶ¨è½¦": 3639,
      "ç¾¤ä½ĵ": 3640,
      "è¿ĺæĺ¯": 3641,
      "çĤİ": 3642,
      "åİ¿çº§": 3643,
      "å±ı": 3644,
      "ĠäºĶ": 3645,
      "pl": 3646,
      "èģĶåĲĪä½ĵ": 3647,
      "è°ĥåº¦": 3648,
      "è¾½": 3649,
      "åıįé¦Ī": 3650,
      "æ°ĳä¸»": 3651,
      "æĺĨ": 3652,
      "Ġthem": 3653,
      "ç¦ıå»º": 3654,
      "åĳĬçŁ¥": 3655,
      "äººå¤§å¸¸å§Ķä¼ļ": 3656,
      "åī¯ä¸»ä»»": 3657,
      "äºķ": 3658,
      "èĭ¦": 3659,
      "éĩįåºĨå¸Ĥ": 3660,
      "åįļçī©": 3661,
      "ä¾µ": 3662,
      "ä¸Ģèĩ´": 3663,
      "éĵº": 3664,
      "æħ¢": 3665,
      "åĩŃ": 3666,
      "ä¹¦éĿ¢": 3667,
      "âĢĿãĢģâĢľ": 3668,
      "èĽ": 3669,
      "ä¿Ħ": 3670,
      "è¶ĭ": 3671,
      "äººæķ°": 3672,
      "æİĺ": 3673,
      "æ¸ħçĲĨ": 3674,
      "åĪ¶éĢłä¸ļ": 3675,
      "ç»Ħç»ĩå¼Ģå±ķ": 3676,
      "æĪĳçľģ": 3677,
      "åĩºåħ·": 3678,
      "æĦŁåıĹ": 3679,
      "ä¸Ńåħ±": 3680,
      "ç¼©": 3681,
      "è¯¾ç¨ĭ": 3682,
      "Ġar": 3683,
      "æŃ£ç¡®": 3684,
      "ç£ĭåķĨ": 3685,
      "ä¸ĭè½½": 3686,
      "å·¥åķĨ": 3687,
      "è®®æ¡Ī": 3688,
      "åħ¬å®īå±Ģ": 3689,
      "ä¿¡å¿ĥ": 3690,
      "èī¯å¥½çļĦ": 3691,
      "æ¹¿": 3692,
      "ç®¡çĲĨå±Ģ": 3693,
      "65": 3694,
      "è¿ħéĢŁ": 3695,
      "åħ³å¿ĥ": 3696,
      "ç²ī": 3697,
      "æĺ¥èĬĤ": 3698,
      "æµª": 3699,
      "ç»ĺ": 3700,
      "æĬĺ": 3701,
      "èľ": 3702,
      "ond": 3703,
      "å¤§èµĽ": 3704,
      "çļĦåĲĮæĹ¶": 3705,
      "ç½ĳæł¼": 3706,
      "Ġbeen": 3707,
      "åĬ¨åĳĺ": 3708,
      "è¡Ķ": 3709,
      "Ġover": 3710,
      "åįĬå¹´": 3711,
      "åĿĲ": 3712,
      "ç®¡çĲĨåĬŀæ³ķ": 3713,
      "åįģä¹Ŀ": 3714,
      "æ´Ĺ": 3715,
      "äºĮæĿ¡": 3716,
      "æ±Łè¥¿": 3717,
      "âĳ": 3718,
      "Ġif": 3719,
      "åĽłæŃ¤": 3720,
      "èĤ¯": 3721,
      "å¤ļæł·": 3722,
      "ç«ĭè¶³": 3723,
      "æłĩåĩĨåĮĸ": 3724,
      "æĿ¡ä»¶çļĦ": 3725,
      "ä»ĵ": 3726,
      "æĸ°å»º": 3727,
      "ĠSt": 3728,
      "www": 3729,
      "åħ±äº§åħļ": 3730,
      "èĬĤèĥ½": 3731,
      "Ġwhen": 3732,
      "è¿¹": 3733,
      "æĢ§çļĦ": 3734,
      "åĪĹåħ¥": 3735,
      "æĬ«éľ²": 3736,
      "ings": 3737,
      "ç¨ĭåº¦": 3738,
      "Ġspe": 3739,
      "é¢Ħéĺ²": 3740,
      "è½¬ç§»": 3741,
      "æĢĿè·¯": 3742,
      "åį´": 3743,
      "32": 3744,
      "å¼ĺæī¬": 3745,
      "è¿ĳæľŁ": 3746,
      "æ¸Ĳ": 3747,
      "åĩĿèģļ": 3748,
      "å·¦åı³": 3749,
      "èµĽäºĭ": 3750,
      "æĿ¥æºĲ": 3751,
      "å¸¦é¢Ĩ": 3752,
      "åĽłç´ł": 3753,
      "åħļçļĦäºĮåįģå¤§": 3754,
      "çĿ£æŁ¥": 3755,
      "ial": 3756,
      "çĽ®çļĦ": 3757,
      "éĿĻ": 3758,
      "2000": 3759,
      "éĢĴäº¤": 3760,
      "è¦ģç´ł": 3761,
      "è°Ĳ": 3762,
      "å¥ĳ": 3763,
      "éĻĲåĪ¶": 3764,
      "è¯·æ±Ĥ": 3765,
      "å¼Ĥè®®": 3766,
      "åĨħéĥ¨": 3767,
      "èĶ¬": 3768,
      "æ¸Ŀ": 3769,
      "é«ĺåº¦éĩįè§Ĩ": 3770,
      "åıĺæĽ´": 3771,
      "çªģåıĳ": 3772,
      "æĹ¶æľŁ": 3773,
      "ç¨»": 3774,
      "æĿ¥è¶Ĭ": 3775,
      "é¢Ħæ¡Ī": 3776,
      "éĿŀæ³ķ": 3777,
      "çĶµè§Ĩ": 3778,
      "ç¥¥": 3779,
      "æĳ¸": 3780,
      "åĬ²": 3781,
      "å®ŀäºĭ": 3782,
      "ç¾İå¥½": 3783,
      "ä¿¡è®¿": 3784,
      "ä¸´æĹ¶": 3785,
      "å¹´è½»": 3786,
      "46": 3787,
      "åĿ¡": 3788,
      "è¶ĬæĿ¥è¶Ĭ": 3789,
      "å®¡çĲĨ": 3790,
      "Ġimp": 3791,
      "å±¥èģĮ": 3792,
      "ä¸Ŀ": 3793,
      "æĿľ": 3794,
      "æľĪä»½": 3795,
      "æŀĹä¸ļ": 3796,
      "ç«ĭåį³": 3797,
      "éĿĴå°ĳå¹´": 3798,
      "æħ°": 3799,
      "æĲŃå»º": 3800,
      "èĨ": 3801,
      "æİ¨èįĲ": 3802,
      "è®ºåĿĽ": 3803,
      "é²ģ": 3804,
      "çļĦè¦ģæ±Ĥ": 3805,
      "å¼Ģå·¥": 3806,
      "åĢĴ": 3807,
      "09": 3808,
      "éĢģè¾¾": 3809,
      "åĢŁæ¬¾": 3810,
      "è¶£": 3811,
      "ild": 3812,
      "ä»İäºĭ": 3813,
      "å¹³å®ī": 3814,
      "åĵģç§į": 3815,
      "åİ¿å§Ķ": 3816,
      "éĶ¦": 3817,
      "åĪĨäº«": 3818,
      "åĪĿå¿ĥ": 3819,
      "å¤ļåħĥ": 3820,
      "ä»Ĭå¤©": 3821,
      "éĺ²æ±Ľ": 3822,
      "ress": 3823,
      "æ»ĳ": 3824,
      "39": 3825,
      "çĤ¼": 3826,
      "ä»İä¸¥": 3827,
      "èĢĥçĶŁ": 3828,
      "æĶ¶éĽĨ": 3829,
      "),": 3830,
      "Ġpre": 3831,
      "å¹¿å·ŀ": 3832,
      "çļ®": 3833,
      "ĠWe": 3834,
      "Ġthere": 3835,
      "å¤ļä¸ª": 3836,
      "åıĳè¨Ģ": 3837,
      "ç»¿åĮĸ": 3838,
      "ä¸ĢèĪ¬åħ¬åħ±": 3839,
      "èµĭèĥ½": 3840,
      "å¤§æķ°æį®": 3841,
      "æľºéģĩ": 3842,
      "Ġå¸Ĥ": 3843,
      "æİĴæĶ¾": 3844,
      "åįıåķĨ": 3845,
      "éŁ³ä¹Ĳ": 3846,
      "06": 3847,
      "éĢ¾": 3848,
      "å¤§åŀĭ": 3849,
      "ä¸Ĭå¹´": 3850,
      "æīĭæ®µ": 3851,
      "åĶ±": 3852,
      "æĭĴ": 3853,
      "è¿Ľå±ķ": 3854,
      "åĴĮè°Ĳ": 3855,
      "æĽ´æĸ°": 3856,
      "è¯¢éĹ®": 3857,
      "åįļçī©é¦Ĩ": 3858,
      "ren": 3859,
      "èµĶåģ¿": 3860,
      "æ°ĳèŃ¦": 3861,
      "ç»´ä¿®": 3862,
      "å®ŀæĸ½æĸ¹æ¡Ī": 3863,
      "Ġwhat": 3864,
      "åĨ³çŃĸéĥ¨ç½²": 3865,
      "æĬ¼": 3866,
      "çªĹåı£": 3867,
      "å¢Ļ": 3868,
      "èµ¶": 3869,
      "æ¶²": 3870,
      "æľ¬æ¡Ī": 3871,
      "æĭ¥æľī": 3872,
      "07": 3873,
      "ors": 3874,
      "ish": 3875,
      "æľīåħ³è§Ħå®ļ": 3876,
      "ä¼¼": 3877,
      "æĪĲäº¤": 3878,
      "åıĤè§Ĥ": 3879,
      "æ¬¢è¿İ": 3880,
      "éĽ¶åĶ®": 3881,
      "æµ¦": 3882,
      "æĹ¨": 3883,
      "å®¶éķ¿": 3884,
      "Ġpe": 3885,
      "55": 3886,
      "æł¹æľ¬": 3887,
      "å°¤": 3888,
      "low": 3889,
      "èĦļ": 3890,
      "åįģä¸ī": 3891,
      "äººç¤¾": 3892,
      "Ġ9": 3893,
      "èµŀ": 3894,
      "è½¯ä»¶": 3895,
      "å·¥èīº": 3896,
      "è´¦æĪ·": 3897,
      "å®Įæķ´": 3898,
      "éĥŃ": 3899,
      "æĸ°åĨł": 3900,
      "èµģ": 3901,
      "Ġacc": 3902,
      "èĩªæĪĳ": 3903,
      "ä¸ļç»©": 3904,
      "ç§Łèµģ": 3905,
      "äº¡": 3906,
      "ä¼ı": 3907,
      "æĹ¥ä¸ĭåįĪ": 3908,
      "æĸĩçī©": 3909,
      "çľģæĶ¿åºľ": 3910,
      "08": 3911,
      "äºĭå®ľ": 3912,
      "Ġag": 3913,
      "èĢģå¹´äºº": 3914,
      "æķ¢": 3915,
      "æ¬ł": 3916,
      "44": 3917,
      "è§ĦåĪĻ": 3918,
      "åĭŁéĽĨèµĦéĩĳ": 3919,
      "ä½ĵåĪ¶": 3920,
      "çİ©": 3921,
      "1000": 3922,
      "çº¿è·¯": 3923,
      "ä¾¿åĪ©": 3924,
      "Ġro": 3925,
      "åħ¬åı¸çļĦ": 3926,
      "åĬłå¼ºå¯¹": 3927,
      "åħįè´¹": 3928,
      "è·ĥ": 3929,
      "æĦŁè°¢": 3930,
      "è¯ķéªĮ": 3931,
      "é«ĺç«¯": 3932,
      "çĽ¸ç»ĵåĲĪ": 3933,
      "ä¸¹": 3934,
      "æĶ¿åĬ¡æľįåĬ¡": 3935,
      "ä¸ĵéĹ¨": 3936,
      "å¤ļæ¬¡": 3937,
      "è¡Ķæİ¥": 3938,
      "æĹ¶åĢĻ": 3939,
      "Ġprov": 3940,
      "ä¼Ĭ": 3941,
      "åĪĨå±Ģ": 3942,
      "è²": 3943,
      "Ġ-": 3944,
      "ens": 3945,
      "çĵ¦": 3946,
      "æľīæľº": 3947,
      "èĤº": 3948,
      "åģı": 3949,
      "éº¦": 3950,
      "çĽĳäºĭ": 3951,
      "ç¼´è´¹": 3952,
      "wn": 3953,
      "è²Į": 3954,
      "è´§çī©": 3955,
      "è¯į": 3956,
      "é«ĺæĸ°åĮº": 3957,
      "åĵįåºĶæĸĩä»¶": 3958,
      "æĶ¶åĪ°": 3959,
      "è¿Ī": 3960,
      "ä¸įäºĪ": 3961,
      "æī§çħ§": 3962,
      "åľ¨çº¿": 3963,
      "å®ŀçİ°äºĨ": 3964,
      "åĲĪä½ľç¤¾": 3965,
      "å¼ĢåĲ¯": 3966,
      "æ¯Ķè¾ĥ": 3967,
      "çļĦçĽ¸åħ³": 3968,
      "å·¥å§Ķ": 3969,
      "ãĢĭãĢģãĢĬ": 3970,
      "è¿ĩåİ»": 3971,
      "Ġthan": 3972,
      "Ġjust": 3973,
      "æľºåĻ¨": 3974,
      "éĥ¨éķ¿": 3975,
      "éĿ¢ä¸´": 3976,
      "%ãĢģ": 3977,
      "æ¡Ĥ": 3978,
      "ough": 3979,
      "éļĨ": 3980,
      "nder": 3981,
      "è¯Ĺ": 3982,
      "ä¸¥æł¼èĲ½å®ŀ": 3983,
      "æĳĨ": 3984,
      "æµģåĬ¨": 3985,
      "æ¦ľ": 3986,
      "è´¥": 3987,
      "æķı": 3988,
      "è¾©": 3989,
      "æĸ°çĸĨ": 3990,
      "è´£ä»¤": 3991,
      "è¡¥åģ¿": 3992,
      "Ġsa": 3993,
      "æĢ»é¢Ŀ": 3994,
      "æĪĳå±Ģ": 3995,
      "æĸ¹ä½į": 3996,
      "éĵľ": 3997,
      "çºªæ£Ģ": 3998,
      "ä¸Ģè·¯": 3999,
      "å¿Ļ": 4000,
      "ä¸ĩåĲ¨": 4001,
      "çĻ¾å§ĵ": 4002,
      "å±Ĥæ¬¡": 4003,
      "å·¡æŁ¥": 4004,
      "èº«ä½ĵ": 4005,
      "èĤ¡ä¸ľå¤§ä¼ļ": 4006,
      "çĴ": 4007,
      "éĿĴå²Ľ": 4008,
      "éļ¾é¢ĺ": 4009,
      "æĬķç¥¨": 4010,
      "æĹ¥åĨħ": 4011,
      "ä¸Ģè¡Į": 4012,
      "å¯Ħ": 4013,
      "Ġco": 4014,
      "Ġhow": 4015,
      "æ´¾åĩº": 4016,
      "ç»ıæµİç¤¾ä¼ļåıĳå±ķ": 4017,
      "éħįç½®": 4018,
      "æĿ°": 4019,
      "æ´ŀ": 4020,
      "çĪ¶": 4021,
      "åĬ¨è½¦": 4022,
      "ä¾Ľç»Ļ": 4023,
      "å´ĩ": 4024,
      "Ġdes": 4025,
      "Ġ2023": 4026,
      "éķ¿æ±Ł": 4027,
      "Ġ2020": 4028,
      "éĿŀéģĹ": 4029,
      "è¿Ľåº¦": 4030,
      "äººåĬĽèµĦæºĲ": 4031,
      "åĩ¤": 4032,
      "æĢİ": 4033,
      "Ġknow": 4034,
      "æīįèĥ½": 4035,
      "å®ļä½į": 4036,
      "ä¸ĢèĪ¬åħ¬åħ±é¢Ħç®Ĺ": 4037,
      "èĮĥåĽ´åĨħ": 4038,
      "åŃ©åŃĲä»¬": 4039,
      "ä½Ľ": 4040,
      "ink": 4041,
      "æī¶æĮģ": 4042,
      "è¡¨çİ°": 4043,
      "æ´»åĬ¨ä¸Ń": 4044,
      "é©±": 4045,
      "è½¬åıĺ": 4046,
      "ram": 4047,
      "æĿ¯": 4048,
      "ory": 4049,
      "lic": 4050,
      "ä¸ŃåĽ½åħ±äº§åħļ": 4051,
      "æĮĳæĪĺ": 4052,
      "ç¥ĸ": 4053,
      "äººä»¬": 4054,
      "ord": 4055,
      "å½¢è±¡": 4056,
      "Ġam": 4057,
      "æĶ¶çĽĬ": 4058,
      "åĬłéĢŁ": 4059,
      "çĸı": 4060,
      "ä¿¡æģ¯åħ¬å¼Ģ": 4061,
      "åĲĪåĬĽ": 4062,
      "éĻ¤äºĨ": 4063,
      "ä¸»ä½ĵè´£ä»»": 4064,
      "è¢«æī§è¡Įäºº": 4065,
      "æĺ¾èĳĹ": 4066,
      "å·¥ä½ľä¸Ń": 4067,
      "éĩĩè´Ńæĸĩä»¶": 4068,
      "éĽħ": 4069,
      "å»īæĶ¿": 4070,
      "èĢķåľ°": 4071,
      "åħ¬åħ±æľįåĬ¡": 4072,
      "ï¼īï¼ļ": 4073,
      "æ¨ª": 4074,
      "æĿ¥çļĦ": 4075,
      "ater": 4076,
      "çº½": 4077,
      "Ġhad": 4078,
      "çº·çº·": 4079,
      "é¦Ļæ¸¯": 4080,
      "éĺħè¯»": 4081,
      "è¿Ļç§į": 4082,
      "åİĭåĬĽ": 4083,
      "å®īç½®": 4084,
      "rough": 4085,
      "åĿı": 4086,
      "int": 4087,
      "åĿļæĮģä»¥": 4088,
      "å¹´åĪĿ": 4089,
      "ä¸ĭçļĦ": 4090,
      "çłĶç©¶éĻ¢": 4091,
      "Ġwould": 4092,
      "è®¤è¯ģ": 4093,
      "ä¸Ĭå¸Ĥåħ¬åı¸": 4094,
      "èģĶç³»äºº": 4095,
      "å«Į": 4096,
      "çĽĲ": 4097,
      "çĮª": 4098,
      "å®ħ": 4099,
      "çŃīéĹ®é¢ĺ": 4100,
      "èļ": 4101,
      "éĢĢå½¹åĨĽäºº": 4102,
      "ä¼ĺæĥł": 4103,
      "Ġcol": 4104,
      "åĩºäºĨ": 4105,
      "æĮĩå®ļ": 4106,
      "æ´»åĬ¨çļĦ": 4107,
      "é«ĺçº§": 4108,
      "èĲ¥ä¸ļæī§çħ§": 4109,
      "47": 4110,
      "èĢĥèĻĳ": 4111,
      "åħļåı²": 4112,
      "åĽ½å®¶çº§": 4113,
      "æıĲéĨĴ": 4114,
      "éĺ²æĬ¤": 4115,
      "å¦Ĥä»Ĭ": 4116,
      "åħ¬å¹³": 4117,
      "cial": 4118,
      "è®Ńç»ĥ": 4119,
      "æ¹ĺ": 4120,
      "åĳĬè¯ī": 4121,
      "å¢ŀæĶ¶": 4122,
      "éī´å®ļ": 4123,
      "ä»Ĭå¹´ä»¥æĿ¥": 4124,
      "å²Ń": 4125,
      "çĥ§": 4126,
      "ç¾¤ä¼ĹçļĦ": 4127,
      "åĬłå¿«æİ¨è¿Ľ": 4128,
      "irst": 4129,
      "å¸¸åĬ¡": 4130,
      "çŃ¾çº¦": 4131,
      "æłĩçļĦ": 4132,
      "æ··": 4133,
      "æĸ°æĬĢæľ¯": 4134,
      "çĽĳæİ§": 4135,
      "æ¹ĸåįĹ": 4136,
      "ang": 4137,
      "ä»ģ": 4138,
      "è§Ĥä¼Ĺ": 4139,
      "äºīåıĸ": 4140,
      "66": 4141,
      "Ġtr": 4142,
      "åģ¥èº«": 4143,
      "å²©": 4144,
      "è´Łè´£åĲĮå¿Ĺ": 4145,
      "58": 4146,
      "åĳ¨å¹´": 4147,
      "å¹¼åĦ¿åĽŃ": 4148,
      "lp": 4149,
      "åħ¬äº¤": 4150,
      "ä»²": 4151,
      "åħ¨æ°ĳ": 4152,
      "æĻĭ": 4153,
      "å¹¿ä¸ľçľģ": 4154,
      "åĮĸçļĦ": 4155,
      "ä¸Ńåįİæ°ĳæĹı": 4156,
      "åĮĸåŃ¦": 4157,
      "æĸ¤": 4158,
      "æ£Ģå¯ŁéĻ¢": 4159,
      "fter": 4160,
      "éĢ¾æľŁ": 4161,
      "åħ¨æĸ¹ä½į": 4162,
      "æİ§èĤ¡": 4163,
      "æĸ°åįİ": 4164,
      "æĸ¹ä¾¿": 4165,
      "use": 4166,
      "é¥Ń": 4167,
      "èĶ¬èıľ": 4168,
      "æĿĥåĪ©": 4169,
      "ĠThis": 4170,
      "æĳ©": 4171,
      "èħ¾": 4172,
      "ç¤ºèĮĥåĮº": 4173,
      "äººå·¥æĻºèĥ½": 4174,
      "çĲĨè§£": 4175,
      "åĪ©çİĩ": 4176,
      "åħ¨è¦ĨçĽĸ": 4177,
      "ä¸įæĸŃæıĲåįĩ": 4178,
      "åį«çĶŁåģ¥åº·": 4179,
      "èĴĻåı¤": 4180,
      "æĹ¥æľŁ": 4181,
      "ound": 4182,
      "è®¨è®º": 4183,
      "æ¯ıä¸ª": 4184,
      "éĢĢä¼ĳ": 4185,
      "çĸ¾çĹħ": 4186,
      "åĪĽä½ľ": 4187,
      "å¿ħè¦ģ": 4188,
      "éĺ»": 4189,
      "ä½įç½®": 4190,
      "åĬłçĽĸ": 4191,
      "æĢ»ç»ıçĲĨ": 4192,
      "çģŃ": 4193,
      "çļĦä¼ģä¸ļ": 4194,
      "çĽĳå§Ķ": 4195,
      "Ġsc": 4196,
      "åĢ¾": 4197,
      "ç¦ıåĪ©": 4198,
      "Ġadd": 4199,
      "åĴĮæľįåĬ¡": 4200,
      "æľ¬åħ¬åĳĬ": 4201,
      "0000": 4202,
      "äº§ä¸ļåĽŃ": 4203,
      "éģį": 4204,
      "Ġinto": 4205,
      "è¯ļä¿¡": 4206,
      "è½¨": 4207,
      "ä¼Łå¤§": 4208,
      "åĪ©æģ¯": 4209,
      "èĢĹ": 4210,
      "æįĲ": 4211,
      "æ¢³": 4212,
      "åĩºå¸Ńä¼ļè®®": 4213,
      "ning": 4214,
      "åŃ¦ä¹łæķĻèĤ²": 4215,
      "çīĩåĮº": 4216,
      "çº¿ç´¢": 4217,
      "åĲĮä¸Ģ": 4218,
      "åĢºåĬ¡": 4219,
      "å¤§å±Ģ": 4220,
      "é¡µ": 4221,
      "Ġcomm": 4222,
      "Ġuse": 4223,
      "å¹¿åĳĬ": 4224,
      "Ġmake": 4225,
      "2015": 4226,
      "çŁŃæĿ¿": 4227,
      "ä¸»åĬŀ": 4228,
      "æģĴ": 4229,
      "å¡ĺ": 4230,
      "Ġits": 4231,
      "vers": 4232,
      "æľįåĬ¡ä¸ļ": 4233,
      "åı¯æĮģç»Ń": 4234,
      "Ġmay": 4235,
      "æĹłäºº": 4236,
      "Ġhelp": 4237,
      "éĻķè¥¿": 4238,
      "78": 4239,
      "å¿ĺ": 4240,
      "ï¼Ľï¼Ī": 4241,
      "åłµ": 4242,
      "æ¯ķä¸ļçĶŁ": 4243,
      "æģ©": 4244,
      "é¢Ĩå¯¼å¹²éĥ¨": 4245,
      "ç§ĺä¹¦": 4246,
      "è½½ä½ĵ": 4247,
      "è¸ª": 4248,
      "Ġwere": 4249,
      "åİŁä»¶": 4250,
      "åĲĮæŃ¥": 4251,
      "ï¼ģâĢĿ": 4252,
      "åľ°äº§": 4253,
      "ç»Ħå»º": 4254,
      "ä¸ĩäº©": 4255,
      "å½ĵå¤©": 4256,
      "èĤ¯å®ļ": 4257,
      "Ġno": 4258,
      "éĩįçĤ¹å·¥ä½ľ": 4259,
      "ä¹łè¿ĳå¹³æĢ»ä¹¦è®°åħ³äºİ": 4260,
      "å¼¹": 4261,
      "åĬĽçļĦ": 4262,
      "åİĭå®ŀ": 4263,
      "ç²¤": 4264,
      "å°Ĩç»§ç»Ń": 4265,
      "èĻ½çĦ¶": 4266,
      "çķľ": 4267,
      "ç²¾å½©": 4268,
      "æĤŁ": 4269,
      "ä¿®è®¢": 4270,
      "éģ¿åħį": 4271,
      "æ¢³çĲĨ": 4272,
      "çķħéĢļ": 4273,
      "ä¸Ĭçº§": 4274,
      "ä¼ĳéĹ²": 4275,
      "å©ļ": 4276,
      "ä»£çĲĨäºº": 4277,
      "Ġbu": 4278,
      "æ³¥": 4279,
      "çŃīæĥħåĨµ": 4280,
      "ä¿Ŀè¯ģéĩĳ": 4281,
      "å¥ī": 4282,
      "own": 4283,
      "æ²Ī": 4284,
      "ä¸ĩäºº": 4285,
      "æĮĸæİĺ": 4286,
      "åħ±æľī": 4287,
      "æł¸æŁ¥": 4288,
      "æĲ¬": 4289,
      "åĩºçĶŁ": 4290,
      "å·¥ä½ľä¼ļè®®": 4291,
      "çĶ¨æ°´": 4292,
      "æŁ¥å¤Ħ": 4293,
      "äººå£«": 4294,
      "é¸¡": 4295,
      "å»ºè®¾åĴĮ": 4296,
      "æĴ¤": 4297,
      "ä¼¸": 4298,
      "é¢ĨåŁŁçļĦ": 4299,
      "Ġpr": 4300,
      "èĤ¡æĿĥ": 4301,
      "å°Ĭ": 4302,
      "ä¹ĭåĲİ": 4303,
      "çģĮ": 4304,
      "ople": 4305,
      "æ·®": 4306,
      "èĥŀ": 4307,
      "èĦī": 4308,
      "æĪªèĩ³çĽ®åīį": 4309,
      "ç«ĭæ¡Ī": 4310,
      "èĬĤæĹ¥": 4311,
      "çĻ¾åĪĨ": 4312,
      "åĪĨéĴŁ": 4313,
      "tern": 4314,
      "çıį": 4315,
      "å¹¶åľ¨": 4316,
      "è¶ĭåĬ¿": 4317,
      "çĶļ": 4318,
      "åıªæľī": 4319,
      "å¾ªçİ¯": 4320,
      "åıĳåĬĽ": 4321,
      "å®ŀæķĪ": 4322,
      "åŃ¦ç§ĳ": 4323,
      "æī¿åĮħ": 4324,
      "ä¸ºåĩĨ": 4325,
      "åħ±è®¡": 4326,
      "ä¾Ŀçħ§": 4327,
      "old": 4328,
      "åºķçº¿": 4329,
      "ä¸ĢåĲį": 4330,
      "éĻ¶": 4331,
      "åħ¬ç«ł": 4332,
      "lud": 4333,
      "å·¡å¯Ł": 4334,
      "åĪĨéħį": 4335,
      "å·¡è§Ĩ": 4336,
      "åĳĪçİ°": 4337,
      "å®īåħ¨éļĲæĤ£": 4338,
      "é¢ģ": 4339,
      "åģĩæĹ¥": 4340,
      "Ġ\"": 4341,
      "ä¸įä¼ļ": 4342,
      "ä¸Ģæĸ¹éĿ¢": 4343,
      "æıı": 4344,
      "å®ª": 4345,
      "49": 4346,
      "é«ĺæ°´å¹³": 4347,
      "éĢļä¿¡": 4348,
      "èĻ«": 4349,
      "æİ¨è¡Į": 4350,
      "itt": 4351,
      "å·¥åħ·": 4352,
      "æĪ´": 4353,
      "æĸĩèīº": 4354,
      "Ġserv": 4355,
      "æĪĳä»¬çļĦ": 4356,
      "åĨľæĪ·": 4357,
      "åįģåħ«": 4358,
      "æŀĦæĪĲ": 4359,
      "éĩįè¦ģè®²è¯Ŀ": 4360,
      "ä½Ĩæĺ¯": 4361,
      "æĶ¿åºľéĩĩè´Ńç½ĳ": 4362,
      "ĠåħŃ": 4363,
      "è´Ńç½®": 4364,
      "åĪĿæŃ¥": 4365,
      "ful": 4366,
      "çĻ»å½ķ": 4367,
      "ç§»åĬ¨": 4368,
      "Ġmost": 4369,
      "æĳĺ": 4370,
      "åĪĳäºĭ": 4371,
      "çļĦä¸»è¦ģ": 4372,
      "åıĬä»¥ä¸Ĭ": 4373,
      "åĽ¾ä¹¦": 4374,
      "å»īæ´ģ": 4375,
      "56": 4376,
      "è¦ģåĬłå¼º": 4377,
      "å±±è¥¿": 4378,
      "é¾Ļå¤´": 4379,
      "æĹ¥æĬ¥": 4380,
      "ä¿®æĶ¹": 4381,
      "åĿĿ": 4382,
      "ç¾Ĭ": 4383,
      "å¯ĨåĪĩ": 4384,
      "çĥŃæĥħ": 4385,
      "å¤§éģĵ": 4386,
      "æĻºèĥ½åĮĸ": 4387,
      "æĸĹäºī": 4388,
      "çŃīçĽ¸åħ³": 4389,
      "æıĲè´¨": 4390,
      "éŀ": 4391,
      "å°Ĩåľ¨": 4392,
      "Ġlook": 4393,
      "ä¼łç»ŁæĸĩåĮĸ": 4394,
      "æµ·åįĹ": 4395,
      "åŁºæľ¬æĥħåĨµ": 4396,
      "æľīäºĨ": 4397,
      "æ¤įçī©": 4398,
      "åĿĬ": 4399,
      "çºªå¿µ": 4400,
      "Ġtw": 4401,
      "æħ°éĹ®": 4402,
      "å¤¯": 4403,
      "éº»": 4404,
      "æĥħåĨµè¯´æĺİ": 4405,
      "Ġbec": 4406,
      "å¾®ä¼ģä¸ļ": 4407,
      "çŃīåľ°": 4408,
      "çºµ": 4409,
      "Ġæł¹æį®": 4410,
      "åĪĨåħ¬åı¸": 4411,
      "gov": 4412,
      "è¿ĽæŃ¥": 4413,
      "åįģåĽĽäºĶ": 4414,
      "å®ĭ": 4415,
      "èĪĴ": 4416,
      "çĶŁäº§ç»ıèĲ¥": 4417,
      "é«ĺæłĩåĩĨ": 4418,
      "57": 4419,
      "59": 4420,
      "å±Ģåħļç»Ħ": 4421,
      "ual": 4422,
      "Ġem": 4423,
      "éĽĨèģļ": 4424,
      "å²³": 4425,
      "çī¹å®ļ": 4426,
      "è¯ĪéªĹ": 4427,
      "Ġæľ¬æ¬¡": 4428,
      "åīįæľŁ": 4429,
      "åįģäºĶ": 4430,
      "åĨįæ¬¡": 4431,
      "æ£ļ": 4432,
      "ä¼łè¾¾": 4433,
      "çĽ¯": 4434,
      "rent": 4435,
      "çĶµå½±": 4436,
      "åŀĥåľ¾åĪĨç±»": 4437,
      "éĺ²æŃ¢": 4438,
      "çĽ¸åħ³è´Łè´£äºº": 4439,
      "æįŁå®³": 4440,
      "çĩĥæ°Ķ": 4441,
      "æīĢä»¥": 4442,
      "å¹´åºķ": 4443,
      "æ¡ĥ": 4444,
      "æ·»": 4445,
      "æķĻæİĪ": 4446,
      "å¤Ħäºİ": 4447,
      "ose": 4448,
      "oc": 4449,
      "æľīæīĢ": 4450,
      "ä¹Ļ": 4451,
      ").": 4452,
      "ä¸ŃåŃ¦": 4453,
      "ç§¦": 4454,
      "Ġonly": 4455,
      "âĢĵ": 4456,
      "Ġrec": 4457,
      "å¤§éĺŁ": 4458,
      "88": 4459,
      "èµı": 4460,
      "ices": 4461,
      "åıĤä¿Ŀ": 4462,
      "Ġ[": 4463,
      "çļĦèī¯å¥½": 4464,
      "éģĹäº§": 4465,
      "çİ°è±¡": 4466,
      "å¦ĩå¥³": 4467,
      "åĮºæĶ¿åºľ": 4468,
      "ä¸įåı¯": 4469,
      "åħ³èģĶ": 4470,
      "å¹¶å¯¹": 4471,
      "Ġfirst": 4472,
      "èµł": 4473,
      "åĮħè£ħ": 4474,
      "è¯¾åłĤ": 4475,
      "ft": 4476,
      "æĻ®åıĬ": 4477,
      "è·Ŀç¦»": 4478,
      "Ġpeople": 4479,
      "è§£éĩĬ": 4480,
      "01": 4481,
      "è§£è¯»": 4482,
      "å¤įæĿĤ": 4483,
      "å±ħä½ı": 4484,
      "å¸¦å¤´": 4485,
      "è¿Ľåı£": 4486,
      "ise": 4487,
      "åĽºå®ļ": 4488,
      "æ°ĳæĶ¿": 4489,
      "ç¤¾ä¼ļä¿Ŀéļľ": 4490,
      "çĶŁæĢģæĸĩæĺİ": 4491,
      "PP": 4492,
      "è¾ĥå¤§": 4493,
      "åħ¬ç§¯": 4494,
      "çĽĳçĿ£æ£ĢæŁ¥": 4495,
      "ces": 4496,
      "æĹ±": 4497,
      "çİ°å®ŀ": 4498,
      "Ġprodu": 4499,
      "éħĴåºĹ": 4500,
      "æ²³åįĹ": 4501,
      "ï¼ĮãĢĬ": 4502,
      "Ġher": 4503,
      "é¸Ł": 4504,
      "è¿Ļæ¬¡": 4505,
      "éļıåĲİ": 4506,
      "å®¡è®®éĢļè¿ĩ": 4507,
      "æıĲåĩºäºĨ": 4508,
      "ä¾¨": 4509,
      "Ġéĩĩè´Ń": 4510,
      "è¦ģåĿļæĮģ": 4511,
      "æľįåĬ¡çļĦ": 4512,
      "æ¯«": 4513,
      "æ°´åºĵ": 4514,
      "çŁ¥åĲį": 4515,
      "è¥¿å®ī": 4516,
      "amp": 4517,
      "å°¾": 4518,
      "æľīåĪ©": 4519,
      "æĢĿç»´": 4520,
      "we": 4521,
      "æĸ°åıĳå±ķ": 4522,
      "æĿ¥çľĭ": 4523,
      "åıĳåĩº": 4524,
      "å¸Ĥåľºä¸»ä½ĵ": 4525,
      "é¾Ļæ±Ł": 4526,
      "å¼Ģå¹ķ": 4527,
      "åĭĺ": 4528,
      "çĶļèĩ³": 4529,
      "42": 4530,
      "æľĪåºķ": 4531,
      "2014": 4532,
      "åīįå¾Ģ": 4533,
      "æłĭ": 4534,
      "æĸ°åŁİ": 4535,
      "ä¸ĭåĪĹ": 4536,
      "åĨħèĴĻåı¤": 4537,
      "å¼Ģå±ķäºĨ": 4538,
      "æŁ¥çľĭ": 4539,
      "Ġthrough": 4540,
      "end": 4541,
      "å¥¶": 4542,
      "æĦŁæŁĵ": 4543,
      "æĬ¤çĲĨ": 4544,
      "æĭħä»»": 4545,
      "å¥ĳæľº": 4546,
      "äºĭåĬ¡æīĢ": 4547,
      "çºªæ£ĢçĽĳå¯Ł": 4548,
      "äººç±»": 4549,
      "å¤§éĩı": 4550,
      "è°±": 4551,
      "ç«Ļä½į": 4552,
      "èģĶç³»çĶµè¯Ŀ": 4553,
      "æµģåŁŁ": 4554,
      "åĳ¨æľŁ": 4555,
      "ä¸Ģå®¶": 4556,
      "æ°§": 4557,
      "hed": 4558,
      "ç¿»": 4559,
      "åĬ©æİ¨": 4560,
      "ç¦ģæŃ¢": 4561,
      "å¤¯å®ŀ": 4562,
      "Ġind": 4563,
      "éĤ»": 4564,
      "èĭıå·ŀ": 4565,
      "éĢĤåºĶ": 4566,
      "å¿«éĢĴ": 4567,
      "æ´Ľ": 4568,
      "æĶ¹åıĺ": 4569,
      "æľīéĻĲè´£ä»»": 4570,
      "å±±ä¸ľçľģ": 4571,
      "æ¼Ķç»ĥ": 4572,
      "ä¸ºä¸»é¢ĺ": 4573,
      "äºĮçº§": 4574,
      "ĠHe": 4575,
      "ÃĹÃĹ": 4576,
      "çļĦåİŁåĪĻ": 4577,
      "96": 4578,
      "ons": 4579,
      "ä¸įåĬ¨äº§": 4580,
      "ç»Ħéķ¿": 4581,
      "ä¸ĵé¡¹è¡ĮåĬ¨": 4582,
      "å»ºè®¾å·¥ç¨ĭ": 4583,
      "çī©è´¨": 4584,
      "èķ": 4585,
      "çī¢è®°": 4586,
      "å¯¿": 4587,
      "ç¬ĳ": 4588,
      "å»ºç«ĭåģ¥åħ¨": 4589,
      "è®¤åı¯": 4590,
      "èįīåİŁ": 4591,
      "ç¨¿": 4592,
      "æĸĩç«ł": 4593,
      "çĹĽ": 4594,
      "é¦ĸåħĪ": 4595,
      "é¹ı": 4596,
      "å¯Ĵ": 4597,
      "Ġthese": 4598,
      "åħ¬ç§¯éĩĳ": 4599,
      "Ġbet": 4600,
      "05": 4601,
      "çĶµæ±ł": 4602,
      "åģļæ³ķ": 4603,
      "æĬĵæīĭ": 4604,
      "ool": 4605,
      "çģ«çģ¾": 4606,
      "round": 4607,
      "èĢĲ": 4608,
      "ank": 4609,
      "Ġevery": 4610,
      "èŀįåĲĪåıĳå±ķ": 4611,
      "èŃ¦ç¤º": 4612,
      "åĮ»çĶŁ": 4613,
      "ç±»åŀĭ": 4614,
      "å®ŀéªĮå®¤": 4615,
      "ä¸Ĭæ¶¨": 4616,
      "ä¾Ľæ°´": 4617,
      "å£®å¤§": 4618,
      "åĪ·": 4619,
      "éĩįè¦ģçļĦ": 4620,
      "cts": 4621,
      "å£°æĺİ": 4622,
      "ç¢į": 4623,
      "åĲĪæ³ķæĿĥçĽĬ": 4624,
      "æĽ´å¥½åľ°": 4625,
      "çŃīçº§": 4626,
      "400": 4627,
      "å½ĵæĹ¶": 4628,
      "äºĳåįĹ": 4629,
      "æİ¥ç§į": 4630,
      "Ġcons": 4631,
      "åħ¨è¿ĩç¨ĭ": 4632,
      "èĲ¥åħ»": 4633,
      "æµ·æ´ĭ": 4634,
      "ä¹ĭåīį": 4635,
      "åįıåĬ©": 4636,
      "æľīæķĪçļĦ": 4637,
      "è¡£": 4638,
      "æıŃ": 4639,
      "ä½ĵç³»å»ºè®¾": 4640,
      "æ³ķåĽ½": 4641,
      "è°ģ": 4642,
      "æĶ¯éĺŁ": 4643,
      "çŃĳçī¢": 4644,
      "åĲīæŀĹ": 4645,
      "çĶĺèĤĥ": 4646,
      "å°¤åħ¶": 4647,
      "æľĹ": 4648,
      "æī¿åĬŀ": 4649,
      "Ġwell": 4650,
      "ç¤¾ä¿Ŀ": 4651,
      "æľªæĪĲ": 4652,
      "____": 4653,
      "æĽ´æĺ¯": 4654,
      "æľīéĻĲè´£ä»»åħ¬åı¸": 4655,
      "è¹": 4656,
      "hen": 4657,
      "ä¸ĭæĿ¥": 4658,
      "éĽĨç¾¤": 4659,
      "æĮĩåįĹ": 4660,
      "åıĳè¡¨": 4661,
      "äº¤æĺĵæīĢ": 4662,
      "åħ³çĪ±": 4663,
      "åĪĨç®¡": 4664,
      "çİ°éĩĳ": 4665,
      "ç§ĳæĬĢæľīéĻĲåħ¬åı¸": 4666,
      "èĤºçĤİ": 4667,
      "AI": 4668,
      "ä½ĵæ£Ģ": 4669,
      "åĶ¯": 4670,
      "æĻ®æŁ¥": 4671,
      "97": 4672,
      "ä¸ļæĢģ": 4673,
      "çļĦæľįåĬ¡": 4674,
      "è·¯å¾Ħ": 4675,
      "æĪ¿åľ°äº§": 4676,
      "ç²¾å¿ĥ": 4677,
      "èıĮ": 4678,
      "åĲĪè®¡": 4679,
      "je": 4680,
      "çĪ±å¿ĥ": 4681,
      "æ¸©æļĸ": 4682,
      "è¥¿éĥ¨": 4683,
      "æıĲæ¡Ī": 4684,
      "çļĦåŁºç¡Ģä¸Ĭ": 4685,
      "iew": 4686,
      "éĻª": 4687,
      "åĿ¦": 4688,
      "æ·±åħ¥å¼Ģå±ķ": 4689,
      "ç´§å¯Ĩ": 4690,
      "æ°ĳèĲ¥ä¼ģä¸ļ": 4691,
      "Th": 4692,
      "æıĲç¤º": 4693,
      "æĻ®æ³ķ": 4694,
      "Ġinclud": 4695,
      "æĭ¼": 4696,
      "éģĩåĪ°": 4697,
      "åºĶè¯¥": 4698,
      "ities": 4699,
      "å¦Ī": 4700,
      "çİ¯å¢ĥä¿ĿæĬ¤": 4701,
      "èº«è¾¹": 4702,
      "ade": 4703,
      "pport": 4704,
      "li": 4705,
      "æĮĩå¼ķ": 4706,
      "åī¯å±Ģéķ¿": 4707,
      "åħ¬åĬ¡çĶ¨è½¦": 4708,
      "ä¾¿æ°ĳ": 4709,
      "ä¸ºæ°ĳ": 4710,
      "04": 4711,
      "85": 4712,
      "æĿĨ": 4713,
      "æĿŃå·ŀ": 4714,
      "Ġwant": 4715,
      "Ġunder": 4716,
      "åĲĮåŃ¦": 4717,
      "å¸ĪçĶŁ": 4718,
      "çŃīéĩįçĤ¹": 4719,
      "çĸ«èĭĹ": 4720,
      "çĻ¾å¹´": 4721,
      "åįłæ¯Ķ": 4722,
      "Ġå¯¹": 4723,
      "æł¸éħ¸": 4724,
      "æĽ´å¤§": 4725,
      "éķ¿æķĪ": 4726,
      "ä¹ĭè·¯": 4727,
      "æĮĩæķ°": 4728,
      "ä»İä¸ļ": 4729,
      "å¸Ĥäººæ°ĳæĶ¿åºľ": 4730,
      "èĪªç©º": 4731,
      "çĲĨçĶ±": 4732,
      "åĲĮæľŁ": 4733,
      "ä¸īè§Ĵ": 4734,
      "åı°æ¹¾": 4735,
      "èĪį": 4736,
      "éĻ¤å¤ĸ": 4737,
      "éĶģ": 4738,
      "ä¸ĥæĿ¡": 4739,
      "æİ¨ä»ĭ": 4740,
      "å£¤": 4741,
      "æ¼Ķåĩº": 4742,
      "ä¸Ģå¸¦": 4743,
      "ates": 4744,
      "çļĦç²¾ç¥ŀ": 4745,
      "æĹ¥æľ¬": 4746,
      "æĬļ": 4747,
      "éķ¿æ²Ļ": 4748,
      "è±Ĩ": 4749,
      "éĹ®é¢ĺçļĦ": 4750,
      "å¼ķèµĦ": 4751,
      "é¥°": 4752,
      "å¸ĤåĮº": 4753,
      "èĽĭ": 4754,
      "åĪĨå·¥": 4755,
      "å»Ĭ": 4756,
      "æĮģæľī": 4757,
      "æķ´ä¸ª": 4758,
      "åİī": 4759,
      "les": 4760,
      "Ġback": 4761,
      "xt": 4762,
      "ä¹İ": 4763,
      "åī¯å¸Ĥéķ¿": 4764,
      "ä¸ĵçĶ¨": 4765,
      "åº§è°Īä¼ļ": 4766,
      "iness": 4767,
      "åĢºåĪ¸": 4768,
      "ä¸ªçĻ¾åĪĨ": 4769,
      "æ¸ħæ´ģ": 4770,
      "æī§æ³ķäººåĳĺ": 4771,
      "æľºåľº": 4772,
      "æ¼«": 4773,
      "ä¸Ģæł·": 4774,
      "è·Į": 4775,
      "Ġph": 4776,
      "å¡ŀ": 4777,
      "æĿĢ": 4778,
      "æĸ°ä¸Ģ": 4779,
      "è¡¨æ¼Ķ": 4780,
      "æĶ¶è´Ń": 4781,
      "è¾ŀ": 4782,
      "éĺŁåĳĺ": 4783,
      "èĬĤåģĩæĹ¥": 4784,
      "è¯īæ±Ĥ": 4785,
      "ç®¡çĲĨçļĦ": 4786,
      "åħ»èĢģæľįåĬ¡": 4787,
      "çİ°æľī": 4788,
      "åħļå§Ķä¹¦è®°": 4789,
      "æĮĩæĮ¥éĥ¨": 4790,
      "å·¥ä½ľèĢħ": 4791,
      "è´¢æĶ¿å±Ģ": 4792,
      "Ġexper": 4793,
      "éĺ²çĸ«": 4794,
      "æ¥ļ": 4795,
      "ä¸Ģç³»åĪĹ": 4796,
      "äº§éĩı": 4797,
      "æĿ¥è¯´": 4798,
      "çĽ¸å¯¹": 4799,
      "ating": 4800,
      "ä¸įæİ¥åıĹ": 4801,
      "æľŁåĨħ": 4802,
      "éĵ¸": 4803,
      "åĽĽå·Ŀçľģ": 4804,
      "ĠâĢĵ": 4805,
      "ä¸īçº§": 4806,
      "æıĲä¾ĽçļĦ": 4807,
      "æļĳ": 4808,
      "ä½İç¢³": 4809,
      "ian": 4810,
      "ç»ĵç®Ĺ": 4811,
      "èĢģå¹´": 4812,
      "çĶŁæĢģçİ¯å¢ĥå±Ģ": 4813,
      "éĳ": 4814,
      "çİ°å°Ĩ": 4815,
      "å¼ºåĪ¶": 4816,
      "ä¸ªçĻ¾åĪĨçĤ¹": 4817,
      "Ġbus": 4818,
      "è¿Ľä¸ĢæŃ¥åĬłå¼º": 4819,
      "èĸĦ": 4820,
      "æ·±åħ¥åŃ¦ä¹łè´¯å½»": 4821,
      "éĳ«": 4822,
      "ï¼Ī[": 4823,
      "æ±Łèĭıçľģ": 4824,
      "åįģåĪĨ": 4825,
      "ĠYou": 4826,
      "Ġvery": 4827,
      "çĽ¸äºĴ": 4828,
      "æ±¡æŁĵéĺ²æ²»": 4829,
      "å¥Ķ": 4830,
      "ious": 4831,
      "åľ°ä¸ĭ": 4832,
      "è¡¨è¾¾": 4833,
      "æĪĲå°±": 4834,
      "Ġsee": 4835,
      "76": 4836,
      "CA": 4837,
      "èĳ£äºĭéķ¿": 4838,
      "æµ©": 4839,
      "çĶŁæĢģçİ¯å¢ĥä¿ĿæĬ¤": 4840,
      "æĥ©": 4841,
      "è®¸å¤ļ": 4842,
      "æµĭè¯ķ": 4843,
      "Ġ11": 4844,
      "æĪĴ": 4845,
      "èĬĤçĤ¹": 4846,
      "è¿«": 4847,
      "ç¾İåħĥ": 4848,
      "æ¦ĤåĨµ": 4849,
      "ĊĠĊ": 4850,
      "å®ŀä½ĵ": 4851,
      "çłĶåĪ¤": 4852,
      "åħħçĶµ": 4853,
      "ause": 4854,
      "çĶµæ¢¯": 4855,
      "æľºåĻ¨äºº": 4856,
      "é¡¿": 4857,
      "æĹ¶åĪ»": 4858,
      "æĭĽåķĨå¼ķèµĦ": 4859,
      "çĺ": 4860,
      "åĩī": 4861,
      "åĨľçĶ°": 4862,
      "ict": 4863,
      "æĸĩåĮĸåĴĮ": 4864,
      "Ġ12": 4865,
      "ĠæĳĦ": 4866,
      "åĲĦæĸ¹": 4867,
      "Ġstud": 4868,
      "éķľ": 4869,
      "çłĶè®¨": 4870,
      "æ¯Ķå¦Ĥ": 4871,
      "è´Łæĭħ": 4872,
      "æĬ¥éĢģ": 4873,
      "è§ĦèĮĥåĮĸ": 4874,
      "æĥ¯": 4875,
      "03": 4876,
      "æ¨¡åŀĭ": 4877,
      "41": 4878,
      "43": 4879,
      "å¹²éĥ¨èģĮå·¥": 4880,
      "Ġ2022": 4881,
      "çļĦåİĨåı²": 4882,
      "å±ķè§Ī": 4883,
      "å¾ģç¨ĭ": 4884,
      "å°ĺ": 4885,
      "ä»ĬåĲİ": 4886,
      "Ġact": 4887,
      "åĨħæ¶µ": 4888,
      "ç³ĸ": 4889,
      "ç§ĺä¹¦éķ¿": 4890,
      "mer": 4891,
      "±ä¹Ĳ": 4892,
      "èĬĤçº¦": 4893,
      "æľºä¼ļ": 4894,
      "èĸª": 4895,
      "æĶ¹è¿Ľ": 4896,
      "æįķ": 4897,
      "æµ·å¤ĸ": 4898,
      "çĹħæ¯Ĵ": 4899,
      "è´º": 4900,
      "åĨ³èµĽ": 4901,
      "çŁ¥éģĵ": 4902,
      "urn": 4903,
      "éĢīæīĭ": 4904,
      "æ·±åħ¥æİ¨è¿Ľ": 4905,
      "åĶ®ä»·": 4906,
      "é»İ": 4907,
      "æĺ¯åľ¨": 4908,
      "oth": 4909,
      "æ½ľåľ¨": 4910,
      "èĢĮä¸Ķ": 4911,
      "éļĶç¦»": 4912,
      "åĬ¨èĥ½": 4913,
      "ä½İäºİ": 4914,
      "çŃ¾ç½²": 4915,
      "å¸ĤåľºçĽĳç®¡å±Ģ": 4916,
      "å®ŀåĬĽ": 4917,
      "å®ªæ³ķ": 4918,
      "ä»£çłģ": 4919,
      "éģµå®Ī": 4920,
      "åĪĬ": 4921,
      "åıĤèµĽ": 4922,
      "çŃīéĥ¨éĹ¨": 4923,
      "éĩįæĸ°": 4924,
      "Ġyears": 4925,
      "äººç¾¤": 4926,
      "åĩºç§Ł": 4927,
      "èĥ¶": 4928,
      "çļĦéĩįå¤§": 4929,
      "èĩªçĶ±": 4930,
      "ç®¡çĲĨå·¥ä½ľ": 4931,
      "ä¸ºæł¸å¿ĥ": 4932,
      "èī°": 4933,
      "èģĶçĽŁ": 4934,
      "éĻ¢éķ¿": 4935,
      "Ġrep": 4936,
      "å®«": 4937,
      "æĮīè§Ħå®ļ": 4938,
      "å»¶ä¼¸": 4939,
      "è¾½å®ģ": 4940,
      "æ¹¿åľ°": 4941,
      "åıĳæĶ¹": 4942,
      "åħĪè¡Į": 4943,
      "çļĦé«ĺ": 4944,
      "ç«£": 4945,
      "é¢ĦæľŁ": 4946,
      "ility": 4947,
      "æķĪèĥ½": 4948,
      "æĸĩåĮĸæĹħæ¸¸": 4949,
      "å¤įå·¥": 4950,
      "æĶ¿åºľéĩĩè´Ńæ³ķ": 4951,
      "è·Łè¸ª": 4952,
      "]ï¼ī": 4953,
      "æĸ°åħ´": 4954,
      "è¾Ľ": 4955,
      "èĥĮæĻ¯": 4956,
      "æ²»åħļ": 4957,
      "éĽĨæĪĲ": 4958,
      "yst": 4959,
      "éħįå¤ĩ": 4960,
      "ç«ŀäºīåĬĽ": 4961,
      "Ġdif": 4962,
      "éĩĮçļĦ": 4963,
      "é¢Ĩåıĸ": 4964,
      "æ¬£": 4965,
      "æıĲåĩºçļĦ": 4966,
      "è½¦éĹ´": 4967,
      "ä¸ĵé¡¹æķ´æ²»": 4968,
      "åıĳçļĦ": 4969,
      "å¾ħéģĩ": 4970,
      "å·¥äºº": 4971,
      "ork": 4972,
      "ä¸ĵä¸ļæĬĢæľ¯": 4973,
      "å¥³å£«": 4974,
      "Ġreg": 4975,
      "als": 4976,
      "äººå¤§ä»£è¡¨": 4977,
      "ä¸Ĭè¯īäºº": 4978,
      "ç®¡å§Ķä¼ļ": 4979,
      "çĽ¸æ¯Ķ": 4980,
      "âĢĿï¼ī": 4981,
      "ç²¾åĵģ": 4982,
      "ç©ºæ°Ķ": 4983,
      "æºĲå¤´": 4984,
      "uch": 4985,
      "æķĳçģ¾": 4986,
      "åĮ»çĸĹæľºæŀĦ": 4987,
      "å°½å¿«": 4988,
      "æĢİä¹Ī": 4989,
      "é©±åĬ¨": 4990,
      "ments": 4991,
      "æŃ»äº¡": 4992,
      "bs": 4993,
      "è§Ħç«ł": 4994,
      "æľ¬åľ°": 4995,
      "æľ¬äºº": 4996,
      "éĩĩè´Ńäºº": 4997,
      "ä¼ģä¸ļåĴĮ": 4998,
      "åºĶåľ¨": 4999,
      "çĥŃçº¿": 5000,
      "çļĦå®īåħ¨": 5001,
      "è¿Ľä¸ĢæŃ¥æıĲåįĩ": 5002,
      "åĿª": 5003,
      "æĽ¿": 5004,
      "åĨ»": 5005,
      "ç§ĳå®¤": 5006,
      "ç¯®": 5007,
      "ç«£å·¥": 5008,
      "ting": 5009,
      "çļĦæĶ¿æ²»": 5010,
      "row": 5011,
      "ä¸Ģçº§": 5012,
      "è´£ä»»åįķä½į": 5013,
      "åıĤåĬłä¼ļè®®": 5014,
      "ific": 5015,
      "çº³ç¨İ": 5016,
      "ä¸Ĭæµ·å¸Ĥ": 5017,
      "cess": 5018,
      "æĶ¿æ³ķ": 5019,
      "ä¸ĬåįĬå¹´": 5020,
      "æłĩæ®µ": 5021,
      "åľŁå£¤": 5022,
      "ä¸įåŃĺåľ¨": 5023,
      "è¢ĭ": 5024,
      "ä¸įåĪ°": 5025,
      "çİĩåħĪ": 5026,
      "86": 5027,
      "åĮºçļĦ": 5028,
      "å¢ŀæķĪ": 5029,
      "åħļåĴĮ": 5030,
      "æĸ¹éĿ¢çļĦ": 5031,
      "åħ¨ç¨ĭ": 5032,
      "éĶ¡": 5033,
      "å¹¿æĴŃ": 5034,
      "ä¾¿æį·": 5035,
      "ible": 5036,
      "æŀ¢": 5037,
      "éĺ³åħī": 5038,
      "ç«ŀèµĽ": 5039,
      "åŁİä¹¡å»ºè®¾": 5040,
      "å¿Ĩ": 5041,
      "ä¼ĺåĮĸèĲ¥åķĨçİ¯å¢ĥ": 5042,
      "lect": 5043,
      "ç´§ç´§": 5044,
      "åľ°è´¨": 5045,
      "éĺĶ": 5046,
      "åĪĨè¡Į": 5047,
      "Ġ2024": 5048,
      "æĹº": 5049,
      "æĪĳçļĦ": 5050,
      "ced": 5051,
      "Ġ2021": 5052,
      "å®Įåħ¨": 5053,
      "ä¼¦": 5054,
      "èĪŁ": 5055,
      "day": 5056,
      "æ¸¡": 5057,
      "æ¨¡èĮĥ": 5058,
      "ures": 5059,
      "æµİåįĹ": 5060,
      "çĽĳçĲĨ": 5061,
      "Ġ09": 5062,
      "æĢģåĬ¿": 5063,
      "cell": 5064,
      "åĩºçļĦ": 5065,
      "æľĢå¤§çļĦ": 5066,
      "æĭĽçĶŁ": 5067,
      "æ¶ĪéĻ¤": 5068,
      "è¯ĦéĢī": 5069,
      "ç¬¬ä¸ĢæĹ¶éĹ´": 5070,
      "å¾ģæĶ¶": 5071,
      "Ġinst": 5072,
      "å±ĢéĿ¢": 5073,
      "æł¸å®ŀ": 5074,
      "çºªå§ĶçĽĳå§Ķ": 5075,
      "åı«": 5076,
      "ange": 5077,
      "Ġmany": 5078,
      "Ġra": 5079,
      "åĲĦåįķä½į": 5080,
      "çĪ±åĽ½": 5081,
      "çĭ¬çī¹": 5082,
      "ç»ıå¸¸": 5083,
      "æŁĲæŁĲ": 5084,
      "'t": 5085,
      "æ²»å®ī": 5086,
      "åŁºäºİ": 5087,
      "åĲİç»Ń": 5088,
      "ç«ĭæ³ķ": 5089,
      "å¡«åĨĻ": 5090,
      "ç¬¬äºĮåįģäºĮæĿ¡": 5091,
      "02": 5092,
      "ä¸īå¤§": 5093,
      "çº¯": 5094,
      "å¤©çĦ¶": 5095,
      "å¸ĤåľºçĽĳçĿ£ç®¡çĲĨ": 5096,
      "éĢŁåº¦": 5097,
      "è°ĪåĪ¤": 5098,
      "éĢĲæ¸Ĳ": 5099,
      "æ°Ķæ¸©": 5100,
      "éĺµåľ°": 5101,
      "åĩĮ": 5102,
      "Ġway": 5103,
      "ä½ıå»º": 5104,
      "å½ĵå¹´": 5105,
      "è§Ĥçľĭ": 5106,
      "ert": 5107,
      "ased": 5108,
      "è¦ģæĬĬ": 5109,
      "åĩºåıĳ": 5110,
      "åıĸæ¶Ī": 5111,
      "æ¯ıä¸Ģ": 5112,
      "é¢Ħç®Ĺéĩĳé¢Ŀ": 5113,
      "æ¸¯æ¾³": 5114,
      "åĨħå¤ĸ": 5115,
      "å¾ģæ±Ĥ": 5116,
      "åĪĨä¸º": 5117,
      "æĶ¯åĩºåĨ³ç®Ĺ": 5118,
      "åłĨ": 5119,
      "Ġinv": 5120,
      "erson": 5121,
      "Ġke": 5122,
      "Ġafter": 5123,
      "å±ķå¼Ģ": 5124,
      "æĹ¥åľ¨": 5125,
      "ç®¡éģĵ": 5126,
      "è§Ĩä¸º": 5127,
      "èĬ³": 5128,
      "æĶ¿åºľéĩĩè´ŃæĶ¿çŃĸ": 5129,
      "åºŁçī©": 5130,
      "åĴĮå¹³": 5131,
      "è½¬è®©": 5132,
      "é»Ħæ²³": 5133,
      "åĬĽäºī": 5134,
      "åĮħåĲ«": 5135,
      "çĶŁæķĪ": 5136,
      "éĺ²çģ«": 5137,
      "è¶³çĲĥ": 5138,
      "éĩĳèŀįæľºæŀĦ": 5139,
      "æľĢæĸ°": 5140,
      "sel": 5141,
      "èĩªä¿¡": 5142,
      "åĿļå®ŀ": 5143,
      "æŁ³": 5144,
      "ä½Ļäºº": 5145,
      "åįĵ": 5146,
      "åıĬçĽ¸åħ³": 5147,
      "éģĵå¾·": 5148,
      "çĽ®æłĩä»»åĬ¡": 5149,
      "Ġeven": 5150,
      "äºĨè§£åĪ°": 5151,
      "fore": 5152,
      "ç´§æĢ¥": 5153,
      "ä¾ĽåºĶéĵ¾": 5154,
      "åħ¬å®īæľºåħ³": 5155,
      "æĢ»æĬķèµĦ": 5156,
      "ç´«": 5157,
      "å®īå¾½çľģ": 5158,
      "æĩĤ": 5159,
      "é»ĳé¾Ļæ±Ł": 5160,
      "Ġac": 5161,
      "ç»ıåİĨ": 5162,
      "Ġown": 5163,
      "å¤ļç§į": 5164,
      "å®£ä¼łæķĻèĤ²": 5165,
      "åĽŀæĶ¶": 5166,
      "ä½ıå®ħ": 5167,
      "æ´¾åĩºæīĢ": 5168,
      "å½¢æĢģ": 5169,
      "ily": 5170,
      "2025": 5171,
      "éĩįè¦ģæĮĩç¤º": 5172,
      "èį£èªī": 5173,
      "è¿ª": 5174,
      "ä¸Ģæµģ": 5175,
      "Ġpos": 5176,
      "ä¹Łæľī": 5177,
      "åĻ¨æ¢°": 5178,
      "éĩĬæĶ¾": 5179,
      "è·¯çº¿": 5180,
      "å½¢æĪĲäºĨ": 5181,
      "æĸĮ": 5182,
      "çļĦé¡¹çĽ®": 5183,
      "èĥľåĪ©": 5184,
      "ä¿Ĭ": 5185,
      "å®¡åĪ¤": 5186,
      "è½¬åĮĸä¸º": 5187,
      "Ġshe": 5188,
      "èģĮåĬ¡": 5189,
      "any": 5190,
      "çĽ¼": 5191,
      "åĩºçīĪ": 5192,
      "æĻ¨": 5193,
      "è£ķ": 5194,
      "ç´§çĽ¯": 5195,
      "æľªæĪĲå¹´äºº": 5196,
      "å·¥ä½ľæľºåĪ¶": 5197,
      "Ġday": 5198,
      "å®£ä¼łæ´»åĬ¨": 5199,
      "åĬŀåħ¬åİħ": 5200,
      "77": 5201,
      "çļĦå°ı": 5202,
      "çļĦåħ³éĶ®": 5203,
      "åĮĸå·¥": 5204,
      "äººåĳĺçļĦ": 5205,
      "åĬ¨çī©": 5206,
      "éģŃ": 5207,
      "çĲĨæĥ³": 5208,
      "æ¸¸æĪı": 5209,
      "éĻĪè¿°": 5210,
      "ä¸ģ": 5211,
      "ä¸Ģç§į": 5212,
      "åĬŀäºĭå¤Ħ": 5213,
      "åıĳçĶµ": 5214,
      "ational": 5215,
      "æīĢå¾Ĺ": 5216,
      "Ġgood": 5217,
      "Ġwhere": 5218,
      "åİķ": 5219,
      "åĢ¼çıŃ": 5220,
      "åħģ": 5221,
      "äº§èĥ½": 5222,
      "èĪĨ": 5223,
      "ä¸įåĨį": 5224,
      "Ġent": 5225,
      "ä¸»å¼ł": 5226,
      "æ±īæĹı": 5227,
      "53": 5228,
      "éĽĨåĽ¢æľīéĻĲåħ¬åı¸": 5229,
      "Ġstart": 5230,
      "è¢«åĳĬäºº": 5231,
      "ä»²è£ģ": 5232,
      "å¢ŀéĢŁ": 5233,
      "å¥ĭè¿Ľ": 5234,
      "æĺĨæĺİ": 5235,
      "äº§åĢ¼": 5236,
      "Ġpo": 5237,
      "ĠRe": 5238,
      "5000": 5239,
      "å¹¶è®²è¯Ŀ": 5240,
      "å®ĪæĬ¤": 5241,
      "è¦ģåľ¨": 5242,
      "ä¸ĬéĹ¨": 5243,
      "æķ°åŃĹç»ıæµİ": 5244,
      "éĩĩè®¿": 5245,
      "èİ·å¾ĹæĦŁ": 5246,
      "Ġset": 5247,
      "åıįå¯¹": 5248,
      "é»ĺ": 5249,
      "æĬĵå®ŀ": 5250,
      "æĬ½æŁ¥": 5251,
      "æĽ´å¤ļçļĦ": 5252,
      "ä¸įè¶ħè¿ĩ": 5253,
      "æĹ¦": 5254,
      "æ¶Ľ": 5255,
      "æĶ¹æŃ£": 5256,
      "ä¸ĩäººæ¬¡": 5257,
      "Ġshould": 5258,
      "éĢĶå¾Ħ": 5259,
      "ä¸įèī¯": 5260,
      "èĲ¥éĶĢ": 5261,
      "è¯¥åħ¬åı¸": 5262,
      "å¼ºçļĦ": 5263,
      "æĻ®æĥł": 5264,
      "ä¸¥æł¼æĮīçħ§": 5265,
      "ä¸Ńåįİäººæ°ĳåħ±åĴĮåĽ½æĶ¿åºľéĩĩè´Ńæ³ķ": 5266,
      "Ġä¸ŃåĽ½": 5267,
      "æŀĿ": 5268,
      "å¾ģéĽĨ": 5269,
      "aw": 5270,
      "åľ°ä½į": 5271,
      "ics": 5272,
      "æĥłæ°ĳ": 5273,
      "çĩķ": 5274,
      "ä¹ĭéĹ´çļĦ": 5275,
      "åı°è´¦": 5276,
      "Ġgreat": 5277,
      "ç¾İé£Ł": 5278,
      "Ġä¸ĥ": 5279,
      "å¤§å¹ħ": 5280,
      "52": 5281,
      "600": 5282,
      "å¼ºåĽ½": 5283,
      "éĶ»": 5284,
      "å·¥åİĤ": 5285,
      "è¾ħå¯¼": 5286,
      ")ãĢĤ": 5287,
      "ä¸Ģä»½": 5288,
      "ç»ĨåĪĻ": 5289,
      "åį±å®³": 5290,
      "åħļçļĦäºĮåįģå¤§ç²¾ç¥ŀ": 5291,
      "è¾¾æĪĲ": 5292,
      "å±ħçİ¯å¢ĥ": 5293,
      "ç½Ĺæĸ¯": 5294,
      "èĬ¯": 5295,
      "æĢ»å±Ģ": 5296,
      "åħ¨éĿ¢ä»İä¸¥": 5297,
      "Ġä¸Ģæĺ¯": 5298,
      "åĨľæľº": 5299,
      "get": 5300,
      "åľ¨ä¸ŃåĽ½": 5301,
      "å¹³ç¨³": 5302,
      "åħļæĶ¿": 5303,
      "éĦ": 5304,
      "çĵ¶": 5305,
      "çĶ¨å¥½": 5306,
      "åİ¨": 5307,
      "åĽĽæĺ¯": 5308,
      "å£ģ": 5309,
      "åĭĴ": 5310,
      "è½¬åŀĭåįĩçº§": 5311,
      "æ¡¥æ¢ģ": 5312,
      "Ġsm": 5313,
      "ä¹łæĥ¯": 5314,
      "çĵľ": 5315,
      "æĲºæīĭ": 5316,
      "åıĳå±ķåĴĮ": 5317,
      "å¼ºå¤§": 5318,
      "çļĦæĹ¶éĹ´": 5319,
      "åħ¬æ°ĳ": 5320,
      "è¯ģåĪ¸äº¤æĺĵæīĢ": 5321,
      "åĢ¼å¾Ĺ": 5322,
      "ä¸įæĸŃæıĲé«ĺ": 5323,
      "ife": 5324,
      "è¦ģä»¥": 5325,
      "Ġbest": 5326,
      "ash": 5327,
      "ä¸ĸçºª": 5328,
      "aking": 5329,
      "fect": 5330,
      "çļĦçĶŁæ´»": 5331,
      "æµĻæ±Łçľģ": 5332,
      "çĽĪ": 5333,
      "ç§ĳåĪĽ": 5334,
      "å¿§": 5335,
      "åıĳå±ķæĶ¹éĿ©": 5336,
      "2013": 5337,
      "åħ¨ä¼ļç²¾ç¥ŀ": 5338,
      "64": 5339,
      "æĢ»éĩı": 5340,
      "èµ°åĩº": 5341,
      "ward": 5342,
      "èĲ¨": 5343,
      "æ¶Īéĺ²å®īåħ¨": 5344,
      "çĿ£å¯Ł": 5345,
      "Ġtwo": 5346,
      "ystem": 5347,
      "ä¸ºå¥ĳæľº": 5348,
      "çīĻ": 5349,
      "ç®¡çĲĨåĪ¶åº¦": 5350,
      "å·ŀåĮº": 5351,
      "Ġnow": 5352,
      "Ġdec": 5353,
      "è¸ı": 5354,
      "çĽ¸åºĶçļĦ": 5355,
      "æĸ°åįİç¤¾": 5356,
      "ä¸Ģå¸¦ä¸Ģè·¯": 5357,
      "è¿İæĿ¥": 5358,
      "æµĵåİļ": 5359,
      "èħĲè´¥": 5360,
      "ï¼ħ": 5361,
      "æĹ¥æĻļ": 5362,
      "æ¶Īæģ¯": 5363,
      "åľºåľ°": 5364,
      "å¤º": 5365,
      "åĲĦä¸ª": 5366,
      "æĲľ": 5367,
      "æ»©": 5368,
      "54": 5369,
      "é«ĺçļĦ": 5370,
      "å¤įåħ´": 5371,
      "ä»ĸçļĦ": 5372,
      "67": 5373,
      "èĭ¥å¹²": 5374,
      "èĢ³": 5375,
      "èĬĤçĽ®": 5376,
      "Ġinform": 5377,
      "ä¼ļåĲĮ": 5378,
      "éĺ´": 5379,
      "åŃĲåħ¬åı¸": 5380,
      "çļĦåħ·ä½ĵ": 5381,
      "Ġright": 5382,
      "éª¨å¹²": 5383,
      "der": 5384,
      "åĿļå®Ī": 5385,
      "å½±åĵįåĬĽ": 5386,
      "ä¸ºä¼ģä¸ļ": 5387,
      "æĭĸ": 5388,
      "è§£æĶ¾": 5389,
      "èį·": 5390,
      "è®¢åįķ": 5391,
      "éŃħ": 5392,
      "èĻļåģĩ": 5393,
      "å¸ĤæĶ¿": 5394,
      "ä¸ĵåĪ©": 5395,
      "æīĢéľĢ": 5396,
      "å®ŀéĻħè¡ĮåĬ¨": 5397,
      "ts": 5398,
      "å¸ĤæĶ¿åįı": 5399,
      "å¤ĦåĪĨ": 5400,
      "å¦Ĥæľī": 5401,
      "ä¸´åºĬ": 5402,
      "æĶ¶åıĸ": 5403,
      "æĦıåĲĳ": 5404,
      "èĻİ": 5405,
      "èĪªå¤©": 5406,
      "çŃĶå¤į": 5407,
      "çĶ¨çĶµ": 5408,
      "æīĵå¥½": 5409,
      "æ¸©åº¦": 5410,
      "å¼ĢåĮº": 5411,
      "eth": 5412,
      "ä»¥ä¸ĬçļĦ": 5413,
      "3000": 5414,
      "Ġ20": 5415,
      "æľ¬çº§": 5416,
      "åħĪéĶĭ": 5417,
      "æİĴåĲį": 5418,
      "é©¿": 5419,
      "è¡ĮæĶ¿æľºåħ³": 5420,
      "æĻ¯è§Ĥ": 5421,
      "å½°æĺ¾": 5422,
      "ath": 5423,
      "æķ°æį®æĺ¾ç¤º": 5424,
      "çļĦè´£ä»»": 5425,
      "è´¤": 5426,
      "åĨĴ": 5427,
      "èĮĤ": 5428,
      "ç¬¬ä¸ĥ": 5429,
      "æķĻèĤ²å±Ģ": 5430,
      "å·¥ç¨ĭå»ºè®¾": 5431,
      "å¤ļçļĦ": 5432,
      "ä»İèĢĮ": 5433,
      "äºĳåįĹçľģ": 5434,
      "åŃĶ": 5435,
      "ä¿Ħç½Ĺæĸ¯": 5436,
      "éļ¾çĤ¹": 5437,
      "è¿Ĳä¼ļ": 5438,
      "çļĦåīį": 5439,
      "Ġrequ": 5440,
      "Ġä»Ĭå¹´": 5441,
      "Ġfind": 5442,
      "ç¼ĺ": 5443,
      "å¥ĭåĬĽ": 5444,
      "åĳĬè¯īè®°èĢħ": 5445,
      "å¹´ä»¥æĿ¥": 5446,
      "åħ¬æŃ£": 5447,
      "åĪº": 5448,
      "ä»ĭç»įäºĨ": 5449,
      "èģĶåĲĪä½ĵæĬķæłĩ": 5450,
      "89": 5451,
      "çĽ®å½ķ": 5452,
      "è·³": 5453,
      "ç¨³æŃ¥": 5454,
      "åĨĢ": 5455,
      "èģļéĽĨ": 5456,
      "åĨ°éĽª": 5457,
      "air": 5458,
      "å¤§åİħ": 5459,
      "æĻ°": 5460,
      "Ġthen": 5461,
      "æŀ¢çº½": 5462,
      "ä¸įç¬¦åĲĪ": 5463,
      "å¦Ĩ": 5464,
      "éĺŁä¼įå»ºè®¾": 5465,
      "éĢļè¡Į": 5466,
      "æĢģåº¦": 5467,
      "æ¹ĸåįĹçľģ": 5468,
      "ç»ĵæĿŁåĲİ": 5469,
      "Ġmuch": 5470,
      "åıĸå¾ĹäºĨ": 5471,
      "çī©ä¸ļç®¡çĲĨ": 5472,
      "120": 5473,
      "åħ¨å±Ģ": 5474,
      "åĽ½åľŁ": 5475,
      "åŁİç®¡": 5476,
      "è¿Ŀçº¦": 5477,
      "ä¼łéĢĴ": 5478,
      "åıĳå¸ĥä¹ĭæĹ¥èµ·": 5479,
      "çĤī": 5480,
      "ä½łä»¬": 5481,
      "ble": 5482,
      "åħ¨ç¤¾ä¼ļ": 5483,
      "åĮ»åŃ¦": 5484,
      "çļĦåħ¶ä»ĸ": 5485,
      "åĲĽ": 5486,
      "å¯¨": 5487,
      "è¾Ĳ": 5488,
      "æĬ¤èĪª": 5489,
      "å®£å¸ĥ": 5490,
      "éĥ¨éĺŁ": 5491,
      "ä¸ľåĮĹ": 5492,
      "è±ª": 5493,
      "ew": 5494,
      "çŃĽ": 5495,
      "å¤§åŃ¦çĶŁ": 5496,
      "é«ĺéĢŁåħ¬è·¯": 5497,
      "æľīåĪ©äºİ": 5498,
      "ä¼Ĳ": 5499,
      "Ġcould": 5500,
      "æĽ¹": 5501,
      "ç»Ħç»ĩå®ŀæĸ½": 5502,
      "è·¨å¢ĥ": 5503,
      "ä¸Ģæ¬¡æĢ§": 5504,
      "çŃīå¥ĸ": 5505,
      "éĹ¨åı£": 5506,
      "æĪĺæĸĹ": 5507,
      "ä¸ĬæĬ¥": 5508,
      "åĪĽæĦı": 5509,
      "èĢģæĹ§": 5510,
      "éĢīä¸¾": 5511,
      "ract": 5512,
      "åİŁåĽłæĺ¯": 5513,
      "æīİå®ŀæİ¨è¿Ľ": 5514,
      "å·§": 5515,
      "çĹħä¾ĭ": 5516,
      "Ġbusiness": 5517,
      "å¸Ĥåħ¬å®īå±Ģ": 5518,
      "Ġå¹´": 5519,
      "æľºåĬ¨è½¦": 5520,
      "çĶµåĬ¨": 5521,
      "éĻĦè¿ĳ": 5522,
      "æĶ¿åºľä¿¡æģ¯åħ¬å¼Ģ": 5523,
      "æĸ°èĥ½æºĲæ±½è½¦": 5524,
      "åĨľä¸ļåĨľæĿĳå±Ģ": 5525,
      "ä¸¤å²¸": 5526,
      "ç«ŀäºīæĢ§": 5527,
      "çĶ¨äºº": 5528,
      "ä¾ĽçĶµ": 5529,
      "åĬłå¤§å¯¹": 5530,
      "hip": 5531,
      "ç¬¬åħ«": 5532,
      "ular": 5533,
      "äººå±ħçİ¯å¢ĥ": 5534,
      "å®£ä¼łéĥ¨": 5535,
      "åĴĮç¤¾ä¼ļä¿Ŀéļľ": 5536,
      "åħħæ»¡": 5537,
      "åįĹéĥ¨": 5538,
      "å®ŀæĹ¶": 5539,
      "åĬ¡å®ŀ": 5540,
      "Ġhigh": 5541,
      "Ġrem": 5542,
      "è¶ħå¸Ĥ": 5543,
      "å¤ļå¹´": 5544,
      "çĶŁæĢģä¿ĿæĬ¤": 5545,
      "åĬ³åĬ¡": 5546,
      "èĶ¡": 5547,
      "æķĪåºĶ": 5548,
      "è¿Ľä¸ĢæŃ¥æıĲé«ĺ": 5549,
      "è®²åº§": 5550,
      "åħ±åĲĮä½ĵ": 5551,
      "oy": 5552,
      "ï½": 5553,
      "æī°": 5554,
      "åĬłåħ¥": 5555,
      "åĲĦçķĮ": 5556,
      "åįģäºĮ": 5557,
      "å±ħå®¶": 5558,
      "72": 5559,
      "æĪĲäºĨ": 5560,
      "olog": 5561,
      "æĭĵå®½": 5562,
      "è´Ŀ": 5563,
      "ä¸Ĭåįĩ": 5564,
      "åĪ¶åĵģ": 5565,
      "äº§åĵģçļĦ": 5566,
      "åł¡": 5567,
      "velop": 5568,
      "æ¹¾åĮº": 5569,
      "å°ĸ": 5570,
      "æµ®": 5571,
      "æĺ¯ä¸Ģä¸ª": 5572,
      "Ġhome": 5573,
      "æŁ±": 5574,
      "åħ¨éĿ¢æİ¨è¿Ľ": 5575,
      "åħ¨éĿ¢èĲ½å®ŀ": 5576,
      "hes": 5577,
      "åįķåħĥ": 5578,
      "ä¸¥èĤĥ": 5579,
      "è£ģå®ļ": 5580,
      "Ġplay": 5581,
      "å¹¸ç¦ıæĦŁ": 5582,
      "å®¶ä¼ģä¸ļ": 5583,
      "ä¸ĩä½Ļ": 5584,
      "æµģéĩı": 5585,
      "ä¸Ĭä¼ł": 5586,
      "æ°ĶåĢĻ": 5587,
      "æ¬§æ´²": 5588,
      "è¾Ĳå°Ħ": 5589,
      "Ġä»İ": 5590,
      "ĠIf": 5591,
      "ç¬¬ä¸īæĸ¹": 5592,
      "é¸£": 5593,
      "çĽĳäºĭä¼ļ": 5594,
      "ç§įåŃĲ": 5595,
      "éŃħåĬĽ": 5596,
      "its": 5597,
      "iss": 5598,
      "æľĢä½İ": 5599,
      "æ²³éģĵ": 5600,
      "ï¼īãĢĭ": 5601,
      "ç½©": 5602,
      "In": 5603,
      "Ġè¿ĳå¹´æĿ¥": 5604,
      "æµģéĢļ": 5605,
      "æĸĩæĺİå®ŀè·µ": 5606,
      "å··": 5607,
      "âĢĿï¼Ľ": 5608,
      "æĹ¶éĻĲ": 5609,
      "Ġsuch": 5610,
      "ina": 5611,
      "å·¥ä½ľé¢Ĩå¯¼å°ıç»Ħ": 5612,
      "åħ¥éĢī": 5613,
      "Ġloc": 5614,
      "æĹģ": 5615,
      "å°Ŀ": 5616,
      "å®ļçĤ¹": 5617,
      "ont": 5618,
      "èĩ³ä»Ĭ": 5619,
      "çħ§çīĩ": 5620,
      "ä»ĸä»¬çļĦ": 5621,
      "åĬ³åĬ¨èĢħ": 5622,
      "æĹħå®¢": 5623,
      "æ½ľåĬĽ": 5624,
      "åİ¿åŁŁ": 5625,
      "Ġmem": 5626,
      "å¦¥": 5627,
      "å¤©æ´¥å¸Ĥ": 5628,
      "ving": 5629,
      "ç®¡çĲĨåĴĮ": 5630,
      "åĿļå¼º": 5631,
      "ä¼Ĺå¤ļ": 5632,
      "åĬłå¿«å»ºè®¾": 5633,
      "Ġsec": 5634,
      "ob": 5635,
      "ä¸ºä¸Ńå¿ĥ": 5636,
      "å¯ĨéĽĨ": 5637,
      "è¿½ç©¶": 5638,
      "ä»£è¡¨å¤§ä¼ļ": 5639,
      "çļĦèĥ½åĬĽ": 5640,
      "ä¼ļåľ¨": 5641,
      "åĵ¥": 5642,
      "æĹ¨åľ¨": 5643,
      "åĨľæ°ĳå·¥": 5644,
      "åįķä½įåĴĮ": 5645,
      "åĽ½å®¶åĴĮ": 5646,
      "ç¬¬ä¸Ģæ¬¾": 5647,
      "ven": 5648,
      "æ½Ń": 5649,
      "æ¶Į": 5650,
      "æħİ": 5651,
      "åħ¬åħ±èµĦæºĲäº¤æĺĵä¸Ńå¿ĥ": 5652,
      "æ»¡æĦıåº¦": 5653,
      "cy": 5654,
      "æľŁå¾ħ": 5655,
      "çĭ±": 5656,
      "åħŃæĿ¡": 5657,
      "ix": 5658,
      "ç¡ķ": 5659,
      "éļľç¢į": 5660,
      "è§Ĥå¿µ": 5661,
      "é¢Ĩå¯¼çıŃåŃĲ": 5662,
      "å®ģå¸Ĥ": 5663,
      "79": 5664,
      "Ġcar": 5665,
      "åĬŁå¤«": 5666,
      "å²ģçļĦ": 5667,
      "åľ°çĲĨ": 5668,
      "åıĸå¾ĹçļĦ": 5669,
      "äºīè®®": 5670,
      "å¸¦æĿ¥çļĦ": 5671,
      "69": 5672,
      "æĺ¯æĮĩ": 5673,
      "çĶŁæ´»çļĦ": 5674,
      "çĤŃ": 5675,
      "å¼ıçİ°ä»£åĮĸ": 5676,
      "è´¨éĩıå®īåħ¨": 5677,
      "æ³¨åħ¥": 5678,
      "ç§¯æŀģåıĤä¸İ": 5679,
      "åħīä¼ı": 5680,
      "åĩıçģ¾": 5681,
      "å¥īçĮ®": 5682,
      "å¯¹çħ§": 5683,
      "Ġfu": 5684,
      "æĮĤçīĮ": 5685,
      "æ°ĳéĹ´": 5686,
      "äººæīįåŁ¹åħ»": 5687,
      "gan": 5688,
      "æĶ¾åľ¨": 5689,
      "uring": 5690,
      "ident": 5691,
      "åŃµ": 5692,
      "ä¸Ńçº§": 5693,
      "é«ĺéĵģ": 5694,
      "è¦ģå¼ºåĮĸ": 5695,
      "è¿Ļæł·çļĦ": 5696,
      "æ²³åĮĹçľģ": 5697,
      "æī§ä¸ļ": 5698,
      "éĢīäºº": 5699,
      "åŃ¦åĳĺ": 5700,
      "ative": 5701,
      "ä¼ģä¸ļå®¶": 5702,
      "è¡¨å½°": 5703,
      "ç½ĳåıĭ": 5704,
      "æĥħåĨµçļĦ": 5705,
      "ä¸ŃåĮ»èį¯": 5706,
      "é«ĺè´¨éĩıåıĳå±ķçļĦ": 5707,
      "ç£¨": 5708,
      "62": 5709,
      "æłª": 5710,
      "Ġfin": 5711,
      "åĺ±": 5712,
      "ä¿Ŀåģ¥": 5713,
      "åıĳå¸ĥçļĦ": 5714,
      "line": 5715,
      "å¹´é¾Ħ": 5716,
      "ä¼ļåĳĺ": 5717,
      "æĦŁåıĹåĪ°": 5718,
      "æ§": 5719,
      "è¯¥é¡¹çĽ®": 5720,
      "çĭł": 5721,
      "å¤§æ°Ķ": 5722,
      "éĻ·": 5723,
      "æľįåĬ¡å¹³åı°": 5724,
      "Ġ&": 5725,
      "äºŃ": 5726,
      "åĴĮä¿¡æģ¯åĮĸ": 5727,
      "èİ²": 5728,
      "ç¬¬ä¸ĢçĻ¾": 5729,
      "èĪŀåı°": 5730,
      "äººå¿ĥ": 5731,
      "æĶ¾å¿ĥ": 5732,
      "è¯Ħæłĩ": 5733,
      "åĩ¯": 5734,
      "æ°´è´¨": 5735,
      "ä»ĸäºº": 5736,
      "ower": 5737,
      "æĶ¿æ²»ç«Ļä½į": 5738,
      "èĵĦ": 5739,
      "åº·å¤į": 5740,
      "æĸ°åĨłèĤºçĤİ": 5741,
      "ä»¥åīį": 5742,
      "éĿ¢è¯ķ": 5743,
      "åĨľèį¯": 5744,
      "ç¯ĩç«ł": 5745,
      "èĩ´å¯Į": 5746,
      "æĶ¯è¡Į": 5747,
      "åĨ³è®®": 5748,
      "Ġinte": 5749,
      "å¢¨": 5750,
      "åĲĦèĩª": 5751,
      "åı¯åľ¨": 5752,
      "å®īæİĴéĥ¨ç½²": 5753,
      "51": 5754,
      "æİ¥è§¦": 5755,
      "åľ£": 5756,
      "æľ¬åįķä½į": 5757,
      "Ġrel": 5758,
      "åħ¬åĳĬæľŁéĻĲ": 5759,
      "çŃīæ´»åĬ¨": 5760,
      "å®¶åĽŃ": 5761,
      "éĥ½æľī": 5762,
      "æİĪäºĪ": 5763,
      "ç¿Ķ": 5764,
      "ss": 5765,
      "åıĳåĬ¨": 5766,
      "å¯¹æŃ¤": 5767,
      "äº¤èŃ¦": 5768,
      "åģļåĩº": 5769,
      "rit": 5770,
      "è¿·": 5771,
      "ç»ıå¼ĢåĮº": 5772,
      "èµ·è¯ī": 5773,
      "è¿Ŀæ³ķå¤±ä¿¡": 5774,
      "å·¥ä½ľè¦ģæ±Ĥ": 5775,
      "Ġgu": 5776,
      "åŃ¦æľ¯": 5777,
      "èī³": 5778,
      "æĤ¦": 5779,
      "æ¯ıæľĪ": 5780,
      "æĦıè§ģå»ºè®®": 5781,
      "èĦ¸": 5782,
      "io": 5783,
      "éĩĳå±ŀ": 5784,
      "ä¸īåħ¬": 5785,
      "æ¶Ĥ": 5786,
      "è§Ĥå¯Ł": 5787,
      "æī¹å¤į": 5788,
      "æł¸éħ¸æ£Ģæµĭ": 5789,
      "åħ±è¯Ĩ": 5790,
      "åħ¨éĿ¢æıĲåįĩ": 5791,
      "Ġperson": 5792,
      "æĪĳåĮº": 5793,
      "ä¼ĺèī¯": 5794,
      "èİ·åıĸæĭĽæłĩæĸĩä»¶": 5795,
      "800": 5796,
      "èĩ³å°ĳ": 5797,
      "å¾Ĵ": 5798,
      "é¢ĨåħĪ": 5799,
      "æİ¥åĪ°": 5800,
      "ustom": 5801,
      "å¼ĢéĢļ": 5802,
      "Ġins": 5803,
      "ç¬¬ä¸Ģæ¬¡": 5804,
      "Ġæį®äºĨè§£": 5805,
      "äº¦": 5806,
      "æĸ°å¾ģç¨ĭ": 5807,
      "çŃīé¢ĨåŁŁ": 5808,
      "æ¯ģ": 5809,
      "åŁºåĽł": 5810,
      "é¦ĸæī¹": 5811,
      "é²ľæĺİ": 5812,
      "åħ¨åŁŁ": 5813,
      "æĮģç»Ńæİ¨è¿Ľ": 5814,
      "åı¥": 5815,
      "Ġav": 5816,
      "åľ°éľĩ": 5817,
      "è¾ĳ": 5818,
      "å¿łè¯ļ": 5819,
      "æµ¸": 5820,
      "é£ŁåłĤ": 5821,
      "éĤ¦": 5822,
      "åį³å°Ĩ": 5823,
      "éĴĪå¯¹æĢ§": 5824,
      "Ġtake": 5825,
      "ä¸İä¼ļ": 5826,
      "å¹¶äºİ": 5827,
      "åĵĪå°Ķ": 5828,
      "ç¦ıå»ºçľģ": 5829,
      "åħ¨éĿ¢ä»İä¸¥æ²»åħļ": 5830,
      "å¤§åİ¦": 5831,
      "æıĲèµ·": 5832,
      "ä¹Łä¸į": 5833,
      "Ġèĩª": 5834,
      "ä¹ı": 5835,
      "Ġdiffe": 5836,
      "gram": 5837,
      "other": 5838,
      "å¸Ĥå§Ķå¸¸å§Ķ": 5839,
      "ä¸ŃåĽ½äººæ°ĳ": 5840,
      "å®¹æĺĵ": 5841,
      "æľĢè¿ĳ": 5842,
      "é¡¹çĽ®åĲįç§°": 5843,
      "Ġprovid": 5844,
      "Ġç¬¬ä¸ī": 5845,
      "å¸ĤåľºçļĦ": 5846,
      "åºĶæĢ¥é¢Ħæ¡Ī": 5847,
      "ty": 5848,
      "çŃīåĨħå®¹": 5849,
      "æĸĩåĮĸéģĹäº§": 5850,
      "åĭĥ": 5851,
      "çī¢åĽº": 5852,
      "æİĴæ°´": 5853,
      "92": 5854,
      "Ġä¸ĩåħĥ": 5855,
      "ä¸»å¯¼": 5856,
      "çªģåıĳäºĭä»¶": 5857,
      "æ©": 5858,
      "å°Ĩä»¥": 5859,
      "æĶ¶èİ·": 5860,
      "ç»ıèĲ¥èĢħ": 5861,
      "åĻª": 5862,
      "ç»Ħç»ĩçļĦ": 5863,
      "çļĦæĹ¶åĢĻ": 5864,
      "æĹłè®º": 5865,
      "åľ¨åħ¨åĽ½": 5866,
      "åĪĨå¸ĥ": 5867,
      "é¢Ħç®Ĺæķ°": 5868,
      "è¿½æ±Ĥ": 5869,
      "åĶ¯ä¸Ģ": 5870,
      "è§£éĻ¤": 5871,
      "ĠUn": 5872,
      "ãĢĤãĢĬ": 5873,
      "è®ºè¿°": 5874,
      "åŃĺåľ¨çļĦ": 5875,
      "Ġexperi": 5876,
      "Ġinformation": 5877,
      "åĽŀåºĶ": 5878,
      "åįļå£«": 5879,
      "è´¨çĸĳ": 5880,
      "æħĪ": 5881,
      "æī¹æ¬¡": 5882,
      "ms": 5883,
      "åħĳ": 5884,
      "äººäºĭ": 5885,
      "ä»¥åĲİ": 5886,
      "è°Ĭ": 5887,
      "éĻ¢æł¡": 5888,
      "ä¹Łåľ¨": 5889,
      "åĽ¢ä½ĵ": 5890,
      "150": 5891,
      "æĲŀ": 5892,
      "Ġ19": 5893,
      "åħļçļĦåįģä¹Ŀ": 5894,
      "ä¸Ģåľº": 5895,
      "å¼Ģè®¾": 5896,
      "è¯¾é¢ĺ": 5897,
      "****": 5898,
      "åħ¬çĶ¨": 5899,
      "æ±¤": 5900,
      "ä¸°å¯ĮçļĦ": 5901,
      "åĨłåĨĽ": 5902,
      "63": 5903,
      "Ġche": 5904,
      "ä¸ŃåĽ½å¼ıçİ°ä»£åĮĸ": 5905,
      "éĿĴæĺ¥": 5906,
      "Ġdesign": 5907,
      "çĶ¨åĵģ": 5908,
      "åķĨè´¸": 5909,
      "å¤ľéĹ´": 5910,
      "Ġä»¥": 5911,
      "âĢĿ,": 5912,
      "æ±Łå¸Ĥ": 5913,
      "åħ»æĬ¤": 5914,
      "chn": 5915,
      "å±ŀåľ°": 5916,
      "ç¬¬ä¹Ŀ": 5917,
      "åħ³äºİåį°åıĳ": 5918,
      "ç»µ": 5919,
      "è¯ķè¡Į": 5920,
      "ä¸ĢæľŁ": 5921,
      "é¢ľ": 5922,
      "å®īå¸Ĥ": 5923,
      "æĸĩåĮĸåĴĮæĹħæ¸¸": 5924,
      "é«ĺèĢĥ": 5925,
      "çİ¯æ¯Ķ": 5926,
      "Ġdon": 5927,
      "ä¸»è¦ģæĺ¯": 5928,
      "è¿ŀæİ¥": 5929,
      "ĠæŃ¤æ¬¡": 5930,
      "ä¸ŃåĮ»": 5931,
      "æĶ¶æĶ¯": 5932,
      "è¿ĺå°Ĩ": 5933,
      "æ²³åįĹçľģ": 5934,
      "çĵ·": 5935,
      "Ġ30": 5936,
      "ason": 5937,
      "èİ·æĤī": 5938,
      "åŃ¦åİĨ": 5939,
      "alth": 5940,
      "å¢ĥå¤ĸ": 5941,
      "å¼ķåıĳ": 5942,
      "æĦģ": 5943,
      "åģĩæľŁ": 5944,
      "åŃĿ": 5945,
      "æ²ª": 5946,
      "Ġdown": 5947,
      "å¸Ĥå§Ķä¹¦è®°": 5948,
      "çł´åĿı": 5949,
      "æ±¡æ°´å¤ĦçĲĨ": 5950,
      "74": 5951,
      "ä¼ģä¸ļåıĳå±ķ": 5952,
      "ä¸ľæĸ¹": 5953,
      "èĭĳ": 5954,
      "åħ¬ä¼Ĺåı·": 5955,
      "Ġfam": 5956,
      "çī©åĵģ": 5957,
      "äºĶä¸ª": 5958,
      "çļĦè¡Įä¸º": 5959,
      "Ġbecause": 5960,
      "åŃµåĮĸ": 5961,
      "çĶµä¿¡": 5962,
      "èİ±": 5963,
      "ĠCom": 5964,
      "æľ¬é¡¹çĽ®çļĦ": 5965,
      "åħ»èĢģä¿ĿéĻ©": 5966,
      "redit": 5967,
      "ä¸»æĮģä¼ļè®®": 5968,
      "ject": 5969,
      "å¾¡": 5970,
      "é«ĺä¸Ń": 5971,
      "ä¸ĵçıŃ": 5972,
      "æł¡éķ¿": 5973,
      "ä¸¤å¹´": 5974,
      "Ġexp": 5975,
      "çĨĬ": 5976,
      "è¯Ńè¨Ģ": 5977,
      "83": 5978,
      "åĬŀåŃ¦": 5979,
      "æĳĬ": 5980,
      "Ġç¬¬åįģ": 5981,
      "çŃīå½¢å¼ı": 5982,
      "å¨±ä¹Ĳ": 5983,
      "ä¸įè¦ģ": 5984,
      "ç¤¾ä¼ļæ²»çĲĨ": 5985,
      "é¦ĸä¸ª": 5986,
      "ä¼ļåľº": 5987,
      "çİīç±³": 5988,
      "æ´»åĬ¨çİ°åľº": 5989,
      "äº¤éĢļå®īåħ¨": 5990,
      "æ³ķåºŃ": 5991,
      "Ġhere": 5992,
      "éķ¿ä¸īè§Ĵ": 5993,
      "åħļé£İ": 5994,
      "åİ¿æĶ¿åºľ": 5995,
      "åĲ¬è¯ģ": 5996,
      "è¯»ä¹¦": 5997,
      "è§Ĵåº¦": 5998,
      "ä½ıæĪ¿åħ¬ç§¯éĩĳ": 5999,
      "We": 6000,
      "å¢ĥåĨħ": 6001,
      "åĮ»çĸĹåĻ¨æ¢°": 6002,
      "æĹĭ": 6003,
      "ä¾¦": 6004,
      "åīĳ": 6005,
      "æ±ĩèģļ": 6006,
      "ä¸Ńå°ıåŃ¦": 6007,
      "åľ°åĿĹ": 6008,
      "Ġmade": 6009,
      "åĵªäºĽ": 6010,
      "çĽĳçĭ±": 6011,
      "ç¾İæľ¯": 6012,
      "åĤ¬": 6013,
      "Ġdoes": 6014,
      "éģµå¾ª": 6015,
      "71": 6016,
      "82": 6017,
      "éĻĨç»Ń": 6018,
      "up": 6019,
      "å¹¶ä¸į": 6020,
      "ä½ĻåĲį": 6021,
      "chool": 6022,
      "åģľæŃ¢": 6023,
      "äºĭä¸ļåıĳå±ķ": 6024,
      "Ġå¼ł": 6025,
      "å¸ĤçĽ´": 6026,
      "çłĤ": 6027,
      "æĻ®éģį": 6028,
      "å·®å¼Ĥ": 6029,
      "æĭĨéĻ¤": 6030,
      "åİ¦éĹ¨": 6031,
      "Ġart": 6032,
      "æłĩè¯Ĩ": 6033,
      "ç»¼åĲĪæ²»çĲĨ": 6034,
      "çİ»": 6035,
      "%,": 6036,
      "Ġ$": 6037,
      "Ġçİĭ": 6038,
      "åĴĮåħ¶ä»ĸ": 6039,
      "æĸ°æ¨¡å¼ı": 6040,
      "å¥ı": 6041,
      "ç®¡çĲĨäººåĳĺ": 6042,
      "è´¢æĶ¿éĥ¨": 6043,
      "åºĶæĢ¥å¤Ħç½®": 6044,
      "äººæĸĩ": 6045,
      "ç½ĳç»ľå®īåħ¨": 6046,
      "çĸ«æĥħéĺ²æİ§å·¥ä½ľ": 6047,
      "ĠæĿİ": 6048,
      "ä¸ªä½ĵ": 6049,
      "è¥¿èĹı": 6050,
      "ä¿¡å¿µ": 6051,
      "åı¦å¤ĸ": 6052,
      "æĲ¬è¿ģ": 6053,
      "Ġtoo": 6054,
      "æĿ¿åĿĹ": 6055,
      "ç´łåħ»": 6056,
      "éĻĦå±ŀ": 6057,
      "åıĳå±ķæĶ¹éĿ©å§Ķ": 6058,
      "73": 6059,
      "Ġsystem": 6060,
      "ng": 6061,
      "Ġèĩ³": 6062,
      "æ²³æ¹ĸ": 6063,
      "ec": 6064,
      "çļĦè®®æ¡Ī": 6065,
      "æĪĲçĨŁ": 6066,
      "éĩĩéĽĨ": 6067,
      "èĬĤåģĩæĹ¥éĻ¤å¤ĸ": 6068,
      "æĸ°æĿĲæĸĻ": 6069,
      "å¯º": 6070,
      "Ġbr": 6071,
      "åģļå¼º": 6072,
      "è¯ĨåĪ«": 6073,
      "äººäºº": 6074,
      "å±ĤéĿ¢": 6075,
      "ç«łç¨ĭ": 6076,
      "åĢ¡å¯¼": 6077,
      "å¤įè®®": 6078,
      "pect": 6079,
      "ener": 6080,
      "è·¯æ®µ": 6081,
      "å¤įäº§": 6082,
      "æĭĶ": 6083,
      "è¯ģæĺİæĿĲæĸĻ": 6084,
      "Ġtrans": 6085,
      "å¤§æ¡¥": 6086,
      "å½Ń": 6087,
      "çŁ©": 6088,
      "Ġlong": 6089,
      "ove": 6090,
      "ä¸¥æł¼æī§è¡Į": 6091,
      "Ġshow": 6092,
      "åĬŀæ¡Ī": 6093,
      "ĠAnd": 6094,
      "éĤ®æĶ¿": 6095,
      "è¯¸": 6096,
      "åįģä¸Ģ": 6097,
      "æīĵéĢļ": 6098,
      "Ġread": 6099,
      "å®ŀéĻħæĥħåĨµ": 6100,
      "åıĳçĶŁçļĦ": 6101,
      "Ġmark": 6102,
      "çľģå¸Ĥ": 6103,
      "è¿Ĳæ²³": 6104,
      "ç»ª": 6105,
      "éķ¿åĪ¶": 6106,
      "Ġdevelop": 6107,
      "çģŃçģ«": 6108,
      "ys": 6109,
      "åĩºè®©": 6110,
      "ãĢĭ,": 6111,
      "ality": 6112,
      "éĺ³åİ¿": 6113,
      ".,": 6114,
      "è¿Ł": 6115,
      "çªģåĩºéĹ®é¢ĺ": 6116,
      "åĨ¬åŃ£": 6117,
      "ç¥ĸåĽ½": 6118,
      "ner": 6119,
      "ä¸ºè¿Ľä¸ĢæŃ¥": 6120,
      "éĿĴå±±": 6121,
      "éĢ»": 6122,
      "Ġworld": 6123,
      "ä¹ĭå¤ĸ": 6124,
      "åī¯ä¸»å¸Ń": 6125,
      "æ¶īå«Į": 6126,
      "ç¨İåĬ¡å±Ģ": 6127,
      "åĩºåħ·çļĦ": 6128,
      "çļĦæĸĩåĮĸ": 6129,
      "æĶĢ": 6130,
      "Ġmon": 6131,
      "åºĶæĢ¥ç®¡çĲĨ": 6132,
      "åī©": 6133,
      "ä¾ĽåĽ¾": 6134,
      "å¸¦çĿĢ": 6135,
      "110": 6136,
      "93": 6137,
      "éĢļè®¯": 6138,
      "arch": 6139,
      "84": 6140,
      "é¢Ĩä¼ļ": 6141,
      "æ£ĭ": 6142,
      "åŃĲå¥³": 6143,
      "ĠWh": 6144,
      "æ°ĳäºĭè¯īè®¼": 6145,
      "åĽ½éĺ²": 6146,
      "æĢ§èĥ½": 6147,
      "alk": 6148,
      "é¸¿": 6149,
      "åĴĮåıĳå±ķ": 6150,
      "æľ¬åĪ¤åĨ³": 6151,
      "Ġass": 6152,
      "å¥ł": 6153,
      "å¹¿å·ŀå¸Ĥ": 6154,
      "å·¥ä½ľçļĦéĩįè¦ģ": 6155,
      "Ġthose": 6156,
      "æĩĪ": 6157,
      "ek": 6158,
      "ç®¡ç½ĳ": 6159,
      "Ġbeing": 6160,
      "èĩ´åĬĽ": 6161,
      "èµ£": 6162,
      "ç®Ģåįķ": 6163,
      "çº²": 6164,
      "éĩĩè´Ńåįķä½į": 6165,
      "æĿĳåºĦ": 6166,
      "åħ¬åĬ¡åĳĺ": 6167,
      "æĿĳçº§": 6168,
      "å¤©çļĦ": 6169,
      "ç¦½": 6170,
      "éļıæľº": 6171,
      "çŁ¿å±±": 6172,
      "è¯¦ç»ĨäºĨè§£": 6173,
      "åħļåı²åŃ¦ä¹łæķĻèĤ²": 6174,
      "çİ°çĬ¶": 6175,
      "ç´§ç´§åĽ´ç»ķ": 6176,
      "äººåľ¨": 6177,
      "éĻĲä»·": 6178,
      "å³¡": 6179,
      "åĩºåĽ½": 6180,
      "èµĦåĬ©": 6181,
      "ä½ľäºĨ": 6182,
      "ata": 6183,
      "çī¹ç§į": 6184,
      "èĬĤæ°´": 6185,
      "ä¸įå¿ĺ": 6186,
      "æĻ¶": 6187,
      "ĠäºĮæĺ¯": 6188,
      "åħģè®¸": 6189,
      "ä½ľçī©": 6190,
      "åĨ³å¿ĥ": 6191,
      "è®²è¿°": 6192,
      "This": 6193,
      "çĶŁèĤ²": 6194,
      "å¼Ģæĭĵ": 6195,
      "é¡¹çĽ®ç®¡çĲĨ": 6196,
      "çķª": 6197,
      "éĢļçŁ¥ä¹¦": 6198,
      "è´¦åı·": 6199,
      ")ãĢģ": 6200,
      "ax": 6201,
      "çļĦå¥½": 6202,
      "æ¡Į": 6203,
      "Ġend": 6204,
      "çĭłæĬĵ": 6205,
      "ä¸Ģå®¡": 6206,
      "å·¥åľ°": 6207,
      "åĽ½èµĦ": 6208,
      "è¯ģçĽĳ": 6209,
      "Ġmed": 6210,
      "ä¼ļè®®ç²¾ç¥ŀ": 6211,
      "Ġ14": 6212,
      "cellphone": 6213,
      "èµ¤": 6214,
      "å±±åİ¿": 6215,
      "åľĨæ»¡": 6216,
      "å·¥ä½ľæĸ¹æ¡Ī": 6217,
      "åįģå¹´": 6218,
      "Ġused": 6219,
      "åŃŁ": 6220,
      "åįłçĶ¨": 6221,
      "è®¤çľŁèĲ½å®ŀ": 6222,
      "ä¹īåĬ¡æķĻèĤ²": 6223,
      "Ġsaid": 6224,
      "åĲĮæł·": 6225,
      "åħļå»ºå·¥ä½ľ": 6226,
      "éĽĨä½ĵç»ıæµİ": 6227,
      "å¼ķèµ·": 6228,
      "åħ¬æĸ¤": 6229,
      "ä¸įåĲĪæł¼": 6230,
      "æĭľ": 6231,
      "æĬķäº§": 6232,
      "åĪĽæĸ°åĪĽä¸ļ": 6233,
      "é»Ķ": 6234,
      "èĨľ": 6235,
      "å®¶ä¹¡": 6236,
      "Ġcre": 6237,
      "Ġ15": 6238,
      "éĿĴæµ·": 6239,
      "æĶ¹éĿ©å¼ĢæĶ¾": 6240,
      "ĠPro": 6241,
      "ĠFor": 6242,
      "ä¸įåĬ¨äº§çĻ»è®°": 6243,
      "2012": 6244,
      "de": 6245,
      "Ġsim": 6246,
      "å¯ĵ": 6247,
      "äº¤ä»ĺ": 6248,
      "èĬ±åĽŃ": 6249,
      "æĹıèĩªæ²»": 6250,
      "é¾Ļå¤´ä¼ģä¸ļ": 6251,
      "81": 6252,
      "87": 6253,
      "ä¸įè¿ĩ": 6254,
      "è´µå·ŀçľģ": 6255,
      "æĥĬ": 6256,
      "è®¡éĩı": 6257,
      "äº§ä¸ļéĽĨç¾¤": 6258,
      "é¢Ħæµĭ": 6259,
      "èģĮç§°": 6260,
      "éĹ®é¢ĺæķ´æĶ¹": 6261,
      "éĩįçĤ¹é¡¹çĽ®": 6262,
      "å®ĮæĪĲäºĨ": 6263,
      "äº®çĤ¹": 6264,
      "åīįæĿ¥": 6265,
      "çģµæ´»": 6266,
      "èĤ©": 6267,
      "åī²": 6268,
      "åı¯éĢļè¿ĩ": 6269,
      "åı£ç½©": 6270,
      "èĥ½åĬĽåĴĮ": 6271,
      "èĤĸ": 6272,
      "éĻįéĽ¨": 6273,
      "æĶ¿åºľæĢ§": 6274,
      "æĪĳä»¬å°Ĩ": 6275,
      "olut": 6276,
      "åľ¨æŃ¤": 6277,
      "åıĤèĢĥ": 6278,
      "åĸ·": 6279,
      "éĦĤ": 6280,
      "æĵħ": 6281,
      "æ²¿çº¿": 6282,
      "éªĳ": 6283,
      "èİ·åıĸéĩĩè´Ńæĸĩä»¶": 6284,
      "çļĦç¤¾ä¼ļ": 6285,
      "Ġmin": 6286,
      "æīĭåĨĮ": 6287,
      "Ġeach": 6288,
      "å¯¹æłĩ": 6289,
      "çĶŁäº§åĬĽ": 6290,
      "ages": 6291,
      "æĹ¬": 6292,
      "ä¸ĬäºĨ": 6293,
      "Ġcustom": 6294,
      "äºĶå¹´": 6295,
      "Ġbefore": 6296,
      "çŃīå¤ļç§į": 6297,
      "ved": 6298,
      "åĮł": 6299,
      "è¿Ľç¨ĭ": 6300,
      "æĪ·å¤ĸ": 6301,
      "ä½ıéĻ¢": 6302,
      "çī¢çī¢": 6303,
      "å°ļæľª": 6304,
      "å¹³è¡¡": 6305,
      "ä¹ĭæĹ¥": 6306,
      "è¡¥åħħäºĭå®ľ": 6307,
      "éĹ²ç½®": 6308,
      "åĬĿ": 6309,
      "ä»Ļ": 6310,
      "æľįåĬ¡ä¿Ŀéļľ": 6311,
      "ç£ĭåķĨæĸĩä»¶": 6312,
      "èĢĢ": 6313,
      "ives": 6314,
      "å°¤åħ¶æĺ¯": 6315,
      "ä¸ºéĩįçĤ¹": 6316,
      "å§Ĳ": 6317,
      "äººæ°ĳåĮ»éĻ¢": 6318,
      "æĬ±": 6319,
      "åĲĦåĮº": 6320,
      "å¹²åĩĢ": 6321,
      "é©»æĿĳ": 6322,
      "éħįéĢģ": 6323,
      "é©¬åħĭ": 6324,
      "è¥¿åįĹ": 6325,
      "æ·±åħ¥è´¯å½»èĲ½å®ŀ": 6326,
      "åħ¬åĬ¡æİ¥å¾ħ": 6327,
      "æī¹ç¤º": 6328,
      "Ġsupport": 6329,
      "éĤ£ä¹Ī": 6330,
      "åŁºç¡Ģè®¾æĸ½å»ºè®¾": 6331,
      "ince": 6332,
      "å¯¹æĸ¹": 6333,
      "å·²æľī": 6334,
      "æĢĿèĢĥ": 6335,
      "çļĦå½±åĵį": 6336,
      "æ¸ħæĻ°": 6337,
      "æĲºå¸¦": 6338,
      "æĹłäººæľº": 6339,
      "æĬ¥èĢĥ": 6340,
      "Ġpres": 6341,
      "å¹¶å°Ĩ": 6342,
      "é£ŁçĶ¨": 6343,
      "è¿ľç¨ĭ": 6344,
      "Ġ200": 6345,
      "å·¥ä½ľæĬ¥åĳĬ": 6346,
      "ouse": 6347,
      "å®¢è¿Ĳ": 6348,
      "ä¸»è¦ģè´Łè´£äºº": 6349,
      "å¾·åĽ½": 6350,
      "å¥³æĢ§": 6351,
      "è¾ħåĬ©": 6352,
      "åıĤä¼ļ": 6353,
      "Ġhand": 6354,
      "å¸ĤåľºçĽĳçĿ£ç®¡çĲĨå±Ģ": 6355,
      "åĲĪè§Ħ": 6356,
      "éĺ²çģ¾": 6357,
      "éĤĵ": 6358,
      "æ¶µçĽĸ": 6359,
      "çļĦäºĭ": 6360,
      "æ¯ħ": 6361,
      "åĽ½å®¶å®īåħ¨": 6362,
      "az": 6363,
      "åĨ¯": 6364,
      "è¿Ľåĩºåı£": 6365,
      "åĲĪä¼Ļ": 6366,
      "ç§¯æŀģå¼Ģå±ķ": 6367,
      "åĮ»çĸĹä¿Ŀéļľ": 6368,
      "åħħåĪĨåĪ©çĶ¨": 6369,
      "å®ĹæķĻ": 6370,
      "çļĦä½ľçĶ¨": 6371,
      "å°ıå¾®ä¼ģä¸ļ": 6372,
      "ç¼Ŀ": 6373,
      "è¾¾æłĩ": 6374,
      "éĥ½ä¼ļ": 6375,
      "ä¿¡çĶ¨ä¸ŃåĽ½": 6376,
      "----": 6377,
      "è½¨éģĵ": 6378,
      "å¸Ĥäººå¤§å¸¸å§Ķä¼ļ": 6379,
      "å½ĵæĹ¥": 6380,
      "äº¬æ´¥": 6381,
      "ually": 6382,
      "çļĦå½¢å¼ı": 6383,
      "ä¸ĭè¾¾": 6384,
      "æĢ»å·¥ä¼ļ": 6385,
      "arn": 6386,
      "å°±èĥ½": 6387,
      "çī¹å¾ģ": 6388,
      "æĬĵä½ı": 6389,
      "éĩĳèŀįæľįåĬ¡": 6390,
      "èķ´": 6391,
      "å¼Ł": 6392,
      "Ġagain": 6393,
      "é¢Ĺ": 6394,
      "äº§ä¸ļåĮĸ": 6395,
      "æľ¬åħ¬åĳĬåıĳå¸ĥä¹ĭæĹ¥èµ·": 6396,
      "led": 6397,
      "æ³Ĭ": 6398,
      "æĭĴç»Ŀ": 6399,
      "é¢Ħçº¦": 6400,
      "åıĤåĬłäºĨ": 6401,
      "åĲĳæľ¬éĻ¢": 6402,
      "å¹¶ä¸Ķ": 6403,
      "å¾ĭå¸ĪäºĭåĬ¡æīĢ": 6404,
      "æ±ŁåĮº": 6405,
      "âĢĻï¼Į": 6406,
      "æĭįæĳĦ": 6407,
      "åŃ¦ä¼ļ": 6408,
      "æ¡ĳ": 6409,
      "åįķä½įçļĦ": 6410,
      "è´£ä»»äºº": 6411,
      "è¾ĸåĮºåĨħ": 6412,
      "é©¿ç«Ļ": 6413,
      "åķĨå®¶": 6414,
      "å¯¹æľ¬æ¬¡": 6415,
      "Ġbo": 6416,
      "ç²Ĵ": 6417,
      "åįģæĿ¡": 6418,
      "åŁ¹è®ŃçıŃ": 6419,
      "æı´åĬ©": 6420,
      "é«ĺå³°": 6421,
      "Ġcall": 6422,
      "è¦ģæ±ĤçļĦ": 6423,
      "å®¢è§Ĥ": 6424,
      "æī¾åĪ°": 6425,
      "çĴĥ": 6426,
      "çī¢åĽºæłĳç«ĭ": 6427,
      "ĠAs": 6428,
      "è´¯ç©¿": 6429,
      "åĪĽæĸ°åıĳå±ķ": 6430,
      "ç§°åı·": 6431,
      "å®ģæ³¢": 6432,
      "atch": 6433,
      "éĶħ": 6434,
      "æĥħåĨµè¿Ľè¡Į": 6435,
      "æ»´": 6436,
      "ä¸¥éĩįè¿Ŀæ³ķå¤±ä¿¡": 6437,
      "åĲĹ": 6438,
      "ä¸¤åĽ½": 6439,
      "ets": 6440,
      "è§£åĨ³æĸ¹æ¡Ī": 6441,
      "ç»¿èī²åıĳå±ķ": 6442,
      "åĵĪå°Ķæ»¨": 6443,
      "ç»Ħç»ĩé¢Ĩå¯¼": 6444,
      "ä¾ĿçĦ¶": 6445,
      "Ġåľ°çĤ¹": 6446,
      "å®´": 6447,
      "åĨľçī§": 6448,
      "éĺ³åĮº": 6449,
      "ize": 6450,
      "æ·±åľ³å¸Ĥ": 6451,
      "å¤§åľ°": 6452,
      "çłĶç©¶æīĢ": 6453,
      "94": 6454,
      "åį¢": 6455,
      "é«ĺæĸ°æĬĢæľ¯": 6456,
      "åĸĿ": 6457,
      "ä¹łè¿ĳå¹³æĢ»ä¹¦è®°åľ¨": 6458,
      "éŃĤ": 6459,
      "åĮ»çĸĹåį«çĶŁ": 6460,
      "éĵ¾æĿ¡": 6461,
      "ä¸ĢåĪĩ": 6462,
      "å·¥ä¿¡": 6463,
      "è¿ĲåĬ¨åĳĺ": 6464,
      "å¼ĢæłĩæĹ¶éĹ´": 6465,
      "Ġä¸ĭä¸ĢæŃ¥": 6466,
      "çĲĨäºĭ": 6467,
      "æīĵå¼Ģ": 6468,
      "åħļå»ºå¼ķé¢Ĩ": 6469,
      "éĽ·éĶĭ": 6470,
      "åĬłçĽĸåħ¬ç«ł": 6471,
      "ä¸ºç¾¤ä¼Ĺ": 6472,
      "è¡ĮæĶ¿ä¸»ç®¡éĥ¨éĹ¨": 6473,
      "æĳĩ": 6474,
      "åŁºæľ¬æĶ¯åĩº": 6475,
      "ĠéĢļè¿ĩ": 6476,
      "Ġsur": 6477,
      "éĶĤ": 6478,
      "APP": 6479,
      "ited": 6480,
      "åħ¶å®ŀ": 6481,
      "æŁĶ": 6482,
      "æįĲèµł": 6483,
      "]ãĢĤ": 6484,
      "æīĽ": 6485,
      "æľīçĿĢ": 6486,
      "Ġthink": 6487,
      "æĤ¬": 6488,
      "åŁİå¸Ĥç®¡çĲĨ": 6489,
      "XX": 6490,
      "åĮĹéĥ¨": 6491,
      "ollow": 6492,
      "Ġchild": 6493,
      "pen": 6494,
      "åıī": 6495,
      "èµĸ": 6496,
      "å»ºè®¾å·¥ä½ľ": 6497,
      "Ġwhile": 6498,
      "Ġcomple": 6499,
      "ï½ŀ": 6500,
      "äººä¸º": 6501,
      "åĩºæĿ¥": 6502,
      "èİ«": 6503,
      "è§ĦèĮĥæĢ§": 6504,
      "æĪĲæŀľè½¬åĮĸ": 6505,
      "åıªèĥ½": 6506,
      "äººåĿĩ": 6507,
      "åĮĸå¦Ĩ": 6508,
      "ç»ŁæĪĺ": 6509,
      "éŃı": 6510,
      "Ġdisc": 6511,
      "çī¹èī²çļĦ": 6512,
      "è¡Įä¸ºçļĦ": 6513,
      "åħļç»Ħä¹¦è®°": 6514,
      "ä¼Ļä¼´": 6515,
      "è´¢åºĵ": 6516,
      "ç§ĳåŃ¦éĻ¢": 6517,
      "è§īå¾Ĺ": 6518,
      "ĠãĢĤ": 6519,
      "ĠæŃ¤å¤ĸ": 6520,
      "å¤ĸè´¸": 6521,
      "å·²å®ĮæĪĲ": 6522,
      "èį¯çī©": 6523,
      "å°½è´£": 6524,
      "åĪĨåĪ«ä¸º": 6525,
      "æ³ķå®ļèĬĤåģĩæĹ¥éĻ¤å¤ĸ": 6526,
      "ä¸Ģé¡¹": 6527,
      "åīª": 6528,
      "åĢ¡è®®": 6529,
      "æĶ¾å¼ĥ": 6530,
      "è£ħç½®": 6531,
      "ç¢°": 6532,
      "æ¸¯åı£": 6533,
      "éĢĥ": 6534,
      "ç§Ĵ": 6535,
      "è´Ńçī©": 6536,
      "ç»ıèĲ¥ä¸»ä½ĵ": 6537,
      "åıªæĺ¯": 6538,
      "å¼ºçĥĪ": 6539,
      "èįīæ¡Ī": 6540,
      "èį£èİ·": 6541,
      "è¯īè®¼è¯·æ±Ĥ": 6542,
      "åĲ§": 6543,
      "rest": 6544,
      "æľ¬å±Ĭ": 6545,
      "æ¸Ķä¸ļ": 6546,
      "çļĦæĬĢæľ¯": 6547,
      "ä¹³": 6548,
      "èĪ¹èĪ": 6549,
      "ä½©": 6550,
      "ä¸ĩå¹³æĸ¹ç±³": 6551,
      "åĽŀè´Ń": 6552,
      "çĶŁéķ¿": 6553,
      "åħļçºª": 6554,
      "æĶ¿çŃĸæİªæĸ½": 6555,
      "èĭ±éĽĦ": 6556,
      "åĽ½æ°ĳ": 6557,
      "é«ĺæ¸©": 6558,
      "æ°´æŀľ": 6559,
      "Ġfl": 6560,
      "åĽ¾çīĩ": 6561,
      "æ°´çĶµ": 6562,
      "roup": 6563,
      "åĲİæŀľ": 6564,
      "æĢ»éĥ¨": 6565,
      "æīĵèµ¢": 6566,
      "å»ºçŃĳéĿ¢ç§¯": 6567,
      "åĽ¾ä¹¦é¦Ĩ": 6568,
      "é«ĺäºİ": 6569,
      "å°ĨæĮģç»Ń": 6570,
      "åį«åģ¥": 6571,
      "æĬµæĬ¼": 6572,
      "æĢ»æķ°": 6573,
      "æŃ¤åīį": 6574,
      "ä¸²": 6575,
      "çļĦåĨħå®¹": 6576,
      "ä¿ĿæĬ¤åĮº": 6577,
      "æĶ¿åºľéĩĩè´Ńæ´»åĬ¨": 6578,
      "åĩĢåĪ©æ¶¦": 6579,
      "61": 6580,
      "åĬ¡å·¥": 6581,
      "æº¯": 6582,
      "æ¶Īæ¯Ĵ": 6583,
      "Ġeas": 6584,
      "akes": 6585,
      "åĬŀå¥½": 6586,
      "æĿĳçļĦ": 6587,
      "èī¾": 6588,
      "äººæ°ĳæ£Ģå¯ŁéĻ¢": 6589,
      "é»Ħéĩĳ": 6590,
      "æ¶īæ¡Ī": 6591,
      "be": 6592,
      "æº¢": 6593,
      "ä¿¡è´·": 6594,
      "Ġprogram": 6595,
      "èĪ¹èĪ¶": 6596,
      "åĮ¹": 6597,
      "æĹłæķĪ": 6598,
      "2011": 6599,
      "åĩıè½»": 6600,
      "å¤±ä¿¡è¢«æī§è¡Įäºº": 6601,
      "way": 6602,
      "åĬŀå®ŀäºĭ": 6603,
      "åĢ¼å®Ī": 6604,
      "å®ĺæĸ¹": 6605,
      "å¹´åĨħ": 6606,
      "è½¬æį¢": 6607,
      "æīĭæľ¯": 6608,
      "IP": 6609,
      "äºĮæľŁ": 6610,
      "æĿ¡æ¬¾": 6611,
      "ç»Ĩèĥŀ": 6612,
      "ather": 6613,
      "Ġinter": 6614,
      "åĽłåľ°": 6615,
      "äºĴéĢļ": 6616,
      "Ġlead": 6617,
      "Ġä¸īæĺ¯": 6618,
      "è´«åĽ°æĪ·": 6619,
      "åľ¨åīį": 6620,
      "æľīäºº": 6621,
      "èĥ½éĩı": 6622,
      "éĶĲ": 6623,
      "æŀª": 6624,
      "ä»¬çļĦ": 6625,
      "Ġdid": 6626,
      "åĢŁåĬ©": 6627,
      "çıłæµ·": 6628,
      "åĩŃè¯ģ": 6629,
      "çĽ¸åħ³çļĦ": 6630,
      "åģ¥åº·åıĳå±ķ": 6631,
      "è°ĥæŁ¥çłĶç©¶": 6632,
      "Ġteam": 6633,
      "æł¼å¼ı": 6634,
      "ption": 6635,
      "åĬ£": 6636,
      "åı°éĺ¶": 6637,
      "å¸ĤåľºåĮĸ": 6638,
      "ĠAn": 6639,
      "å¦ĩèģĶ": 6640,
      "çĶ¨å·¥": 6641,
      "æ°ĳå®¿": 6642,
      "å¹¶ä¸¾": 6643,
      "æŃ£æĺ¯": 6644,
      "å·¥ç¨ĭå¸Ī": 6645,
      "çĪ¶æ¯į": 6646,
      "Ġâĳ": 6647,
      "çłĸ": 6648,
      "æľĢé«ĺéĻĲä»·": 6649,
      "èĲ¥ä¸ļæĶ¶åħ¥": 6650,
      "çŁĽçĽ¾çºłçº·": 6651,
      "æĶ¿åºľæĢ§åŁºéĩĳ": 6652,
      "æĸ°æĺ¥": 6653,
      "çĿ£åĬŀ": 6654,
      "åĮĸåŃ¦åĵģ": 6655,
      "å¤įå·¥å¤įäº§": 6656,
      "å¼Ħ": 6657,
      "Ġaround": 6658,
      "åĪĨçº§": 6659,
      "æ¡Ĩ": 6660,
      "å¤ĸäº¤": 6661,
      "ä¿Ŀå¯Ĩ": 6662,
      "é¢Ŀåº¦": 6663,
      "å¡«æĬ¥": 6664,
      "çĶ¨éĢĶ": 6665,
      "åĪĨåŃĲ": 6666,
      "åĪ¶å®ľ": 6667,
      "å°Ĩäºİ": 6668,
      "lease": 6669,
      "æŁľ": 6670,
      "åıĳå¸ĥä¼ļ": 6671,
      "ç»§æī¿": 6672,
      "åħļé£İå»īæĶ¿": 6673,
      "äººçĶŁ": 6674,
      "æ¡©": 6675,
      "éħ¬": 6676,
      "å¦»": 6677,
      "å±Ĭèĳ£äºĭä¼ļ": 6678,
      "äº§çĶŁçļĦ": 6679,
      "ç»ıåĬŀ": 6680,
      "æ°´ç¨»": 6681,
      "ä»½é¢Ŀ": 6682,
      "åĪ¤åĨ³ä¹¦": 6683,
      "åĴĸ": 6684,
      "ç»ĵè½¬": 6685,
      "åİŁæĸĻ": 6686,
      "å®ŀæĸ½æĦıè§ģ": 6687,
      "éĹ¸": 6688,
      "ä¼ļè®¡å¸Ī": 6689,
      "è¯ĬçĸĹ": 6690,
      "gg": 6691,
      "ä¸ºæĮĩå¯¼": 6692,
      "ç§ī": 6693,
      "ãĢĭãĢģ": 6694,
      "é©¬åħĭæĢĿ": 6695,
      "çĲ´": 6696,
      "è¦ģè¿Ľä¸ĢæŃ¥": 6697,
      "Ġcur": 6698,
      "å°Ĭéĩį": 6699,
      "æ°ĳäºĭè¯īè®¼æ³ķ": 6700,
      "pr": 6701,
      "æ±Ĺ": 6702,
      "åħ¥æĪ·": 6703,
      "ĠSh": 6704,
      "å»ºç«ĭäºĨ": 6705,
      "ctions": 6706,
      "åŃ¦èĢħ": 6707,
      "æĭ³": 6708,
      "é©³": 6709,
      "æıĲåįĩäºĨ": 6710,
      "æļĹ": 6711,
      "ied": 6712,
      "ä¸Ńèį¯": 6713,
      "é«ĺçŃī": 6714,
      "éĹ¨è¯Ĭ": 6715,
      "æŃ¥ä¼Ĳ": 6716,
      "èĵ¬": 6717,
      "çĽĴ": 6718,
      "åĮĸå¦Ĩåĵģ": 6719,
      "å®ľå±ħ": 6720,
      "Ġvis": 6721,
      "Ġpost": 6722,
      "æīĵåį°": 6723,
      "å¹²äºĭ": 6724,
      "åī¯æľ¬": 6725,
      "åħļç»ĦæĪĲåĳĺ": 6726,
      "å»ºéĢł": 6727,
      "ï¼ļï¼Ī": 6728,
      "å°ıéķĩ": 6729,
      "ä»ĸè¯´": 6730,
      "æµ·åħ³": 6731,
      "å¦ĤæŃ¤": 6732,
      "Ġprof": 6733,
      "æĸ¯åĿ¦": 6734,
      "æ±¡æŁĵçī©": 6735,
      "ä¸ªæĢ§": 6736,
      "Ġcle": 6737,
      "çļĦéĩįè¦ģè®²è¯Ŀ": 6738,
      "ave": 6739,
      "è¯ģä»¶": 6740,
      "æİĴæ±¡": 6741,
      "åħ¸åŀĭæ¡Īä¾ĭ": 6742,
      "ä¸ªå·¥ä½ľæĹ¥åĨħ": 6743,
      "ues": 6744,
      "çļĩ": 6745,
      "æł½": 6746,
      "å¤§è¿ŀ": 6747,
      "Ġfree": 6748,
      "åı¦ä¸Ģæĸ¹éĿ¢": 6749,
      "çĹĩçĬ¶": 6750,
      "ä¹ĭéĻħ": 6751,
      "èįĨ": 6752,
      "è·¨è¶Ĭ": 6753,
      "éĤ®ç®±": 6754,
      "ä¸ĢåŃ£åº¦": 6755,
      "åĨĽéĺŁ": 6756,
      "çħĮ": 6757,
      "çļĦæĥħåĨµä¸ĭ": 6758,
      "ene": 6759,
      "arm": 6760,
      "çī¹æŃ¤": 6761,
      "æĿĥåĬĽ": 6762,
      "å®ģå¤ı": 6763,
      "ç¦ģæ¯Ĵ": 6764,
      "æĶ¿åĬ¡åħ¬å¼Ģ": 6765,
      "ä¼¯": 6766,
      "åıĳæī¬": 6767,
      "å¤§æ¹¾åĮº": 6768,
      "åıĬåħ¶ä»ĸ": 6769,
      "Ġtop": 6770,
      "çłĶåŃ¦": 6771,
      "çŁ³æ²¹": 6772,
      "æ·±åº¦èŀįåĲĪ": 6773,
      "åºĻ": 6774,
      "æ·Ģ": 6775,
      "æĪ·ç±į": 6776,
      "çħ¤çĤŃ": 6777,
      "æİĪæĿĥå§Ķæīĺ": 6778,
      "åıĤçħ§": 6779,
      "è¢ģ": 6780,
      "æıĲé«ĺäºĨ": 6781,
      "ä¸¤ä¸ªç»´æĬ¤": 6782,
      "åĪĢ": 6783,
      "Ġstr": 6784,
      "ä¸įç§»": 6785,
      "é¡¹çĽ®ç¼ĸåı·": 6786,
      "Ġfun": 6787,
      "Ġlife": 6788,
      "ç»´æĮģ": 6789,
      "Ġplace": 6790,
      "å·¨å¤§": 6791,
      "çĽĹ": 6792,
      "éĺ²çº¿": 6793,
      "ç«Ļåľ¨": 6794,
      "Ġadv": 6795,
      "çİ»çĴĥ": 6796,
      "land": 6797,
      "åħ³ç³»çļĦ": 6798,
      "æī«æıı": 6799,
      "çļĦçĥŃ": 6800,
      "å°ıåŀĭ": 6801,
      "ç²¾ç»ĨåĮĸ": 6802,
      "Ġlist": 6803,
      "çİ°ä»£åĨľä¸ļ": 6804,
      "ä¸įå¤Ł": 6805,
      "å¯¹åħ¶": 6806,
      "å°ĳæķ°": 6807,
      "åºĨç¥Ŀ": 6808,
      "è°¨": 6809,
      "æį®äºĨè§£": 6810,
      "ç¤¾ä¼ļä¿ĿéĻ©": 6811,
      "å¼ķåħ¥": 6812,
      "Ġatt": 6813,
      "æĪĲåĳĺåįķä½į": 6814,
      "ç³»åĪĹæ´»åĬ¨": 6815,
      "æ±Łè¥¿çľģ": 6816,
      "åĽłåľ°åĪ¶å®ľ": 6817,
      "Ġåħ«": 6818,
      "è§Ħå¾ĭ": 6819,
      "èĭ¹": 6820,
      "è´£ä»»åĪ¶": 6821,
      "éļ¾ä»¥": 6822,
      "åĨ¬å¥¥": 6823,
      "ways": 6824,
      "Ġpur": 6825,
      "ĠSo": 6826,
      "èĩ´è¾ŀ": 6827,
      "self": 6828,
      "91": 6829,
      "æ°´æºĲ": 6830,
      "Ġdet": 6831,
      "Ġret": 6832,
      "å¤§åĬĽåıĳå±ķ": 6833,
      "èĢģæĹ§å°ıåĮº": 6834,
      "æĢ»ç»Ł": 6835,
      "æĦŁåĴĮ": 6836,
      "åĬłæ²¹": 6837,
      "åįĹæĺĮ": 6838,
      "æ»ļ": 6839,
      "Ġlast": 6840,
      "irect": 6841,
      "Ġavail": 6842,
      "å¥łå®ļ": 6843,
      "çĽ²": 6844,
      "Ġcour": 6845,
      "ä¸¤çº§": 6846,
      "aint": 6847,
      "æļĤè¡Į": 6848,
      "çĲĨè®ºåŃ¦ä¹ł": 6849,
      "ä»İä¸ļäººåĳĺ": 6850,
      "éĺĲ": 6851,
      "æ°´èµĦæºĲ": 6852,
      "ä¾ĽéĶĢ": 6853,
      "æĸĩåĮĸçļĦ": 6854,
      "åıł": 6855,
      "æ°¢": 6856,
      "åı£å²¸": 6857,
      "çº¿ä¸Ĭçº¿ä¸ĭ": 6858,
      "Ġï¼Į": 6859,
      "æıĴ": 6860,
      "æĽ´æľī": 6861,
      "çĭ¬ç«ĭèĳ£äºĭ": 6862,
      "Ġdifferent": 6863,
      "æ³¡": 6864,
      "ä»¥èµ´": 6865,
      "æµģè½¬": 6866,
      "éĩįå¤§é¡¹çĽ®": 6867,
      "ç¢ĳ": 6868,
      "éĢĤå½ĵ": 6869,
      "é«ĺæł¡æ¯ķä¸ļçĶŁ": 6870,
      "çļĦä¸ŃåĽ½": 6871,
      "æĹŃ": 6872,
      "Ġbl": 6873,
      "èµ°åĲĳ": 6874,
      "Ġä¼ļä¸Ĭ": 6875,
      "çļĦäº§åĵģ": 6876,
      "èģĬ": 6877,
      "æī¹è¯Ħ": 6878,
      "æĺİç¡®äºĨ": 6879,
      "è¯īè®¼ä»£çĲĨäºº": 6880,
      "æĹ¥åĩºçĶŁ": 6881,
      "èİŀ": 6882,
      "èĢĮæĺ¯": 6883,
      "åħ¨åĬĽä»¥èµ´": 6884,
      "ç¤¾ä¼ļä¸»ä¹īçİ°ä»£åĮĸ": 6885,
      "çī©ä¸ļæľįåĬ¡": 6886,
      "è¿Ŀæ³ķçĬ¯ç½ª": 6887,
      "èģĶç»ľ": 6888,
      "å·²æĪĲä¸º": 6889,
      "ç»ŁçŃ¹æİ¨è¿Ľ": 6890,
      "ä¸Ńæľī": 6891,
      "æķ´çĲĨ": 6892,
      "ä¸ŃåĽ½æĶ¿åºľéĩĩè´Ńç½ĳ": 6893,
      "åĽŃæŀĹ": 6894,
      "ç§¯æŀģæĢ§": 6895,
      "åĨįçĶŁ": 6896,
      "åĲķ": 6897,
      "åīįè¡Į": 6898,
      "æĬ¢éĻ©": 6899,
      "æĹħè¡Į": 6900,
      "ä¸Ńåįİäººæ°ĳåħ±åĴĮåĽ½æ°ĳäºĭè¯īè®¼æ³ķ": 6901,
      "unity": 6902,
      "æī£éĻ¤": 6903,
      "ining": 6904,
      "ç¤¾ä¼ļç»Ħç»ĩ": 6905,
      "Ġåħ¬åı¸": 6906,
      "åľ°çļĦ": 6907,
      "ç»ıåħ¸": 6908,
      "éľŀ": 6909,
      "åĿļå®ļä¸įç§»": 6910,
      "ä¼ļéķ¿": 6911,
      "å¢ŀåĢ¼": 6912,
      "æīĢå±ŀ": 6913,
      "åĽŀå¤į": 6914,
      "é¢Ĩå¯¼ä¸ĭ": 6915,
      "Ġä¼ļè®®å¼ºè°ĥ": 6916,
      "ple": 6917,
      "é¦ĸéĥ½": 6918,
      "åį«æĺŁ": 6919,
      "ä¸Ĭçº¿": 6920,
      "çĤ¸": 6921,
      "éķ¿æĺ¥": 6922,
      "èģļåĬĽ": 6923,
      "åİĤæĪ¿": 6924,
      "Ġlove": 6925,
      "èĢĥåı¤": 6926,
      "åįļè§Ī": 6927,
      "æĦıè¯ĨåĴĮ": 6928,
      "éļĲæĤ£æİĴæŁ¥": 6929,
      "ç¼ĵè§£": 6930,
      "éĶ»çĤ¼": 6931,
      "å¤ļå®¶": 6932,
      "ç½ĳçĤ¹": 6933,
      "åĽ½åĨħå¤ĸ": 6934,
      "åĲĦä½į": 6935,
      "é£İæĻ¯": 6936,
      "Ġusing": 6937,
      "åĢĻéĢīäºº": 6938,
      "èĴĭ": 6939,
      "åı¯æĮģç»Ńåıĳå±ķ": 6940,
      "Ġæľ¬é¡¹çĽ®": 6941,
      "ä»Ķ": 6942,
      "ines": 6943,
      "èĻ¹": 6944,
      "æļ´éĽ¨": 6945,
      "Ġed": 6946,
      "åĲĳç¤¾ä¼ļ": 6947,
      "ars": 6948,
      "è´¨æķĪ": 6949,
      "é¢ĦæĬ¥": 6950,
      "è®¤çľŁè´¯å½»èĲ½å®ŀ": 6951,
      "èĭ¹æŀľ": 6952,
      "åħĥç´ł": 6953,
      "åĨľåľº": 6954,
      "æ¸ħæ¥ļ": 6955,
      "åł¤": 6956,
      "ĠDe": 6957,
      "ä¸Ģè¾¹": 6958,
      "æĥħæĢĢ": 6959,
      "åĢºæĿĥ": 6960,
      "ä¸Ģå¼ł": 6961,
      "æīĵåį¡": 6962,
      "å®ŀæĸ½ç»ĨåĪĻ": 6963,
      "ç»ĪæŃ¢": 6964,
      "çŃīæĸ¹éĿ¢çļĦ": 6965,
      "å«Įçĸĳ": 6966,
      "ĠæľĪ": 6967,
      "åĳ¢": 6968,
      "æĢ§è´¨": 6969,
      "éĻ¢å£«": 6970,
      "åģļå¤§": 6971,
      "è£ħä¿®": 6972,
      "æŃ¦è£ħ": 6973,
      "çºłæŃ£": 6974,
      "å³»": 6975,
      "èĪĨè®º": 6976,
      "æİī": 6977,
      "ç»Ħç»ĩéĥ¨": 6978,
      "è§ģè¯ģ": 6979,
      "123": 6980,
      "ä»ĺæ¬¾": 6981,
      "çĶľ": 6982,
      "æ°ı": 6983,
      "åħ³æĢĢ": 6984,
      "æĸ¹éĴĪ": 6985,
      "Ġcare": 6986,
      "äºĮæ¬¡": 6987,
      "Ġhim": 6988,
      "åıįåºĶ": 6989,
      "åĪĩå®ŀæĬĬ": 6990,
      "çĶ°éĹ´": 6991,
      "ric": 6992,
      "éĹ¹": 6993,
      "æ³ķå®ĺ": 6994,
      "éĢļçĶ¨": 6995,
      "Ġser": 6996,
      "Ġboth": 6997,
      "æģĲ": 6998,
      "èĪ°": 6999,
      "æĶ»åĿļæĪĺ": 7000,
      "Ġsame": 7001,
      "å®īåħ¨ç®¡çĲĨ": 7002,
      "å¤ĸèµĦ": 7003,
      "æĹ¶éĹ´åĨħ": 7004,
      "ä¸°æĶ¶": 7005,
      "æĳĦå½±": 7006,
      "åĸľæ¬¢": 7007,
      "ãĢĭ(": 7008,
      "çİ¯å¢ĥå½±åĵį": 7009,
      "ç§¯æŀģæİ¢ç´¢": 7010,
      "åŁºå±Ĥæ²»çĲĨ": 7011,
      "çļĦæĦıè§ģ": 7012,
      "å®ļåĪ¶": 7013,
      "èĩªå¾ĭ": 7014,
      "çĻĮ": 7015,
      "å·¥ä¸ļåĴĮä¿¡æģ¯åĮĸ": 7016,
      "åľ°åĮºçļĦ": 7017,
      "è®°èĢħä»İ": 7018,
      "å¼Ģå¹ķå¼ı": 7019,
      "ever": 7020,
      "æĢķ": 7021,
      "æĹ¥çĽĬ": 7022,
      "read": 7023,
      "å¤ĸåĩº": 7024,
      "æľªæĮī": 7025,
      "å¸Ĥå§Ķåī¯ä¹¦è®°": 7026,
      "çĶ¨æĪ¿": 7027,
      "ä¿¡åı·": 7028,
      "é¥±": 7029,
      "ä¿¡æģ¯æĬĢæľ¯": 7030,
      "åº·åħ»": 7031,
      "è¾Ī": 7032,
      "ç«ĭæĸ¹ç±³": 7033,
      "ä½ıæĪ¿åĴĮ": 7034,
      "view": 7035,
      "æľįè£ħ": 7036,
      "oun": 7037,
      "èĢħçļĦ": 7038,
      "èĳ¡": 7039,
      "ç»Īç«¯": 7040,
      "èµ¢å¾Ĺ": 7041,
      "å·¥ä½ľä»»åĬ¡": 7042,
      "çĶµç½ĳ": 7043,
      "éŁµ": 7044,
      "è¡ĹéģĵåĬŀäºĭå¤Ħ": 7045,
      "èĮ¶åı¶": 7046,
      "man": 7047,
      "Ġbook": 7048,
      "æĸ°æĹ¶ä»£æĸĩæĺİå®ŀè·µ": 7049,
      "æ¹ĸåĮĹçľģ": 7050,
      "æ¯ıä¸Ģä¸ª": 7051,
      "å¸Ńä¼ļè®®": 7052,
      "å¢ŀåĬłåĢ¼": 7053,
      "æľĢç¾İ": 7054,
      "çĦ¶èĢĮ": 7055,
      "çļĦçĽ®æłĩ": 7056,
      "æĸĩåŃ¦": 7057,
      "åıĳå±ķæĸ°": 7058,
      "Ġsom": 7059,
      "å°ıéº¦": 7060,
      "è¿ĺè¦ģ": 7061,
      "è¯ĬæĸŃ": 7062,
      "Ġæį®æĤī": 7063,
      "çº·çº·è¡¨ç¤º": 7064,
      "ä¸ºæł¸å¿ĥçļĦ": 7065,
      "ä¸Ģä½į": 7066,
      "æ²§": 7067,
      "ä¸ľéĥ¨": 7068,
      "å§Ķæīĺè¯īè®¼ä»£çĲĨäºº": 7069,
      "å·¾": 7070,
      "æľ¬åľŁ": 7071,
      "è°ĵ": 7072,
      "åĲĮåŃ¦ä»¬": 7073,
      "å°±åĮ»": 7074,
      "åŀĴ": 7075,
      "æ»ĭ": 7076,
      "Ġreally": 7077,
      "ĠTe": 7078,
      "ç»ĵåĲĪèµ·æĿ¥": 7079,
      "ä¸ĵé¡¹èµĦéĩĳ": 7080,
      "çł´è§£": 7081,
      "au": 7082,
      "å®¶ä¸Ń": 7083,
      "ä¹ĭè§Ħå®ļ": 7084,
      "æľªç»ı": 7085,
      "å¤®å¹¿": 7086,
      "Ġgoing": 7087,
      "èŃ¦ç¤ºæķĻèĤ²": 7088,
      "Ġsign": 7089,
      "è·¯éĿ¢": 7090,
      "èĲ½æĪ·": 7091,
      "æĮīä»¥ä¸ĭ": 7092,
      "è´§å¸ģ": 7093,
      "ä¸ĢèĪ¬åħ¬åħ±é¢Ħç®Ĺè´¢æĶ¿æĭ¨æ¬¾": 7094,
      "éĩįè¦ģè®²è¯Ŀç²¾ç¥ŀ": 7095,
      "åıĳéĢģ": 7096,
      "éĩĳå±±": 7097,
      "éĻĲæľŁ": 7098,
      "éĩĩè´Ńä»£çĲĨæľºæŀĦ": 7099,
      "Ġ13": 7100,
      "è¿Ļä¹Ī": 7101,
      "åı·æ¥¼": 7102,
      "imes": 7103,
      "é¥²": 7104,
      "å¸Ĥåİ¿": 7105,
      "æ³¨éĶĢ": 7106,
      "æĢĿæĶ¿": 7107,
      "æĬĵç´§": 7108,
      "åĤħ": 7109,
      "å¼Ĥå¸¸": 7110,
      "èĩ´åĬĽäºİ": 7111,
      "è§ĦèĮĥæĢ§æĸĩä»¶": 7112,
      "Ġaut": 7113,
      "å®¶çļĦ": 7114,
      "èŀº": 7115,
      "ä¸įæĸŃå¢ŀå¼º": 7116,
      "ä»įçĦ¶": 7117,
      "æĵħèĩª": 7118,
      "é©¬åħĭæĢĿä¸»ä¹ī": 7119,
      "æĿĳéĩĮ": 7120,
      "éĥ½å¸Ĥ": 7121,
      "äº¤éĢļäºĭæķħ": 7122,
      "Ġprocess": 7123,
      "ä¸Ģæ¡Ī": 7124,
      "è¿Ĳè½¬": 7125,
      "ä¸¥åİī": 7126,
      "éĿĸ": 7127,
      "åīįçļĦ": 7128,
      "Ġpub": 7129,
      "åĨ³å®ļä¹¦": 7130,
      "ĠâĢĶâĢĶ": 7131,
      "ä¸Ģç«Ļ": 7132,
      "èµ·çĤ¹": 7133,
      "é¦ĸå¸Ń": 7134,
      "ĠBut": 7135,
      "åĲ¸å¼ķäºĨ": 7136,
      "ç¥Ń": 7137,
      "åĪ¤æĸŃ": 7138,
      "Ġsub": 7139,
      "å¾®ä¿¡åħ¬ä¼Ĺåı·": 7140,
      "ä¸ºæĬĵæīĭ": 7141,
      "ä¾¯": 7142,
      "è½¦ç«Ļ": 7143,
      "ional": 7144,
      "çŃ¾åŃĹ": 7145,
      "è¿Ŀæ³ķè¿Ŀè§Ħ": 7146,
      "ç»¿èī²ä½İç¢³": 7147,
      "ä¸įå¿ĺåĪĿå¿ĥ": 7148,
      "è§Ħæł¼": 7149,
      "åħļå·¥å§Ķ": 7150,
      "Ġ2019": 7151,
      "ĠãĢĲ": 7152,
      "çļĦå»ºè®¾": 7153,
      "çļĦåľ°æĸ¹": 7154,
      "æĽ¼": 7155,
      "ç¡®ç«ĭ": 7156,
      "åĨĽäºĭ": 7157,
      "ä¸ĵä¸ļåĮĸ": 7158,
      "æĶ¿åºľéĩĩè´Ńä¸¥éĩįè¿Ŀæ³ķå¤±ä¿¡": 7159,
      "èĿ": 7160,
      "åĲĬ": 7161,
      "äº¤æīĢ": 7162,
      "Ġgra": 7163,
      "è´§è¿Ĳ": 7164,
      "æİ¢è®¨": 7165,
      "æĶ¿åįıå§Ķåĳĺ": 7166,
      "é³": 7167,
      "ä»¿": 7168,
      "æĺ¨": 7169,
      "åľ°è¯´": 7170,
      "æĥħèĬĤ": 7171,
      "è®°è½½": 7172,
      "ä¹Łè¦ģ": 7173,
      "æĦŁè§ī": 7174,
      "ä½¿çĶ¨çļĦ": 7175,
      "å¤®å¹¿ç½ĳ": 7176,
      "æĬķæĶ¾": 7177,
      "è¾ĥä¸º": 7178,
      "å¯Įè£ķ": 7179,
      "å®¶äºº": 7180,
      "èĩªæŁ¥": 7181,
      "èµ·äºĨ": 7182,
      "åħ¶ä»ĸè¡¥åħħäºĭå®ľ": 7183,
      "åĲĦçº§åĲĦéĥ¨éĹ¨": 7184,
      "çļĦä¸Ģä¸ª": 7185,
      "åŁĭ": 7186,
      "å·¥ä½ľæĥħåĨµ": 7187,
      "æ¯ıæĹ¥": 7188,
      "å¤±ä¸ļ": 7189,
      "æ¢¦æĥ³": 7190,
      "Ġimport": 7191,
      "å§¿": 7192,
      "å°ıåº·": 7193,
      "ä½ĵçİ°äºĨ": 7194,
      "ient": 7195,
      "ç§Ĩ": 7196,
      "éĩįçĤ¹é¢ĨåŁŁ": 7197,
      "åŁİå¸Ĥå»ºè®¾": 7198,
      "åŃĺåľ¨çļĦéĹ®é¢ĺ": 7199,
      "ç¹ģèį£": 7200,
      "ç»ĦåĲĪ": 7201,
      "ä¸Ńçº§äººæ°ĳæ³ķéĻ¢": 7202,
      "less": 7203,
      "æ½ĺ": 7204,
      "æ°´åĬ¡": 7205,
      "å¤ļå½©": 7206,
      "ç§¯æŀģæİ¨è¿Ľ": 7207,
      "åĲ¦åĪĻ": 7208,
      "ves": 7209,
      "ware": 7210,
      "ä¸īæĿ¡": 7211,
      "ale": 7212,
      "é£İè²Į": 7213,
      "è¡ĮæĶ¿è®¸åı¯": 7214,
      "ç§ĳåŃ¦æĬĢæľ¯": 7215,
      "âĢĿï¼Ī": 7216,
      "Ġpol": 7217,
      "éĹ®é¢ĺå¯¼åĲĳ": 7218,
      "åŀĭä¼ģä¸ļ": 7219,
      "ç»Ĩèĩ´": 7220,
      "è§£åĨ³äºĨ": 7221,
      "Ġchar": 7222,
      "Ġtechn": 7223,
      "çĨŁæĤī": 7224,
      "å¡ĳæĸĻ": 7225,
      "äººç¤¾å±Ģ": 7226,
      "å¤ļæķ°": 7227,
      "æİ¥æĶ¶": 7228,
      "åıĺéĿ©": 7229,
      "çļĦçľŁå®ŀ": 7230,
      "å¤§ä¼Ĺ": 7231,
      "æłĩé¢ĺ": 7232,
      "Ġcount": 7233,
      "å·¥æľŁ": 7234,
      "åº¦åģĩ": 7235,
      "å¾ĹåĪ°äºĨ": 7236,
      "ä¸ľèİŀ": 7237,
      "æī¹åıĳ": 7238,
      "åħļæł¡": 7239,
      "ä¸¤åľ°": 7240,
      "ç§»éĢģ": 7241,
      "Ġext": 7242,
      "åŃ¦çĶŁçļĦ": 7243,
      "é¹¤": 7244,
      "ä¸Ģå¤©": 7245,
      "ins": 7246,
      "æľ¬åħ¬åı¸": 7247,
      "Ġfollow": 7248,
      "èĢĮè¨Ģ": 7249,
      "åı¯ä»¥åľ¨": 7250,
      "æķ°åŃĹåĮĸè½¬åŀĭ": 7251,
      "é«ĺåľ°": 7252,
      "éļıæĹ¶": 7253,
      "å¤ªéĺ³": 7254,
      "ä¸»æĮģåı¬å¼Ģ": 7255,
      "éĩİçĶŁåĬ¨": 7256,
      "èįĴ": 7257,
      "è´¯éĢļ": 7258,
      "æ³ķå¾ĭæľįåĬ¡": 7259,
      "åºĶæĢ¥æķĳæı´": 7260,
      "Ġrun": 7261,
      "è®¡ç®Ĺæľº": 7262,
      "ç§įç±»": 7263,
      "ç»ıæµİé«ĺè´¨éĩıåıĳå±ķ": 7264,
      "åĮ»çĸĹä¿ĿéĻ©": 7265,
      "å·¥ä½ľçļĦéĢļçŁ¥": 7266,
      "ä¼łè¾¾åŃ¦ä¹ł": 7267,
      "ĠçĽ®åīį": 7268,
      "ä¹ĥ": 7269,
      "åľ¨äºİ": 7270,
      "èµĦè®¯": 7271,
      "ittle": 7272,
      "Ġavailable": 7273,
      "ï¿": 7274,
      "ä¸ªé¡¹çĽ®": 7275,
      "æ¶Ŀ": 7276,
      "çŃĸåĪĴ": 7277,
      "èģĶåĲĪåĽ½": 7278,
      "äººçī©": 7279,
      "ä¸Ģä¸ĭ": 7280,
      "åĩºèµĦ": 7281,
      "äº¤åıī": 7282,
      "è¡ĮæĶ¿å®¡æī¹": 7283,
      "åıĳæĶ¹å§Ķ": 7284,
      "ness": 7285,
      "çİ¯å¢ĥåį«çĶŁ": 7286,
      "åıĺåĬ¨": 7287,
      "Ġfeel": 7288,
      "æıĲåĩºè¯¢éĹ®": 7289,
      "å¼ĥæĿĥ": 7290,
      "ä¸Ńåħ±ä¸Ńå¤®": 7291,
      "è¯ģçĽĳä¼ļ": 7292,
      "äº¬æ´¥åĨĢ": 7293,
      "åĩºåħ¥": 7294,
      "è¯·åľ¨": 7295,
      "æ±ĩæĢ»": 7296,
      "ä¿ĿçķĻ": 7297,
      "æĥħç»ª": 7298,
      "æĽ´é«ĺ": 7299,
      "è´¢æĶ¿éĥ¨éĹ¨": 7300,
      "åµ": 7301,
      "æľ¬ç§ĳ": 7302,
      "è¿Ŀçºª": 7303,
      "äºļæ´²": 7304,
      "ä¸Ģä½ĵçļĦ": 7305,
      "æ¾Ħ": 7306,
      "Ġdri": 7307,
      "æĪ¿äº§": 7308,
      "åħ´è¶£": 7309,
      "åıĭå¥½": 7310,
      "é¢Ī": 7311,
      "å§ľ": 7312,
      "ç§ĳçĽ®": 7313,
      "è´¢çī©": 7314,
      "æĪĺäºī": 7315,
      "åıªè¦ģ": 7316,
      "éĤ®ä»¶": 7317,
      "æ°ĳä¼Ĺ": 7318,
      "ç»ĵä½Ļ": 7319,
      "ç¬¦åĲĪæĿ¡ä»¶çļĦ": 7320,
      "ä»·åĢ¼è§Ĥ": 7321,
      "æī«é»ĳ": 7322,
      "ç¬¬äºĮåįģäºĮæĿ¡è§Ħå®ļ": 7323,
      "å·¥ä¼¤": 7324,
      "æľīæĿĥ": 7325,
      "çĥĪå£«": 7326,
      "æĿľç»Ŀ": 7327,
      "å®ŀå¤Ħ": 7328,
      "æĭĽæłĩäºº": 7329,
      "èµĦæł¼å®¡æŁ¥": 7330,
      "Ġappro": 7331,
      "æķ¦": 7332,
      "åŃķ": 7333,
      "æ°ĳä¿Ĺ": 7334,
      "å¤ļåĲį": 7335,
      "è¿Ĳä½ľ": 7336,
      "èĢģçĻ¾å§ĵ": 7337,
      "çłĶç©¶çĶŁ": 7338,
      "å£°éŁ³": 7339,
      "å§ĵåĲį": 7340,
      "å¾ģæ±ĤæĦıè§ģ": 7341,
      "å¼ĢåĪĽ": 7342,
      "å¯¹åºĶ": 7343,
      "çĶ¨å¿ĥ": 7344,
      "Ġsk": 7345,
      "æĪĳä»¬è¦ģ": 7346,
      "åŃĺéĩı": 7347,
      "æĵ¦": 7348,
      "æĸ°ä¸ļæĢģ": 7349,
      "æĸĩåĪĽ": 7350,
      "è°ĥåĬ¨": 7351,
      "Ġlar": 7352,
      "åıĮåĲĳ": 7353,
      "æĬ¢æĬĵ": 7354,
      "âħ": 7355,
      "åľ¨å»º": 7356,
      "å·¥ä½ľå®¤": 7357,
      "ters": 7358,
      "è´¸å¸Ĥåľº": 7359,
      "ween": 7360,
      "æĸĩä¹¦": 7361,
      "ç´§æī£": 7362,
      "åħ¥é©»": 7363,
      "æĽ´æį¢": 7364,
      "çĽ¸åħ³å·¥ä½ľ": 7365,
      "è®©æĪĳä»¬": 7366,
      "è¡ĮæĶ¿å¤įè®®": 7367,
      "riend": 7368,
      "éĥĳå·ŀ": 7369,
      "Wh": 7370,
      "åľ°éĵģ": 7371,
      "ä»»èģĮ": 7372,
      "è®¤è´Ń": 7373,
      "èİī": 7374,
      "çĪ·": 7375,
      "ä¼ĺæĥłæĶ¿çŃĸ": 7376,
      "çļĦéľĢæ±Ĥ": 7377,
      "æĺĤ": 7378,
      "èĲĦ": 7379,
      "é»ĳé¾Ļæ±Łçľģ": 7380,
      "æħĪåĸĦ": 7381,
      "ç§¸": 7382,
      "åı¸æ³ķå±Ģ": 7383,
      "èĳ¡èĲĦ": 7384,
      "åĿĳ": 7385,
      "åķ¡": 7386,
      "éĻĲåº¦": 7387,
      "è£Ĥ": 7388,
      "åĻªå£°": 7389,
      "mm": 7390,
      "ä¸įæľį": 7391,
      "åħ¶å®ĥ": 7392,
      "æĪĸèĢħåħ¶ä»ĸ": 7393,
      "è´¢äº§å®īåħ¨": 7394,
      "æĸĩåŃĹ": 7395,
      "åķĨä¼ļ": 7396,
      "åİ¿éķ¿": 7397,
      "ä¾Ŀè§Ħ": 7398,
      "æĴŀ": 7399,
      "åĵģçĽ®": 7400,
      "å¾ĹåĪĨ": 7401,
      "çģ°": 7402,
      "çĦķ": 7403,
      "ĠAl": 7404,
      "çĮ«": 7405,
      "çĶ²æĸ¹": 7406,
      "æĮīä»¥ä¸ĭæĸ¹å¼ı": 7407,
      "å·®è·Ŀ": 7408,
      "ä¸ĢçĤ¹": 7409,
      "äººæ°ĳä»£è¡¨å¤§ä¼ļ": 7410,
      "åĬłå¼ºä¸İ": 7411,
      "Ġlot": 7412,
      "Ġiss": 7413,
      "æķĻèĤ²åŁ¹è®Ń": 7414,
      "é¦ĸå±Ĭ": 7415,
      "ĠAr": 7416,
      "æĢĿæĥ³åĴĮ": 7417,
      "çĲ¼": 7418,
      "ç»ıè´¸": 7419,
      "éģı": 7420,
      "email": 7421,
      "æĶ¿åºľéĩĩè´Ńä¸¥éĩįè¿Ŀæ³ķå¤±ä¿¡è¡Įä¸º": 7422,
      "åİ¿åŁİ": 7423,
      "ä¸ĵäºº": 7424,
      "èģĮä¸ļæĬĢèĥ½": 7425,
      "Ġallow": 7426,
      "æĬĸ": 7427,
      "éĹ®è´£": 7428,
      "æĿĥéĻĲ": 7429,
      "çĥŃçĥĪ": 7430,
      "Ġvar": 7431,
      "ç®¡çĲĨéĥ¨éĹ¨": 7432,
      "åĪĴåĪĨ": 7433,
      "è¯·æĮīä»¥ä¸ĭæĸ¹å¼ı": 7434,
      "ç´§å¼ł": 7435,
      "é¡¹çĽ®åŁºæľ¬æĥħåĨµ": 7436,
      "åıĹçĽĬ": 7437,
      "éĢĤåĲĪ": 7438,
      "Ġorgan": 7439,
      "åįļä¼ļ": 7440,
      "çŃ¹å¤ĩ": 7441,
      "å»¶éķ¿": 7442,
      "æ£Ģå¯Łæľºåħ³": 7443,
      "å®ŀè´¨": 7444,
      "æķ´é¡¿": 7445,
      "æİ¥ä¸ĭæĿ¥": 7446,
      "æ¯Ķä¸Ĭå¹´": 7447,
      "ä½ıæīĢ": 7448,
      "è¯·æĮīä»¥ä¸ĭæĸ¹å¼ıèģĶç³»": 7449,
      "Ġrece": 7450,
      "ä¸»è¦ģåİŁåĽłæĺ¯": 7451,
      "åĲ¬åıĸäºĨ": 7452,
      "èĩªè¡Įè½¦": 7453,
      "è¹Ī": 7454,
      "ç§¸ç§Ĩ": 7455,
      "Ġä½ľä¸º": 7456,
      "ä»°": 7457,
      "èĬľ": 7458,
      "ä¸ľåįĹ": 7459,
      "éĥ½åľ¨": 7460,
      "åĢŁéī´": 7461,
      "åįģåĽĽæĿ¡": 7462,
      "Ġexperience": 7463,
      "å¸Ŀ": 7464,
      "Ġdata": 7465,
      "Ġthough": 7466,
      "å°±ä¸ļåĪĽä¸ļ": 7467,
      "åįĥä¸ĩ": 7468,
      "ä½ıæĪ¿åĴĮåŁİä¹¡å»ºè®¾": 7469,
      "å°±ä¼ļ": 7470,
      "ä»¥ä¸ĭçļĦ": 7471,
      "ï¼į": 7472,
      "ä¸Ńä»ĭ": 7473,
      "ä¸īäºļ": 7474,
      "åįķä¸Ģ": 7475,
      "Ġform": 7476,
      "åİĨç¨ĭ": 7477,
      "åĽ¾ä¸º": 7478,
      "å¤ļæł·æĢ§": 7479,
      "çļĦä¸»": 7480,
      "æĬĢæľ¯åĪĽæĸ°": 7481,
      "Ġposs": 7482,
      "å°º": 7483,
      "çİĽ": 7484,
      "èĲ½å®ŀæĥħåĨµ": 7485,
      "éŀį": 7486,
      "bers": 7487,
      "å¤©çĦ¶æ°Ķ": 7488,
      "çºº": 7489,
      "çļĦæĥħå½¢": 7490,
      "æĬ¥èŃ¦": 7491,
      "ç±»ä¼¼": 7492,
      "Ġval": 7493,
      "åķĨåĬ¡å±Ģ": 7494,
      "åħ±èµ¢": 7495,
      "å»ºçŃĳå·¥ç¨ĭ": 7496,
      "ä½ĵåĪ¶æľºåĪ¶": 7497,
      "ah": 7498,
      "çļĦèµĦæł¼è¦ģæ±Ĥ": 7499,
      "åĲ¹": 7500,
      "å¯¹è¯¥": 7501,
      "ä¸ĭä¸Ģ": 7502,
      "ä¸¥ç¦ģ": 7503,
      "orth": 7504,
      "åĩłå¹´": 7505,
      "æīİå®ŀå¼Ģå±ķ": 7506,
      "æĶ»åħ³": 7507,
      "åĴĸåķ¡": 7508,
      "ivers": 7509,
      "å¼ºåº¦": 7510,
      "é¡¹çĽ®æĶ¯åĩº": 7511,
      "åķĨæĪ·": 7512,
      "è¡ĹåĮº": 7513,
      "Ġbetween": 7514,
      "éĻªåĲĮ": 7515,
      "åľ°éĿ¢": 7516,
      "åģļäºĨ": 7517,
      "çº¢çº¿": 7518,
      "çĶµåŃĲåķĨåĬ¡": 7519,
      "è°ĥçłĶç»Ħ": 7520,
      "çĶ·åŃĲ": 7521,
      "å¸¦éĺŁ": 7522,
      "åħ¬åħ±åį«çĶŁ": 7523,
      "æľĢåĲİä¸Ģ": 7524,
      "è¯ķéªĮåĮº": 7525,
      "ä¸İæŃ¤": 7526,
      "æıĲé«ĺæĶ¿æ²»ç«Ļä½į": 7527,
      "å®¢æĪ·ç«¯": 7528,
      "ized": 7529,
      "çļĦä¾ĽåºĶåķĨ": 7530,
      "æĦĪ": 7531,
      "æ·ĺ": 7532,
      "æµ·åı£": 7533,
      "åį³åı¯": 7534,
      "Ġfew": 7535,
      "Ġservice": 7536,
      "Ġty": 7537,
      "åĮºéķ¿": 7538,
      "ä¸įæĩĪ": 7539,
      "å®¶å±ŀ": 7540,
      "èĩ³ä¸Ĭ": 7541,
      "Ġ17": 7542,
      "åĴ¨è¯¢æľīéĻĲåħ¬åı¸": 7543,
      "æĹ¢æľī": 7544,
      "Ġç¬¬äºĮåįģ": 7545,
      "æĹ¥çļĦ": 7546,
      "åĲĳå¥½": 7547,
      "Ġ.": 7548,
      "çĽ¸ä¿¡": 7549,
      "æī¿è½½": 7550,
      "è§Ĩå¯Ł": 7551,
      "äº¤æĺĵå¹³åı°": 7552,
      "èģĺçĶ¨": 7553,
      "åİ¿çº§ä»¥ä¸Ĭ": 7554,
      "work": 7555,
      "ä¸įå¼Ģ": 7556,
      "æıĲä¸ĭ": 7557,
      "èĲ½åĪ°": 7558,
      "æľªèĥ½": 7559,
      "æĵİ": 7560,
      "å©´": 7561,
      "uc": 7562,
      "Ġ/": 7563,
      "Ġåħ¶ä»ĸ": 7564,
      "äº¿ç¾İåħĥ": 7565,
      "éĿŀåħ¬": 7566,
      "Ġstill": 7567,
      "å½»åºķ": 7568,
      "åŁºå±Ĥåħļç»Ħç»ĩ": 7569,
      "çļĦäººåĳĺ": 7570,
      "è°Ń": 7571,
      "è¢«åĪĹåħ¥": 7572,
      "å¸ĪèĮĥ": 7573,
      "çº¢åĪ©": 7574,
      "åºĶå½ĵåľ¨": 7575,
      "å±ķç¤ºäºĨ": 7576,
      "æľīåĬĽçļĦ": 7577,
      "çİ¯åį«": 7578,
      "æł¸åĩĨ": 7579,
      "ä¸¥å³»": 7580,
      "èĭ±åĽ½": 7581,
      "Ġoffer": 7582,
      "Ġmarket": 7583,
      "æĻ´": 7584,
      "ĠBe": 7585,
      "Ġcome": 7586,
      "æľĢå¤§éĻĲåº¦": 7587,
      "è°±åĨĻ": 7588,
      "çĶ¨äººåįķä½į": 7589,
      "åĲĪä¸Ģ": 7590,
      "ä¸ªæĸ¹éĿ¢": 7591,
      "ä¸ĭäºĨ": 7592,
      "åı¯éĿł": 7593,
      "ä¸ĩåħĥçļĦ": 7594,
      "çİĩè¾¾": 7595,
      "ç»´æĿĥ": 7596,
      "è®ºè¯ģ": 7597,
      "æī©å»º": 7598,
      "çĥŁèĬ±": 7599,
      "èªĵ": 7600,
      "éķ¿æķĪæľºåĪ¶": 7601,
      "ired": 7602,
      "ä½Ļé¢Ŀ": 7603,
      "ç§Łéĩĳ": 7604,
      "æĶ¿åºľæĢ§åŁºéĩĳé¢Ħç®Ĺ": 7605,
      "ik": 7606,
      "ç»į": 7607,
      "ä¸Ģä»¶": 7608,
      "å·¥ä½ľå¼Ģå±ķ": 7609,
      "æĮīæĹ¶": 7610,
      "èĬ¯çīĩ": 7611,
      "å¹¢": 7612,
      "Ġpay": 7613,
      "åĽĽå¤§": 7614,
      "è¢Ń": 7615,
      "èĪŀè¹Ī": 7616,
      "éĻĲåĪ¶æĢ§": 7617,
      "ĠæĹ¥": 7618,
      "è®°å¿Ĩ": 7619,
      "å¤ĸåĽ½": 7620,
      "è´¨éĩıåĴĮ": 7621,
      "æĭĽæłĩåħ¬åĳĬ": 7622,
      "ä½ĵèĤ²å±Ģ": 7623,
      "åĬ³åĬ¨åĬĽ": 7624,
      "ä¸įå°ĳäºİ": 7625,
      "æĸ°åįİç¤¾è®°èĢħ": 7626,
      "Ġç¬¬äºĮ": 7627,
      "çļĦå¿ĥ": 7628,
      "çľī": 7629,
      "åģļå®ŀ": 7630,
      "å»¶ç»Ń": 7631,
      "éĹŃçİ¯": 7632,
      "èµ·èįī": 7633,
      "èĲ½å®ŀæĶ¿åºľéĩĩè´ŃæĶ¿çŃĸ": 7634,
      "æī¾åĩĨ": 7635,
      "ED": 7636,
      "éĥ¨ä»¶": 7637,
      "æ¸Ĺ": 7638,
      "åģ¶": 7639,
      "Ġcost": 7640,
      "ä¿¡æģ¯æĬ«éľ²": 7641,
      "ï¼īãĢģãĢĬ": 7642,
      "co": 7643,
      "å¸Ĥè´¢æĶ¿å±Ģ": 7644,
      "æľ¬é¢Ĩ": 7645,
      "çŃĸçķ¥": 7646,
      "çĽ¸åħ³è§Ħå®ļ": 7647,
      "æĶ¿çŃĸçļĦ": 7648,
      "åŁİå¸ĤçļĦ": 7649,
      "è¿Ľä¸ĢæŃ¥å¢ŀå¼º": 7650,
      "ç£ģ": 7651,
      "Ġkeep": 7652,
      "Ġ2018": 7653,
      "é¢ĸ": 7654,
      "éĩĩæĳĺ": 7655,
      "çĦ¶åĲİ": 7656,
      "åħħåĪĨèĤ¯å®ļ": 7657,
      "ä¸Ĭæµ·è¯ģåĪ¸äº¤æĺĵæīĢ": 7658,
      "è¿İæİ¥": 7659,
      "ç¿ł": 7660,
      "....": 7661,
      "åģľè½¦åľº": 7662,
      "æ¯įäº²": 7663,
      "çº³ç¨İäºº": 7664,
      "åĽ½ä¼ģ": 7665,
      "éĩįå¤į": 7666,
      "éľĢæ»¡è¶³": 7667,
      "äºĶå¤§": 7668,
      "æķĳæ²»": 7669,
      "Ġweek": 7670,
      "ists": 7671,
      "ĠLe": 7672,
      "ç»©æķĪçĽ®æłĩ": 7673,
      "åħ½": 7674,
      "ç¡®è¯Ĭ": 7675,
      "ç¢§": 7676,
      "åºŁå¼ĥ": 7677,
      "éļ§": 7678,
      "æ®·": 7679,
      "æĭĽæĬķæłĩ": 7680,
      "Ġprovide": 7681,
      "ology": 7682,
      "åŃ¤": 7683,
      "å®ŀå¹²": 7684,
      "ä¼ģä¸ļåľ¨": 7685,
      "å¢ŀè¿Ľ": 7686,
      "æĽ´æŃ£": 7687,
      "ç¨İè´¹": 7688,
      "åºĶæĢ¥ç®¡çĲĨå±Ģ": 7689,
      "éģĹåĿĢ": 7690,
      "æĸ°åªĴä½ĵ": 7691,
      "è¯¥åİ¿": 7692,
      "ä¸»è¦ģçĶ¨äºİ": 7693,
      "åĿĩè¡¡": 7694,
      "Ġcompany": 7695,
      "æīĳ": 7696,
      "åİ¿åĮº": 7697,
      "Ġhapp": 7698,
      "æıĲäº¤çļĦ": 7699,
      "æĶ¶è´¹æłĩåĩĨ": 7700,
      "æıĲè´¨å¢ŀæķĪ": 7701,
      "Ġä¸Ń": 7702,
      "æĸĳ": 7703,
      "ä¸ºæİ¨åĬ¨": 7704,
      "çĿ¡": 7705,
      "æŃ£å½ĵ": 7706,
      "ç«ĻçĤ¹": 7707,
      "éĥ½èĥ½": 7708,
      "Ġclass": 7709,
      "Ġob": 7710,
      "åīįæ²¿": 7711,
      "ä¸ľè¥¿": 7712,
      "ç»¼åĲĪè¡ĮæĶ¿æī§æ³ķ": 7713,
      "é¡¾éĹ®": 7714,
      "èĸĦå¼±": 7715,
      "Ġref": 7716,
      "å¤§åĬĽæİ¨è¿Ľ": 7717,
      "å¯»æī¾": 7718,
      "è¿Ľä¸ĢæŃ¥å®ĮåĸĦ": 7719,
      "äº²èĩª": 7720,
      "å¸¦æĿ¥äºĨ": 7721,
      "äººåĬĽèµĦæºĲåĴĮç¤¾ä¼ļä¿Ŀéļľ": 7722,
      "çī¹å®ļèµĦæł¼è¦ģæ±Ĥ": 7723,
      "Ġide": 7724,
      "åĽ½åºĨ": 7725,
      "æĸ°é£İ": 7726,
      "åı¯è¡Į": 7727,
      "ç«ĭä½ĵ": 7728,
      "çĶ³è¯·äººçļĦ": 7729,
      "æ²¡æĶ¶": 7730,
      "å®¶éĹ¨åı£": 7731,
      "ä¹Łå°Ĩ": 7732,
      "ä¼ļè®®å®¤": 7733,
      "çº¦æĿŁ": 7734,
      "èĦı": 7735,
      "éĻ¤æģ¶": 7736,
      "éģıåĪ¶": 7737,
      "Ġfound": 7738,
      "Ġpri": 7739,
      "åĲĪåĲĮå±¥è¡Į": 7740,
      "å·¥ä¸ļä¼ģä¸ļ": 7741,
      "åĪ¶å®ļäºĨ": 7742,
      "éĹ¨åºĹ": 7743,
      "åĩĨåħ¥": 7744,
      "äººæ°ĳä¸ºä¸Ńå¿ĥ": 7745,
      "ä¹Łä¼ļ": 7746,
      "æł·çļĦ": 7747,
      "çļĦçĲĨå¿µ": 7748,
      "åľ¨è¿ĻéĩĮ": 7749,
      "åıĳç¥¨": 7750,
      "æľįåĬ¡ä½ĵç³»": 7751,
      "èį¡": 7752,
      "äº§ä¸ļçļĦ": 7753,
      "ants": 7754,
      "çłģå¤´": 7755,
      "ä¼ĺç§Ģä¼łç»ŁæĸĩåĮĸ": 7756,
      "ä¸īå¹´è¡ĮåĬ¨": 7757,
      "éĿĴå²Ľå¸Ĥ": 7758,
      "Ġsmall": 7759,
      "ä¸ĺ": 7760,
      "å®īåħ¨äºĭæķħ": 7761,
      "å±±æ°´": 7762,
      "å¸¸è§ģ": 7763,
      "åĪ°è¾¾": 7764,
      "åįģå¤§": 7765,
      "éĥ¨ç½²è¦ģæ±Ĥ": 7766,
      "ç²®é£Łå®īåħ¨": 7767,
      "æİĪæĿĥå§Ķæīĺä¹¦": 7768,
      "åĲĮå¿ĥ": 7769,
      "ature": 7770,
      "æĽ´ä¸º": 7771,
      "åı°é£İ": 7772,
      "éĩįçĤ¹ä»»åĬ¡": 7773,
      "ä¸»è¦ģé¢Ĩå¯¼": 7774,
      "çļĦåŁºæľ¬": 7775,
      "ä¼ĳæģ¯": 7776,
      "ç»Łè®¡å±Ģ": 7777,
      "æ¿ĢåĬ±è®¡åĪĴ": 7778,
      "ä¹Ļæĸ¹": 7779,
      "å®ŀä½ĵç»ıæµİ": 7780,
      "çİ²": 7781,
      "æ³ķåĪ¶": 7782,
      "ä¸ĬæĿ¥": 7783,
      "å¼ĢæĪ·": 7784,
      "ç®¡æĬ¤": 7785,
      "Ġpat": 7786,
      "è§£çŃĶ": 7787,
      "Ġreal": 7788,
      "ç²¤æ¸¯æ¾³": 7789,
      "æ±ª": 7790,
      "æľ¬å¸Ĥ": 7791,
      "å¤Ħå¤Ħ": 7792,
      "Ġplan": 7793,
      "å¯¹å¤ĸå¼ĢæĶ¾": 7794,
      "Ġbetter": 7795,
      "éĺ²çģ¾åĩıçģ¾": 7796,
      "æ¡Ĩæŀ¶": 7797,
      "å¤ķ": 7798,
      "æĮº": 7799,
      "åħ¨å·ŀ": 7800,
      "åĪ°åºķ": 7801,
      "æ·¡": 7802,
      "ä¹¦æ³ķ": 7803,
      "ä¹¦åĨĻ": 7804,
      "éĶĢéĩı": 7805,
      "æ·±åħ¥è´¯å½»": 7806,
      "ĠThey": 7807,
      "å¤§è¡Ĺ": 7808,
      "åĪĨçº¢": 7809,
      "åıĳå±ķè§ĦåĪĴ": 7810,
      "Ġschool": 7811,
      "ç§¯ç´¯": 7812,
      "è§ģæķĪ": 7813,
      "è§Ĥæĳ©": 7814,
      "åŃĺæ¬¾": 7815,
      "æ·±åħ¥åŃ¦ä¹ł": 7816,
      "åĻ¨æĿĲ": 7817,
      "ï¼ŁâĢĿ": 7818,
      "ç¼ºä¹ı": 7819,
      "Ġé¡¹çĽ®åĲįç§°": 7820,
      "éĹª": 7821,
      "éĺľ": 7822,
      "æĹ¶å°ļ": 7823,
      "å¤ļäºĳ": 7824,
      "ä»£è¡¨åĽ¢": 7825,
      "Ġalways": 7826,
      "æ²īæµ¸": 7827,
      "ä¸Ńæĸ¹": 7828,
      "ä¸ŃåĽ½çļĦ": 7829,
      "æŁı": 7830,
      "ç§ĳæĬĢèĤ¡ä»½æľīéĻĲåħ¬åı¸": 7831,
      "åĪĩå®ŀå¢ŀå¼º": 7832,
      "åŃ¦ä½į": 7833,
      "æ¸£": 7834,
      "éĵŃ": 7835,
      "æ»ŀ": 7836,
      "ross": 7837,
      "è¡Įä¸ļçļĦ": 7838,
      "å®Īæ³ķ": 7839,
      "æ¤Ĵ": 7840,
      "åĲ¯åĬ¨ä»ªå¼ı": 7841,
      "ä¸İæŃ¤åĲĮæĹ¶": 7842,
      "ä¼łæŁĵ": 7843,
      "ç³»ç»ŁçļĦ": 7844,
      "ç»¿æ°´": 7845,
      "éĢīæĭĶ": 7846,
      "åįģä¸īæĿ¡": 7847,
      "ç§¯åĪĨ": 7848,
      "è¡¥é½Ĳ": 7849,
      "èŃ¦å¯Ł": 7850,
      "ä¸įæĸŃå®ĮåĸĦ": 7851,
      "ç¥Ŀç¦ı": 7852,
      "åĵ²": 7853,
      "ä¹łè¿ĳå¹³åĲĮå¿Ĺ": 7854,
      "Ġconf": 7855,
      "thing": 7856,
      "å°ģéĹŃ": 7857,
      "Ġfil": 7858,
      "ç¬¬äºĮçĻ¾": 7859,
      "è¿Ĳè¡Įç»´æĬ¤": 7860,
      "credit": 7861,
      "çĶŁæĪĲ": 7862,
      "åı¸æľº": 7863,
      "ç®¡çĲĨä¸Ńå¿ĥ": 7864,
      "ä¸ĩæĪ·": 7865,
      "æĺ¯ä¸Ģç§į": 7866,
      "Ġpoint": 7867,
      "èĲį": 7868,
      "æİ¨éĢģ": 7869,
      "è¿ĺåľ¨": 7870,
      "åĲĪä½ľåįıè®®": 7871,
      "æīĢåľ¨åľ°": 7872,
      "å¯¹è¯Ŀ": 7873,
      "ç¡ħ": 7874,
      "è¿ĺæ¬¾": 7875,
      "ĠNew": 7876,
      "æ¶Īéĺ²æķĳæı´": 7877,
      "å«Įçĸĳäºº": 7878,
      "èĩªè´¸": 7879,
      "åĲĦä¹¡éķĩ": 7880,
      "æķ°é¢Ŀ": 7881,
      "å®Įæ¯ķ": 7882,
      "Ġlittle": 7883,
      "é¼İ": 7884,
      "rib": 7885,
      "è®°å½ķåĲįåįķ": 7886,
      "ä¸įä½İäºİ": 7887,
      "çİĩè¾¾åĪ°": 7888,
      "èģĶåĲĪä¼ļ": 7889,
      "è¾ĵåħ¥": 7890,
      "éŁ©åĽ½": 7891,
      "æī«é»ĳéĻ¤æģ¶": 7892,
      "çĶ¸": 7893,
      "åľ¨åħ¨å¸Ĥ": 7894,
      "å¯¹åı£": 7895,
      "æ°ĳå¿ĥ": 7896,
      "æľįåĬ¡é¡¹çĽ®": 7897,
      "èĲ½å®ŀå¥½": 7898,
      "çĶŁäº§çº¿": 7899,
      "Ġ16": 7900,
      "åĽŀçŃĶ": 7901,
      "çĪ±å¥½": 7902,
      "1500": 7903,
      "iqu": 7904,
      "ä½ľæĪĺ": 7905,
      "é¡·": 7906,
      "æŀ«": 7907,
      "ä¿Ŀæ´ģ": 7908,
      "æ·±åħ¥å®ŀæĸ½": 7909,
      "çĲĥéĺŁ": 7910,
      "ä¿¡çĶ¨ä¿¡æģ¯": 7911,
      "æĪĲç«ĭäºĨ": 7912,
      "ç¡®å®ļçļĦ": 7913,
      "å§ĭç»ĪåĿļæĮģ": 7914,
      "ä¸Ģå®ļè¦ģ": 7915,
      "Ġmonth": 7916,
      "ï¿¥": 7917,
      "å®ŀåľ¨": 7918,
      "ital": 7919,
      "æĤł": 7920,
      "æľŁéĹ´çļĦ": 7921,
      "ç¬Ķè¯ķ": 7922,
      "æľĢä½³": 7923,
      "å¿«ä¹Ĳ": 7924,
      "Ġç¬¬ä¸Ģ": 7925,
      "åĴĮæĬĢæľ¯": 7926,
      "å§Ĩ": 7927,
      "æ°´åľŁ": 7928,
      "å¿ħéľĢ": 7929,
      "å·¥ä¸ļåĽŃåĮº": 7930,
      "ffect": 7931,
      "ĠåĪĺ": 7932,
      "çĲĨè´¢": 7933,
      "æ²ĥ": 7934,
      "è¿ĩç¡¬": 7935,
      "å¦Ļ": 7936,
      "è¥¿åĮĹ": 7937,
      "æ¢¨": 7938,
      "ug": 7939,
      "ãĢī": 7940,
      "åĬŀç»ĵ": 7941,
      "èİ·å¥ĸ": 7942,
      "ä»¤äºº": 7943,
      "æľĢé«ĺäººæ°ĳæ³ķéĻ¢": 7944,
      "æ³Ħ": 7945,
      "å¤§åĪ©": 7946,
      "åħļæĢ§": 7947,
      "æį®æĤī": 7948,
      "çİĭæŁĲ": 7949,
      "èĥĮåĲİ": 7950,
      "å½¦": 7951,
      "Ġopen": 7952,
      "ç»ĵå¯¹": 7953,
      "çī¢è®°ä½¿åĳ½": 7954,
      "æľīäºĽ": 7955,
      "é¡»æıĲä¾Ľ": 7956,
      "éķ¿åŁİ": 7957,
      "äº¤åĬŀ": 7958,
      "ĠAd": 7959,
      "éĿ¢å¯¹éĿ¢": 7960,
      "éĢļåĬŀ": 7961,
      "åĨľè´¸å¸Ĥåľº": 7962,
      "æĦıæĦ¿": 7963,
      "ç²¾ç¥ŀåĴĮ": 7964,
      "éĩįå¤§ç¨İæĶ¶": 7965,
      "ET": 7966,
      "Ġç¬¬åĽĽ": 7967,
      "ãĢĪ": 7968,
      "æ°ĳæ³ķ": 7969,
      "é«ĺåĵģè´¨": 7970,
      "éĢļè½¦": 7971,
      "æĮģç»Ńå¼Ģå±ķ": 7972,
      "Ġresult": 7973,
      "ä¹łè¿ĳå¹³æĸ°æĹ¶ä»£ä¸ŃåĽ½çī¹èī²ç¤¾ä¼ļä¸»ä¹īæĢĿæĥ³ä¸ºæĮĩå¯¼": 7974,
      "åŁł": 7975,
      "ety": 7976,
      "ç»¿åľ°": 7977,
      "åĨľä¸ļçĶŁäº§": 7978,
      "äºĴèģĶ": 7979,
      "åĿĩä¸º": 7980,
      "è¾£": 7981,
      "è¾Ł": 7982,
      "ç¤¾äº¤": 7983,
      "æĸ½è¡Į": 7984,
      "æī¿æİ¥": 7985,
      "ä¹¡æĿĳæĹħæ¸¸": 7986,
      "è§£åĨ³éĹ®é¢ĺ": 7987,
      "ç»Īç»ĵ": 7988,
      "ield": 7989,
      "å´Ķ": 7990,
      "éĶĻè¯¯": 7991,
      "Ġpartic": 7992,
      "éĻĲåĪ¶æĢ§èĤ¡ç¥¨": 7993,
      "çļĦç®¡çĲĨ": 7994,
      "åľ¨åħ¨çľģ": 7995,
      "æľīä¸Ģ": 7996,
      "æ£ī": 7997,
      "ä¾Ŀæ³ķæ²»": 7998,
      "iving": 7999,
      "æµªè´¹": 8000,
      "ĠåĮº": 8001,
      "Ġanother": 8002,
      "å±Ģåħļç»Ħä¹¦è®°": 8003,
      "Ġè®°èĢħ": 8004,
      "ä¸¤ä¼ļ": 8005,
      "æ¹Ľ": 8006,
      "Ġgame": 8007,
      "åİĨåı²æĸĩåĮĸ": 8008,
      "âĢ¦âĢ¦âĢĿ": 8009,
      "çĪ¶äº²": 8010,
      "æ°§åĮĸ": 8011,
      "åĲĲ": 8012,
      "ä¼ª": 8013,
      "åŁĥ": 8014,
      "é¢ĦåĪ¶": 8015,
      "èģĮä¸ļæķĻèĤ²": 8016,
      "ä¸įåĲĮçļĦ": 8017,
      "åħļæĶ¯éĥ¨ä¹¦è®°": 8018,
      "It": 8019,
      "æµħ": 8020,
      "Ġduring": 8021,
      "ç±»åĪ«": 8022,
      "åĽ½å®¶çļĦ": 8023,
      "èµĽéģĵ": 8024,
      "åĪĽå»ºå·¥ä½ľ": 8025,
      "èĲ½å®ŀæĶ¿åºľéĩĩè´ŃæĶ¿çŃĸéľĢæ»¡è¶³": 8026,
      "è¡Įé©¶": 8027,
      "å®¶éĩĮ": 8028,
      "ically": 8029,
      "äºĶä¸Ģ": 8030,
      "åĳ½è¿Ĳ": 8031,
      "äºĳå¹³åı°": 8032,
      "åıĳçİ°éĹ®é¢ĺ": 8033,
      "æĹ¶çļĦ": 8034,
      "ç¾½": 8035,
      "Ġfact": 8036,
      "å¹¿æĴŃçĶµè§Ĩ": 8037,
      "çļĦæĮĩå¯¼": 8038,
      "å±¯": 8039,
      "éĽķ": 8040,
      "éĴ»": 8041,
      "åħĭæľį": 8042,
      "å®īåħ¨çĶŁäº§å·¥ä½ľ": 8043,
      "Ġbuild": 8044,
      "Ġç»ı": 8045,
      "ä¸Ĭæĸ°": 8046,
      "æĹ¥åŃĲ": 8047,
      "æŁ¥éĺħ": 8048,
      "åħħè¶³": 8049,
      "ä¸Ńå°ıå¾®ä¼ģä¸ļ": 8050,
      "åĽ½æľīèµĦäº§": 8051,
      "aut": 8052,
      "å¹´ä»£": 8053,
      "ç¨Ģ": 8054,
      "éľĢæıĲä¾Ľ": 8055,
      "æĲı": 8056,
      "ody": 8057,
      "ä¸Ģç«Ļå¼ı": 8058,
      "Ġæĸ°": 8059,
      "è¾¨": 8060,
      "åľºé¦Ĩ": 8061,
      "ç¤¾ä¼ļåĲĦçķĮ": 8062,
      "çī¹èī²äº§ä¸ļ": 8063,
      "å®Ŀè´µ": 8064,
      "æ²Ĥ": 8065,
      "åĲĪèĤ¥": 8066,
      "æ°ĳåĬŀ": 8067,
      "å¤ļé¡¹": 8068,
      "åīįä¸ī": 8069,
      "çĶµç«Ļ": 8070,
      "åĽłåħ¬": 8071,
      "Ġ18": 8072,
      "Ġwithout": 8073,
      "plo": 8074,
      "å¤§æ£ļ": 8075,
      "éĹ½": 8076,
      "æĬ¥è¡¨": 8077,
      "æľīæķĪæľŁ": 8078,
      "æĬ½æ£Ģ": 8079,
      "èĲ½å®ŀæĶ¿åºľéĩĩè´ŃæĶ¿çŃĸéľĢæ»¡è¶³çļĦèµĦæł¼è¦ģæ±Ĥ": 8080,
      "åħĥçļĦ": 8081,
      "åīįåĪĹ": 8082,
      "ä¸ĵç²¾": 8083,
      "æİĪè¯¾": 8084,
      "åģ¿è¿ĺ": 8085,
      "åĴĮå·¥ä½ľ": 8086,
      "åŁºåĩĨ": 8087,
      "åıĹä¼¤": 8088,
      "äºı": 8089,
      "éĽ¾": 8090,
      "Ġmust": 8091,
      "åıĤå±ķ": 8092,
      "åıįå¤į": 8093,
      "ĠPl": 8094,
      "æľįåĬ¡æľºæŀĦ": 8095,
      "åħ¬åı¸åľ¨": 8096,
      "ä¸ĵèģĮ": 8097,
      "æ·±åĮĸæĶ¹éĿ©": 8098,
      "èµĭäºĪ": 8099,
      "éĻķè¥¿çľģ": 8100,
      "åĲįå½ķ": 8101,
      "æ¯Ķéĩį": 8102,
      "ĠThere": 8103,
      "å®ĺåħµ": 8104,
      "130": 8105,
      "è¡·": 8106,
      "éĥ½è¦ģ": 8107,
      "ä½ıå®¿": 8108,
      "æĮģç»ŃæıĲåįĩ": 8109,
      "cept": 8110,
      "äº¤éĢļè¿Ĳè¾ĵå±Ģ": 8111,
      "min": 8112,
      "çļĦåħ¬åĳĬ": 8113,
      "åĮºåĨħ": 8114,
      "Ġhard": 8115,
      "é£Łçī©": 8116,
      "è±«": 8117,
      "ç¦»éĢĢä¼ĳ": 8118,
      "å¹´è½»äºº": 8119,
      "ï¼īï¼Ī": 8120,
      "èĪ±": 8121,
      "Ġarea": 8122,
      "è¿Ŀæ³ķæ¡Īä»¶": 8123,
      "Ġmod": 8124,
      "ä¸ªæľĪåĨħ": 8125,
      "å®ĹæĹ¨": 8126,
      "åľ°è´¨çģ¾å®³": 8127,
      "If": 8128,
      "æıĲéĹ®": 8129,
      "èĤ²äºº": 8130,
      "åĮ»å¸Ī": 8131,
      "éĤµ": 8132,
      "å®¤åĨħ": 8133,
      "ä¸Ģä¸ªæľĪ": 8134,
      "æĸľ": 8135,
      "çĶ¨çļĦ": 8136,
      "åı·åı¬": 8137,
      "ä¹Łä¸º": 8138,
      "æĹ¶éĹ´ä¸º": 8139,
      "Ġhealth": 8140,
      "çĤ¹åĩ»": 8141,
      "è§ģéĿ¢": 8142,
      "æľīåħ³äºĭé¡¹": 8143,
      "æ¹ĸåĮº": 8144,
      "ames": 8145,
      "ç¡¬ä»¶": 8146,
      "åħ¬é¡·": 8147,
      "æ´½": 8148,
      "çİ°å·²": 8149,
      "äººæ°ĳçļĦ": 8150,
      "æĴ¤éĶĢ": 8151,
      "Ġåħĥ": 8152,
      "Ġthings": 8153,
      "çĦĬ": 8154,
      "ä¸ĩåħĥä»¥ä¸Ĭ": 8155,
      "Ġgroup": 8156,
      "çłĶç©¶ä¸Ńå¿ĥ": 8157,
      "èĳ¬": 8158,
      "èħ¿": 8159,
      "å¼Ĥåľ°": 8160,
      "åĲĮæ¯Ķä¸ĭéĻį": 8161,
      "åĽ½æľīèµĦæľ¬": 8162,
      "gin": 8163,
      "æľįåĬ¡èĥ½åĬĽ": 8164,
      "æµ·åįĹçľģ": 8165,
      "æł¸ç®Ĺ": 8166,
      "èģĮèĥ½éĥ¨éĹ¨": 8167,
      "å±ķçİ°äºĨ": 8168,
      "Ġservices": 8169,
      "åĽºå®ļèµĦäº§": 8170,
      "åıĳå±ķæĪĺçķ¥": 8171,
      "å»ºè®¾çĶ¨åľ°": 8172,
      "åīįæĻ¯": 8173,
      "ished": 8174,
      "åįķä½įè´Łè´£äºº": 8175,
      "æŁ´": 8176,
      "å¹¿çĶµ": 8177,
      "ä¿¡æģ¯ç³»ç»Ł": 8178,
      "é©¾é©¶åĳĺ": 8179,
      "åħ¬åĬ¡çĶ¨è½¦è´Ńç½®": 8180,
      "ä¸ĵç²¾çī¹": 8181,
      "bo": 8182,
      "rist": 8183,
      "çļĦåŁİå¸Ĥ": 8184,
      "è¦ģè®¤çľŁ": 8185,
      "éĥģ": 8186,
      "ĠCl": 8187,
      "éĢĲä¸Ģ": 8188,
      "Ġresp": 8189,
      "èĢĲå¿ĥ": 8190,
      "cl": 8191,
      "å®¶åºĦ": 8192,
      "è·¯åı£": 8193,
      "Ġrest": 8194,
      "çĩĥæĸĻ": 8195,
      "èĲ½åĪ°å®ŀå¤Ħ": 8196,
      "ĠæĹ¶éĹ´": 8197,
      "çļĦåŁºç¡Ģ": 8198,
      "èĤ¤": 8199,
      "æľįåĬ¡æ°´å¹³": 8200,
      "åħļè¯¾": 8201,
      "arly": 8202,
      "è¾¹å¢ĥ": 8203,
      "æĺ¯å¯¹": 8204,
      "æĻĴ": 8205,
      "ç½ĳåĿĢ": 8206,
      "çİĩä¸º": 8207,
      "èħĶ": 8208,
      "å¿ĥçĲĨåģ¥åº·": 8209,
      "åĨ¶": 8210,
      "æľĪèĩ³": 8211,
      "åķĨæłĩ": 8212,
      "Ġpass": 8213,
      "ccess": 8214,
      "è¿Ķä¹¡": 8215,
      "åĽ½æľīä¼ģä¸ļ": 8216,
      "Ġincluding": 8217,
      "Ġi": 8218,
      "Ġcor": 8219,
      "åįģåŃĹ": 8220,
      "ä»ĸå¼ºè°ĥ": 8221,
      "åĪĹè½¦": 8222,
      "åħīèį£": 8223,
      "Ġdef": 8224,
      "åĲīæŀĹçľģ": 8225,
      "èĥ¸": 8226,
      "Ġsure": 8227,
      "æĬķèµĦé¡¹çĽ®": 8228,
      "éĵ¶è¡ĮèĤ¡ä»½æľīéĻĲåħ¬åı¸": 8229,
      "åĭĩäºİ": 8230,
      "èĻļæĭŁ": 8231,
      "åĴĮä¼ģä¸ļ": 8232,
      "china": 8233,
      "åĮĹåĮº": 8234,
      "æĿĥå¨ģ": 8235,
      "å°½ç®¡": 8236,
      "ä¸ĭæ²ī": 8237,
      "å¹¶éĢļè¿ĩ": 8238,
      "è®©äºº": 8239,
      "éĢıæĺİ": 8240,
      "çıŃåŃĲæĪĲåĳĺ": 8241,
      "ES": 8242,
      "éĢĨ": 8243,
      "æµĭéĩı": 8244,
      "çĶŁæ´»åŀĥåľ¾": 8245,
      "ä½ĵç³»åĴĮ": 8246,
      "çĶĺèĤĥçľģ": 8247,
      "åĴĮæĶ¯æĮģ": 8248,
      "æ³µ": 8249,
      "éĩįå»º": 8250,
      "ery": 8251,
      "Ġcent": 8252,
      "å½ķåıĸ": 8253,
      "é¹¿": 8254,
      "éĴ¢éĵģ": 8255,
      "Ġimportant": 8256,
      "çļĦæĢĿæĥ³": 8257,
      "æĥľ": 8258,
      "æĬĢèīº": 8259,
      "æ·±åİļ": 8260,
      "æķ´æ´ģ": 8261,
      "éŁ§": 8262,
      "å¾Īå¤§": 8263,
      "æŃ¦åĻ¨": 8264,
      "Ġinterest": 8265,
      "æ°ĳåĪĿ": 8266,
      "Ġsay": 8267,
      "åĲĪåĲĮçŃ¾è®¢": 8268,
      "Ġspec": 8269,
      "çļĦé£İéĻ©": 8270,
      "è¾°": 8271,
      "æłĩæĿĨ": 8272,
      "åħļåĨħ": 8273,
      "æ°´å¸Ĥ": 8274,
      "æ¸ħå»ī": 8275,
      "å¼łå®¶": 8276,
      "ç®Ń": 8277,
      "åĨľèµĦ": 8278,
      "çĶŁäº§ä¼ģä¸ļ": 8279,
      "å·¥ç¨ĭé¡¹çĽ®": 8280,
      "creditchina": 8281,
      "âī": 8282,
      "éĹ¨æĪ·": 8283,
      "æĦıåĳ³": 8284,
      "è®¤çŁ¥": 8285,
      "å¥³åŃĲ": 8286,
      "Ġhead": 8287,
      "ä¹°åįĸ": 8288,
      "Ġfull": 8289,
      "Ġfamily": 8290,
      "ä¸ļæľīéĻĲåħ¬åı¸": 8291,
      "åįģä¸ĥæĿ¡": 8292,
      "åĬ©äºİ": 8293,
      "ä¸ĵç²¾çī¹æĸ°": 8294,
      "con": 8295,
      "port": 8296,
      "éĽģ": 8297,
      "é¡¹çĽ®æ¦ĤåĨµ": 8298,
      "æ´»è·ĥ": 8299,
      "çĶŁäº§çĶŁæ´»": 8300,
      "ention": 8301,
      "çķľçī§": 8302,
      "æ¯«ç±³": 8303,
      "æĸ°åħ´äº§ä¸ļ": 8304,
      "ä¸ĢæĹ¦": 8305,
      "æ³³": 8306,
      "åħ¨æµģç¨ĭ": 8307,
      "çħ§æĺİ": 8308,
      "åıĺæĪĲ": 8309,
      "æĸ°ä¸Ģè½®": 8310,
      "ell": 8311,
      "åħ¨åĳĺ": 8312,
      "æľ¬éĩĳ": 8313,
      "Ġdist": 8314,
      "é£ŀè¡Į": 8315,
      "åĺīå®¾": 8316,
      "æ°ĳèĲ¥ç»ıæµİ": 8317,
      "æĺ¯ä¸ŃåĽ½": 8318,
      "èĤ¿": 8319,
      "è¿Ļåľº": 8320,
      "é¦¨": 8321,
      "æīĵçł´": 8322,
      "èĩªçĦ¶èµĦæºĲå±Ģ": 8323,
      "ething": 8324,
      "ä»Ķç»Ĩ": 8325,
      "æĥħæĦŁ": 8326,
      "è´¨çĶŁäº§åĬĽ": 8327,
      "eng": 8328,
      "åįģäºĮæĿ¡": 8329,
      "ç©ºè°ĥ": 8330,
      "çĺ¤": 8331,
      "åĲĦåĽ½": 8332,
      "ä¸ľçĽŁ": 8333,
      "èĢĥè¯Ħ": 8334,
      "è°Īè¯Ŀ": 8335,
      "æ³ķæ²»æĶ¿åºľ": 8336,
      "æı½": 8337,
      "éķ¿çļĦ": 8338,
      "Ġgener": 8339,
      "æ¶Īè´¹åĵģ": 8340,
      "oney": 8341,
      "ten": 8342,
      "çļĦä¸į": 8343,
      "éĢģåĪ°": 8344,
      "Ġfriend": 8345,
      "stand": 8346,
      "åĿļæĮģæĬĬ": 8347,
      "ately": 8348,
      "Ġcontin": 8349,
      "ertain": 8350,
      "åĴĮç®¡çĲĨ": 8351,
      "é¡¹çĽ®è´Łè´£äºº": 8352,
      "ä¾ĿéĿł": 8353,
      "æĥ³åĪ°": 8354,
      "äº¤æµģåĲĪä½ľ": 8355,
      "åĬ³åĬ¨åĲĪåĲĮ": 8356,
      "Ġable": 8357,
      "æīİå®ŀåģļå¥½": 8358,
      "äººæ°ĳç¾¤ä¼ĹçļĦ": 8359,
      "éļ§éģĵ": 8360,
      "è¡Įä½¿": 8361,
      "æıĲåĪ°": 8362,
      "sh": 8363,
      "æŀ£": 8364,
      "ä»¥å¤ĸ": 8365,
      "ä¸ªåĪ«": 8366,
      "åĿ¤": 8367,
      "åŀĤ": 8368,
      "å¹ħåº¦": 8369,
      "ä¸ºæŃ¤": 8370,
      "è¿ĺèĥ½": 8371,
      "è¯Ħè®®": 8372,
      "Ġonline": 8373,
      "æĻ¯çĤ¹": 8374,
      "åħľ": 8375,
      "Ġtry": 8376,
      "å¤ļæĸ¹": 8377,
      "å½ĵå¥½": 8378,
      "åĽ½éĻħåĮĸ": 8379,
      "gp": 8380,
      "çĶ±å¸Ĥ": 8381,
      "æľīåħ³åįķä½į": 8382,
      "æŁ¥éªĮ": 8383,
      "åķĨåľĪ": 8384,
      "æĺ¥åŃ£": 8385,
      "ä»ĵåĤ¨": 8386,
      "å¤ļåħĥåĮĸ": 8387,
      "ĠåĲĮæĹ¶": 8388,
      "çļĦåĲĦé¡¹": 8389,
      "åĴ¸": 8390,
      "åĪĨç¦»": 8391,
      "åħ¥åºĵ": 8392,
      "ä¸īåĨľ": 8393,
      "è§ĦåĪĴåĴĮ": 8394,
      "ä¹ĭä¸ĢçļĦ": 8395,
      "æ¦Ĥå¿µ": 8396,
      "çŃīå¤ļä¸ª": 8397,
      "æĳ¸æİĴ": 8398,
      "æľ¬é¡¹çĽ®çļĦçī¹å®ļèµĦæł¼è¦ģæ±Ĥ": 8399,
      "Ġdirect": 8400,
      "ç«ŀä»·": 8401,
      "æĬĸéŁ³": 8402,
      "åĪ°æĿ¥": 8403,
      "ç»ıæµİæĬĢæľ¯": 8404,
      "çĽ´å±ŀ": 8405,
      "ç¤ºèĮĥåŁºåľ°": 8406,
      "æĥłåıĬ": 8407,
      "ĠæľįåĬ¡": 8408,
      "æ³¸": 8409,
      "æľīæľĽ": 8410,
      "çĤ®": 8411,
      "çĿĢçľ¼": 8412,
      "èĪĴéĢĤ": 8413,
      "ä¸ºå¯¼åĲĳ": 8414,
      "å®¶é£İ": 8415,
      "èĩªæĦ¿": 8416,
      "æĬ¥è®°èĢħ": 8417,
      "å°±è¿ĳ": 8418,
      "äº§ä¸ļåĽŃåĮº": 8419,
      "ç¾İçļĦ": 8420,
      "è¾ĥé«ĺ": 8421,
      "ä¸»é¢ĺæ´»åĬ¨": 8422,
      "Ġview": 8423,
      "ä½ľé£İå»ºè®¾": 8424,
      "æľĢå¤ļ": 8425,
      "Ġ100": 8426,
      "Ġgrow": 8427,
      "ä½Ļä¸ª": 8428,
      "æĻºèĥ½åĪ¶éĢł": 8429,
      "ç«¯åįĪ": 8430,
      "ç»ŁçŃ¹åįıè°ĥ": 8431,
      "ç½ĳæł¼åĳĺ": 8432,
      "çº¤": 8433,
      "æ°´æ³¥": 8434,
      "å®Įå·¥": 8435,
      "åĽŀåĪ°": 8436,
      "æµĭç»ĺ": 8437,
      "rand": 8438,
      "åĲĪåĲĮåĮħ": 8439,
      "lock": 8440,
      "éĥ¨ä½į": 8441,
      "è´ŃæĪ¿": 8442,
      "å¤įèĭı": 8443,
      "æ¦Ĩ": 8444,
      "æ°ĳæĹıåĽ¢ç»ĵ": 8445,
      "åº§è°Īä¼ļä¸Ĭ": 8446,
      "Ġåħ¬åĳĬ": 8447,
      "çŃīæľįåĬ¡": 8448,
      "è¡ĮæĶ¿åĮºåŁŁ": 8449,
      "æĭĽæłĩæĬķæłĩ": 8450,
      "æĪĳåİ¿": 8451,
      "è¡ĮæĶ¿æ³ķè§Ħ": 8452,
      "æĢ¥éļ¾": 8453,
      "ç¬¬ä¸Ģä¸ª": 8454,
      "èı²": 8455,
      "æį¢å±Ĭ": 8456,
      "Ġperform": 8457,
      "å¦¥åĸĦ": 8458,
      "ier": 8459,
      "ĠéĻĪ": 8460,
      "çļĦæľīæķĪ": 8461,
      "ä¸įåĩº": 8462,
      "é«ĺåİĭ": 8463,
      "éģ¥": 8464,
      "åİŁæłĩé¢ĺ": 8465,
      "çĥŁåı°": 8466,
      "åįģåħ«æĿ¡": 8467,
      "çºµæ·±": 8468,
      "Ġter": 8469,
      "å¤§äºĭ": 8470,
      "é¥¶": 8471,
      "rence": 8472,
      "ior": 8473,
      "ients": 8474,
      "éĩįç»Ħ": 8475,
      "æŁ¥æĺİ": 8476,
      "Ġmus": 8477,
      "å±Ĥå±Ĥ": 8478,
      "æ¯ıå¤©ä¸ĬåįĪ": 8479,
      "åĴĮçľģ": 8480,
      "çĶŁçĮª": 8481,
      "ä¸¤å§Ķ": 8482,
      "Ġorder": 8483,
      "éĴ¢ç®¡": 8484,
      "...": 8485,
      "æĸ°çĶŁ": 8486,
      "å¤ļå¹´æĿ¥": 8487,
      "çĽ¸å½ĵ": 8488,
      "Ġtri": 8489,
      "ä½ĵä¼ļ": 8490,
      "æĸ½çŃĸ": 8491,
      "å¯¼ä½ĵ": 8492,
      "æķĻèĤ²éĥ¨": 8493,
      "è®¤åĲĮ": 8494,
      "ç»Ļä»ĺ": 8495,
      "éļ¾åº¦": 8496,
      "å¾Ģå¾Ģ": 8497,
      "ccgp": 8498,
      "åĲĪåĲĮå±¥è¡ĮæľŁéĻĲ": 8499,
      ")ï¼Į": 8500,
      "Ġve": 8501,
      "å·¥ä½ľæİ¨è¿Ľ": 8502,
      "å¼ķæĵİ": 8503,
      "æ¨±": 8504,
      "åħĭåħ°": 8505,
      "å¤ªå¹³": 8506,
      "æ¬¢ä¹Ĳ": 8507,
      "Ġcheck": 8508,
      "æ¤ħ": 8509,
      "ploy": 8510,
      "åľ¨åĮĹäº¬": 8511,
      "ä¸įåĲ«": 8512,
      "åīįè¿Ľ": 8513,
      "Ġthree": 8514,
      "çľĭæĿ¥": 8515,
      "åıĳå¸ĥäºĨ": 8516,
      "èľľ": 8517,
      "Ġaccess": 8518,
      "ç¯®çĲĥ": 8519,
      "é©³åĽŀ": 8520,
      "+âĢĿ": 8521,
      "åħĨ": 8522,
      "å§ļ": 8523,
      "ä¿¡èªī": 8524,
      "ç´§è¿«": 8525,
      "è®¿éĹ®": 8526,
      "çĽĺæ´»": 8527,
      "Ġincre": 8528,
      "æĹıèĩªæ²»åİ¿": 8529,
      "çļĦè¯Ŀ": 8530,
      "ç»£": 8531,
      "ä¸Ńåħ¨ä¼ļç²¾ç¥ŀ": 8532,
      "Ġsince": 8533,
      "æ±ŁåįĹ": 8534,
      "ä¸Ńå¿ĥç»Ħ": 8535,
      "Ġbel": 8536,
      "ç»ĨèĬĤ": 8537,
      "ä¸ĵä¸ļåĲĪä½ľç¤¾": 8538,
      "Ġçī¹æŃ¤": 8539,
      "éĿ¢çļĦ": 8540,
      "çĥ¤": 8541,
      "æłĩåĩĨçļĦ": 8542,
      "åħ¬å¼Ģåıĳè¡Į": 8543,
      "é¥®çĶ¨æ°´": 8544,
      "éĹ¯": 8545,
      "è½¬è´¦": 8546,
      "éĻįæ°´": 8547,
      "æķ°åŃĹè¯ģä¹¦": 8548,
      "æļĤåģľ": 8549,
      "å¼ĢåĬŀ": 8550,
      "Ġwater": 8551,
      "éĺ²æ´ª": 8552,
      "ç¤¾ä¼ļä¿¡çĶ¨": 8553,
      "çĥŃçĤ¹": 8554,
      "å¦Īå¦Ī": 8555,
      "ock": 8556,
      "æĹ¶æ®µ": 8557,
      "å°±åľ¨": 8558,
      "Ġstate": 8559,
      "å¸®åĬ©ä¼ģä¸ļ": 8560,
      "åĩĢåĮĸ": 8561,
      "Ġä¼ļè®®æĮĩåĩº": 8562,
      "CE": 8563,
      "åĴĮå»ºè®®": 8564,
      "åĬ¨ä½ľ": 8565,
      "éģĤ": 8566,
      "æĮģèĤ¡": 8567,
      "ç²ª": 8568,
      "è¡¨æĺİ": 8569,
      "åĲįä¹ī": 8570,
      "ä»£çĲĨæľįåĬ¡": 8571,
      "åįģäºĶæĿ¡": 8572,
      "éĩİçĶŁåĬ¨çī©": 8573,
      "700": 8574,
      "ä¸Ģæ®µ": 8575,
      "æĭ¾": 8576,
      "çĶµèĦĳ": 8577,
      "è¢«ä¸Ĭè¯īäºº": 8578,
      "è¯Ħä¸º": 8579,
      "åĳ¨åĽ´": 8580,
      "æĪªåĽ¾": 8581,
      "æ¾³éĹ¨": 8582,
      "çĪĨç«¹": 8583,
      "´éĢī": 8584,
      "çļĦä¿¡æģ¯": 8585,
      "èĥģ": 8586,
      "éģ´éĢī": 8587,
      "æ¡¶": 8588,
      "åĩłä¹İ": 8589,
      "éĨī": 8590,
      "ä¼ļçļĦ": 8591,
      "åĲįçīĩ": 8592,
      "çķı": 8593,
      "Ġstand": 8594,
      "åı¤åŁİ": 8595,
      "åĨ·éĵ¾": 8596,
      "äº§ä¸ļä½ĵç³»": 8597,
      "æ±ŁéĹ¨": 8598,
      "è§Ĩéĩİ": 8599,
      "ç²®æ²¹": 8600,
      "els": 8601,
      "ĠUS": 8602,
      "çĶŁæĢģæĸĩæĺİå»ºè®¾": 8603,
      "Ġsomething": 8604,
      "ä¸Ńç§ĭ": 8605,
      "åĴĮè§ĦåĪĴ": 8606,
      "å·¥ä½ľç»Ħ": 8607,
      "éķ¿è¿ľ": 8608,
      "æİªå¹¶ä¸¾": 8609,
      "éĢĤæĹ¶": 8610,
      "å¢ŀåĬłäºĨ": 8611,
      "æĽ¾ç»ı": 8612,
      "ä½ıå»ºå±Ģ": 8613,
      "å¹³æĸ¹": 8614,
      "åŁºæķ°": 8615,
      "æļĸå¿ĥ": 8616,
      "ä¹Įåħĭåħ°": 8617,
      "è´¾": 8618,
      "è¯µ": 8619,
      "åĬĽåĴĮ": 8620,
      "åĪ¶çº¦": 8621,
      "æ¼Ķè®²": 8622,
      "Ġnext": 8623,
      "åĤ¨åŃĺ": 8624,
      "åį±æľº": 8625,
      "åĩłä¸ª": 8626,
      "å·©åĽºæĭĵå±ķ": 8627,
      "Ġroom": 8628,
      "cer": 8629,
      "ä¸Ģæĸ¹": 8630,
      "åħ¥åŃ¦": 8631,
      "æĶ¯æı´": 8632,
      "åįģä¸ĢæĿ¡": 8633,
      "åĩĨåĪĻ": 8634,
      "ä¸Ĭä¸ĭåĬŁå¤«": 8635,
      "æĽ¿ä»£": 8636,
      "ä¸įä¹ħ": 8637,
      "Ġput": 8638,
      "åįģåħŃæĿ¡": 8639,
      "æĸĩæĺİåŁİå¸Ĥ": 8640,
      "åıĭè°Ĭ": 8641,
      "éĿ¢ä¸´çļĦ": 8642,
      "Ġstudents": 8643,
      "ron": 8644,
      "æ°ĳæĦı": 8645,
      "æ°´åŁŁ": 8646,
      "åĲİæĿ¥": 8647,
      "ç®¡çĲĨæĿ¡ä¾ĭ": 8648,
      "ä¸ĵç§ĳ": 8649,
      "åħ¨éĿ¢è´¯å½»": 8650,
      "çĶ³è¯·äººçļĦèµĦæł¼è¦ģæ±Ĥ": 8651,
      "ä¸Ńå±±": 8652,
      "æĮ¡": 8653,
      "ä¸įåľ¨": 8654,
      "erg": 8655,
      "èĬ½": 8656,
      "æĶ¿åºľçļĦ": 8657,
      "å¹¿éĺĶ": 8658,
      "å¹²èŃ¦": 8659,
      "æ¨¡æĭŁ": 8660,
      "éĢĢåĩº": 8661,
      "ç»Īäºİ": 8662,
      "åįĬå¯¼ä½ĵ": 8663,
      "çĶŁåĳ½è´¢äº§å®īåħ¨": 8664,
      "çŃĽæŁ¥": 8665,
      "å¯¸": 8666,
      "åŁİåİ¿": 8667,
      "åıĹçģ¾": 8668,
      "èĦĤ": 8669,
      "é¦ĸè¦ģ": 8670,
      "ç¬¬ä¸Ģæī¹": 8671,
      "uss": 8672,
      "åį°åº¦": 8673,
      "ç¦»ä¸įå¼Ģ": 8674,
      "å°½éĩı": 8675,
      "åĵªéĩĮ": 8676,
      "åī©ä½Ļ": 8677,
      "åıĳèµ·": 8678,
      "èĥ½åĬĽçļĦ": 8679,
      "æī§æ³ķæ£ĢæŁ¥": 8680,
      "æĪĺçķ¥æĢ§": 8681,
      "æ¯Ĵåĵģ": 8682,
      "æ³¢åĬ¨": 8683,
      "éĤ®å¯Ħ": 8684,
      "Ġeng": 8685,
      "Ġwr": 8686,
      "Ġwebs": 8687,
      "è®¾å¤ĩåĴĮ": 8688,
      "å®ıè§Ĥ": 8689,
      "èļĮ": 8690,
      "________": 8691,
      "å¤§è§Ħæ¨¡": 8692,
      "ç«Ł": 8693,
      "åĲĦæĿĳ": 8694,
      "è·¯ä¸Ĭ": 8695,
      "æĮģç»Ńæ·±åĮĸ": 8696,
      "ä½¿çĶ¨æĿĥ": 8697,
      "æŃ¤æ¬¡æ´»åĬ¨": 8698,
      "ç§ĺå¯Ĩ": 8699,
      "æ°ĳæ³ķåħ¸": 8700,
      "åĽłåħ¬åĩºåĽ½": 8701,
      "å°¹": 8702,
      "åĪ¶æŃ¢": 8703,
      "Ġold": 8704,
      "æ¡Ĳ": 8705,
      "éĩıçļĦ": 8706,
      "Ġproble": 8707,
      "æ¿Ģæ´»": 8708,
      "åħįçĸ«": 8709,
      "èĴ¸": 8710,
      "Ġlet": 8711,
      "ä¸ºä»Ģä¹Ī": 8712,
      "æ±ķ": 8713,
      "åŁİä¹¡å±ħæ°ĳ": 8714,
      "çº¸è´¨": 8715,
      "ç»¿æ°´éĿĴå±±": 8716,
      "ä¸Ģå¤Ħ": 8717,
      "å¤§éĻĨ": 8718,
      "è¦ģåĪĩå®ŀ": 8719,
      "2010": 8720,
      "å¤ļæİªå¹¶ä¸¾": 8721,
      "æµ·ä¸Ĭ": 8722,
      "åħ¨éĿ¢å»ºè®¾": 8723,
      "å·¥ä¸ļåĮĸ": 8724,
      "åĲĦåİ¿åĮº": 8725,
      "å®¡è®®éĢļè¿ĩäºĨ": 8726,
      "åħ¬åĬ¡æİ¥å¾ħè´¹": 8727,
      "4000": 8728,
      "me": 8729,
      "çļĦæł¸å¿ĥ": 8730,
      "ä¸Ģå¤§": 8731,
      "äºĨä¸Ģä¸ª": 8732,
      "çŃīæİªæĸ½": 8733,
      "ç»ĵè®º": 8734,
      "ä¹Łåı¯ä»¥": 8735,
      "åºŃå®¡": 8736,
      "åĲĪåĲĮçº¦å®ļ": 8737,
      "èħ°": 8738,
      "åĪĨç®¡é¢Ĩå¯¼": 8739,
      "æĦıåĳ³çĿĢ": 8740,
      "åĲįçļĦ": 8741,
      "Ġinf": 8742,
      "ĠCon": 8743,
      "pend": 8744,
      "æ°¸è¿ľ": 8745,
      "Ġlevel": 8746,
      "Ġprofess": 8747,
      "çĽ¸åĲĮ": 8748,
      "æľºæŀĦçļĦ": 8749,
      "Ġgive": 8750,
      "åĽŀé¡¾": 8751,
      "èŃ¦æĸ¹": 8752,
      "Ġwithin": 8753,
      "è¾ĥä¸Ĭå¹´": 8754,
      "éĩįå¤§è¿Ŀæ³ķ": 8755,
      "ç§»äº¤": 8756,
      "èĵī": 8757,
      "åĽ½å¤ĸ": 8758,
      "å±ķåĮº": 8759,
      "åįĹæĸ¹": 8760,
      "å®Īä½ı": 8761,
      "æİĴæŁ¥æķ´æ²»": 8762,
      "è·Łè¿Ľ": 8763,
      "çĶŁçī©å¤ļæł·æĢ§": 8764,
      "æľīåºıæİ¨è¿Ľ": 8765,
      "ä¸ºæľŁ": 8766,
      "ä¸»è¦ģåĮħæĭ¬": 8767,
      "çºªå½ķ": 8768,
      "ä½İä¿Ŀ": 8769,
      "æĭħå½ĵä½ľä¸º": 8770,
      "ä¼Łå¤§å¤įåħ´": 8771,
      "ä¸¥åİīæīĵåĩ»": 8772,
      "æķĮ": 8773,
      "å¤§å¤§": 8774,
      "å¤§éĥ¨åĪĨ": 8775,
      "æ±²": 8776,
      "ä»¥å®ŀéĻħè¡ĮåĬ¨": 8777,
      "çŃīè¿Ľè¡Į": 8778,
      "æĮģå¹³": 8779,
      "orn": 8780,
      "èģĶå¸Ńä¼ļè®®": 8781,
      "æĦŁåĪ°": 8782,
      "åħ´å¸Ĥ": 8783,
      "çĥŃçĪ±": 8784,
      "ills": 8785,
      "meric": 8786,
      "ĠQ": 8787,
      "å»ºæĿĲ": 8788,
      "å®ļåĲĳ": 8789,
      "è§ĦçŁ©": 8790,
      "æĿĳå§Ķä¼ļ": 8791,
      "è¡Įä¸ļåįıä¼ļ": 8792,
      "ok": 8793,
      "äººä¸İ": 8794,
      "ä»¥ä¹łè¿ĳå¹³åĲĮå¿Ĺ": 8795,
      "åħ³éĹŃ": 8796,
      "Ġintern": 8797,
      "å¤©ä¸ĭ": 8798,
      "èµ°å®ŀ": 8799,
      "è£ħé¥°": 8800,
      "ä¾Ŀæ³ķä¾Ŀè§Ħ": 8801,
      "åħļçļĦåįģåħ«": 8802,
      "Ġapplic": 8803,
      "æĸ°åıĳå±ķçĲĨå¿µ": 8804,
      "éĩįè¦ģæĮĩç¤ºç²¾ç¥ŀ": 8805,
      "èĬľæ¹ĸ": 8806,
      "æĥĳ": 8807,
      "Ġsal": 8808,
      "ton": 8809,
      "å¸ľ": 8810,
      "é¡¹è§Ħå®ļ": 8811,
      "èĩªè¯Ħ": 8812,
      "å»ºè®¾åįķä½į": 8813,
      "æĬĢæľ¯çļĦ": 8814,
      "å¤įåĲĪ": 8815,
      "åħļçļĦå»ºè®¾": 8816,
      "éĺ¶æ®µæĢ§": 8817,
      "æ»¨æµ·": 8818,
      "):": 8819,
      "çĽĨ": 8820,
      "èĩŃ": 8821,
      "ä¹ĭå¹´": 8822,
      "åĽŀåįĩ": 8823,
      "æ¯ıåĳ¨": 8824,
      "åĦ¿åŃĲ": 8825,
      "åįłåľ°": 8826,
      "çļĦåīįæıĲä¸ĭ": 8827,
      "oot": 8828,
      "ä¸Ģçīĩ": 8829,
      "ä½ľèĢħ": 8830,
      "è¦ģçĤ¹": 8831,
      "åĲĦæĹı": 8832,
      "æķĻç»ĥ": 8833,
      "è®©ç¾¤ä¼Ĺ": 8834,
      "æī¬å·ŀ": 8835,
      "ä¾µæĿĥ": 8836,
      "çļĦè´¢åĬ¡": 8837,
      "åĲĪå¹¶": 8838,
      "èĥİ": 8839,
      "åĲĦæĸ¹éĿ¢": 8840,
      "æĥħåĨµåĴĮ": 8841,
      "æķĻèĤ²åĴĮ": 8842,
      "è§Ĩè§ī": 8843,
      "æĭīå¼Ģ": 8844,
      "åį«çĶŁåģ¥åº·å§Ķ": 8845,
      "æĹ¥æ´»åĬ¨": 8846,
      "æ¬º": 8847,
      "ç«ĭåľº": 8848,
      "å¢ŀè®¾": 8849,
      "åĽŀå®¶": 8850,
      "é½Ĳåħ¨": 8851,
      "äººå±ħçİ¯å¢ĥæķ´æ²»": 8852,
      "å°Ŀè¯ķ": 8853,
      "ç»ıæµİæĬĢæľ¯å¼ĢåıĳåĮº": 8854,
      "å¹´æľ«": 8855,
      "æ£Ĵ": 8856,
      "éģĹæ¼ı": 8857,
      "Ġquality": 8858,
      "ling": 8859,
      "und": 8860,
      "æ°´äº§": 8861,
      "ense": 8862,
      "è´¢æĶ¿åİħ": 8863,
      "è´§è½¦": 8864,
      "è§Ħæ¨¡åĮĸ": 8865,
      "åĤ¨èĥ½": 8866,
      "åįıåĲĮåıĳå±ķ": 8867,
      "ER": 8868,
      "çļĦå¸Ĥåľº": 8869,
      "ä¸įåıĺ": 8870,
      "æĭ©": 8871,
      "åĲĮè¡Į": 8872,
      "çĶ±æŃ¤": 8873,
      "ä¸»è¦ģè´Łè´£åĲĮå¿Ĺ": 8874,
      "åºıåı·": 8875,
      "åĩĨç¡®æĬĬæı¡": 8876,
      "ä¹ĺå®¢": 8877,
      "çļĦåŃ¦ä¹ł": 8878,
      "æł¡å¤ĸ": 8879,
      "ç£Ĭ": 8880,
      "çļĦåĨ³å®ļ": 8881,
      "ä¸ĭåıĳ": 8882,
      "èĬĿ": 8883,
      "å¹¶ä¸İ": 8884,
      "éĽĨçº¦": 8885,
      "éĿŀæ´²": 8886,
      "ä½Ļå®¶": 8887,
      "GB": 8888,
      "Ġä¹Ŀ": 8889,
      "ç½ĳçº¢": 8890,
      "å¤ĸåįĸ": 8891,
      "åĮ»åĬ¡": 8892,
      "é£İéĻ©éļĲæĤ£": 8893,
      "å®ŀè·µä¸Ń": 8894,
      "åĨ²çªģ": 8895,
      "å·¥åĮł": 8896,
      "åīĸ": 8897,
      "åĶ¤": 8898,
      "è¯¢ä»·": 8899,
      "Ġquest": 8900,
      "Ġpract": 8901,
      "æŀĦçŃĳ": 8902,
      "é¦ĸä½į": 8903,
      "Ġsecond": 8904,
      "ared": 8905,
      "åĪ¶åº¦æĶ¹éĿ©": 8906,
      "ç»ıæµİç¤¾ä¼ļé«ĺè´¨éĩıåıĳå±ķ": 8907,
      "åħ¨äº§ä¸ļéĵ¾": 8908,
      "åħ±æ²»": 8909,
      "æ¼³": 8910,
      "ä¾ĭå¦Ĥ": 8911,
      "ç¿¼": 8912,
      "æĪĲéĥ½å¸Ĥ": 8913,
      "åįģä¹ĿæĿ¡": 8914,
      "åĭĺå¯Ł": 8915,
      "åĮ¹éħį": 8916,
      "âĪ": 8917,
      "Ġè¯¥": 8918,
      "çļĦä¸Ń": 8919,
      "äººèº«": 8920,
      "æıĲåıĸ": 8921,
      "Ġcase": 8922,
      "çľģéķ¿": 8923,
      "åŀ«": 8924,
      "ä½¿å¾Ĺ": 8925,
      "åģľé©¶": 8926,
      "é¡¹çĽ®çļĦæ½ľåľ¨": 8927,
      "æķ¢äºİ": 8928,
      "çļĦæĶ¯æĮģ": 8929,
      "ä¸ºçĽ®æłĩ": 8930,
      "å¼ĢåºŃ": 8931,
      "æĺİå¹´": 8932,
      "æ²³æµģ": 8933,
      "å¨ľ": 8934,
      "è§Ħæ¨¡ä»¥ä¸Ĭ": 8935,
      "æıĲäº¤æĬķæłĩæĸĩä»¶": 8936,
      "ä¸įæİ¥åıĹèģĶåĲĪä½ĵæĬķæłĩ": 8937,
      "ä»¥ä¹łè¿ĳå¹³åĲĮå¿Ĺä¸ºæł¸å¿ĥçļĦ": 8938,
      "the": 8939,
      "ä¸§": 8940,
      "å®ŀçĶ¨": 8941,
      "æľįåĬ¡ç«Ļ": 8942,
      "éĵĿ": 8943,
      "è®¾æĸ½å»ºè®¾": 8944,
      "Ġspecial": 8945,
      "çºªå¿µé¦Ĩ": 8946,
      "å¸Ĩ": 8947,
      "æľīä¸ĭåĪĹ": 8948,
      "ä¸įåĪ°ä½į": 8949,
      "åľ°åŁŁ": 8950,
      "æ¬²": 8951,
      "åħ¨éĿ¢å»ºæĪĲ": 8952,
      "éĵ¾æİ¥": 8953,
      "äºĭæķħåıĳçĶŁ": 8954,
      "å¸ħ": 8955,
      "ä¸Ģåı·": 8956,
      "éĺģ": 8957,
      "éĺ²å¾¡": 8958,
      "éĥ¨éĹ¨é¢Ħç®Ĺ": 8959,
      "ute": 8960,
      "åį±éĻ©åºŁçī©": 8961,
      "åĩŃåĢŁ": 8962,
      "çķľç¦½": 8963,
      "ä¸ºä¸»é¢ĺçļĦ": 8964,
      "Ġcurrent": 8965,
      "è¿Ĳè¡Įç»´æĬ¤è´¹": 8966,
      "çļĦæĶ¿çŃĸ": 8967,
      "æµĨ": 8968,
      "reen": 8969,
      "Ġless": 8970,
      "ural": 8971,
      "Ġcontro": 8972,
      "ç»ĦæĪĲéĥ¨åĪĨ": 8973,
      "å¡ĳéĢł": 8974,
      "åįļè§Īä¼ļ": 8975,
      "è¡į": 8976,
      "å°¿": 8977,
      "éĴ¦": 8978,
      "èµ°æ·±": 8979,
      "çħ¤çŁ¿": 8980,
      "é«ĺæłĩåĩĨåĨľçĶ°": 8981,
      "ps": 8982,
      "å¹»": 8983,
      "å·¥ä½ľç«Ļ": 8984,
      "Ġwin": 8985,
      "åİŁæĿĲæĸĻ": 8986,
      "èĦ±è´«æĶ»åĿļæĪĲæŀľ": 8987,
      "è¡¨åĨ³ç»ĵæŀľ": 8988,
      "åĩ¸": 8989,
      "å¼ĢåŃ¦": 8990,
      "é£ĺ": 8991,
      "æ¿ĢçĥĪ": 8992,
      "æĬĹçĸ«": 8993,
      "æµĵåİļæ°ĽåĽ´": 8994,
      "åľ¨èģĮ": 8995,
      "åħ¨æĸ°": 8996,
      "èĬ¦": 8997,
      "ä¾Ľè´§": 8998,
      "ç«ĭé¡¹": 8999,
      "æĹłéĶ¡": 9000,
      "è¯Ħå®ļ": 9001,
      "è¯¸å¤ļ": 9002,
      "åį«åģ¥å§Ķ": 9003,
      "éĩįå¤§è¿Ŀæ³ķè®°å½ķ": 9004,
      "ä¸ĢæĶ¯": 9005,
      "åİĺ": 9006,
      "ä¸»æµģ": 9007,
      "è½´": 9008,
      "çĶµåĬ¨è½¦": 9009,
      "çĶŁäº§çļĦ": 9010,
      "éªĮè¯ģ": 9011,
      "æ¼ł": 9012,
      "ains": 9013,
      "]ï¼Ľ": 9014,
      "æľ´": 9015,
      "ä¿ĿåŃĺ": 9016,
      "Ġcard": 9017,
      "ç®¡çĲĨæľīéĻĲåħ¬åı¸": 9018,
      "å°Ĩè¿Ľä¸ĢæŃ¥": 9019,
      "æĬķèº«": 9020,
      "ĠSe": 9021,
      "åįĥçĵ¦": 9022,
      "çĥŁèĬ±çĪĨç«¹": 9023,
      "Ġåħ³äºİ": 9024,
      "Ġä¸ºäºĨ": 9025,
      "çļĦæ³ķå¾ĭ": 9026,
      "åĴĮå°±ä¸ļ": 9027,
      "ats": 9028,
      "æĶ¿åºľä¿¡æģ¯": 9029,
      "åĽ°å¢ĥ": 9030,
      "Ġask": 9031,
      "å®ŀè·µæ´»åĬ¨": 9032,
      "åŁºéĩĳä¼ļ": 9033,
      "æī¿è¯ºä¹¦": 9034,
      "Ġworking": 9035,
      "ĠæĮīçħ§": 9036,
      "æľīåĬ©äºİ": 9037,
      "åįķçĭ¬": 9038,
      "ä¸ĩäº¿åħĥ": 9039,
      "æķĻçłĶ": 9040,
      "èĲ½ç»Ĩ": 9041,
      "ä¸»è¦ģåĨħå®¹": 9042,
      "tend": 9043,
      "åĲ¸çº³": 9044,
      "åįģä¸īäºĶ": 9045,
      "ä¹Ķ": 9046,
      "ä¸Ńåıĳçİ°": 9047,
      "Ġsit": 9048,
      "ç»ıæµİå¢ŀéķ¿": 9049,
      "å¾ģåľ°": 9050,
      "ç¦»å¼Ģ": 9051,
      "åĪĽæĸ°é©±åĬ¨": 9052,
      "æŀģç«¯": 9053,
      "éĿŀçī©è´¨": 9054,
      "æĭ¨ä»ĺ": 9055,
      "çĶŁçī©åĮ»èį¯": 9056,
      "ode": 9057,
      "ç½ĳæł¼åĮĸ": 9058,
      "çººç»ĩ": 9059,
      "ined": 9060,
      "å½ĵä»£": 9061,
      "ç¼Ĩ": 9062,
      "ĠHow": 9063,
      "Ġlooking": 9064,
      "çī¹ç§įè®¾å¤ĩ": 9065,
      "åĴĮå®ĮåĸĦ": 9066,
      "å¸ĤçĶŁæĢģçİ¯å¢ĥå±Ģ": 9067,
      "å¤§æ¨¡åŀĭ": 9068,
      "é«ĺå±Ĥæ¬¡": 9069,
      "å¹¶åĲĳ": 9070,
      "æĢ»åĢ¼": 9071,
      "åŀ¦": 9072,
      "èµĦéĩĳä½¿çĶ¨": 9073,
      "ç¤¾åĮºå±ħæ°ĳ": 9074,
      "è¿Ŀæ³ķæīĢå¾Ĺ": 9075,
      "åıĸå¾Ĺæĸ°": 9076,
      "ä¼łæŁĵçĹħ": 9077,
      "æ±²åıĸ": 9078,
      "åħ¨éķĩ": 9079,
      "åĮºçº§": 9080,
      "æµı": 9081,
      "å®īåİ¿": 9082,
      "Ġbig": 9083,
      "çŁ¥æĻĵ": 9084,
      "äº¬ä¸ľ": 9085,
      "çİ°åľºæ£ĢæŁ¥": 9086,
      "é¥¼": 9087,
      "åħ·æľīçĭ¬ç«ĭ": 9088,
      "å¨Ł": 9089,
      "ffic": 9090,
      "å®īåĮº": 9091,
      "ision": 9092,
      "æĪĸåħ¶ä»ĸ": 9093,
      "åıĹè®©": 9094,
      "ä¸¤æ¬¡": 9095,
      "è´¢ç»ı": 9096,
      "èİ·è¯Ħ": 9097,
      "åºĶå½ĵæĮīçħ§": 9098,
      "ç§»æ°ĳ": 9099,
      "éĩįå¤§ç¨İæĶ¶è¿Ŀæ³ķæ¡Īä»¶": 9100,
      "ä¸Ĭæĸ°åı°éĺ¶": 9101,
      "Açº§": 9102,
      "è¯ŀ": 9103,
      "ç»Ħç»ĩåı¬å¼Ģ": 9104,
      "åħ±åĲĮå¯Įè£ķ": 9105,
      "æĹĹå¸ľ": 9106,
      "å¤ıåŃ£": 9107,
      "åħļåĴĮåĽ½å®¶": 9108,
      "ĠåĿļæĮģ": 9109,
      "éĿ¢è²Į": 9110,
      "Ġtoday": 9111,
      "éĶļ": 9112,
      "éĻĲäºİ": 9113,
      "å¤ĸéĥ¨": 9114,
      "æĦ¿æĦı": 9115,
      "æ··åĩĿ": 9116,
      "äº§åĵģè´¨éĩı": 9117,
      "è®²å¥½": 9118,
      "å¨ĺ": 9119,
      "æĬĹæĹ±": 9120,
      "è°¢è°¢": 9121,
      "ä¸¾åĬŀäºĨ": 9122,
      "åį±éĻ©åĮĸåŃ¦åĵģ": 9123,
      "åĽ½èµĦå§Ķ": 9124,
      "åıĳå°Ħ": 9125,
      "Ġint": 9126,
      "çŁ«": 9127,
      "å·¥ç¨ĭæĸ½å·¥": 9128,
      "ĠEx": 9129,
      "ĠOn": 9130,
      "åĳ¼åĲ¸": 9131,
      "å¼Ģå·¥å»ºè®¾": 9132,
      "ran": 9133,
      "çļĸ": 9134,
      "å½¬": 9135,
      "èĤł": 9136,
      "çĤ¹ä½į": 9137,
      "è´¢å¯Į": 9138,
      "èŃ¦åĬ¡": 9139,
      "å¨ģèĥģ": 9140,
      "èĥĮæĻ¯ä¸ĭ": 9141,
      "Ġè¿ĳæĹ¥": 9142,
      "å¤ļå°ĳ": 9143,
      "åĲįä¸º": 9144,
      "åĮ»æĬ¤": 9145,
      "é£İæł¼": 9146,
      "è¥¿æĸ¹": 9147,
      "çĶŁæĢģä¿®å¤į": 9148,
      "tem": 9149,
      "çĸ«æĥħéĺ²æİ§åĴĮ": 9150,
      "æ³¨æĦıäºĭé¡¹": 9151,
      "ä¸Ńåįİæ°ĳæĹıä¼Łå¤§å¤įåħ´": 9152,
      "ä¸Ģéģĵ": 9153,
      "é¡¹çĽ®å®ŀæĸ½": 9154,
      "çľģåĨħ": 9155,
      "ä»£ä¼ļ": 9156,
      "å®īåħ¨çĽĳç®¡": 9157,
      "ç§ĳæĬĢå±Ģ": 9158,
      "æĬĵèĲ½å®ŀ": 9159,
      "ç¢İ": 9160,
      "å®³äºº": 9161,
      "ĠWith": 9162,
      "è¿Ķè¿ĺ": 9163,
      "æłĩå¿ĹçĿĢ": 9164,
      "æĺ¥èĬĤæľŁéĹ´": 9165,
      "é¢ģåıĳ": 9166,
      "åľ¨ç»ıèĲ¥": 9167,
      "æĬķæłĩä¿Ŀè¯ģéĩĳ": 9168,
      "ä¸»é¢ĺåħļ": 9169,
      "åİĭç¼©": 9170,
      "éģĵè·¯è¿Ĳè¾ĵ": 9171,
      "èµĦæľ¬å¸Ĥåľº": 9172,
      "çĲĨæĥ³ä¿¡å¿µ": 9173,
      "å¼Ģè¾Ł": 9174,
      "Ġbro": 9175,
      "å®īåħ¨ç¨³å®ļ": 9176,
      "åı·çłģ": 9177,
      "æ¬¾é¡¹": 9178,
      "åĽŀå½Ĵ": 9179,
      "çĶŁæ´»ä¸Ń": 9180,
      "ç¬¬äºĮæ¬¡": 9181,
      "åį°è±¡": 9182,
      "çĽ®åīįå·²": 9183,
      "åİŁåĪĻä¸Ĭ": 9184,
      "ä¸ªæĢ§åĮĸ": 9185,
      "è¯ĳ": 9186,
      "æĸ°ç¯ĩç«ł": 9187,
      "çŃīé¡¹çĽ®": 9188,
      "åħ¬åı¸ç«łç¨ĭ": 9189,
      "å¸¸è§Ħ": 9190,
      "ä¼ļè®®å¼ºè°ĥ": 9191,
      "è´£ä»»èĲ½å®ŀ": 9192,
      "ç²¤æ¸¯æ¾³å¤§æ¹¾åĮº": 9193,
      "aj": 9194,
      "dition": 9195,
      "ä»Ĺ": 9196,
      "ä¸ºåŁºç¡Ģ": 9197,
      "åĲİæľŁ": 9198,
      "å®īåħ¨æĦŁ": 9199,
      "å½ĵä¸ĭ": 9200,
      "æ¯ıæ¬¡": 9201,
      "åī¯æĢ»": 9202,
      "åĮ»çĸĹæľįåĬ¡": 9203,
      "ä»¥ä¹łè¿ĳå¹³åĲĮå¿Ĺä¸ºæł¸å¿ĥçļĦåħļä¸Ńå¤®": 9204,
      "éĩįå¤§ç¨İæĶ¶è¿Ŀæ³ķæ¡Īä»¶å½ĵäºĭäºº": 9205,
      "è´¿": 9206,
      "æĸ°ä¸ŃåĽ½": 9207,
      "ä¿ĿèįĲ": 9208,
      "ä¸ĭè·Į": 9209,
      "è¯ģçħ§": 9210,
      "ä¸ľè·¯": 9211,
      "è¯ĦåĪĨ": 9212,
      "æł·æĿ¿": 9213,
      "é¥®æ°´": 9214,
      "Ġaddition": 9215,
      "You": 9216,
      "å®Ļ": 9217,
      "å¼¥": 9218,
      "åĴĮçľģå§Ķ": 9219,
      "æŀļ": 9220,
      "æĪĲæ¸Ŀ": 9221,
      "ç®¡çĲĨæ°´å¹³": 9222,
      "éĻĲé¢Ŀ": 9223,
      "ĠInd": 9224,
      "å±Ĭæ»¡": 9225,
      "æ¯ĶèµĽä¸Ń": 9226,
      "çļĦåĪĽæĸ°": 9227,
      "ä¼ģäºĭä¸ļåįķä½į": 9228,
      "è´¹çŃī": 9229,
      "èĥ½åĬĽå»ºè®¾": 9230,
      "ç¦ıå·ŀ": 9231,
      "èĻ¾": 9232,
      "ering": 9233,
      "å¼ºåĬ²": 9234,
      "éĩĩæł·": 9235,
      "å¢ŀéĩı": 9236,
      "éľį": 9237,
      "éª¤": 9238,
      "äºĴè¡¥": 9239,
      "åĽºä½ĵ": 9240,
      "å·¡éĢ»": 9241,
      "ä¼ļè®¡å¸ĪäºĭåĬ¡æīĢ": 9242,
      "æ··åĩĿåľŁ": 9243,
[...]
