{
  "version": "1.0",
  "truncation": null,
  "padding": null,
  "added_tokens": [
    {
      "id": 0,
      "content": "<unk>",
      "single_word": false,
      "lstrip": false,
      "rstrip": false,
      "normalized": false,
      "special": true
    },
    {
      "id": 1,
      "content": "<s>",
      "single_word": false,
      "lstrip": false,
      "rstrip": false,
      "normalized": false,
      "special": true
    },
    {
      "id": 2,
      "content": "</s>",
      "single_word": false,
      "lstrip": false,
      "rstrip": false,
      "normalized": false,
      "special": true
    }
  ],
  "normalizer": null,
  "pre_tokenizer": {
    "type": "ByteLevel",
    "add_prefix_space": false,
    "trim_offsets": true,
    "use_regex": true
  },
  "post_processor": null,
  "decoder": {
    "type": "ByteLevel",
    "add_prefix_space": true,
    "trim_offsets": true,
    "use_regex": true
  },
  "model": {
    "type": "BPE",
    "dropout": null,
    "unk_token": null,
    "continuing_subword_prefix": null,
    "end_of_word_suffix": null,
    "fuse_unk": false,
    "byte_fallback": false,
    "ignore_merges": false,
    "vocab": {
      "<unk>": 0,
      "<s>": 1,
      "</s>": 2,
      "!": 3,
      "\"": 4,
      "#": 5,
      "$": 6,
      "%": 7,
      "&": 8,
      "'": 9,
      "(": 10,
      ")": 11,
      "*": 12,
      "+": 13,
      ",": 14,
      "-": 15,
      ".": 16,
      "/": 17,
      "0": 18,
      "1": 19,
      "2": 20,
      "3": 21,
      "4": 22,
      "5": 23,
      "6": 24,
      "7": 25,
      "8": 26,
      "9": 27,
      ":": 28,
      ";": 29,
      "<": 30,
      "=": 31,
      ">": 32,
      "?": 33,
      "@": 34,
      "A": 35,
      "B": 36,
      "C": 37,
      "D": 38,
      "E": 39,
      "F": 40,
      "G": 41,
      "H": 42,
      "I": 43,
      "J": 44,
      "K": 45,
      "L": 46,
      "M": 47,
      "N": 48,
      "O": 49,
      "P": 50,
      "Q": 51,
      "R": 52,
      "S": 53,
      "T": 54,
      "U": 55,
      "V": 56,
      "W": 57,
      "X": 58,
      "Y": 59,
      "Z": 60,
      "[": 61,
      "\\": 62,
      "]": 63,
      "^": 64,
      "_": 65,
      "`": 66,
      "a": 67,
      "b": 68,
      "c": 69,
      "d": 70,
      "e": 71,
      "f": 72,
      "g": 73,
      "h": 74,
      "i": 75,
      "j": 76,
      "k": 77,
      "l": 78,
      "m": 79,
      "n": 80,
      "o": 81,
      "p": 82,
      "q": 83,
      "r": 84,
      "s": 85,
      "t": 86,
      "u": 87,
      "v": 88,
      "w": 89,
      "x": 90,
      "y": 91,
      "z": 92,
      "{": 93,
      "|": 94,
      "}": 95,
      "~": 96,
      "¡": 97,
      "¢": 98,
      "£": 99,
      "¤": 100,
      "¥": 101,
      "¦": 102,
      "§": 103,
      "¨": 104,
      "©": 105,
      "ª": 106,
      "«": 107,
      "¬": 108,
      "®": 109,
      "¯": 110,
      "°": 111,
      "±": 112,
      "²": 113,
      "³": 114,
      "´": 115,
      "µ": 116,
      "¶": 117,
      "·": 118,
      "¸": 119,
      "¹": 120,
      "º": 121,
      "»": 122,
      "¼": 123,
      "½": 124,
      "¾": 125,
      "¿": 126,
      "À": 127,
      "Á": 128,
      "Â": 129,
      "Ã": 130,
      "Ä": 131,
      "Å": 132,
      "Æ": 133,
      "Ç": 134,
      "È": 135,
      "É": 136,
      "Ê": 137,
      "Ë": 138,
      "Ì": 139,
      "Í": 140,
      "Î": 141,
      "Ï": 142,
      "Ð": 143,
      "Ñ": 144,
      "Ò": 145,
      "Ó": 146,
      "Ô": 147,
      "Õ": 148,
      "Ö": 149,
      "×": 150,
      "Ø": 151,
      "Ù": 152,
      "Ú": 153,
      "Û": 154,
      "Ü": 155,
      "Ý": 156,
      "Þ": 157,
      "ß": 158,
      "à": 159,
      "á": 160,
      "â": 161,
      "ã": 162,
      "ä": 163,
      "å": 164,
      "æ": 165,
      "ç": 166,
      "è": 167,
      "é": 168,
      "ê": 169,
      "ë": 170,
      "ì": 171,
      "í": 172,
      "î": 173,
      "ï": 174,
      "ð": 175,
      "ñ": 176,
      "ò": 177,
      "ó": 178,
      "ô": 179,
      "õ": 180,
      "ö": 181,
      "÷": 182,
      "ø": 183,
      "ù": 184,
      "ú": 185,
      "û": 186,
      "ü": 187,
      "ý": 188,
      "þ": 189,
      "ÿ": 190,
      "Ā": 191,
      "ā": 192,
      "Ă": 193,
      "ă": 194,
      "Ą": 195,
      "ą": 196,
      "Ć": 197,
      "ć": 198,
      "Ĉ": 199,
      "ĉ": 200,
      "Ċ": 201,
      "ċ": 202,
      "Č": 203,
      "č": 204,
      "Ď": 205,
      "ď": 206,
      "Đ": 207,
      "đ": 208,
      "Ē": 209,
      "ē": 210,
      "Ĕ": 211,
      "ĕ": 212,
      "Ė": 213,
      "ė": 214,
      "Ę": 215,
      "ę": 216,
      "Ě": 217,
      "ě": 218,
      "Ĝ": 219,
      "ĝ": 220,
      "Ğ": 221,
      "ğ": 222,
      "Ġ": 223,
      "ġ": 224,
      "Ģ": 225,
      "ģ": 226,
      "Ĥ": 227,
      "ĥ": 228,
      "Ħ": 229,
      "ħ": 230,
      "Ĩ": 231,
      "ĩ": 232,
      "Ī": 233,
      "ī": 234,
      "Ĭ": 235,
      "ĭ": 236,
      "Į": 237,
      "į": 238,
      "İ": 239,
      "ı": 240,
      "Ĳ": 241,
      "ĳ": 242,
      "Ĵ": 243,
      "ĵ": 244,
      "Ķ": 245,
      "ķ": 246,
      "ĸ": 247,
      "Ĺ": 248,
      "ĺ": 249,
      "Ļ": 250,
      "ļ": 251,
      "Ľ": 252,
      "ľ": 253,
      "Ŀ": 254,
      "ŀ": 255,
      "Ł": 256,
      "ł": 257,
      "Ń": 258,
      "ï¼": 259,
      "ä¸": 260,
      "ãĢ": 261,
      "ï¼Į": 262,
      "äº": 263,
      "åħ": 264,
      "åı": 265,
      "ãĢģ": 266,
      "å®": 267,
      "çļ": 268,
      "æľ": 269,
      "çļĦ": 270,
      "åĬ": 271,
      "ãĢĤ": 272,
      "ä»": 273,
      "åĪ": 274,
      "ä½": 275,
      "âĢ": 276,
      "åĲ": 277,
      "å¤": 278,
      "ç»": 279,
      "æĸ": 280,
      "è¿": 281,
      "è®": 282,
      "åľ": 283,
      "ä¼": 284,
      "çĶ": 285,
      "å¹": 286,
      "åĮ": 287,
      "è´": 288,
      "å¸": 289,
      "åį": 290,
      "åĽ": 291,
      "å·": 292,
      "å±": 293,
      "æĶ": 294,
      "æĹ": 295,
      "å¼": 296,
      "è¯": 297,
      "æĪ": 298,
      "åº": 299,
      "éĩ": 300,
      "è¡": 301,
      "çĽ": 302,
      "äºº": 303,
      "æĬ": 304,
      "æĿ": 305,
      "åĨ": 306,
      "ä¹": 307,
      "æī": 308,
      "ä¸Ģ": 309,
      "ä¸ļ": 310,
      "æĺ": 311,
      "æł": 312,
      "éĢ": 313,
      "å·¥": 314,
      "âĢľ": 315,
      "åĴ": 316,
      "âĢĿ": 317,
      "æķ": 318,
      "å¯": 319,
      "æ°": 320,
      "ä¸Ń": 321,
      "ä¿": 322,
      "å¸Ĥ": 323,
      "åĴĮ": 324,
      "åĩ": 325,
      "åŃ": 326,
      "èµ": 327,
      "æİ": 328,
      "ä½ľ": 329,
      "è§": 330,
      "å°": 331,
      "è¡Į": 332,
      "éĻ": 333,
      "çŃ": 334,
      "åľ¨": 335,
      "åıĳ": 336,
      "å¹´": 337,
      "åĳ": 338,
      "çº": 339,
      "æ³": 340,
      "æĢ": 341,
      "ä¸º": 342,
      "æĮ": 343,
      "åħ¨": 344,
      "çİ": 345,
      "ç§": 346,
      "åħ¬": 347,
      "åŁ": 348,
      "æľī": 349,
      "é¢": 350,
      "éĹ": 351,
      "å»": 352,
      "å¤§": 353,
      "çĲ": 354,
      "åĮº": 355,
      "å®ŀ": 356,
      "ä¼ļ": 357,
      "è¦": 358,
      "åĽ½": 359,
      "åİ": 360,
      "å»º": 361,
      "åĬ¨": 362,
      "å¿": 363,
      "çĶŁ": 364,
      "è¦ģ": 365,
      "é¡": 366,
      "çĲĨ": 367,
      "æĶ¿": 368,
      "è¿Ľ": 369,
      "åĬ¡": 370,
      "å±ķ": 371,
      "æµ": 372,
      "éĥ": 373,
      "ç®": 374,
      "å¾": 375,
      "å½": 376,
      "äºĨ": 377,
      "èĢ": 378,
      "éĿ": 379,
      "20": 380,
      "æ³ķ": 381,
      "æĸ°": 382,
      "çī": 383,
      "æ²": 384,
      "åĮĸ": 385,
      "ä¸į": 386,
      "æ±": 387,
      "æŀ": 388,
      "äº§": 389,
      "ä¸Ĭ": 390,
      "å¥": 391,
      "æŃ": 392,
      "éĺ": 393,
      "æı": 394,
      "å·¥ä½ľ": 395,
      "ä»¥": 396,
      "åľ°": 397,
      "å¼Ģ": 398,
      "é¡¹": 399,
      "åĩº": 400,
      "æĺ¯": 401,
      "ï¼ī": 402,
      "çŃī": 403,
      "ï¼Ī": 404,
      "æĪĲ": 405,
      "èĩ": 406,
      "çĶ¨": 407,
      "åĲĪ": 408,
      "æĹ¶": 409,
      "æĹ¥": 410,
      "ç¤": 411,
      "å¯¹": 412,
      "æ°ĳ": 413,
      "ä¾": 414,
      "éĥ¨": 415,
      "è®¾": 416,
      "åħ³": 417,
      "åŃ¦": 418,
      "ç«": 419,
      "åĬĽ": 420,
      "ä¿Ŀ": 421,
      "çľ": 422,
      "æĭ": 423,
      "èģ": 424,
      "ç½": 425,
      "èĥ": 426,
      "çĽ®": 427,
      "èµĦ": 428,
      "æıĲ": 429,
      "å®ļ": 430,
      "ç¨": 431,
      "æ´": 432,
      "éķ": 433,
      "æĥ": 434,
      "ä½ĵ": 435,
      "ç®¡": 436,
      "æ¬": 437,
      "é«": 438,
      "ï¼ļ": 439,
      "é«ĺ": 440,
      "æĸ¹": 441,
      "è¾": 442,
      "èĤ": 443,
      "è½": 444,
      "å®ī": 445,
      "å®¶": 446,
      "ä¸»": 447,
      "åĬł": 448,
      "éĩį": 449,
      "åĵ": 450,
      "ä¸ª": 451,
      "å§": 452,
      "ç»ı": 453,
      "éĢļ": 454,
      "Ł¥": 455,
      "åĪĨ": 456,
      "äºĭ": 457,
      "æłĩ": 458,
      "åģ": 459,
      "æ¸": 460,
      "èĥ½": 461,
      "åĳĺ": 462,
      "æľĪ": 463,
      "åī": 464,
      "å¢": 465,
      "çİ°": 466,
      "èĲ": 467,
      "æĸĩ": 468,
      "æľ¬": 469,
      "åĲĮ": 470,
      "åĪ°": 471,
      "æľº": 472,
      "è·": 473,
      "åıĬ": 474,
      "åĪ¶": 475,
      "æĦ": 476,
      "çĤ": 477,
      "åºĶ": 478,
      "è°": 479,
      "æľį": 480,
      "å¼º": 481,
      "åĿ": 482,
      "åıĳå±ķ": 483,
      "ä½į": 484,
      "ç¬": 485,
      "è§Ħ": 486,
      "éģ": 487,
      "åħĥ": 488,
      "ä¸ĭ": 489,
      "äºİ": 490,
      "éĽ": 491,
      "é¡¹çĽ®": 492,
      "éĿ¢": 493,
      "åľº": 494,
      "åº¦": 495,
      "æİ¨": 496,
      "å¿ĥ": 497,
      "ï¼Ľ": 498,
      "ä¸İ": 499,
      "æľįåĬ¡": 500,
      "ä¼ģ": 501,
      "å§Ķ": 502,
      "éĩĳ": 503,
      "æ¡": 504,
      "å¹³": 505,
      "åħļ": 506,
      "éķ¿": 507,
      "å±Ģ": 508,
      "çĤ¹": 509,
      "00": 510,
      "èĩª": 511,
      "åħ¥": 512,
      "æĿ¥": 513,
      "å»ºè®¾": 514,
      "æĥħ": 515,
      "æ°´": 516,
      "åı¸": 517,
      "å¥½": 518,
      "æ¯": 519,
      "éļ": 520,
      "æį": 521,
      "åĵģ": 522,
      "ç¤¾": 523,
      "åĬŀ": 524,
      "æĮģ": 525,
      "ä¿¡": 526,
      "çľģ": 527,
      "ä»¶": 528,
      "æľŁ": 529,
      "äº¤": 530,
      "ä¼ģä¸ļ": 531,
      "æ´»": 532,
      "ç¾": 533,
      "è¿ĩ": 534,
      "ç»Ħ": 535,
      "åĲĦ": 536,
      "åħ±": 537,
      "æ²»": 538,
      "æĻ": 539,
      "ä¸ī": 540,
      "ç¨ĭ": 541,
      "åĨħ": 542,
      "æĸ½": 543,
      "è´£": 544,
      "åįķ": 545,
      "ç³": 546,
      "éĩı": 547,
      "åŁº": 548,
      "ãĢĬ": 549,
      "ãĢĭ": 550,
      "æŁ¥": 551,
      "æĬ¥": 552,
      "ç¡": 553,
      "ç¬¬": 554,
      "æĿĳ": 555,
      "é£": 556,
      "åħ¬åı¸": 557,
      "æĪĳ": 558,
      "ä»»": 559,
      "èī": 560,
      "æĶ¯": 561,
      "çł": 562,
      "ç³»": 563,
      "ä»£": 564,
      "202": 565,
      "åīį": 566,
      "åĲİ": 567,
      "å¤ļ": 568,
      "ç®¡çĲĨ": 569,
      "çĿ": 570,
      "æ¬¡": 571,
      "éĹ´": 572,
      "è´¨": 573,
      "æ¶": 574,
      "æ·": 575,
      "ä¸ĩ": 576,
      "æĬĢ": 577,
      "åķ": 578,
      "éĹ¨": 579,
      "æķĻ": 580,
      "å¯¼": 581,
      "æ±Ĥ": 582,
      "æĺİ": 583,
      "åĳĬ": 584,
      "ç§ĳ": 585,
      "æĢ§": 586,
      "è®®": 587,
      "åĪĽ": 588,
      "è®¡": 589,
      "çº§": 590,
      "èĢħ": 591,
      "çĽĳ": 592,
      "è´¹": 593,
      "åħ¶": 594,
      "éĺ²": 595,
      "çĸ": 596,
      "é¢ĺ": 597,
      "å¼ı": 598,
      "åķĨ": 599,
      "å°Ĩ": 600,
      "åŁİ": 601,
      "æĽ": 602,
      "èĤ²": 603,
      "äºĮ": 604,
      "åı¯": 605,
      "åĨľ": 606,
      "æĬķ": 607,
      "è¡¨": 608,
      "å°ı": 609,
      "çĶµ": 610,
      "çĽ¸": 611,
      "ç²": 612,
      "è¯ģ": 613,
      "ä¸ĵ": 614,
      "åİ¿": 615,
      "ä¹¦": 616,
      "å®īåħ¨": 617,
      "è·¯": 618,
      "è®°": 619,
      "ä¾Ľ": 620,
      "æº": 621,
      "èĬ": 622,
      "å¤Ħ": 623,
      "æĶ¹": 624,
      "æĶ¶": 625,
      "èĮ": 626,
      "æ¡Ī": 627,
      "è°ĥ": 628,
      "èģĶ": 629,
      "ç«ĭ": 630,
      "æģ": 631,
      "æķĪ": 632,
      "éĩĩ": 633,
      "éĻ¢": 634,
      "éģĵ": 635,
      "æ£": 636,
      "å½ĵ": 637,
      "è¶": 638,
      "åĲį": 639,
      "ç»Ł": 640,
      "é¢Ĩ": 641,
      "åºľ": 642,
      "æį®": 643,
      "å¹¶": 644,
      "å¢ŀ": 645,
      "ç¤º": 646,
      "çİ¯": 647,
      "åĪ©": 648,
      "æķ°": 649,
      "ç½ĳ": 650,
      "åĲĳ": 651,
      "è§£": 652,
      "ä¼ł": 653,
      "æĶ¿åºľ": 654,
      "æĦı": 655,
      "éĢł": 656,
      "çī©": 657,
      "ç¥": 658,
      "ç±": 659,
      "åĨ³": 660,
      "ç»ĵ": 661,
      "æ·±": 662,
      "æīĢ": 663,
      "åĢ": 664,
      "è¿Ĳ": 665,
      "éĽĨ": 666,
      "æĢ»": 667,
      "ä»¬": 668,
      "æĮĩ": 669,
      "è´Ń": 670,
      "å¼Ģå±ķ": 671,
      "åĩĨ": 672,
      "éĹ®": 673,
      "éĵ": 674,
      "æºĲ": 675,
      "èĲ¥": 676,
      "æĿ¡": 677,
      "è½¦": 678,
      "å¾Ĺ": 679,
      "èĲ½": 680,
      "åĨµ": 681,
      "è¿Ľè¡Į": 682,
      "éľ": 683,
      "æĽ´": 684,
      "æł¼": 685,
      "ä»ĸ": 686,
      "ä¸ŃåĽ½": 687,
      "éĶ": 688,
      "å®¡": 689,
      "åı°": 690,
      "åįģ": 691,
      "è¿Ļ": 692,
      "ç´": 693,
      "åįķä½į": 694,
      "æ´»åĬ¨": 695,
      "æķ´": 696,
      "ä¹ĭ": 697,
      "äººæ°ĳ": 698,
      "å°±": 699,
      "åĮ»": 700,
      "ç¡®": 701,
      "å¦": 702,
      "çĻ": 703,
      "çłĶ": 704,
      "æŃ¥": 705,
      "ç©": 706,
      "çī¹": 707,
      "éĻĲ": 708,
      "æĬ¤": 709,
      "èĮĥ": 710,
      "é¢Ħ": 711,
      "ç²¾": 712,
      "åŃĲ": 713,
      "çķ": 714,
      "å¹¿": 715,
      "æµ·": 716,
      "åıĤ": 717,
      "åİŁ": 718,
      "ç¤¾ä¼ļ": 719,
      "çº¿": 720,
      "å±±": 721,
      "æ£Ģ": 722,
      "ä¹ł": 723,
      "ä¼ĺ": 724,
      "ç¼": 725,
      "å¤ĸ": 726,
      "åįĹ": 727,
      "å¤©": 728,
      "åĽĽ": 729,
      "å¢ĥ": 730,
      "å®Į": 731,
      "åģļ": 732,
      "æĪĸ": 733,
      "æŀĦ": 734,
      "äººåĳĺ": 735,
      "æĥħåĨµ": 736,
      "éĥ¨éĹ¨": 737,
      "åįĩ": 738,
      "æľ¯": 739,
      "äº§ä¸ļ": 740,
      "åĿļ": 741,
      "å·ŀ": 742,
      "åıĸ": 743,
      "è¿ĳ": 744,
      "æģ¯": 745,
      "èį": 746,
      "æµģ": 747,
      "é¦": 748,
      "ç¾¤": 749,
      "èģĮ": 750,
      "æİ¥": 751,
      "åı·": 752,
      "è¢": 753,
      "æĢģ": 754,
      "ç»Ń": 755,
      "æŃ£": 756,
      "ç»ĩ": 757,
      "é£İ": 758,
      "ä¼Ĺ": 759,
      "èµ·": 760,
      "ä¸ľ": 761,
      "ä»İ": 762,
      "åŀ": 763,
      "è¦ģæ±Ĥ": 764,
      "èĪ": 765,
      "ħ§": 766,
      "çģ": 767,
      "ä»·": 768,
      "åįı": 769,
      "è®¤": 770,
      "éª": 771,
      "æķĻèĤ²": 772,
      "ç»Ħç»ĩ": 773,
      "èĩ³": 774,
      "æī§": 775,
      "æµİ": 776,
      "å¤ĩ": 777,
      "éħ": 778,
      "æĿĥ": 779,
      "ä¹¡": 780,
      "èī²": 781,
      "è¢«": 782,
      "å¸¸": 783,
      "ç¦": 784,
      "æ®": 785,
      "åĮĹ": 786,
      "éĹ®é¢ĺ": 787,
      "åħ·": 788,
      "éľĢ": 789,
      "çŃĸ": 790,
      "ç§¯": 791,
      "ä¸Ńå¿ĥ": 792,
      "æİ¨è¿Ľ": 793,
      "åĪĴ": 794,
      "åıĹ": 795,
      "éĢļè¿ĩ": 796,
      "10": 797,
      "æĮī": 798,
      "æ¬¾": 799,
      "æīĵ": 800,
      "åĬ©": 801,
      "çŁ¥": 802,
      "ä¹Ł": 803,
      "ç®Ĺ": 804,
      "èĲ½å®ŀ": 805,
      "æľĢ": 806,
      "è¥": 807,
      "çĽ¸åħ³": 808,
      "ä¸ĩåħĥ": 809,
      "å²": 810,
      "ç§į": 811,
      "éĻ©": 812,
      "èĬĤ": 813,
      "éķĩ": 814,
      "æ±Ł": 815,
      "å¹²": 816,
      "ç»ıæµİ": 817,
      "èĢģ": 818,
      "å¦Ĥ": 819,
      "è¥¿": 820,
      "æ»": 821,
      "é©": 822,
      "è¯·": 823,
      "éĺŁ": 824,
      "å¼ķ": 825,
      "éĩĩè´Ń": 826,
      "æĪ·": 827,
      "èŀ": 828,
      "åŁŁ": 829,
      "æł¡": 830,
      "å·¥ç¨ĭ": 831,
      "ç±»": 832,
      "æ¯Ķ": 833,
      "åįİ": 834,
      "çİ¯å¢ĥ": 835,
      "åĸ": 836,
      "æİ§": 837,
      "çĥ": 838,
      "è¯Ħ": 839,
      "çĦ": 840,
      "ä¿¡æģ¯": 841,
      "èĭ": 842,
      "å®£": 843,
      "è¾¾": 844,
      "è´Ł": 845,
      "æĹł": 846,
      "æŀľ": 847,
      "å½¢": 848,
      "èŀį": 849,
      "çĶ±": 850,
      "æĶ¾": 851,
      "æł¸": 852,
      "çħ§": 853,
      "æŁ": 854,
      "è´£ä»»": 855,
      "åı£": 856,
      "çĶŁäº§": 857,
      "åĽ½å®¶": 858,
      "æĬĢæľ¯": 859,
      "èĢĥ": 860,
      "å·²": 861,
      "ä¾Ŀ": 862,
      "çĿ£": 863,
      "æĸĩåĮĸ": 864,
      "çĿĢ": 865,
      "è½¬": 866,
      "éļľ": 867,
      "äºĶ": 868,
      "åĽŃ": 869,
      "æ¸¸": 870,
      "æ¶Ī": 871,
      "å¤į": 872,
      "è´¢": 873,
      "åģ¥": 874,
      "ç¾İ": 875,
      "æ¸ħ": 876,
      "è´¨éĩı": 877,
      "æĭĽ": 878,
      "åĬłå¼º": 879,
      "âĢĿï¼Į": 880,
      "æıĲåįĩ": 881,
      "201": 882,
      "ä¼ļè®®": 883,
      "åĽ¢": 884,
      "çŁ": 885,
      "è¯Ĩ": 886,
      "æľª": 887,
      "åħĪ": 888,
      "ä½¿": 889,
      "è¿ĺ": 890,
      "ä¸¤": 891,
      "åŀĭ": 892,
      "æİĴ": 893,
      "è£": 894,
      "èİ": 895,
      "ä¸¥": 896,
      "æĹ¶éĹ´": 897,
      "å£": 898,
      "æıĲä¾Ľ": 899,
      "å¸Ĥåľº": 900,
      "è¡ĮæĶ¿": 901,
      "åĪĽæĸ°": 902,
      "æİ¨åĬ¨": 903,
      "æīĭ": 904,
      "åŁ¹": 905,
      "å¸ĥ": 906,
      "åĽł": 907,
      "æ¹": 908,
      "ç¾¤ä¼Ĺ": 909,
      "è¯´": 910,
      "å¸¦": 911,
      "ä¿Ŀéļľ": 912,
      "æ°Ķ": 913,
      "è§ģ": 914,
      "æĪ¿": 915,
      "æī¹": 916,
      "ä¸ĢæŃ¥": 917,
      "éĩįçĤ¹": 918,
      "éĻħ": 919,
      "èĤ¡": 920,
      "å¿«": 921,
      "æŀģ": 922,
      "åħ»": 923,
      "è§Ħå®ļ": 924,
      "Ġï¼Ī": 925,
      "æĦŁ": 926,
      "æŃ¤": 927,
      "éªĮ": 928,
      "ç¥ŀ": 929,
      "æĹħ": 930,
      "å®ŀæĸ½": 931,
      "ç«Ļ": 932,
      "å¾ĭ": 933,
      "åĽ´": 934,
      "æ²³": 935,
      "å¸Ī": 936,
      "éĴ": 937,
      "ä¸¾": 938,
      "æĪĺ": 939,
      "æĤ": 940,
      "æī¿": 941,
      "çĶ³": 942,
      "æ¨": 943,
      "ç½®": 944,
      "èº": 945,
      "æŀĹ": 946,
      "èµĦæºĲ": 947,
      "éĩįè¦ģ": 948,
      "æĸĻ": 949,
      "éĥ½": 950,
      "æľºæŀĦ": 951,
      "æĬĬ": 952,
      "æĶ¿çŃĸ": 953,
      "éĩĮ": 954,
      "è´Łè´£": 955,
      "è®©": 956,
      "ä¹ī": 957,
      "çĹ": 958,
      "èº«": 959,
      "ãĢĤâĢĿ": 960,
      "æľīéĻĲ": 961,
      "åŃ¦ä¹ł": 962,
      "æĺĵ": 963,
      "åĮħ": 964,
      "12": 965,
      "åħ¨éĿ¢": 966,
      "åº·": 967,
      "ä½ı": 968,
      "å®¹": 969,
      "éĤ": 970,
      "æĸĩä»¶": 971,
      "æł¹": 972,
      "ç¨İ": 973,
      "å®£ä¼ł": 974,
      "æ³¨": 975,
      "è¯ī": 976,
      "å¤´": 977,
      "çª": 978,
      "éĢī": 979,
      "æĢĿ": 980,
      "è§Ĩ": 981,
      "ä»½": 982,
      "æĸ¹å¼ı": 983,
      "è¯¥": 984,
      "é»": 985,
      "äº§åĵģ": 986,
      "å±ħ": 987,
      "ç²¾ç¥ŀ": 988,
      "å¿Ĺ": 989,
      "è¿Ŀ": 990,
      "æ¢": 991,
      "åĸĦ": 992,
      "ä»Ĭ": 993,
      "ä¹¦è®°": 994,
      "å®ŀçİ°": 995,
      "è¡¥": 996,
      "æ¨¡": 997,
      "åĶ": 998,
      "åŁİå¸Ĥ": 999,
      "çº¦": 1000,
      "é£Ł": 1001,
      "ç§ĳæĬĢ": 1002,
      "ä¿ĥ": 1003,
      "å¹³åı°": 1004,
      "çľŁ": 1005,
      "æĥ³": 1006,
      "éħį": 1007,
      "å±Ĥ": 1008,
      "æµĭ": 1009,
      "çĶŁæĢģ": 1010,
      "éĿĴ": 1011,
      "åħ´": 1012,
      "æĪĳä»¬": 1013,
      "æĸŃ": 1014,
      "åıĺ": 1015,
      "æ¯ı": 1016,
      "éĿ©": 1017,
      "æīį": 1018,
      "åī¯": 1019,
      "åĽŀ": 1020,
      "ç§¯æŀģ": 1021,
      "çı": 1022,
      "è®²": 1023,
      "æİª": 1024,
      "æĢ¥": 1025,
      "çĽĬ": 1026,
      "äº¬": 1027,
      "ç§°": 1028,
      "èİ·": 1029,
      "11": 1030,
      "æĬĵ": 1031,
      "åħħ": 1032,
      "ç©¶": 1033,
      "2023": 1034,
      "èµĦéĩĳ": 1035,
      "èĢĮ": 1036,
      "çĪ": 1037,
      "è¯ķ": 1038,
      "æĭħ": 1039,
      "æĴ": 1040,
      "ç»Ļ": 1041,
      "çĦ¶": 1042,
      "è®Ń": 1043,
      "æłĩåĩĨ": 1044,
      "30": 1045,
      "åıį": 1046,
      "çľĭ": 1047,
      "çİĩ": 1048,
      "æĬķæłĩ": 1049,
      "åħ³äºİ": 1050,
      "è§Ĥ": 1051,
      "å¯Ł": 1052,
      "çĸ«": 1053,
      "åŃĹ": 1054,
      "å°ĳ": 1055,
      "é¢Ŀ": 1056,
      "åĵį": 1057,
      "ç³»ç»Ł": 1058,
      "å®¤": 1059,
      "ä¾ĭ": 1060,
      "è±": 1061,
      "ç»´": 1062,
      "æĻº": 1063,
      "åĨĽ": 1064,
      "åĬ¿": 1065,
      "çĽ´": 1066,
      "å®ĮæĪĲ": 1067,
      "èµĽ": 1068,
      "åĪ«": 1069,
      "åŃĺ": 1070,
      "åĭ": 1071,
      "åĳ¨": 1072,
      "å½±": 1073,
      "é¢Ĩå¯¼": 1074,
      "å¼ł": 1075,
      "âĢĶ": 1076,
      "çĸĹ": 1077,
      "åĪĩ": 1078,
      "å®¢": 1079,
      "èŃ": 1080,
      "ä¸»è¦ģ": 1081,
      "èŃ¦": 1082,
      "åĪĹ": 1083,
      "æľīåħ³": 1084,
      "æĮģç»Ń": 1085,
      "æ¼": 1086,
      "çłĶç©¶": 1087,
      "æĶ¯åĩº": 1088,
      "è¯Ŀ": 1089,
      "éĿŀ": 1090,
      "æĬķèµĦ": 1091,
      "äº¿": 1092,
      "æ®µ": 1093,
      "æ»¡": 1094,
      "åĢ¼": 1095,
      "ç»¼": 1096,
      "åĲĮæĹ¶": 1097,
      "åį«": 1098,
      "èĥ½åĬĽ": 1099,
      "è£ħ": 1100,
      "éĶĢ": 1101,
      "èĦ": 1102,
      "ä¿ĿæĬ¤": 1103,
      "è¶³": 1104,
      "åħ¶ä»ĸ": 1105,
      "çºª": 1106,
      "çĬ": 1107,
      "éĺ³": 1108,
      "çº¢": 1109,
      "æıĲé«ĺ": 1110,
      "æĸ¹éĿ¢": 1111,
      "âĢĿãĢĤ": 1112,
      "éļ¾": 1113,
      "é¢Ħç®Ĺ": 1114,
      "äºĪ": 1115,
      "çĶŁæ´»": 1116,
      "æļ": 1117,
      "è¡Ĺ": 1118,
      "é¦ĸ": 1119,
      "çĽĳçĿ£": 1120,
      "åĿļæĮģ": 1121,
      "è¶ħ": 1122,
      "åľŁ": 1123,
      "æĿĲ": 1124,
      "èµ°": 1125,
      "æĻ¯": 1126,
      "ç¬¬ä¸Ģ": 1127,
      "èģļ": 1128,
      "çĹħ": 1129,
      "ä½Ļ": 1130,
      "å¹²éĥ¨": 1131,
      "é¾": 1132,
      "æ·±åħ¥": 1133,
      "ä»£è¡¨": 1134,
      "çİ°åľº": 1135,
      "åĲĪä½ľ": 1136,
      "åģļå¥½": 1137,
      "æĳ": 1138,
      "æĮ¥": 1139,
      "ç¤¾åĮº": 1140,
      "ç»ıèĲ¥": 1141,
      "åģ¥åº·": 1142,
      "ä½ľä¸º": 1143,
      "æĮīçħ§": 1144,
      "åıĮ": 1145,
      "è®º": 1146,
      "æĶ¯æĮģ": 1147,
      "Ġ1": 1148,
      "çĽĳç®¡": 1149,
      "ç»¿": 1150,
      "éĢģ": 1151,
      "æł¹æį®": 1152,
      "ç¡Ģ": 1153,
      "åŁºç¡Ģ": 1154,
      "ä»ĺ": 1155,
      "ç»¼åĲĪ": 1156,
      "åħŃ": 1157,
      "åħ¬åħ±": 1158,
      "æ£ĢæŁ¥": 1159,
      "åĬŁ": 1160,
      "çĻ¾": 1161,
      "åĪ¶åº¦": 1162,
      "ç©º": 1163,
      "ç½ļ": 1164,
      "è´¯": 1165,
      "çªģ": 1166,
      "äºī": 1167,
      "éĻ¤": 1168,
      "éĢŁ": 1169,
      "åĨħå®¹": 1170,
      "ä½¿çĶ¨": 1171,
      "ä¸Ģä¸ª": 1172,
      "è¡ĮåĬ¨": 1173,
      "ä¸įæĸŃ": 1174,
      "äº¤éĢļ": 1175,
      "åħ¨åĽ½": 1176,
      "ä¿®": 1177,
      "ç»Ĩ": 1178,
      "ç¨³": 1179,
      "åİĨ": 1180,
      "èį¯": 1181,
      "æĻ®": 1182,
      "æĹħæ¸¸": 1183,
      "ç¦ı": 1184,
      "è´¢æĶ¿": 1185,
      "æľºåĪ¶": 1186,
      "åĩı": 1187,
      "åħ¨å¸Ĥ": 1188,
      "æĶ¹éĿ©": 1189,
      "æ¹ĸ": 1190,
      "åºı": 1191,
      "çīĮ": 1192,
      "çº³": 1193,
      "çĮ": 1194,
      "åĪĻ": 1195,
      "å½ķ": 1196,
      "åıĤåĬł": 1197,
      "åŁ¹è®Ń": 1198,
      "15": 1199,
      "åħī": 1200,
      "éĵ¶": 1201,
      "çĥŃ": 1202,
      "å±ŀ": 1203,
      "ä»¥ä¸Ĭ": 1204,
      "çıŃ": 1205,
      "ä½İ": 1206,
      "2022": 1207,
      "æ³ķå¾ĭ": 1208,
      "æī§è¡Į": 1209,
      "ç¡®ä¿Ŀ": 1210,
      "çĻ»": 1211,
      "çĶ³è¯·": 1212,
      "åºĶæĢ¥": 1213,
      "èĳ": 1214,
      "åĳ½": 1215,
      "æİªæĸ½": 1216,
      "å½»": 1217,
      "åİ»": 1218,
      "åı²": 1219,
      "åĨľä¸ļ": 1220,
      "æľºåħ³": 1221,
      "æĪĸèĢħ": 1222,
      "è±¡": 1223,
      "è¡Įä¸ļ": 1224,
      "èĩ´": 1225,
      "æīĺ": 1226,
      "åĶ®": 1227,
      "æī§æ³ķ": 1228,
      "å¼ºåĮĸ": 1229,
      "äºĴ": 1230,
      "æķħ": 1231,
      "åĮ»çĸĹ": 1232,
      "è§ĦåĪĴ": 1233,
      "å±Ĭ": 1234,
      "ç´§": 1235,
      "19": 1236,
      "åĨľæĿĳ": 1237,
      "ä½ĵç³»": 1238,
      "æľīæķĪ": 1239,
      "æł·": 1240,
      "éĩįå¤§": 1241,
      "ä¸ļåĬ¡": 1242,
      "å»ºç«ĭ": 1243,
      "è¡Įä¸º": 1244,
      "è¾ĥ": 1245,
      "å¡": 1246,
      "é¥": 1247,
      "ç»ĵåĲĪ": 1248,
      "è¡¨ç¤º": 1249,
      "æĹı": 1250,
      "æĭĽæłĩ": 1251,
      "æ²»çĲĨ": 1252,
      "åĿĩ": 1253,
      "æķ°æį®": 1254,
      "äººæīį": 1255,
      "æķĳ": 1256,
      "æĬ¥åĳĬ": 1257,
      "è®¾æĸ½": 1258,
      "å¾·": 1259,
      "åĪĿ": 1260,
      "äº¤æĺĵ": 1261,
      "åı¯ä»¥": 1262,
      "æıĲåĩº": 1263,
      "çİĭ": 1264,
      "æŃ¢": 1265,
      "èĬ±": 1266,
      "é¾Ļ": 1267,
      "äº¿åħĥ": 1268,
      "ä½Ĩ": 1269,
      "æĺ¥": 1270,
      "ä¸ĵä¸ļ": 1271,
      "æīĵéĢł": 1272,
      "çķĮ": 1273,
      "èī¯": 1274,
      "è´¯å½»": 1275,
      "è´«": 1276,
      "åĮĹäº¬": 1277,
      "è¿ĳå¹³": 1278,
      "ç¼ĸ": 1279,
      "çĸ«æĥħ": 1280,
      "æĮĩå¯¼": 1281,
      "å¢ŀéķ¿": 1282,
      "å¤®": 1283,
      "çī¹èī²": 1284,
      "åŁºæľ¬": 1285,
      "çĲĥ": 1286,
      "åĦ": 1287,
      "ä»¥åıĬ": 1288,
      "åĽ¾": 1289,
      "çŃ¾": 1290,
      "å¯Į": 1291,
      "æĺ¾": 1292,
      "ç«ł": 1293,
      "åıĳå¸ĥ": 1294,
      "æ°´å¹³": 1295,
      "ä»»åĬ¡": 1296,
      "ç±³": 1297,
      "è§ĦèĮĥ": 1298,
      "åĨį": 1299,
      "ç½²": 1300,
      "äºĳ": 1301,
      "èĻ": 1302,
      "åŃ¦æł¡": 1303,
      "2020": 1304,
      "æ¶Īè´¹": 1305,
      "åİħ": 1306,
      "æ²¡": 1307,
      "æĹ¶ä»£": 1308,
      "å®ĮåĸĦ": 1309,
      "åħ¶ä¸Ń": 1310,
      "åıĬæĹ¶": 1311,
      "åıĤä¸İ": 1312,
      "åĲĪåĲĮ": 1313,
      "ä¾Ŀæ³ķ": 1314,
      "è¾¹": 1315,
      "çĭ": 1316,
      "å¹´åº¦": 1317,
      "åħ¬åĳĬ": 1318,
      "è¯¢": 1319,
      "ĭç»": 1320,
      "é£İéĻ©": 1321,
      "é¢ĨåŁŁ": 1322,
      "ĠâĢľ": 1323,
      "åħ¬å¼Ģ": 1324,
      "åł": 1325,
      "ç¢": 1326,
      "æĢĿæĥ³": 1327,
      "éĻį": 1328,
      "ä¹¡æĿĳ": 1329,
      "2021": 1330,
      "åĦ¿": 1331,
      "è®¸": 1332,
      "ä»Ĭå¹´": 1333,
      "ç¬¬äºĮ": 1334,
      "ä¸Ńåįİ": 1335,
      "å¤±": 1336,
      "æ¥": 1337,
      "çĪ±": 1338,
      "ä¾ĽåºĶ": 1339,
      "ä¸ĸ": 1340,
      "ä¿ĥè¿Ľ": 1341,
      "åį°": 1342,
      "æĦıè§ģ": 1343,
      "Ġ2": 1344,
      "å®³": 1345,
      "åĪ¤": 1346,
      "å®ģ": 1347,
      "æĶ¿æ²»": 1348,
      "åĬłå¿«": 1349,
      "åĽ½éĻħ": 1350,
      "å¿ħ": 1351,
      "æĸ¹æ¡Ī": 1352,
      "éĩĳèŀį": 1353,
      "åºķ": 1354,
      "çŃĳ": 1355,
      "å¯Ĩ": 1356,
      "å¸®": 1357,
      "åŃ¦çĶŁ": 1358,
      "çģ¾": 1359,
      "ç»ľ": 1360,
      "ä¹Ĳ": 1361,
      "2024": 1362,
      "èģĶåĲĪ": 1363,
      "è§£åĨ³": 1364,
      "èīº": 1365,
      "çĽ®åīį": 1366,
      "èģĶç³»": 1367,
      "å®Ī": 1368,
      "çĽ®æłĩ": 1369,
      "å®ŀéĻħ": 1370,
      "åħħåĪĨ": 1371,
      "å§Ķåĳĺ": 1372,
      "å¥ĸ": 1373,
      "è¯¾": 1374,
      "æĿİ": 1375,
      "éĺ²æİ§": 1376,
      "è®¡åĪĴ": 1377,
      "åĻ": 1378,
      "æŁĲ": 1379,
      "æĲ": 1380,
      "å±¥": 1381,
      "è¢«åĳĬ": 1382,
      "é»Ħ": 1383,
      "æ¸©": 1384,
      "ä¾¿": 1385,
      "äº«": 1386,
      "éļı": 1387,
      "åºĶå½ĵ": 1388,
      "ç¥¨": 1389,
      "å½±åĵį": 1390,
      "åı¬": 1391,
      "è¿Ŀæ³ķ": 1392,
      "åį«çĶŁ": 1393,
      "åıĳæĮ¥": 1394,
      "æĿĲæĸĻ": 1395,
      "åĽ°": 1396,
      "æĶ¶åħ¥": 1397,
      "å¸Ń": 1398,
      "åį³": 1399,
      "çģ«": 1400,
      "åĬŀçĲĨ": 1401,
      "äºĽ": 1402,
      "åºŃ": 1403,
      "ç§ĳåŃ¦": 1404,
      "é©¬": 1405,
      "000": 1406,
      "äºĭä¸ļ": 1407,
      "æ¶ī": 1408,
      "è¿ŀ": 1409,
      "æ¼Ķ": 1410,
      "ç»©": 1411,
      "æ½": 1412,
      "ä¸Ńå¤®": 1413,
      "åįł": 1414,
      "æī¶": 1415,
      "çīĩ": 1416,
      "ç´ł": 1417,
      "åĬ±": 1418,
      "è¾ĵ": 1419,
      "éľĢæ±Ĥ": 1420,
      "éŁ": 1421,
      "ä¿ĿéĻ©": 1422,
      "å¾ģ": 1423,
      "æĤ£": 1424,
      "è¿°": 1425,
      "å¤Ħç½ļ": 1426,
      "è®¿": 1427,
      "å¸Ĥå§Ķ": 1428,
      "æĿ¡ä»¶": 1429,
      "ä¸ĵé¡¹": 1430,
      "13": 1431,
      "æĦ¿": 1432,
      "éĥ¨åĪĨ": 1433,
      "ä¸»é¢ĺ": 1434,
      "å¿µ": 1435,
      "è·µ": 1436,
      "åĬ³": 1437,
      "åľ°åĮº": 1438,
      "âĢĿâĢľ": 1439,
      "æ±¡": 1440,
      "éĥ¨ç½²": 1441,
      "åħļçļĦ": 1442,
      "14": 1443,
      "äºĨè§£": 1444,
      "ç¼´": 1445,
      "æ¸¯": 1446,
      "é¡»": 1447,
      "éĢĢ": 1448,
      "å¾®": 1449,
      "æ¤": 1450,
      "ç«ŀ": 1451,
      "ä½ľçĶ¨": 1452,
      "å¤ĦçĲĨ": 1453,
      "åĻ¨": 1454,
      "æĪª": 1455,
      "å¾Ī": 1456,
      "èı": 1457,
      "å£«": 1458,
      "å·¥ä¸ļ": 1459,
      "åħ±åĲĮ": 1460,
      "ç½ĳç»ľ": 1461,
      "åħļåĳĺ": 1462,
      "ä¸´": 1463,
      "çŁ³": 1464,
      "çĽĸ": 1465,
      "18": 1466,
      "ç»§": 1467,
      "åħ«": 1468,
      "æĸĩæĺİ": 1469,
      "åĮºåŁŁ": 1470,
      "åįĪ": 1471,
      "å°±ä¸ļ": 1472,
      "åºĨ": 1473,
      "èĪª": 1474,
      "âĢ¦": 1475,
      "éĢĤ": 1476,
      "é¦Ĩ": 1477,
      "åİŁåĳĬ": 1478,
      "è´§": 1479,
      "åĪĩå®ŀ": 1480,
      "éľĢè¦ģ": 1481,
      "ï¼ĮâĢľ": 1482,
      "æĴŃ": 1483,
      "å¥³": 1484,
      "æľŁéĹ´": 1485,
      "èĭı": 1486,
      "åĬŀåħ¬": 1487,
      "éĵģ": 1488,
      "æ¿": 1489,
      "èµĦæł¼": 1490,
      "16": 1491,
      "éĵ¾": 1492,
      "ä¸°": 1493,
      "ä¸ĥ": 1494,
      "å²Ĺ": 1495,
      "åı¤": 1496,
      "è®¾å¤ĩ": 1497,
      "ä½ķ": 1498,
      "è¶Ĭ": 1499,
      "å½¢æĪĲ": 1500,
      "åı¬å¼Ģ": 1501,
      "çŁ¥è¯Ĩ": 1502,
      "çķ¥": 1503,
      "ç¤ºèĮĥ": 1504,
      "åŁºå±Ĥ": 1505,
      "åıĳçİ°": 1506,
      "åıĳçĶŁ": 1507,
      "æĪĲä¸º": 1508,
      "æľ¬æ¬¡": 1509,
      "çł´": 1510,
      "çĶµåŃĲ": 1511,
      "æķ´æĶ¹": 1512,
      "åŃ£": 1513,
      "åĪ©çĶ¨": 1514,
      "å¼Ģåıĳ": 1515,
      "æŁĵ": 1516,
      "æķ°åŃĹ": 1517,
      "æĮ¯": 1518,
      "éĻĪ": 1519,
      "è®°èĢħ": 1520,
      "çĻ½": 1521,
      "50": 1522,
      "%ï¼Į": 1523,
      "éĽĨåĽ¢": 1524,
      "ç´¢": 1525,
      "å±ħæ°ĳ": 1526,
      "çĬ¶": 1527,
      "çİ°ä»£": 1528,
      "éĢļçŁ¥": 1529,
      "è¿ĩç¨ĭ": 1530,
      "åĤ": 1531,
      "åħ·æľī": 1532,
      "æ¥¼": 1533,
      "åŃĺåľ¨": 1534,
      "ä¸¥æł¼": 1535,
      "è®¢": 1536,
      "å·ŀå¸Ĥ": 1537,
      "%ãĢĤ": 1538,
      "è½½": 1539,
      "ç¬¦": 1540,
      "éĵ¶è¡Į": 1541,
      "è°Ī": 1542,
      "æłĳ": 1543,
      "åİĭ": 1544,
      "çĮ®": 1545,
      "åįļ": 1546,
      "æ¿Ģ": 1547,
      "ç§»": 1548,
      "å·±": 1549,
      "äº¤æµģ": 1550,
      "å¾ħ": 1551,
      "Ġ3": 1552,
      "ä¸»ä½ĵ": 1553,
      "ç¦»": 1554,
      "ä»¥æĿ¥": 1555,
      "ä¸»ä¹ī": 1556,
      "çĻ»è®°": 1557,
      "åĲ¯": 1558,
      "å·¡": 1559,
      "åĽº": 1560,
      "è¡Ĺéģĵ": 1561,
      "æĪĳå¸Ĥ": 1562,
      "èħ": 1563,
      "åºĵ": 1564,
      "ä¹Ŀ": 1565,
      "æľĽ": 1566,
      "å®īæİĴ": 1567,
      "åħ·ä½ĵ": 1568,
      "åºĹ": 1569,
      "ç»ķ": 1570,
      "åº§": 1571,
      "æķ´æ²»": 1572,
      "æ±ĩ": 1573,
      "æĻºèĥ½": 1574,
      "ä¼ĺåĮĸ": 1575,
      "17": 1576,
      "åĲ¬": 1577,
      "äºĭé¡¹": 1578,
      "æĸ½å·¥": 1579,
      "æĪĲæŀľ": 1580,
      "æ²¡æľī": 1581,
      "äºļ": 1582,
      "çŃ¹": 1583,
      "åģľ": 1584,
      "åĲĦé¡¹": 1585,
      "å¢ŀåĬł": 1586,
      "è´·": 1587,
      "æĵ": 1588,
      "24": 1589,
      "ä»¥ä¸ĭ": 1590,
      "åĵģçīĮ": 1591,
      "è¾Ĩ": 1592,
      "èĮĥåĽ´": 1593,
      "åĨ³å®ļ": 1594,
      "æİ¢": 1595,
      "åıª": 1596,
      "æ²¹": 1597,
      "æŃ¦": 1598,
      "äººçļĦ": 1599,
      "è´¸": 1600,
      "é£Łåĵģ": 1601,
      "å·Ŀ": 1602,
      "100": 1603,
      "å¾Ģ": 1604,
      "èĩªå·±": 1605,
      "å¢ŀå¼º": 1606,
      "åħį": 1607,
      "æĥł": 1608,
      "æ¤į": 1609,
      "åİĨåı²": 1610,
      "å³": 1611,
      "è®¾è®¡": 1612,
      "éĴĪ": 1613,
      "æĭ¬": 1614,
      "åħĭ": 1615,
      "çĶ°": 1616,
      "å¥Ĺ": 1617,
      "æĶ»": 1618,
      "ä¹°": 1619,
      "ç¬¦åĲĪ": 1620,
      "2019": 1621,
      "è¯»": 1622,
      "è¿Ĳè¡Į": 1623,
      "æĦıè¯Ĩ": 1624,
      "å»ºçŃĳ": 1625,
      "è¿ľ": 1626,
      "æħ": 1627,
      "åĮ»éĻ¢": 1628,
      "ç®Ģ": 1629,
      "è®¤çľŁ": 1630,
      "åıĸå¾Ĺ": 1631,
      "çī¢": 1632,
      "åĽ´ç»ķ": 1633,
      "éĽĨä¸Ń": 1634,
      "åıĭ": 1635,
      "çķĻ": 1636,
      "æĺİç¡®": 1637,
      "åĮħæĭ¬": 1638,
      "ä¸Ĭæµ·": 1639,
      "ç»¿èī²": 1640,
      "åģĩ": 1641,
      "åŁºåľ°": 1642,
      "æįŁ": 1643,
      "è´¦": 1644,
      "æĿ¿": 1645,
      "å¨": 1646,
      "åĪ¶å®ļ": 1647,
      "ĭç»į": 1648,
      "ä»ĭç»į": 1649,
      "æİĪ": 1650,
      "èĩªçĦ¶": 1651,
      "ï¼Ł": 1652,
      "å»¶": 1653,
      "ä»ĸä»¬": 1654,
      "å£°": 1655,
      "ä¼ĺåĬ¿": 1656,
      "æ¡¥": 1657,
      "æĶ¹éĢł": 1658,
      "åĴĮåĽ½": 1659,
      "ĠĊ": 1660,
      "ä½ĵèĤ²": 1661,
      "ç§Ł": 1662,
      "çº·": 1663,
      "ä»ħ": 1664,
      "é¼": 1665,
      "åħ¨çľģ": 1666,
      "è°ĥæŁ¥": 1667,
      "25": 1668,
      "çĭ¬": 1669,
      "åĲ«": 1670,
      "æĪĺçķ¥": 1671,
      "åĪĺ": 1672,
      "ä¸»ä»»": 1673,
      "éļĲ": 1674,
      "è¨": 1675,
      "æ³ķéĻ¢": 1676,
      "è¨Ģ": 1677,
      "åĬĽéĩı": 1678,
      "æ¨¡å¼ı": 1679,
      "ç¬¬ä¸ī": 1680,
      "æ¡Īä»¶": 1681,
      "æĶ¯ä»ĺ": 1682,
      "å§Ķä¼ļ": 1683,
      "å±¥è¡Į": 1684,
      "ç»´æĬ¤": 1685,
      "æ±½": 1686,
      "èĤ¡ä»½": 1687,
      "æĭī": 1688,
      "æī©": 1689,
      "ä¸ªäºº": 1690,
      "ä»·æł¼": 1691,
      "å°Ķ": 1692,
      "è¿Ĳè¾ĵ": 1693,
      "å¤§åŃ¦": 1694,
      "è´´": 1695,
      "å®ľ": 1696,
      "ãĢĭï¼Į": 1697,
      "éĻĦ": 1698,
      "å®ŀè·µ": 1699,
      "åĬŀæ³ķ": 1700,
      "å»ºè®®": 1701,
      "çĦ¦": 1702,
      "ç»§ç»Ń": 1703,
      "ç»Ī": 1704,
      "200": 1705,
      "ä¸ĸçķĮ": 1706,
      "æī¬": 1707,
      "ä¼į": 1708,
      "åĬ³åĬ¨": 1709,
      "ç»Łä¸Ģ": 1710,
      "å°½": 1711,
      "èģĺ": 1712,
      "åĬłå¤§": 1713,
      "åĪ¸": 1714,
      "é²": 1715,
      "å§ĭ": 1716,
      "å¼ķå¯¼": 1717,
      "ç§Ģ": 1718,
      "åįĬ": 1719,
      "å¹´æĿ¥": 1720,
      "èŀįåĲĪ": 1721,
      "å½¢å¼ı": 1722,
      "æ·±åĮĸ": 1723,
      "èĳ£": 1724,
      "å¼Ĥ": 1725,
      "è®¼": 1726,
      "è°ĥçłĶ": 1727,
      "è¯¦": 1728,
      "åĲ¦": 1729,
      "ä¿¡çĶ¨": 1730,
      "è¯īè®¼": 1731,
      "å¥ĭ": 1732,
      "åĨĮ": 1733,
      "åįĥ": 1734,
      "åħ¬å®ī": 1735,
      "èįī": 1736,
      "é¢ĳ": 1737,
      "ç«¯": 1738,
      "åıĪ": 1739,
      "æĮ¯åħ´": 1740,
      "æĸ¯": 1741,
      "çĽĳæµĭ": 1742,
      "å¼ºè°ĥ": 1743,
      "åºĶçĶ¨": 1744,
      "åŁºéĩĳ": 1745,
      "æĹ¥èµ·": 1746,
      "äº²": 1747,
      "éģĹ": 1748,
      "æ°ĳæĹı": 1749,
      "ï¼īï¼Į": 1750,
      "Ġä¸Ģ": 1751,
      "éģĩ": 1752,
      "æŀĲ": 1753,
      "ä¸Ķ": 1754,
      "è¯ģæĺİ": 1755,
      "åģ¿": 1756,
      "ãĢĭï¼Ī": 1757,
      "èī¯å¥½": 1758,
      "ä¹Ī": 1759,
      "éĺ¶": 1760,
      "åĬĽåº¦": 1761,
      "äºĭæķħ": 1762,
      "éĢĲ": 1763,
      "æ³ķæ²»": 1764,
      "åħ³ç³»": 1765,
      "èĥ½æºĲ": 1766,
      "åĪ»": 1767,
      "27": 1768,
      "åį¡": 1769,
      "çĶ³æĬ¥": 1770,
      "ä½ł": 1771,
      "23": 1772,
      "åį±": 1773,
      "åª": 1774,
      "ä¸ĵå®¶": 1775,
      "æĽ´å¤ļ": 1776,
      "èģĮå·¥": 1777,
      "åįıè°ĥ": 1778,
      "åĩ»": 1779,
      "æĪĲç«ĭ": 1780,
      "ãĢĤâĢľ": 1781,
      "ä¼łç»Ł": 1782,
      "éģĵè·¯": 1783,
      "åĤ¨": 1784,
      "èĩªæ²»": 1785,
      "è§Ħæ¨¡": 1786,
      "æ¦": 1787,
      "çļĦä¸Ģ": 1788,
      "åİĤ": 1789,
      "åĲĦç±»": 1790,
      "Â·": 1791,
      "ç»ĵæŀľ": 1792,
      "å¤§ä¼ļ": 1793,
      "è¯Ĭ": 1794,
      "åĢŁ": 1795,
      "çłģ": 1796,
      "é¸": 1797,
      "å½©": 1798,
      "çĸ¾": 1799,
      "æ´¾": 1800,
      "åĿĢ": 1801,
      "èĦ±": 1802,
      "ç¨³å®ļ": 1803,
      "éĶĢåĶ®": 1804,
      "ä»£çĲĨ": 1805,
      "æ¶Īéĺ²": 1806,
      "28": 1807,
      "å®¶åºŃ": 1808,
      "ï¼īãĢĤ": 1809,
      "ä½ľåĩº": 1810,
      "èµĦäº§": 1811,
      "å¿ĹæĦ¿": 1812,
      "æı´": 1813,
      "éĽ¶": 1814,
      "å·²ç»ı": 1815,
      "é¡º": 1816,
      "èį£": 1817,
      "éĴĪå¯¹": 1818,
      "å®¡è®¡": 1819,
      "éĽ¨": 1820,
      "æĪĲåĳĺ": 1821,
      "èĵ": 1822,
      "æĭ¨": 1823,
      "åĲįç§°": 1824,
      "ä¸ŃçļĦ": 1825,
      "åħ¸": 1826,
      "æĸĹ": 1827,
      "éĺŁä¼į": 1828,
      "å¤§å®¶": 1829,
      "Ġåľ¨": 1830,
      "åĬª": 1831,
      "âĢĶâĢĶ": 1832,
      "åħ¨åĬĽ": 1833,
      "âĢĿãĢģ": 1834,
      "26": 1835,
      "çŁŃ": 1836,
      "éĶ®": 1837,
      "çĩ": 1838,
      "éļĲæĤ£": 1839,
      "è½»": 1840,
      "æ¯Ĵ": 1841,
      "ä¸Ńå°ı": 1842,
      "åĬŁèĥ½": 1843,
      "æī¿æĭħ": 1844,
      "åħļå§Ķ": 1845,
      "è§Ĵ": 1846,
      "äººå¤§": 1847,
      "ç»ĥ": 1848,
      "åĬªåĬĽ": 1849,
      "er": 1850,
      "ä¿Ŀè¯ģ": 1851,
      "è¾¾åĪ°": 1852,
      "ä¼ĳ": 1853,
      "åªĴ": 1854,
      "æĹ©": 1855,
      "æĺŁ": 1856,
      "ç»ŁçŃ¹": 1857,
      "åĪĽä¸ļ": 1858,
      "èĮ¶": 1859,
      "åĨĻ": 1860,
      "ä¸¾åĬŀ": 1861,
      "ç´¯": 1862,
      "èİ·å¾Ĺ": 1863,
      "è°ĥæķ´": 1864,
      "ä¸»åĬ¨": 1865,
      "éĽª": 1866,
      "æĽ´åĬł": 1867,
      "æ±½è½¦": 1868,
      "å®¡æī¹": 1869,
      "è¿İ": 1870,
      "å®ĺ": 1871,
      "ä¸įå¾Ĺ": 1872,
      "è´µ": 1873,
      "æ³ķè§Ħ": 1874,
      "ç½ª": 1875,
      "ä¸½": 1876,
      "ä»¤": 1877,
      "çĶµè¯Ŀ": 1878,
      "å¹¿å¤§": 1879,
      "on": 1880,
      "æ±ī": 1881,
      "èıľ": 1882,
      "40": 1883,
      "é¼ĵ": 1884,
      "åĺ": 1885,
      "è´¡": 1886,
      "æį¢": 1887,
      "å¼ĢæĶ¾": 1888,
      "çŃĶ": 1889,
      "èĳ£äºĭ": 1890,
      "åĪĨåĪ«": 1891,
      "è§ī": 1892,
      "ãĢĶ": 1893,
      "æıĲäº¤": 1894,
      "ãĢķ": 1895,
      "åģļåĪ°": 1896,
      "éĢĴ": 1897,
      "¤Ĳ": 1898,
      "åĪĨæŀĲ": 1899,
      "æ®ĭ": 1900,
      "ä¸Ģæ¬¡": 1901,
      "æĶ»åĿļ": 1902,
      "çªģåĩº": 1903,
      "éĩĩåıĸ": 1904,
      "åĲĮå¿Ĺ": 1905,
      "æ²Ļ": 1906,
      "æ£Ģæµĭ": 1907,
      "é¤Ĳ": 1908,
      "æŃ¤æ¬¡": 1909,
      "åĪ¶éĢł": 1910,
      "åħ¬ç¤º": 1911,
      "åľŁåľ°": 1912,
      "æĭŁ": 1913,
      "åŃ©": 1914,
      "å¥¹": 1915,
      "ç»ĻäºĪ": 1916,
      "åħ»èĢģ": 1917,
      "å®Ŀ": 1918,
      "çĬ¯": 1919,
      "æīİ": 1920,
      "æł¸å¿ĥ": 1921,
      "æĭĵ": 1922,
      "èĪ¬": 1923,
      "å§Ķæīĺ": 1924,
      "èģļçĦ¦": 1925,
      "åħ³éĶ®": 1926,
      "å¸Ĥæ°ĳ": 1927,
      "60": 1928,
      "ï¼ļâĢľ": 1929,
      "è¶ħè¿ĩ": 1930,
      "ĠäºĮ": 1931,
      "è¦Ĩ": 1932,
      "æ´¥": 1933,
      "âĢĻ": 1934,
      "èģĮä¸ļ": 1935,
      "ç£": 1936,
      "éĩĳé¢Ŀ": 1937,
      "ç³»åĪĹ": 1938,
      "22": 1939,
      "âĢĺ": 1940,
      "é©»": 1941,
      "æĮĩåĩº": 1942,
      "è´¹çĶ¨": 1943,
      "ä½ıæĪ¿": 1944,
      "éŁ³": 1945,
      "ç«¥": 1946,
      "é¦Ļ": 1947,
      "æĿ¨": 1948,
      "å°±æĺ¯": 1949,
      "æŀĦå»º": 1950,
      "éħĴ": 1951,
      "æľªæĿ¥": 1952,
      "el": 1953,
      "åĪĽå»º": 1954,
      "åĲ¸": 1955,
      "ï¼ģ": 1956,
      "ç¨ĭåºı": 1957,
      "æħ§": 1958,
      "åĩł": 1959,
      "æı¡": 1960,
      "è®°å½ķ": 1961,
      "èĭ±": 1962,
      "éĿ¢ç§¯": 1963,
      "Ġ4": 1964,
      "é»ĳ": 1965,
      "ä¼Ł": 1966,
      "è¯Ħä»·": 1967,
      "å¤Ħç½®": 1968,
      "åľ°çĤ¹": 1969,
      "æ±¡æŁĵ": 1970,
      "ç²®": 1971,
      "è½¦è¾Ĩ": 1972,
      "è®²è¯Ŀ": 1973,
      "éĹ»": 1974,
      "é£ŀ": 1975,
      "æİ¥åıĹ": 1976,
      "èĢĥæł¸": 1977,
      "è®¸åı¯": 1978,
      "ä¼°": 1979,
      "æ°¸": 1980,
      "åĢº": 1981,
      "çĵ": 1982,
      "æİĴæŁ¥": 1983,
      "äº®": 1984,
      "æī£": 1985,
      "åľ°æĸ¹": 1986,
      "é½": 1987,
      "ï¼īãĢģ": 1988,
      "å¤§åĬĽ": 1989,
      "åłĤ": 1990,
      "å¼ķé¢Ĩ": 1991,
      "ç»ıè´¹": 1992,
      "åı¯èĥ½": 1993,
      "èģĮè´£": 1994,
      "æĵį": 1995,
      "one": 1996,
      "è´·æ¬¾": 1997,
      "Ġ0": 1998,
      "åĲĦçº§": 1999,
      "é¥®": 2000,
      "éĿĴå¹´": 2001,
      "ä¸įåĲĮ": 2002,
      "hone": 2003,
      "um": 2004,
      "åĢĻ": 2005,
      "éĺ¶æ®µ": 2006,
      "è·¨": 2007,
      "29": 2008,
      "ç¿": 2009,
      "æĸ°åĮº": 2010,
      "åŁİä¹¡": 2011,
      "å²Ĺä½į": 2012,
      "æ´ģ": 2013,
      "ber": 2014,
      "Ġn": 2015,
      "å¤ª": 2016,
      "å²Ľ": 2017,
      "åĴ¨": 2018,
      "è¾ĸ": 2019,
      "åĽŃåĮº": 2020,
      "è¦ĨçĽĸ": 2021,
      "å¿ħé¡»": 2022,
      "phone": 2023,
      "è¯´æĺİ": 2024,
      "umber": 2025,
      "2018": 2026,
      "è¿½": 2027,
      "æ³ķå®ļ": 2028,
      "æĳĦ": 2029,
      "å»ī": 2030,
      "ç²¾åĩĨ": 2031,
      "å¸Į": 2032,
      "åģ¥åħ¨": 2033,
      "è¿Ľåħ¥": 2034,
      "æİ¢ç´¢": 2035,
      "å¼Ģå§ĭ": 2036,
      "å¤Ł": 2037,
      "èĴ": 2038,
      "çļĦæĸ°": 2039,
      "å¸®åĬ©": 2040,
      "æ¡£": 2041,
      "è´¡çĮ®": 2042,
      "ç©ºéĹ´": 2043,
      "åĴ¨è¯¢": 2044,
      "ç¬¬åįģ": 2045,
      "æĬ¥åĲį": 2046,
      "ç»ıéªĮ": 2047,
      "çīĪ": 2048,
      "èµĦæĸĻ": 2049,
      "æľ¨": 2050,
      "å±ĭ": 2051,
      "æķĻå¸Ī": 2052,
      "è®¤ä¸º": 2053,
      "ä¼¤": 2054,
      "æĶ¿åĬ¡": 2055,
      "äº©": 2056,
      "æ»¡è¶³": 2057,
      "å³°": 2058,
      "çİ¯èĬĤ": 2059,
      "åĽ°éļ¾": 2060,
      "ç¡®å®ļ": 2061,
      "æĺł": 2062,
      "åı¸æ³ķ": 2063,
      "è£ģ": 2064,
      "äºĨä¸Ģ": 2065,
      "æ¸ł": 2066,
      "é½Ĳ": 2067,
      "åĬ©åĬĽ": 2068,
      "åħļå»º": 2069,
      "ä¿ĿæĮģ": 2070,
      "æľŁéĻĲ": 2071,
      "ä¸ĢèĪ¬": 2072,
      "åħµ": 2073,
      "åįĩçº§": 2074,
      "å®¡æŁ¥": 2075,
      "21": 2076,
      "ä¸Ģä½ĵ": 2077,
      "åħ¨çĲĥ": 2078,
      "åŃ©åŃĲ": 2079,
      "åİŁåĽł": 2080,
      "Ġä¸ī": 2081,
      "æľ¬éĻ¢": 2082,
      "æ³¨åĨĮ": 2083,
      "åİŁåĪĻ": 2084,
      "æ²Ł": 2085,
      "è¯ļ": 2086,
      "ä¸įèĥ½": 2087,
      "ä¹Łæĺ¯": 2088,
      "ä¸°å¯Į": 2089,
      "å½ĵäºĭ": 2090,
      "å¯¹äºİ": 2091,
      "èĹ": 2092,
      "âĢ¦âĢ¦": 2093,
      "çĲĨå¿µ": 2094,
      "é«ĺåº¦": 2095,
      "è¡Ģ": 2096,
      "å°ıåĮº": 2097,
      "æĬĹ": 2098,
      "åŁ¹èĤ²": 2099,
      "è¯Ń": 2100,
      "éĤ®": 2101,
      "çİī": 2102,
      "éĢīæĭ": 2103,
      "æīĢæľī": 2104,
      "æĻºæħ§": 2105,
      "å·®": 2106,
      "åħļç»Ħ": 2107,
      "æĮĩæłĩ": 2108,
      "åĩıå°ĳ": 2109,
      "æĬĵå¥½": 2110,
      "è½®": 2111,
      "æ³¢": 2112,
      "è¯ģåĪ¸": 2113,
      "æĿ¡ä¾ĭ": 2114,
      "åħ¬è·¯": 2115,
      "åĲĮæ¯Ķ": 2116,
      "çī¹åĪ«": 2117,
      "æĶ¿åįı": 2118,
      "åĨł": 2119,
      "åħ³æ³¨": 2120,
      "è¿ĳæĹ¥": 2121,
      "èĦ±è´«": 2122,
      "çħ": 2123,
      "æİ§åĪ¶": 2124,
      "åī§": 2125,
      "åĿļåĨ³": 2126,
      "éĤ£": 2127,
      "ä¾Ŀæį®": 2128,
      "æ°ĳçĶŁ": 2129,
      "æľĢé«ĺ": 2130,
      "çľ¼": 2131,
      "å°ıç»Ħ": 2132,
      "äºĪä»¥": 2133,
      "ç¯": 2134,
      "ç»Łè®¡": 2135,
      "ãĢĭãĢĬ": 2136,
      "æĸ°çļĦ": 2137,
      "æļĸ": 2138,
      "åįıè®®": 2139,
      "ĥåľ": 2140,
      "çĿĢåĬĽ": 2141,
      "åŀĥåľ": 2142,
      "åŀĥåľ¾": 2143,
      "éī": 2144,
      "éī´": 2145,
      "åĿĹ": 2146,
      "çłĶåıĳ": 2147,
      "çŁ¿": 2148,
      "æĺĮ": 2149,
      "æĪªèĩ³": 2150,
      "åħ°": 2151,
      "ç¢³": 2152,
      "åºŁ": 2153,
      "å¹ħ": 2154,
      "æĪĲåĬŁ": 2155,
      "è¿ĲåĬ¨": 2156,
      "é¹": 2157,
      "æ¬¢": 2158,
      "è®¨": 2159,
      "åºĦ": 2160,
      "å¸ģ": 2161,
      "æĿ¾": 2162,
      "æ²¿": 2163,
      "ç»ĵæŀĦ": 2164,
      "èĥľ": 2165,
      "ä»·åĢ¼": 2166,
      "æĺ¯åĲ¦": 2167,
      "ä¸¤ä¸ª": 2168,
      "å¦Ĥä¸ĭ": 2169,
      "çĸĳ": 2170,
      "ä¼ĺç§Ģ": 2171,
      "åħ¨éĥ¨": 2172,
      "åĵįåºĶ": 2173,
      "80": 2174,
      "æī¾": 2175,
      "ä¸¥éĩį": 2176,
      "å¤ı": 2177,
      "å»ºæĪĲ": 2178,
      "åĩºçİ°": 2179,
      "è¯º": 2180,
      "çĨ": 2181,
      "æĪĲæķĪ": 2182,
      "çľģå§Ķ": 2183,
      "ä»ª": 2184,
      "åªĴä½ĵ": 2185,
      "ç¦ģ": 2186,
      "å¸ĮæľĽ": 2187,
      "è°¢": 2188,
      "å·´": 2189,
      "åĪ°äºĨ": 2190,
      "è¯Ħä¼°": 2191,
      "èİ·åıĸ": 2192,
      "æİ¨å¹¿": 2193,
      "å¤§çļĦ": 2194,
      "å²ģ": 2195,
      "åĨľæ°ĳ": 2196,
      "æĬķåħ¥": 2197,
      "è·Ł": 2198,
      "åĲ¯åĬ¨": 2199,
      "ç¨İåĬ¡": 2200,
      "åĦ¿ç«¥": 2201,
      "äº§æĿĥ": 2202,
      "åŁİåĮº": 2203,
      "åįĸ": 2204,
      "ä½ĵéªĮ": 2205,
      "èĶ": 2206,
      "ç¼ĸåĪ¶": 2207,
      "ç´¯è®¡": 2208,
      "ç½ĳç«Ļ": 2209,
      "è°ĭ": 2210,
      "åĥ": 2211,
      "æ¹¾": 2212,
      "çĩĥ": 2213,
      "éĽĨä½ĵ": 2214,
      "å¹¸": 2215,
      "çºł": 2216,
      "æ£®": 2217,
      "èīºæľ¯": 2218,
      "çĽĺ": 2219,
      "æŃ£åľ¨": 2220,
      "åħ¬åĬ¡": 2221,
      "æĹ¥å¸¸": 2222,
      "è¯ģä¹¦": 2223,
      "æĭ¥": 2224,
      "ç¼º": 2225,
      "æ¾": 2226,
      "åĲī": 2227,
      "æĹĹ": 2228,
      "èĲ¥éĢł": 2229,
      "çĶ»": 2230,
      "è®¤å®ļ": 2231,
      "çŃ¾è®¢": 2232,
      "å¹´çļĦ": 2233,
      "Ġ5": 2234,
      "åħĪè¿Ľ": 2235,
      "è®¾ç½®": 2236,
      "éĨ": 2237,
      "éĩįåºĨ": 2238,
      "èĪŀ": 2239,
      "çº¿ä¸Ĭ": 2240,
      "è§Ĩé¢ĳ": 2241,
      "åĨ³çŃĸ": 2242,
      "æķĻåŃ¦": 2243,
      "çĲĨè®º": 2244,
      "ç«ŀäºī": 2245,
      "è¿ĲèĲ¥": 2246,
      "ä¸įä»ħ": 2247,
      "ä¸ĬåįĪ": 2248,
      "æµģç¨ĭ": 2249,
      "èº«ä»½": 2250,
      "æ¯ķ": 2251,
      "åĽ½åĨħ": 2252,
      "åľºæīĢ": 2253,
      "åıĳæĶ¾": 2254,
      "çĽ´æİ¥": 2255,
      "éº": 2256,
      "äºĭåĬ¡": 2257,
      "è¿Ļä¸ª": 2258,
      "å±ķç¤º": 2259,
      "ç§įæ¤į": 2260,
      "è¸": 2261,
      "åĨ¬": 2262,
      "æĭ¨æ¬¾": 2263,
      "èĪ¹": 2264,
      "31": 2265,
      "åĭĩ": 2266,
      "çĥŁ": 2267,
      "åĪ¤åĨ³": 2268,
      "éĺ¿": 2269,
      "äºĭä»¶": 2270,
      "æ°Ľ": 2271,
      "ä¸¾è¡Į": 2272,
      "ä¸ĵé¢ĺ": 2273,
      "åŃ¦éĻ¢": 2274,
      "åŁ¹åħ»": 2275,
      "æĮĩæĮ¥": 2276,
      "è¿ĻäºĽ": 2277,
      "æ´ª": 2278,
      "æ¸ħåįķ": 2279,
      "æ´²": 2280,
      "éľ²": 2281,
      "ç½Ĺ": 2282,
      "æĬĢèĥ½": 2283,
      "éĻĨ": 2284,
      "æĹ§": 2285,
      "tel": 2286,
      "çĥĪ": 2287,
      "ä¸ĬçļĦ": 2288,
      "æµĻ": 2289,
      "é«ĺæķĪ": 2290,
      "èģĶç½ĳ": 2291,
      "åįĹçľģ": 2292,
      "åıĹçĲĨ": 2293,
      "ä»Ģ": 2294,
      "ä¸¾æİª": 2295,
      "ephone": 2296,
      "åıįæĺł": 2297,
      "åĪĨç±»": 2298,
      "é©¾": 2299,
      "è¡¥è´´": 2300,
      "70": 2301,
      "å½ĵåīį": 2302,
      "æĤī": 2303,
      "ç¾İåĽ½": 2304,
      "éĢīæĭ©": 2305,
      "åıĮæĸ¹": 2306,
      "æĹ¢": 2307,
      "èĹı": 2308,
      "é¼ĵåĬ±": 2309,
      "æ£Ģå¯Ł": 2310,
      "éĺ²èĮĥ": 2311,
      "å¦Ĥä½ķ": 2312,
      "èĸ": 2313,
      "æīİå®ŀ": 2314,
      "ç¬Ķ": 2315,
      "å½ĵåľ°": 2316,
      "æĿĳæ°ĳ": 2317,
      "å±±ä¸ľ": 2318,
      "åĩĢ": 2319,
      "éĩĬ": 2320,
      "ä¸»ç®¡": 2321,
      "å®ŀè¡Į": 2322,
      "å¯¹è±¡": 2323,
      "çĬ¯ç½ª": 2324,
      "æ¶īåıĬ": 2325,
      "å®¡æł¸": 2326,
      "ä¹¡éķĩ": 2327,
      "å±Ģéķ¿": 2328,
      "ä¹īåĬ¡": 2329,
      "ä¸Ĭè¿°": 2330,
      "åįıåĲĮ": 2331,
      "è¯ķçĤ¹": 2332,
      "å®Ĺ": 2333,
      "åķĨä¸ļ": 2334,
      "æķ°éĩı": 2335,
      "å¾Ħ": 2336,
      "æĻļ": 2337,
      "é²ľ": 2338,
      "ç½ĳä¸Ĭ": 2339,
      "è¾ĸåĮº": 2340,
      "å¤ľ": 2341,
      "åĲĪçĲĨ": 2342,
      "æī©å¤§": 2343,
      "çĶŁçī©": 2344,
      "ä¸Ĭå¸Ĥ": 2345,
      "æĴĳ": 2346,
      "35": 2347,
      "åı¦": 2348,
      "æĪĳåĽ½": 2349,
      "æ¸łéģĵ": 2350,
      "æĸ°éĹ»": 2351,
      "å¹¿ä¸ľ": 2352,
      "èĤ¡ä¸ľ": 2353,
      "**": 2354,
      "äºĭå®ŀ": 2355,
      "åħ¨ä½ĵ": 2356,
      "åĩºå¸Ń": 2357,
      "è®¤è¯Ĩ": 2358,
      "çĶ¨äºİ": 2359,
      "çīµ": 2360,
      "è½¬åŀĭ": 2361,
      "æĢĢ": 2362,
      "åĿļå®ļ": 2363,
      "æĭħå½ĵ": 2364,
      "çĳ": 2365,
      "å´": 2366,
      "å°ļ": 2367,
      "æĮĤ": 2368,
      "åĨ³ç®Ĺ": 2369,
      "çī©æµģ": 2370,
      "åĨ°": 2371,
      "äºĮæĺ¯": 2372,
      "å²¸": 2373,
      "æĽ´å¥½": 2374,
      "å°ıæĹ¶": 2375,
      "åĸľ": 2376,
      "ç»Ŀ": 2377,
      "ä¸Ģæī¹": 2378,
      "åħ±äº«": 2379,
      "èĢģå¹´": 2380,
      "çİ¯ä¿Ŀ": 2381,
      "æ¢ģ": 2382,
      "åĽ¢éĺŁ": 2383,
      "æĪĲç»©": 2384,
      "æ´ĭ": 2385,
      "åĪĳ": 2386,
      "æĬ½": 2387,
      "ä¸ĭåįĪ": 2388,
      "åĳ³": 2389,
      "äºĮåįģ": 2390,
      "çº³åħ¥": 2391,
      "éĢłæĪĲ": 2392,
      "æĪªæŃ¢": 2393,
      "æĵįä½ľ": 2394,
      "ä¼ļä¸Ĭ": 2395,
      "è´Ńä¹°": 2396,
      "æ¸¸å®¢": 2397,
      "è¯Ħå®¡": 2398,
      "èĥ½å¤Ł": 2399,
      "åĲįåįķ": 2400,
      "å©": 2401,
      "çľģçº§": 2402,
      "ww": 2403,
      "å¯¹æİ¥": 2404,
      "åİļ": 2405,
      "åķĨåĬ¡": 2406,
      "æĹ¥èĩ³": 2407,
      "å§ĭç»": 2408,
      "èĲ¥åķĨ": 2409,
      "èĭĹ": 2410,
      "ä¸ªæľĪ": 2411,
      "éģ¿": 2412,
      "åĥı": 2413,
      "æĶ¯æĴĳ": 2414,
      "èµĶ": 2415,
      "å§ĭç»Ī": 2416,
      "èĲ½åľ°": 2417,
      "æ°ĽåĽ´": 2418,
      "éĩĩçĶ¨": 2419,
      "æĶ¯éĥ¨": 2420,
      "å·¦": 2421,
      "åĲĪæł¼": 2422,
      "ä¼ĺè´¨": 2423,
      "æ¢°": 2424,
      "æĺ¾ç¤º": 2425,
      "æĸ¹ç±³": 2426,
      "åĺī": 2427,
      "çĶŁåĳ½": 2428,
      "å®ĥ": 2429,
      "åĪ¶ä½ľ": 2430,
      "çĽĽ": 2431,
      "æĸ¹åĲĳ": 2432,
      "èŀįèµĦ": 2433,
      "æĿŁ": 2434,
      "ä¸»æĮģ": 2435,
      "å¸¦æĿ¥": 2436,
      "90": 2437,
      "æĿĥçĽĬ": 2438,
      "ä¹ĭä¸Ģ": 2439,
      "æī«": 2440,
      "é¡¾": 2441,
      "ä¸»å¸Ń": 2442,
      "åĩĿ": 2443,
      "ä»į": 2444,
      "éħįåĲĪ": 2445,
      "çĽŁ": 2446,
      "èģĶåĬ¨": 2447,
      "å¸¦åĬ¨": 2448,
      "æľīåĬĽ": 2449,
      "æŀ¶": 2450,
      "è¡¥åĬ©": 2451,
      "æ°´åĪ©": 2452,
      "å¹¼": 2453,
      "åĪ°ä½į": 2454,
      "45": 2455,
      "åĭŁ": 2456,
      "æ³Ľ": 2457,
      "èĢķ": 2458,
      "ä¸Ģæĺ¯": 2459,
      "åĽ½æľī": 2460,
      "çİ°åľ¨": 2461,
      "åķĨåĵģ": 2462,
      "çķħ": 2463,
      "åĽĽå·Ŀ": 2464,
      "æĸ¹æ³ķ": 2465,
      "æ±Łèĭı": 2466,
      "åħ¬åĽŃ": 2467,
      "åħ¬éĩĮ": 2468,
      "æĬ¢": 2469,
      "æ±ł": 2470,
      "éĺ²æ²»": 2471,
      "ç»©æķĪ": 2472,
      "å¹¸ç¦ı": 2473,
      "è¿Ķ": 2474,
      "è¿Ļä¸Ģ": 2475,
      "æĺ¯ä¸Ģ": 2476,
      "ä»ĭ": 2477,
      "éĩįè§Ĩ": 2478,
      "æ½®": 2479,
      "ç®Ģç§°": 2480,
      "åħ¬çĽĬ": 2481,
      "æ±Ľ": 2482,
      "æĢ»ä½ĵ": 2483,
      "çĽ¸åºĶ": 2484,
      "éĢĶ": 2485,
      "åħ¨åĮº": 2486,
      "å°ģ": 2487,
      "å¹¿è¥¿": 2488,
      "åįıä¼ļ": 2489,
      "çªģçł´": 2490,
      "çº¢èī²": 2491,
      "æĹ¥åĨħ": 2492,
      "å¸®æī¶": 2493,
      "æĽ¾": 2494,
      "è®¡ç®Ĺ": 2495,
      "ä½¿åĳ½": 2496,
      "ä¸ĭéĻį": 2497,
      "æ®ĭçĸ¾": 2498,
      "åĲ¨": 2499,
      "èĲ¥ä¸ļ": 2500,
      "æī¿è¯º": 2501,
      "æľīåºı": 2502,
      "åĲĦåľ°": 2503,
      "èµ·æĿ¥": 2504,
      "è¯ģæį®": 2505,
      "æĻ¯åĮº": 2506,
      "Ġæľ¬": 2507,
      "æĸĩæĹħ": 2508,
      "çģ¾å®³": 2509,
      "èª": 2510,
      "åľĪ": 2511,
      "ç¬¬åĽĽ": 2512,
      "æĪ¿å±ĭ": 2513,
      "åį°åıĳ": 2514,
      "å½Ĵ": 2515,
      "èĭ¥": 2516,
      "ä¸ºäºĨ": 2517,
      "éļıçĿĢ": 2518,
      "å·¥èµĦ": 2519,
      "å¾½": 2520,
      "å¹ķ": 2521,
      "åĲĪæ³ķ": 2522,
      "åıĺåĮĸ": 2523,
      "éħįå¥Ĺ": 2524,
      "ç»ıçĲĨ": 2525,
      "å¸ĥå±Ģ": 2526,
      "åĪļ": 2527,
      "åĲ´": 2528,
      "åľ³": 2529,
      "å½¹": 2530,
      "ãĢģâĢľ": 2531,
      "çªĹ": 2532,
      "ç¤¼": 2533,
      "ä»Ģä¹Ī": 2534,
      "å®¢æĪ·": 2535,
      "åĲĥ": 2536,
      "æķ´ä½ĵ": 2537,
      "çº³ç¨İ": 2538,
      "å¡«": 2539,
      "æİĮ": 2540,
      "æĸ°å¢ŀ": 2541,
      "åĩĨå¤ĩ": 2542,
      "åħ·å¤ĩ": 2543,
      "ä¹ħ": 2544,
      "æĭĽåķĨ": 2545,
      "éŃ": 2546,
      "æ·±åľ³": 2547,
      "åĲĦåİ¿": 2548,
      "éĺħ": 2549,
      "æĭĽèģĺ": 2550,
      "é©¶": 2551,
      "çĶ·": 2552,
      "æ¯ĶèµĽ": 2553,
      "å¦ĩ": 2554,
      "è½¬åĮĸ": 2555,
      "çĶ¨åľ°": 2556,
      "çļĦæĺ¯": 2557,
      "éĴ±": 2558,
      "æĶ¹åĸĦ": 2559,
      "æ¶¦": 2560,
      "æī¶è´«": 2561,
      "æĦıä¹ī": 2562,
      "åıĹåĪ°": 2563,
      "çħ¤": 2564,
      "è¿ģ": 2565,
      "æ½ľ": 2566,
      "éĺµ": 2567,
      "æ¬§": 2568,
      "ãĢĤï¼Ī": 2569,
      "å£®": 2570,
      "æµĻæ±Ł": 2571,
      "%ï¼Ľ": 2572,
      "åıĳè¡Į": 2573,
      "èĥĮ": 2574,
      "æ³°": 2575,
      "éĤĢ": 2576,
      "ä¼łæī¿": 2577,
      "åı¶": 2578,
      "å¹¿æ³Ľ": 2579,
      "éĴ¢": 2580,
      "æ¦Ĥ": 2581,
      "éĿł": 2582,
      "èĢĥè¯ķ": 2583,
      "æķ£": 2584,
      "æĪı": 2585,
      "ä½ľä¸ļ": 2586,
      "èµĦæľ¬": 2587,
      "åĮ»èį¯": 2588,
      "éĿ©åĳ½": 2589,
      "36": 2590,
      "æŃ£å¼ı": 2591,
      "å¸Ĥçº§": 2592,
      "åįģåĽĽ": 2593,
      "è®¾ç«ĭ": 2594,
      "åĬłå·¥": 2595,
      "å°Ħ": 2596,
      "å®¡è®®": 2597,
      "Ġæį®": 2598,
      "è¾ħ": 2599,
      "å®¿": 2600,
      "èĩªèº«": 2601,
      "è¯¦ç»Ĩ": 2602,
      "æ·±åĪ»": 2603,
      "é«ĺæł¡": 2604,
      "èµĭ": 2605,
      "èĵĿ": 2606,
      "è´¢åĬ¡": 2607,
      "æ£®æŀĹ": 2608,
      "ä¸Ģå®ļ": 2609,
      "ç¡¬": 2610,
      "åı³": 2611,
      "çļĦäºº": 2612,
      "äººæ¬¡": 2613,
      "å¨ģ": 2614,
      "æĻĵ": 2615,
      "æĲŃ": 2616,
      "éĵģè·¯": 2617,
      "è·ĳ": 2618,
      "æĭį": 2619,
      "åĬŀäºĭ": 2620,
      "æ»¨": 2621,
      "åĲĮæĦı": 2622,
      "500": 2623,
      "æľĿ": 2624,
      "å¼Ģæłĩ": 2625,
      "éħ¸": 2626,
      "å¾Ĳ": 2627,
      "éĶĭ": 2628,
      "ä¾Ŀæīĺ": 2629,
      "ĠåĽĽ": 2630,
      "ç©¿": 2631,
      "å¿«éĢŁ": 2632,
      "æºª": 2633,
      "éĩİ": 2634,
      "ä¸Ĭè¯ī": 2635,
      "æ³ī": 2636,
      "æĪĲæľ¬": 2637,
      "éģµ": 2638,
      "æĿ¥èĩª": 2639,
      "åħ¬ä¼Ĺ": 2640,
      "ç®±": 2641,
      "è§Ī": 2642,
      "èĤ¥": 2643,
      "åĮ»ä¿Ŀ": 2644,
      "å¦Ĥæŀľ": 2645,
      "çºłçº·": 2646,
      "åĭ¤": 2647,
      "æĭĵå±ķ": 2648,
      "äº§çĶŁ": 2649,
      "è¿Ļæĺ¯": 2650,
      "é¢ĦèŃ¦": 2651,
      "æ®ĸ": 2652,
      "Ġ(": 2653,
      "éķ¿æľŁ": 2654,
      "åŃ£åº¦": 2655,
      "éĴŁ": 2656,
      "åľ°åĿĢ": 2657,
      "æŃ»": 2658,
      "æĽ²": 2659,
      "ÃĹ": 2660,
      "åĨ²": 2661,
      "å¥¥": 2662,
      "æķĳæı´": 2663,
      "ç¡®è®¤": 2664,
      "åħ±äº§": 2665,
      "ãĢģãĢĬ": 2666,
      "å®½": 2667,
      "çºªå¾ĭ": 2668,
      "éĽĦ": 2669,
      "ï¼ļ[": 2670,
      "ä¸īæĺ¯": 2671,
      "èµ´": 2672,
      "çĿ£ä¿ĥ": 2673,
      "ç§ĭ": 2674,
      "ç»ıè¿ĩ": 2675,
      "éĽ·": 2676,
      "2017": 2677,
      "æļĤ": 2678,
      "åĪĽéĢł": 2679,
      "æŃĮ": 2680,
      "æįŁå¤±": 2681,
      "æ°ĳäºĭ": 2682,
      "å®ŀéªĮ": 2683,
      "æĿĤ": 2684,
      "ç§ĳçłĶ": 2685,
      "å¸¸æĢģ": 2686,
      "Ġ6": 2687,
      "åĩ½": 2688,
      "æ®Ĭ": 2689,
      "ä½ľé£İ": 2690,
      "éĺ³å¸Ĥ": 2691,
      "éĹ²": 2692,
      "åĬ¨åĬĽ": 2693,
      "åįģäºĮ": 2694,
      "æ°Ķè±¡": 2695,
      "è´¸æĺĵ": 2696,
      "é«ĺéĢŁ": 2697,
      "çī©ä¸ļ": 2698,
      "çĶ¨æĪ·": 2699,
      "æ³ķäºº": 2700,
      "æ¶¨": 2701,
      "å·©": 2702,
      "æ¶µ": 2703,
      "è¯¦è§ģ": 2704,
      "å¾ĹåĪ°": 2705,
      "çĶ²": 2706,
      "çº¦å®ļ": 2707,
      "åĽ½åĬ¡": 2708,
      "ä¹ĭéĹ´": 2709,
      "å®īå¾½": 2710,
      "å®ļæľŁ": 2711,
      "é¢Ħè®¡": 2712,
      "çīĽ": 2713,
      "å½¢åĬ¿": 2714,
      "çªģåıĳ": 2715,
      "ä½³": 2716,
      "çĭ¬ç«ĭ": 2717,
      "çī©èµĦ": 2718,
      "ä¼Ļ": 2719,
      "å¤«": 2720,
      "æ²ŁéĢļ": 2721,
      "æĶ¶è´¹": 2722,
      "åıĬåħ¶": 2723,
      "çĸĨ": 2724,
      "èĳĹ": 2725,
      "å§ĵ": 2726,
      "ä¸Ĭä¸ĭ": 2727,
      "æ¯į": 2728,
      "æŃ£å¸¸": 2729,
      "èĴĻ": 2730,
      "æĬµ": 2731,
      "å°ĳå¹´": 2732,
      "è½¯": 2733,
      "èĤĥ": 2734,
      "æİ¥å¾ħ": 2735,
      "å¤ĩæ¡Ī": 2736,
      "åĩºåı£": 2737,
      "ä¹ĺ": 2738,
      "åº§è°Ī": 2739,
      "èµµ": 2740,
      "å¤©æ´¥": 2741,
      "éĨĴ": 2742,
      "èĩªè§ī": 2743,
      "èħĲ": 2744,
      "åºĶå¯¹": 2745,
      "åħĪåĲİ": 2746,
      "ç¼ĸåı·": 2747,
      "åİ»å¹´": 2748,
      "åĪ©çĽĬ": 2749,
      "éĥĳ": 2750,
      "èĢĥå¯Ł": 2751,
      "æĺİæĺ¾": 2752,
      "çī¹æ®Ĭ": 2753,
      "Ġä¸º": 2754,
      "æĻ®éĢļ": 2755,
      "ä½ľåĵģ": 2756,
      "åĩĨç¡®": 2757,
      "èµ¢": 2758,
      "æ¯Ķä¾ĭ": 2759,
      "çĹĩ": 2760,
      "éĢļéģĵ": 2761,
      "éªĹ": 2762,
      "éĢı": 2763,
      "æĬķè¯ī": 2764,
      "çīµå¤´": 2765,
      "æķħäºĭ": 2766,
      "å¯¼èĩ´": 2767,
      "å¾ĭå¸Ī": 2768,
      "çģµ": 2769,
      "çŃīå¤ļ": 2770,
      "åħ¸åŀĭ": 2771,
      "äººåı£": 2772,
      "æİ¨åĩº": 2773,
      "ç²®é£Ł": 2774,
      "è¿Ŀè§Ħ": 2775,
      "å·©åĽº": 2776,
      "åĩºåı°": 2777,
      "ç±į": 2778,
      "æķĳåĬ©": 2779,
      "æ¿ĢåĬ±": 2780,
      "åĲİçļĦ": 2781,
      "è·Ŀ": 2782,
      "ç½ļæ¬¾": 2783,
      "æ¯ķä¸ļ": 2784,
      "æģ¢": 2785,
      "ä¸Ģèµ·": 2786,
      "è¿ĲçĶ¨": 2787,
      "å¤įåį°": 2788,
      "åį·": 2789,
      "çģ¯": 2790,
      "æļ¨": 2791,
      "æĿŃ": 2792,
      "éĶĻ": 2793,
      "æľīçļĦ": 2794,
      "æŃ¤å¤ĸ": 2795,
      "ç§ģ": 2796,
      "èģĮèĥ½": 2797,
      "ä¹Į": 2798,
      "è´¢äº§": 2799,
      "è¯Ī": 2800,
      "ç¨İæĶ¶": 2801,
      "æ·±åº¦": 2802,
      "å·¨": 2803,
      "åĨĽäºº": 2804,
      "æĸ°åŀĭ": 2805,
      "33": 2806,
      "éĿŀå¸¸": 2807,
      "ç®¡æİ§": 2808,
      "èĤī": 2809,
      "ä¹±": 2810,
      "99": 2811,
      "åĲ¬åıĸ": 2812,
      "æľ«": 2813,
      "éª¨": 2814,
      "æŁ¥è¯¢": 2815,
      "éĢļæĬ¥": 2816,
      "æĬĬæı¡": 2817,
      "èªī": 2818,
      "¹ģ": 2819,
      "çº¸": 2820,
      "ç¹ģ": 2821,
      "æıĲåīį": 2822,
      "å®£è®²": 2823,
      "åĲ¸å¼ķ": 2824,
      "æ¢¦": 2825,
      "å¾ª": 2826,
      "è´«åĽ°": 2827,
      "ä¸¾æĬ¥": 2828,
      "æķĪçİĩ": 2829,
      "ur": 2830,
      "çĿ£å¯¼": 2831,
      "çĶĺ": 2832,
      "å¾®ä¿¡": 2833,
      "ä¸īå¹´": 2834,
      "æĮĸ": 2835,
      "å¯¼åĲĳ": 2836,
      "å¸Ĥéķ¿": 2837,
      "éªĮæĶ¶": 2838,
      "åĮºå§Ķ": 2839,
      "å¥ĸåĬ±": 2840,
      "åĳ¼": 2841,
      "åħ»æ®ĸ": 2842,
      "æĹłæ³ķ": 2843,
      "åĽĽä¸ª": 2844,
      "ä¸įå°ĳ": 2845,
      "ä»ªå¼ı": 2846,
      "æ¡Īä¾ĭ": 2847,
      "æĹ¥åīį": 2848,
      "åĽ¢ç»ĵ": 2849,
      "å¿ł": 2850,
      "èĻļ": 2851,
      "é¡¶": 2852,
      "æ¡£æ¡Ī": 2853,
      "æł·çļĦ": 2854,
      "æİĪæĿĥ": 2855,
      "åħĪçĶŁ": 2856,
      "ä½įäºİ": 2857,
      "æ»¡æĦı": 2858,
      "æģ¢å¤į": 2859,
      "æł¡åĽŃ": 2860,
      "åĵģè´¨": 2861,
      "å¾Īå¤ļ": 2862,
      "ä¼´": 2863,
      "èĢģäºº": 2864,
      "åĳĺå·¥": 2865,
      "è¯¯": 2866,
      "åĳĪ": 2867,
      "å®ı": 2868,
      "è¿ĺæľī": 2869,
      "æĤ£èĢħ": 2870,
      "æĢ»ç»ĵ": 2871,
      "300": 2872,
      "å®ŀåľ°": 2873,
      "æµĵ": 2874,
      "æ´»åĬĽ": 2875,
      "å¼ķè¿Ľ": 2876,
      "ä¸ĢäºĽ": 2877,
      "éĻįä½İ": 2878,
      "çĶ±äºİ": 2879,
      "è¿Ŀåıį": 2880,
      "çĶ¨è½¦": 2881,
      "è¾ī": 2882,
      "æĪĲéķ¿": 2883,
      "æľĭ": 2884,
      "è¡¡": 2885,
      "åĨ·": 2886,
      "åĨħçļĦ": 2887,
      "ç»ĵæĿŁ": 2888,
      "ç§ĺ": 2889,
      "æĭħä¿Ŀ": 2890,
      "çºªå§Ķ": 2891,
      "éī´å®ļ": 2892,
      "åĽłä¸º": 2893,
      "æ²ī": 2894,
      "ä¸įåĬ¨": 2895,
      "38": 2896,
      "çľŁå®ŀ": 2897,
      "åħ±å»º": 2898,
      "èĽ": 2899,
      "æłı": 2900,
      "åĳ¨è¾¹": 2901,
      "çĽ¾": 2902,
      "å¹¼åĦ¿": 2903,
      "åħ¬å¸ĥ": 2904,
      "å¤©æ°Ķ": 2905,
      "æĤ¨": 2906,
      "æ³¨æĦı": 2907,
      "é¦Ī": 2908,
      "é±": 2909,
      "çĤİ": 2910,
      "ç»ĦæĪĲ": 2911,
      "å®¾": 2912,
      "å±ŀäºİ": 2913,
      "èµģ": 2914,
      "å¼ĥ": 2915,
      "ç§Łèµģ": 2916,
      "é±¼": 2917,
      "48": 2918,
      "èĢģå¸Ī": 2919,
      "è¯¢éĹ®": 2920,
      "éĹŃ": 2921,
      "åĮĸçļĦ": 2922,
      "åĮĸè§£": 2923,
      "è®¯": 2924,
      "ç¯ĩ": 2925,
      "Ġå¸Ĥ": 2926,
      "æ±ĩæĬ¥": 2927,
      "æ£ĢéªĮ": 2928,
      "ãĢĭãĢĤ": 2929,
      "æľĢå¤§": 2930,
      "37": 2931,
      "ĠãĢĬ": 2932,
      "åĵĪ": 2933,
      "éĤĢè¯·": 2934,
      "é¦ĸæ¬¡": 2935,
      "å«": 2936,
      "é¡ºåĪ©": 2937,
      "è£ħå¤ĩ": 2938,
      "èµĦè´¨": 2939,
      "çĽĳå¯Ł": 2940,
      "çĽ´æĴŃ": 2941,
      "å¥½çļĦ": 2942,
      "æī¹åĩĨ": 2943,
      "éļĶ": 2944,
      "éĻĦä»¶": 2945,
      "åį±éĻ©": 2946,
      "éĢĢå½¹": 2947,
      "èĩªè¡Į": 2948,
      "æł¼å±Ģ": 2949,
      "åĳĬçŁ¥": 2950,
      "æ°ĳä¸»": 2951,
      "æľ¬æ¡Ī": 2952,
      "çľŁæŃ£": 2953,
      "è¡¥åħħ": 2954,
      "æķĪæŀľ": 2955,
      "çĨŁ": 2956,
      "ä¸Ģçº¿": 2957,
      "èįĲ": 2958,
      "æ¢ħ": 2959,
      "åĩºè¡Į": 2960,
      "æ¾³": 2961,
      "ä¸Ńæłĩ": 2962,
      "ä¸Ĭå¹´": 2963,
      "é¾Ħ": 2964,
      "éĿĴå²Ľ": 2965,
      "èį¯åĵģ": 2966,
      "url": 2967,
      "ç¾İä¸½": 2968,
      "å¡Ķ": 2969,
      "æ¯ıå¹´": 2970,
      "èµĶåģ¿": 2971,
      "éĥ½æĺ¯": 2972,
      "ï¼İ": 2973,
      "äººå·¥": 2974,
      "çĪĨ": 2975,
      "æłĳç«ĭ": 2976,
      "äººåĬĽ": 2977,
      "ä¼ļè®¡": 2978,
      "è°·": 2979,
      "æĲº": 2980,
      "å¹³å®ī": 2981,
      "ç¬¬äºĶ": 2982,
      "è¿ŀç»Ń": 2983,
      "èµ°è®¿": 2984,
      "è¿ĻéĩĮ": 2985,
      "çļĦå¤§": 2986,
      "å¹´åĪĿ": 2987,
      "æĮĩç¤º": 2988,
      "åŁİéķĩ": 2989,
      "ä¼łæĴŃ": 2990,
      "ç¥Ŀ": 2991,
      "éĿ¢å¯¹": 2992,
      "çıł": 2993,
      "è°ĭåĪĴ": 2994,
      "æĭĨ": 2995,
      "æķ´åĲĪ": 2996,
      "åıįé¦Ī": 2997,
      "ä»»ä½ķ": 2998,
      "æīĭç»Ń": 2999,
      "åįĬå¹´": 3000,
      "å±±å¸Ĥ": 3001,
      "ä¾§": 3002,
      "ä¼ĺåħĪ": 3003,
      "å¥ĭæĸĹ": 3004,
      "ĠäºĶ": 3005,
      "Ġ9": 3006,
      "ä¸ĭè½½": 3007,
      "åĢį": 3008,
      "çĮª": 3009,
      "åºĬ": 3010,
      "ç¼ĵ": 3011,
      "ä¸ĢçĽ´": 3012,
      "éĿŀæ³ķ": 3013,
      "èĩªåĬ¨": 3014,
      "çĳŀ": 3015,
      "èĦĳ": 3016,
      "å®īè£ħ": 3017,
      "æīĢåľ¨": 3018,
      "å¤±ä¿¡": 3019,
      "äº«åıĹ": 3020,
      "å¼±": 3021,
      "æīĵåĩ»": 3022,
      "éĺ²æ±Ľ": 3023,
      "å·¥ä¼ļ": 3024,
      "æ²»çĸĹ": 3025,
      "ç¼´çº³": 3026,
      "ä¸ºä¸»": 3027,
      "æĮĳ": 3028,
      "ç»ĨåĮĸ": 3029,
      "æ±¡æ°´": 3030,
      "éĢĤçĶ¨": 3031,
      "ä¸īä¸ª": 3032,
      "æķ¬": 3033,
      "çĶµè§Ĩ": 3034,
      "è¯·æ±Ĥ": 3035,
      "åıĺæĽ´": 3036,
      "æĢ§åĴĮ": 3037,
      "æ²³åĮĹ": 3038,
      "æİĺ": 3039,
      "å°ıåŃ¦": 3040,
      "è¿ħ": 3041,
      "æľĭåıĭ": 3042,
      "è®²è§£": 3043,
      "åĢŁæ¬¾": 3044,
      "é©¾é©¶": 3045,
      "æĩ": 3046,
      "åĩŃ": 3047,
      "å±ķçİ°": 3048,
      "éľĩ": 3049,
      "æ¡Ĥ": 3050,
      "å·¥åķĨ": 3051,
      "åĿĽ": 3052,
      "åİ¦": 3053,
      "åĤ¨å¤ĩ": 3054,
      "æľĢåĲİ": 3055,
      "ç«¹": 3056,
      "ç´łè´¨": 3057,
      "æİĮæı¡": 3058,
      "çŁĽ": 3059,
      "æĭ¿": 3060,
      "æĿ¥åĪ°": 3061,
      "è½¬ç§»": 3062,
      "å¸¸å§Ķ": 3063,
      "åįģä¹Ŀ": 3064,
      "éĢģè¾¾": 3065,
      "æĪĲéĥ½": 3066,
      "æľĢç»Ī": 3067,
      "è·µè¡Į": 3068,
      "å¿ĥçĲĨ": 3069,
      "åĭŁéĽĨ": 3070,
      "34": 3071,
      "å¼ĺ": 3072,
      "åĬ¨æĢģ": 3073,
      "é¤Ĳé¥®": 3074,
      "çĬ¶åĨµ": 3075,
      "çıŃåŃĲ": 3076,
      "åĿĲ": 3077,
      "ä¸Ńåħ±": 3078,
      "åĩºåħ·": 3079,
      "ä¹¦éĿ¢": 3080,
      "çĶŁåĬ¨": 3081,
      "çī§": 3082,
      "åľºæĻ¯": 3083,
      "Ġ7": 3084,
      "èĤº": 3085,
      "ç¦ıå»º": 3086,
      "çŁĽçĽ¾": 3087,
      "éĢĲæŃ¥": 3088,
      "æ¿Ģåıĳ": 3089,
      "éĢ¾": 3090,
      "æľ±": 3091,
      "è§¦": 3092,
      "å½°": 3093,
      "æķĪçĽĬ": 3094,
      "åĵª": 3095,
      "ä¿®å¤į": 3096,
      "åħ¨ä¼ļ": 3097,
      "ç«ĭåį³": 3098,
      "é¢Ħéĺ²": 3099,
      "å®ŀäºĭ": 3100,
      "é¢Ħæ¡Ī": 3101,
      "ä¸įæĺ¯": 3102,
      "æ¯ıå¤©": 3103,
      "æļ´": 3104,
      "æµ¦": 3105,
      "éĿ¢åĲĳ": 3106,
      "è´¦æĪ·": 3107,
      "åħ¨åİ¿": 3108,
      "åįĹäº¬": 3109,
      "2016": 3110,
      "æ¢¯": 3111,
      "åħ¼": 3112,
      "æĹ¥æľŁ": 3113,
      "åĲĦç§į": 3114,
      "æĪĲäº¤": 3115,
      "èŀįåħ¥": 3116,
      "äºĴåĬ¨": 3117,
      "ä¾µ": 3118,
      "å¼Ĥè®®": 3119,
      "ä¸įäºĪ": 3120,
      "ä¸įè¶³": 3121,
      "åĿ¡": 3122,
      "ç£ĭ": 3123,
      "éĻµ": 3124,
      "æį·": 3125,
      "èĤ¯": 3126,
      "æĬ¥éģĵ": 3127,
      "æ¬ł": 3128,
      "çĿ£æŁ¥": 3129,
      "æĸ°å»º": 3130,
      "æ¼ı": 3131,
      "æģ¶": 3132,
      "æľºæ¢°": 3133,
      "éĶ¦": 3134,
      "çŀ": 3135,
      "ç¾¤ä½ĵ": 3136,
      "çĽĲ": 3137,
      "åİ¿å§Ķ": 3138,
      "ï¼īï¼Ľ": 3139,
      "èµ°è¿Ľ": 3140,
      "æĬ¼": 3141,
      "55": 3142,
      "æĢ§çļĦ": 3143,
      "èĢĥçĶŁ": 3144,
      "æŀĹä¸ļ": 3145,
      "å®ĩ": 3146,
      "å®¶éķ¿": 3147,
      "çº¿ä¸ĭ": 3148,
      "çľĭåĪ°": 3149,
      "æ¹ĸåĮĹ": 3150,
      "å¯»": 3151,
      "æĪĳçľģ": 3152,
      "å±±åĮº": 3153,
      "è°ĥåº¦": 3154,
      "ä½ĵçİ°": 3155,
      "ç§©": 3156,
      "39": 3157,
      "æŃ£ç¡®": 3158,
      "æĽ´æĸ°": 3159,
      "åŃĻ": 3160,
      "æĬ¥ä»·": 3161,
      "èĻ½": 3162,
      "æĶ¶éĽĨ": 3163,
      "äººæķ°": 3164,
      "æĦŁæŁĵ": 3165,
      "èĶ¬": 3166,
      "ç£ĭåķĨ": 3167,
      "æ°ĳèĲ¥": 3168,
      "æ»ĳ": 3169,
      "ç§©åºı": 3170,
      "ä¸Ģå¹´": 3171,
      "ç»´ä¿®": 3172,
      "å¹¿åľº": 3173,
      "è¯¾ç¨ĭ": 3174,
      "è¥¿çľģ": 3175,
      "åħ³å¿ĥ": 3176,
      "äºķ": 3177,
      "å±ı": 3178,
      "åĩ¡": 3179,
      "åįıä½ľ": 3180,
      "åĬ²": 3181,
      "è¾½": 3182,
      "è°ĥè§£": 3183,
      "æĥħå½¢": 3184,
      "66": 3185,
      "çĬ¶æĢģ": 3186,
      "éĢĢä¼ĳ": 3187,
      "09": 3188,
      "åľĨ": 3189,
      "è¿ĺæĺ¯": 3190,
      "åħ¨æ°ĳ": 3191,
      "èĥ¡": 3192,
      "ç¼©": 3193,
      "çļ®": 3194,
      "æĸĩçī©": 3195,
      "æ¯Ľ": 3196,
      "æłĩå¿Ĺ": 3197,
      "å¹³åĿĩ": 3198,
      "å¡ĳ": 3199,
      "çĶµåķĨ": 3200,
      "cn": 3201,
      "ä¸Ģèĩ´": 3202,
      "æ¸Ķ": 3203,
      "ç«ĭæ¡Ī": 3204,
      "éĵľ": 3205,
      "è½¨": 3206,
      "ç¼´è´¹": 3207,
      "å¼Ģå·¥": 3208,
      "ç½ĳæł¼": 3209,
      "èľ": 3210,
      "èĤ¡ç¥¨": 3211,
      "è¿ħéĢŁ": 3212,
      "07": 3213,
      "é²ģ": 3214,
      "è¶£": 3215,
      "åįģä¸ī": 3216,
      "çī¹çĤ¹": 3217,
      "æĸ°åĨł": 3218,
      "åħļåı²": 3219,
      "åĪĹåħ¥": 3220,
      "åĬ¨åĳĺ": 3221,
      "æ´Ĺ": 3222,
      "æ¹¿": 3223,
      "è°Ĳ": 3224,
      "å·¡æŁ¥": 3225,
      "éĢĴäº¤": 3226,
      "è¿¹": 3227,
      "å¸¦é¢Ĩ": 3228,
      "æĳ¸": 3229,
      "èĩªä¸»": 3230,
      "32": 3231,
      "éĻķ": 3232,
      "ä¿¡å¿ĥ": 3233,
      "å¯¹å¤ĸ": 3234,
      "æĭĴ": 3235,
      "å¥ĳ": 3236,
      "æĬĺ": 3237,
      "åĪĨå±Ģ": 3238,
      "è´µå·ŀ": 3239,
      "å®¡çĲĨ": 3240,
      "å¥ĩ": 3241,
      "å±¥èģĮ": 3242,
      "éŁ©": 3243,
      "ç²ī": 3244,
      "çªĹåı£": 3245,
      "åĪ©æģ¯": 3246,
      "æħ°": 3247,
      "æħ¢": 3248,
      "åĩĿèģļ": 3249,
      "è¿ĳæľŁ": 3250,
      "åħįè´¹": 3251,
      "ä»İä¸¥": 3252,
      "èĭ¦": 3253,
      "è¡Ķ": 3254,
      "åħ¨å¹´": 3255,
      "æĹ¶æľŁ": 3256,
      "è¿Ľå±ķ": 3257,
      "äº¡": 3258,
      "æķ¢": 3259,
      "ï¼Ľï¼Ī": 3260,
      "ä»İäºĭ": 3261,
      "åĪĿå¿ĥ": 3262,
      "ä¾Ľæ°´": 3263,
      "è´§çī©": 3264,
      "ä»ĵ": 3265,
      "å¢Ļ": 3266,
      "è´Ńç½®": 3267,
      "46": 3268,
      "æīĭæľº": 3269,
      "ä¸ĢæĿ¡": 3270,
      "ç¨ĭåº¦": 3271,
      "åĴĮè°Ĳ": 3272,
      "æĦŁåıĹ": 3273,
      "å·¦åı³": 3274,
      "ä¸Ŀ": 3275,
      "æĴ¤": 3276,
      "æĬ«": 3277,
      "æİ¨èįĲ": 3278,
      "47": 3279,
      "åİ¿çº§": 3280,
      "æ³¨éĩį": 3281,
      "ç«ĭè¶³": 3282,
      "èĻĳ": 3283,
      "..": 3284,
      "âĳ": 3285,
      "åģľè½¦": 3286,
      "å°¼": 3287,
      "ç¬¬åħŃ": 3288,
      "æ¸ħçĲĨ": 3289,
      "åĶĲ": 3290,
      "è¿Ľåº¦": 3291,
      "2000": 3292,
      "éĢ¾æľŁ": 3293,
      "ä¼¼": 3294,
      "å¹´è½»": 3295,
      "å¼ĺæī¬": 3296,
      "åį´": 3297,
      "åĽłæŃ¤": 3298,
      "æĦŁè°¢": 3299,
      "Ġ8": 3300,
      "æĺ¥èĬĤ": 3301,
      "çĽ®çļĦ": 3302,
      "æĿ°": 3303,
      "æ³½": 3304,
      "æŁ¥å¤Ħ": 3305,
      "è¦ģç´ł": 3306,
      "å®Įæķ´": 3307,
      "å·¥èīº": 3308,
      "95": 3309,
      "æµª": 3310,
      "æĿ¥æºĲ": 3311,
      "åĽłç´ł": 3312,
      "æľºéģĩ": 3313,
      "éĵº": 3314,
      "æĢĿè·¯": 3315,
      "åĢ¡": 3316,
      "ãĢĲ": 3317,
      "çļĦé«ĺ": 3318,
      "æ¶²": 3319,
      "æĶ¶åĪ°": 3320,
      "çĪ¶": 3321,
      "æĭ¥æľī": 3322,
      "ç¥¥": 3323,
      "çİ©": 3324,
      "çĤ¼": 3325,
      "éĿĻ": 3326,
      "ç»¿åĮĸ": 3327,
      "æ°ĳèŃ¦": 3328,
      "ç¦ıåĪ©": 3329,
      "æĸ°åįİ": 3330,
      "08": 3331,
      "çĶ¨æ°´": 3332,
      "è¾©": 3333,
      "06": 3334,
      "å±Ĥæ¬¡": 3335,
      "ä»²": 3336,
      "ï¼īï¼ļ": 3337,
      "1000": 3338,
      "98": 3339,
      "å¡ĺ": 3340,
      "åľ°äº§": 3341,
      "èĩªæĪĳ": 3342,
      "çŃ¾çº¦": 3343,
      "04": 3344,
      "æľĪä»½": 3345,
      "æŃ¦æ±ī": 3346,
      "ä½ĵåĪ¶": 3347,
      "åĨħéĥ¨": 3348,
      "èĨ": 3349,
      "ä¸´æĹ¶": 3350,
      "æī¶æĮģ": 3351,
      "ä¸ŃåŃ¦": 3352,
      "ãĢĳ": 3353,
      "ä¼ı": 3354,
      "åīĤ": 3355,
      "Ġ10": 3356,
      "åĬ¨è½¦": 3357,
      "å®ħ": 3358,
      "ä»Ĭå¤©": 3359,
      "è²": 3360,
      "å¤ļæ¬¡": 3361,
      "æ°ĳæĶ¿": 3362,
      "æĸ¤": 3363,
      "çº¿è·¯": 3364,
      "åįļçī©": 3365,
      "ä¸ĵéĹ¨": 3366,
      "è®¨è®º": 3367,
      "æ¸Ĳ": 3368,
      "èļ": 3369,
      "å¤ļä¸ª": 3370,
      "è¶ĭ": 3371,
      "è¯ķéªĮ": 3372,
      "éĺ²æĬ¤": 3373,
      "å²Ń": 3374,
      "å·¡å¯Ł": 3375,
      "è¯Ĺ": 3376,
      "ç¥ĸ": 3377,
      "è²Į": 3378,
      "äºĭå®ľ": 3379,
      "åĢĴ": 3380,
      "75": 3381,
      "ä½ĵæ£Ģ": 3382,
      "å·¥å§Ķ": 3383,
      "ä¿Ħ": 3384,
      "éĺħè¯»": 3385,
      "æ¬¢è¿İ": 3386,
      "èĦļ": 3387,
      "ä¸Ģè·¯": 3388,
      "åĩºçĶŁ": 3389,
      "çĻ¾åĪĨ": 3390,
      "ä¾Ŀçħ§": 3391,
      "åıĤè§Ĥ": 3392,
      "æĲŃå»º": 3393,
      "æĸ¹ä½į": 3394,
      "æľīæľº": 3395,
      "äººç¤¾": 3396,
      "åŃ¦ç§ĳ": 3397,
      "åįıåķĨ": 3398,
      "èĬĤèĥ½": 3399,
      "åĿĬ": 3400,
      "æµģåĬ¨": 3401,
      "ç¾İå¥½": 3402,
      "èĶ¬èıľ": 3403,
      "è¡Ķæİ¥": 3404,
      "æĸ°çĸĨ": 3405,
      "æł¹æľ¬": 3406,
      "æĿ¥è¶Ĭ": 3407,
      "2015": 3408,
      "å¼ĢåĲ¯": 3409,
      "è´£ä»¤": 3410,
      "ä¾¿åĪ©": 3411,
      "68": 3412,
      "ä¼ĺæĥł": 3413,
      "æīĭæ®µ": 3414,
      "æĳĨ": 3415,
      "æİĴæĶ¾": 3416,
      "çº½": 3417,
      "è´¥": 3418,
      "åħ¬ç§¯": 3419,
      "èµĽäºĭ": 3420,
      "çĸ¾çĹħ": 3421,
      "ä¸Ģè¡Į": 3422,
      "è¯į": 3423,
      "éŁ³ä¹Ĳ": 3424,
      "æĪĳå±Ģ": 3425,
      "å¤ļåħĥ": 3426,
      "ç»ĺ": 3427,
      "å´ĩ": 3428,
      "ç¨»": 3429,
      "Ġ2020": 3430,
      "éļĨ": 3431,
      "å®ļä½į": 3432,
      "æĬ«éľ²": 3433,
      "ä¿Ĺ": 3434,
      "åĪĨäº«": 3435,
      "www": 3436,
      "65": 3437,
      "æĿĥåĪ©": 3438,
      "å¹¶åľ¨": 3439,
      "åĲĪåĬĽ": 3440,
      "å¹¿å·ŀ": 3441,
      "è¯ļä¿¡": 3442,
      "å¤§åŀĭ": 3443,
      "èµ¶": 3444,
      "è®¤è¯ģ": 3445,
      "å«Į": 3446,
      "åİĭåĬĽ": 3447,
      "é¡µ": 3448,
      "ä¿¡è®¿": 3449,
      "çĶµåĬĽ": 3450,
      "èµĭèĥ½": 3451,
      "çĻ¾å§ĵ": 3452,
      "æ··": 3453,
      "Ġå¯¹": 3454,
      "æĹ¨": 3455,
      "åĵģç§į": 3456,
      "æľ¬äºº": 3457,
      "åģ¥èº«": 3458,
      "åľ°è´¨": 3459,
      "çĻ»å½ķ": 3460,
      "åıĳè¨Ģ": 3461,
      "åİĭå®ŀ": 3462,
      "éº¦": 3463,
      "èº«ä½ĵ": 3464,
      "49": 3465,
      "åģı": 3466,
      "æ¸Ŀ": 3467,
      "è®Ńç»ĥ": 3468,
      "æ¢³": 3469,
      "æİ§èĤ¡": 3470,
      "çĩĥæ°Ķ": 3471,
      "æ´¾åĩº": 3472,
      "è¿Ī": 3473,
      "è½¬åıĺ": 3474,
      "é©±": 3475,
      "åĶ±": 3476,
      "æ¼Ķç»ĥ": 3477,
      "è¿ĩåİ»": 3478,
      "å°¤": 3479,
      "åľ°ä¸ĭ": 3480,
      "æĿ¥çļĦ": 3481,
      "èĤ¯å®ļ": 3482,
      "è¸ª": 3483,
      "æĿľ": 3484,
      "è§Ĥä¼Ĺ": 3485,
      "æ·®": 3486,
      "è¿Ļç§į": 3487,
      "æĬ¥éĢģ": 3488,
      "çĽĳæİ§": 3489,
      "æĮĩå®ļ": 3490,
      "éĽ¶åĶ®": 3491,
      "èµŀ": 3492,
      "è·ĥ": 3493,
      "éĻ¶": 3494,
      "Ġ2023": 3495,
      "01": 3496,
      "é¸¡": 3497,
      "å®īç½®": 3498,
      "æįŁå®³": 3499,
      "85": 3500,
      "ä¹Ļ": 3501,
      "çĸı": 3502,
      "åľ¨çº¿": 3503,
      "åĪĨéĴŁ": 3504,
      "ä¸ĭåĪĹ": 3505,
      "æĹ¶åĢĻ": 3506,
      "éķ¿æ±Ł": 3507,
      "äºīåıĸ": 3508,
      "åĭĺ": 3509,
      "æĻ®æ³ķ": 3510,
      "æ¢³çĲĨ": 3511,
      "çºªæ£Ģ": 3512,
      "éĻ¤äºĨ": 3513,
      "åħ¬å¹³": 3514,
      "åĳ¨å¹´": 3515,
      "éļ¾é¢ĺ": 3516,
      "é«ĺçº§": 3517,
      "å¤§èµĽ": 3518,
      "ä½įç½®": 3519,
      "ä¸ĭçļĦ": 3520,
      "äººä»¬": 3521,
      "åĲĮä¸Ģ": 3522,
      "æĬ¤çĲĨ": 3523,
      "çķħéĢļ": 3524,
      "ä¸¹": 3525,
      "æĸ¹ä¾¿": 3526,
      "éĿ¢ä¸´": 3527,
      "æĪ´": 3528,
      "åĩ¤": 3529,
      "çŃīçº§": 3530,
      "çº·çº·": 3531,
      "æ²Ī": 3532,
      "åĽºå®ļ": 3533,
      "åĪ©çİĩ": 3534,
      "å¦Ĥä»Ĭ": 3535,
      "ä¼Łå¤§": 3536,
      "å»īæĶ¿": 3537,
      "æ¯Ķè¾ĥ": 3538,
      "æĹłäºº": 3539,
      "ä¸ĩäº©": 3540,
      "éģ¿åħį": 3541,
      "æ³¥": 3542,
      "å°Ĭ": 3543,
      "æĢİ": 3544,
      "åįģäºĶ": 3545,
      "å¿ħè¦ģ": 3546,
      "å©ļ": 3547,
      "è¡¨çİ°": 3548,
      "å¤ĦåĪĨ": 3549,
      "æł¸éħ¸": 3550,
      "æģĴ": 3551,
      "å¾ģæĶ¶": 3552,
      "éĽħ": 3553,
      "äººåľ¨": 3554,
      "äººå£«": 3555,
      "åħ¬äº¤": 3556,
      "èĽĭ": 3557,
      "åĮĸåŃ¦": 3558,
      "ç§ĳæĻ®": 3559,
      "æĢ»é¢Ŀ": 3560,
      "ĠåħŃ": 3561,
      "ä¸Ĭçº§": 3562,
      "è®ºåĿĽ": 3563,
      "æĮĳæĪĺ": 3564,
      "æķı": 3565,
      "è¡¥åģ¿": 3566,
      "éħįç½®": 3567,
      "æİ¨è¡Į": 3568,
      "æįĲ": 3569,
      "ä¹ĭåĲİ": 3570,
      "éĺ»": 3571,
      "åĪ©æ¶¦": 3572,
      "å±ħä½ı": 3573,
      "æıĲéĨĴ": 3574,
      "åħ±è®¡": 3575,
      "éĥŃ": 3576,
      "ç»Ħå»º": 3577,
      "ç³ĸ": 3578,
      "éĥ¨éķ¿": 3579,
      "åħ³èģĶ": 3580,
      "å®īå¸Ĥ": 3581,
      "æ¯ıä¸ª": 3582,
      "æĺ¾èĳĹ": 3583,
      "æĺĨ": 3584,
      "ä¾Ľç»Ļ": 3585,
      "æĳ©": 3586,
      "ç¢į": 3587,
      "æīįèĥ½": 3588,
      "é¢ģ": 3589,
      "åĳĬè¯ī": 3590,
      "èĤºçĤİ": 3591,
      "éĻĲåĪ¶": 3592,
      "æ¹ĺ": 3593,
      "æħ°éĹ®": 3594,
      "åĲĮæŃ¥": 3595,
      "ä¸ļç»©": 3596,
      "æī§çħ§": 3597,
      "å¯Ħ": 3598,
      "å¥ī": 3599,
      "å¿Ļ": 3600,
      "ç»ĵç®Ĺ": 3601,
      "çŁŃæĿ¿": 3602,
      "åĩºäºĨ": 3603,
      "åĬłçĽĸ": 3604,
      "è§£è¯»": 3605,
      "èıĮ": 3606,
      "ä¸ĩåĲ¨": 3607,
      "é«ĺç«¯": 3608,
      "ä¼łè¾¾": 3609,
      "çĽĳå§Ķ": 3610,
      "éĽĨèģļ": 3611,
      "åįģåħ«": 3612,
      "æµ·æ´ĭ": 3613,
      "æ¨ª": 3614,
      "å½ĵå¤©": 3615,
      "è½½ä½ĵ": 3616,
      "å·¥åħ·": 3617,
      "å½¢è±¡": 3618,
      "å¯ĨåĪĩ": 3619,
      "åĪĨéħį": 3620,
      "ä¸ĢåĲį": 3621,
      "å¿ĺ": 3622,
      "æĲ¬": 3623,
      "åĢºåĬ¡": 3624,
      "æ¦ľ": 3625,
      "æ´ŀ": 3626,
      "çī¹å®ļ": 3627,
      "ä¿®æĶ¹": 3628,
      "èĢħçļĦ": 3629,
      "çīĩåĮº": 3630,
      "05": 3631,
      "ç§»åĬ¨": 3632,
      "åģĩæĹ¥": 3633,
      "44": 3634,
      "in": 3635,
      "çĹħä¾ĭ": 3636,
      "%ãĢģ": 3637,
      "å¯¿": 3638,
      "è¯ĪéªĹ": 3639,
      "è¡£": 3640,
      "éģį": 3641,
      "åºķçº¿": 3642,
      "ç¤¾ä¿Ŀ": 3643,
      "ä½Ľ": 3644,
      "ä¸»åĬŀ": 3645,
      "çģŃ": 3646,
      "æł¸åĩĨ": 3647,
      "çĵ¦": 3648,
      "åĬłéĢŁ": 3649,
      "èĢĥèĻĳ": 3650,
      "ä¼Ĭ": 3651,
      "æ·»": 3652,
      "å¸¸åĬ¡": 3653,
      "åĮ»åŃ¦": 3654,
      "ä¸ĵçĶ¨": 3655,
      "æł¸æŁ¥": 3656,
      "å¤§å±Ģ": 3657,
      "åĪĨå·¥": 3658,
      "æĤŁ": 3659,
      "ä¸ºåĩĨ": 3660,
      "çģĮ": 3661,
      "go": 3662,
      "å¥³å£«": 3663,
      "åĬĽçļĦ": 3664,
      "åłµ": 3665,
      "æıŃ": 3666,
      "åīįæľŁ": 3667,
      "æ¹ĸåįĹ": 3668,
      "å¼¹": 3669,
      "æĶ¯éĺŁ": 3670,
      "æıĲè´¨": 3671,
      "å®ŀæķĪ": 3672,
      "æ¡ĥ": 3673,
      "æīĢå¾Ĺ": 3674,
      "çĥŃæĥħ": 3675,
      "åĨįæ¬¡": 3676,
      "æĻĭ": 3677,
      "éļıåĲİ": 3678,
      "å¹´åºķ": 3679,
      "æŁ¥çľĭ": 3680,
      "æ¥ļ": 3681,
      "å¢ŀæĶ¶": 3682,
      "åħ¬ç«ł": 3683,
      "56": 3684,
      "æľĹ": 3685,
      "èĪªç©º": 3686,
      "æµ·åįĹ": 3687,
      "ä½ıå»º": 3688,
      "çºªå¿µ": 3689,
      "çºµ": 3690,
      "éĢļä¿¡": 3691,
      "çĥ§": 3692,
      "åĿı": 3693,
      "æ´Ľ": 3694,
      "èŃ¦ç¤º": 3695,
      "æĪĲå¹´": 3696,
      "88": 3697,
      "96": 3698,
      "çİ°å°Ĩ": 3699,
      "å¤§éĺŁ": 3700,
      "çķľ": 3701,
      "äººä¸º": 3702,
      "çī©è´¨": 3703,
      "åıªæľī": 3704,
      "çıį": 3705,
      "å¹¿åĳĬ": 3706,
      "æŁĲæŁĲ": 3707,
      "éģĹäº§": 3708,
      "åįıåĬ©": 3709,
      "æĮĸæİĺ": 3710,
      "ç²¤": 3711,
      "æĿŃå·ŀ": 3712,
      "è½¯ä»¶": 3713,
      "å¤§éģĵ": 3714,
      "æŀĦæĪĲ": 3715,
      "ä½Ĩæĺ¯": 3716,
      "ç²¾å½©": 3717,
      "èĦī": 3718,
      "è§ĦåĪĻ": 3719,
      "ä¸īçº§": 3720,
      "çĲĨè§£": 3721,
      "æīĢä»¥": 3722,
      "èĬĤæĹ¥": 3723,
      "èĻ½çĦ¶": 3724,
      "ä¿®è®¢": 3725,
      "åĳĪçİ°": 3726,
      "éĺ²æŃ¢": 3727,
      "æıı": 3728,
      "æĶ¹åıĺ": 3729,
      "å°Ĩåľ¨": 3730,
      "ä¹ĭåīį": 3731,
      "æĭħä»»": 3732,
      "Ġ[": 3733,
      "å¸¦å¤´": 3734,
      "åħ±æľī": 3735,
      "æ£ļ": 3736,
      "çĶļ": 3737,
      "å°¾": 3738,
      "æĹ¥æĬ¥": 3739,
      "æ¸¡": 3740,
      "åīįå¾Ģ": 3741,
      "æłĩçļĦ": 3742,
      "ĠæĳĦ": 3743,
      "çº¿ç´¢": 3744,
      "é¡¿": 3745,
      "è§£éĩĬ": 3746,
      "åİŁä»¶": 3747,
      "59": 3748,
      "èķ": 3749,
      "é¥Ń": 3750,
      "åĩºçļĦ": 3751,
      "å²©": 3752,
      "ç¿»": 3753,
      "ï¼ģâĢĿ": 3754,
      "gov": 3755,
      "åĮ»çĶŁ": 3756,
      "è®¤åı¯": 3757,
      "æĻ®åıĬ": 3758,
      "å»īæ´ģ": 3759,
      "è¿ĽæŃ¥": 3760,
      "åĪĨç®¡": 3761,
      "ä½İäºİ": 3762,
      "è¾ĥå¤§": 3763,
      "çĲĨçĶ±": 3764,
      "äºĮçº§": 3765,
      "ç§ĳå®¤": 3766,
      "èĢĹ": 3767,
      "ç»Ħéķ¿": 3768,
      "æī¿åĮħ": 3769,
      "ä¼¸": 3770,
      "èĢķåľ°": 3771,
      "å¾ªçİ¯": 3772,
      "èµł": 3773,
      "è®®æ¡Ī": 3774,
      "éº»": 3775,
      "78": 3776,
      "ä¸ĩäºº": 3777,
      "ç§ĺä¹¦": 3778,
      "åĿĿ": 3779,
      "åıĤä¿Ŀ": 3780,
      "æľºåĻ¨": 3781,
      "åĮºçļĦ": 3782,
      "æıĲç¤º": 3783,
      "æģ©": 3784,
      "æī¿åĬŀ": 3785,
      "èĥŀ": 3786,
      "éĿ¢è¯ķ": 3787,
      "æľŁåĨħ": 3788,
      "58": 3789,
      "çĴ": 3790,
      "éĤ»": 3791,
      "0000": 3792,
      "çĹĽ": 3793,
      "å¥¶": 3794,
      "æĬĵæīĭ": 3795,
      "èĴĻåı¤": 3796,
      "å¿«éĢĴ": 3797,
      "æĶ¿æ³ķ": 3798,
      "è£ķ": 3799,
      "åĢ¾": 3800,
      "éŀ": 3801,
      "è±Ĩ": 3802,
      "èħ¾": 3803,
      "åıĳåĬĽ": 3804,
      "ï¼ĮãĢĬ": 3805,
      "é¾Ļå¤´": 3806,
      "æľīæīĢ": 3807,
      "çĽĳäºĭ": 3808,
      "åıĳæĶ¹": 3809,
      "çĶµå½±": 3810,
      "å®ģå¸Ĥ": 3811,
      "åĨľæĪ·": 3812,
      "AI": 3813,
      "è°ģ": 3814,
      "è´Łæĭħ": 3815,
      "æĸĩç«ł": 3816,
      "é«ĺæĸ°": 3817,
      "åĪĬ": 3818,
      "æĸĩèīº": 3819,
      "ä»¥ä¹ł": 3820,
      "çĽ¸æ¯Ķ": 3821,
      "è·¯å¾Ħ": 3822,
      "é¦Ļæ¸¯": 3823,
      "æłĭ": 3824,
      "æĸĹäºī": 3825,
      "æĺ¯åľ¨": 3826,
      "èĪĴ": 3827,
      "ä¸ºè¿Ľ": 3828,
      "ä¼ĳéĹ²": 3829,
      "äºĳåįĹ": 3830,
      "ä»²è£ģ": 3831,
      "ä¸ļæĢģ": 3832,
      "03": 3833,
      "ä¸Ģçº§": 3834,
      "æľºåľº": 3835,
      "åįłæ¯Ķ": 3836,
      "æľīäºĨ": 3837,
      "éħĴåºĹ": 3838,
      "æŃ»äº¡": 3839,
      "æĳĺ": 3840,
      "åĽ¾ä¹¦": 3841,
      "æķĻæİĪ": 3842,
      "çĶµæ±ł": 3843,
      "76": 3844,
      "è¿Ļæł·": 3845,
      "åĳ¨æľŁ": 3846,
      "ç²¾å¿ĥ": 3847,
      "è·Ŀç¦»": 3848,
      "å¡ŀ": 3849,
      "42": 3850,
      "çĽ¯": 3851,
      "çİ°æľī": 3852,
      "åĪĿæŃ¥": 3853,
      "å¤¯": 3854,
      "ä¸įåı¯": 3855,
      "æĬ½æŁ¥": 3856,
      "ä¸Ģå¸¦": 3857,
      "å¥ĳæľº": 3858,
      "å¹¶å¯¹": 3859,
      "43": 3860,
      "åħ¬æŃ£": 3861,
      "ï¼ļï¼Ī": 3862,
      "åĬ©æİ¨": 3863,
      "éĶģ": 3864,
      "è¿Ļæ¬¡": 3865,
      "çģ«çģ¾": 3866,
      "çĻ¾å¹´": 3867,
      "æĹ±": 3868,
      "éĻª": 3869,
      "ä¾¿æ°ĳ": 3870,
      "çĹħæ¯Ĵ": 3871,
      "ä¸Ĭæ¶¨": 3872,
      "çīĻ": 3873,
      "éĽĨç¾¤": 3874,
      "åħ¨ç¨ĭ": 3875,
      "å·¡è§Ĩ": 3876,
      "å¸ĪçĶŁ": 3877,
      "è¶ĭåĬ¿": 3878,
      "åĪ·": 3879,
      "æĭ¼": 3880,
      "çĽ¸å¯¹": 3881,
      "å¤Ħäºİ": 3882,
      "å¹¿æĴŃ": 3883,
      "é¥°": 3884,
      "å®ĭ": 3885,
      "æĭĽçĶŁ": 3886,
      "ä¸»å¼ł": 3887,
      "æĹħå®¢": 3888,
      "åĪĳäºĭ": 3889,
      "ä¸ĭæĿ¥": 3890,
      "æĬļ": 3891,
      "å¤§éĩı": 3892,
      "å¼ºåĪ¶": 3893,
      "åĨľçĶ°": 3894,
      "éĢĤåºĶ": 3895,
      "å»Ĭ": 3896,
      "æľĪåºķ": 3897,
      "æĪĴ": 3898,
      "ĊĠĊ": 3899,
      "æĹ¶åĪ»": 3900,
      "ä½İç¢³": 3901,
      "è§Ħç«ł": 3902,
      "ä¸įä¼ļ": 3903,
      "å¡«åĨĻ": 3904,
      "çĶļèĩ³": 3905,
      "åĩī": 3906,
      "æ¦ĤåĨµ": 3907,
      "ç«Ļä½į": 3908,
      "PP": 3909,
      "ä¸Ģå®¶": 3910,
      "çī¢è®°": 3911,
      "ä¸ºæ°ĳ": 3912,
      "ä»İä¸ļ": 3913,
      "åĶ¯": 3914,
      "çĽ¸äºĴ": 3915,
      "éħįå¤ĩ": 3916,
      "æĿ¯": 3917,
      "éĺ²çĸ«": 3918,
      "é¦ĸåħĪ": 3919,
      "æ¸ħæ´ģ": 3920,
      "èº«è¾¹": 3921,
      "çłĶè®¨": 3922,
      "æŁ³": 3923,
      "éĿŀéģĹ": 3924,
      "å¾ģç¨ĭ": 3925,
      "åįģåĪĨ": 3926,
      "æĶ¶çĽĬ": 3927,
      "çĭ±": 3928,
      "èģĮåĬ¡": 3929,
      "éĩįæĸ°": 3930,
      "éļĶç¦»": 3931,
      "åħĪè¡Į": 3932,
      "æĽ´å¤§": 3933,
      "æķ´ä¸ª": 3934,
      "æľīåĪ©": 3935,
      "çĽĳçĲĨ": 3936,
      "çĪ±å¿ĥ": 3937,
      "èµı": 3938,
      "è¾ŀ": 3939,
      "è¯¾åłĤ": 3940,
      "æ²³åįĹ": 3941,
      "æĸĮ": 3942,
      "åĲĮåŃ¦": 3943,
      "Ġ2022": 3944,
      "åĪĽä½ľ": 3945,
      "èĸĦ": 3946,
      "02": 3947,
      "ä»ģ": 3948,
      "äººç±»": 3949,
      "å¤ļæł·": 3950,
      "çŁ¥åĲį": 3951,
      "å£®å¤§": 3952,
      "åİī": 3953,
      "è·Łè¸ª": 3954,
      "å¤įæĿĤ": 3955,
      "ç±»åŀĭ": 3956,
      "ç¬ĳ": 3957,
      "æ°´åºĵ": 3958,
      "æĮĩåįĹ": 3959,
      "æ¶ĪéĻ¤": 3960,
      "å¤¯å®ŀ": 3961,
      "ä¾¨": 3962,
      "åĨħæ¶µ": 3963,
      "å¯Ĵ": 3964,
      "æĹ¥æľ¬": 3965,
      "ç¨¿": 3966,
      "åĲĪè®¡": 3967,
      "400": 3968,
      "äººç¾¤": 3969,
      "57": 3970,
      "çłĶåĪ¤": 3971,
      "æµģåŁŁ": 3972,
      "æĢĿç»´": 3973,
      "è¡¨åĨ³": 3974,
      "éĺŁåĳĺ": 3975,
      "ç¯®": 3976,
      "æĽ´é«ĺ": 3977,
      "ä¹ĭè·¯": 3978,
      "41": 3979,
      "èĻ«": 3980,
      "è¹": 3981,
      "éĻ¤å¤ĸ": 3982,
      "ä¸īè§Ĵ": 3983,
      "æ½ľåľ¨": 3984,
      "éģĩåĪ°": 3985,
      "èĢĲ": 3986,
      "åºĶè¯¥": 3987,
      "çĥŃçº¿": 3988,
      "åŁºäºİ": 3989,
      "çŃĳçī¢": 3990,
      "ä¿Ĭ": 3991,
      "åĩºçīĪ": 3992,
      "è¿Ľåı£": 3993,
      "å£°æĺİ": 3994,
      "å°¤åħ¶": 3995,
      "çŃīåľ°": 3996,
      "åħ³çĪ±": 3997,
      "æĮĩæķ°": 3998,
      "ä¸ĵåĪ©": 3999,
      "ç´§å¯Ĩ": 4000,
      "èĬĤçĤ¹": 4001,
      "è¿«": 4002,
      "ç®¡éģĵ": 4003,
      "éķ¿æķĪ": 4004,
      "å®ļçĤ¹": 4005,
      "æĶ¶åıĸ": 4006,
      "çĺ": 4007,
      "ç¾İé£Ł": 4008,
      "åĮĸå·¥": 4009,
      "å¥Ķ": 4010,
      "ç¾Ĭ": 4011,
      "åĲīæŀĹ": 4012,
      "67": 4013,
      "æĥ©": 4014,
      "èĬĤçº¦": 4015,
      "æĿĨ": 4016,
      "èĸª": 4017,
      "æµ©": 4018,
      "è®¸å¤ļ": 4019,
      "è¿Ĳæ²³": 4020,
      "æ¸©æļĸ": 4021,
      "97": 4022,
      "ä¼ļçļĦ": 4023,
      "æĸ°ä¸Ģ": 4024,
      "èĬĤçĽ®": 4025,
      "ç¬¬ä¸ĥ": 4026,
      "å½ĵæĹ¶": 4027,
      "è¥¿éĥ¨": 4028,
      "æ¼«": 4029,
      "çĶĺèĤĥ": 4030,
      "è°±": 4031,
      "åĲĦæĸ¹": 4032,
      "èĭıå·ŀ": 4033,
      "æĪĲå°±": 4034,
      "çİ°éĩĳ": 4035,
      "åĲĮæľŁ": 4036,
      "åĬĽäºī": 4037,
      "Ġ2021": 4038,
      "åħļåĴĮ": 4039,
      "çİ°è±¡": 4040,
      "æĢ»å±Ģ": 4041,
      "æ¨¡èĮĥ": 4042,
      "æķĪèĥ½": 4043,
      "åıĸæ¶Ī": 4044,
      "å®ŀä½ĵ": 4045,
      "æľ¬åľ°": 4046,
      "æİ¨ä»ĭ": 4047,
      "å°ĺ": 4048,
      "å°ıå¾®": 4049,
      "æºĲå¤´": 4050,
      "åĬ¨çī©": 4051,
      "ä¼¦": 4052,
      "æļĳ": 4053,
      "è·¨å¢ĥ": 4054,
      "åıĳåĩº": 4055,
      "éĺ´": 4056,
      "æıĲèµ·": 4057,
      "æĮĩå¼ķ": 4058,
      "éļľç¢į": 4059,
      "éĺ²çģ«": 4060,
      "åłĨ": 4061,
      "è¾½å®ģ": 4062,
      "5000": 4063,
      "æ¯«": 4064,
      "é¹ı": 4065,
      "åºĶåľ¨": 4066,
      "æĶ¹è¿Ľ": 4067,
      "å®ĹæķĻ": 4068,
      "çĩķ": 4069,
      "é©±åĬ¨": 4070,
      "±ä¹Ĳ": 4071,
      "æ°Ķæ¸©": 4072,
      "åģļæ³ķ": 4073,
      "æĸ°åħ´": 4074,
      "ä»£çłģ": 4075,
      "å¼Ģå¹ķ": 4076,
      "ä¸Ģæµģ": 4077,
      "æ¹¿åľ°": 4078,
      "è¡¨æ¼Ķ": 4079,
      "éģµå®Ī": 4080,
      "è¿Ŀçº¦": 4081,
      "ä¹İ": 4082,
      "éķľ": 4083,
      "å¾ħéģĩ": 4084,
      "å¦Ī": 4085,
      "å¼ķèµĦ": 4086,
      "åı°è´¦": 4087,
      "è´¤": 4088,
      "åĨ»": 4089,
      "è§£éĻ¤": 4090,
      "æ¼Ķåĩº": 4091,
      "è½¬è®©": 4092,
      "å·¥äºº": 4093,
      "å¤įå·¥": 4094,
      "ç¾İåħĥ": 4095,
      "åĮħè£ħ": 4096,
      "æ°§": 4097,
      "åıĳçļĦ": 4098,
      "ç§¦": 4099,
      "ä¸Ģä»½": 4100,
      "ç²¾åĵģ": 4101,
      "Ġ2024": 4102,
      "èĪį": 4103,
      "èĤ¡æĿĥ": 4104,
      "Ġ11": 4105,
      "å¸ĤåĮº": 4106,
      "2014": 4107,
      "éĦ": 4108,
      "è¸ı": 4109,
      "è¥¿èĹı": 4110,
      "é¾Ļæ±Ł": 4111,
      "å¤©çĦ¶": 4112,
      "æİ¥ç§į": 4113,
      "äº§åĢ¼": 4114,
      "æĽ´æĺ¯": 4115,
      "éĶ¡": 4116,
      "é¢ĦæľŁ": 4117,
      "åĨ°éĽª": 4118,
      "ÃĹÃĹ": 4119,
      "åĽĽæĺ¯": 4120,
      "èĥĮæĻ¯": 4121,
      "çĸ«èĭĹ": 4122,
      "åıĳè¡¨": 4123,
      "åľºåľ°": 4124,
      "æ¶Ľ": 4125,
      "æ¤įçī©": 4126,
      "è¦ģæĬĬ": 4127,
      "Ġ12": 4128,
      "æıĲæ¡Ī": 4129,
      "Ġä¸ĥ": 4130,
      "ä¾¿æį·": 4131,
      "åħģ": 4132,
      "æįķ": 4133,
      "å®ŀçļĦ": 4134,
      "æľºä¼ļ": 4135,
      "çĭ¬çī¹": 4136,
      "è´º": 4137,
      "éĩĮçļĦ": 4138,
      "å»¶ä¼¸": 4139,
      "ä¸īå¤§": 4140,
      "ç»ıå¸¸": 4141,
      "åħ¬æ°ĳ": 4142,
      "è¯īæ±Ĥ": 4143,
      "èī°": 4144,
      "å¢ŀæķĪ": 4145,
      "ç©ºæ°Ķ": 4146,
      "å¸ĤæĶ¿": 4147,
      "è·¯çº¿": 4148,
      "éĵ¸": 4149,
      "å°½å¿«": 4150,
      "Ġè¿ĳ": 4151,
      "è¡¨è¾¾": 4152,
      "å½¢æĢģ": 4153,
      "çŃ¾ç½²": 4154,
      "æ²»åħļ": 4155,
      "å®Įåħ¨": 4156,
      "ä¸ļä¸»": 4157,
      "æŀ¢": 4158,
      "éĢļè¡Į": 4159,
      "åĪĨä¸º": 4160,
      "è§Ĩä¸º": 4161,
      "èĥľåĪ©": 4162,
      "è´Ŀ": 4163,
      ")ãĢĤ": 4164,
      "ä¼Ĳ": 4165,
      "ï¼Ī[": 4166,
      "æĿ¥è¯´": 4167,
      "çĽ®å½ķ": 4168,
      "å£¤": 4169,
      "çŁ¥éģĵ": 4170,
      "ç´§ç´§": 4171,
      "ä¸įåĨį": 4172,
      "ä¸īåħ¬": 4173,
      "èĬ³": 4174,
      "å·ŀåĮº": 4175,
      "æ¡¥æ¢ģ": 4176,
      "éĢĶå¾Ħ": 4177,
      "æĹ¦": 4178,
      "æĶ¯è¡Į": 4179,
      "å»¶æľŁ": 4180,
      "æĢģåĬ¿": 4181,
      "å±ķè§Ī": 4182,
      "åĲİç»Ń": 4183,
      "åĿļå¼º": 4184,
      "çĹĩçĬ¶": 4185,
      "é¸Ł": 4186,
      "æĹ¥åľ¨": 4187,
      "çĪ±åĽ½": 4188,
      "éļıæľº": 4189,
      "ç¦ģæŃ¢": 4190,
      "æĿ¥çľĭ": 4191,
      "æĢİä¹Ī": 4192,
      "è·¯æ®µ": 4193,
      "ä»¬çļĦ": 4194,
      "ä»ĸçļĦ": 4195,
      "æµ·å¤ĸ": 4196,
      "åĩºåıĳ": 4197,
      "æľ¬çº§": 4198,
      "çĽĳçĭ±": 4199,
      "æĬĵå®ŀ": 4200,
      "éĺµåľ°": 4201,
      "ä¸´åºĬ": 4202,
      "åı¦ä¸Ģ": 4203,
      "èħĲè´¥": 4204,
      "æĿĢ": 4205,
      "å¹³ç¨³": 4206,
      "åħħçĶµ": 4207,
      "52": 4208,
      "CA": 4209,
      "å¤§åİħ": 4210,
      "Ġçİĭ": 4211,
      "ç«£": 4212,
      "æ¸¸æĪı": 4213,
      "86": 4214,
      "äºīè®®": 4215,
      "è¦ģåľ¨": 4216,
      "æłĩæ®µ": 4217,
      "å¦Ĥæľī": 4218,
      "ç«ŀèµĽ": 4219,
      "éģŃ": 4220,
      "ä¸ĩä½Ļ": 4221,
      "è¯ĦéĢī": 4222,
      "å£ģ": 4223,
      "è¿ª": 4224,
      "åĽ½éĺ²": 4225,
      "å¿Ĩ": 4226,
      "çĶ¨äºº": 4227,
      "æ±Łè¥¿": 4228,
      "çŃĽ": 4229,
      "æĩĤ": 4230,
      "æľĢä½İ": 4231,
      "æµĭè¯ķ": 4232,
      "åĪº": 4233,
      "æµ®": 4234,
      "åĽ½åľŁ": 4235,
      "æ¬£": 4236,
      "é«ĺéĵģ": 4237,
      "ç§ĳåĪĽ": 4238,
      "æĦŁåĴĮ": 4239,
      "åĶ®ä»·": 4240,
      "è§Ĥçľĭ": 4241,
      "è°ĪåĪ¤": 4242,
      "çĶŁæķĪ": 4243,
      "åĿ¦": 4244,
      "èĪŁ": 4245,
      "ä¼ļåĲĮ": 4246,
      "åĪĨè¡Į": 4247,
      "åĨħå¤ĸ": 4248,
      "å½ĵå¹´": 4249,
      "éĻ¢éķ¿": 4250,
      "æĻ®æŁ¥": 4251,
      "æ©": 4252,
      "ä¸Ńçº§": 4253,
      "åħļæĶ¿": 4254,
      "æĬķç¥¨": 4255,
      "ç»ıåİĨ": 4256,
      "æ±īæĹı": 4257,
      "æĥ¯": 4258,
      "èĩªä¿¡": 4259,
      "åıĤèµĽ": 4260,
      "ä¸ĸçºª": 4261,
      "åĴĮå¹³": 4262,
      "å¯¹çħ§": 4263,
      "ï¼ħ": 4264,
      "ç»ĨåĪĻ": 4265,
      "è¦ģè¿Ľ": 4266,
      "åĩºåĽ½": 4267,
      "]ï¼ī": 4268,
      "ä¸ģ": 4269,
      "çļĦåīį": 4270,
      "ç«£å·¥": 4271,
      "èĮĤ": 4272,
      "çĶµä¿¡": 4273,
      "èĭ¥å¹²": 4274,
      "å±ķå¼Ģ": 4275,
      "åĿª": 4276,
      "æ¨¡åŀĭ": 4277,
      "åħ¬çĶ¨": 4278,
      "æĪĳçļĦ": 4279,
      "å±ĢéĿ¢": 4280,
      "èĲ¥éĶĢ": 4281,
      "èĢĮä¸Ķ": 4282,
      "å¦ĩå¥³": 4283,
      "åŃ¦åİĨ": 4284,
      "çİĩåħĪ": 4285,
      "æĻ¨": 4286,
      "é¢Ĩåıĸ": 4287,
      "åĩĮ": 4288,
      "èĲ¨": 4289,
      "åį±å®³": 4290,
      "åŃĶ": 4291,
      "éĩĩè®¿": 4292,
      "å¢¨": 4293,
      "æł¸å®ŀ": 4294,
      "èį£èªī": 4295,
      "èĩªçĶ±": 4296,
      "ä¸įèī¯": 4297,
      "æ¯Ķå¦Ĥ": 4298,
      "é»ĺ": 4299,
      "åĬ¨èĥ½": 4300,
      "æĺ¯æĮĩ": 4301,
      "åŁİç®¡": 4302,
      "å±±è¥¿": 4303,
      "æĲºæīĭ": 4304,
      "æŀª": 4305,
      "æĭĸ": 4306,
      "åĮħåĲ«": 4307,
      "åĢ¼çıŃ": 4308,
      "åŁºåĽł": 4309,
      "å¤ļç§į": 4310,
      "è¾ħå¯¼": 4311,
      "120": 4312,
      "87": 4313,
      "å¾ģæ±Ĥ": 4314,
      "åº·å¤į": 4315,
      "éĤ®æĶ¿": 4316,
      "Ġå¹´": 4317,
      "å®ª": 4318,
      "éĥ¨éĺŁ": 4319,
      "2025": 4320,
      "æĶ¶æĶ¯": 4321,
      "éģĵå¾·": 4322,
      "éĢĲæ¸Ĳ": 4323,
      "åı«": 4324,
      "äº§éĩı": 4325,
      "æĢ»éĩı": 4326,
      "å³¡": 4327,
      "æĹº": 4328,
      "èĲ¥åħ»": 4329,
      "æħĪ": 4330,
      "çº¯": 4331,
      "å¼ºå¤§": 4332,
      "ä¹Łæľī": 4333,
      "åĬłåħ¥": 4334,
      "çŃĶå¤į": 4335,
      "åľŁå£¤": 4336,
      "ç»ıå¼Ģ": 4337,
      "åĭĴ": 4338,
      "åħ¥éĢī": 4339,
      "éĽĨæĪĲ": 4340,
      "è¾Ľ": 4341,
      "åľ°åĿĹ": 4342,
      "âĢĿï¼ī": 4343,
      "è¾¾æĪĲ": 4344,
      "çļĦå°ı": 4345,
      "çĽ¼": 4346,
      "åİķ": 4347,
      "èĻļåģĩ": 4348,
      "69": 4349,
      "3000": 4350,
      "å®ŀæĹ¶": 4351,
      "å¿§": 4352,
      "åĽŀè´Ń": 4353,
      "éª¨å¹²": 4354,
      "ä¸įåĪ°": 4355,
      "åĩºç§Ł": 4356,
      "æĥħèĬĤ": 4357,
      "åĩıçģ¾": 4358,
      "51": 4359,
      "äºŃ": 4360,
      "éĺĶ": 4361,
      "å¤įåħ´": 4362,
      "ç«ĭæ³ķ": 4363,
      "éĺ³åħī": 4364,
      "äººäºĭ": 4365,
      "æ²³éģĵ": 4366,
      "ç´§æĢ¥": 4367,
      "æīĵå¥½": 4368,
      "ä»ĬåĲİ": 4369,
      "èĻİ": 4370,
      "é¸£": 4371,
      "æĸĩä¹¦": 4372,
      "è½¦éĹ´": 4373,
      "è¶³çĲĥ": 4374,
      "ä¸ŃåĮ»": 4375,
      "åĿļå®Ī": 4376,
      "äººå±ħ": 4377,
      "å¢ŀåĢ¼": 4378,
      "å²³": 4379,
      "æľªæĮī": 4380,
      "é©¬åħĭ": 4381,
      "è±ª": 4382,
      "å®ģæ³¢": 4383,
      "ç¦½": 4384,
      "æµİåįĹ": 4385,
      "ç´§çĽ¯": 4386,
      "æ¸¯æ¾³": 4387,
      "è£ģå®ļ": 4388,
      "ä¸ĬéĹ¨": 4389,
      "èµ·è¯ī": 4390,
      "æŀ¢çº½": 4391,
      "èĥ¶": 4392,
      "è´¨çĸĳ": 4393,
      "çĶµæ¢¯": 4394,
      "è§Ĥå¯Ł": 4395,
      "çİ°å®ŀ": 4396,
      "åł¡": 4397,
      "æĽ¿": 4398,
      "åĩºè®©": 4399,
      "æīĢéľĢ": 4400,
      "åħĪéĶĭ": 4401,
      "é»Ħæ²³": 4402,
      "ä¼ļåľ¨": 4403,
      "éĶ»": 4404,
      "éĢīä¸¾": 4405,
      "éĢīæīĭ": 4406,
      "èĢģæĹ§": 4407,
      "æ¶Īæģ¯": 4408,
      "53": 4409,
      "æĵħ": 4410,
      "ç¨³æŃ¥": 4411,
      "åľ°ä½į": 4412,
      "åģľæŃ¢": 4413,
      "çĶ¨å¥½": 4414,
      "åĽ¢ä½ĵ": 4415,
      "ä¸Ĭåįĩ": 4416,
      "åĽŀæĶ¶": 4417,
      "çĶµåĬ¨": 4418,
      "èģĶçĽŁ": 4419,
      "ä¸ĬæĬ¥": 4420,
      "è®²åº§": 4421,
      "äº¤ä»ĺ": 4422,
      "åĢºåĪ¸": 4423,
      "å¥ĭè¿Ľ": 4424,
      "77": 4425,
      "ä¸ªä½ĵ": 4426,
      "éļ¾çĤ¹": 4427,
      "ä¸Ģæł·": 4428,
      "æ¯ıä¸Ģ": 4429,
      "æľĢæĸ°": 4430,
      "é£ŁçĶ¨": 4431,
      "ç§Łéĩĳ": 4432,
      "çĵ¶": 4433,
      "æī¹å¤į": 4434,
      "èĪĨ": 4435,
      "ä¸¥èĤĥ": 4436,
      "å¥ĭåĬĽ": 4437,
      ")ãĢģ": 4438,
      "å¦¥": 4439,
      "92": 4440,
      "è¦ģä»¥": 4441,
      "å¼ĢéĢļ": 4442,
      "æ»©": 4443,
      "ä½ıå®ħ": 4444,
      "å®ĪæĬ¤": 4445,
      "åĲĦä¸ª": 4446,
      "èī¾": 4447,
      "åı°æ¹¾": 4448,
      "åĻ¨æ¢°": 4449,
      "å¤º": 4450,
      "Ġå¼ł": 4451,
      "ç¬¬åħ«": 4452,
      "è¿İæĿ¥": 4453,
      "ï¼īãĢĭ": 4454,
      "æĻ¯è§Ĥ": 4455,
      "æ°ĳéĹ´": 4456,
      "æĽ¹": 4457,
      "çħ§çīĩ": 4458,
      "æ¯ıæľĪ": 4459,
      "åĨĴ": 4460,
      "å¤ļçļĦ": 4461,
      "å¤ļå¹´": 4462,
      "è¡¨å½°": 4463,
      "æĥłæ°ĳ": 4464,
      "éĹ¨åı£": 4465,
      "å±ŀåľ°": 4466,
      "éľŀ": 4467,
      "ä½ıéĻ¢": 4468,
      "å·§": 4469,
      "å®¢è§Ĥ": 4470,
      "æµĵåİļ": 4471,
      "åħ»æĬ¤": 4472,
      "å®«": 4473,
      "éķ¿æ²Ļ": 4474,
      "è¢ĭ": 4475,
      "ä»¥åīį": 4476,
      "çĤī": 4477,
      "é»İ": 4478,
      "****": 4479,
      "çĲĨæĥ³": 4480,
      "å¥īçĮ®": 4481,
      "62": 4482,
      "å¤§å¹ħ": 4483,
      "ä¸Ĭä¼ł": 4484,
      "è¾Ĳ": 4485,
      "æ¶Īæ¯Ĵ": 4486,
      "éĵ¾æĿ¡": 4487,
      "ä»¥åĲİ": 4488,
      "éĹ¨è¯Ĭ": 4489,
      "æµģéĩı": 4490,
      "æİĴåĲį": 4491,
      "èİ·æĤī": 4492,
      "Ġèĩª": 4493,
      "è¿Ł": 4494,
      "ä¸Ģå®¡": 4495,
      "å¸ĤçĽ´": 4496,
      "ä»ĸäºº": 4497,
      "89": 4498,
      "ä¿Ŀåģ¥": 4499,
      "ãĢĤãĢĬ": 4500,
      "è¯Ħæłĩ": 4501,
      "åī¯æĢ»": 4502,
      "èĵĦ": 4503,
      "éĢŁåº¦": 4504,
      "æķĳçģ¾": 4505,
      "Ġ09": 4506,
      "äººå¿ĥ": 4507,
      "èµ£": 4508,
      "--": 4509,
      "æĮĤçīĮ": 4510,
      "çĵľ": 4511,
      "å¼ºåĽ½": 4512,
      "çŁ¿å±±": 4513,
      "åĬŁå¤«": 4514,
      "é«ĺçļĦ": 4515,
      "äºĮæ¬¡": 4516,
      "çĿ£å¯Ł": 4517,
      "æ²¿çº¿": 4518,
      "äºĶä¸ª": 4519,
      "éĤ¦": 4520,
      "æĻ°": 4521,
      "ä¼ĺèī¯": 4522,
      "é«ĺä¸Ń": 4523,
      "æ·Ģ": 4524,
      "å¢ĥå¤ĸ": 4525,
      "åħīä¼ı": 4526,
      "è¾Ĳå°Ħ": 4527,
      "åīĳ": 4528,
      "æłª": 4529,
      "æ²»å®ī": 4530,
      "èģĮç§°": 4531,
      "æĢģåº¦": 4532,
      "ĠæĿİ": 4533,
      "è·Į": 4534,
      "é¸¿": 4535,
      "åıĳåĬ¨": 4536,
      "æĬ¥èĢĥ": 4537,
      "éĿĴæĺ¥": 4538,
      "æİ¥è§¦": 4539,
      "è¿ĺå°Ĩ": 4540,
      "è¯Ńè¨Ģ": 4541,
      "å°ĸ": 4542,
      "å¼ºçļĦ": 4543,
      "èģļéĽĨ": 4544,
      "çĭł": 4545,
      "åĢ¼å¾Ĺ": 4546,
      "èĩ´å¯Į": 4547,
      "åĲĦçķĮ": 4548,
      "çī¹ç§į": 4549,
      "éĩĬæĶ¾": 4550,
      "éĻĦå±ŀ": 4551,
      "èĩ³ä»Ĭ": 4552,
      "éĹ²ç½®": 4553,
      "ä½Ļäºº": 4554,
      "é²ľæĺİ": 4555,
      "å¤įè®®": 4556,
      "ä¼Ļä¼´": 4557,
      "å··": 4558,
      "åŃ¦åĳĺ": 4559,
      "è§£æĶ¾": 4560,
      "âĢĿï¼Ľ": 4561,
      "æµģéĢļ": 4562,
      "ä¹Łä¸į": 4563,
      "æĹ¶éĻĲ": 4564,
      "Ġä¸ĭ": 4565,
      "åĲ¬è¯ģ": 4566,
      "72": 4567,
      "ä¼ļåĳĺ": 4568,
      "å¾¡": 4569,
      "èį¯çī©": 4570,
      "åĮł": 4571,
      "è¿½ç©¶": 4572,
      "æı´åĬ©": 4573,
      "åĨĢ": 4574,
      "åħ¬æĸ¤": 4575,
      "æİ¥åĪ°": 4576,
      "ä»İèĢĮ": 4577,
      "éĻ·": 4578,
      "]ãĢĤ": 4579,
      "éĳ": 4580,
      "ä¸Ģç§į": 4581,
      "ä¾ĽçĶµ": 4582,
      "éĳ«": 4583,
      "åħģè®¸": 4584,
      "éĩĳå±ŀ": 4585,
      "æ°´è´¨": 4586,
      "åįģæĿ¡": 4587,
      "æ¸©åº¦": 4588,
      "æĦıåĲĳ": 4589,
      "å¤ĸè´¸": 4590,
      "äº¦": 4591,
      "åĪĨå¸ĥ": 4592,
      "æ¶īå«Į": 4593,
      "ell": 4594,
      "ä¹ı": 4595,
      "ä¸İä¼ļ": 4596,
      "çľģå¸Ĥ": 4597,
      "èįīåİŁ": 4598,
      "ä¸ĵçıŃ": 4599,
      "re": 4600,
      "æĿĳåºĦ": 4601,
      "éŃħ": 4602,
      "æĭĴç»Ŀ": 4603,
      "600": 4604,
      "å·¥ä¿¡": 4605,
      "æĪĳåĮº": 4606,
      "éĻĪè¿°": 4607,
      "åĬ³åĬ¡": 4608,
      "æİĪäºĪ": 4609,
      "ç½Ĺæĸ¯": 4610,
      "æ¶Ĥ": 4611,
      "åĭĥ": 4612,
      "æ¸¯åı£": 4613,
      "æĪĺæĸĹ": 4614,
      "æ½Ń": 4615,
      "54": 4616,
      "æ¶Į": 4617,
      "åİ¿åŁŁ": 4618,
      "å®ŀåĬĽ": 4619,
      "ç«ŀä»·": 4620,
      "è·³": 4621,
      "ç»ĵä½Ļ": 4622,
      "åħ¨åŁŁ": 4623,
      "èĢ³": 4624,
      "Ġä»İ": 4625,
      "äººåĴĮ": 4626,
      "æ±¤": 4627,
      "åı¥": 4628,
      "2013": 4629,
      "å®¢è¿Ĳ": 4630,
      "åħ¨å±Ģ": 4631,
      "è¯ķè¡Į": 4632,
      "è´¦åı·": 4633,
      "åİ¦éĹ¨": 4634,
      "åĪĨåŃĲ": 4635,
      "é¦ĸæī¹": 4636,
      "èµ°åĩº": 4637,
      "çİ°çĬ¶": 4638,
      "åı¯åľ¨": 4639,
      "åĩ¯": 4640,
      "åįļå£«": 4641,
      "å·¥åľ°": 4642,
      "åĲĦèĩª": 4643,
      "ç½©": 4644,
      "è¯»ä¹¦": 4645,
      "79": 4646,
      "èİ±": 4647,
      "å¾ģéĽĨ": 4648,
      "ä¸ĥæĿ¡": 4649,
      "ç¥ĸåĽ½": 4650,
      "å¹´é¾Ħ": 4651,
      "æķĪåºĶ": 4652,
      "æĻ®æĥł": 4653,
      "å¤§åİ¦": 4654,
      "ä¼łéĢĴ": 4655,
      "ä¹łæĥ¯": 4656,
      "éħįéĢģ": 4657,
      "å¿łè¯ļ": 4658,
      "æĹ¨åľ¨": 4659,
      "æł¡éķ¿": 4660,
      "è¯ĨåĪ«": 4661,
      "æ§": 4662,
      "æ³¨åħ¥": 4663,
      "æī§ä¸ļ": 4664,
      "123": 4665,
      "æĭĵå®½": 4666,
      "æ¬§æ´²": 4667,
      "Ġåı·": 4668,
      "æŀĿ": 4669,
      "æĹ¥æĻļ": 4670,
      "æĳĬ": 4671,
      "éĻĦè¿ĳ": 4672,
      "èĪ¹èĪ": 4673,
      "åĲĪèĤ¥": 4674,
      "æľŁå¾ħ": 4675,
      "éĥ½æľī": 4676,
      "è¯¾é¢ĺ": 4677,
      "çŃīå¥ĸ": 4678,
      "ä½łä»¬": 4679,
      "64": 4680,
      "äººåĿĩ": 4681,
      "å·¥åİĤ": 4682,
      "åħļçºª": 4683,
      "åĽŀåºĶ": 4684,
      "ä¸ľåĮĹ": 4685,
      "å°Ŀ": 4686,
      "åħħæ»¡": 4687,
      "è®¢åįķ": 4688,
      "æĹģ": 4689,
      "ä¸»å¯¼": 4690,
      "ç¡ķ": 4691,
      "ä»£ç¼´": 4692,
      "åľ¨æĸ°": 4693,
      "å®£å¸ĥ": 4694,
      "ç¾İæľ¯": 4695,
      "å¯¨": 4696,
      "åįķåħĥ": 4697,
      "åĨľæľº": 4698,
      "ä¹ĭæĹ¥": 4699,
      "å®¹æĺĵ": 4700,
      "ç¼ĺ": 4701,
      "æ²³æ¹ĸ": 4702,
      "æĵħèĩª": 4703,
      "åįģä¸Ģ": 4704,
      "å²ģçļĦ": 4705,
      "éĻ¢æł¡": 4706,
      "å¯ĨéĽĨ": 4707,
      "æ²ª": 4708,
      "å¯¹æŃ¤": 4709,
      "åĬŀåŃ¦": 4710,
      "æĶ¾åľ¨": 4711,
      "æī°": 4712,
      "æĸĩåŃ¦": 4713,
      "æīĵéĢļ": 4714,
      "73": 4715,
      "åĪĨçº§": 4716,
      "ä¼Ĺå¤ļ": 4717,
      "é¢ľ": 4718,
      "åĵ¥": 4719,
      "æ±Łå¸Ĥ": 4720,
      "å½°æĺ¾": 4721,
      "åĲĽ": 4722,
      "æĪĲäºĨ": 4723,
      "å·®å¼Ĥ": 4724,
      "æĴ¤éĶĢ": 4725,
      "è¾ĳ": 4726,
      "æ°´çĶµ": 4727,
      "è£ħç½®": 4728,
      "æµ¸": 4729,
      "ç£¨": 4730,
      "èĪ¹èĪ¶": 4731,
      "å¢ŀéĢŁ": 4732,
      "æĤ¦": 4733,
      "æħİ": 4734,
      "èĩ³å°ĳ": 4735,
      "ä¸²": 4736,
      "è®ºè¿°": 4737,
      "ç´«": 4738,
      "63": 4739,
      "åŃµ": 4740,
      "åģļå¼º": 4741,
      "æ¯ıæĹ¥": 4742,
      "ç»ĵè½¬": 4743,
      "çĽĪ": 4744,
      "ç®¡ç½ĳ": 4745,
      "å°±åĮ»": 4746,
      "èĪªå¤©": 4747,
      "çī¢åĽº": 4748,
      "å¤ľéĹ´": 4749,
      "åĵĪå°Ķ": 4750,
      "110": 4751,
      "ç»į": 4752,
      "),": 4753,
      "æ¡Ĩ": 4754,
      "éĢ»": 4755,
      "å½ĵæĹ¥": 4756,
      "é¢Ĺ": 4757,
      "ç§ĳçĽ®": 4758,
      "éĤĵ": 4759,
      "æĲ¬è¿ģ": 4760,
      "éŃħåĬĽ": 4761,
      "84": 4762,
      "ä¸ĩå¹³": 4763,
      "è¿Ĳä¼ļ": 4764,
      "82": 4765,
      "cell": 4766,
      "å¤ĸçļĦ": 4767,
      "å¢ĥåĨħ": 4768,
      "èĢĥåı¤": 4769,
      "åį³å°Ĩ": 4770,
      "æ¹¾åĮº": 4771,
      "ç¬¬ä¹Ŀ": 4772,
      "ä»Ļ": 4773,
      "åıįå¯¹": 4774,
      "åħĳ": 4775,
      "å®¶åĽŃ": 4776,
      "æĶ¶èİ·": 4777,
      "ä¸ľæĸ¹": 4778,
      "æī¹æ¬¡": 4779,
      "ãĢĭ,": 4780,
      "è§Ĥå¿µ": 4781,
      "åģĩæľŁ": 4782,
      "èģĺçĶ¨": 4783,
      "æĭĨéĻ¤": 4784,
      "ä¸ĢæľŁ": 4785,
      "å¹¶ä¸į": 4786,
      "åıĭå¥½": 4787,
      "åĽ½èµĦ": 4788,
      "æĹ¶çļĦ": 4789,
      "åĲİæŀľ": 4790,
      "ç¢§": 4791,
      "å·¥ä¼¤": 4792,
      "æĺĨæĺİ": 4793,
      "å¤§æ°Ķ": 4794,
      "è¯ģä»¶": 4795,
      "åĸ·": 4796,
      "æĬµæĬ¼": 4797,
      "ç½ĳåıĭ": 4798,
      "94": 4799,
      "ç»ŁæĪĺ": 4800,
      "åĨ¬åŃ£": 4801,
      "ĠåĮº": 4802,
      "2012": 4803,
      "çĶ¨çĶµ": 4804,
      "å¢ĵ": 4805,
      "åģļåĩº": 4806,
      "äºĶå¹´": 4807,
      "ç´łåħ»": 4808,
      "éĦĤ": 4809,
      "ç«ŀä¹°": 4810,
      "å¹¶äºİ": 4811,
      "æĹħè¡Į": 4812,
      "å®ªæ³ķ": 4813,
      "èī³": 4814,
      "çģµæ´»": 4815,
      "ä¸įè¦ģ": 4816,
      "åĲĦåĮº": 4817,
      "çī©åĵģ": 4818,
      "è¥¿å®ī": 4819,
      "èĨľ": 4820,
      "æ°¢": 4821,
      "æ£ĭ": 4822,
      "èį·": 4823,
      "èįĨ": 4824,
      "åħļé£İ": 4825,
      "å¨±ä¹Ĳ": 4826,
      "ï½": 4827,
      "è¯¸": 4828,
      "å¯¹æłĩ": 4829,
      "ä¸¤å¹´": 4830,
      "é«ĺèĢĥ": 4831,
      "åĵªäºĽ": 4832,
      "åľ°çĲĨ": 4833,
      "éĢļè®¯": 4834,
      "è¶ħå¸Ĥ": 4835,
      "è¾ħåĬ©": 4836,
      "æłĩè¯Ĩ": 4837,
      "å°Ĩä»¥": 4838,
      "æĶ¾å¿ĥ": 4839,
      "çĤŃ": 4840,
      "èĬ¯": 4841,
      "èĪŀåı°": 4842,
      "åįĵ": 4843,
      "å¥ł": 4844,
      "æĥĬ": 4845,
      "æĦģ": 4846,
      "éĤ£ä¹Ī": 4847,
      "è¿·": 4848,
      "å¼Ģè®¾": 4849,
      "æĶ¾å¼ĥ": 4850,
      "å¼ķåıĳ": 4851,
      "æĲľ": 4852,
      "é«ĺäºİ": 4853,
      "ä¿¡å¿µ": 4854,
      "æĲŀ": 4855,
      "ä¼ļåľº": 4856,
      "ä¸ĭè¾¾": 4857,
      "äººæĸĩ": 4858,
      "æĮģæľī": 4859,
      "71": 4860,
      "ç²Ĵ": 4861,
      "150": 4862,
      "å½Ń": 4863,
      "é«ĺå³°": 4864,
      "é¦ĸä¸ª": 4865,
      "éģµå¾ª": 4866,
      "åĪ¶åĵģ": 4867,
      "åħ±è¯Ĩ": 4868,
      "å¼ķèµ·": 4869,
      "çļĦäºĭ": 4870,
      "åįģåħŃ": 4871,
      "èİŀ": 4872,
      "æĩĪ": 4873,
      "Ġèĩ³": 4874,
      "æĭįæĳĦ": 4875,
      "åĲĹ": 4876,
      "åıĳçĶµ": 4877,
      "çĶŁèĤ²": 4878,
      "åĪĢ": 4879,
      "äº¤èŃ¦": 4880,
      "ä½ľçī©": 4881,
      "æĭĶ": 4882,
      "è®²è¿°": 4883,
      "it": 4884,
      "ä¹³": 4885,
      "åĬ¡å®ŀ": 4886,
      "è°Ĭ": 4887,
      "æ»ĭ": 4888,
      "APP": 4889,
      "æ°ĳå®¿": 4890,
      "é£ŁåłĤ": 4891,
      "83": 4892,
      "ä¸įå¿ĺ": 4893,
      "74": 4894,
      "å¾Ĵ": 4895,
      "éĻĲä»·": 4896,
      "æ°ĶåĢĻ": 4897,
      "éĿĴå±±": 4898,
      "å»¶éķ¿": 4899,
      "åŃµåĮĸ": 4900,
      "æº¯": 4901,
      "åĤ¬": 4902,
      "çĭłæĬĵ": 4903,
      "åŃ¦æľ¯": 4904,
      "è¿ľç¨ĭ": 4905,
      "ç¯ĩç«ł": 4906,
      "ç¡®è¯Ĭ": 4907,
      "é¢Ĩä¼ļ": 4908,
      "åľ¨å»º": 4909,
      "é¢ĨåħĪ": 4910,
      "81": 4911,
      "93": 4912,
      "åĽ½æ°ĳ": 4913,
      "åİ¨": 4914,
      "èĬĤæ°´": 4915,
      "åĨĽéĺŁ": 4916,
      "éģĹåĿĢ": 4917,
      "ä¸Ńèį¯": 4918,
      "çĶ¨éĢĶ": 4919,
      "ç§įåŃĲ": 4920,
      "æ¯ģ": 4921,
      "è½¨éģĵ": 4922,
      "ä¾¦": 4923,
      "éĿĴæµ·": 4924,
      "è§Ĵåº¦": 4925,
      "éķ¿åĪ¶": 4926,
      "åįģå¹´": 4927,
      "åıĤä¼ļ": 4928,
      "æŁĶ": 4929,
      "èķ´": 4930,
      "äººäºº": 4931,
      "çº²": 4932,
      "æĹłè®º": 4933,
      "æĶ¶è´Ń": 4934,
      "å¸¦çĿĢ": 4935,
      "é¹¤": 4936,
      "èĭĳ": 4937,
      "å·²æľī": 4938,
      "ä¸Ńæľī": 4939,
      "ä¸ĬäºĨ": 4940,
      "åĪĽæĦı": 4941,
      "æīĢå±ŀ": 4942,
      "æĢ§è´¨": 4943,
      "æ±ĩèģļ": 4944,
      "å¯¹æĸ¹": 4945,
      "åīįæĿ¥": 4946,
      "èİ«": 4947,
      "äº®çĤ¹": 4948,
      "å¡«æĬ¥": 4949,
      "ç»µ": 4950,
      "é«ĺçŃī": 4951,
      "å¤©çļĦ": 4952,
      "èĭ±éĽĦ": 4953,
      "èµĦåĬ©": 4954,
      "æ¡Į": 4955,
      "å¹¶å°Ĩ": 4956,
      "æļĤè¡Į": 4957,
      "åıī": 4958,
      "è¥¿åįĹ": 4959,
      "æīĭæľ¯": 4960,
      "åĶ¯ä¸Ģ": 4961,
      "è§īå¾Ĺ": 4962,
      "ä¸Ģé¡¹": 4963,
      "æ°ĳåĬŀ": 4964,
      "èģĶç»ľ": 4965,
      "é©³": 4966,
      "èĻ¹": 4967,
      "çģŃçģ«": 4968,
      "ä¹Łåľ¨": 4969,
      "åĬłæ²¹": 4970,
      "æĬĵä½ı": 4971,
      "æ½ľåĬĽ": 4972,
      "è¿ŀæİ¥": 4973,
      "ä¸Ģåľº": 4974,
      "ä½ľäºĨ": 4975,
      "æĬ¤èĪª": 4976,
      "æľĢè¿ĳ": 4977,
      "æĿ¿åĿĹ": 4978,
      "æ°´æºĲ": 4979,
      "æī¹ç¤º": 4980,
      "æŃ¦è£ħ": 4981,
      "æĶĢ": 4982,
      "æīĭåĨĮ": 4983,
      "éĻķè¥¿": 4984,
      "å®¶ä¹¡": 4985,
      "æµ·åħ³": 4986,
      "æ±ŁåĮº": 4987,
      "çļĦå¥½": 4988,
      "åĩŃè¯ģ": 4989,
      "æ¯ħ": 4990,
      "é¢Ħçº¦": 4991,
      "æŁ±": 4992,
      "æĻ®éģį": 4993,
      "ç§Ĵ": 4994,
      "çİ¯æ¯Ķ": 4995,
      "å¤įäº§": 4996,
      "ç»Ĩèĥŀ": 4997,
      "æī£éĻ¤": 4998,
      "èİ²": 4999,
      "å®ģå¤ı": 5000,
      "åľ£": 5001,
      "åĲĪè§Ħ": 5002,
      "æĪ·å¤ĸ": 5003,
      "çĶ±å¸Ĥ": 5004,
      "çĶ¨æĪ¿": 5005,
      "å§ľ": 5006,
      "ç»ıåħ¸": 5007,
      "çĥĪçļĦ": 5008,
      "éĢĥ": 5009,
      "ä¸įç§»": 5010,
      "æĶ¹æŃ£": 5011,
      "æĬķäº§": 5012,
      "éĩĩéĽĨ": 5013,
      "æİĴæ°´": 5014,
      "æŃ¤åīį": 5015,
      "èĶ¡": 5016,
      "åĨ³å¿ĥ": 5017,
      "çĵ·": 5018,
      "åľĨæ»¡": 5019,
      "æħĪåĸĦ": 5020,
      "Ġåħ«": 5021,
      "åī²": 5022,
      "åıĤçħ§": 5023,
      "æīĵèµ¢": 5024,
      "é»Ħéĩĳ": 5025,
      "æĭ³": 5026,
      "åī©": 5027,
      "åĬŀæ¡Ī": 5028,
      "çŁ©": 5029,
      "èĩ´åĬĽ": 5030,
      "ç¢ĳ": 5031,
      "åĮºéķ¿": 5032,
      "æĬ¢éĻ©": 5033,
      "æĸ°åŁİ": 5034,
      "é¢ĦæĬ¥": 5035,
      "æĢ¥æķĳ": 5036,
      "å°½è´£": 5037,
      "æīĵåį°": 5038,
      "èĦ¸": 5039,
      "èģĬ": 5040,
      "ä¾ĽéĶĢ": 5041,
      "æļĹ": 5042,
      "å¼Ħ": 5043,
      "åıĤèĢĥ": 5044,
      "ä¸¤åĽ½": 5045,
      "æĳĩ": 5046,
      "è¿½æ±Ĥ": 5047,
      "åįļè§Ī": 5048,
      "éĻĨç»Ń": 5049,
      "åľ°çļĦ": 5050,
      "è·¯éĿ¢": 5051,
      "å»ºéĢł": 5052,
      "ä¸įæľį": 5053,
      "ä»ĺæ¬¾": 5054,
      "çłĸ": 5055,
      "æķ´é¡¿": 5056,
      "âĢĻï¼Į": 5057,
      "é©»æĿĳ": 5058,
      "çļĦåħ¨": 5059,
      "æľ¬åľŁ": 5060,
      "æĻ¶": 5061,
      "çļĦä¸į": 5062,
      "å¸Ĥåİ¿": 5063,
      "åıįåºĶ": 5064,
      "æī¾åĪ°": 5065,
      "åŃ¦ä¼ļ": 5066,
      "åĢ¼å®Ī": 5067,
      "å¤±ä¸ļ": 5068,
      "%,": 5069,
      "å¼Ģæĭĵ": 5070,
      "èģļåĬĽ": 5071,
      "çłĤ": 5072,
      "åĸĿ": 5073,
      "éĢīäºº": 5074,
      "çĲ´": 5075,
      "åŃĿ": 5076,
      "å®ļåĪ¶": 5077,
      "åķĨè´¸": 5078,
      "éĺ²çģ¾": 5079,
      "æĢĿèĢĥ": 5080,
      "å®ľå±ħ": 5081,
      "å¼Ĥå¸¸": 5082,
      "ä»¥èµ´": 5083,
      "å±ĤéĿ¢": 5084,
      "è¾ĵåħ¥": 5085,
      "å¯¹åħ¶": 5086,
      "éªĳ": 5087,
      "æķĳæ²»": 5088,
      "åıĳç¥¨": 5089,
      "èĬ±åĽŃ": 5090,
      "å¹¶ä¸¾": 5091,
      "åł¤": 5092,
      "åı¦å¤ĸ": 5093,
      "å¹³è¡¡": 5094,
      "ä¾ĽçĥŃ": 5095,
      "ä¸ľèİŀ": 5096,
      "61": 5097,
      "ä½©": 5098,
      "åľ°éľĩ": 5099,
      "èįīæ¡Ī": 5100,
      "ä¸īäºļ": 5101,
      "çī¢çī¢": 5102,
      "è¿Ľç¨ĭ": 5103,
      "æĢ§èĥ½": 5104,
      "èµĸ": 5105,
      "æľīçĿĢ": 5106,
      "åŃ¦ä½į": 5107,
      "éķ¿æĺ¥": 5108,
      "å±Ģå°Ĩ": 5109,
      "æĿĳçº§": 5110,
      "é»Ķ": 5111,
      "å®ĺæĸ¹": 5112,
      "ä¸Ģå¼ł": 5113,
      "éĺ³åĮº": 5114,
      "äºĴéĢļ": 5115,
      "å¦ĩèģĶ": 5116,
      "il": 5117,
      "åĬ£": 5118,
      "åı£ç½©": 5119,
      "ç§°åı·": 5120,
      "Ġï¼Į": 5121,
      "åħ¥æĪ·": 5122,
      "å¹¶ä¸Ķ": 5123,
      "æ¶µçĽĸ": 5124,
      "an": 5125,
      "çī¹å¾ģ": 5126,
      "æĬ±": 5127,
      "å¯º": 5128,
      "æĭľ": 5129,
      "å¤ļå®¶": 5130,
      "åĨ¬å¥¥": 5131,
      "å§ĵåĲį": 5132,
      "ä»Ķ": 5133,
      "ä¸įè¿ĩ": 5134,
      "äº§èĥ½": 5135,
      "ï½ŀ": 5136,
      "åĬŀå¥½": 5137,
      "æ¸ħæĻ°": 5138,
      "ä¿Ŀå¯Ĩ": 5139,
      "ç»ıåĬŀ": 5140,
      "è£ħä¿®": 5141,
      "åĩıè½»": 5142,
      "å°ļæľª": 5143,
      "åĸľæ¬¢": 5144,
      "ä¸Ģæ¡Ī": 5145,
      "å¥ı": 5146,
      "è´¯ç©¿": 5147,
      "æīĽ": 5148,
      "ä¸ľåįĹ": 5149,
      "è¯ĬæĸŃ": 5150,
      "çļĩ": 5151,
      "èĤ©": 5152,
      "æŁı": 5153,
      "åı£å²¸": 5154,
      "æ¸ħæ¥ļ": 5155,
      "é¥±": 5156,
      "åĮºçº§": 5157,
      "çĶ¨åĵģ": 5158,
      "æŁľ": 5159,
      "è¯ĬçĸĹ": 5160,
      "åĢ¡å¯¼": 5161,
      "çĶ¨å·¥": 5162,
      "æľĢç¾İ": 5163,
      "å¼ķåħ¥": 5164,
      "æķ´çĲĨ": 5165,
      "æĪ·ç±į": 5166,
      "å°Ĩäºİ": 5167,
      "ä¹ĭå¤ĸ": 5168,
      "åĿļå®ŀ": 5169,
      "91": 5170,
      "åĨ³èµĽ": 5171,
      "æĭįåįĸ": 5172,
      "å°Ĭéĩį": 5173,
      "ç»ª": 5174,
      "å¼Ł": 5175,
      "ä¿ĿçķĻ": 5176,
      "æķ°é¢Ŀ": 5177,
      "æ²¡æĶ¶": 5178,
      "åĴĮçľģ": 5179,
      "åıĳæī¬": 5180,
      "æĹłæķĪ": 5181,
      "åĨłåĨĽ": 5182,
      "æĹ¬": 5183,
      "åıĳéĢģ": 5184,
      "åħ¨å·ŀ": 5185,
      "åĬĽåĴĮ": 5186,
      "é¥¼": 5187,
      "èĮ¶åı¶": 5188,
      "åºŁçī©": 5189,
      "åĬĿ": 5190,
      "å°±èĥ½": 5191,
      "åĮĹéĥ¨": 5192,
      "éŃĤ": 5193,
      "ç¼ĵè§£": 5194,
      "æ°´åĬ¡": 5195,
      "çļĦå¿ĥ": 5196,
      "è¿Ŀçºª": 5197,
      "å°ıéķĩ": 5198,
      "åħ´å¸Ĥ": 5199,
      "èį£èİ·": 5200,
      "èĵ¬": 5201,
      "åŃŁ": 5202,
      "ch": 5203,
      "åĩºæĿ¥": 5204,
      "åĨ³è®®": 5205,
      "èŃ¦åĳĬ": 5206,
      "çł´åĿı": 5207,
      "å¼Ĥåľ°": 5208,
      "çļĦåħļ": 5209,
      "éĺľ": 5210,
      "åĪĴåĪĨ": 5211,
      "å¹´åĨħ": 5212,
      "çĥĪå£«": 5213,
      "æ±Ĺ": 5214,
      "å¯Įè£ķ": 5215,
      "åĲĬ": 5216,
      "é©¿": 5217,
      "èĳ¬": 5218,
      "æīĵå¼Ģ": 5219,
      "åĢ¡è®®": 5220,
      "ç¦ģæ¯Ĵ": 5221,
      "ä¿¡åı·": 5222,
      "æ£ī": 5223,
      "åĺ±": 5224,
      "ç¬Ķè¯ķ": 5225,
      "å®¶çļĦ": 5226,
      "èģĶå¸Ń": 5227,
      "éĥ½å¸Ĥ": 5228,
      "åĪ¶å®ľ": 5229,
      "è¾¾æłĩ": 5230,
      "æ»ļ": 5231,
      "åºĻ": 5232,
      "æŃ£æĺ¯": 5233,
      "æĲºå¸¦": 5234,
      "800": 5235,
      "å¹²äºĭ": 5236,
      "æįĲèµł": 5237,
      "åĢºæĿĥ": 5238,
      "å¥łå®ļ": 5239,
      "æŃ¥ä¼Ĳ": 5240,
      "åĽłåľ°": 5241,
      "âĢĿ,": 5242,
      "é«ĺæ¸©": 5243,
      "å°ıåŀĭ": 5244,
      "å°ĳæķ°": 5245,
      "ä¾ĽåĽ¾": 5246,
      "æ¡Ĩæŀ¶": 5247,
      "èĤĸ": 5248,
      "ç®Ģåįķ": 5249,
      "éĥĳå·ŀ": 5250,
      "ä¸ĢåĪĩ": 5251,
      "è´Ńçī©": 5252,
      "åı°éĺ¶": 5253,
      "ä¾ĿçĦ¶": 5254,
      "åıªæĺ¯": 5255,
      "éŃı": 5256,
      "æ³¸": 5257,
      "ä½ĻåĲį": 5258,
      "çł´è§£": 5259,
      "å¹²åĩĢ": 5260,
      "Ġ20": 5261,
      "åĲķ": 5262,
      "çļĦçĥŃ": 5263,
      "åŃĲå¥³": 5264,
      "ç§įç±»": 5265,
      "æĸ¹éĴĪ": 5266,
      "æĻ´": 5267,
      "èĳ¡": 5268,
      "çĽĹ": 5269,
      "ä¸Ģç«Ļ": 5270,
      "åıªèĥ½": 5271,
      "æĬķæĶ¾": 5272,
      "æ³¨éĶĢ": 5273,
      "é¦ĸéĥ½": 5274,
      "å·¥æľŁ": 5275,
      "ä¸įå¤Ł": 5276,
      "æģĲ": 5277,
      "çŁ³æ²¹": 5278,
      "äºĮæľŁ": 5279,
      "åŃĺéĩı": 5280,
      "é¥²": 5281,
      "å·¨å¤§": 5282,
      "IP": 5283,
      "çļĦä¸»": 5284,
      "åĲ§": 5285,
      "æĬ¥èŃ¦": 5286,
      "åĽłåħ¬": 5287,
      "éĢĤå½ĵ": 5288,
      "åĲĪä¼Ļ": 5289,
      "åľºé¦Ĩ": 5290,
      "è¢ģ": 5291,
      "é£İæĻ¯": 5292,
      "æĿĥåĬĽ": 5293,
      "çŃ¾åŃĹ": 5294,
      "ĠãĢĤ": 5295,
      "éĢļçĶ¨": 5296,
      "æ¡©": 5297,
      "çķª": 5298,
      "ç»´æĿĥ": 5299,
      "èµ°åĲĳ": 5300,
      "æĳĦå½±": 5301,
      "å¯¹è¯¥": 5302,
      "æĿĳçļĦ": 5303,
      "æĤ¬": 5304,
      "å±ħå®¶": 5305,
      "åľ¨åīį": 5306,
      "æĹ¥çļĦ": 5307,
      "æľ¬å¸Ĥ": 5308,
      "èĩªå¾ĭ": 5309,
      "ãĢĭãĢģ": 5310,
      "æµ·å¸Ĥ": 5311,
      "åŃķ": 5312,
      "æİī": 5313,
      "åħĥç´ł": 5314,
      "ç¥Ń": 5315,
      "åĨĽäºĭ": 5316,
      "å£°éŁ³": 5317,
      "åħ³æĢĢ": 5318,
      "ä¸ªæĢ§": 5319,
      "åģļå¤§": 5320,
      "ç»´æĮģ": 5321,
      "æ½ĺ": 5322,
      "éĻ¢å£«": 5323,
      "éĺ³åİ¿": 5324,
      "æľĪèĩ³": 5325,
      "é¢Ŀåº¦": 5326,
      "åį³åı¯": 5327,
      "åŃ¤": 5328,
      "éĺ²çº¿": 5329,
      "å®¡åĪ¤": 5330,
      "æµ·åı£": 5331,
      "åĲ¦åĪĻ": 5332,
      "æĹŃ": 5333,
      "Ġä»¥": 5334,
      "ä¼¯": 5335,
      "äººåıĬ": 5336,
      "æ±ª": 5337,
      "ä¾Ŀè§Ħ": 5338,
      "æ¡ĳ": 5339,
      "èĩªæŁ¥": 5340,
      "ç¹ģèį£": 5341,
      "çĪ¶æ¯į": 5342,
      "å¤§æ¡¥": 5343,
      "ä¹Ļæĸ¹": 5344,
      "åĮºåĴĮ": 5345,
      "ä½ıæīĢ": 5346,
      "æ¶īæ¡Ī": 5347,
      "æ¢¦æĥ³": 5348,
      "å±¯": 5349,
      "åĨ¯": 5350,
      "å±±æ°´": 5351,
      "æ±ĩæĢ»": 5352,
      "çĥŁèĬ±": 5353,
      "æī«é»ĳ": 5354,
      "è®°è½½": 5355,
      "éĤ®ç®±": 5356,
      "åķĨä¼ļ": 5357,
      "éĻĲé¢Ŀ": 5358,
      "æµģè½¬": 5359,
      "ç»Īç»ĵ": 5360,
      "åĩºåħ¥": 5361,
      "æ»ĳéĽª": 5362,
      "åĮºåĨħ": 5363,
      "åĲĮæł·": 5364,
      "è¿Ĳè½¬": 5365,
      "èĲĦ": 5366,
      "åī¯æľ¬": 5367,
      "çİīç±³": 5368,
      "åģ¶": 5369,
      "ä¸¥åİī": 5370,
      "Ġ14": 5371,
      "äº¤åıī": 5372,
      "èĳ¡èĲĦ": 5373,
      "åħļåĨħ": 5374,
      "2011": 5375,
      "è´¯éĢļ": 5376,
      "åĢŁåĬ©": 5377,
      "äººçī©": 5378,
      "éķ¿åŁİ": 5379,
      "èĩ´è¾ŀ": 5380,
      "æľīäºº": 5381,
      "éĹª": 5382,
      "ä¸¤å²¸": 5383,
      "å¾·åĽ½": 5384,
      "æ¤Ĵ": 5385,
      "åºĨç¥Ŀ": 5386,
      "æĺ¨": 5387,
      "æĺ¯å¯¹": 5388,
      "åīª": 5389,
      "è§Ħå¾ĭ": 5390,
      "æł¼å¼ı": 5391,
      "çļĦæ°´": 5392,
      "è¡ĮçļĦ": 5393,
      "æĪĲçĨŁ": 5394,
      "èĪ°": 5395,
      "å¸ĪèĮĥ": 5396,
      "è¿İæİ¥": 5397,
      "åİĤæĪ¿": 5398,
      "çĪ¶äº²": 5399,
      "åľ¨æŃ¤": 5400,
      "èĢĢ": 5401,
      "èĥ½éĩı": 5402,
      "æī¹è¯Ħ": 5403,
      "å®ŀå¤Ħ": 5404,
      "åĿĳ": 5405,
      "æī©å»º": 5406,
      "æł½": 5407,
      "å¤§åľ°": 5408,
      "ä»įçĦ¶": 5409,
      "ä¼ļéķ¿": 5410,
      "åĬŀçļĦ": 5411,
      "æĽ´æľī": 5412,
      "ä¸Ģè¾¹": 5413,
      "æĸĩåĪĽ": 5414,
      "æīĵåį¡": 5415,
      "åĽŀå¤į": 5416,
      "è´ŃæĪ¿": 5417,
      "ç¢°": 5418,
      "è£Ĥ": 5419,
      "éļ¾ä»¥": 5420,
      "äººå¯¹": 5421,
      "æ³Ĭ": 5422,
      "è¾Ī": 5423,
      "è°¨": 5424,
      "å¦Ĩ": 5425,
      "åŃĺæ¬¾": 5426,
      "çļĦä¸Ń": 5427,
      "ç¡®ç«ĭ": 5428,
      "éħ¬": 5429,
      "èĦĤ": 5430,
      "éļıæĹ¶": 5431,
      "åĪ°æľŁ": 5432,
      "çĶ²æĸ¹": 5433,
      "æĢķ": 5434,
      "1500": 5435,
      "å³»": 5436,
      "æľªèĥ½": 5437,
      "è´§è¿Ĳ": 5438,
      "æľ¬å±Ĭ": 5439,
      "äºĶå¤§": 5440,
      "çĦ¶èĢĮ": 5441,
      "ç»§æī¿": 5442,
      "ç¯®çĲĥ": 5443,
      "é¡·": 5444,
      "ä»»èģĮ": 5445,
      "çİĩè¾¾": 5446,
      "åĻª": 5447,
      "çĨĬ": 5448,
      "æĹ¥çĽĬ": 5449,
      "å¤ĸåĩº": 5450,
      "åį«åģ¥": 5451,
      "åİŁæĸĻ": 5452,
      "æĬĵç´§": 5453,
      "åģ¿è¿ĺ": 5454,
      "ma": 5455,
      "ç§Ĩ": 5456,
      "äººçĶŁ": 5457,
      "ä¸Ģä½į": 5458,
      "èµ¤": 5459,
      "åĳ¢": 5460,
      "èįĴ": 5461,
      "è¹Ī": 5462,
      "æ³³": 5463,
      "æ³ķåĪ¶": 5464,
      "å§Ĳ": 5465,
      "åħ±èµ¢": 5466,
      "å®¶å±ŀ": 5467,
      "éĩĳå±±": 5468,
      "ä»ĸè¯´": 5469,
      "çī¹æŃ¤": 5470,
      "æ®·": 5471,
      "åĽŃæŀĹ": 5472,
      "åį¢": 5473,
      "ä¸Ĭçº¿": 5474,
      "åħ¥é©»": 5475,
      "è¯ģçĽĳ": 5476,
      "è·¨è¶Ĭ": 5477,
      "èĢħåĴĮ": 5478,
      "è½¦ç«Ļ": 5479,
      "éĻ¤æģ¶": 5480,
      "ä¸¤çº§": 5481,
      "åľ¨äºİ": 5482,
      "éĶħ": 5483,
      "åģļäºĨ": 5484,
      "åįłçĶ¨": 5485,
      "æĢ»ç»Ł": 5486,
      "æĿ¡æ¬¾": 5487,
      "æĬ¢æĬĵ": 5488,
      "ä¿¡è´·": 5489,
      "èµ·äºĨ": 5490,
      "èĢĮæĺ¯": 5491,
      "æ¾Ħ": 5492,
      "Ġæĸ°": 5493,
      "çłģå¤´": 5494,
      "è§ģè¯ģ": 5495,
      "æıĴ": 5496,
      "é¢Ħæµĭ": 5497,
      "ä»°": 5498,
      "å¸¦éĺŁ": 5499,
      "æī«æıı": 5500,
      "è´¢åºĵ": 5501,
      "ç§¸": 5502,
      "çĲĨäºĭ": 5503,
      "å±Ģåī¯": 5504,
      "çĿ£åĬŀ": 5505,
      "åĽ¾çīĩ": 5506,
      "çĽĸç«ł": 5507,
      "éĺĲ": 5508,
      "ç»ıè´¸": 5509,
      "æĸĩåŃĹ": 5510,
      "éģı": 5511,
      "ç¼Ŀ": 5512,
      "æĮīæľŁ": 5513,
      "èħĶ": 5514,
      "å¤§ä¼Ĺ": 5515,
      "æķ°çļĦ": 5516,
      "ä½Ļé¢Ŀ": 5517,
      "éĶ»çĤ¼": 5518,
      "ç»£": 5519,
      "æĹĭ": 5520,
      "åĲĦä½į": 5521,
      "ç«Ļåľ¨": 5522,
      "å£®æĹı": 5523,
      "åĲ¹": 5524,
      "åĵģçĽ®": 5525,
      "åīįçļĦ": 5526,
      "éĥ½ä¼ļ": 5527,
      "åĮ¹": 5528,
      "æĺĤ": 5529,
      "äºĨæĸ°": 5530,
      "åĪ°è¾¾": 5531,
      "ç»ĦåĲĪ": 5532,
      "å¦ĤæŃ¤": 5533,
      "åĪ¤æĸŃ": 5534,
      "å¥³æĢ§": 5535,
      "å¹¿çĶµ": 5536,
      "ãĢĭ(": 5537,
      "èĲ½åĪ°": 5538,
      "åŀĴ": 5539,
      "ç«łç¨ĭ": 5540,
      "éĻªåĲĮ": 5541,
      "Ġ30": 5542,
      "çŃĸçķ¥": 5543,
      "ç»Ĩèĩ´": 5544,
      "éĽĦå®ī": 5545,
      "éĹ¸": 5546,
      "æ°ĳåĪĿ": 5547,
      "éķ¿çļĦ": 5548,
      "èµ·çĤ¹": 5549,
      "éĻįéĽ¨": 5550,
      "ç§¸ç§Ĩ": 5551,
      "å°Ĩè¿Ľ": 5552,
      "å°ıåº·": 5553,
      "å½»åºķ": 5554,
      "ä¸°æĶ¶": 5555,
      "æĿľç»Ŀ": 5556,
      "âī": 5557,
      "è°ĵ": 5558,
      "èĬľ": 5559,
      "åľ°è¯´": 5560,
      "æĹ¶æ®µ": 5561,
      "åº¦åģĩ": 5562,
      "æĬĢèīº": 5563,
      "å¦»": 5564,
      "ä½ıå®¿": 5565,
      "æľįè£ħ": 5566,
      "ä¼łæŁĵ": 5567,
      "ä¸¤åľ°": 5568,
      "é£İè²Į": 5569,
      "å¤§å¤ļ": 5570,
      "æ±ķ": 5571,
      "æ»ŀ": 5572,
      "èİ·å¥ĸ": 5573,
      "ç¼ºä¹ı": 5574,
      "åħ¶å®ĥ": 5575,
      "åİ¿åĮº": 5576,
      "æº¢": 5577,
      "æĢ»éĥ¨": 5578,
      "çĻĮ": 5579,
      "åģļå®ŀ": 5580,
      "çĽĺæ´»": 5581,
      "çĽ²": 5582,
      "å¼ĢæĪ·": 5583,
      "åıĹçĽĬ": 5584,
      "Ġ15": 5585,
      "ä¼ª": 5586,
      "åĮ»å¸Ī": 5587,
      "æİĪè¯¾": 5588,
      "èĭ±åĽ½": 5589,
      "å¯ĵ": 5590,
      "æĮīæĹ¶": 5591,
      "å«Įçĸĳ": 5592,
      "å®¶äºº": 5593,
      "èĪŀè¹Ī": 5594,
      "åħĥçļĦ": 5595,
      "è´¨æķĪ": 5596,
      "ä¹ĭéĻħ": 5597,
      "å·®è·Ŀ": 5598,
      "åŁł": 5599,
      "ç±»åĪ«": 5600,
      "æİ¢è®¨": 5601,
      "æļ´éĽ¨": 5602,
      "âĢĿï¼Ī": 5603,
      "æ°ı": 5604,
      "æĥħæĢĢ": 5605,
      "åħļæł¡": 5606,
      "ä»·æ¬¾": 5607,
      "ä¹Łè¦ģ": 5608,
      "è¯·æĮī": 5609,
      "è¡¥é½Ĳ": 5610,
      "åħ¬é¡·": 5611,
      "ä¸Ĭæĸ°": 5612,
      "è¯·åľ¨": 5613,
      "éĹ¹": 5614,
      "æ¸ħå»ī": 5615,
      "è¿ĺè¦ģ": 5616,
      "ç»Īç«¯": 5617,
      "æľīæĿĥ": 5618,
      "çĲ¼": 5619,
      "å§¿": 5620,
      "è´¢çī©": 5621,
      "æľªç»ı": 5622,
      "çĶŁçĮª": 5623,
      "æľ¬éĩĳ": 5624,
      "èŃ¦æĸ¹": 5625,
      "åħīèį£": 5626,
      "å©´": 5627,
      "ä½ľæĪĺ": 5628,
      "çĤ¹åĩ»": 5629,
      "çĪ·": 5630,
      "åĪĹè½¦": 5631,
      "ĠåĪĺ": 5632,
      "æıĲä¸ĭ": 5633,
      "åĬŀç»ĵ": 5634,
      "è°ĥåĬ¨": 5635,
      "éĶĲ": 5636,
      "æĭ¨ä»ĺ": 5637,
      "ç¿Ķ": 5638,
      "çĦķ": 5639,
      "ç§»äº¤": 5640,
      "å¤ķ": 5641,
      "æ²Ĥ": 5642,
      "åľ°éĵģ": 5643,
      "åİ¿éķ¿": 5644,
      "æĺĮå¸Ĥ": 5645,
      "å°º": 5646,
      "åĬ¡å·¥": 5647,
      "æĵ¦": 5648,
      "åıªè¦ģ": 5649,
      "äº²èĩª": 5650,
      "çĶľ": 5651,
      "åĴĮé«ĺ": 5652,
      "éĥ¨ä»¶": 5653,
      "åħ´è¶£": 5654,
      "èĢĥè¯Ħ": 5655,
      "ç«ĻçĤ¹": 5656,
      "æĪĺäºī": 5657,
      "çº¦æĿŁ": 5658,
      "äº¬æ´¥": 5659,
      "éģıåĪ¶": 5660,
      "åº·åħ»": 5661,
      "Ġè¯¥": 5662,
      "æ°ĳæ³ķ": 5663,
      "Ġâĳ": 5664,
      "çºº": 5665,
      "åĽ½ä¼ģ": 5666,
      "åįļä¼ļ": 5667,
      "å®ŀå¹²": 5668,
      "æ¹Ľ": 5669,
      "åŁĭ": 5670,
      "çİ°å·²": 5671,
      "å¢ŀè¿Ľ": 5672,
      "å°ıéº¦": 5673,
      "å®Įæ¯ķ": 5674,
      "è§Ĩå¯Ł": 5675,
      "äºĴèģĶ": 5676,
      "Ġä¸Ń": 5677,
      "åıł": 5678,
      "åİ¿åŁİ": 5679,
      "è§£çŃĶ": 5680,
      "ç§»éĢģ": 5681,
      "é¡¾éĹ®": 5682,
      "èĪĨè®º": 5683,
      "MA": 5684,
      "çİ²": 5685,
      "å¤ĸèµĦ": 5686,
      "éĻĲåº¦": 5687,
      "çĲĨè´¢": 5688,
      "èħ¹": 5689,
      "æī¾åĩĨ": 5690,
      "éĽ·éĶĭ": 5691,
      "åĨ¶": 5692,
      "æ³Ħ": 5693,
      "æĽ´æį¢": 5694,
      "éĻĲæľŁ": 5695,
      "å¤ĸåĽ½": 5696,
      "çŃĸåĪĴ": 5697,
      "æĮģå¹³": 5698,
      "æİĴæ±¡": 5699,
      "æĦŁè§ī": 5700,
      "ç§ī": 5701,
      "å¼ĢåĪĽ": 5702,
      "ä¸ĵèģĮ": 5703,
      "èĥĨ": 5704,
      "èĲį": 5705,
      "åīįä¸ī": 5706,
      "æ·ĺ": 5707,
      "åĩĨåħ¥": 5708,
      "æĤł": 5709,
      "å¤§åĪ©": 5710,
      "å¯¹åºĶ": 5711,
      "éĢļåĬŀ": 5712,
      "èĲ½æĪ·": 5713,
      "åį«æĺŁ": 5714,
      "å¤ªéĺ³": 5715,
      "çĶ·åŃĲ": 5716,
      "æ¡¶": 5717,
      "éŁµ": 5718,
      "ä¾µæĿĥ": 5719,
      "XX": 5720,
      "å®¶ä¸Ń": 5721,
      "ä¸İæŃ¤": 5722,
      "æ¡Ĳ": 5723,
      "åıĺéĿ©": 5724,
      "é£ŀè¡Į": 5725,
      "ĠæľĪ": 5726,
      "å®ŀåľ¨": 5727,
      "ä¸ĵç§ĳ": 5728,
      "ä¹Łå°Ĩ": 5729,
      "ä¸¥ç¦ģ": 5730,
      "ç´§æī£": 5731,
      "æ°´ç¨»": 5732,
      "æİ¥æĶ¶": 5733,
      "æĹłéĶ¡": 5734,
      "éĢĲä¸Ģ": 5735,
      "ä¹ĥ": 5736,
      "ç»Ļä»ĺ": 5737,
      "èŃ¦å¯Ł": 5738,
      "çº¢åĪ©": 5739,
      "çĮ«": 5740,
      "å¿ĥçļĦ": 5741,
      "æł¸ç®Ĺ": 5742,
      "åİĨç¨ĭ": 5743,
      "åĲįå½ķ": 5744,
      "å¤ļåĲį": 5745,
      "ä½Ļå®¶": 5746,
      "å®ŀè´¨": 5747,
      "æĽ´æŃ£": 5748,
      "éĴ»": 5749,
      "çŃ¾åĲį": 5750,
      "ç¥Ŀç¦ı": 5751,
      "æ»´": 5752,
      "æīĺç®¡": 5753,
      "éĢĤåĲĪ": 5754,
      "åĴĮæĸ°": 5755,
      "åŃ¦èĢħ": 5756,
      "çĶµç½ĳ": 5757,
      "è½¬è´¦": 5758,
      "èµ¢å¾Ĺ": 5759,
      "åľ¨èģĮ": 5760,
      "æ³¡": 5761,
      "éģĤ": 5762,
      "æ°´æŀľ": 5763,
      "æĶ»åħ³": 5764,
      "ï¼į": 5765,
      "å½ķåıĸ": 5766,
      "åĿĩä¸º": 5767,
      "åīįæ²¿": 5768,
      "åķĨæĪ·": 5769,
      "ç¨İè´¹": 5770,
      "å®ĺåħµ": 5771,
      "æ²īæµ¸": 5772,
      "æĴŀ": 5773,
      "åĻ¨æĿĲ": 5774,
      "åĤħ": 5775,
      "å®´": 5776,
      "æ²§": 5777,
      "ä¸ĬæĿ¥": 5778,
      "ä¸ĭäºĨ": 5779,
      "ä¼ĳæģ¯": 5780,
      "æĦĪ": 5781,
      "å®¤åĨħ": 5782,
      "åįĥä¸ĩ": 5783,
      "æłĩæĿĨ": 5784,
      "è¥Ħ": 5785,
      "è¯Ħè®®": 5786,
      "å¿«ä¹Ĳ": 5787,
      "ĠéĻĪ": 5788,
      "æľīä¸Ģ": 5789,
      "ç±»ä¼¼": 5790,
      "è¾ĥä¸º": 5791,
      "éĢīæĭĶ": 5792,
      "ä»Ķç»Ĩ": 5793,
      "åĳĺçļĦ": 5794,
      "èĮħ": 5795,
      "çħ¤çĤŃ": 5796,
      "éĹ½": 5797,
      "åĲĪä¸Ģ": 5798,
      "éĽ¾": 5799,
      "åħ¶å®ŀ": 5800,
      "ä¸ĵäºº": 5801,
      "é¼İ": 5802,
      "ç»ĪæŃ¢": 5803,
      "éĤ®ä»¶": 5804,
      "çİīæŀĹ": 5805,
      "ina": 5806,
      "en": 5807,
      "åıĮåĲĳ": 5808,
      "é«ĺåľ°": 5809,
      "éĹŃçİ¯": 5810,
      "åĿ¤": 5811,
      "ç®¡æĬ¤": 5812,
      "åħ¥åºĵ": 5813,
      "åĨľåľº": 5814,
      "çľī": 5815,
      "èĤ²äºº": 5816,
      "çłĶåŃ¦": 5817,
      "å±±åİ¿": 5818,
      "ç§¯ç´¯": 5819,
      "è±«": 5820,
      "åĨįçĶŁ": 5821,
      "è´§è½¦": 5822,
      "åįģå¤§": 5823,
      "cg": 5824,
      "çİ»": 5825,
      "ä¸įå¼Ģ": 5826,
      "è¿Ļä¹Ī": 5827,
      "Ġç¬¬": 5828,
      "æĸ°è´¨": 5829,
      "åĪ°åºķ": 5830,
      "åīįè¡Į": 5831,
      "è¡¨çļĦ": 5832,
      "åŁĥ": 5833,
      "åĩłä¸ª": 5834,
      "ç¼Ĩ": 5835,
      "å¸¸è§ģ": 5836,
      "åıĺåĬ¨": 5837,
      "ç¬Ķå½ķ": 5838,
      "èĸĦå¼±": 5839,
      "è®¡éĩı": 5840,
      "åĽĽå¤§": 5841,
      "çŁ«": 5842,
      "çĪĨç«¹": 5843,
      "ä»¿": 5844,
      "å»¶ç»Ń": 5845,
      "è¿Ķè¿ĺ": 5846,
      "è®°å¿Ĩ": 5847,
      "èµ·èįī": 5848,
      "ç´§è¿«": 5849,
      "ç¿ł": 5850,
      "èªĵ": 5851,
      "æłĩé¢ĺ": 5852,
      "è®ºè¯ģ": 5853,
      "ï¿": 5854,
      "å®¶é£İ": 5855,
      "éĹ¨åºĹ": 5856,
      "åĽ½åºĨ": 5857,
      "ç¨Ģ": 5858,
      "çĦ¶åĲİ": 5859,
      "é£ŀæľº": 5860,
      "ï¿¥": 5861,
      "åķĨæłĩ": 5862,
      "é¦¨": 5863,
      "è¥¿åĮĹ": 5864,
      "æī¿æİ¥": 5865,
      "åĿĩè¡¡": 5866,
      "æĵİ": 5867,
      "çĨŁæĤī": 5868,
      "å¼ºåº¦": 5869,
      "èĩªæĦ¿": 5870,
      "å¤Ħå¤Ħ": 5871,
      "å°±ä¼ļ": 5872,
      "åıĹä¼¤": 5873,
      "è´¹çŃī": 5874,
      "è¿Ĳä½ľ": 5875,
      "å¼ĢåŃ¦": 5876,
      "çĶ¨å¿ĥ": 5877,
      "å§Ĩ": 5878,
      "çĽ¸ä¿¡": 5879,
      "ä¸¥å³»": 5880,
      "è§ģéĿ¢": 5881,
      "éĶĻè¯¯": 5882,
      "æı½": 5883,
      "æŁ¥æĺİ": 5884,
      "ä¸ĭæ²ī": 5885,
      "åıįè¯Ī": 5886,
      "ï¼ŁâĢĿ": 5887,
      "çĴĥ": 5888,
      "æŁ¥éĺħ": 5889,
      "æī¬å·ŀ": 5890,
      "è¡Įé©¶": 5891,
      "å½¬": 5892,
      "æ´½": 5893,
      "æľ¬é¢Ĩ": 5894,
      "è¯Ħå®ļ": 5895,
      "ä¸¤ä¼ļ": 5896,
      "æį®æĤī": 5897,
      "åįĹæµ·": 5898,
      "çģ°": 5899,
      "è§ģæķĪ": 5900,
      "å¯Łçľĭ": 5901,
      "åľ°éĿ¢": 5902,
      "æĿĥå¨ģ": 5903,
      "æ¬¾é¡¹": 5904,
      "è¡ĹåĮº": 5905,
      "äººé¡»": 5906,
      "è¾Ł": 5907,
      "äºļæ´²": 5908,
      "åħĭæľį": 5909,
      "åĩłå¹´": 5910,
      "ä¸Ģä»¶": 5911,
      "æŃ£å½ĵ": 5912,
      "çĩĥæĸĻ": 5913,
      "åĺīå®¾": 5914,
      "å±ĢçŃī": 5915,
      "åĨľçī§": 5916,
      "èĩ³ä¸Ĭ": 5917,
      "ä¹°åįĸ": 5918,
      "dit": 5919,
      "äººä¸İ": 5920,
      "æ¶Ŀ": 5921,
      "éĵĿ": 5922,
      "è¯Ħè®º": 5923,
      "è°±åĨĻ": 5924,
      "å°¿": 5925,
      "èµĦè®¯": 5926,
      "å¤ļå½©": 5927,
      "åı¯éĿł": 5928,
      "æ¸Ķä¸ļ": 5929,
      "ãĢī": 5930,
      "äººåºĶ": 5931,
      "ä¸Ģä¸ĭ": 5932,
      "ä¸Ńä»ĭ": 5933,
      "é©³åĽŀ": 5934,
      "éĹ¨æĪ·": 5935,
      "æĪ¿äº§": 5936,
      "æ½į": 5937,
      "cre": 5938,
      "è¡¨æĺİ": 5939,
      "çĶ°éĹ´": 5940,
      "åįķä¸Ģ": 5941,
      "åµ": 5942,
      "æ¯Ķéĩį": 5943,
      "çĦĬ": 5944,
      "èµĽéģĵ": 5945,
      "è¡·": 5946,
      "å¤®å¹¿": 5947,
      "é¹¿": 5948,
      "åľ¨è¿Ļ": 5949,
      "æ³ķåĽ½": 5950,
      "è½´": 5951,
      "ä¸ªåĪ«": 5952,
      "èĩªè´¸": 5953,
      "æĿĳéĩĮ": 5954,
      "å·¥åĮł": 5955,
      "çİĽ": 5956,
      "çĶ¨çļĦ": 5957,
      "æıĲåıĸ": 5958,
      "èĥ¸": 5959,
      "æĥħç»ª": 5960,
      "å¯»æī¾": 5961,
      "èĩªæľ¬": 5962,
      "æĦıæĦ¿": 5963,
      "çº¢çº¿": 5964,
      "çĪ±å¥½": 5965,
      "credit": 5966,
      "æĹ¥åŃĲ": 5967,
      "ä¸ľè¥¿": 5968,
      "é¦ĸå¸Ń": 5969,
      "éģ´": 5970,
      "èµĭäºĪ": 5971,
      "éĩįå¤į": 5972,
      "åĽ¾ä¸º": 5973,
      "æĲı": 5974,
      "çĮ®è¡Ģ": 5975,
      "å·¾": 5976,
      "æľĪçļĦ": 5977,
      "è§Ĥæĳ©": 5978,
      "180": 5979,
      "å¹´ä»£": 5980,
      "éĽķ": 5981,
      "æľĢä½³": 5982,
      "è¯Ħä¸º": 5983,
      "ç´§å¼ł": 5984,
      "æĸ¯åĿ¦": 5985,
      "åĢŁéī´": 5986,
      "çºµæ·±": 5987,
      "éģ´éĢī": 5988,
      "å®īåĮº": 5989,
      "å§ļ": 5990,
      "è¿ĺåľ¨": 5991,
      "ç¨İæ¬¾": 5992,
      "é¦ĸå±Ĭ": 5993,
      "åĭĩäºİ": 5994,
      "ä¸Ģæ®µ": 5995,
      "èĴĭ": 5996,
      "çħĮ": 5997,
      "æīĳ": 5998,
      "åľ¨å®¶": 5999,
      "éĹ®è´£": 6000,
      "....": 6001,
      "å¿½": 6002,
      "æĹ¶å°ļ": 6003,
      "æ°ĳä¿Ĺ": 6004,
      "èĭ¹": 6005,
      "çħ¤çŁ¿": 6006,
      "mail": 6007,
      "äººéĺ²": 6008,
      "éĥ½èĥ½": 6009,
      "ĠãĢĲ": 6010,
      "åīįæĻ¯": 6011,
      "äºĶä¸Ģ": 6012,
      "è°Īè¯Ŀ": 6013,
      "æĳ¸æİĴ": 6014,
      "åĲĳå¥½": 6015,
      "é£Łçī©": 6016,
      "æĿĳåħļ": 6017,
      "èĢĮè¨Ģ": 6018,
      "éĢıæĺİ": 6019,
      "çŃĽæŁ¥": 6020,
      "Ġåħĥ": 6021,
      "åĲĦæĹı": 6022,
      "æĸ½çŃĸ": 6023,
      "åīįè¿Ľ": 6024,
      "æĽ¼": 6025,
      "è½¬æį¢": 6026,
      "åĲĮå¿ĥ": 6027,
      "åºĶèģĺ": 6028,
      "å®Įå·¥": 6029,
      "æ¹ĸåĮº": 6030,
      "ç¿¼": 6031,
      "Ġçľģ": 6032,
      "çĶŁæĪĲ": 6033,
      "ä¸ĩæĪ·": 6034,
      "æĿĥçļĦ": 6035,
      "æŁ´": 6036,
      "çĶŁçļĦ": 6037,
      "æ¬º": 6038,
      "æķ¢äºİ": 6039,
      "åĴĸ": 6040,
      "åľ¨å¸Ĥ": 6041,
      "æµħ": 6042,
      "âħ": 6043,
      "ä¸ĢçĤ¹": 6044,
      "æľ¬ç§ĳ": 6045,
      "æĿĥéĻĲ": 6046,
      "è¿ĺæ¬¾": 6047,
      "åħħè¶³": 6048,
      "çķľçī§": 6049,
      "ä¹¦æ³ķ": 6050,
      "å¹¶åĲĳ": 6051,
      "å¤ĸäº¤": 6052,
      "æĮº": 6053,
      "2010": 6054,
      "å¯¹åı£": 6055,
      "æĿ¡çļĦ": 6056,
      "åı°é£İ": 6057,
      "åįłåľ°": 6058,
      "email": 6059,
      "éľį": 6060,
      "å°±è¿ĳ": 6061,
      "åı·æ¥¼": 6062,
      "ä¸ľéĥ¨": 6063,
      "å®Īæ³ķ": 6064,
      "åħ½": 6065,
      "è§Ħæł¼": 6066,
      "ç«ĭä½ĵ": 6067,
      "ç½ĳåĿĢ": 6068,
      "èħ¿": 6069,
      "èĤ¿": 6070,
      "æĪĳåİ¿": 6071,
      "éĩĩæł·": 6072,
      "åı·åı¬": 6073,
      "å¦¥åĸĦ": 6074,
      "å¤§è¿ŀ": 6075,
      "åħļè¯¾": 6076,
      "æīĵçł´": 6077,
      "è®©äºº": 6078,
      "å±Ĥå±Ĥ": 6079,
      "å¿ħéľĢ": 6080,
      "Ġç»ı": 6081,
      "çĿ¡": 6082,
      "æ·¡": 6083,
      "ä¸ľçĽŁ": 6084,
      "éŀį": 6085,
      "åħ¨åĳĺ": 6086,
      "éĿ¢çļĦ": 6087,
      "æ°´åľŁ": 6088,
      "åķĨå®¶": 6089,
      "åĪ¶æŃ¢": 6090,
      "æĥħæĦŁ": 6091,
      "åīįåĪĹ": 6092,
      "æī¹åıĳ": 6093,
      "china": 6094,
      "Ġä¹Ŀ": 6095,
      "æī¿è½½": 6096,
      "åıĮæĭ¥": 6097,
      "ä¸ļçļĦ": 6098,
      "æ²ĥ": 6099,
      "åĽŀå®¶": 6100,
      "Ġ13": 6101,
      "é¢ĸ": 6102,
      "åı¸æľº": 6103,
      "åįķçĭ¬": 6104,
      "å½ĵå¥½": 6105,
      "èĢĮä¸į": 6106,
      "æ°ĳä¼Ĺ": 6107,
      "åĪ°çļĦ": 6108,
      "å¾Īå¤§": 6109,
      "å®Ŀè´µ": 6110,
      "çĶŁéķ¿": 6111,
      "çĤ¸": 6112,
      "ä¸īæ¬¡": 6113,
      "åŁºæķ°": 6114,
      "æŁ¥éªĮ": 6115,
      "ç§¯åĪĨ": 6116,
      "ç¾İçļĦ": 6117,
      "éĥ½åľ¨": 6118,
      "ç»¿æ°´": 6119,
      "åŁİåİ¿": 6120,
      "åĮĹåĮº": 6121,
      "æ±Łåİ¿": 6122,
      "èĭ¹æŀľ": 6123,
      "Ġè®¸": 6124,
      "è¾£": 6125,
      "æķ´æ´ģ": 6126,
      "åıĹçģ¾": 6127,
      "çĥŃçĤ¹": 6128,
      "æĹ¢æľī": 6129,
      "ä¸ĺ": 6130,
      "èĥģ": 6131,
      "æľŁæ»¡": 6132,
      "æİ¨éĢģ": 6133,
      "èĦı": 6134,
      "åĳ½è¿Ĳ": 6135,
      "å°½ç®¡": 6136,
      "åº¦åĴĮ": 6137,
      "åĸĢ": 6138,
      "åħįçĸ«": 6139,
      "éļ§": 6140,
      "çº¢æĹĹ": 6141,
      "134": 6142,
      "èĬľæ¹ĸ": 6143,
      "åĮĸåĴĮ": 6144,
      "å¤ļäºĳ": 6145,
      "ç½ĳçĤ¹": 6146,
      "èį¡": 6147,
      "è¢Ń": 6148,
      "èŀº": 6149,
      "åŃĹåı·": 6150,
      "å±¥çº¦": 6151,
      "èĩŃ": 6152,
      "å®¶åºĦ": 6153,
      "çĤ¹ä½į": 6154,
      "æĬ¥è¡¨": 6155,
      "èĪ±": 6156,
      "æ°¸è¿ľ": 6157,
      "åĹ": 6158,
      "ãĢĪ": 6159,
      "åĪ°æĿ¥": 6160,
      "éĩıçļĦ": 6161,
      "æłıçĽ®": 6162,
      "éĽģ": 6163,
      "ä¹Łä¼ļ": 6164,
      "çĽ´å±ŀ": 6165,
      "éŀĭ": 6166,
      "è¯±": 6167,
      "æĸ°çĶŁ": 6168,
      "ç¡¬ä»¶": 6169,
      "co": 6170,
      "éĥ¨ä½į": 6171,
      "åĤ¨åŃĺ": 6172,
      "å¹´æľ«": 6173,
      "æ¸Ĺ": 6174,
      "æ°´æĸĩ": 6175,
      "çľģåĨħ": 6176,
      "äº¤çº³": 6177,
      "åĲįä¹ī": 6178,
      "åįĹéĥ¨": 6179,
      "çľĭæĿ¥": 6180,
      "åĬ¨ä½ľ": 6181,
      "ä¸ĭä¸Ģ": 6182,
      "çİ¯åį«": 6183,
      "åŀ«": 6184,
      "çŃĶè¾©": 6185,
      "ç£ģ": 6186,
      "äººèº«": 6187,
      "ä¸ĢæĹ¦": 6188,
      "çİ»çĴĥ": 6189,
      "åĴĮå¸Ĥ": 6190,
      "åĩ¸": 6191,
      "å¯¹è¯Ŀ": 6192,
      "èĤł": 6193,
      "äº²å±ŀ": 6194,
      "èĥĮåĲİ": 6195,
      "130": 6196,
      "éĿĸ": 6197,
      "æĸ¹åı¯": 6198,
      "éĶĤ": 6199,
      "ĠåĲĦ": 6200,
      "ä¸Ģå¤©": 6201,
      "é«ĺåİĭ": 6202,
      "å¼ķæĵİ": 6203,
      "æ³¨æĺİ": 6204,
      "éĤ®å¯Ħ": 6205,
      "çļĸ": 6206,
      "ä¸įåĲ«": 6207,
      "åĩºèµĦ": 6208,
      "éŁ©åĽ½": 6209,
      "éĩĩæĳĺ": 6210,
      "æĽ´ä¸º": 6211,
      "ä¸įåľ¨": 6212,
      "æĭ¾": 6213,
      "åıĺæĪĲ": 6214,
      "å¥ĸè¡¥": 6215,
      "å¥³åŃĲ": 6216,
      "çŃ¹å¤ĩ": 6217,
      "æ¯įäº²": 6218,
      "4000": 6219,
      "æľīäºĽ": 6220,
      "è¿ĩç¡¬": 6221,
      "åķĨåľĪ": 6222,
      "åĭĺå¯Ł": 6223,
      "ä¸ĢæĬĬ": 6224,
      "æĻĴ": 6225,
      "åľ°åŁŁ": 6226,
      "éĺ²å¾¡": 6227,
      "æ±ŁéĹ¨": 6228,
      "æī¿ç§Ł": 6229,
      "å½±è§Ĩ": 6230,
      "):": 6231,
      ")ï¼Į": 6232,
      "çĽĴ": 6233,
      "å¤ļæİª": 6234,
      "æĢ»åĢ¼": 6235,
      "æĬĹæĹ±": 6236,
      "èļĮ": 6237,
      "ï¼ĭ": 6238,
      "è®®äºĭ": 6239,
      "èĲ½ç»Ĩ": 6240,
      "å¦Ļ": 6241,
      "å¤§è¡Ĺ": 6242,
      "å®ļçļĦ": 6243,
      "åľºçļĦ": 6244,
      "åıĤå±ķ": 6245,
      "ä¸Ńæĸ¹": 6246,
      "ï¼īï¼Ī": 6247,
      "çŃīä¸Ģ": 6248,
      "ä»¬åľ¨": 6249,
      "åħļæĢ§": 6250,
      "åĳ¼åĲ¸": 6251,
      "æ¼³": 6252,
      "ä¿Ŀæ´ģ": 6253,
      "æĬķä¿Ŀ": 6254,
      "è®¤çŁ¥": 6255,
      "ä¹Łåı¯": 6256,
      "æľĢå¤ļ": 6257,
      "æĬĸ": 6258,
      "æĸ°æĺ¥": 6259,
      "ä¸įåıĺ": 6260,
      "ç¾½": 6261,
      "ä»£æĶ¶": 6262,
      "å¤ļé¡¹": 6263,
      "æĹłéľĢ": 6264,
      "åıįå¤į": 6265,
      "åı¤åŁİ": 6266,
      "é¥®é£Ł": 6267,
      "èĢĲå¿ĥ": 6268,
      "Ġ2019": 6269,
      "ä¸Ńå±±": 6270,
      "éĿŀæ´²": 6271,
      "æĥĳ": 6272,
      "æķĻæĿĲ": 6273,
      "æ¤ħ": 6274,
      "é©¿ç«Ļ": 6275,
      "ä¸ºæľŁ": 6276,
      "éĩįçļĦ": 6277,
      "åİŁå®¡": 6278,
      "çĥ¤": 6279,
      "å®ıè§Ĥ": 6280,
      "æ°§åĮĸ": 6281,
      "å¸Ĩ": 6282,
      "éĵŃ": 6283,
      "ä¸ºæŃ¤": 6284,
      "åĲĦåĽ½": 6285,
      "åįĹæĸ¹": 6286,
      "éĨī": 6287,
      "ccg": 6288,
      "Ġè¿Ļ": 6289,
      "åĲĲ": 6290,
      "å¼¥": 6291,
      "æĸ°é£İ": 6292,
      "æŀ«": 6293,
      "æ¯ıåĳ¨": 6294,
      "æĻļä¸Ĭ": 6295,
      "é¢ģåıĳ": 6296,
      "ccgp": 6297,
      "è¾¨": 6298,
      "ç¤¾äº¤": 6299,
      "æĸ½è¡Į": 6300,
      "æ²³æµģ": 6301,
      "ç©ºè°ĥ": 6302,
      "åĩłä¹İ": 6303,
      "å®ĹæĹ¨": 6304,
      "700": 6305,
      "åħ¥åŃ¦": 6306,
      "è¯ģçļĦ": 6307,
      "å¹¶æĮī": 6308,
      "æ¨¡æĭŁ": 6309,
      "æĢ¥éļ¾": 6310,
      "èı²": 6311,
      "äººæĪĸ": 6312,
      "å®ŀæĪĺ": 6313,
      "è¾°": 6314,
      "çī©çĲĨ": 6315,
      "çĥŃçĥĪ": 6316,
      "ä¸įåĩº": 6317,
      "ä¸ĭåıĳ": 6318,
      "åĲįçīĩ": 6319,
      "ä½Ļä¸ª": 6320,
      "éĢĢåĩº": 6321,
      "è¦ģçĤ¹": 6322,
      "å¹²èŃ¦": 6323,
      "çĿĢçľ¼": 6324,
      "å¸ľ": 6325,
      "æĶ¿å±Ģ": 6326,
      "è·¯åı£": 6327,
      "åºıåı·": 6328,
      "éĵ¾æİ¥": 6329,
      "å¯¸": 6330,
      "çĶµç«Ļ": 6331,
      "è·¯ä¸Ĭ": 6332,
      "å®Īä½ı": 6333,
      "åĻªå£°": 6334,
      "å¼ĢåĬŀ": 6335,
      "èĩªåĬ©": 6336,
      "ä¹Łä¸º": 6337,
      "åĦ¿åŃĲ": 6338,
      "ä¸įæĩĪ": 6339,
      "çĽ¸åĲĮ": 6340,
      "æĦıåĳ³": 6341,
      "æĬ¥éĶĢ": 6342,
      "ä»¤äºº": 6343,
      "åĵªéĩĮ": 6344,
      "æ··åĩĿ": 6345,
      "è´¾": 6346,
      "å¸ħ": 6347,
      "ä¸ľé£İ": 6348,
      "åĪĿä¸Ń": 6349,
      "å¨ģèĥģ": 6350,
      "è£ħé¥°": 6351,
      "çĶ¸": 6352,
      "è´¿": 6353,
      "å¼¦": 6354,
      "å¤§æ£ļ": 6355,
      "æ±ĤèģĮ": 6356,
      "çŁ¥æĻĵ": 6357,
      "ä½İä¿Ŀ": 6358,
      "é¥¶": 6359,
      "åºŁå¼ĥ": 6360,
      "åĴ¸": 6361,
      "é¢Ī": 6362,
      "å¹ħåº¦": 6363,
      "åī©ä½Ļ": 6364,
      "ä½ĵä¼ļ": 6365,
      "åı¯è¡Į": 6366,
      "å¾ģåľ°": 6367,
      "æī£ç¼´": 6368,
      "å°Ĩåħ¶": 6369,
      "å¾ĹåĪĨ": 6370,
      "åĤ¨èĥ½": 6371,
      "æĽ¾ç»ı": 6372,
      "æĽ¿ä»£": 6373,
      "ĠæĹ¥": 6374,
      "èĤĿ": 6375,
      "éĿ¢è²Į": 6376,
      "äºı": 6377,
      "ä¿ĿåŃĺ": 6378,
      "èĤĩ": 6379,
      "å§»": 6380,
      "èĬ½": 6381,
      "æĦŁåĪ°": 6382,
      "åı¦è¡Į": 6383,
      "éģ¥": 6384,
      "æ´»è·ĥ": 6385,
      "çķı": 6386,
      "åŀĤ": 6387,
      "çĮĽ": 6388,
      "åį°åĪ·": 6389,
      "æ°ĳå¿ĥ": 6390,
      "ä¹ĭå¹´": 6391,
      "æŀĹåľ°": 6392,
      "ç»¿åľ°": 6393,
      "éĢģåĪ°": 6394,
      "çļĦè¯Ŀ": 6395,
      "åħ¨éķĩ": 6396,
      "åĬŀåıĳ": 6397,
      "åĽĽçº§": 6398,
      "è®¤åĲĮ": 6399,
      "å°½éĩı": 6400,
      "æµ·æ·Ģ": 6401,
      "éĥ½è¦ģ": 6402,
      "çĻ½å¤©": 6403,
      "ç¦»å¼Ģ": 6404,
      "æĥłåıĬ": 6405,
      "åħļæĹ¥": 6406,
      "åħ±æ²»": 6407,
      "é©°": 6408,
      "åİĭç¼©": 6409,
      "å¡ĳæĸĻ": 6410,
      "éĽĨèµĦ": 6411,
      "å¼ĢåºŃ": 6412,
      "åĩıåħį": 6413,
      "åĺ´": 6414,
      "ä¸Ģè¦ģ": 6415,
      "åĲİæľŁ": 6416,
      "ç»ĵå¯¹": 6417,
      "å°±åľ¨": 6418,
      "éĴ©": 6419,
      "èĵī": 6420,
      "é«ĺåİŁ": 6421,
      "éķ¿è¿ľ": 6422,
      "ç»ĵè®º": 6423,
      "éª¤": 6424,
      "è´§å¸ģ": 6425,
      "æ³¢åĬ¨": 6426,
      "åĲİæĿ¥": 6427,
      "äºĮè¦ģ": 6428,
      "çĶµèĦĳ": 6429,
      "åĶ¤": 6430,
      "åİļçļĦ": 6431,
      "ĠãĢģ": 6432,
      "æ±²": 6433,
      "éĢļè½¦": 6434,
      "ç«ĭé¡¹": 6435,
      "çī¹æĸ°": 6436,
      "åģľäº§": 6437,
      "æĥłä¼ģ": 6438,
      "æį¢å±Ĭ": 6439,
      "èĵ¬åĭĥ": 6440,
      "å±ł": 6441,
      "çĽ¸å½ĵ": 6442,
      "éĢĤæĹ¶": 6443,
      "ç«Ł": 6444,
      "çĥŁåı°": 6445,
      "æ´ªæ°´": 6446,
      "èĿ": 6447,
      "ä¸Ĭä¸Ģ": 6448,
      "æŀģç«¯": 6449,
      "åĩĢåĮĸ": 6450,
      "å´Ķ": 6451,
      "éĩįå»º": 6452,
      "äºĭè¿¹": 6453,
      "è§ĦçŁ©": 6454,
      "Ġä¸į": 6455,
      "åīĸ": 6456,
      "ä¸īè¦ģ": 6457,
      "éĻ¢æīĢ": 6458,
      "ä¾ĭå¦Ĥ": 6459,
      "å¤ıåŃ£": 6460,
      "çº¸è´¨": 6461,
      "ä»¥æ¡Ī": 6462,
      "æĸĩä½ĵ": 6463,
      "æľªè¢«": 6464,
      "ä¸¥éĺ²": 6465,
      "åŃĺåĤ¨": 6466,
      "æ··åĲĪ": 6467,
      "GB": 6468,
      "èĥĥ": 6469,
      "ä»£ä¼ļ": 6470,
      "ä¸ĵç²¾": 6471,
      "ç½ĳçº¢": 6472,
      "åĮ»åĬ¡": 6473,
      "ä¸¤åĲį": 6474,
      "åĳ¨åĽ´": 6475,
      "å¼ĥæĿĥ": 6476,
      "ĠãĢĶ": 6477,
      "æĸľ": 6478,
      "äº¤æīĢ": 6479,
      "åĽ½å¤ĸ": 6480,
      "æıĲéĹ®": 6481,
      "ç®¡çº¿": 6482,
      "å¤įèĭı": 6483,
      "åį±æľº": 6484,
      "ä»ĵåĤ¨": 6485,
      "éļ§éģĵ": 6486,
      "æ³ķå®ĺ": 6487,
      "æ±ŁåįĹ": 6488,
      "çıŃåĪĹ": 6489,
      "æ¼Ķåĳĺ": 6490,
      "è®¿éĹ®": 6491,
      "æ¡ĤæŀĹ": 6492,
      "æµªè´¹": 6493,
      "ä¸Ģå¤Ħ": 6494,
      "æĥľ": 6495,
      "å¤ļæĸ¹": 6496,
      "æĢĿæĶ¿": 6497,
      "ä¼¤å®³": 6498,
      "çŁ«æŃ£": 6499,
      "èĬĿ": 6500,
      "è¿ĺèĥ½": 6501,
      "åł°": 6502,
      "å¾Ģå¾Ģ": 6503,
      "æ¦Ĥå¿µ": 6504,
      "èľľ": 6505,
      "ä¼ļå±ķ": 6506,
      "ä¸ĵåľº": 6507,
      "é¦ĸè¦ģ": 6508,
      "æĺ¥åŃ£": 6509,
      "è¯ĳ": 6510,
      "éĥģ": 6511,
      "æ°ĳæĦı": 6512,
      "ä¿¡èªī": 6513,
      "åĽŀçŃĶ": 6514,
      "èµ°æ·±": 6515,
      "æħ¢æĢ§": 6516,
      "éĢĨ": 6517,
      "åıĳèµ·": 6518,
      "æĮ¡": 6519,
      "çĶµæ°Ķ": 6520,
      "ä¹¦åĨĻ": 6521,
      "æºī": 6522,
      "ç»¼ä¸Ĭ": 6523,
      "åĩıæİĴ": 6524,
      "äºĨå¯¹": 6525,
      "ä¼ĺå¼Ĥ": 6526,
      "å¤ĩæ³¨": 6527,
      "Ġ19": 6528,
      "åħŃä¸ª": 6529,
      "å°Ŀè¯ķ": 6530,
      "ä¸Ģçīĩ": 6531,
      "å½¼": 6532,
      "å¼ºåĬ²": 6533,
      "å°ĳäºİ": 6534,
      "èµ°å®ŀ": 6535,
      "ç¼´åŃĺ": 6536,
      "èĪĴéĢĤ": 6537,
      "]ï¼Ľ": 6538,
      "mm": 6539,
      "Ġå¤§": 6540,
      "å¹´åīį": 6541,
      "æĢ§åľ°": 6542,
      "éĺŁçļĦ": 6543,
      "å±Ĭæ»¡": 6544,
      "çĺ¤": 6545,
      "__": 6546,
      "å¤§å¤§": 6547,
      "æĶ¯æı´": 6548,
      "å¤©ä¸ĭ": 6549,
      "åĽŀé¡¾": 6550,
      "å¼łå®¶": 6551,
      "æ°´å¸Ĥ": 6552,
      "æĹĹå¸ľ": 6553,
      "èĬ¯çīĩ": 6554,
      "ãĢĤ(": 6555,
      "è¡Įä½¿": 6556,
      "æ°´åŁŁ": 6557,
      "æĮģèĤ¡": 6558,
      "åĲįçļĦ": 6559,
      "éĶļ": 6560,
      "ç¢İ": 6561,
      "æĦ¿æĦı": 6562,
      "ä¼ļåķĨ": 6563,
      "æıĲè¯·": 6564,
      "äºĮæīĭ": 6565,
      "å¸¸è§Ħ": 6566,
      "å®¶çĶµ": 6567,
      "å¹³æĸ¹": 6568,
      "åħ¥åı£": 6569,
      "åĨľèį¯": 6570,
      "æĢ»è®¡": 6571,
      "éļ¾åº¦": 6572,
      "æĻ¯çĤ¹": 6573,
      "Ġ16": 6574,
      "ç¥¨æį®": 6575,
      "çģĮæºī": 6576,
      "æ³ķåºŃ": 6577,
      "åĪĨåĮº": 6578,
      "èĢħåľ¨": 6579,
      "é£İæł¼": 6580,
      "çİĩä¸º": 6581,
      "æĬ½æ£Ģ": 6582,
      "ä¹ĺå®¢": 6583,
      "æ¸¸æ³³": 6584,
      "åĳ¨å²ģ": 6585,
      "ç»Ŀå¯¹": 6586,
      "åİķæīĢ": 6587,
      "å¸½": 6588,
      "æŀ£": 6589,
      "å¼ºå¸Ĥ": 6590,
      "ä¹ĺåĿĲ": 6591,
      "å¼Ģè¾Ł": 6592,
      "å®ľå®¾": 6593,
      "è¯µ": 6594,
      "å¹¶ä¸İ": 6595,
      "å¹¿éĺĶ": 6596,
      "å¤įåĲĪ": 6597,
      "æµĭéĩı": 6598,
      "åĽŀåĪ°": 6599,
      "æ¿Ģæ´»": 6600,
      "åħµåĽ¢": 6601,
      "æ½įåĿĬ": 6602,
      "æĿĳéķĩ": 6603,
      "ä¾ĿéĿł": 6604,
      "ĠæĹł": 6605,
      "åħĨ": 6606,
      "ä¹ĭä¸Ń": 6607,
      "æĥ³åĪ°": 6608,
      "æĪªåĽ¾": 6609,
      "ç£Ĭ": 6610,
      "äº®çĽ¸": 6611,
      "æ³µ": 6612,
      "èĤ¤": 6613,
      "åĪ°åºŃ": 6614,
      "èĩªè¯Ħ": 6615,
      "æºº": 6616,
      "æł·æĿ¿": 6617,
      "è§Ĵèī²": 6618,
      "å¤ªå¹³": 6619,
      "é½Ĳåħ¨": 6620,
      "Ġè¦ģ": 6621,
      "æĹ¶æķĪ": 6622,
      "éĩĳåįİ": 6623,
      "åĬ©äºİ": 6624,
      "åĩ¸æĺ¾": 6625,
      "åİĺ": 6626,
      "è®²å¥½": 6627,
      "éĻ¶çĵ·": 6628,
      "å½¦": 6629,
      "åįĹéĢļ": 6630,
      "å®ĥä»¬": 6631,
      "+âĢĿ": 6632,
      "éĢ¢": 6633,
      "æ°´æ³¥": 6634,
      "åĲĦå¸Ĥ": 6635,
      "èĢħä»¬": 6636,
      "ç»Īäºİ": 6637,
      "æĭ©": 6638,
      "å®ļåĲĳ": 6639,
      "æ¬²": 6640,
      "åĲĦæĿĳ": 6641,
      "ä¸īåĨľ": 6642,
      "åĲįä¸º": 6643,
      "æĦıå¤ĸ": 6644,
      "è½¬è¿Ĳ": 6645,
      "åĽŀå¤´": 6646,
      "æµ·ä¸Ĭ": 6647,
      "åįĹå®ģ": 6648,
      "æľªåľ¨": 6649,
      "çķľç¦½": 6650,
      "åĮ¹éħį": 6651,
      "æľīæľĽ": 6652,
      "å¤§æī¹": 6653,
      "å¯¹æľ¬": 6654,
      "å±ĢçļĦ": 6655,
      "ç«ĭåľº": 6656,
      "å¢ŀéĩı": 6657,
      "æŀĦçŃĳ": 6658,
      "çŁ³åĮĸ": 6659,
      "ç«¯åįĪ": 6660,
      "æĬĹçĸ«": 6661,
      "åłµçĤ¹": 6662,
      "Açº§": 6663,
      "å®ŀçĶ¨": 6664,
      "ä¸¤å§Ķ": 6665,
      "å¡ĳéĢł": 6666,
      "å¤§äºĭ": 6667,
      "æĪĸä¸į": 6668,
      "æ»¨æµ·": 6669,
      "å©ļå§»": 6670,
      "æ±²åıĸ": 6671,
      "è¯ģçħ§": 6672,
      "äºĶæĺ¯": 6673,
      "éĤµ": 6674,
      "è§Ĩéĩİ": 6675,
      "å®³äºº": 6676,
      "çļĦéĩį": 6677,
      "ä¸Ģå¯¹": 6678,
      "çĽĳæĬ¤": 6679,
      "æīĢéķ¿": 6680,
      "å¥ĭåıĳ": 6681,
      "åĨ·éĵ¾": 6682,
      "çĸıæķ£": 6683,
      "å¼ĢæĶ¯": 6684,
      "ä¿Ŀä¾Ľ": 6685,
      "ä¹ĭå®¶": 6686,
      "æµģè¡Į": 6687,
      "åı·çłģ": 6688,
      "ä¸Ģæĸ¹": 6689,
      "åĪĨåĮħ": 6690,
      "æĿ¥äºĨ": 6691,
      "åĨľèµĦ": 6692,
      "åįģåŃĹ": 6693,
      "åħ«é¡¹": 6694,
      "æĴŃæĶ¾": 6695,
      "åģľä¸ļ": 6696,
      "ä¹Ķ": 6697,
      "ä¸Ģå¹¶": 6698,
      "åħ³éĹŃ": 6699,
      "åħ¶ä½Ļ": 6700,
      "ä¹ĥèĩ³": 6701,
      "åıĻ": 6702,
      "ä¸Ńç§ĭ": 6703,
      "éĹ´çļĦ": 6704,
      "æ£Ĵ": 6705,
      "æŀĹèįī": 6706,
      "æĺİçĻ½": 6707,
      "å¹²é¢Ħ": 6708,
      "ä»½é¢Ŀ": 6709,
      "èĪªçº¿": 6710,
      "éĻĦåĬł": 6711,
      "ä¸ĢæĶ¯": 6712,
      "æĶ¾ç®¡": 6713,
      "éŁ§": 6714,
      "èĪªçıŃ": 6715,
      "è¿Ķä¹¡": 6716,
      "ä¸Ģäºº": 6717,
      "æģ°": 6718,
      "åİŁæĿ¥": 6719,
      "è¾¹å¢ĥ": 6720,
      "åŃ¦åīį": 6721,
      "åķ¡": 6722,
      "é£İéĩĩ": 6723,
      "çĶ±æŃ¤": 6724,
      "è£ħç®±": 6725,
      "äºĴè¡¥": 6726,
      "åĽ°å¢ĥ": 6727,
      "å½ĵä»£": 6728,
      "è½¦éģĵ": 6729,
      "éģĹæ¼ı": 6730,
      "è¯ŀ": 6731,
      "çº¤": 6732,
      "éĹ¯": 6733,
      "è¯ģå®ŀ": 6734,
      "å½ĵåľº": 6735,
      "åĲĳä¸Ĭ": 6736,
      "åĩĨåŃĹ": 6737,
      "çĸ¾æİ§": 6738,
      "è¡Ģç®¡": 6739,
      "èĸ¯": 6740,
      "äºĨä»¥": 6741,
      "æķĻç»ĥ": 6742,
      "æĬķèº«": 6743,
      "èĳĽ": 6744,
      "æļĤæĹ¶": 6745,
      "]ï¼Į": 6746,
      "åĬŀç¨İ": 6747,
      "ä¾µå®³": 6748,
      "æ¯«ç±³": 6749,
      "åıĳæİĺ": 6750,
      "æĢ»æĶ¯": 6751,
      "æ²Īéĺ³": 6752,
      "ä»Ĺ": 6753,
      "æķ¦": 6754,
      "åľ¨æľ¬": 6755,
      "æİ¥åħ¥": 6756,
      "ç®Ģè¦ģ": 6757,
      "èĽĭçĻ½": 6758,
      "æĭ¼æĲı": 6759,
      "çº¹": 6760,
      "åı¤æłĳ": 6761,
      "ç§»æ°ĳ": 6762,
      "æĸĳ": 6763,
      "ä½ľèĢħ": 6764,
      "è¡¨æī¬": 6765,
      "éĽĨçº¦": 6766,
      "éĻĲäºİ": 6767,
      "ä½¿å¾Ĺ": 6768,
      "å¨Ł": 6769,
      "äº²åĪĩ": 6770,
      "è¡į": 6771,
      "åĮĸå¦Ĩ": 6772,
      "åĪĨç¦»": 6773,
      "æ°´äº§": 6774,
      "æ¬¢ä¹Ĳ": 6775,
      "å¯¹æ¯Ķ": 6776,
      "å¹³çŃī": 6777,
      "ç¡ħ": 6778,
      "æĶ¾æĿ¾": 6779,
      "å¿ħçĦ¶": 6780,
      "æººæ°´": 6781,
      "æĭĺ": 6782,
      "èĲĮ": 6783,
      "å±Ģéĥ¨": 6784,
      "åŃĹè½¨": 6785,
      "çºłæŃ£": 6786,
      "ï¼ĳ": 6787,
      "åĨĪ": 6788,
      "æĪĳä¸º": 6789,
      "ä»£åĬŀ": 6790,
      "ç²®æ²¹": 6791,
      "æĪıæĽ²": 6792,
      "å¦Īå¦Ī": 6793,
      "åĬłä¸Ĭ": 6794,
      "æľĪé¥¼": 6795,
      "åķĨçļĦ": 6796,
      "éĻįæ°´": 6797,
      "åį¸": 6798,
      "ä¸įä¹ħ": 6799,
      "çĤ¹åĴĮ": 6800,
      "åŁºåĩĨ": 6801,
      "åķĨåľº": 6802,
      "å¤ĸéĥ¨": 6803,
      "Ġ17": 6804,
      "ç»ĨèĬĤ": 6805,
      "æĭīå¼Ģ": 6806,
      "éĢ»è¾ĳ": 6807,
      "å±ķåĮº": 6808,
      "éķĩè¡Ĺ": 6809,
      "å¤įå®¡": 6810,
      "å¤įæł¸": 6811,
      "æĹĹä¸ĭ": 6812,
      "ç¼©çŁŃ": 6813,
      "åĴĸåķ¡": 6814,
      "é£ĺ": 6815,
      "å¹¶å°±": 6816,
      "å¹¶éĿŀ": 6817,
      "çī©çļĦ": 6818,
      "ä¸ľè·¯": 6819,
      "æµĭè¯Ħ": 6820,
      "æ¯ıæ¬¡": 6821,
      "ç»´åº¦": 6822,
      "åį°è±¡": 6823,
      "éĢĢè¿ĺ": 6824,
      "åľ¨å¤§": 6825,
      "ç¥ŀç»ı": 6826,
      "çººç»ĩ": 6827,
      "çļĦåı¯": 6828,
      "çĶ¨èį¯": 6829,
      "åĪĨæķ£": 6830,
      "çľģéķ¿": 6831,
      "å¯Ĩçłģ": 6832,
      "è½½æĺİ": 6833,
      "ä¾¯": 6834,
      "åĬłåĽº": 6835,
      "ç²ª": 6836,
      "åĽŀæĬ¥": 6837,
      "æĺ¥è¿Ĳ": 6838,
      "æ²¿æµ·": 6839,
      "CE": 6840,
      "ä¸Ģéģĵ": 6841,
      "çº§åĪ«": 6842,
      "åĩĨåĪĻ": 6843,
      "èĻ¾": 6844,
      "è·Łè¿Ľ": 6845,
      "ä½©æĪ´": 6846,
      "ä¸ºæľ¬": 6847,
      "å»ºæĪ¿": 6848,
      "å®¶åħ·": 6849,
      "äºĭåħ³": 6850,
      "ä»£æī£": 6851,
      "é¢ĦçķĻ": 6852,
      "æł¡å¤ĸ": 6853,
      "è¾ĥé«ĺ": 6854,
      "åıĭè°Ĭ": 6855,
      "ç§ĺå¯Ĩ": 6856,
      "è´Ŀå°Ķ": 6857,
      "çŃīæĸ°": 6858,
      "ä¸¤æ¬¡": 6859,
      "çĥŃçĪ±": 6860,
      "å®ģåİ¿": 6861,
      "æ¸©é¦¨": 6862,
      "å¥¹çļĦ": 6863,
      "èľĤ": 6864,
      "æķ°ä¸º": 6865,
      "å¸ĥç½®": 6866,
      "å¤´éĥ¨": 6867,
      "å·¡éĢ»": 6868,
      "é¥®æ°´": 6869,
      "æĭĸæ¬ł": 6870,
      "è¯¸å¤ļ": 6871,
      "çº²è¦ģ": 6872,
      "åĬ¡å¿ħ": 6873,
      "åĪ¶çº¦": 6874,
      "å½ĵä¸ĭ": 6875,
      "è¿ŀå¸¦": 6876,
      "æĭ¨æīĵ": 6877,
      "å®ĺç½ĳ": 6878,
      "å°ģéĹŃ": 6879,
      "å¸Ŀ": 6880,
      "ä¸Ģåº§": 6881,
      "åıĳçĥŃ": 6882,
      "åı¯è§ģ": 6883,
      "çĶµè´¹": 6884,
      "éĢłä»·": 6885,
      "åĮ»æĬ¤": 6886,
      "çī¹åĽ°": 6887,
      "å·²åľ¨": 6888,
      "æĳ¸æ¸ħ": 6889,
      "æĨ": 6890,
      "åĮºåİ¿": 6891,
      "èĬ¬": 6892,
      "èĢĥçĤ¹": 6893,
      "èİī": 6894,
      "éªĮè¯ģ": 6895,
      "æ¸¯å¸Ĥ": 6896,
      "æŃ¦åĻ¨": 6897,
      "çĸĳéĹ®": 6898,
      "è¯¯å¯¼": 6899,
      "é³": 6900,
      "åĵ²": 6901,
      "äº¤å¾Ģ": 6902,
      "æĶ¶æĤī": 6903,
      "è¥¿æĸ¹": 6904,
      "æĦŁçŁ¥": 6905,
      "äº²åŃĲ": 6906,
      "é¥²æĸĻ": 6907,
      "è®¾å®ļ": 6908,
      "ä¸ĵæĪ·": 6909,
      "çĪ¸": 6910,
      "æķĮ": 6911,
      "éĩĳçļĦ": 6912,
      "åı·çº¿": 6913,
      "ä¹Łèĥ½": 6914,
      "éĤ±": 6915,
      "å½©ç¥¨": 6916,
      "åĩĿå¿ĥ": 6917,
      "èµ«": 6918,
      "çº¾": 6919,
      "ä»¥é«ĺ": 6920,
      "æ´Ĵ": 6921,
      "åľºæ¬¡": 6922,
      "åįİä¸º": 6923,
      "æ¢¨": 6924,
      "2008": 6925,
      "2009": 6926,
      "ä¸§": 6927,
      "æľ´": 6928,
      "å¼¯": 6929,
      "åĲĪå¹¶": 6930,
      "èĥĢ": 6931,
      "äºİæĺ¯": 6932,
      "æł¡åĮº": 6933,
      "è®©æĪĳ": 6934,
      "è¯¥åİ¿": 6935,
      "é¦ĸä½į": 6936,
      "åİħéķ¿": 6937,
      "è·¨çľģ": 6938,
      "æľĿéĺ³": 6939,
      "æıŃçīĮ": 6940,
      "é¢Ĺç²Ĵ": 6941,
      "6000": 6942,
      "cm": 6943,
      "çļĦèĢģ": 6944,
      "ä¼ļçŃī": 6945,
      "ä¸ĭåİ»": 6946,
      "ç¡®å®ŀ": 6947,
      "åºŃå®¡": 6948,
      "æĦģçĽ¼": 6949,
      "Ġé«ĺ": 6950,
      "å®īåİ¿": 6951,
      "èİ·è¯Ħ": 6952,
      "å¼łè´´": 6953,
      "ä¸ŃåĴĮ": 6954,
      "ç®Ń": 6955,
      "å®¶æĶ¿": 6956,
      "åħ¥åħļ": 6957,
      "æ°¸ä¹ħ": 6958,
      "åĨ²çªģ": 6959,
      "èŁ": 6960,
      "æ±°": 6961,
      "ä¸Ĭæľī": 6962,
      "è§Ħä¸Ĭ": 6963,
      "åįķä»·": 6964,
      "æĺİå¹´": 6965,
      "æĹłåģ¿": 6966,
      "è´¢å¯Į": 6967,
      "çº¦è°Ī": 6968,
      "èľĢ": 6969,
      "è´¨æĬ¼": 6970,
      "ç¥ī": 6971,
      "æĢ»éĺŁ": 6972,
      "äº«æľī": 6973,
      "éŁ¶": 6974,
      "æ´½è°Ī": 6975,
      "ï¼Ĵ": 6976,
      "å¼Ģéĩĩ": 6977,
      "æ·Ħ": 6978,
      "çĲĥåĳĺ": 6979,
      "åį°ç«ł": 6980,
      "åħĭéļ¾": 6981,
      "å¨ĺ": 6982,
      "äº§åŃ¦": 6983,
      "å®¶éĩĮ": 6984,
      "èīĺ": 6985,
      "æ¯Ķäºļ": 6986,
      "æ¸©æ³ī": 6987,
      "æĥ©æĪĴ": 6988,
      "é«ĺåħ´": 6989,
      "åĪĨè§£": 6990,
      "éĩıåĮĸ": 6991,
      "åĮºç®¡": 6992,
      "äºĭåĲİ": 6993,
      "è¿Ĳç»´": 6994,
      "æĭīåĬ¨": 6995,
      "åįĥçĵ¦": 6996,
      "æĺŁçº§": 6997,
      "èĴ¸": 6998,
      "æļĸå¿ĥ": 6999,
      "åħ³åĪĩ": 7000,
      "åĨľè´¸": 7001,
      "æ¸ħåįİ": 7002,
      "èħ°": 7003,
      "è£ģåĪ¤": 7004,
      "ãİ": 7005,
      "Ġ/": 7006,
      "å»ºæ¡£": 7007,
      "æĽĿ": 7008,
      "å·ŀå§Ķ": 7009,
      "åŀ¦": 7010,
      "åıĺå¾Ĺ": 7011,
      "çķĻå®Ī": 7012,
      "ï¼Ĳ": 7013,
      "äººéĢī": 7014,
      "å¼Ģå±Ģ": 7015,
      "ä½įå±ħ": 7016,
      ",ãĢĬ": 7017,
      "åħ¬åĬŀ": 7018,
      "ä¸Ĭæ¸¸": 7019,
      "å®ļä»·": 7020,
      "åĽŀéģ¿": 7021,
      "å¹´çº§": 7022,
      "åħļç¾¤": 7023,
      "ä¸ĩå®¶": 7024,
      "ç¼®": 7025,
      "çªĳ": 7026,
      "ç¦ıç¥ī": 7027,
      "èĵĿåĽ¾": 7028,
      "æĭ¿åĩº": 7029,
      "æ·»åĬł": 7030,
      "æĪĲåĵģ": 7031,
      "ç½Ĳ": 7032,
      "å¢©": 7033,
      "å°ıçļĦ": 7034,
      "èī²çļĦ": 7035,
      "è¯ĦåĪĨ": 7036,
      "è®ºæĸĩ": 7037,
      "æĹ¢æĺ¯": 7038,
      "æııè¿°": 7039,
      "âĪ": 7040,
      "æłĸ": 7041,
      "ç½ķ": 7042,
      "é¢Ħå®¡": 7043,
      "ç§°ä¸º": 7044,
      "çĻ¾éĽ¶": 7045,
      "âī¥": 7046,
      "ĠæĿ¨": 7047,
      "ä¸Ģå¥Ĺ": 7048,
      "èģĶéĺ²": 7049,
      "é¢ĨæĤŁ": 7050,
      "åĪ©å®³": 7051,
      "æīĢè°ĵ": 7052,
      "èİ·æī¹": 7053,
      "çĬ¬": 7054,
      "å¾Īå¿«": 7055,
      "åªĴä»ĭ": 7056,
      "è£ģåĨ³": 7057,
      "æİĢ": 7058,
      "åħ¬ç«ĭ": 7059,
      "æĹ¥æĿ¥": 7060,
      "åĳ¨æľ«": 7061,
      "10000": 7062,
      "ç®ĢåĮĸ": 7063,
      "æ´¾é©»": 7064,
      "æĳĨåľ¨": 7065,
      "ä¸Ļ": 7066,
      "å®°": 7067,
      "åĽĬ": 7068,
      "å°Ĩä¸º": 7069,
      "åįĹè·¯": 7070,
      "ä¿®ç¼®": 7071,
      "åĶ®åĲİ": 7072,
      "é¤Ĳåİħ": 7073,
      "æµ¦ä¸ľ": 7074,
      "èī°èĭ¦": 7075,
      "å¹³æĹ¶": 7076,
      "çĽ¸ç»§": 7077,
      "é¢ĨåĨĽ": 7078,
      "ç¦ıå·ŀ": 7079,
      "çĳ¶": 7080,
      "äººçŃī": 7081,
      "æľºçĶµ": 7082,
      "å¦Ĥå®ŀ": 7083,
      "ä¸¤ç§į": 7084,
      "æ¨¡åĿĹ": 7085,
      "çŁŃä¿¡": 7086,
      "åĨ²åĩ»": 7087,
      "æ¾³éĹ¨": 7088,
      "com": 7089,
      "æĶ¹å»º": 7090,
      "ä¸¤å¤§": 7091,
      "è§Ĩè§ī": 7092,
      "æ¼Ķè®²": 7093,
      "å¨ĥ": 7094,
      "æ±ĽæľŁ": 7095,
      "çļĦæĢ»": 7096,
      "æıĲæĮ¯": 7097,
      "å¤ļäºº": 7098,
      "æ¸ħæ´Ĺ": 7099,
      "æĹħè´¹": 7100,
      "å¯Ĩåº¦": 7101,
      "åĲĮè¡Į": 7102,
      "ä¸ĭå±ŀ": 7103,
      "åĲİåĭ¤": 7104,
      "æŀģå¤§": 7105,
      "çŃĶçĸĳ": 7106,
      "åĪļåĪļ": 7107,
      "ä¸Ģå¾ĭ": 7108,
      "å®¶å±ħ": 7109,
      "éĺ²æ´ª": 7110,
      "åŁİå»º": 7111,
      "æ¢§": 7112,
      "çºªå½ķ": 7113,
      "é¼»": 7114,
      "åĲ¸çº³": 7115,
      "åĨłçĬ¶": 7116,
      "éĺ¿æĭī": 7117,
      "å¹¢": 7118,
      "å¤ļå°ĳ": 7119,
      "å°±æľī": 7120,
      "æ¸ħéĨĴ": 7121,
      "æķ¬èĢģ": 7122,
      "äººè¡Į": 7123,
      "ä¸Ģåı·": 7124,
      "å¹´èĩ³": 7125,
      "åľ°ä¸Ĭ": 7126,
      "åĲĦå¤§": 7127,
      "æĺİç»Ĩ": 7128,
      "å¤įåĪ¶": 7129,
      "æ¸ħæĺİ": 7130,
      "æłĳçī¢": 7131,
      "åĲ«éĩı": 7132,
      "è¿½æº¯": 7133,
      "åŃ¦æľŁ": 7134,
      "äºİæľ¬": 7135,
      "ç³ķ": 7136,
      "æķĻçłĶ": 7137,
      "ä¾Ľè´§": 7138,
      "è°ĥæİ§": 7139,
      "é©¬æĭī": 7140,
      "æ®ĭèģĶ": 7141,
      "åĲ¸æĶ¶": 7142,
      "æļĤåģľ": 7143,
      "åħĳçİ°": 7144,
      "ĠA": 7145,
      "åıĳæĺİ": 7146,
      "èģĶéĢļ": 7147,
      "åįĹåİ¿": 7148,
      "çĥ¯": 7149,
      "åĪ¤ä»¤": 7150,
      "å»ºè¨Ģ": 7151,
      "è¦ģæľī": 7152,
      "ä»¥æŃ¤": 7153,
      "æľŁæĿĥ": 7154,
      "åħ¶æ¬¡": 7155,
      "æ»ĩ": 7156,
      "éĤ¹": 7157,
      "åĩŃåĢŁ": 7158,
      "åħ¬è¯ģ": 7159,
      "å±Ģåľ¨": 7160,
      "å¾ĹçĽĬ": 7161,
      "å±±éķĩ": 7162,
      "ä¾Ŀæ¬¡": 7163,
      "æ¯Ĵåĵģ": 7164,
      "éĴ¢éĵģ": 7165,
      "åħľ": 7166,
      "å¸ĤçļĦ": 7167,
      "çŃīå¾ħ": 7168,
      "æķĻè®Ń": 7169,
      "åĽŀå½Ĵ": 7170,
      "çĻ»éĻĨ": 7171,
      "çŀ»": 7172,
      "é¸Ń": 7173,
      "æ¦ľæł·": 7174,
      "å¸Ĥå®¹": 7175,
      "éĻĢ": 7176,
      "è°Ń": 7177,
      "ä¿¡ä»°": 7178,
      "çłº": 7179,
      "æĢ»çĲĨ": 7180,
      "è¿Ļåľº": 7181,
      "é¡¾å®¢": 7182,
      "æľīå®³": 7183,
      "åĩºåĬ¨": 7184,
      "åĬłå¯Ĩ": 7185,
      "éĩĮç¨ĭ": 7186,
      "åĪĿå®¡": 7187,
      "æĲľç´¢": 7188,
      "åıĳè¾¾": 7189,
      "ä¸ºåħ¶": 7190,
      "é¢ĩ": 7191,
      "æ³ķçļĦ": 7192,
      "åĨľå®¶": 7193,
      "ä¹ĭåŁİ": 7194,
      "æŃ£çļĦ": 7195,
      "æ¯ıäºº": 7196,
      "GD": 7197,
      "Ġåįģ": 7198,
      "å¹´éĻĲ": 7199,
      "çĲ³": 7200,
      "å¼Ģå¿ĥ": 7201,
      "å¼ºçĥĪ": 7202,
      "åħ±éĿĴ": 7203,
      "æŃ¥éª¤": 7204,
      "éĤ¢": 7205,
      "åºķèķ´": 7206,
      "Ġæ³¨": 7207,
      "æ¸£": 7208,
      "æ¬¾çļĦ": 7209,
      "èģĺè¯·": 7210,
      "æĭĨè¿ģ": 7211,
      "é¡µéĿ¢": 7212,
      "ç»¸": 7213,
      "å¹»": 7214,
      "æıĲåĪ°": 7215,
      "æľ¬è´¨": 7216,
      "æ°´ä½ĵ": 7217,
      "äº¤æį¢": 7218,
      "å°ıé¢Ŀ": 7219,
      "ä¾Ľåħ»": 7220,
      "è°ĥèĬĤ": 7221,
      "è§£å¯Ĩ": 7222,
      "ä¼łåªĴ": 7223,
      "æ®¡": 7224,
      "éĴ¦": 7225,
      "åĨĽæ°ĳ": 7226,
      "åĭī": 7227,
      "çļĦæĹł": 7228,
      "åİŁåĪĽ": 7229,
      "æ»¥": 7230,
      "æ¼ł": 7231,
      "æįŁåĿı": 7232,
      "èļĮåŁł": 7233,
      "æľµ": 7234,
      "å¤§å¸Ī": 7235,
      "ä¼ļåĴĮ": 7236,
      "çħ§é¡¾": 7237,
      "éĶĢéĩı": 7238,
      "ä½Ĩä¸į": 7239,
      "ç°": 7240,
      "ä¸ļåĨħ": 7241,
      "çī©ç§į": 7242,
      "å¦¹": 7243,
      "å¦ĤæľŁ": 7244,
      "è¾ĥå¥½": 7245,
      "ç¼ĸçłģ": 7246,
      "æīİæł¹": 7247,
      "éĨĩ": 7248,
      "éĵ¸çī¢": 7249,
      "12345": 7250,
      "æķ²": 7251,
      "åĲĮäºĭ": 7252,
      "èīĩ": 7253,
      "çĥ¦": 7254,
      "é¼ĵèĪŀ": 7255,
      "æ©Ļ": 7256,
      "ED": 7257,
      "åĽ½éģĵ": 7258,
      "éĢļåĳĬ": 7259,
      "å¥½è¯Ħ": 7260,
      "æŁ¥æī¾": 7261,
      "åĽĽæ¬¡": 7262,
      "æ»¡çļĦ": 7263,
      "ç¢Į": 7264,
      "èĸĽ": 7265,
      "æĬĳ": 7266,
      "éĻĩ": 7267,
      "å¹´äº§": 7268,
      "çī²": 7269,
      "æĺ¯æľĢ": 7270,
      "åĪĨçº¢": 7271,
      "éĺ²ç©º": 7272,
      "æ¶¨å¹ħ": 7273,
      "æĬĸéŁ³": 7274,
      "å¿į": 7275,
      "æµı": 7276,
      "é£İåħī": 7277,
      "æ·ĺæ±°": 7278,
      "ĠåĽł": 7279,
      "åľ¨åħ¨": 7280,
      "æµĨ": 7281,
      "æ¶¯": 7282,
      "ä¸ĵåĮº": 7283,
      "æ£Ģçĸ«": 7284,
      "å¤©åĨħ": 7285,
      "æķĳæĬ¤": 7286,
      "å©·": 7287,
      "åĩīå±±": 7288,
      "æĬ¬": 7289,
      "å®īå±ħ": 7290,
      "å¾ĹçŁ¥": 7291,
      "102": 7292,
      "æ°Ķæ°Ľ": 7293,
      "åĽŀåįĩ": 7294,
      "Ġ100": 7295,
      "åħįç¨İ": 7296,
      "ç»ĳ": 7297,
      "åĮºä½į": 7298,
      "èĲ¥è¿Ĳ": 7299,
      "èĭį": 7300,
      "è¶ħçº§": 7301,
      "åħīæĺİ": 7302,
      "åħĭåħ°": 7303,
      "åįĥå¹´": 7304,
      "Ġé»Ħ": 7305,
      "å®ŀåĲį": 7306,
      "åĩºéĻ¢": 7307,
      "èĥİ": 7308,
      "å°±è¯Ĭ": 7309,
      "åıĸæļĸ": 7310,
      "è§Ĥåħī": 7311,
      "æ¿Ģæĥħ": 7312,
      "éĤ£äºĽ": 7313,
      "or": 7314,
      "pp": 7315,
      "æľ¬å¹´": 7316,
      "ï¼ĽâĢľ": 7317,
      "æįŀ": 7318,
      "å¢ŀè®¾": 7319,
      "æİ¥è¿ĳ": 7320,
      "ä¸ľåĮº": 7321,
      "çĶ³é¢Ĩ": 7322,
      "å¤§çĲĨ": 7323,
      "å¯¹æĸ°": 7324,
      "ä¸»æµģ": 7325,
      "å§ĳ": 7326,
      "å¹³å¸Ĥ": 7327,
      "æ°´ä¸Ĭ": 7328,
      "ãĢĭï¼Ľ": 7329,
      "å¾®åŀĭ": 7330,
      "æ²»åĽ½": 7331,
      "æ±Ĥæĺ¯": 7332,
      "è¿Ļé¡¹": 7333,
      "è¶³é¢Ŀ": 7334,
      "Ġ9134": 7335,
      "éģŃåıĹ": 7336,
      "çĤĴ": 7337,
      "èģĮæĿĥ": 7338,
      "èĤ¡æľ¬": 7339,
      "åľ¨æł¡": 7340,
      "é¡½": 7341,
      "è¿Ľåıĸ": 7342,
      "è¡¨éĿ¢": 7343,
      "åĮĹè·¯": 7344,
      "æ´¥è´´": 7345,
      "è¡Ģæ¶²": 7346,
      "å¹´èµ·": 7347,
      "å±ķä¼ļ": 7348,
      "æŀļ": 7349,
      "è¡¨çİĩ": 7350,
      "æī§åĭ¤": 7351,
      "èĤ¿çĺ¤": 7352,
      "ĠS": 7353,
      "æµĩ": 7354,
      "ä¸īé¡¹": 7355,
      "å£¹": 7356,
      "åħ»æĪĲ": 7357,
      "åŃ£èĬĤ": 7358,
      "å°¼äºļ": 7359,
      "æļĳæľŁ": 7360,
      "gt": 7361,
      "ä¸Ģä»£": 7362,
      "ä¸Ģç½ĳ": 7363,
      "ä¸ŃåİŁ": 7364,
      "å»ºæĿĲ": 7365,
      "ä¸įåĪ©": 7366,
      "ç¬¼": 7367,
      "ä¸ĭæ¸¸": 7368,
      "èĢĥéªĮ": 7369,
      "çªĥ": 7370,
      "åĪĹä¸º": 7371,
      "å½ķåħ¥": 7372,
      "æķħéļľ": 7373,
      "åīĸæŀĲ": 7374,
      "æ·±èĢķ": 7375,
      "åįĹåĮº": 7376,
      "è´¢ç»ı": 7377,
      "äºīåħĪ": 7378,
      "æĭīèĲ¨": 7379,
      "ä»¤ç¬¬": 7380,
      "æĹ¢è¦ģ": 7381,
      "å±ıéļľ": 7382,
      "PC": 7383,
      "éĩįç»Ħ": 7384,
      "æ·±åıĹ": 7385,
      "è¶ħè¶Ĭ": 7386,
      "å¾·å¸Ĥ": 7387,
      "è¯¢ä»·": 7388,
      "æ¾ľ": 7389,
      "æĽĿåħī": 7390,
      "åľ°åĽ¾": 7391,
      "å¼ĢéĹ¨": 7392,
      "å®īå¿ĥ": 7393,
      "éĩĩäºĳ": 7394,
      "å¹¶æľª": 7395,
      "è½¦åŀĭ": 7396,
      "è¿ĺä¼ļ": 7397,
      "è®²åłĤ": 7398,
      "å°Ķå¤ļ": 7399,
      "æĺĬ": 7400,
      "æĺŃ": 7401,
      "å¹´ä¸Ĭ": 7402,
      "å»ºåħļ": 7403,
      "ä¿Ŀé©¾": 7404,
      "ä¿¡ä»»": 7405,
      "åĽŀè®¿": 7406,
      "åĩ¡å¯¹": 7407,
      "Ġæľī": 7408,
      "ä¸ĢåŃĹ": 7409,
      "ï¼īâĢľ": 7410,
      "æıĲéĢŁ": 7411,
      "ä¸ªæĿĳ": 7412,
      "åĬ©çĲĨ": 7413,
      "æīĭå·¥": 7414,
      "æ¤įæłĳ": 7415,
      "ç»³": 7416,
      "ä¸ºä¾ĭ": 7417,
      "å¢ŀæ·»": 7418,
      "çī¹å¤§": 7419,
      "è®¤è´Ń": 7420,
      "æ¸ħéĽ¶": 7421,
      "æĦŁæĤŁ": 7422,
      "æĪĺçº¿": 7423,
      "åŃĺæĶ¾": 7424,
      "å¡Į": 7425,
      "ç§ĳéĻ¢": 7426,
      "å¤ĸåľ°": 7427,
      "è§ĤçĤ¹": 7428,
      "èµ°åľ¨": 7429,
      "æī¬å°ĺ": 7430,
      "éģŃéģĩ": 7431,
      "çĽĨ": 7432,
      "éķ¿å®ī": 7433,
      "äº¤åĬŀ": 7434,
      "ç²Ĺ": 7435,
      "å®ŀä¸ļ": 7436,
      "çŃīçļĦ": 7437,
      "æľĪåĪĿ": 7438,
      "éĶ¤": 7439,
      "èŃ¦åĬ¡": 7440,
      "æ¼Ĩ": 7441,
      "äºĴåĬ©": 7442,
      "ä¸´æ²Ĥ": 7443,
      "2007": 7444,
      "ä½ĵæ¸©": 7445,
      "æľŁä¸º": 7446,
      "ä¸ĵæłı": 7447,
      "è¥¿è·¯": 7448,
      "æ§½": 7449,
      "ä¸įäºĨ": 7450,
      "å®īåº·": 7451,
      "å¥½äºº": 7452,
      "ä¼¤æ®ĭ": 7453,
      "å¾ĴåĪĳ": 7454,
      "ä¿Ŀæ¸©": 7455,
      "èģĨ": 7456,
      "æĸ¹çļĦ": 7457,
      "è¿ĩçļĦ": 7458,
      "å°±è¦ģ": 7459,
      "ä¸¤ä½į": 7460,
      "äº¬ä¸ľ": 7461,
      "æ¦Ĩ": 7462,
      "éģ¿éĻ©": 7463,
      "åħ¨æĸ°": 7464,
      "å®ŀçī©": 7465,
      "åĽ½äº§": 7466,
      "çĶŁæľº": 7467,
      "å¼Ģåħ·": 7468,
      "æĭĮ": 7469,
      "ä¾ĽéľĢ": 7470,
      "åĩıç¨İ": 7471,
      "éŁ¦": 7472,
      "å¥³åĦ¿": 7473,
      "ä¿±": 7474,
      "å¤§åħ´": 7475,
      "éĺģ": 7476,
      "äºĮç»´": 7477,
      "èĬ¦": 7478,
      "çĹħèĻ«": 7479,
      "éĢģä¸Ĭ": 7480,
      "åħŃå¤§": 7481,
      "çĭ®": 7482,
      "è°¢è°¢": 7483,
      "8000": 7484,
      "å¹´åĿĩ": 7485,
      "çİ°è¡Į": 7486,
      "å¿ĥéĩĮ": 7487,
      "éĩĳç¨İ": 7488,
      "æĺİäºĨ": 7489,
      "æ°Ķä½ĵ": 7490,
      "å¾ĢæĿ¥": 7491,
      "ç¼ºéĻ·": 7492,
      "æĤ¬æĮĤ": 7493,
      "çļĦå¤ļ": 7494,
      "åĸĦäºİ": 7495,
      "æ¶īä¼ģ": 7496,
      "ä½Ľå±±": 7497,
      "ĠæĪĳ": 7498,
      "åĲģ": 7499,
      "æľīä¸º": 7500,
      "å·ĿåĮº": 7501,
      "æ¬§çĽŁ": 7502,
      "çĽĪåĪ©": 7503,
      "350": 7504,
      "æ°´çļĦ": 7505,
      "æŁ¥å°ģ": 7506,
      "ç§ĳéķ¿": 7507,
      "è¿Ļåº§": 7508,
      "é¹ħ": 7509,
      "æļ´åĬĽ": 7510,
      "å¯»æ±Ĥ": 7511,
      "çļĨ": 7512,
      "å¸Ĥå±Ģ": 7513,
      "éĥĬ": 7514,
      "èĤĮ": 7515,
      "æ¸Ń": 7516,
      "å°Ĩè¢«": 7517,
      "å±Ĥçº§": 7518,
      "èĢĥè¯ģ": 7519,
      "æł¹åŁº": 7520,
      "æµ¦åĮº": 7521,
      "Ġä¹ł": 7522,
      "äººåı¯": 7523,
      "ä¸ŃéĺŁ": 7524,
      "å¼ºçľģ": 7525,
      "ç»ĵæł¸": 7526,
      "ç©·": 7527,
      "åįĹæĺĮ": 7528,
      "éĵ¶å±±": 7529,
      "ä½İæ¸©": 7530,
      "ç»Īèº«": 7531,
      "2006": 7532,
      "çŃĽéĢī": 7533,
      "ar": 7534,
      "çļĦæľī": 7535,
      "çļĦåĨħ": 7536,
      "å¯¼èĪª": 7537,
      "æµĭç®Ĺ": 7538,
      "æĹ©æĹ¥": 7539,
      "é¹°": 7540,
      "å®¿èĪį": 7541,
      "çĹĽçĤ¹": 7542,
      "åįī": 7543,
      "éĿ¶": 7544,
      "éĢļå¸¸": 7545,
      "åº¦çļĦ": 7546,
      "ä»ĸåľ¨": 7547,
      "åĮħå®¹": 7548,
      "è¯»èĢħ": 7549,
      "éĢıéľ²": 7550,
      "å¼±é¡¹": 7551,
      "å±łå®°": 7552,
      "ĠC": 7553,
      "äººä¸į": 7554,
      "ä¸ºæĸ°": 7555,
      "èĥ½èĢĹ": 7556,
      "æľ¬èº«": 7557,
      "è§Ħç¨ĭ": 7558,
      "æĿ¡ä¹ĭ": 7559,
      "ä¹ĭæĹħ": 7560,
      "çĥĤ": 7561,
      "èİĨ": 7562,
      "é©¬éŀį": 7563,
      "æ¿ĢåĬ¨": 7564,
      "è¿Ń": 7565,
      "çĶŁåŃĺ": 7566,
      "ä¸ĭè·Į": 7567,
      "ä¸ľèĲ¥": 7568,
      "åįİä¾¨": 7569,
      "æŀĹåľº": 7570,
      "çĥŃéĹ¹": 7571,
      "å±Ī": 7572,
      "æĹ¶æĬ¥": 7573,
      "æĹ¥åİĨ": 7574,
      "ä»»æĦı": 7575,
      "ä¸ĩè¾Ĩ": 7576,
      "è´¹çļĦ": 7577,
      "ä¹¦çĶ»": 7578,
      "åĽŀå¿Ĩ": 7579,
      "æĢ¥éľĢ": 7580,
      "æĺ¥é£İ": 7581,
      "160": 7582,
      "å¦ĩå¹¼": 7583,
      "1200": 7584,
      "at": 7585,
      "ä¸Ńéĥ¨": 7586,
      "ä¸ĩä¸ª": 7587,
      "è½¦çļĦ": 7588,
      "å¸ĪèµĦ": 7589,
      "è¯¥å¸Ĥ": 7590,
      "åħħå®ŀ": 7591,
      "å½±åĥı": 7592,
      "åĩıæĮģ": 7593,
      "çıłæµ·": 7594,
      "é¢ģå¥ĸ": 7595,
      "å§¿æĢģ": 7596,
      "åı®": 7597,
      "æĹ¥æŃ¢": 7598,
      "å¿ĥä¸Ń": 7599,
      "é£İæ¸ħ": 7600,
      "çº¾åĽ°": 7601,
      "èģĨåĲ¬": 7602,
      "ä¸ĢåĲĮ": 7603,
      "å¼ºåĬĽ": 7604,
      "èĩªæķĳ": 7605,
      "æ·ĭ": 7606,
      "éĥ½ä¸į": 7607,
      "çīĪæĿĥ": 7608,
      "èĳĹåĲį": 7609,
      "å¤¹": 7610,
      "è¯ł": 7611,
      "å¹´æĬ¥": 7612,
      "ä¸īæĸ¹": 7613,
      "éĢłæŀĹ": 7614,
      "åı°åĮº": 7615,
      "èİİ": 7616,
      "æĺ¥èĢķ": 7617,
      "çŃĶåį·": 7618,
      "è¾īçħĮ": 7619,
      "ä¸įåıĹ": 7620,
      "èĩªæľī": 7621,
      "äºĮå®¡": 7622,
      "ç¼ħ": 7623,
      "çģ¿": 7624,
      "æĪ·åı£": 7625,
      "éĢģåİ»": 7626,
      "çĻ¾èī²": 7627,
      "è¾ĥå¤ļ": 7628,
      "ç¢Ĺ": 7629,
      "æİĪä¿¡": 7630,
      "å³°ä¼ļ": 7631,
      "çŁ¿ä¸ļ": 7632,
      "å©Ĩ": 7633,
      "èĵĿå¤©": 7634,
      "åľ°çĲĥ": 7635,
      "æĹ¥åĲĳ": 7636,
      "æľŁè´§": 7637,
      "æĬĢå·§": 7638,
      "èĢĥåľº": 7639,
      "å®¢æľį": 7640,
      "ç¨³ä¸Ń": 7641,
      "æł·æľ¬": 7642,
      "æ¾Ħæ¸ħ": 7643,
      "äº³": 7644,
      "ä¸ĢçŃĸ": 7645,
      "ä¸Ńæ¬§": 7646,
      "å®ŀè®Ń": 7647,
      "å±ķåİħ": 7648,
      "åģ·": 7649,
      "çł¥": 7650,
      "èī²åĪĹ": 7651,
      "èī²å½©": 7652,
      "å·²äºİ": 7653,
      "åĳ¼åĲģ": 7654,
      "æīĽèµ·": 7655,
      "éĥ¨åī¯": 7656,
      "çľģä»½": 7657,
      "å°Ĩä¼ļ": 7658,
      "å¤©åľ°": 7659,
      "çĲĥéĺŁ": 7660,
      "åİĭç´§": 7661,
      "900": 7662,
      "ä»¥åĨħ": 7663,
      "ä¿Ŀåį«": 7664,
      "è§£éļ¾": 7665,
      "éĴī": 7666,
      "ç®Ģæĺĵ": 7667,
      "è¯łéĩĬ": 7668,
      "æłĩçŃ¾": 7669,
      "ä½Ļä»½": 7670,
      "åı¤éķĩ": 7671,
      "æ²¿çĿĢ": 7672,
      "çīµå¼ķ": 7673,
      "å¿Ļç¢Į": 7674,
      "çĲĨèµĶ": 7675,
      "æĹ¥åĿĩ": 7676,
      "æĬ¥åĪ°": 7677,
      "æīĭä¸Ń": 7678,
      "æĴ°": 7679,
      "çł´äº§": 7680,
      "çĻ½éħĴ": 7681,
      "å·¡åĽŀ": 7682,
      "çĸıå¯¼": 7683,
      "åł¡åŀĴ": 7684,
      "æ¶Įçİ°": 7685,
      "å½ĵä¸Ń": 7686,
      "éĢīæ´¾": 7687,
      "çİĭæŁĲ": 7688,
      "112": 7689,
      "æľŁçļĦ": 7690,
      "åıĤæķ°": 7691,
      "åıĸè¯ģ": 7692,
      "ä¸¥å®Ī": 7693,
      "çªĦ": 7694,
      "ç¼ĸè¾ĳ": 7695,
      "å¥ĸéĩĳ": 7696,
      "140": 7697,
      "çĶ°åĽŃ": 7698,
      "åĩłå¤©": 7699,
      "æĪıåī§": 7700,
      "ä½Ĳ": 7701,
      "å¸Ĳ": 7702,
      "éĩįçĹĩ": 7703,
      "åĪĨçļĦ": 7704,
      "å°Ĩå¯¹": 7705,
      "æī§æĶ¿": 7706,
      "è¾ĥä½İ": 7707,
      "ç¢±": 7708,
      "äººä½ĵ": 7709,
      "æľīæľŁ": 7710,
      "åķĨéĵº": 7711,
      "å¤Ħå®¤": 7712,
      "åģļä¼ĺ": 7713,
      "èİĵ": 7714,
      "çªģçĦ¶": 7715,
      "çĮ®çŃĸ": 7716,
      "å¨ľ": 7717,
      "è½»æĿ¾": 7718,
      "æ°´ä½į": 7719,
      "å¤ĦçļĦ": 7720,
      "ä¹Łè®©": 7721,
      "è§Ĩè§Ĵ": 7722,
      "äºĴçĽ¸": 7723,
      "ä¼Ļé£Ł": 7724,
      "ãİ¡": 7725,
      "ä¸Ī": 7726,
      "èº«å¿ĥ": 7727,
      "éĵ¶å·Ŀ": 7728,
      "çº½å¸¦": 7729,
      "ç¡ķå£«": 7730,
      "åĮĸå±Ģ": 7731,
      "çªĿ": 7732,
      "åħ´ä¸ļ": 7733,
      "ä½Ļæ¬¡": 7734,
      "çĶ»åį·": 7735,
      "æµ©çī¹": 7736,
      "ä½°": 7737,
      "è¡ĮæĿĥ": 7738,
      "åıĳåĶ®": 7739,
      "åĮºåĿĹ": 7740,
      "æĿĳèĲ½": 7741,
      "æĪĳæĺ¯": 7742,
      "åĨįåĪ°": 7743,
      "æĮĤéĴ©": 7744,
      "æµĵåº¦": 7745,
      "æĤ¨çļĦ": 7746,
      "ä¸¢": 7747,
      "åŃľ": 7748,
      "ä¸ĬçıŃ": 7749,
      "åĪ¶è®¢": 7750,
      "ä¼łçľŁ": 7751,
      "ç²¾ç»Ĩ": 7752,
      "èĢĮä¸Ĭ": 7753,
      "åıłåĬł": 7754,
      "çŃĭ": 7755,
      "åħ¨éķ¿": 7756,
      "éĩĳçīĮ": 7757,
      "ä¹ĭä»¥": 7758,
      "è´ŁåĢº": 7759,
      "èī¯æĢ§": 7760,
      "åĴĮå¤§": 7761,
      "åĩ°": 7762,
      "106": 7763,
      "è¯¥åĮº": 7764,
      "çĮİ": 7765,
      "ä½Ĩåľ¨": 7766,
      "åħ°å·ŀ": 7767,
      "æŃ»è§Ĵ": 7768,
      "æļĹè®¿": 7769,
      "å°¹": 7770,
      "åľ°ä¸º": 7771,
      "éĢļé£İ": 7772,
      "æĢ»çĽĳ": 7773,
      "åĮ»åħ»": 7774,
      "æµģæĦŁ": 7775,
      "ä¿®å»º": 7776,
      "èį¯åºĹ": 7777,
      "åĽ¾çº¸": 7778,
      "éļıæĦı": 7779,
      "åĨ²åĪº": 7780,
      "è¶£åĳ³": 7781,
      "è¡°": 7782,
      "æľĪä¸Ń": 7783,
      "ä¸ĭä¹¡": 7784,
      "åķĨé¡»": 7785,
      "ç½ĳä¿¡": 7786,
      "ç«ŀæĬĢ": 7787,
      "æĴŃç§į": 7788,
      "æĭ¥åĨĽ": 7789,
      "Ġï¼ī": 7790,
      "ä»¥å¾Ģ": 7791,
      "çİ¯è¯Ħ": 7792,
      "éªı": 7793,
      "å¸¸å·ŀ": 7794,
      "æ¸ħåģ¿": 7795,
      "çĪ½": 7796,
      "äºīåĪĽ": 7797,
      "ä»ĵåºĵ": 7798,
      "GDP": 7799,
      "å·¢": 7800,
      "ä¸įä¾¿": 7801,
      "éĩįæ¸©": 7802,
      "å°ıäºĭ": 7803,
      "å¸¸å¹´": 7804,
      "æİĴéĻ¤": 7805,
      "é©¬ä¸Ĭ": 7806,
      "se": 7807,
      "ç»·": 7808,
      "ä¸»çº¿": 7809,
      "éĹ¨ç¥¨": 7810,
      "ä¹¦é¦Ļ": 7811,
      "åĪ¤å¤Ħ": 7812,
      "è¿Ķè´«": 7813,
      "Ġ2018": 7814,
      "åħĦ": 7815,
      "åħ±ç®¡": 7816,
      "å½ĵçĦ¶": 7817,
      "105": 7818,
      "åħ»çĶŁ": 7819,
      "ä¹īè¯Ĭ": 7820,
      "æ¼Ĥ": 7821,
      "ç£·": 7822,
      "çĥŁèįī": 7823,
      "ä¸įå¥½": 7824,
      "åĿİ": 7825,
      "èģĶè¿Ĳ": 7826,
      "çī¹åĮº": 7827,
      "æľĢå¥½": 7828,
      "è´Łæľī": 7829,
      "æ¸ħæī«": 7830,
      "ç§ŁæĪ¿": 7831,
      "å¤ªåİŁ": 7832,
      "æĬµè¾¾": 7833,
      "æº¯æºĲ": 7834,
      "ä¸įå½ĵ": 7835,
      "ä¸įåģľ": 7836,
      "çĿĽ": 7837,
      "ä¹¦çļĦ": 7838,
      "ä¼łè¾ĵ": 7839,
      "éľ¸": 7840,
      "çº¢åĨĽ": 7841,
      "æ³īå·ŀ": 7842,
      "è¾©ç§°": 7843,
      "æĳ©æīĺ": 7844,
      "æĺ¨å¤©": 7845,
      "ç»İ": 7846,
      "ä¸Ńåŀĭ": 7847,
      "å¸Ĥä¸Ń": 7848,
      "äº§åĩº": 7849,
      "çİ°ä»»": 7850,
      "ä¸ĩåĲį": 7851,
      "å¯¼å¸Ī": 7852,
      "åŃĲçļĦ": 7853,
      "å¤ĸäºĭ": 7854,
      "ç§įä¸ļ": 7855,
      "çľŁçļĦ": 7856,
      "å¾®åįļ": 7857,
      "ä¾µçĬ¯": 7858,
      "ä¸ĢæĹ¥": 7859,
      "åŃ¦çļĦ": 7860,
      "æıĲåĲį": 7861,
      "çĪ¬": 7862,
      "åıįå¼¹": 7863,
      "ç±³çļĦ": 7864,
      "æĿİæŁĲ": 7865,
      "ä»ªåĻ¨": 7866,
      "è¿Ľåĩº": 7867,
      "åĮĸå¸Ĥ": 7868,
      "éĢļåħ³": 7869,
      "éĽĩ": 7870,
      "æķĻå®¤": 7871,
      "ä¹¦ç±į": 7872,
      "åĪ©äºļ": 7873,
      "å¤ĸåįĸ": 7874,
      "æ¸ħéĻ¤": 7875,
      "è¶ħåĩº": 7876,
      ");": 7877,
      "å¤§éĻĨ": 7878,
      "æĹ¶è®¸": 7879,
      "è°£": 7880,
      "åħ¥ä½ı": 7881,
      "åĨľæŀĹ": 7882,
      "è¯ģåı·": 7883,
      "åįłæľī": 7884,
      "æŀ¶æŀĦ": 7885,
      "åĮĸèĤ¥": 7886,
      "çŃīä¸º": 7887,
      "æĪĺåľº": 7888,
      "æ¢Ń": 7889,
      "çĹħçļĦ": 7890,
      "æ¹ĺæ½Ń": 7891,
      "éĤ»éĩĮ": 7892,
      "220": 7893,
      "å®µ": 7894,
      "åħ¬å¯ĵ": 7895,
      "æľīæĦı": 7896,
      "æĪĲæ¸Ŀ": 7897,
      "å¯¹å¾ħ": 7898,
      "ä¿Ŀç®¡": 7899,
      "åĨľåķĨ": 7900,
      "éĢīåıĸ": 7901,
      "çº¦ä¸º": 7902,
      "åĩĮæĻ¨": 7903,
      "ä¸ŃéĹ´": 7904,
      "å¤§æ¥¼": 7905,
      "åľ°å¸¦": 7906,
      "åĲĪæĪĲ": 7907,
      "è®¾æľī": 7908,
      "åħļå¯¹": 7909,
      "è®®é¢ĺ": 7910,
      "åĮĹæĸ¹": 7911,
      "èĢģåĮĸ": 7912,
      "èĻļæĭŁ": 7913,
      "çļ®èĤ¤": 7914,
      "ä¿±ä¹Ĳ": 7915,
      "åºĶäºĪ": 7916,
      "éĢīåĿĢ": 7917,
      "èµ°å»Ĭ": 7918,
      "éĢĤå®ľ": 7919,
      "250": 7920,
      "ä½ľå®¶": 7921,
      "è¿ĽèĢĮ": 7922,
      "èĪªéģĵ": 7923,
      "æŃ¦èŃ¦": 7924,
      "éŃĶ": 7925,
      "æģ¶åĬ£": 7926,
      "çł¥çłº": 7927,
      "360": 7928,
      "è´©": 7929,
      "éķ¿æ²»": 7930,
      "ç¡®éľĢ": 7931,
      "å¤ĸæĿ¥": 7932,
      "101": 7933,
      "æł¸å®ļ": 7934,
      "çĬ¹": 7935,
      "ä»ĺåĩº": 7936,
      "è¾¹çķĮ": 7937,
      "éĻįæ¸©": 7938,
      "å®ĥçļĦ": 7939,
      "æĬĺä¸į": 7940,
      "åħļæ´¾": 7941,
      "çĤ¹çļĦ": 7942,
      "çĤ¹è¯Ħ": 7943,
      "æ£µ": 7944,
      "åİŁæľī": 7945,
      "å£³": 7946,
      "åĬ¿å¤´": 7947,
      "çĹħäºº": 7948,
      "ç©ºä¸Ń": 7949,
      "èıĬ": 7950,
      "åįĬå¯¼": 7951,
      "çŀĦ": 7952,
      "éĶļå®ļ": 7953,
      "al": 7954,
      "çĤ®": 7955,
      "ç§ĳåįı": 7956,
      "ç«ĭåį¡": 7957,
      "æķĪåĬĽ": 7958,
      "åı£èħĶ": 7959,
      "å½±çīĩ": 7960,
      "èĬ±åįī": 7961,
      "çĻ½äºĳ": 7962,
      "äºļè¿Ĳ": 7963,
      "æħ¨": 7964,
      "ä»ĬæĹ¥": 7965,
      "åŃĹç¬¬": 7966,
      "éĢĢç¨İ": 7967,
      "åħ¼é¡¾": 7968,
      "Ġï¼ļ": 7969,
      "å¼Ĭ": 7970,
      "éĢ¸": 7971,
      "å±ķæ¼Ķ": 7972,
      "èĩªå¼º": 7973,
      "ä¸ĵæ³¨": 7974,
      "è§ģçļĦ": 7975,
      "åį³ä½¿": 7976,
      "çĮªèĤī": 7977,
      "æĪĴæ¯Ĵ": 7978,
      "ä¾¦æŁ¥": 7979,
      ".ãĢĬ": 7980,
      "å¼ĢçıŃ": 7981,
      "åĩºåĶ®": 7982,
      "çĶ¨æĥħ": 7983,
      "èĩªè´¡": 7984,
      "åĮ»çĶ¨": 7985,
      "å¤ĸç§ĳ": 7986,
      "èµ·æŃ¥": 7987,
      "å¸ĪåĤħ": 7988,
      "åĬ³æ¨¡": 7989,
      "èĴĤ": 7990,
      "çĸĳä¼¼": 7991,
      "æ·¤": 7992,
      "åı¯è¾¾": 7993,
      "ä¿®æŃ£": 7994,
      "èį¯ä¸ļ": 7995,
      "å±ĬæĹ¶": 7996,
      "æį¢æĸ°": 7997,
      "æ½®æµģ": 7998,
      "å¤«å¦»": 7999,
      "çŀ¬": 8000,
      "çļĦç²¾": 8001,
      "åĮºå¸Ĥ": 8002,
      "ä¼ļè§ģ": 8003,
      "ç®¡åĪ¶": 8004,
      "å§¨": 8005,
      "çĶµè·¯": 8006,
      "åĲĳå¾Ģ": 8007,
      "æĢ»è¡¨": 8008,
      "æĢ»æķ°": 8009,
      "å°±åĥı": 8010,
      "æŃ¥è¡Į": 8011,
      "å®¹éĩı": 8012,
      "å®¢è½¦": 8013,
      "çªģåĩ»": 8014,
      "ä¾¿äºİ": 8015,
      "æŃĮæĽ²": 8016,
      "å®ıä¼Ł": 8017,
      "æ·Ħåįļ": 8018,
      "ä¸Ľ": 8019,
      "æŃĩ": 8020,
      "æĺ¯æĸ°": 8021,
      "åĬłçıŃ": 8022,
      "èĥ½åĲ¦": 8023,
      "éĤ¯": 8024,
      "æĴĴ": 8025,
      "éĶĢåı·": 8026,
      "å¯Įæ°ĳ": 8027,
      "åį°åº¦": 8028,
      "é¢ĳæ¬¡": 8029,
      "åī§éĻ¢": 8030,
      "èĪĨæĥħ": 8031,
      "æ±ķå¤´": 8032,
      "%;": 8033,
      "ä¸»ä¸ļ": 8034,
      "é¢ĦåĪ¶": 8035,
      "æĦŁåĬ¨": 8036,
      "åıĺçĽ¸": 8037,
      "åĪĹå¸Ń": 8038,
      "æĹ©æľŁ": 8039,
      "åĳ³éģĵ": 8040,
      "ç§ĭåŃ£": 8041,
      "å¥Ķèµ´": 8042,
      "äººè¯´": 8043,
      "èµĮ": 8044,
      "åľ¨çļĦ": 8045,
      "å¯¹åĲĦ": 8046,
      "ä¿Ŀç¨İ": 8047,
      "æĶ¶åī²": 8048,
      "å¹²åĬ²": 8049,
      "é¸¡èĽĭ": 8050,
      "æµıè§Ī": 8051,
      "æµ´": 8052,
      "åĪĽå§ĭ": 8053,
      "ä¹ĭå¤§": 8054,
      "è¯·äºİ": 8055,
      "åĸĬ": 8056,
      "ä¸¤é¡¹": 8057,
      "å¯Ĩå°ģ": 8058,
      "è¯¾åĲİ": 8059,
      "åĺ±æīĺ": 8060,
      "åµĮ": 8061,
      "çļĦéĿŀ": 8062,
      "åħ¬è¯ī": 8063,
      "æĹ¶èĬĤ": 8064,
      "å®īä¿Ŀ": 8065,
      "ä¸īæĿ¡": 8066,
      "ä¹¦åºĹ": 8067,
      "æµ·å²¸": 8068,
      "åĪĴå®ļ": 8069,
      "çľĭçľĭ": 8070,
      "å¥ĭæĪĺ": 8071,
      "ä¿Ń": 8072,
      "åĴĮåĲĦ": 8073,
      "ä¼ļæľī": 8074,
      "çŃīäºº": 8075,
      "è°ĥè¯ķ": 8076,
      "å¢ŀå¤ļ": 8077,
      "çķĶ": 8078,
      "çľĭæľĽ": 8079,
      "çĽ´è¾¾": 8080,
      "å¾Īéļ¾": 8081,
      "åĲ¯çĶ¨": 8082,
      "é¼ł": 8083,
      "æİĮå£°": 8084,
      "æĳ¸åºķ": 8085,
      "âĳ¡": 8086,
      "æĳĨæĶ¾": 8087,
      "åĪºæ¿Ģ": 8088,
      "210": 8089,
      "è´ŁéĿ¢": 8090,
      "ç«ĻçļĦ": 8091,
      "åĪĩåħ¥": 8092,
      "åĽºä½ĵ": 8093,
      "ä¹Ŀé¾Ļ": 8094,
      "è¡Ģåİĭ": 8095,
      "å»ĸ": 8096,
      "ä¸įçĶ¨": 8097,
      "åīįåĲİ": 8098,
      "å´ĸ": 8099,
      "æĬ½åıĸ": 8100,
      "æĭĴä¸į": 8101,
      "çĵ¶é¢Ī": 8102,
      "ºçī²": 8103,
      "è´°": 8104,
      "ä¸Ģä¸Ģ": 8105,
      "æĮļ": 8106,
      "äºĨå¸Ĥ": 8107,
      "çīºçī²": 8108,
      "çŃīçŃī": 8109,
      "æĹ¶èĩ³": 8110,
      "åħļç«ł": 8111,
      "åħ¶åľ¨": 8112,
      "æµ·å³¡": 8113,
      "åĽĽåŃ£": 8114,
      "æŃ£ä¹ī": 8115,
      "åħŃæĿ¡": 8116,
      "èħº": 8117,
      "èĶĵ": 8118,
      "åĿĲèĲ½": 8119,
      "åįĵè¶Ĭ": 8120,
      "çŀĦåĩĨ": 8121,
      "åĽ½ç½ĳ": 8122,
      "è¿ĩå¾Ģ": 8123,
      "åĲįè¯į": 8124,
      "åİŁæľ¬": 8125,
      "æŃ£æĸĩ": 8126,
      "çĻ¾äºĶ": 8127,
      "âĳł": 8128,
      "å¸¼": 8129,
      "åĴĮç¾İ": 8130,
      "åħ¥å¢ĥ": 8131,
      "å¢ŀå¹ħ": 8132,
      "å±±æ´ª": 8133,
      "èµ·åĪ°": 8134,
      "æ¼ıæ´ŀ": 8135,
      "åĲĬéĶĢ": 8136,
      "ä½ľåģĩ": 8137,
      "åĮºçŃī": 8138,
      "çĲĨå·¥": 8139,
      "äºĨä¹ł": 8140,
      "èįĶ": 8141,
      "éĤª": 8142,
      "éĢĲé¡¹": 8143,
      "è´µéĺ³": 8144,
      "æºªå¸Ĥ": 8145,
      "æĵ¦äº®": 8146,
      "å½Ŀ": 8147,
      "æĺ¯ä»¥": 8148,
      "é«ĺä½į": 8149,
      "æ°´åİ¿": 8150,
      "è¿ĩæĿ¥": 8151,
      "æīĢæĮģ": 8152,
      "çº¿çļĦ": 8153,
      "çĻ¾ä¸ĩ": 8154,
      "éĵ¶ä¿Ŀ": 8155,
      "è´´å¿ĥ": 8156,
      "éĺ¿å§¨": 8157,
      "è¾ħèŃ¦": 8158,
      "ãĢĤ\"": 8159,
      "ä¼ŀ": 8160,
      "åºŀ": 8161,
      "åŃ¦åŃĲ": 8162,
      "éĩĳéĴ±": 8163,
      "æĻĸ": 8164,
      "è½¬åıĳ": 8165,
      "ä¸¥æĬĬ": 8166,
      "æ¨±": 8167,
      "æ¶īåĨľ": 8168,
      "æĭ¥æĬ¤": 8169,
      "ä¸Ģå¤§": 8170,
      "ä¸Ńè·¯": 8171,
      "ä¸Ńä¹ĭ": 8172,
      "åľ¨è¯¥": 8173,
      "éĥ¨çļĦ": 8174,
      "åĬĽåĨĽ": 8175,
      "çĶµç¼Ĩ": 8176,
      "çłĶåĪ¶": 8177,
      "ç©Ĩ": 8178,
      "é£İçĶµ": 8179,
      "æ¸ħæŁ¥": 8180,
      "æĻ®éĻĢ": 8181,
      "å®¾é¦Ĩ": 8182,
      "èī¾æ»ĭ": 8183,
      "å·¾å¸¼": 8184,
      "æİĢèµ·": 8185,
      "å®Ļ": 8186,
      "ä¸Ģåıį": 8187,
      "å¤§åĽ½": 8188,
      "çĤ¹èµŀ": 8189,
      "åįĹå¸Ĥ": 8190,
      "çŃĶé¢ĺ": 8191,
      "æī£æĬ¼": 8192,
      "é¥®æĸĻ": 8193,
      "ä¸įæĺĵ": 8194,
      "åĪĨæĶ¯": 8195,
      "æ²³åİ¿": 8196,
      "ä¸¾è¯ģ": 8197,
      "åĬ¿åĬĽ": 8198,
      "èĩ´ä½¿": 8199,
      "éĻįè´¹": 8200,
      "éĽ¨æ°´": 8201,
      "åºŁæ°´": 8202,
      "æī«çłģ": 8203,
      "å¼ĦèĻļ": 8204,
      "ä»¥åŃ¦": 8205,
      "èĥĸ": 8206,
      "ç®¡è¾ĸ": 8207,
      "æĶ¶åĴĮ": 8208,
      "éĻĦè¡¨": 8209,
      "éĶħçĤī": 8210,
      "éĺĲè¿°": 8211,
      "ĠåĲ´": 8212,
      "æĿı": 8213,
      "å¤§äºİ": 8214,
      "å®ŀä¹ł": 8215,
      "é«ĺå±Ĥ": 8216,
      "åĪĨæµģ": 8217,
      "è¥¿çıŃ": 8218,
      "è½¬ä¸º": 8219,
      "éĤĳ": 8220,
      "ä¸´è¿ĳ": 8221,
      "è´§æ¬¾": 8222,
      "æ¿Ģåħī": 8223,
      "åį±æĪ¿": 8224,
      "è·ŁçĿĢ": 8225,
      "èİĨçĶ°": 8226,
      "Ġåĳ¨": 8227,
      "åħ¨å¤©": 8228,
      "å¤§è±Ĩ": 8229,
      "æľįä»İ": 8230,
      "åĲĳå¸Ĥ": 8231,
      "æĶ¾å°Ħ": 8232,
      "åĪĻæĺ¯": 8233,
      "æłĳæľ¨": 8234,
      "åģĩåĨĴ": 8235,
      "çĦ¦çĤ¹": 8236,
      "åı¦æľī": 8237,
      "åĸľçĪ±": 8238,
      "ä¸Ŀç»¸": 8239,
      "åĢ¾æĸľ": 8240,
      "ï¼ħãĢĤ": 8241,
      "ä¸Ģåĳ¨": 8242,
      "å¤§ä½¿": 8243,
      "å¯¹è¡¨": 8244,
      "ä¿Ŀåĩ½": 8245,
      "è¯¥å±Ģ": 8246,
      "æµĭç»ĺ": 8247,
      "çĻ½éĵ¶": 8248,
      "éģĹçķĻ": 8249,
      "çŁŃæľŁ": 8250,
      "IC": 8251,
      "åĵ¨": 8252,
      "å¾Ĺä»¥": 8253,
      "ä¹ĭç¾İ": 8254,
      "çĦļ": 8255,
      "çħ§æĺİ": 8256,
      "çİĩåĴĮ": 8257,
      "å½ķçĶ¨": 8258,
      "å±ĬåħŃ": 8259,
      "è´®": 8260,
      "çĲĨæĢ§": 8261,
      "åĲĮçº§": 8262,
      "æķ°æĻº": 8263,
      "103": 8264,
      "åĭ¾": 8265,
      "å®¢æµģ": 8266,
      "èĶļ": 8267,
      "éĺ¿éĩĮ": 8268,
      "ç§ģåĭŁ": 8269,
      "å±ıå¹ķ": 8270,
      "è¾£æ¤Ĵ": 8271,
      "è¤": 8272,
      "æĮ¤": 8273,
      "ä¸Ĭç¼´": 8274,
      "åħ¥åĽ´": 8275,
      "ç¾İåĮĸ": 8276,
      "125": 8277,
      "å®¤å¤ĸ": 8278,
      "å¥ĸé¡¹": 8279,
      "åģľæĶ¾": 8280,
      "æĭŁè®¢": 8281,
      "åĩ¤åĩ°": 8282,
      "åĢ¾åĲ¬": 8283,
      "çĦĬæİ¥": 8284,
      "âĢ¢": 8285,
      "ä¸Ģå¹ħ": 8286,
      "åħ¨çº¿": 8287,
      "åħ¨é¢Ŀ": 8288,
      "åĲĮæĹ¥": 8289,
      "æł¸å¯¹": 8290,
      "æĥ³è¦ģ": 8291,
      "æĻ¯è±¡": 8292,
      "å±ŀæĢ§": 8293,
      "çĭĤ": 8294,
      "å£«åħµ": 8295,
      "åľ¨å¤ĸ": 8296,
      "èĩªè±ª": 8297,
      "è¿ĻæĿ¡": 8298,
      "äºĴåĪ©": 8299,
      "ä¹ĿæĿ¡": 8300,
      "çģĮåĮº": 8301,
      "è¡¢": 8302,
      "äººçİĭ": 8303,
      "åĴĮåİ¿": 8304,
      "éĥ¸": 8305,
      "ä¸Ĭæ¼Ķ": 8306,
      "ä¿Ŀåħ»": 8307,
      "åĬłæ·±": 8308,
      "æĿ¥çĶµ": 8309,
      "åĵģç±»": 8310,
      "åİŁå§ĭ": 8311,
      "è¯´éģĵ": 8312,
      "åĿĩå·²": 8313,
      "è´´æģ¯": 8314,
      "çļĦä¸ī": 8315,
      "äººå¯¿": 8316,
      "åĴĮå¯¹": 8317,
      "ä¿Ŀå®ī": 8318,
      "åŁºè°ĥ": 8319,
      "çº§åıĬ": 8320,
      "è°ĥéħį": 8321,
      "æµģå¤±": 8322,
      "108": 8323,
      "åĽŃçļĦ": 8324,
      "æ²³åĮº": 8325,
      "æĺŁæľŁ": 8326,
      "ï¼ħï¼Į": 8327,
      "å»·": 8328,
      "å¤§é£İ": 8329,
      "è¦ģä»İ": 8330,
      "æĸ°å¹´": 8331,
      "ç¨½": 8332,
      "å¼ıçļĦ": 8333,
      "ä¸ĵåĳĺ": 8334,
      "ä¹ĭé£İ": 8335,
      "åĪĩèº«": 8336,
      "ç´§ç¼º": 8337,
      "æħĳ": 8338,
      "éĽ¨éĽª": 8339,
      "æĬĽ": 8340,
      "åľ°å¤Ħ": 8341,
      "æĿ¥è®¿": 8342,
      "èģĶæİ§": 8343,
      "æ·±æĮĸ": 8344,
      "ç¦¹": 8345,
      "æīĵç®Ĺ": 8346,
      "èĢģé¾Ħ": 8347,
      "æĭħå¿ĥ": 8348,
      "èĳ±": 8349,
      "å¾Īå¥½": 8350,
      "èıĩ": 8351,
      "è¾ĸå¸Ĥ": 8352,
      "ä»ĭåħ¥": 8353,
      "éĿłåīį": 8354,
      "LED": 8355,
      "çļĦç¾İ": 8356,
      "åĴĮåħļ": 8357,
      "è¦ģå°Ĩ": 8358,
      "ä¸Ĭå²Ĺ": 8359,
      "å¼ĢéĻ¤": 8360,
      "ä¸ĵå±ŀ": 8361,
      "å±±æĿĳ": 8362,
      "é£İæĥħ": 8363,
      "ç§¯æ°´": 8364,
      "åıĹæįŁ": 8365,
      "è¯¥éĻ¢": 8366,
      "TO": 8367,
      "éĢ¼": 8368,
      "ä¸įæķ¢": 8369,
      "çľł": 8370,
      "èĲ§": 8371,
      "éĶĢåķĨ": 8372,
      "æ»¨å¸Ĥ": 8373,
      "å®ĩå®Ļ": 8374,
      "æķıæĦŁ": 8375,
      "å»ĬåĿĬ": 8376,
      "èŁ¹": 8377,
      "æĺ¯çĶ±": 8378,
      "ï¼īãĢĬ": 8379,
      "ä¿ĿèįĲ": 8380,
      "æ¬¡æķ°": 8381,
      "å½ĵéĢī": 8382,
      "åĨ³èĥľ": 8383,
      "æľĢæĹ©": 8384,
      "ä¸¤ä¾§": 8385,
      "æīĺèĤ²": 8386,
      "é»Ħå±±": 8387,
      "åı¬éĽĨ": 8388,
      "æ¥¼å®ĩ": 8389,
      "é¡ºåºı": 8390,
      "éĺ¿å°Ķ": 8391,
      "åĺīåħ´": 8392,
      "éĴ¢ç®¡": 8393,
      "æ¶²åĮĸ": 8394,
      "çĶ¨æ°Ķ": 8395,
      "åŃ¦æ³ķ": 8396,
      "æĿ¥ä¸´": 8397,
      "å¤ļäºĨ": 8398,
      "åĪĽåŁİ": 8399,
      "å¹¶çĶ±": 8400,
      "ä¹ĭä¸ĭ": 8401,
      "åģļçļĦ": 8402,
      "æ¯ĶéĢī": 8403,
      "æĬĬåħ³": 8404,
      "è¯¥è¡Į": 8405,
      "éħįä»¶": 8406,
      "é¦ĸé¡µ": 8407,
      "ä¼¤äº¡": 8408,
      "çº¤ç»´": 8409,
      "Ġä¸ª": 8410,
      "å¸·": 8411,
      "åįľ": 8412,
      "æīŃ": 8413,
      "äº§åľ°": 8414,
      "èĬĴ": 8415,
      "åĬ©åŃ¦": 8416,
      "æŃ¤é¡¹": 8417,
      "éĺ³æĢ§": 8418,
      "ç©ºçĻ½": 8419,
      "çģ¾åĲİ": 8420,
      "çĶŁæł¹": 8421,
      "çľģçĽ´": 8422,
      "åķĬ": 8423,
      "å¯¼æ¼Ķ": 8424,
      "è·¯çģ¯": 8425,
      "æµ·åŁŁ": 8426,
      "éķĩçļĦ": 8427,
      "çĥŃæ½®": 8428,
      "å¯Įæľī": 8429,
      "æ¸©å·ŀ": 8430,
      "è¾ĵåĩº": 8431,
      "çĦ¦ä½ľ": 8432,
      "éģĹå¤±": 8433,
      "çĶ»éĿ¢": 8434,
      "èĸªéħ¬": 8435,
      "æ¬£èµı": 8436,
      "åı¹": 8437,
      "å¹´ç¬¬": 8438,
      "çŃīåĲĦ": 8439,
      "ç»ıä¿¡": 8440,
      "åı£å¸Ĥ": 8441,
      "æĪĺå½¹": 8442,
      "æĤĶ": 8443,
      "é¾ļ": 8444,
      "å±ĬäºĶ": 8445,
      "æī©æķ£": 8446,
      "è¿ĶåĽŀ": 8447,
      "é«ĺè¾¾": 8448,
      "ä¸ªåİ¿": 8449,
      "å¹³åĩ¡": 8450,
      "é¢ĺæĿĲ": 8451,
      "æŀĹåĮº": 8452,
      "è¿ŀäºĳ": 8453,
      "2005": 8454,
      "è·Łåħļ": 8455,
      "ç§īæĮģ": 8456,
      "ä¸ĭåĲĮ": 8457,
      "æĿĳæĿĳ": 8458,
      "éĩĩçº³": 8459,
      "å¤©åºľ": 8460,
      "å¸¸ä½ı": 8461,
      "Ġ18": 8462,
      "çĽĽå®´": 8463,
      "çıįæĥľ": 8464,
      "ç»įåħ´": 8465,
      "è°¨æħİ": 8466,
      ";(": 8467,
      "ĠåĪĨ": 8468,
      "åĴĮä¹ł": 8469,
      "çŃĴ": 8470,
      "åĲİå¤ĩ": 8471,
      "å¹¶ä¸º": 8472,
      "æĹłæķ°": 8473,
      "æ¶ĪæĿĢ": 8474,
      "æ¸¯åĮº": 8475,
      "åºĨå¸Ĥ": 8476,
      "é½ĲæĬĵ": 8477,
      "åįĸåĩº": 8478,
      "æ³¸å·ŀ": 8479,
      "Ġä¸İ": 8480,
      "äººæľī": 8481,
      "åŁĶ": 8482,
      "æĺ¯è¦ģ": 8483,
      "çĶ¨åĬĽ": 8484,
      "è¿ĩéĶĻ": 8485,
      "ä¸īåįģ": 8486,
      "åĲĳåīį": 8487,
      "æµ·äºĭ": 8488,
      "èĴ²": 8489,
      "çŁ¿äº§": 8490,
      "å¸ķ": 8491,
      "ä¸ŃçŃī": 8492,
      "åľ°æłĩ": 8493,
      "ç»ıæŁ¥": 8494,
      "æĸĩæľ¬": 8495,
      "æľºç»Ħ": 8496,
      "çĿ¿": 8497,
      "è§ĨåĲĮ": 8498,
      "è§Ĥæµĭ": 8499,
      "äºĳæµ®": 8500,
      "å®¿è¿ģ": 8501,
      "æĿĤå¿Ĺ": 8502,
      "çİ©åħ·": 8503,
      "è¿Łå»¶": 8504,
      "æ°¢èĥ½": 8505,
      "èģĬå¤©": 8506,
      "æ®¡èĳ¬": 8507,
      "ç»½": 8508,
      "äººå¼ł": 8509,
      "å¸Ĥå±ŀ": 8510,
      "åĪĽåĬŀ": 8511,
      "ç©Ĺ": 8512,
      "åŀĦ": 8513,
      "å¤ĩåıĹ": 8514,
      "éħ¿": 8515,
      "çĥĺ": 8516,
      "æŁ¯": 8517,
      "èĢĮåľ¨": 8518,
      "éģµä¹ī": 8519,
      "äºıæįŁ": 8520,
      "ä¸Ńå¤ĸ": 8521,
      "æĮª": 8522,
      "å¼Ģä¸ļ": 8523,
      "åĩºæµ·": 8524,
      "åħ¥æīĭ": 8525,
      "çĸ²": 8526,
      "åķĨåºĶ": 8527,
      "å®¡å®ļ": 8528,
      "ç¼Ķ": 8529,
      "èģĮä½į": 8530,
      "æ²³éķ¿": 8531,
      "éĥ½åĮº": 8532,
      "å¤´èĦĳ": 8533,
      "ä»ĺè´¹": 8534,
      "çº³ç±³": 8535,
      "ä½İç©º": 8536,
      "é¡ºçķħ": 8537,
      "è£ģéĩı": 8538,
      "Ġå°ı": 8539,
      "è¡Įç¨ĭ": 8540,
      "ç«Ń": 8541,
      "æ´¼": 8542,
      "æĥķ": 8543,
      "åŁºå»º": 8544,
      "çĽĳå±Ģ": 8545,
      "æģĭ": 8546,
      "æŃ£è§Ħ": 8547,
      "æĹłçº¿": 8548,
      "æĦŁæĥħ": 8549,
      "ç¨³å¦¥": 8550,
      "è¾ĵéĢģ": 8551,
      "é²ģæľ¨": 8552,
      "èļĢ": 8553,
      "çĢ": 8554,
      "ä¸Ģè¾Ĩ": 8555,
      "è¿Ľé©»": 8556,
      "ä¼ĺæĬļ": 8557,
      "åıĹè®©": 8558,
      "è¯·ç¤º": 8559,
      "çľĭçĿĢ": 8560,
      "çķĻä¸ĭ": 8561,
      "ç¿°": 8562,
      "å´Ľ": 8563,
      "æ³°åĽ½": 8564,
      "åĨ»ç»ĵ": 8565,
      "ç¢°æĴŀ": 8566,
      "åħ¨åħļ": 8567,
      "ä»¥ä¸º": 8568,
      "è½¿": 8569,
      "ä¸İåħ¶": 8570,
      "æĥ³è±¡": 8571,
      "ç»ĻäºĨ": 8572,
      "èŃ¦æĥķ": 8573,
      "è¯Ŀé¢ĺ": 8574,
      "å¨Ħ": 8575,
      "èķ¾": 8576,
      "éĶ»éĢł": 8577,
      "ĠåįĹ": 8578,
      "åħ¹": 8579,
      "ä¼ļåĲİ": 8580,
      "æĿ¥ä¿¡": 8581,
      "æĬ¥åºŁ": 8582,
      "ç±½": 8583,
      "æĹłéĻĲ": 8584,
      "æĪ¿åŃĲ": 8585,
      "åıĪæľī": 8586,
      "èĵĿèī²": 8587,
      "ç¥Ŀè´º": 8588,
      "æīĩ": 8589,
      "åıĳå°Ħ": 8590,
      "å¤§çĹħ": 8591,
      "éĿĵ": 8592,
      "æĹ¶åħī": 8593,
      "ä¸İæľ¬": 8594,
      "æĥħæĻ¯": 8595,
      "ä¸ĩéĩĮ": 8596,
      "éĻ¢çļĦ": 8597,
      "éķĩæĿĳ": 8598,
      "æĪĺèĥľ": 8599,
      "æĻºåºĵ": 8600,
      "ä¹ĲåĽŃ": 8601,
      "éĻĪåĪĹ": 8602,
      "èģĺä»»": 8603,
      "ç£ħ": 8604,
      "åı®åĺ±": 8605,
      "Ġå¦Ĥ": 8606,
      "æī®": 8607,
      "å®ļé¢Ŀ": 8608,
      "åĬłåĢį": 8609,
      "ç¤¾å·¥": 8610,
      "æĺİå¤©": 8611,
      "éĺ²èħĲ": 8612,
      "åŁİä¸Ń": 8613,
      "æī§çºª": 8614,
      "æĭĽå¼ķ": 8615,
      "å¿«æį·": 8616,
      "æĦŁæģ©": 8617,
      "æĻºåĬĽ": 8618,
      "èĮħåı°": 8619,
      "æĸ°æĿĳ": 8620,
      "ï¼ļãĢĬ": 8621,
      "æłĩè¯Ń": 8622,
      "è¿Ļä»½": 8623,
      "å¸¸è¯Ĩ": 8624,
      "çĹķ": 8625,
      "åıĺä¸º": 8626,
      "æĬ¢æķĳ": 8627,
      "å½Ĵè¿ĺ": 8628,
      "ÃĹÃĹÃĹ": 8629,
      "éĵ¸éŃĤ": 8630,
      "åħĦå¼Ł": 8631,
      "å´Ľèµ·": 8632,
      "Ġä½ł": 8633,
      "åıģ": 8634,
      "å¤§å°ı": 8635,
      "ä¼ļåıĬ": 8636,
      "çī¡": 8637,
      "åľ°å¤´": 8638,
      "æıĲæ¡£": 8639,
      "æĪĳåľ¨": 8640,
      "éĹ®åĢĻ": 8641,
      "åı£å¾Ħ": 8642,
      "å·²è¢«": 8643,
      "æķħæĦı": 8644,
      "çģ¾æĥħ": 8645,
      "æ¶īå¤ĸ": 8646,
      "å³ª": 8647,
      "çĽĹçªĥ": 8648,
      "çĦļçĥ§": 8649,
      "st": 8650,
      "å¤§æĪ·": 8651,
      "åĪ°è´¦": 8652,
      "èģĶéĤ¦": 8653,
      "åĪ©æ°ĳ": 8654,
      "å±±è·¯": 8655,
      "åįıåĬĽ": 8656,
      "ä¹¡è´¤": 8657,
      "è¿ŀéĶģ": 8658,
      "ĊĠ": 8659,
      "ä¼ļåī¯": 8660,
      "ç»ĦçļĦ": 8661,
      "ç»ĦåĽ¢": 8662,
      "åķ¦": 8663,
      "å°±åľ°": 8664,
      "æŃ£åĢ¼": 8665,
      "åĮĹæĸĹ": 8666,
      "çĮ´": 8667,
      "åºķæķ°": 8668,
      "åºĬä½į": 8669,
      "æ»ļåĬ¨": 8670,
      "è¯ŀçĶŁ": 8671,
      "Ġè¯·": 8672,
      "å®ļåĬĽ": 8673,
      "äºĭæĥħ": 8674,
      "ç¤¾åıĳ": 8675,
      "æĶ¶åĽŀ": 8676,
      "ç»Łé¢Ĩ": 8677,
      "ç¥ģ": 8678,
      "æĢ»æĺ¯": 8679,
      "å»¶å®ī": 8680,
      "å¸·å¹ķ": 8681,
      "çĶŁæĦı": 8682,
      "èĩĤ": 8683,
      "å¥½äºĨ": 8684,
      "æľŁçĽ¼": 8685,
      "æĪĺå£«": 8686,
      "ä¹°åħ¥": 8687,
      "ç»ĺçĶ»": 8688,
      "æĢİæł·": 8689,
      "IT": 8690,
      "éķ¿å¾ģ": 8691,
      "å±ĢåĴĮ": 8692,
      "åĲįåŃĹ": 8693,
      "èģĮå®Ī": 8694,
      "ç½®æį¢": 8695,
      "æĬĵèİ·": 8696,
      "ç»ĨåĪĨ": 8697,
      "æł·åĵģ": 8698,
      "å·Ŀåİ¿": 8699,
      "éĤ¯éĥ¸": 8700,
      "Ġ-": 8701,
      "æĸ°é²ľ": 8702,
      "å¹³åİŁ": 8703,
      "æĬ¥éħ¬": 8704,
      "èİ¹": 8705,
      "æĺĵåľ°": 8706,
      "è¶³å¤Ł": 8707,
      "æ¿ĢçĥĪ": 8708,
      "åĭŁæĬķ": 8709,
      "å½Ĵå±ŀ": 8710,
      "åħ¼èģĮ": 8711,
      "çļĦåıĮ": 8712,
      "ä¸įæĺİ": 8713,
      "æłĩæľ¬": 8714,
      "åĲĮèĥŀ": 8715,
      "æ±ĤåĬ©": 8716,
      "104": 8717,
      "ä¾Ŀèµĸ": 8718,
      "åħīè¾ī": 8719,
      "èĩ´ä»¥": 8720,
      "ç¿ģ": 8721,
      "çĪĨçĤ¸": 8722,
      "Ġäºº": 8723,
      "äººæĿİ": 8724,
      "ä¸ĢæıĲ": 8725,
      "æ°¨": 8726,
      "æĸ°é«ĺ": 8727,
      "ä¸įè´Ł": 8728,
      "åĲĦéķĩ": 8729,
      "åıĤè®Ń": 8730,
      "çģ¶": 8731,
      "æ¶ĪèĢĹ": 8732,
      "è¯¥é¡¹": 8733,
      "åºĹéĵº": 8734,
      "ä»ħæĺ¯": 8735,
      "æī©å®¹": 8736,
      "æĢĴ": 8737,
      "æĶ¿ä¼ģ": 8738,
      "å¤ļåľ°": 8739,
      "æĬĢå¸Ī": 8740,
      "æĦıå¿Ĺ": 8741,
      "èĲ½åĲİ": 8742,
      "éħ·": 8743,
      "çĶ³è¾©": 8744,
      "è§ĤçļĦ": 8745,
      "çĻ¾æĹ¥": 8746,
      "è¾¹ç¼ĺ": 8747,
      "è¿ľç¦»": 8748,
      "æĭŁå®ļ": 8749,
      "å·®é¢Ŀ": 8750,
      "æĹ§åĿĢ": 8751,
      "km": 8752,
      "åĲĮç±»": 8753,
      "æľŁæľĽ": 8754,
      "è¶Ł": 8755,
      "ä¼łæĦŁ": 8756,
      "æµ·æĬ¥": 8757,
      "æİ¥çĿĢ": 8758,
      "æĿĥåĴĮ": 8759,
      "éĻ©æĥħ": 8760,
      "æĥ³æ³ķ": 8761,
      "çĻ¾åĽĽ": 8762,
      "å¤±èĥ½": 8763,
      "çģ«çĥŃ": 8764,
      "230": 8765,
      "PM": 8766,
      "è´ª": 8767,
      "æĬĦ": 8768,
      "éĢĽ": 8769,
      "äº¤ä¼ļ": 8770,
      "èĲ¥æĶ¶": 8771,
      "æµ·åĨĽ": 8772,
      "åĽĽæĿ¡": 8773,
      "æİ¥ç»Ń": 8774,
      "ç¦Ģ": 8775,
      "æ¸ħè¿ľ": 8776,
      "è´´è¿ĳ": 8777,
      "åºŁæ°Ķ": 8778,
      "ç¼©å½±": 8779,
      "è¡£æľį": 8780,
      "åĬĿå¯¼": 8781,
      "ä¸Ńå»º": 8782,
      "åħ³æĿĳ": 8783,
      "ç¤¾åĽ¢": 8784,
      "æĢ§å¼º": 8785,
      "æĶ¶ç¼´": 8786,
      "åģļèµ·": 8787,
      "èĬĤå¥ı": 8788,
      "åħ«æĿ¡": 8789,
      "é²ľæ´»": 8790,
      "ä»įæľī": 8791,
      "äººæ°Ķ": 8792,
      "çĶŁæĹ¥": 8793,
      "ä¸įç®¡": 8794,
      "ä»¥å¤ĸ": 8795,
      "ï¼īâĢĿ": 8796,
      "éĿ¢åīį": 8797,
      "åįķé¡¹": 8798,
      "çĸ¼": 8799,
      "ä¾Ľæļĸ": 8800,
      "åįģä¸ĥ": 8801,
      "ä¹¡åľŁ": 8802,
      "æ¸ħæ°´": 8803,
      "è§Ĥèµı": 8804,
      "åĤ²": 8805,
      "èħĬ": 8806,
      "åĺīå®ļ": 8807,
      "éĶģå®ļ": 8808,
      "......": 8809,
      "2030": 8810,
      "çİ°å°±": 8811,
      "ç¡«": 8812,
      "å¤ļä½į": 8813,
      "åĲįä¸ĭ": 8814,
      "ä¹ĭéĥ½": 8815,
      "æ£Ģä¿®": 8816,
      "åĬ©ä¼ģ": 8817,
      "åĿĩä»·": 8818,
      "åĺİ": 8819,
      "éī´äºİ": 8820,
      "æĢĢæŁĶ": 8821,
      "æ¬łèĸª": 8822,
      "èµļ": 8823,
      "å¹´æĺ¯": 8824,
      "è¿Ľåľº": 8825,
      "ä¸»èĲ¥": 8826,
      "åĨħåľ°": 8827,
      "èĤ²ç§į": 8828,
      "åĨ³æĪĺ": 8829,
      "æīĢè¿°": 8830,
      "æĸŃéĿ¢": 8831,
      "çº·åĳĪ": 8832,
      "åİļæ¤į": 8833,
      "èµĶä»ĺ": 8834,
      "ç¡¬åĮĸ": 8835,
      "ĠB": 8836,
      "Ġèµµ": 8837,
      "çļĦæ·±": 8838,
      "åį§": 8839,
      "è¿ĩåº¦": 8840,
      "è¿ĩæ¸¡": 8841,
      "æĬ¥æī¹": 8842,
      "æĶ¶å®ĺ": 8843,
      "éĽĨå¸Ĥ": 8844,
      "è¢ĸ": 8845,
      "åĽ¢ä¼Ļ": 8846,
      "2002": 8847,
      "]ãĢģ": 8848,
      "å¹´éĩĳ": 8849,
      "ä½ĵçļĦ": 8850,
      "å±Ģå¯¹": 8851,
      "è´¹åĴĮ": 8852,
      "äºĮæ¥¼": 8853,
      "çī©ä»·": 8854,
      "æµ·æĭĶ": 8855,
      "åģļç»Ĩ": 8856,
      "åĢŁè´·": 8857,
      "åĥļ": 8858,
      "çĳ°": 8859,
      "çıįè´µ": 8860,
      "AèĤ¡": 8861,
      "å¤·": 8862,
      "æĪĲçļĦ": 8863,
      "ç®¡åħļ": 8864,
      "æľ¬æģ¯": 8865,
      "æ°´è·¯": 8866,
      "éĵĥ": 8867,
      "å¾Ĺä½ı": 8868,
      "åįĹåĮĹ": 8869,
      "æµģæ°´": 8870,
      "èĤ¡ä»·": 8871,
      "çıŃçº§": 8872,
      "ç½ªçĬ¯": 8873,
      "é¡¶å±Ĥ": 8874,
      "æĺ¨æĹ¥": 8875,
      "è¡Įè´¿": 8876,
      "æĢ¡": 8877,
      "éĹ«": 8878,
      "å¯¹åľ¨": 8879,
      "ä¸»æĴŃ": 8880,
      "åĲĮçŃī": 8881,
      "äºĶæĿ¡": 8882,
      "ä¿ĥéĶĢ": 8883,
      "åºķèī²": 8884,
      "ç«ŀå¾Ĺ": 8885,
      "æ²¹æ°Ķ": 8886,
      "æĬĹåĩ»": 8887,
      "æ¾İ": 8888,
      "\",": 8889,
      "æ³¾": 8890,
      "èĲĿ": 8891,
      "ä¸īæľŁ": 8892,
      "æ¡¥éķĩ": 8893,
      "æĹ©ä¸Ĭ": 8894,
      "è¿½è´£": 8895,
      "çŀĴ": 8896,
      "æ¯Ľæ³½": 8897,
      "åı¥è¯Ŀ": 8898,
      "è¥Ħéĺ³": 8899,
      "TC": 8900,
      "ä¸Ńä¿¡": 8901,
      "åľ¨é«ĺ": 8902,
      "2035": 8903,
      "å¹³åİ¿": 8904,
      "åıĹè®¿": 8905,
      "æĭħè´Ł": 8906,
      "è¿°èģĮ": 8907,
      "èĪªè¿Ĳ": 8908,
      "çĩĥæĶ¾": 8909,
      "NA": 8910,
      "ĠæĢ»": 8911,
      "æĹ¶ç©º": 8912,
      "å¹³åĮº": 8913,
      "åħ±åĪĽ": 8914,
      "å¤ļåıĳ": 8915,
      "èģĶèµĽ": 8916,
      "æīĢçļĦ": 8917,
      "æŃ£é£İ": 8918,
      "æľĢä¸º": 8919,
      "çł´æįŁ": 8920,
      "æī©å±ķ": 8921,
      "åħ¸èĮĥ": 8922,
      "ç¦Ģèµĭ": 8923,
      "æĪĪ": 8924,
      "äººéĻĪ": 8925,
      "ä¸Ńé«ĺ": 8926,
      "åľ¨å²Ĺ": 8927,
      "å¼Ģå¥½": 8928,
      "åħ±çĶŁ": 8929,
      "åı¯ä¾Ľ": 8930,
      "æķ°åŃ¦": 8931,
      "åİŁçĲĨ": 8932,
      "éĵ¾çļĦ": 8933,
      "æĹ¢å¾Ģ": 8934,
      "éĹŃå¹ķ": 8935,
      "çŀ¬éĹ´": 8936,
      "xx": 8937,
      "Ġä¸Ĭ": 8938,
      "æĬ¹": 8939,
      "ä¿Ŀè´¨": 8940,
      "äºĭåıĳ": 8941,
      "æľįé¥°": 8942,
      "ãĢĭï¼ī": 8943,
      "æĮĩä»¤": 8944,
      "æ£Ģè§Ĩ": 8945,
      "å¤ĸåķĨ": 8946,
      "é£İå°ļ": 8947,
      "è¥¿äºļ": 8948,
      "æł¡ä¼ģ": 8949,
      "çĿĢæīĭ": 8950,
      "113": 8951,
      "äºīåģļ": 8952,
      "å¤®è§Ĩ": 8953,
      "åį³æĹ¶": 8954,
      "æĭįçħ§": 8955,
      "èĤ©è´Ł": 8956,
      "æĴ°åĨĻ": 8957,
      "ãĢĩ": 8958,
      "å±¡": 8959,
      "ä¸Ģäºĭ": 8960,
      "éĥĿ": 8961,
      "äºĨå¤§": 8962,
      "å¯¹çŃĸ": 8963,
      "èĩªçŃ¹": 8964,
      "æĶ¯éħį": 8965,
      "åı¯æİ§": 8966,
      "å¤ĸæ±ĩ": 8967,
      "107": 8968,
      "è¾¾å³°": 8969,
      "çĽ´èĩ³": 8970,
      "æĳĶ": 8971,
      "å®ĪæŃ£": 8972,
      "å¾Īæľī": 8973,
      "èĭ±è¯Ń": 8974,
      "æŃĮèĪŀ": 8975,
      "ä¹Įåħ°": 8976,
      "è¯¯å·¥": 8977,
      "éĶ¤çĤ¼": 8978,
      "äººå°Ĩ": 8979,
      "ä¼ļå¯¹": 8980,
      "å¢ħ": 8981,
      "ç¾İå¾·": 8982,
      "æ¹ĥ": 8983,
      "å¸¦è´§": 8984,
      "éħįæĸ¹": 8985,
      "åĿĩåı¯": 8986,
      "çķĻåŃ¦": 8987,
      "çķĻè¨Ģ": 8988,
      "åºĦæĿĳ": 8989,
      "ä»įåľ¨": 8990,
      "ä½³èĬĤ": 8991,
      "èĳĹä½ľ": 8992,
      "æ¨ªåĲĳ": 8993,
      "ï¹": 8994,
      "ä¸Ńç¾İ": 8995,
      "æĮ½": 8996,
      "äºĨåħ¨": 8997,
      "æĭ¦": 8998,
      "è½°": 8999,
      "ç¬ĥ": 9000,
      "æ·ĳ": 9001,
      "æĺİæĺŁ": 9002,
      "åĨľæĬĢ": 9003,
      "æīĢç§°": 9004,
      "è¥¿åĮº": 9005,
      "è¶³è¿¹": 9006,
      "ä¿®åħ»": 9007,
      "åħīçĶµ": 9008,
      "åĪĿçº§": 9009,
      "2003": 9010,
      "2004": 9011,
      "å´Ń": 9012,
      "èĮĤåĲį": 9013,
      "æĺĤæī¬": 9014,
      "æ¸ĹéĢı": 9015,
      "çī¡ä¸¹": 9016,
      "å¹½": 9017,
      "åĮºéĹ´": 9018,
      "ä»¥ä¾¿": 9019,
      "äº¤è°Ī": 9020,
      "åĢ©": 9021,
      "å¤ĸåĮħ": 9022,
      "ç¦¾": 9023,
      "åĬ©é¤Ĳ": 9024,
      "éĺŁéķ¿": 9025,
      "è¯Ĺè¯į": 9026,
      "åłµå¡ŀ": 9027,
      "å¦»åŃĲ": 9028,
      "æĭĺçķĻ": 9029,
      "CP": 9030,
      "æĶ¿åħļ": 9031,
      "äº§æķĻ": 9032,
      "æĪĲåĪĨ": 9033,
      "åĳĺåĴĮ": 9034,
      "åºĶå±Ĭ": 9035,
      "ä¿¡æīĺ": 9036,
      "ç»Ħå¯¹": 9037,
      "è´¨è¯ģ": 9038,
      "æĽ´è¦ģ": 9039,
      "æ»¤": 9040,
      "æ¸¸çİ©": 9041,
      "å£¶": 9042,
      "å®ĺåĥļ": 9043,
      "è¸©": 9044,
      "éĵľéĻµ": 9045,
      "èµłéĢģ": 9046,
      "æ°®": 9047,
      "ä¸ŃåįĪ": 9048,
      "æ°ĳèĪª": 9049,
      "ä¿Ŀåħ¨": 9050,
      "æ°´è¿Ĳ": 9051,
      "åĵģçļĦ": 9052,
      "å°Ĩæľī": 9053,
      "åĽĽå¹³": 9054,
      "æīĵä¸ĭ": 9055,
      "å¹²éģĵ": 9056,
      "ä¸¤å®¶": 9057,
      "æīĭæĬĵ": 9058,
      "çĽ´åĪ°": 9059,
      "é¦ĸå®¶": 9060,
      "Ġ23": 9061,
      "240": 9062,
      "åİĤå®¶": 9063,
      "Ġè¡¨": 9064,
      "ä¸ŃæĿ¥": 9065,
      "åľ¨çľģ": 9066,
      "ä¸įéĢĢ": 9067,
      "è¡¨æĢģ": 9068,
      "è·¯åŃĲ": 9069,
      "éĶĪ": 9070,
      "æ¯Ķå¯¹": 9071,
      "è¯Ħçº§": 9072,
      "åĮħä¿Ŀ": 9073,
      "åİĨç»ı": 9074,
      "åı¤ä»£": 9075,
      "é½¿": 9076,
      "çľ¼çĿĽ": 9077,
      "æĭ¥åłµ": 9078,
      "é¢ľèī²": 9079,
      "çĨĬçĮ«": 9080,
      "æ»¥çĶ¨": 9081,
      "ç§§": 9082,
      "å»ºåĬŁ": 9083,
      "ä¸įæ¸ħ": 9084,
      "éģ®": 9085,
      "éĹ´æİ¥": 9086,
      "çĶµåĻ¨": 9087,
      "æľĢåħ·": 9088,
      "å¹²çº¿": 9089,
      "è¯´æ³ķ": 9090,
      "åıĮåĩı": 9091,
      "æİ¢æµĭ": 9092,
      "è½»å¾®": 9093,
      "æ¯ķèĬĤ": 9094,
      "æĴ¤åĽŀ": 9095,
      "è¿Ńä»£": 9096,
      "çº¬": 9097,
      "å±ķæĿ¿": 9098,
      "éĩįå¡ĳ": 9099,
      "åİ¿çļĦ": 9100,
      "çİ¯çĲĥ": 9101,
      "éĵ²": 9102,
      "æķ´é½Ĳ": 9103,
      "ä¹ĭä¹¡": 9104,
      "ç²¾æ·±": 9105,
      "åĸ»": 9106,
      "æİĴéĺŁ": 9107,
      "åĳ¨å¯Ĩ": 9108,
      "é½Ĳå¿ĥ": 9109,
      "çĸĳéļ¾": 9110,
      "çĽĽä¼ļ": 9111,
      "éĺ»åĩ»": 9112,
      "åĸĢä»Ģ": 9113,
      "ç»½æĶ¾": 9114,
      "åĲ¾": 9115,
      "ç»¥": 9116,
      "ä¸ĢæĪ·": 9117,
      "é¢Ĥ": 9118,
      "äº§éĶĢ": 9119,
      "çĤ¬": 9120,
      "å§ĶåĬŀ": 9121,
      "é¢Ħå¤ĩ": 9122,
      "å±±çļĦ": 9123,
      "æĹłå®³": 9124,
      "è½¬åħ¥": 9125,
      "æ²³å¸Ĥ": 9126,
      "éĿŀåħ¬": 9127,
      "å®Īä¿¡": 9128,
      "ç®Ģä»ĭ": 9129,
      "ĠĊĠĊ": 9130,
      "éĢĲå¹´": 9131,
      "æĳĦåĥı": 9132,
      "ä¸įåºĶ": 9133,
      "åĩºç¤º": 9134,
      "åħĥå®µ": 9135,
      "æº¶": 9136,
      "ç½ĳèģĶ": 9137,
      "è¯Ħå§Ķ": 9138,
      "æ¶ĪåĮĸ": 9139,
      "ä¸¤äºº": 9140,
      "çŃ¾ç«ł": 9141,
      "åĿĲåľ¨": 9142,
      "ç¥¥åĴĮ": 9143,
      "ç¿»è¯ĳ": 9144,
      "éĻªä¼´": 9145,
      "æ©ĺ": 9146,
      "ä¸ĢæĿĳ": 9147,
      "åĴ¬": 9148,
      "æķ·": 9149,
      "ä¸ºçĶ±": 9150,
      "å±ķéĶĢ": 9151,
      "ä¸įä¸Ģ": 9152,
      "åī¥": 9153,
      "å°ıè¯´": 9154,
      "æĭĽçīĮ": 9155,
      "æĦŁæħ¨": 9156,
      "ä¹Ĳè¶£": 9157,
      "åī§åľº": 9158,
      "éĺĲéĩĬ": 9159,
      "å·¥åºı": 9160,
      "å»ºåĨĽ": 9161,
      "æŃ§": 9162,
      "å®īå®ģ": 9163,
      "ä»£è°¢": 9164,
      "éķĩéķ¿": 9165,
      "è½¬åĲĳ": 9166,
      "çĻ¾è®¡": 9167,
      "ç¨³åģ¥": 9168,
      "åłª": 9169,
      "ç²īä¸Ŀ": 9170,
      "ĠçļĦ": 9171,
      "ä¸ĢåłĤ": 9172,
      "å¸Ĥå¤§": 9173,
      "èĩ£": 9174,
      "æĹ¥çħ§": 9175,
      "åĬłæĭ¿": 9176,
      "åĪĨéĺŁ": 9177,
      "äº¤ç®¡": 9178,
      "å°ıå¹³": 9179,
      "å¹¶ä»¥": 9180,
      "å¹¶å¤Ħ": 9181,
      "æķ°åįģ": 9182,
      "ä¸¤å¤©": 9183,
      "åįĥæĸ¹": 9184,
      "åħ¸å½ĵ": 9185,
      "èĹ¤": 9186,
      "çĪĨåıĳ": 9187,
      "7000": 9188,
      "æ°´ç³»": 9189,
      "æĶ¶çľĭ": 9190,
      "æĦıæĢĿ": 9191,
      "åıĸæ°´": 9192,
      "éĢīæ°ĳ": 9193,
      "å¼łæŁĲ": 9194,
      "åıĮåŁİ": 9195,
      "åįĥäº¿": 9196,
      "é¢ĳéģĵ": 9197,
      "Ġåī¯": 9198,
      "äºĭä¸Ń": 9199,
      "æľ¬èī²": 9200,
      "æĪĳå°±": 9201,
      "ä¹īåĭĩ": 9202,
      "åĳ¨è½¬": 9203,
      "å¤±è´¥": 9204,
      "æĸ¯å¸Ĥ": 9205,
      "ä½łçļĦ": 9206,
      "å²ģæľĪ": 9207,
      "åĪĳæ³ķ": 9208,
      "èĦĤèĤ": 9209,
      "ä¸Ģåº¦": 9210,
      "åĲĪåĶ±": 9211,
      "æľºçŃī": 9212,
      "æĮģä¹ħ": 9213,
      "è¿Ļçīĩ": 9214,
      "å°±è¯»": 9215,
      "æ²³éķĩ": 9216,
      "å®¤çļĦ": 9217,
      "åıĮç¢³": 9218,
      "åĪĿæľŁ": 9219,
      "åĲ«æľī": 9220,
      "éļĲç§ģ": 9221,
      "çīĪæľ¬": 9222,
      "æ¾İæ¹ĥ": 9223,
      "èĦĤèĤª": 9224,
      "ro": 9225,
      "å°§": 9226,
      "åĩºæĸ°": 9227,
      "å¯¹æīĭ": 9228,
      "åĬłä»¥": 9229,
      "æĪĳå·ŀ": 9230,
      "å¤ļæķ°": 9231,
      "çŁ¥æĥħ": 9232,
      "çħ§æĸĻ": 9233,
      "èº«ä¸Ĭ": 9234,
      "çľĭçĹħ": 9235,
      "èĦĨ": 9236,
      "å¯Įæ±Ĺ": 9237,
      "éĻµåĮº": 9238,
      "è¿«åĪĩ": 9239,
      "å¸ĤæĢ»": 9240,
      "å¯¹ä¸į": 9241,
      "æ°ĳæĥħ": 9242,
      "ç»ĩå¯Ĩ": 9243,
      "çħ§æĬ¤": 9244,
      "æŃ¤æĹ¶": 9245,
      "115": 9246,
      "æĬĵç»Ĩ": 9247,
      "å¤®ä¼ģ": 9248,
      "åĪ¤å®ļ": 9249,
      "èĮ¶åĽŃ": 9250,
      "å¯ĦéĢĴ": 9251,
      "æ§Ľ": 9252,
      "èķ´åĲ«": 9253,
      "å¼¥è¡¥": 9254,
      "ç»·ç´§": 9255,
      ",âĢľ": 9256,
      "åħ¬èģĮ": 9257,
      "å±ķæľĽ": 9258,
      "éĥİ": 9259,
      "å¥İ": 9260,
      "åĪĨæķ°": 9261,
      "åº¦è¿ĩ": 9262,
      "äº¤èŀį": 9263,
      "åĲįå¸Ī": 9264,
      "è§ģä¹ł": 9265,
      "ä¿ĥä½¿": 9266,
      "æīįæĺ¯": 9267,
      "èµĽåľº": 9268,
      "æĶ»åĩ»": 9269,
      "åįĥå®¶": 9270,
      "é¢ĳç¹ģ": 9271,
      "å¥¹ä»¬": 9272,
      "æ¬łæ¬¾": 9273,
      "ä¼¼ä¹İ": 9274,
      "ä¼ĬæľĹ": 9275,
      "æ©¡": 9276,
      "ç»Ĵ": 9277,
      "ä¼ļæļ¨": 9278,
      "æĭ±": 9279,
      "èĤĨ": 9280,
      "æķĻç§ĳ": 9281,
      "è®¡çĶŁ": 9282,
      "æŃ£éĿ¢": 9283,
      "ç§įåħ»": 9284,
      "çĸ«çĹħ": 9285,
      "çº¢æ²³": 9286,
      "æľĿé²ľ": 9287,
      "ç¹ģèĤ²": 9288,
      "æŁĶæĢ§": 9289,
      "ä¸Ģå²Ĺ": 9290,
      "âĢĿï¼ļ": 9291,
      "ä¸įä½ı": 9292,
      "ä¿Ŀå®ļ": 9293,
      "ç®¡å®¶": 9294,
      "ä¸īæĺŁ": 9295,
      "åĲįåŁİ": 9296,
      "ç»ĵå©ļ": 9297,
      "æ·±è¿ľ": 9298,
      "é¢ĦåĶ®": 9299,
      "æīĵåĵį": 9300,
      "æĪ·çļĦ": 9301,
      "å®£è¯»": 9302,
      "çĶ±åĮº": 9303,
      "é¦ĸåĪĽ": 9304,
      "é¾ĻèĪŁ": 9305,
      "æ»¨æ±Ł": 9306,
      "åĳ¼åĴĮ": 9307,
      "æŁ´æ²¹": 9308,
      "ä¸Ģæ¥¼": 9309,
      "ä¸Ĭç½ĳ": 9310,
      "å¼ºåĨĽ": 9311,
      "åħ±æĢ§": 9312,
      "æĪĳè¦ģ": 9313,
      "éĩĮéĿ¢": 9314,
      "éħįåģ¶": 9315,
      "æ»¡æ»¡": 9316,
      "è£ħæľº": 9317,
      "æ¼Ķç¤º": 9318,
      "åĲ¬åĪ°": 9319,
      "ç©¿è¶Ĭ": 9320,
      "åĳ¼ä¼¦": 9321,
      "åłĨæĶ¾": 9322,
      "ä¸Ńæĸ°": 9323,
      "åıĳåĮħ": 9324,
      "åİ¢": 9325,
      "æľ¬èģĮ": 9326,
      "åħļç±į": 9327,
      "ä¸īå³¡": 9328,
      "æ·³": 9329,
      "ä¸ĩä»¶": 9330,
      "å¯¼å¼¹": 9331,
      "æĬ¤å£«": 9332,
      "ç®Ĺæ³ķ": 9333,
      "ç®ĹåĬĽ": 9334,
      "æł¸éªĮ": 9335,
      "åıįè¯ī": 9336,
      "è£ħéħį": 9337,
      "åİ»äºĨ": 9338,
      "åºŃéĻ¢": 9339,
      "æ¦´": 9340,
      "ä¹ĺè½¦": 9341,
      "åİ¨æĪ¿": 9342,
      "ç§īæī¿": 9343,
      "åħ¬åİķ": 9344,
      "ä¸įç»Ŀ": 9345,
      "ä»¥æĹ§": 9346,
      "å¼ĢèĬ±": 9347,
      "çĤ¹äº®": 9348,
      "äº¤äºĴ": 9349,
      "éĹ¨æ§Ľ": 9350,
      "æ¡Īæ¶ī": 9351,
      "é£İéĽ¨": 9352,
      "éªĦ": 9353,
      "æĮīæľĪ": 9354,
      "è´¢éĻ©": 9355,
      "æ¥ł": 9356,
      "å¡«è¡¥": 9357,
      "åĲŀ": 9358,
      "åĴ³": 9359,
      "éĺĢ": 9360,
      "å¼Ģè¡Į": 9361,
      "å¼Ģç¥¨": 9362,
      "æĸĩçĮ®": 9363,
      "ä¸īåĮº": 9364,
      "åĨħè®¾": 9365,
      "æĶ¯æŁ±": 9366,
      "æķĻä½ĵ": 9367,
      "æºĲåľ°": 9368,
      "åįģè¶³": 9369,
      "è¿Ļä½į": 9370,
      "æ¸ħè¿Ĳ": 9371,
      "ä¸¥è°¨": 9372,
      "å¿«çļĦ": 9373,
      "å®ģåĮº": 9374,
      "çģ¯åħī": 9375,
      "éľĩæħĳ": 9376,
      "æĭ¿åĪ°": 9377,
      "VR": 9378,
      "ĠçŃĶ": 9379,
      "å¸ĤåŁŁ": 9380,
      "æłĩæ³¨": 9381,
      "èĥ½çº§": 9382,
      "éģ£": 9383,
      "ç²¾åĬĽ": 9384,
      "109": 9385,
      "ç¾İæĻ¯": 9386,
      "éĢĤåº¦": 9387,
      "éĩİå¤ĸ": 9388,
      "éªĹåıĸ": 9389,
      "æ´Ľéĺ³": 9390,
      "ST": 9391,
      "Ġåľ°": 9392,
      "ä¸ĬæľĪ": 9393,
      "æĪĲäºº": 9394,
      "éĢļä¿Ĺ": 9395,
      "äº¤æ±ĩ": 9396,
      "åĽĽå±Ĭ": 9397,
      "è´Łèį·": 9398,
      "æĶ¾å¤§": 9399,
      "æŃ¤åĲİ": 9400,
      "è¯¥æł¡": 9401,
      "è®²æİĪ": 9402,
      "è¡Ĺå¤´": 9403,
      "åıĮåĪĽ": 9404,
      "å¾·å®ı": 9405,
      "åĩłåįģ": 9406,
      "ĊĊ": 9407,
      "Ġåİ¿": 9408,
      "å®ł": 9409,
      "ä½ľçļĦ": 9410,
      "å¤§éĹ¨": 9411,
      "å¤§èĦĳ": 9412,
      "å®ŀç»©": 9413,
      "åħĥæĹ¦": 9414,
      "æĿĳå±ħ": 9415,
      "éĽĨéķĩ": 9416,
      "æĽ´åħ·": 9417,
      "ç¡®æľī": 9418,
      "åĩıåįĬ": 9419,
      "çĮľ": 9420,
      "Ġ21": 9421,
      "æĭŁæ´¾": 9422,
      "ç¿Ł": 9423,
      "é¥ŃåºĹ": 9424,
      "æłªæ´²": 9425,
      "æĭľçĻ»": 9426,
      "âĪļ": 9427,
      ":âĢľ": 9428,
      "æĹ¥æĺ¯": 9429,
      "åĪ¶çļĦ": 9430,
      "éĺ²åŁİ": 9431,
      "ç¾İå®¹": 9432,
      "è£¹": 9433,
      "éħįçĶµ": 9434,
      "450": 9435,
      "ic": 9436,
      "å»ºå¼º": 9437,
      "ä¸įé«ĺ": 9438,
      "éķ¿æĿİ": 9439,
      "åķĦ": 9440,
      "èģĶè°Ĭ": 9441,
      "æĢ»è£ģ": 9442,
      "ç²¾åº¦": 9443,
      "å¹¿åħĥ": 9444,
      "åĮĹæµ·": 9445,
      "èĢĮæĿ¥": 9446,
      "åĻ¨åħ·": 9447,
      "åºĵåŃĺ": 9448,
      "éĤ£ä¸ª": 9449,
      "å·´é»İ": 9450,
      "æºªåİ¿": 9451,
      "èļĬ": 9452,
      "å´ĩå·¦": 9453,
      "éĺ´æĢ§": 9454,
      "GP": 9455,
      "äºĨè¿ĳ": 9456,
      "åŃ¦å®¶": 9457,
      "è½©": 9458,
      "åĪ°äºº": 9459,
      "æ°´ä¸ĭ": 9460,
      "è®¡æıĲ": 9461,
      "ä¼ĺç¾İ": 9462,
      "ä»İä¸Ń": 9463,
      "è±¹": 9464,
      "æĴŃåĩº": 9465,
      "çķĻåľ¨": 9466,
      "çĨĻ": 9467,
      "å¥¥è¿Ĳ": 9468,
      "è¿Īè¿Ľ": 9469,
      "é¹¤å£ģ": 9470,
      "ä¸ĢäºĮ": 9471,
      "ä¸Ńæĸĩ": 9472,
      "ä¸ºé¢ĺ": 9473,
      "ï¼ļï¿¥": 9474,
      "äºĭåīį": 9475,
      "ä½įåĪĹ": 9476,
      "éķ¿çĻ½": 9477,
      "å¹¶éĩį": 9478,
      "æĬ¤æłı": 9479,
      "æİ¥åĬĽ": 9480,
      "å¤ĩæĪĺ": 9481,
      "å®£åĳĬ": 9482,
      "æŀĹæľ¨": 9483,
      "çľŁæĺ¯": 9484,
      "çľŁè¯ļ": 9485,
      "æįŁä¼¤": 9486,
      "æĬ½è°ĥ": 9487,
      "çĨŁç»ĥ": 9488,
      "%ï¼ī": 9489,
      "Ġå¾Ĳ": 9490,
      "ä¸ļé«ĺ": 9491,
      "ä¸ºæŃ¢": 9492,
      "çľģéģĵ": 9493,
      "ç³»æķ°": 9494,
      "èĲ¥åĪ©": 9495,
      "åįĹåħħ": 9496,
      "å®£æķĻ": 9497,
      "ä¸¤ä¸į": 9498,
      "ç»¼æ²»": 9499,
      "é¾Ļå²©": 9500,
      "å¥ĭåĭĩ": 9501,
      "å¤ªæ¹ĸ": 9502,
      "æĬĹæĹ¥": 9503,
      "çħ®": 9504,
      "è¸Ĭ": 9505,
      "ä¹ħä¹ħ": 9506,
      "éĽ·è¾¾": 9507,
      "æ¶µåħ»": 9508,
      "æĤłä¹ħ": 9509,
      "æĭ©ä¼ĺ": 9510,
      "Ġï¿¥": 9511,
      "ä¸ĢçªĹ": 9512,
      "ä¸įæĢķ": 9513,
      "æľĪèµ·": 9514,
      "éķ¿çİĭ": 9515,
      "åīįçŀ»": 9516,
      "è·¯ç½ĳ": 9517,
      "ç«ĭå¾·": 9518,
      "ç©´": 9519,
      "è¿ĺéľĢ": 9520,
      "èº«å½±": 9521,
      "çĹħæĥħ": 9522,
      "åıĮè´£": 9523,
      "è¯ļå®ŀ": 9524,
      "æºªéķĩ": 9525,
      "éĩİçĶŁ": 9526,
      "éĤ»å±ħ": 9527,
      "æ¹Ľæ±Ł": 9528,
      "âĢķ": 9529,
      "å®¶æĹı": 9530,
      "ä¸İå¸Ĥ": 9531,
      "åħļåĬ¡": 9532,
      "æĿ¥æ°´": 9533,
      "æĬ¥å¤ĩ": 9534,
      "ä¼łåĶ¤": 9535,
      "æĢ»ä¼ļ": 9536,
      "æİ¥åľ°": 9537,
      "ä¸¥çļĦ": 9538,
      "äºīå½ĵ": 9539,
      "åĦĴ": 9540,
      "å¥ĸæĥ©": 9541,
      "æĮ¯å¥ĭ": 9542,
      "2500": 9543,
      "åĪĺæŁĲ": 9544,
      "äº®çļĦ": 9545,
      "æĿŀ": 9546,
      "èĢ¶": 9547,
      "åĲĪéĢĤ": 9548,
      "åĬłåĿ¡": 9549,
      "å°ıäºİ": 9550,
      "çĶµæºĲ": 9551,
      "ä¹¡å¸Ĥ": 9552,
      "æ¯ĶæŃ¦": 9553,
      "çĿĢéĩį": 9554,
      "æ¢Ĺ": 9555,
      "åĦĭ": 9556,
      "é»Ħèī²": 9557,
      "æ²¹èıľ": 9558,
      "èĭĹæĹı": 9559,
      "æ¸¡åı£": 9560,
      "åİĺç±³": 9561,
      "ĠP": 9562,
      "å¼Ĺ": 9563,
      "æľīè¶£": 9564,
      "å¤§å®Ĺ": 9565,
      "æ²¥": 9566,
      "èģª": 9567,
      "æłĩä¹¦": 9568,
      "ä¸İè¢«": 9569,
      "çĥ¹": 9570,
      "æĹłåħ³": 9571,
      "è¡Ĺéķĩ": 9572,
      "èµ°è¿ĩ": 9573,
      "æĹ©åľ¨": 9574,
      "æľ¨é¸Ł": 9575,
      "éľ²å¤©": 9576,
      "æ¨ªå¹ħ": 9577,
      "èī°å·¨": 9578,
      "æł½åŁ¹": 9579,
      "ä¸ºé«ĺ": 9580,
      "æĹ¶éķ¿": 9581,
      "åŁİçļĦ": 9582,
      "æģ³": 9583,
      "æĶ¾å®½": 9584,
      "135": 9585,
      "åĲ¦åĨ³": 9586,
      "ç³ĸå°¿": 9587,
      "è¾Ľèĭ¦": 9588,
      "å·¥è´¸": 9589,
      "æİ©": 9590,
      "åľ¨åħ¶": 9591,
      "æľ¬æľŁ": 9592,
      "æĬ¥æĸĻ": 9593,
      "è½¦ä¸»": 9594,
      "æĽ´æ·±": 9595,
      "åįģåł°": 9596,
      "åĽĽä¸Ń": 9597,
      "å®Įå¤ĩ": 9598,
      "ä¸¥æĺİ": 9599,
      "æĬĬå¥½": 9600,
      "çľĭå¾Ĺ": 9601,
      "çĪ±çļĦ": 9602,
      "æĬ¢ä¿®": 9603,
      "ä¸²èģĶ": 9604,
      "æ£īèĬ±": 9605,
      "åĴ±": 9606,
[...]
