{
  "version": "1.0",
  "truncation": null,
  "padding": null,
  "added_tokens": [
    {
      "id": 0,
      "content": "<unk>",
      "single_word": false,
      "lstrip": false,
      "rstrip": false,
      "normalized": false,
      "special": true
    },
    {
      "id": 1,
      "content": "<s>",
      "single_word": false,
      "lstrip": false,
      "rstrip": false,
      "normalized": false,
      "special": true
    },
    {
      "id": 2,
      "content": "</s>",
      "single_word": false,
      "lstrip": false,
      "rstrip": false,
      "normalized": false,
      "special": true
    }
  ],
  "normalizer": {
    "type": "Sequence",
    "normalizers": [
      {
        "type": "NFD"
      },
      {
        "type": "StripAccents"
      }
    ]
  },
  "pre_tokenizer": {
    "type": "ByteLevel",
    "add_prefix_space": true,
    "trim_offsets": true,
    "use_regex": true
  },
  "post_processor": null,
  "decoder": {
    "type": "ByteLevel",
    "add_prefix_space": true,
    "trim_offsets": true,
    "use_regex": true
  },
  "model": {
    "type": "BPE",
    "dropout": 0.1,
    "unk_token": "<unk>",
    "continuing_subword_prefix": null,
    "end_of_word_suffix": null,
    "fuse_unk": false,
    "byte_fallback": false,
    "ignore_merges": false,
    "vocab": {
      "<unk>": 0,
      "<s>": 1,
      "</s>": 2,
      "!": 3,
      "\"": 4,
      "#": 5,
      "$": 6,
      "%": 7,
      "&": 8,
      "'": 9,
      "(": 10,
      ")": 11,
      "*": 12,
      "+": 13,
      ",": 14,
      "-": 15,
      ".": 16,
      "/": 17,
      "0": 18,
      "1": 19,
      "2": 20,
      "3": 21,
      "4": 22,
      "5": 23,
      "6": 24,
      "7": 25,
      "8": 26,
      "9": 27,
      ":": 28,
      ";": 29,
      "<": 30,
      "=": 31,
      ">": 32,
      "?": 33,
      "@": 34,
      "A": 35,
      "B": 36,
      "C": 37,
      "D": 38,
      "E": 39,
      "F": 40,
      "G": 41,
      "H": 42,
      "I": 43,
      "J": 44,
      "K": 45,
      "L": 46,
      "M": 47,
      "N": 48,
      "O": 49,
      "P": 50,
      "Q": 51,
      "R": 52,
      "S": 53,
      "T": 54,
      "U": 55,
      "V": 56,
      "W": 57,
      "X": 58,
      "Y": 59,
      "Z": 60,
      "[": 61,
      "\\": 62,
      "]": 63,
      "^": 64,
      "_": 65,
      "`": 66,
      "a": 67,
      "b": 68,
      "c": 69,
      "d": 70,
      "e": 71,
      "f": 72,
      "g": 73,
      "h": 74,
      "i": 75,
      "j": 76,
      "k": 77,
      "l": 78,
      "m": 79,
      "n": 80,
      "o": 81,
      "p": 82,
      "q": 83,
      "r": 84,
      "s": 85,
      "t": 86,
      "u": 87,
      "v": 88,
      "w": 89,
      "x": 90,
      "y": 91,
      "z": 92,
      "{": 93,
      "|": 94,
      "}": 95,
      "~": 96,
      "¡": 97,
      "¢": 98,
      "£": 99,
      "¤": 100,
      "¥": 101,
      "¦": 102,
      "§": 103,
      "¨": 104,
      "©": 105,
      "ª": 106,
      "«": 107,
      "¬": 108,
      "®": 109,
      "¯": 110,
      "°": 111,
      "±": 112,
      "²": 113,
      "³": 114,
      "´": 115,
      "µ": 116,
      "¶": 117,
      "·": 118,
      "¸": 119,
      "¹": 120,
      "º": 121,
      "»": 122,
      "¼": 123,
      "½": 124,
      "¾": 125,
      "¿": 126,
      "À": 127,
      "Á": 128,
      "Â": 129,
      "Ã": 130,
      "Ä": 131,
      "Å": 132,
      "Æ": 133,
      "Ç": 134,
      "È": 135,
      "É": 136,
      "Ê": 137,
      "Ë": 138,
      "Ì": 139,
      "Í": 140,
      "Î": 141,
      "Ï": 142,
      "Ð": 143,
      "Ñ": 144,
      "Ò": 145,
      "Ó": 146,
      "Ô": 147,
      "Õ": 148,
      "Ö": 149,
      "×": 150,
      "Ø": 151,
      "Ù": 152,
      "Ú": 153,
      "Û": 154,
      "Ü": 155,
      "Ý": 156,
      "Þ": 157,
      "ß": 158,
      "à": 159,
      "á": 160,
      "â": 161,
      "ã": 162,
      "ä": 163,
      "å": 164,
      "æ": 165,
      "ç": 166,
      "è": 167,
      "é": 168,
      "ê": 169,
      "ë": 170,
      "ì": 171,
      "í": 172,
      "î": 173,
      "ï": 174,
      "ð": 175,
      "ñ": 176,
      "ò": 177,
      "ó": 178,
      "ô": 179,
      "õ": 180,
      "ö": 181,
      "÷": 182,
      "ø": 183,
      "ù": 184,
      "ú": 185,
      "û": 186,
      "ü": 187,
      "ý": 188,
      "þ": 189,
      "ÿ": 190,
      "Ā": 191,
      "ā": 192,
      "Ă": 193,
      "ă": 194,
      "Ą": 195,
      "ą": 196,
      "Ć": 197,
      "ć": 198,
      "Ĉ": 199,
      "ĉ": 200,
      "Ċ": 201,
      "ċ": 202,
      "Č": 203,
      "č": 204,
      "Ď": 205,
      "ď": 206,
      "Đ": 207,
      "đ": 208,
      "Ē": 209,
      "ē": 210,
      "Ĕ": 211,
      "ĕ": 212,
      "Ė": 213,
      "ė": 214,
      "Ę": 215,
      "ę": 216,
      "Ě": 217,
      "ě": 218,
      "Ĝ": 219,
      "ĝ": 220,
      "Ğ": 221,
      "ğ": 222,
      "Ġ": 223,
      "ġ": 224,
      "Ģ": 225,
      "ģ": 226,
      "Ĥ": 227,
      "ĥ": 228,
      "Ħ": 229,
      "ħ": 230,
      "Ĩ": 231,
      "ĩ": 232,
      "Ī": 233,
      "ī": 234,
      "Ĭ": 235,
      "ĭ": 236,
      "Į": 237,
      "į": 238,
      "İ": 239,
      "ı": 240,
      "Ĳ": 241,
      "ĳ": 242,
      "Ĵ": 243,
      "ĵ": 244,
      "Ķ": 245,
      "ķ": 246,
      "ĸ": 247,
      "Ĺ": 248,
      "ĺ": 249,
      "Ļ": 250,
      "ļ": 251,
      "Ľ": 252,
      "ľ": 253,
      "Ŀ": 254,
      "ŀ": 255,
      "Ł": 256,
      "ł": 257,
      "Ń": 258,
      "ï¼": 259,
      "ä¸": 260,
      "ï¼Į": 261,
      "ãĢ": 262,
      "äº": 263,
      "çļ": 264,
      "çļĦ": 265,
      "åħ": 266,
      "åı": 267,
      "æľ": 268,
      "ãĢĤ": 269,
      "ä»": 270,
      "å®": 271,
      "å¤": 272,
      "âĢ": 273,
      "åĪ": 274,
      "åĬ": 275,
      "è¿": 276,
      "åľ": 277,
      "åĲ": 278,
      "ä½": 279,
      "ç»": 280,
      "åĽ": 281,
      "æĸ": 282,
      "å¹": 283,
      "çĶ": 284,
      "ä¼": 285,
      "è®": 286,
      "æĺ": 287,
      "æĹ": 288,
      "æĪ": 289,
      "åį": 290,
      "ä¸Ģ": 291,
      "ä¹": 292,
      "å¸": 293,
      "åĮ": 294,
      "è¯": 295,
      "å°": 296,
      "æĿ": 297,
      "éĩ": 298,
      "ãĢģ": 299,
      "å·": 300,
      "å¼": 301,
      "åľ¨": 302,
      "è¡": 303,
      "äºº": 304,
      "è´": 305,
      "å±": 306,
      "åº": 307,
      "âĢľ": 308,
      "ä¸Ń": 309,
      "âĢĿ": 310,
      "åĨ": 311,
      "æī": 312,
      "çĽ": 313,
      "æĶ": 314,
      "åŃ": 315,
      "æĬ": 316,
      "åĽ½": 317,
      "åĩ": 318,
      "éĢ": 319,
      "å¯": 320,
      "æĺ¯": 321,
      "èµ": 322,
      "æľī": 323,
      "äºĨ": 324,
      "å¹´": 325,
      "å¤§": 326,
      "åĴ": 327,
      "æķ": 328,
      "ä¸ļ": 329,
      "åĴĮ": 330,
      "æł": 331,
      "ä¸º": 332,
      "è§": 333,
      "éĻ": 334,
      "ä¸į": 335,
      "èĢ": 336,
      "æ°": 337,
      "çİ": 338,
      "å¾": 339,
      "ç§": 340,
      "åıĳ": 341,
      "æĢ": 342,
      "ä¿": 343,
      "æİ": 344,
      "éĹ": 345,
      "Ġt": 346,
      "çº": 347,
      "è¡Į": 348,
      "åĳ": 349,
      "ĥ½": 350,
      "ä¼ļ": 351,
      "å¥": 352,
      "ä¸Ĭ": 353,
      "æµ": 354,
      "çŃ": 355,
      "æŃ": 356,
      "ä½ľ": 357,
      "å¿": 358,
      "æ³": 359,
      "é¢": 360,
      "åİ": 361,
      "éĿ": 362,
      "å½": 363,
      "çī": 364,
      "å¸Ĥ": 365,
      "æĮ": 366,
      "çĶŁ": 367,
      "åŁ": 368,
      "å·¥": 369,
      "åħ¬": 370,
      "Ġa": 371,
      "è¦": 372,
      "èĩ": 373,
      "æĹ¶": 374,
      "è¦ģ": 375,
      "çĲ": 376,
      "ä»¥": 377,
      "æ²": 378,
      "æĸ°": 379,
      "åĩº": 380,
      "ä¸ª": 381,
      "åħ¨": 382,
      "å¯¹": 383,
      "æŀ": 384,
      "åľ°": 385,
      "åĬ¨": 386,
      "æĪĲ": 387,
      "in": 388,
      "å®¶": 389,
      "20": 390,
      "è½": 391,
      "åĪ°": 392,
      "åī": 393,
      "æĹ¥": 394,
      "è¿Ľ": 395,
      "å®ŀ": 396,
      "éĺ": 397,
      "he": 398,
      "çľ": 399,
      "æ±": 400,
      "æĿ¥": 401,
      "åŃ¦": 402,
      "å»": 403,
      "æĭ": 404,
      "èĥ½": 405,
      "è¾": 406,
      "åĵ": 407,
      "äº§": 408,
      "éĥ": 409,
      "å±ķ": 410,
      "ç¤": 411,
      "èĤ": 412,
      "åĮĸ": 413,
      "è¿Ļ": 414,
      "åĮº": 415,
      "æĥ": 416,
      "ç½": 417,
      "éķ": 418,
      "æĸ¹": 419,
      "æ¬": 420,
      "ç«": 421,
      "æ¯": 422,
      "ç»ı": 423,
      "çĲĨ": 424,
      "å¼Ģ": 425,
      "çİ°": 426,
      "çĶ¨": 427,
      "çŃī": 428,
      "å»º": 429,
      "åĬĽ": 430,
      "é«": 431,
      "é«ĺ": 432,
      "æı": 433,
      "éĥ¨": 434,
      "é¡": 435,
      "ä¾": 436,
      "æ´": 437,
      "ç®": 438,
      "åĬ¡": 439,
      "æ³ķ": 440,
      "æľĪ": 441,
      "åĲĪ": 442,
      "æ°ĳ": 443,
      "èµĦ": 444,
      "å¤ļ": 445,
      "æ¸": 446,
      "ä½ĵ": 447,
      "äºİ": 448,
      "æĪĳ": 449,
      "åĪĨ": 450,
      "re": 451,
      "åħ³": 452,
      "æĶ¿": 453,
      "æĦ": 454,
      "ä¸»": 455,
      "éģ": 456,
      "ä¸ĭ": 457,
      "ï¼ļ": 458,
      "èģ": 459,
      "åĲĮ": 460,
      "è¿ĩ": 461,
      "è·": 462,
      "åģ": 463,
      "ç¨": 464,
      "éķ¿": 465,
      "éĩį": 466,
      "èĩª": 467,
      "å¢": 468,
      "on": 469,
      "æľº": 470,
      "åĬł": 471,
      "åľº": 472,
      "å®ļ": 473,
      "æıĲ": 474,
      "åĲİ": 475,
      "ä¸İ": 476,
      "ç¾": 477,
      "åīį": 478,
      "è°": 479,
      "çĽ®": 480,
      "ä¿Ŀ": 481,
      "éĢļ": 482,
      "äºĭ": 483,
      "éĿ¢": 484,
      "æľ¬": 485,
      "çĤ": 486,
      "er": 487,
      "å§": 488,
      "éĽ": 489,
      "æĻ": 490,
      "åĿ": 491,
      "æĸĩ": 492,
      "æĽ": 493,
      "æį": 494,
      "åı¯": 495,
      "è®¾": 496,
      "ä»¬": 497,
      "åĳĺ": 498,
      "Ġthe": 499,
      "ï¼ī": 500,
      "ï¼Ī": 501,
      "åĵģ": 502,
      "åº¦": 503,
      "èĢħ": 504,
      "æŁ": 505,
      "ä»ĸ": 506,
      "éĩĳ": 507,
      "å¿ĥ": 508,
      "Ġs": 509,
      "åı¸": 510,
      "å°Ĩ": 511,
      "ä¹Ł": 512,
      "å°±": 513,
      "ç¬": 514,
      "åĪ¶": 515,
      "é¡¹": 516,
      "éļ": 517,
      "èĲ": 518,
      "è¶": 519,
      "åĨħ": 520,
      "ç®¡": 521,
      "æ¶": 522,
      "åħ¥": 523,
      "å®ī": 524,
      "åħĥ": 525,
      "Ġw": 526,
      "å¦": 527,
      "å¹³": 528,
      "å¥½": 529,
      "æľŁ": 530,
      "åıĬ": 531,
      "å°ı": 532,
      "é£": 533,
      "at": 534,
      "Ġo": 535,
      "è¡¨": 536,
      "åħ¶": 537,
      "çĤ¹": 538,
      "çĿ": 539,
      "æ¬¡": 540,
      "èī": 541,
      "åĢ": 542,
      "Ġc": 543,
      "çŁ": 544,
      "ãĢĭ": 545,
      "ãĢĬ": 546,
      "çĶµ": 547,
      "æĮģ": 548,
      "æĥħ": 549,
      "å¾Ĺ": 550,
      "nd": 551,
      "çł": 552,
      "00": 553,
      "éĩı": 554,
      "è½¦": 555,
      "æĢ§": 556,
      "éĹ´": 557,
      "ä¹ĭ": 558,
      "åºĶ": 559,
      "æ¡": 560,
      "åŃĲ": 561,
      "ä½į": 562,
      "å¼º": 563,
      "æĬ¥": 564,
      "ï¼Ľ": 565,
      "ç³": 566,
      "åŁº": 567,
      "äº¤": 568,
      "å¤©": 569,
      "ä¼ģ": 570,
      "it": 571,
      "ä¿¡": 572,
      "æłĩ": 573,
      "ou": 574,
      "å¤ĸ": 575,
      "è¯´": 576,
      "è§Ħ": 577,
      "æ°´": 578,
      "çķ": 579,
      "ä¸ī": 580,
      "èĬ": 581,
      "æľį": 582,
      "å½ĵ": 583,
      "ç¬¬": 584,
      "æľĢ": 585,
      "es": 586,
      "çĽ¸": 587,
      "åĪ©": 588,
      "or": 589,
      "ä¸ĩ": 590,
      "æīĢ": 591,
      "éģĵ": 592,
      "éľ": 593,
      "æĺİ": 594,
      "ç¤¾": 595,
      "ç©": 596,
      "æĽ´": 597,
      "æķ°": 598,
      "æ´»": 599,
      "åĲį": 600,
      "æİ¨": 601,
      "çĸ": 602,
      "åķ": 603,
      "ç³»": 604,
      "ä»£": 605,
      "è¿ĺ": 606,
      "ç¡": 607,
      "ç½ĳ": 608,
      "è®¡": 609,
      "is": 610,
      "éĥ½": 611,
      "Ġf": 612,
      "en": 613,
      "ç¤º": 614,
      "ä»İ": 615,
      "é¢ĺ": 616,
      "ç¾İ": 617,
      "éĵ": 618,
      "ç§ĳ": 619,
      "æ·": 620,
      "èĢĮ": 621,
      "å¢ŀ": 622,
      "Ġb": 623,
      "åĪĽ": 624,
      "ing": 625,
      "Ġp": 626,
      "æ¯Ķ": 627,
      "å¹¶": 628,
      "æģ": 629,
      "è®°": 630,
      "ç¨ĭ": 631,
      "æį®": 632,
      "æµ·": 633,
      "æĬĢ": 634,
      "çľģ": 635,
      "åħ±": 636,
      "é¦": 637,
      "æķĻ": 638,
      "éĶ": 639,
      "å¼ı": 640,
      "ç¥": 641,
      "åĲĦ": 642,
      "æĦı": 643,
      "ä»»": 644,
      "æĬķ": 645,
      "åķĨ": 646,
      "ç±": 647,
      "éĻ¢": 648,
      "ç»Ħ": 649,
      "å¦Ĥ": 650,
      "an": 651,
      "ç²": 652,
      "å±Ģ": 653,
      "èµ·": 654,
      "è·¯": 655,
      "å§Ķ": 656,
      "æĢ»": 657,
      "èģĶ": 658,
      "éĹ¨": 659,
      "æĶ¶": 660,
      "çĿĢ": 661,
      "çī¹": 662,
      "åħļ": 663,
      "å¯¼": 664,
      "æŃ¤": 665,
      "ç´": 666,
      "åı°": 667,
      "al": 668,
      "çī©": 669,
      "åĲĳ": 670,
      "ä»¶": 671,
      "ed": 672,
      "ç«ĭ": 673,
      "æ²»": 674,
      "201": 675,
      "è§£": 676,
      "çĻ": 677,
      "è¢": 678,
      "åĬŀ": 679,
      "è®®": 680,
      "çĦ": 681,
      "åŁİ": 682,
      "è°ĥ": 683,
      "å·²": 684,
      "éĹ®": 685,
      "æŃ£": 686,
      "èĪ": 687,
      "Ġto": 688,
      "Ġm": 689,
      "æº": 690,
      "æĿĳ": 691,
      "ä¸ľ": 692,
      "ä¸ĵ": 693,
      "ç»Ł": 694,
      "éĩĮ": 695,
      "ä»·": 696,
      "é©": 697,
      "æ±Ĥ": 698,
      "è´¨": 699,
      "ç§į": 700,
      "æĶ¹": 701,
      "åĮĹ": 702,
      "ar": 703,
      "åįĹ": 704,
      "è¿ĳ": 705,
      "è¿Ĳ": 706,
      "èĤ²": 707,
      "çº§": 708,
      "éĢł": 709,
      "èĭ": 710,
      "èĤ¡": 711,
      "åĽł": 712,
      "ä¸¤": 713,
      "äºĮ": 714,
      "èį": 715,
      "æľ¯": 716,
      "Ġand": 717,
      "ç»ĵ": 718,
      "è´¹": 719,
      "æĸ½": 720,
      "è¯ģ": 721,
      "éĽĨ": 722,
      "æīĭ": 723,
      "é¢Ĩ": 724,
      "æµİ": 725,
      "èĩ³": 726,
      "æŁ¥": 727,
      "ä¼ł": 728,
      "å£": 729,
      "åįķ": 730,
      "è¥": 731,
      "çłĶ": 732,
      "Ġin": 733,
      "çľĭ": 734,
      "ä¹¦": 735,
      "æĶ¯": 736,
      "åĨľ": 737,
      "è¥¿": 738,
      "ä½Ĩ": 739,
      "åıĹ": 740,
      "è¢«": 741,
      "ç¼": 742,
      "ä¾Ľ": 743,
      "æ¡Ī": 744,
      "æł¼": 745,
      "æ£": 746,
      "å¤Ħ": 747,
      "Ġof": 748,
      "æİ¥": 749,
      "éĴ": 750,
      "èĮ": 751,
      "æºĲ": 752,
      "åŀ": 753,
      "å¹¿": 754,
      "æ·±": 755,
      "æµģ": 756,
      "éħ": 757,
      "çĥ": 758,
      "å²": 759,
      "å¸¸": 760,
      "åĮ»": 761,
      "çĽĳ": 762,
      "å±±": 763,
      "ç¦": 764,
      "Ġd": 765,
      "çģ": 766,
      "çĦ¶": 767,
      "æĮĩ": 768,
      "çº¿": 769,
      "éĺŁ": 770,
      "æŀľ": 771,
      "é£İ": 772,
      "æķĪ": 773,
      "åįģ": 774,
      "è¾¾": 775,
      "èĢģ": 776,
      "æĹł": 777,
      "åģļ": 778,
      "çİ¯": 779,
      "è´£": 780,
      "éľĢ": 781,
      "ç»Ń": 782,
      "æīĵ": 783,
      "èĲ¥": 784,
      "åĳĬ": 785,
      "éĤ": 786,
      "åĨ³": 787,
      "le": 788,
      "æŃ¥": 789,
      "è®¤": 790,
      "éª": 791,
      "èİ": 792,
      "ä»Ĭ": 793,
      "ic": 794,
      "åĩĨ": 795,
      "åıĤ": 796,
      "çĪ": 797,
      "éĺ²": 798,
      "æĪĺ": 799,
      "åĸ": 800,
      "åİŁ": 801,
      "åı£": 802,
      "åİ»": 803,
      "æķ´": 804,
      "10": 805,
      "å®Į": 806,
      "èº": 807,
      "æŀĦ": 808,
      "çĶ±": 809,
      "ä¼Ĺ": 810,
      "å¾Ī": 811,
      "åįĩ": 812,
      "å¸ĥ": 813,
      "ç¡®": 814,
      "æ²¡": 815,
      "æĶ¾": 816,
      "ä¼ĺ": 817,
      "äºĽ": 818,
      "è®©": 819,
      "æ»": 820,
      "as": 821,
      "å½±": 822,
      "åıĸ": 823,
      "æ°Ķ": 824,
      "om": 825,
      "åįİ": 826,
      "å·ŀ": 827,
      "æĿĥ": 828,
      "èĥ": 829,
      "èº«": 830,
      "åħĪ": 831,
      "ç²¾": 832,
      "æ¶Ī": 833,
      "æ®": 834,
      "åĽŀ": 835,
      "Ġh": 836,
      "éĻħ": 837,
      "æģ¯": 838,
      "èŀ": 839,
      "åºľ": 840,
      "åĽ¢": 841,
      "æĪĸ": 842,
      "äº¬": 843,
      "å¸¦": 844,
      "éĩĩ": 845,
      "åĽĽ": 846,
      "æ¸¸": 847,
      "åİ¿": 848,
      "èī²": 849,
      "ion": 850,
      "åĶ": 851,
      "çŁ¥": 852,
      "èĬĤ": 853,
      "çĹ": 854,
      "èŀį": 855,
      "è£": 856,
      "ä½¿": 857,
      "åŀĭ": 858,
      "éĻĲ": 859,
      "æĪ·": 860,
      "è¯¥": 861,
      "è´Ń": 862,
      "æĢģ": 863,
      "æĬ¤": 864,
      "æĦŁ": 865,
      "æĿ¡": 866,
      "æĪ¿": 867,
      "åĨµ": 868,
      "çĲĥ": 869,
      "æ¹": 870,
      "202": 871,
      "èĢĥ": 872,
      "å¢ĥ": 873,
      "å½¢": 874,
      "å¼ķ": 875,
      "Ġth": 876,
      "æĥ³": 877,
      "æ¼": 878,
      "è§Ĩ": 879,
      "æł¡": 880,
      "æ±Ł": 881,
      "åħ·": 882,
      "åıĺ": 883,
      "æľª": 884,
      "èµĽ": 885,
      "å°ĳ": 886,
      "å¤ĩ": 887,
      "è½¬": 888,
      "åĬ©": 889,
      "ç±»": 890,
      "çħ": 891,
      "æĤ": 892,
      "éĢī": 893,
      "æł·": 894,
      "é»": 895,
      "ä¸ĸ": 896,
      "åįı": 897,
      "åĨĽ": 898,
      "èĮĥ": 899,
      "ç¾¤": 900,
      "é¢Ħ": 901,
      "æ¨": 902,
      "èĲ½": 903,
      "äº¿": 904,
      "çŃĸ": 905,
      "ç»Ļ": 906,
      "åĪ«": 907,
      "ä¹ł": 908,
      "æ¯ı": 909,
      "æĺĵ": 910,
      "æ£Ģ": 911,
      "é¦ĸ": 912,
      "èĦ": 913,
      "å¥³": 914,
      "éĻ©": 915,
      "ĠâĢľ": 916,
      "å¸Ī": 917,
      "èģĮ": 918,
      "il": 919,
      "å¿«": 920,
      "çĽ´": 921,
      "æĬĬ": 922,
      "çķĮ": 923,
      "ï¼Ł": 924,
      "åŁŁ": 925,
      "åı·": 926,
      "åĪĴ": 927,
      "å¤´": 928,
      "Ġy": 929,
      "ç§¯": 930,
      "è§Ĥ": 931,
      "è±": 932,
      "åĿļ": 933,
      "éĿŀ": 934,
      "âĢĶ": 935,
      "çİĩ": 936,
      "ç§°": 937,
      "å®¢": 938,
      "ä»½": 939,
      "æİ§": 940,
      "å¹²": 941,
      "è§ģ": 942,
      "å®¡": 943,
      "æīį": 944,
      "å¼ł": 945,
      "æ³¨": 946,
      "åıª": 947,
      "Ġl": 948,
      "å¤į": 949,
      "ro": 950,
      "Â·": 951,
      "ve": 952,
      "ç©¶": 953,
      "æĹħ": 954,
      "Ġn": 955,
      "è®º": 956,
      "æ¸ħ": 957,
      "ä¸¾": 958,
      "ent": 959,
      "éļ¾": 960,
      "æŀģ": 961,
      "èİ·": 962,
      "å·±": 963,
      "èĻ": 964,
      "æ¨¡": 965,
      "Ġe": 966,
      "è¯Ħ": 967,
      "è¶ħ": 968,
      "çª": 969,
      "åĮħ": 970,
      "ç»ĩ": 971,
      "st": 972,
      "æ¬¾": 973,
      "åĳ¨": 974,
      "æĴ": 975,
      "çĬ": 976,
      "ç©º": 977,
      "å®¹": 978,
      "è¯Ĩ": 979,
      "Ġre": 980,
      "åĬ¿": 981,
      "ç«Ļ": 982,
      "æł¸": 983,
      "æĺ¾": 984,
      "çĽĬ": 985,
      "èµ°": 986,
      "åĽŃ": 987,
      "çº¦": 988,
      "åĢ¼": 989,
      "éªĮ": 990,
      "12": 991,
      "äºĶ": 992,
      "åħ»": 993,
      "æİĴ": 994,
      "Ġyou": 995,
      "ä¹¡": 996,
      "çľŁ": 997,
      "åıį": 998,
      "éĢŁ": 999,
      "ä¹Ī": 1000,
      "ä¹ī": 1001,
      "æł¹": 1002,
      "éĿĴ": 1003,
      "æĳ": 1004,
      "æ¢": 1005,
      "åĵį": 1006,
      "è¾ĥ": 1007,
      "èŃ": 1008,
      "åģ¥": 1009,
      "æĸ¯": 1010,
      "èŃ¦": 1011,
      "çħ§": 1012,
      "è´Ł": 1013,
      "ä¸¥": 1014,
      "åŃĺ": 1015,
      "çİĭ": 1016,
      "éĶĢ": 1017,
      "åĨį": 1018,
      "å¥¹": 1019,
      "et": 1020,
      "è¯Ŀ": 1021,
      "è´¢": 1022,
      "19": 1023,
      "Ġg": 1024,
      "ĠI": 1025,
      "ä½İ": 1026,
      "æĸŃ": 1027,
      "çĹħ": 1028,
      "ct": 1029,
      "çı": 1030,
      "ç¥ŀ": 1031,
      "åİĨ": 1032,
      "èĳ": 1033,
      "éŁ": 1034,
      "éĵ¶": 1035,
      "åħī": 1036,
      "æŀĹ": 1037,
      "æī§": 1038,
      "é©¬": 1039,
      "11": 1040,
      "æ²³": 1041,
      "æī¹": 1042,
      "åĦ": 1043,
      "åĪĻ": 1044,
      "çº¢": 1045,
      "è¶³": 1046,
      "æ¼Ķ": 1047,
      "é£Ł": 1048,
      "æĢĿ": 1049,
      "åĭ": 1050,
      "æļ": 1051,
      "ä¾Ŀ": 1052,
      "è¯·": 1053,
      "è¯ķ": 1054,
      "ly": 1055,
      "éħį": 1056,
      "å£«": 1057,
      "éĿ©": 1058,
      "åŃĹ": 1059,
      "ä½ı": 1060,
      "çĥŃ": 1061,
      "åĦ¿": 1062,
      "å±ħ": 1063,
      "æĮī": 1064,
      "æĸĻ": 1065,
      "å§ĭ": 1066,
      "å¾ĭ": 1067,
      "âĢĻ": 1068,
      "æ®µ": 1069,
      "æĻ¯": 1070,
      "å®£": 1071,
      "çĮ": 1072,
      "éĤ£": 1073,
      "è¶Ĭ": 1074,
      "çĭ": 1075,
      "æĻº": 1076,
      "éĻį": 1077,
      "ç¥¨": 1078,
      "ĠT": 1079,
      "åĽ´": 1080,
      "è£ħ": 1081,
      "Ġis": 1082,
      "éķĩ": 1083,
      "ä¾ĭ": 1084,
      "åŁ¹": 1085,
      "äºļ": 1086,
      "æī¿": 1087,
      "è±¡": 1088,
      "åĶ®": 1089,
      "çĻ¾": 1090,
      "å¾·": 1091,
      "Ġbe": 1092,
      "å±Ĥ": 1093,
      "é¢Ŀ": 1094,
      "é¾": 1095,
      "åº·": 1096,
      "æµĭ": 1097,
      "ç½®": 1098,
      "äºĴ": 1099,
      "èĩ´": 1100,
      "åĪĹ": 1101,
      "200": 1102,
      "å¿Ĺ": 1103,
      "çīĮ": 1104,
      "Ġfor": 1105,
      "ä½ķ": 1106,
      "åĽ¾": 1107,
      "åĬŁ": 1108,
      "ut": 1109,
      "ot": 1110,
      "ç®Ĺ": 1111,
      "éļı": 1112,
      "ä¹Ĳ": 1113,
      "åĸĦ": 1114,
      "ç»´": 1115,
      "30": 1116,
      "ä½ł": 1117,
      "åī¯": 1118,
      "å°Ķ": 1119,
      "åħĭ": 1120,
      "ç±³": 1121,
      "æħ": 1122,
      "é¥": 1123,
      "éļľ": 1124,
      "æ»¡": 1125,
      "ur": 1126,
      "Ġon": 1127,
      "çīĩ": 1128,
      "åĩł": 1129,
      "èĬ±": 1130,
      "è¿ŀ": 1131,
      "åħ´": 1132,
      "äºī": 1133,
      "åħħ": 1134,
      "çĪ±": 1135,
      "æĿİ": 1136,
      "æŁĲ": 1137,
      "çºª": 1138,
      "âĢ¦": 1139,
      "éĺ³": 1140,
      "åĿĩ": 1141,
      "id": 1142,
      "ä»ħ": 1143,
      "éĻ¤": 1144,
      "èį¯": 1145,
      "ce": 1146,
      "åıĭ": 1147,
      "å¯Ł": 1148,
      "æľĽ": 1149,
      "åĩı": 1150,
      "æĭī": 1151,
      "æĻ®": 1152,
      "æĭĽ": 1153,
      "åıĪ": 1154,
      "ay": 1155,
      "åı²": 1156,
      "ĠS": 1157,
      "ow": 1158,
      "è¾¹": 1159,
      "æĲ": 1160,
      "æĭħ": 1161,
      "åıĮ": 1162,
      "us": 1163,
      "ç¨İ": 1164,
      "å¨": 1165,
      "çĸ«": 1166,
      "ç»Ī": 1167,
      "15": 1168,
      "èīº": 1169,
      "åľŁ": 1170,
      "åį³": 1171,
      "ch": 1172,
      "ĠC": 1173,
      "çªģ": 1174,
      "im": 1175,
      "è®²": 1176,
      "åĳ½": 1177,
      "è¡¥": 1178,
      "æ¹ĸ": 1179,
      "ç¨³": 1180,
      "çĸĹ": 1181,
      "ig": 1182,
      "ä½Ļ": 1183,
      "ol": 1184,
      "å¿ħ": 1185,
      "ä¾¿": 1186,
      "ä¿ĥ": 1187,
      "å¾Ģ": 1188,
      "è¯ī": 1189,
      "åĻ": 1190,
      "ĠA": 1191,
      "çģ«": 1192,
      "å¤®": 1193,
      "å¯Į": 1194,
      "ra": 1195,
      "ä»ĭ": 1196,
      "è®Ń": 1197,
      "åĪĩ": 1198,
      "el": 1199,
      "ç¦»": 1200,
      "çĿ£": 1201,
      "æĺ¥": 1202,
      "æ¸¯": 1203,
      "ç¦ı": 1204,
      "èħ": 1205,
      "è¨": 1206,
      "åį«": 1207,
      "è¨Ģ": 1208,
      "å¡": 1209,
      "åŃ©": 1210,
      "ith": 1211,
      "åºķ": 1212,
      "ver": 1213,
      "åĪĿ": 1214,
      "é»Ħ": 1215,
      "ç¡Ģ": 1216,
      "å±ŀ": 1217,
      "å®ĺ": 1218,
      "%ï¼Į": 1219,
      "éĵģ": 1220,
      "åĻ¨": 1221,
      "èĪª": 1222,
      "æİª": 1223,
      "ç¢": 1224,
      "å¤±": 1225,
      "åŃ£": 1226,
      "çĻ½": 1227,
      "èı": 1228,
      "è®¸": 1229,
      "åª": 1230,
      "å¾®": 1231,
      "åįļ": 1232,
      "çıŃ": 1233,
      "ç´ł": 1234,
      "å®¤": 1235,
      "éĢģ": 1236,
      "Ġthat": 1237,
      "æ²¹": 1238,
      "é¾Ļ": 1239,
      "çŁ³": 1240,
      "ç´§": 1241,
      "çĶ³": 1242,
      "èĭ±": 1243,
      "Ġst": 1244,
      "å±Ĭ": 1245,
      "ation": 1246,
      "è´«": 1247,
      "ä¿®": 1248,
      "è´§": 1249,
      "è¿ľ": 1250,
      "æ¥": 1251,
      "æ½": 1252,
      "å¤ª": 1253,
      "æĺŁ": 1254,
      "åł": 1255,
      "æ¸©": 1256,
      "åī§": 1257,
      "ç»§": 1258,
      "Ġwith": 1259,
      "è®¿": 1260,
      "å¸Ń": 1261,
      "çł´": 1262,
      "æĿĲ": 1263,
      "åįł": 1264,
      "è¿Ŀ": 1265,
      "æĴŃ": 1266,
      "Ġ1": 1267,
      "æĹı": 1268,
      "åĪ¸": 1269,
      "ä¹°": 1270,
      "æķħ": 1271,
      "ç»¿": 1272,
      "ï¼ģ": 1273,
      "ĠÂ·": 1274,
      "ad": 1275,
      "åĢĻ": 1276,
      "ç»Ĩ": 1277,
      "äºĳ": 1278,
      "äº²": 1279,
      "åĽ°": 1280,
      "çķ¥": 1281,
      "å¸®": 1282,
      "ä¸Ķ": 1283,
      "å£°": 1284,
      "åªĴ": 1285,
      "åįĬ": 1286,
      "èģļ": 1287,
      "am": 1288,
      "å¿µ": 1289,
      "ç»ľ": 1290,
      "æ±½": 1291,
      "æĮ¥": 1292,
      "åºĹ": 1293,
      "æķĳ": 1294,
      "å½ķ": 1295,
      "æĬĵ": 1296,
      "åı¤": 1297,
      "æ¿": 1298,
      "ä¸´": 1299,
      "éĻĪ": 1300,
      "æĦ¿": 1301,
      "Ġåľ¨": 1302,
      "æĢ¥": 1303,
      "çĻ»": 1304,
      "åĥ": 1305,
      "ir": 1306,
      "åİĭ": 1307,
      "ç»¼": 1308,
      "000": 1309,
      "åį¡": 1310,
      "å·´": 1311,
      "åĩ»": 1312,
      "Ġit": 1313,
      "èĭı": 1314,
      "å³": 1315,
      "ç»į": 1316,
      "åºŃ": 1317,
      "çĬ¶": 1318,
      "æŃ¦": 1319,
      "çķĻ": 1320,
      "æĹ©": 1321,
      "å¥ĸ": 1322,
      "æ¿Ģ": 1323,
      "éĹ»": 1324,
      "ä»Ģ": 1325,
      "ç½Ĺ": 1326,
      "é²": 1327,
      "åħŃ": 1328,
      "%ãĢĤ": 1329,
      "å¯Ĩ": 1330,
      "éĢĤ": 1331,
      "äº«": 1332,
      "é¢ĳ": 1333,
      "çº³": 1334,
      "é¦Ĩ": 1335,
      "ĠM": 1336,
      "å®ģ": 1337,
      "æŃ¢": 1338,
      "æĭ¬": 1339,
      "ç¼ĸ": 1340,
      "ä»ĺ": 1341,
      "èī¯": 1342,
      "æĿ¿": 1343,
      "è§ī": 1344,
      "çĭ¬": 1345,
      "åģľ": 1346,
      "è½»": 1347,
      "åį°": 1348,
      "å¸Į": 1349,
      "æ¶ī": 1350,
      "è¡Ĺ": 1351,
      "è¯¾": 1352,
      "å²ģ": 1353,
      "Ġal": 1354,
      "åįĪ": 1355,
      "åĤ": 1356,
      "å©": 1357,
      "å®Ŀ": 1358,
      "50": 1359,
      "ul": 1360,
      "Ġan": 1361,
      "è¯»": 1362,
      "æ¤": 1363,
      "å°½": 1364,
      "æĽ¾": 1365,
      "çŃ¾": 1366,
      "åįĥ": 1367,
      "æīĺ": 1368,
      "pp": 1369,
      "éĴ±": 1370,
      "ç«ŀ": 1371,
      "éŁ³": 1372,
      "å¤Ł": 1373,
      "ill": 1374,
      "åĪ¤": 1375,
      "çĶ»": 1376,
      "åģĩ": 1377,
      "Ġpro": 1378,
      "å¾ħ": 1379,
      "Ġ2": 1380,
      "åĥı": 1381,
      "çīĪ": 1382,
      "se": 1383,
      "è°Ī": 1384,
      "å®Ī": 1385,
      "ĠP": 1386,
      "åºı": 1387,
      "é¦Ļ": 1388,
      "æ¬§": 1389,
      "è´·": 1390,
      "Ġas": 1391,
      "ç§»": 1392,
      "ç´¢": 1393,
      "èĳ£": 1394,
      "å¾ģ": 1395,
      "un": 1396,
      "åħį": 1397,
      "å¹ħ": 1398,
      "Ġhe": 1399,
      "18": 1400,
      "åĪĺ": 1401,
      "Ġare": 1402,
      "ç«ł": 1403,
      "æİ¢": 1404,
      "Ġ201": 1405,
      "ç®Ģ": 1406,
      "å¸ģ": 1407,
      "æĻļ": 1408,
      "åĲ¯": 1409,
      "ers": 1410,
      "å®³": 1411,
      "éĺ¿": 1412,
      "é£ŀ": 1413,
      "14": 1414,
      "åĲ¬": 1415,
      "è´¸": 1416,
      "Ġï¼Ī": 1417,
      "è§Ĵ": 1418,
      "çĶ·": 1419,
      "å®ĥ": 1420,
      "ĠB": 1421,
      "è¿°": 1422,
      "åºĨ": 1423,
      "ç»©": 1424,
      "16": 1425,
      "ç«¯": 1426,
      "if": 1427,
      "Ġwh": 1428,
      "äºĪ": 1429,
      "æĤ£": 1430,
      "åħ«": 1431,
      "åĬ³": 1432,
      "ke": 1433,
      "æ¥¼": 1434,
      "åħ°": 1435,
      "å¥¥": 1436,
      "éģĩ": 1437,
      "2023": 1438,
      "oo": 1439,
      "çŁŃ": 1440,
      "13": 1441,
      "é¡»": 1442,
      "ä¸°": 1443,
      "éĢĢ": 1444,
      "å¥Ĺ": 1445,
      "åĲ¦": 1446,
      "ç½ª": 1447,
      "è¯Ń": 1448,
      "ge": 1449,
      "Ġha": 1450,
      "æĵ": 1451,
      "Ġwe": 1452,
      "åĪĳ": 1453,
      "çľ¼": 1454,
      "åį´": 1455,
      "æ¦": 1456,
      "å·®": 1457,
      "ter": 1458,
      "æī¶": 1459,
      "Ġor": 1460,
      "Ġæį®": 1461,
      "åİħ": 1462,
      "è¾ĵ": 1463,
      "åĲ¸": 1464,
      "éħĴ": 1465,
      "ä»į": 1466,
      "Ġcon": 1467,
      "åĬ±": 1468,
      "æī¾": 1469,
      "éľ²": 1470,
      "åı¦": 1471,
      "æŁĵ": 1472,
      "çĨ": 1473,
      "æ´²": 1474,
      "é¸": 1475,
      "çĬ¯": 1476,
      "åĨĻ": 1477,
      "åº§": 1478,
      "17": 1479,
      "æ¾": 1480,
      "ess": 1481,
      "è½½": 1482,
      "åı¬": 1483,
      "æĪª": 1484,
      "ç§Ģ": 1485,
      "éĵ¾": 1486,
      "ç½²": 1487,
      "è¾Ĩ": 1488,
      "æī©": 1489,
      "ç¿": 1490,
      "ç»ĥ": 1491,
      "éĴĪ": 1492,
      "éĢīæĭ": 1493,
      "åĲĥ": 1494,
      "æ±ĩ": 1495,
      "éĽ¨": 1496,
      "æ³¢": 1497,
      "æ¶¨": 1498,
      "ĠW": 1499,
      "åĸľ": 1500,
      "çĶ°": 1501,
      "çĵ": 1502,
      "æİĪ": 1503,
      "éĢĲ": 1504,
      "um": 1505,
      "çĽĸ": 1506,
      "åĪļ": 1507,
      "èĹ": 1508,
      "åºĵ": 1509,
      "Ġcom": 1510,
      "her": 1511,
      "åİĤ": 1512,
      "é¼": 1513,
      "âĢĺ": 1514,
      "ab": 1515,
      "çĮ®": 1516,
      "çŃĳ": 1517,
      "åĨł": 1518,
      "æ±ī": 1519,
      "çĸĳ": 1520,
      "çģ¾": 1521,
      "ä¹Ŀ": 1522,
      "æŀĲ": 1523,
      "25": 1524,
      "èĴ": 1525,
      "Ġyour": 1526,
      "è¡Ģ": 1527,
      "ate": 1528,
      "è·µ": 1529,
      "æĳĦ": 1530,
      "24": 1531,
      "è´µ": 1532,
      "æ´¾": 1533,
      "æį¢": 1534,
      "est": 1535,
      "è´¯": 1536,
      "ä¼¤": 1537,
      "Ġä¸Ń": 1538,
      "åħµ": 1539,
      "æ²Ļ": 1540,
      "å»¶": 1541,
      "åĪ»": 1542,
      "æ¯Ĵ": 1543,
      "éģĹ": 1544,
      "æĥł": 1545,
      "ĠThe": 1546,
      "å·Ŀ": 1547,
      "ore": 1548,
      "å½©": 1549,
      "è·Ł": 1550,
      "æ¤į": 1551,
      "Ġ3": 1552,
      "çº·": 1553,
      "ĠH": 1554,
      "ac": 1555,
      "ç´¯": 1556,
      "åĢº": 1557,
      "ä»¤": 1558,
      "éĻĨ": 1559,
      "æ±¡": 1560,
      "éĺ¶": 1561,
      "ri": 1562,
      "é»ĳ": 1563,
      "æ¹¾": 1564,
      "æĶ»": 1565,
      "æ¬¢": 1566,
      "Ġat": 1567,
      "ä¸ĥ": 1568,
      "ĠF": 1569,
      "å¤«": 1570,
      "åįĸ": 1571,
      "Ġne": 1572,
      "æįŁ": 1573,
      "å·¦": 1574,
      "è½®": 1575,
      "100": 1576,
      "åį±": 1577,
      "å²Ľ": 1578,
      "èįī": 1579,
      "é¡º": 1580,
      "æłĳ": 1581,
      "Ġex": 1582,
      "æ¯į": 1583,
      "igh": 1584,
      "åĺ": 1585,
      "2020": 1586,
      "ld": 1587,
      "çĽĺ": 1588,
      "è¯¢": 1589,
      "å³°": 1590,
      "åı³": 1591,
      "ĠD": 1592,
      "ç½ļ": 1593,
      "èĻ½": 1594,
      "è®¢": 1595,
      "2022": 1596,
      "op": 1597,
      "è¿½": 1598,
      "ç§Ł": 1599,
      "æĭį": 1600,
      "æĬĹ": 1601,
      "¤Ĳ": 1602,
      "te": 1603,
      "æŃ»": 1604,
      "éĽª": 1605,
      "ment": 1606,
      "èĹı": 1607,
      "th": 1608,
      "åĿĹ": 1609,
      "é¤Ĳ": 1610,
      "å½»": 1611,
      "éĶ®": 1612,
      "äº®": 1613,
      "èĦ±": 1614,
      "Ġde": 1615,
      "åĳ³": 1616,
      "åĲ«": 1617,
      "è´´": 1618,
      "40": 1619,
      "èĵ": 1620,
      "23": 1621,
      "qu": 1622,
      "èĥľ": 1623,
      "ç¬¦": 1624,
      "åĬª": 1625,
      "ç¯": 1626,
      "ç¼º": 1627,
      "ure": 1628,
      "åĢŁ": 1629,
      "å¼Ĥ": 1630,
      "æĭ¿": 1631,
      "çĽŁ": 1632,
      "Ġ(": 1633,
      "rom": 1634,
      "å²Ĺ": 1635,
      "åħ¸": 1636,
      "è¿İ": 1637,
      "æĪı": 1638,
      "æĸĹ": 1639,
      "èĥĮ": 1640,
      "åĩĢ": 1641,
      "èıľ": 1642,
      "èį£": 1643,
      "æ°¸": 1644,
      "æı´": 1645,
      "å¤ı": 1646,
      "pe": 1647,
      "åĽº": 1648,
      "Ġse": 1649,
      "åĨ²": 1650,
      "60": 1651,
      "Ġv": 1652,
      "ĠR": 1653,
      "åĤ¨": 1654,
      "ç»Ŀ": 1655,
      "ist": 1656,
      "éĽ¶": 1657,
      "æĿ¾": 1658,
      "æĿ¨": 1659,
      "å·¨": 1660,
      "ant": 1661,
      "çĩ": 1662,
      "å°¼": 1663,
      "ive": 1664,
      "çŃ¹": 1665,
      "æŃĮ": 1666,
      "ä¸½": 1667,
      "éĨ": 1668,
      "Ġhave": 1669,
      "é©¾": 1670,
      "æ¡¥": 1671,
      "è¯Ĭ": 1672,
      "éŁ©": 1673,
      "22": 1674,
      "æ´ĭ": 1675,
      "æĮ¯": 1676,
      "ity": 1677,
      "ä¼ĳ": 1678,
      "èĸ": 1679,
      "çĥĪ": 1680,
      "éĻĦ": 1681,
      "èĪŀ": 1682,
      "æĤī": 1683,
      "å«": 1684,
      "os": 1685,
      "ĠL": 1686,
      "è·¨": 1687,
      "éº": 1688,
      "Ġcan": 1689,
      "art": 1690,
      "å·¡": 1691,
      "å©ļ": 1692,
      "Ġwas": 1693,
      "çĶļ": 1694,
      "å¨ģ": 1695,
      "æ¯ķ": 1696,
      "æĭ¥": 1697,
      "æ¶¦": 1698,
      "ust": 1699,
      "é²ľ": 1700,
      "çĳ": 1701,
      "ç«¥": 1702,
      "è´¦": 1703,
      "28": 1704,
      "é½": 1705,
      "ä¿Ħ": 1706,
      "æľĿ": 1707,
      "å®ľ": 1708,
      "ĠG": 1709,
      "26": 1710,
      "æĵį": 1711,
      "Ġch": 1712,
      "ç»ķ": 1713,
      "oc": 1714,
      "ä¹ħ": 1715,
      "æ¾³": 1716,
      "ort": 1717,
      "é¡¾": 1718,
      "çłģ": 1719,
      "èĪ¬": 1720,
      "æŀ¶": 1721,
      "Ġus": 1722,
      "å¹ķ": 1723,
      "Ġsh": 1724,
      "Ġthis": 1725,
      "ain": 1726,
      "one": 1727,
      "éĴŁ": 1728,
      "éĿł": 1729,
      "å°ļ": 1730,
      "æľ¨": 1731,
      "é¼ĵ": 1732,
      "ĠE": 1733,
      "æ´¥": 1734,
      "21": 1735,
      "Ġä¸Ģ": 1736,
      "çĦ¦": 1737,
      "Ġwill": 1738,
      "çĪ¶": 1739,
      "çŃĶ": 1740,
      "èĪ¹": 1741,
      "ä¼Ł": 1742,
      "éĢı": 1743,
      "nt": 1744,
      "27": 1745,
      "ies": 1746,
      "åĨ¬": 1747,
      "å¤ľ": 1748,
      "em": 1749,
      "æĹ¢": 1750,
      "æľĭ": 1751,
      "åĨ°": 1752,
      "éĽ·": 1753,
      "Ġnot": 1754,
      "2021": 1755,
      "è£ģ": 1756,
      "ç£": 1757,
      "é½Ĳ": 1758,
      "èĶ": 1759,
      "å´": 1760,
      "Ġr": 1761,
      "éĴ¢": 1762,
      "up": 1763,
      "çĸ¾": 1764,
      "æĢİ": 1765,
      "ä¼°": 1766,
      "æī¬": 1767,
      "Ġfrom": 1768,
      "è·ĳ": 1769,
      "å¦Ī": 1770,
      "è®¨": 1771,
      "é©»": 1772,
      "åĲ´": 1773,
      "and": 1774,
      "èĳĹ": 1775,
      "çĽĽ": 1776,
      "å¹¸": 1777,
      "80": 1778,
      "åłĤ": 1779,
      "åĨĮ": 1780,
      "ç²®": 1781,
      "é¥®": 1782,
      "éŃ": 1783,
      "æĺł": 1784,
      "2019": 1785,
      "å°Ħ": 1786,
      "Ġ0": 1787,
      "ight": 1788,
      "è¯º": 1789,
      "å¥ĭ": 1790,
      "å¥ĩ": 1791,
      "é¹": 1792,
      "è¦Ĩ": 1793,
      "å½Ĵ": 1794,
      "ome": 1795,
      "æı¡": 1796,
      "åĲī": 1797,
      "è°¢": 1798,
      "å²¸": 1799,
      "éĩĬ": 1800,
      "çİī": 1801,
      "æĽ²": 1802,
      "ä¼Ĭ": 1803,
      "æĿĤ": 1804,
      "å±¥": 1805,
      "æµĻ": 1806,
      "ä¼¼": 1807,
      "ç¦ģ": 1808,
      "ard": 1809,
      "éĶĻ": 1810,
      "Ġby": 1811,
      "ĠN": 1812,
      "èĮ¶": 1813,
      "ç¬Ķ": 1814,
      "çļ®": 1815,
      "od": 1816,
      "Ġ4": 1817,
      "éģ¿": 1818,
      "åĵª": 1819,
      "è¸": 1820,
      "ä¼į": 1821,
      "éļĲ": 1822,
      "29": 1823,
      "æħ§": 1824,
      "åĨ·": 1825,
      "æĭŁ": 1826,
      "all": 1827,
      "æĹĹ": 1828,
      "èĻĳ": 1829,
      "Ġwor": 1830,
      "è´¡": 1831,
      "ip": 1832,
      "æ¢¦": 1833,
      "Ġsu": 1834,
      "ä½³": 1835,
      "æĿŁ": 1836,
      "çŁ¿": 1837,
      "èģĺ": 1838,
      "çīĽ": 1839,
      "Ġle": 1840,
      "ä»ª": 1841,
      "ä¼Ļ": 1842,
      "æ²¿": 1843,
      "--": 1844,
      "å¼¹": 1845,
      "æĬ¢": 1846,
      "æĹ§": 1847,
      "é©¶": 1848,
      "ä¼´": 1849,
      "åĳ¼": 1850,
      "90": 1851,
      "ç©¿": 1852,
      "ä¹İ": 1853,
      "åĵĪ": 1854,
      "our": 1855,
      "70": 1856,
      "éĢĴ": 1857,
      "è®¯": 1858,
      "æļĸ": 1859,
      "Ġç¬¬": 1860,
      "åģ¿": 1861,
      "æļ´": 1862,
      "éĩİ": 1863,
      "æĺ¨": 1864,
      "2024": 1865,
      "æĭĵ": 1866,
      "è·Ŀ": 1867,
      "ine": 1868,
      "æķ£": 1869,
      "res": 1870,
      "out": 1871,
      "ost": 1872,
      "ud": 1873,
      "ould": 1874,
      "åĿĽ": 1875,
      "æĮĳ": 1876,
      "Ġpl": 1877,
      "ĠO": 1878,
      "ä¹ĺ": 1879,
      "ç¤¼": 1880,
      "iv": 1881,
      "æ²Ł": 1882,
      "ally": 1883,
      "åľĪ": 1884,
      "æīİ": 1885,
      "red": 1886,
      "æ¸ł": 1887,
      "èĦĳ": 1888,
      "æ½®": 1889,
      "éĺµ": 1890,
      "æ¡£": 1891,
      "æĢĢ": 1892,
      "èĽ": 1893,
      "çĨŁ": 1894,
      "èĤī": 1895,
      "Ġab": 1896,
      "Ġä¸º": 1897,
      "çī¢": 1898,
      "åľ³": 1899,
      "çĪĨ": 1900,
      "ä¸Ŀ": 1901,
      "çĥŁ": 1902,
      "gh": 1903,
      "Ġæľ¬": 1904,
      "æĲŃ": 1905,
      "åĭĩ": 1906,
      "2018": 1907,
      "è¯ļ": 1908,
      "ber": 1909,
      "è½¯": 1910,
      "ç§ĺ": 1911,
      "Ġ5": 1912,
      "å®Ĺ": 1913,
      "ç¼ĵ": 1914,
      "Ġall": 1915,
      "rou": 1916,
      "ide": 1917,
      "æ£®": 1918,
      "éľĩ": 1919,
      "ç²ī": 1920,
      "æ¸Ĳ": 1921,
      "åĿĲ": 1922,
      "king": 1923,
      "æ®ĭ": 1924,
      "æ³°": 1925,
      "åĢį": 1926,
      "31": 1927,
      "å¥¶": 1928,
      "æ½ľ": 1929,
      "åºĦ": 1930,
      "åĶ±": 1931,
      "ag": 1932,
      "å¦ĩ": 1933,
      "Ġè¿ĳ": 1934,
      "èĭ¥": 1935,
      "ç§ģ": 1936,
      "æ´Ĺ": 1937,
      "é¡¶": 1938,
      "åĲ¨": 1939,
      "æ´ģ": 1940,
      "ie": 1941,
      "çħ¤": 1942,
      "éĥĳ": 1943,
      "fe": 1944,
      "å±ĭ": 1945,
      "å¯»": 1946,
      "çĹĩ": 1947,
      "èĻļ": 1948,
      "å°ģ": 1949,
      "åĭŁ": 1950,
      "å°¤": 1951,
      "Ġdo": 1952,
      "çİ©": 1953,
      "èĭĹ": 1954,
      "ä¹Į": 1955,
      "äº©": 1956,
      "è¶ĭ": 1957,
      "ast": 1958,
      "åİļ": 1959,
      "è·Į": 1960,
      "åŃĻ": 1961,
      "35": 1962,
      "è¯¦": 1963,
      "çģµ": 1964,
      "ç¼´": 1965,
      "å¾Ĳ": 1966,
      "Ġk": 1967,
      "Ġj": 1968,
      "å«Į": 1969,
      "æĮĤ": 1970,
      "æ¦Ĥ": 1971,
      "ell": 1972,
      "æľĹ": 1973,
      "ĠãĢĬ": 1974,
      "æħ¢": 1975,
      "age": 1976,
      "èĭ¦": 1977,
      "æĻĵ": 1978,
      "å®½": 1979,
      "Ġcomp": 1980,
      "éĢĶ": 1981,
      "per": 1982,
      "èµµ": 1983,
      "çĩĥ": 1984,
      "è¿Ķ": 1985,
      "Ġè¿Ļ": 1986,
      "å¾Ħ": 1987,
      "é±": 1988,
      "éģŃ": 1989,
      "è¯¯": 1990,
      "ç¡¬": 1991,
      "æľ«": 1992,
      "2015": 1993,
      "éĺħ": 1994,
      "èĴĻ": 1995,
      "é±¼": 1996,
      "ä¹±": 1997,
      "ç¢³": 1998,
      "ice": 1999,
      "çĸĨ": 2000,
      "æ³Ľ": 2001,
      "æ´ª": 2002,
      "åĳĪ": 2003,
      "èª": 2004,
      "ks": 2005,
      "ind": 2006,
      "æ»ĳ": 2007,
      "æ±ł": 2008,
      "èµ¢": 2009,
      "å®ı": 2010,
      "æĺĮ": 2011,
      "æī£": 2012,
      "éĨĴ": 2013,
      "ear": 2014,
      "Ġma": 2015,
      "éģį": 2016,
      "å§ĵ": 2017,
      "ĠJ": 2018,
      "åĢĴ": 2019,
      "¹ģ": 2020,
      "åĺī": 2021,
      "ç¹ģ": 2022,
      "Ġad": 2023,
      "500": 2024,
      "æ¯Ľ": 2025,
      "è°ĭ": 2026,
      "ç¼©": 2027,
      "åŀĥ": 2028,
      "å¡Ķ": 2029,
      "åľ¾": 2030,
      "Ġwhe": 2031,
      "ial": 2032,
      "çŀ": 2033,
      "åı¶": 2034,
      "å¼±": 2035,
      "æİĮ": 2036,
      "è¡£": 2037,
      "å¼ĥ": 2038,
      "ç¬ĳ": 2039,
      "ĠĊ": 2040,
      "éª¨": 2041,
      "å¹¼": 2042,
      "Ġme": 2043,
      "çĳŀ": 2044,
      "è§¦": 2045,
      "åĿĢ": 2046,
      "èĥ¡": 2047,
      "æĴĳ": 2048,
      "çĤİ": 2049,
      "èĵĿ": 2050,
      "2017": 2051,
      "éĽĦ": 2052,
      "ions": 2053,
      "çº¸": 2054,
      "pt": 2055,
      "éī": 2056,
      "éī´": 2057,
      "Ġhas": 2058,
      "are": 2059,
      "èµ¶": 2060,
      "äº¡": 2061,
      "able": 2062,
      "2016": 2063,
      "199": 2064,
      "è¿ħ": 2065,
      "Ġen": 2066,
      "é¥Ń": 2067,
      "è§Ī": 2068,
      "åĶĲ": 2069,
      "Ġso": 2070,
      "ther": 2071,
      "ĠæŃ¤": 2072,
      "æĿ°": 2073,
      "Ġæĸ°": 2074,
      "éĤ®": 2075,
      "æĬ«": 2076,
      "èĦļ": 2077,
      "The": 2078,
      "Ġup": 2079,
      "æĿŃ": 2080,
      "Ġbut": 2081,
      "æ¢ģ": 2082,
      "ich": 2083,
      "æļĤ": 2084,
      "è¯į": 2085,
      "cc": 2086,
      "åı«": 2087,
      "æ¢ħ": 2088,
      "è´¥": 2089,
      "æģ¢": 2090,
      "é¾Ħ": 2091,
      "åģı": 2092,
      "è¡¡": 2093,
      "éħ¸": 2094,
      "æµª": 2095,
      "og": 2096,
      "Ġmy": 2097,
      "ç§ĭ": 2098,
      "çºł": 2099,
      "Ġout": 2100,
      "éĿĻ": 2101,
      "æľ±": 2102,
      "ite": 2103,
      "åĿ¦": 2104,
      "çģ¯": 2105,
      "èĤ¯": 2106,
      "è¯Ĺ": 2107,
      "æĿĢ": 2108,
      "æĬĺ": 2109,
      "Ġ6": 2110,
      "è¿·": 2111,
      "æĥĬ": 2112,
      "åĵ¥": 2113,
      "Ġour": 2114,
      "åºĬ": 2115,
      "èĨ": 2116,
      "é²ģ": 2117,
      "ry": 2118,
      "ated": 2119,
      "%ï¼Ľ": 2120,
      "æĩ": 2121,
      "Ġmore": 2122,
      "éªĹ": 2123,
      "å®¾": 2124,
      "åĴ¨": 2125,
      "è°·": 2126,
      "ime": 2127,
      "Ġä»Ĭ": 2128,
      "éļĶ": 2129,
      "å»ī": 2130,
      "2014": 2131,
      "éĤĢ": 2132,
      "è¿¹": 2133,
      "very": 2134,
      "éĹŃ": 2135,
      "ä½Ľ": 2136,
      "èµĶ": 2137,
      "èĤ¥": 2138,
      "ç®±": 2139,
      "pl": 2140,
      "ä¼¦": 2141,
      "åĳ¢": 2142,
      "Ġ10": 2143,
      "æ®Ĭ": 2144,
      "so": 2145,
      "ç¯ĩ": 2146,
      "è¿ģ": 2147,
      "æĿ¯": 2148,
      "ĠTh": 2149,
      "æ²ī": 2150,
      "æ³ī": 2151,
      "ç±į": 2152,
      "ail": 2153,
      "å±ı": 2154,
      "å®¿": 2155,
      "çĶĺ": 2156,
      "Ġcl": 2157,
      "éĶĭ": 2158,
      "Ġthey": 2159,
      "33": 2160,
      "è¿ª": 2161,
      "ood": 2162,
      "åĲĹ": 2163,
      "å¤º": 2164,
      "çĹĽ": 2165,
      "çªĹ": 2166,
      "èªī": 2167,
      "Ġå¯¹": 2168,
      "èµŀ": 2169,
      "ong": 2170,
      "ç¿»": 2171,
      "ance": 2172,
      "è¶£": 2173,
      "ç¥ĸ": 2174,
      "æģ¶": 2175,
      "èµ´": 2176,
      "ph": 2177,
      "ä¾§": 2178,
      "ack": 2179,
      "æĬµ": 2180,
      "æ¢°": 2181,
      "åĭ¤": 2182,
      "åħ¼": 2183,
      "è¾ī": 2184,
      "du": 2185,
      "ous": 2186,
      "éĽħ": 2187,
      "è°ģ": 2188,
      "for": 2189,
      "éĹ²": 2190,
      "iz": 2191,
      "45": 2192,
      "±ä¹Ĳ": 2193,
      "èħĲ": 2194,
      "çķħ": 2195,
      "Ġè®°": 2196,
      "ans": 2197,
      "'s": 2198,
      "å®ĩ": 2199,
      "çĶ²": 2200,
      "çĵ¦": 2201,
      "Ġim": 2202,
      "ll": 2203,
      "ä¸¹": 2204,
      "Ġone": 2205,
      "èĲ¨": 2206,
      "æĬ½": 2207,
      "è¾ĸ": 2208,
      "æĻ¨": 2209,
      "ĠU": 2210,
      "å£®": 2211,
      "å¿Ļ": 2212,
      "Ġ200": 2213,
      "è±ª": 2214,
      "æĸ¤": 2215,
      "éĥŃ": 2216,
      "èĽĭ": 2217,
      "act": 2218,
      "åºŁ": 2219,
      "36": 2220,
      "Ġcont": 2221,
      "çĺ": 2222,
      "ike": 2223,
      "Ġä¸į": 2224,
      "æĲº": 2225,
      "Ġun": 2226,
      "åį·": 2227,
      "çıł": 2228,
      "ĠåĽ½": 2229,
      "æ¶µ": 2230,
      "ace": 2231,
      "è¾ħ": 2232,
      "èľ": 2233,
      "ãĢĲ": 2234,
      "ä¾µ": 2235,
      "é¥°": 2236,
      "æ¦ľ": 2237,
      "éĻķ": 2238,
      "å¾ª": 2239,
      "ib": 2240,
      "Ġman": 2241,
      "ĠIn": 2242,
      "Ġä»İ": 2243,
      "èĤĥ": 2244,
      "ãĢĳ": 2245,
      "è·³": 2246,
      "300": 2247,
      "2000": 2248,
      "æįĲ": 2249,
      "æķ¢": 2250,
      "æŀª": 2251,
      "æĤ¨": 2252,
      "å®«": 2253,
      "èįĲ": 2254,
      "åı¥": 2255,
      "çīĻ": 2256,
      "æįķ": 2257,
      "Ġå½ĵ": 2258,
      "åĿı": 2259,
      "åĶ¯": 2260,
      "éº¦": 2261,
      "åĪĬ": 2262,
      "éģµ": 2263,
      "èĤº": 2264,
      "ook": 2265,
      "Ġ7": 2266,
      "åľĨ": 2267,
      "çĮª": 2268,
      "éĶ¦": 2269,
      "ire": 2270,
      "2013": 2271,
      "çĽ¾": 2272,
      "cl": 2273,
      "reat": 2274,
      "æ¹¿": 2275,
      "ia": 2276,
      "å¾½": 2277,
      "èĦ¸": 2278,
      "ap": 2279,
      "æģĲ": 2280,
      "æ³½": 2281,
      "è´Ŀ": 2282,
      "èµĭ": 2283,
      "èĸª": 2284,
      "è¾ĳ": 2285,
      "Ġte": 2286,
      "ign": 2287,
      "Ġfe": 2288,
      "æ··": 2289,
      "æķ¬": 2290,
      "æ°Ľ": 2291,
      "æī«": 2292,
      "åīĤ": 2293,
      "Ġapp": 2294,
      "æģ©": 2295,
      "èİ«": 2296,
      "èħ¾": 2297,
      "åĩŃ": 2298,
      "å¼Ł": 2299,
      "ase": 2300,
      "37": 2301,
      "æ¶²": 2302,
      "å¦»": 2303,
      "æĪ´": 2304,
      "ĠäºĮ": 2305,
      "ep": 2306,
      "ven": 2307,
      "å¡ŀ": 2308,
      "éķľ": 2309,
      "ne": 2310,
      "æ´Ľ": 2311,
      "ç«Ł": 2312,
      "åĩ¡": 2313,
      "åĪº": 2314,
      "æ®ĸ": 2315,
      "è½¨": 2316,
      "æİī": 2317,
      "ĠY": 2318,
      "ru": 2319,
      "Ġ8": 2320,
      "ult": 2321,
      "Ġqu": 2322,
      "åĩĿ": 2323,
      "å°Ĭ": 2324,
      "æ¯«": 2325,
      "æµĵ": 2326,
      "æĹ¦": 2327,
      "to": 2328,
      "é©±": 2329,
      "und": 2330,
      "ass": 2331,
      "å¯Ĵ": 2332,
      "Ġany": 2333,
      "Ġres": 2334,
      "çº½": 2335,
      "å¿ł": 2336,
      "Ġä¸ī": 2337,
      "ç³ĸ": 2338,
      "åĩĮ": 2339,
      "è°ĵ": 2340,
      "Ġgo": 2341,
      "çĪ¸": 2342,
      "34": 2343,
      "åĿ¡": 2344,
      "38": 2345,
      "Ġalso": 2346,
      "Ġtime": 2347,
      "ree": 2348,
      "æĳ©": 2349,
      "æķı": 2350,
      "çĮ«": 2351,
      "çīµ": 2352,
      "è·ĥ": 2353,
      "èĢķ": 2354,
      "ical": 2355,
      "å¢Ļ": 2356,
      "Ġ9": 2357,
      "ä»ĵ": 2358,
      "æ´ŀ": 2359,
      "ĠK": 2360,
      "çº¯": 2361,
      "av": 2362,
      "æĢķ": 2363,
      "éĺ»": 2364,
      "ction": 2365,
      "Ġper": 2366,
      "äºķ": 2367,
      "åĲ§": 2368,
      "ç¯®": 2369,
      "Ġoff": 2370,
      "Ġwho": 2371,
      "2012": 2372,
      "erv": 2373,
      "æĭ¨": 2374,
      "åİ¦": 2375,
      "ä¿Ĺ": 2376,
      "ww": 2377,
      "ach": 2378,
      "æĮĸ": 2379,
      "Ġnum": 2380,
      "ove": 2381,
      "èĢ³": 2382,
      "æį·": 2383,
      "æ¼«": 2384,
      "..": 2385,
      "ä¹ı": 2386,
      "ov": 2387,
      "æĳĨ": 2388,
      "çŁĽ": 2389,
      "é»ĺ": 2390,
      "é¸¡": 2391,
      "ents": 2392,
      "å¡«": 2393,
      "éĵº": 2394,
      "é¡¿": 2395,
      "åĭĴ": 2396,
      "å¡ĳ": 2397,
      "ays": 2398,
      "æ²Ī": 2399,
      "form": 2400,
      "ile": 2401,
      "çī§": 2402,
      "éº»": 2403,
      "è¿Ī": 2404,
      "è®¼": 2405,
      "Ġsp": 2406,
      "èĪį": 2407,
      "ame": 2408,
      "æĿľ": 2409,
      "ä¹³": 2410,
      "åĬ²": 2411,
      "è±Ĩ": 2412,
      "èı²": 2413,
      "å¿ĺ": 2414,
      "ak": 2415,
      "ĠIt": 2416,
      "æĭĨ": 2417,
      "1000": 2418,
      "ue": 2419,
      "Ġdis": 2420,
      "ç¥Ŀ": 2421,
      "Ġlike": 2422,
      "ä¼ı": 2423,
      "ount": 2424,
      "å®ĭ": 2425,
      "å§Ĳ": 2426,
      "Ġsome": 2427,
      "ĠV": 2428,
      "ub": 2429,
      "75": 2430,
      "å¾Ĵ": 2431,
      "com": 2432,
      "ä¾¨": 2433,
      "æģĴ": 2434,
      "éļĨ": 2435,
      "æ»¨": 2436,
      "Ġnew": 2437,
      "çĤ¼": 2438,
      "åĢ¡": 2439,
      "æ¨ª": 2440,
      "ary": 2441,
      "å¿Ĩ": 2442,
      "48": 2443,
      "èĥŀ": 2444,
      "è¾½": 2445,
      "æĥ¯": 2446,
      "ors": 2447,
      "Ġ19": 2448,
      "Ġneed": 2449,
      "ä¸ģ": 2450,
      "ç¨¿": 2451,
      "Ġyear": 2452,
      "ff": 2453,
      "Ġpart": 2454,
      "Ġget": 2455,
      "éĶģ": 2456,
      "è¢Ń": 2457,
      "è¿«": 2458,
      "æĲľ": 2459,
      "èĻİ": 2460,
      "ence": 2461,
      "åĢ¾": 2462,
      "ç¾Ĭ": 2463,
      "now": 2464,
      "å½¹": 2465,
      "Ġä½ľ": 2466,
      "ick": 2467,
      "è¾ŀ": 2468,
      "32": 2469,
      "æĺĨ": 2470,
      "æĽ¿": 2471,
      "39": 2472,
      "éĻµ": 2473,
      "ä¼¯": 2474,
      "æĭĴ": 2475,
      "æĬ±": 2476,
      "æ¼ı": 2477,
      "æ³¥": 2478,
      "èĢĹ": 2479,
      "è¯Ī": 2480,
      "vel": 2481,
      "æĳ¸": 2482,
      "Ġro": 2483,
      "çıį": 2484,
      "å®ħ": 2485,
      "46": 2486,
      "çĴ": 2487,
      "55": 2488,
      "æİĺ": 2489,
      "éŀ": 2490,
      "Ġthem": 2491,
      "èļ": 2492,
      "çĥ§": 2493,
      "ark": 2494,
      "æ¥ļ": 2495,
      "Ġä¸Ĭ": 2496,
      "Ġ11": 2497,
      "ĠCh": 2498,
      "è¹": 2499,
      "Ġhis": 2500,
      "Ġspe": 2501,
      "æºª": 2502,
      "éĻ·": 2503,
      "åĸĿ": 2504,
      "Ġæł¹": 2505,
      "Ġsa": 2506,
      "Ġover": 2507,
      "Ġif": 2508,
      "å²©": 2509,
      "æĽ¼": 2510,
      "ition": 2511,
      "åĪ·": 2512,
      "Ġwhen": 2513,
      "æĻĭ": 2514,
      "æĭ¼": 2515,
      "ĠæĪĳ": 2516,
      "ings": 2517,
      "Ġtra": 2518,
      "ç¼ĺ": 2519,
      "å¯¿": 2520,
      "å¥Ķ": 2521,
      "æ·»": 2522,
      "éĢĥ": 2523,
      "èĦī": 2524,
      "09": 2525,
      "Ġåħ¬": 2526,
      "ond": 2527,
      "çĤ¸": 2528,
      "å§Ĩ": 2529,
      "èµı": 2530,
      "æıŃ": 2531,
      "è¯¸": 2532,
      "èİ±": 2533,
      "çĽĪ": 2534,
      "ç§¦": 2535,
      "Ġ12": 2536,
      "Ġä¼ļ": 2537,
      "é»İ": 2538,
      "99": 2539,
      "åĩ¤": 2540,
      "åľ£": 2541,
      "ob": 2542,
      "åĩ¯": 2543,
      "ough": 2544,
      "Ġ-": 2545,
      "ĠSt": 2546,
      "2011": 2547,
      "å°¾": 2548,
      "Ġwork": 2549,
      "çļĩ": 2550,
      "ä»ģ": 2551,
      "Ġbeen": 2552,
      "ose": 2553,
      "çĿ¡": 2554,
      "èķ": 2555,
      "èį·": 2556,
      "èĶ¬": 2557,
      "ens": 2558,
      "æĲŀ": 2559,
      "æĹ¨": 2560,
      "è²": 2561,
      "ound": 2562,
      "ake": 2563,
      "æ¬£": 2564,
      "Ġimp": 2565,
      "ck": 2566,
      "çĨĬ": 2567,
      "Ġwhat": 2568,
      "Ġäºº": 2569,
      "05": 2570,
      "ress": 2571,
      "ç»ĺ": 2572,
      "Ġpe": 2573,
      "æłı": 2574,
      "ç«¹": 2575,
      "éĵľ": 2576,
      "ord": 2577,
      "é¡µ": 2578,
      "Ġar": 2579,
      "Ġpre": 2580,
      "ĠæĹ¥": 2581,
      "2010": 2582,
      "å¿§": 2583,
      "Ġam": 2584,
      "èıĮ": 2585,
      "é¢Ĺ": 2586,
      "æļ¨": 2587,
      "æĭľ": 2588,
      "Ġsc": 2589,
      "æ¢¯": 2590,
      "08": 2591,
      "æ¹ĺ": 2592,
      "Ġag": 2593,
      "low": 2594,
      "ĠWe": 2595,
      "ĠåİŁ": 2596,
      "å£ģ": 2597,
      "Ġthan": 2598,
      "oy": 2599,
      "åĪĢ": 2600,
      "èĪĴ": 2601,
      "æ§": 2602,
      "ĠãĢĲ": 2603,
      "åĨĴ": 2604,
      "65": 2605,
      "èī°": 2606,
      "èĢĲ": 2607,
      "è°Ĳ": 2608,
      "æĿĨ": 2609,
      "åģ¶": 2610,
      "è²Į": 2611,
      "è¾Ľ": 2612,
      "æ°§": 2613,
      "æĲ¬": 2614,
      "ç¥¥": 2615,
      "èµł": 2616,
      "æ¡Ĥ": 2617,
      "ĠåĮĹ": 2618,
      "èĥ¶": 2619,
      "éĺ´": 2620,
      "Ġå¦Ĥ": 2621,
      "Ġwere": 2622,
      "è¸ª": 2623,
      "çºµ": 2624,
      "44": 2625,
      "85": 2626,
      "éĻª": 2627,
      "ish": 2628,
      "wn": 2629,
      "æĬ¼": 2630,
      "å²Ń": 2631,
      "ild": 2632,
      "æĩĤ": 2633,
      "çĸı": 2634,
      "çĵ¶": 2635,
      "é¢ģ": 2636,
      "Ġjust": 2637,
      "ĠåĽĽ": 2638,
      "åŁĥ": 2639,
      "07": 2640,
      "int": 2641,
      "èĪ°": 2642,
      "lp": 2643,
      "æµ¦": 2644,
      "çĽĲ": 2645,
      "ä¿Ĭ": 2646,
      "01": 2647,
      "Ġdes": 2648,
      "åī©": 2649,
      "ä¼¸": 2650,
      "å¼ĺ": 2651,
      "å¦¹": 2652,
      "é¸Ł": 2653,
      "çĻĮ": 2654,
      "ç»ª": 2655,
      "å¢¨": 2656,
      "å°Ŀ": 2657,
      "é¢ľ": 2658,
      "Ġknow": 2659,
      "Ġ\"": 2660,
      "æµ®": 2661,
      "éĤ»": 2662,
      "ĠæĽ´": 2663,
      "å¥ĳ": 2664,
      "49": 2665,
      "åŃĶ": 2666,
      "èĬ³": 2667,
      "ang": 2668,
      "Ġacc": 2669,
      "ren": 2670,
      "åį¢": 2671,
      "å½°": 2672,
      "43": 2673,
      "æĹģ": 2674,
      "47": 2675,
      "æ¸Ķ": 2676,
      "ĠçĽ®": 2677,
      "æĹº": 2678,
      "å·©": 2679,
      "Ġhad": 2680,
      "ç¢į": 2681,
      "çĽĹ": 2682,
      "æĳĺ": 2683,
      "2008": 2684,
      "èĸĦ": 2685,
      "ç§©": 2686,
      "ä¾¦": 2687,
      "ä¼ª": 2688,
      "çĪ·": 2689,
      "Ġhow": 2690,
      "åłµ": 2691,
      "éĤ¦": 2692,
      "é¹ı": 2693,
      "ĠThis": 2694,
      "æ±Ľ": 2695,
      "06": 2696,
      "æĴ¤": 2697,
      "use": 2698,
      "rough": 2699,
      "Ġinto": 2700,
      "æķ¦": 2701,
      "Ġits": 2702,
      "ĠæĿİ": 2703,
      "ater": 2704,
      "Ġmake": 2705,
      "éĢ¾": 2706,
      "88": 2707,
      "æ²ª": 2708,
      "vers": 2709,
      "èµ¤": 2710,
      "Ġå¤§": 2711,
      "æ±¤": 2712,
      "ç§Ĵ": 2713,
      "çĭ±": 2714,
      "ç¨»": 2715,
      "äº¦": 2716,
      "å¥ī": 2717,
      "å¯Ħ": 2718,
      "95": 2719,
      "å·§": 2720,
      "éĻ¶": 2721,
      "2009": 2722,
      "å³¡": 2723,
      "æ¡ĥ": 2724,
      "ning": 2725,
      "ople": 2726,
      "phone": 2727,
      "own": 2728,
      "Ġrec": 2729,
      "03": 2730,
      "åĲĽ": 2731,
      "èī¾": 2732,
      "Ġprov": 2733,
      "Ġhelp": 2734,
      "Ġå¼ł": 2735,
      "66": 2736,
      "Ġpr": 2737,
      "Ġç¾İ": 2738,
      "mer": 2739,
      "Ġaf": 2740,
      "æµ©": 2741,
      "åĩī": 2742,
      "irst": 2743,
      "çģŃ": 2744,
      "42": 2745,
      "æıı": 2746,
      "ä½©": 2747,
      "Ġadd": 2748,
      "æī°": 2749,
      "lic": 2750,
      "æ¸¡": 2751,
      "ram": 2752,
      "èµĸ": 2753,
      "çİĽ": 2754,
      "åķĬ": 2755,
      "èĶ¡": 2756,
      "è¡Ķ": 2757,
      "Ġcol": 2758,
      "Ġ|": 2759,
      "Ġéļı": 2760,
      "rent": 2761,
      "ful": 2762,
      "tern": 2763,
      "èĤ¤": 2764,
      "end": 2765,
      "Ġåħ¶": 2766,
      "æ·¡": 2767,
      "400": 2768,
      "anc": 2769,
      "clud": 2770,
      "Ġher": 2771,
      "ĠåĲĮ": 2772,
      "Ġbec": 2773,
      "ĠâĢĶ": 2774,
      "æħ°": 2775,
      "Ġbu": 2776,
      "æĸĮ": 2777,
      "ory": 2778,
      "èĬ¯": 2779,
      "Ġæľī": 2780,
      "Ġuse": 2781,
      "çĵľ": 2782,
      "Ġç»ı": 2783,
      "åħģ": 2784,
      "itt": 2785,
      "Ġserv": 2786,
      "Ġçİĭ": 2787,
      "âĢĵ": 2788,
      "èģĬ": 2789,
      "åĩ½": 2790,
      "æ¡Į": 2791,
      "æ±Ĺ": 2792,
      "æ·ĺ": 2793,
      "ink": 2794,
      "ious": 2795,
      "æħİ": 2796,
      "56": 2797,
      "58": 2798,
      "Ġco": 2799,
      "æļĳ": 2800,
      "è¢ĭ": 2801,
      "äºı": 2802,
      "04": 2803,
      "ft": 2804,
      "Ġmay": 2805,
      "å¸Ŀ": 2806,
      "æĽĿ": 2807,
      "å°ĸ": 2808,
      "èĥİ": 2809,
      "çķª": 2810,
      "3000": 2811,
      "ual": 2812,
      "èµģ": 2813,
      "æĴŀ": 2814,
      "Ġtw": 2815,
      "Ġtr": 2816,
      "å°¿": 2817,
      "æĮº": 2818,
      "Ġonly": 2819,
      "æķĮ": 2820,
      "æ©": 2821,
      "æĻĴ": 2822,
      "æ¶Ľ": 2823,
      "Ġï¼ī": 2824,
      "æļĹ": 2825,
      "02": 2826,
      "old": 2827,
      "ç¡ķ": 2828,
      "41": 2829,
      "ï½": 2830,
      "Ġï¼Į": 2831,
      "å»Ĭ": 2832,
      "ian": 2833,
      "çĩķ": 2834,
      ").": 2835,
      "æ¼Ĥ": 2836,
      "78": 2837,
      "hed": 2838,
      "åģ·": 2839,
      "Ġåħ¨": 2840,
      "æ°ı": 2841,
      "åłĨ": 2842,
      "je": 2843,
      "åĿĬ": 2844,
      "ĠåĬł": 2845,
      "æ£ļ": 2846,
      "ç®Ń": 2847,
      "Ġmost": 2848,
      "èį¡": 2849,
      "Ġcomm": 2850,
      "å´ĩ": 2851,
      "çģĮ": 2852,
      "éŃĤ": 2853,
      "è¸ı": 2854,
      "Ġph": 2855,
      "å¨ľ": 2856,
      "è´º": 2857,
      "cn": 2858,
      "Ġ2023": 2859,
      "ç¢ĳ": 2860,
      "èĦı": 2861,
      "ç¢°": 2862,
      "è°±": 2863,
      "å½Ń": 2864,
      "éĺĶ": 2865,
      "æĭĸ": 2866,
      "åıĻ": 2867,
      "ons": 2868,
      "68": 2869,
      "æ²ĥ": 2870,
      "5000": 2871,
      "åĨ»": 2872,
      "Ġ[": 2873,
      "Ġno": 2874,
      "ç£¨": 2875,
      "ãĢĶ": 2876,
      "ãĢķ": 2877,
      "éĢĨ": 2878,
      "æħĪ": 2879,
      "ç²¤": 2880,
      "èĵĦ": 2881,
      "æĦĪ": 2882,
      "Ġind": 2883,
      "åīĳ": 2884,
      "å¢ĵ": 2885,
      "è£Ĥ": 2886,
      "é¦Ī": 2887,
      "Ġwell": 2888,
      "éĤĵ": 2889,
      "æŁ³": 2890,
      "we": 2891,
      "Ġcons": 2892,
      "èħ¿": 2893,
      "ause": 2894,
      "fect": 2895,
      "å§ľ": 2896,
      "æŁ´": 2897,
      "ä»¿": 2898,
      "å¥ı": 2899,
      "73": 2900,
      "æ³¡": 2901,
      "èµļ": 2902,
      "æ¬ł": 2903,
      "æĹ¬": 2904,
      "ĠHe": 2905,
      "éĢ»": 2906,
      "å°ĺ": 2907,
      "æĭĶ": 2908,
      "èī³": 2909,
      "Ľèµ·": 2910,
      "Ġèĩª": 2911,
      "æŁ±": 2912,
      "ices": 2913,
      "amp": 2914,
      "57": 2915,
      "å®ª": 2916,
      "Ġund": 2917,
      "ates": 2918,
      "round": 2919,
      "ating": 2920,
      "Ġbl": 2921,
      "les": 2922,
      "æĪĴ": 2923,
      "hen": 2924,
      "æ¡Ĩ": 2925,
      "Ġbet": 2926,
      "ily": 2927,
      "59": 2928,
      "ade": 2929,
      "Ġæĺ¨": 2930,
      "éªĳ": 2931,
      "52": 2932,
      "å©Ĩ": 2933,
      "éĹ¹": 2934,
      "èĻ«": 2935,
      "æĳĩ": 2936,
      "ï½ŀ": 2937,
      "æĹ±": 2938,
      "çĤĴ": 2939,
      "æ·®": 2940,
      "æ»´": 2941,
      "è¿Ł": 2942,
      "oth": 2943,
      "æĥ©": 2944,
      "æ¶Į": 2945,
      "æ¬²": 2946,
      "ise": 2947,
      "éĶ¡": 2948,
      "ä¹ĥ": 2949,
      "xt": 2950,
      "ĠèĢĮ": 2951,
      "åŃŁ": 2952,
      "æ¯ģ": 2953,
      "è´¾": 2954,
      "ĠâĢĵ": 2955,
      "æ¡ĳ": 2956,
      "ĠYou": 2957,
      "76": 2958,
      "Ġact": 2959,
      "ç´«": 2960,
      "Ġra": 2961,
      "èĭ¹": 2962,
      "èĪŁ": 2963,
      "bs": 2964,
      "ities": 2965,
      "ä¼Ĳ": 2966,
      "æĽ¹": 2967,
      "è¾©": 2968,
      "Ġ2019": 2969,
      "ject": 2970,
      "Ġwant": 2971,
      "Ġå¸Ĥ": 2972,
      "iness": 2973,
      "app": 2974,
      "èĢĢ": 2975,
      "åĵ²": 2976,
      "ĠæľĢ": 2977,
      "Ġå¹´": 2978,
      "å¿½": 2979,
      "éĽ¾": 2980,
      "å¨ĺ": 2981,
      "Ġem": 2982,
      "600": 2983,
      "å¯¨": 2984,
      "å¸ħ": 2985,
      "tele": 2986,
      "åįĵ": 2987,
      "Ġdif": 2988,
      "é¸£": 2989,
      "ict": 2990,
      "è£ķ": 2991,
      "åĤħ": 2992,
      "lect": 2993,
      "ħåĬĽ": 2994,
      "æ»©": 2995,
      "Ġmany": 2996,
      "å¯º": 2997,
      "èĨľ": 2998,
      "çĤŃ": 2999,
      "51": 3000,
      "cess": 3001,
      "Ġreg": 3002,
      "als": 3003,
      "èĥģ": 3004,
      "åħĳ": 3005,
      "Ġfl": 3006,
      "fore": 3007,
      "å£¤": 3008,
      "**": 3009,
      "ä¹Ķ": 3010,
      "å²³": 3011,
      "Ġsee": 3012,
      "ä¹Ļ": 3013,
      "Ġåıĳ": 3014,
      "AI": 3015,
      "åİī": 3016,
      "æĻ¶": 3017,
      "ä»Ķ": 3018,
      "æłĭ": 3019,
      "æĭĺ": 3020,
      "ange": 3021,
      "day": 3022,
      "è¡°": 3023,
      "ert": 3024,
      "æģ°": 3025,
      "æĤ¦": 3026,
      "Th": 3027,
      "Ġå¹¿": 3028,
      "98": 3029,
      "éĶ»": 3030,
      "çº²": 3031,
      "æĶĢ": 3032,
      "ments": 3033,
      "Ġä»ĸ": 3034,
      "Ġ15": 3035,
      "67": 3036,
      "æĤ¬": 3037,
      "èĤĸ": 3038,
      "éŀĭ": 3039,
      "120": 3040,
      "erson": 3041,
      "Ġrep": 3042,
      "Ġç½ĳ": 3043,
      "æĻ°": 3044,
      "æĹĭ": 3045,
      "Ġ2020": 3046,
      "æģĭ": 3047,
      "iew": 3048,
      "alth": 3049,
      "å¡ĺ": 3050,
      "éĴŀ": 3051,
      "53": 3052,
      "enc": 3053,
      "èĳ¡": 3054,
      "Ġä»¥": 3055,
      "åħĦ": 3056,
      "Ġvery": 3057,
      "çĶľ": 3058,
      "198": 3059,
      "ç½©": 3060,
      "ife": 3061,
      "è´¤": 3062,
      "éĶħ": 3063,
      "è¾Ī": 3064,
      "èİ²": 3065,
      "Ġsupp": 3066,
      "èĥ¸": 3067,
      "æ½ĺ": 3068,
      "æ¸Ŀ": 3069,
      "èįĴ": 3070,
      "æĨ": 3071,
      "2007": 3072,
      "duct": 3073,
      "ec": 3074,
      "),": 3075,
      "ty": 3076,
      "uch": 3077,
      "Ġsy": 3078,
      "ont": 3079,
      "åİ¨": 3080,
      "åł¡": 3081,
      "Ġbus": 3082,
      "æ£ĭ": 3083,
      "æŁĶ": 3084,
      "Ġway": 3085,
      "Ġä½Ĩ": 3086,
      "72": 3087,
      "Ġeven": 3088,
      "çĭĤ": 3089,
      "oss": 3090,
      "Ġtwo": 3091,
      "åĬ£": 3092,
      "åĮ¹": 3093,
      "'t": 3094,
      "è°Ĭ": 3095,
      "ract": 3096,
      "Ġback": 3097,
      "ss": 3098,
      "Ġshe": 3099,
      "èĤ¿": 3100,
      "Ġrel": 3101,
      "å©´": 3102,
      "Ġins": 3103,
      "å°º": 3104,
      "èĪĨ": 3105,
      "Ġä¸İ": 3106,
      "row": 3107,
      "ible": 3108,
      "åĨ¯": 3109,
      "any": 3110,
      "Ġgood": 3111,
      "get": 3112,
      "å¾¡": 3113,
      "æ¢³": 3114,
      "Ġac": 3115,
      "æ¶Ĥ": 3116,
      "çĲ´": 3117,
      "Ġé¡¹": 3118,
      "é¸¿": 3119,
      "å¨ĥ": 3120,
      "çĺ¤": 3121,
      "eth": 3122,
      "èİİ": 3123,
      "åĲĲ": 3124,
      "ific": 3125,
      "led": 3126,
      "æ¯ħ": 3127,
      "çģ°": 3128,
      "æĭ³": 3129,
      "åī²": 3130,
      "79": 3131,
      "âĳ": 3132,
      "ĠåıĤ": 3133,
      "åĿĿ": 3134,
      "ç©Ĩ": 3135,
      "è¯ĳ": 3136,
      "ew": 3137,
      "çĤ®": 3138,
      "åĹ": 3139,
      "Ġinv": 3140,
      "ts": 3141,
      "èħ¹": 3142,
      "ting": 3143,
      "çĤī": 3144,
      "åĸ·": 3145,
      "Ġbest": 3146,
      "Ġke": 3147,
      "æĤŁ": 3148,
      "ool": 3149,
      "ĠçĶ±": 3150,
      "è°¨": 3151,
      "Ġspec": 3152,
      "åī¥": 3153,
      "Ġ2018": 3154,
      "éĽķ": 3155,
      "iss": 3156,
      "ä¸Ī": 3157,
      "ility": 3158,
      "Ġ2016": 3159,
      "éĨī": 3160,
      "èĴĭ": 3161,
      "èĮĤ": 3162,
      "çİ»": 3163,
      "Ġrem": 3164,
      "çłĸ": 3165,
      "54": 3166,
      "åŃ¤": 3167,
      "ms": 3168,
      "èĲĦ": 3169,
      "æĵ¦": 3170,
      "æıĴ": 3171,
      "ience": 3172,
      "Ġä¸ĭ": 3173,
      "æĳĬ": 3174,
      "å§ļ": 3175,
      "Ġinst": 3176,
      "Ġloc": 3177,
      "Ġstud": 3178,
      "ç¨Ģ": 3179,
      "elf": 3180,
      "èħ°": 3181,
      "ĠéĻ¤": 3182,
      "Ġåı¦": 3183,
      "çĮĽ": 3184,
      "Ġass": 3185,
      "----": 3186,
      "Ġthen": 3187,
      "Ġinc": 3188,
      "www": 3189,
      "Ġè¯¥": 3190,
      "ä»²": 3191,
      "ĠIf": 3192,
      "aw": 3193,
      "Ġcar": 3194,
      "è¢ģ": 3195,
      "èĴĤ": 3196,
      "åĭĥ": 3197,
      "pect": 3198,
      "ular": 3199,
      "æŁľ": 3200,
      "å¯¸": 3201,
      "ature": 3202,
      "its": 3203,
      "æ¤ħ": 3204,
      "éĹª": 3205,
      "å»·": 3206,
      "åĴĸ": 3207,
      "é©°": 3208,
      "æ»ĭ": 3209,
      "Ġfind": 3210,
      "æŁı": 3211,
      "Ġev": 3212,
      "å½¼": 3213,
      "éľŀ": 3214,
      "urn": 3215,
      "96": 3216,
      "ics": 3217,
      "èĤ©": 3218,
      "ĠæĬ¥": 3219,
      "å¦¥": 3220,
      "èĥĢ": 3221,
      "éĦ": 3222,
      "å¦Ļ": 3223,
      "Ġfin": 3224,
      "ĠåĽ¾": 3225,
      "Ġsm": 3226,
      "èĦĤ": 3227,
      "ĠéĢļ": 3228,
      "150": 3229,
      "æ»ļ": 3230,
      "Ġä¸»": 3231,
      "Ġown": 3232,
      "ĠäºĶ": 3233,
      "åĬĿ": 3234,
      "çŀ¬": 3235,
      "ç²Ĵ": 3236,
      "rit": 3237,
      "Ġmuch": 3238,
      "åĺ´": 3239,
      "Ġhigh": 3240,
      "éħ¬": 3241,
      "è¯ŀ": 3242,
      "çķľ": 3243,
      "Ġnow": 3244,
      "line": 3245,
      "é¢ĩ": 3246,
      "çĥ¦": 3247,
      "ower": 3248,
      "çĽ²": 3249,
      "Ġsuch": 3250,
      "Ġ&": 3251,
      "æ±ª": 3252,
      "io": 3253,
      "æľ´": 3254,
      "æĮ¡": 3255,
      "64": 3256,
      "sh": 3257,
      "æŀĿ": 3258,
      "åŃķ": 3259,
      "Ġav": 3260,
      "Ġdec": 3261,
      "å¯ĵ": 3262,
      "æ³³": 3263,
      "é¢ĸ": 3264,
      "olog": 3265,
      "èĤĿ": 3266,
      "2006": 3267,
      "ative": 3268,
      "æ½Ń": 3269,
      "63": 3270,
      "åŃĿ": 3271,
      "èĻ¹": 3272,
      "ng": 3273,
      "åĲ¹": 3274,
      "æ°¢": 3275,
      "åĲģ": 3276,
      "ç¥Ń": 3277,
      "ç¿¼": 3278,
      "hes": 3279,
      "æĥľ": 3280,
      "Ġsaid": 3281,
      "Ġdon": 3282,
      "mm": 3283,
      "ĠWh": 3284,
      "69": 3285,
      "Ġåħ³": 3286,
      "åıł": 3287,
      "å··": 3288,
      "çħĮ": 3289,
      "ç¿Ķ": 3290,
      "éľį": 3291,
      "éĶĲ": 3292,
      "æ£ī": 3293,
      "uring": 3294,
      "ward": 3295,
      "å®´": 3296,
      "çŃĽ": 3297,
      "Ġent": 3298,
      "èĤł": 3299,
      "77": 3300,
      "Ġset": 3301,
      "Ġhome": 3302,
      "Ġsec": 3303,
      "62": 3304,
      "éĥģ": 3305,
      "ath": 3306,
      "Ġread": 3307,
      "arket": 3308,
      "ç»µ": 3309,
      "Ġgu": 3310,
      "Ġplay": 3311,
      "è¡·": 3312,
      "æĢª": 3313,
      "èĥĥ": 3314,
      "éŁ¦": 3315,
      "ĠåĪĺ": 3316,
      "å¸ķ": 3317,
      "ç¼Ŀ": 3318,
      "éģ¥": 3319,
      "æĤ²": 3320,
      "Ġfam": 3321,
      "ased": 3322,
      "æ£Ĵ": 3323,
      "èīĩ": 3324,
      "è´¿": 3325,
      "ä¸²": 3326,
      "Ġrequ": 3327,
      "é¥±": 3328,
      "Ġ09": 3329,
      "æ»ŀ": 3330,
      "ys": 3331,
      "Ġ2015": 3332,
      "èµ«": 3333,
      "æ·Ģ": 3334,
      "ï¼ļ[": 3335,
      "800": 3336,
      "æŀ¢": 3337,
      "é¢Ī": 3338,
      "oint": 3339,
      "ĠãĢĤ": 3340,
      "Ġche": 3341,
      "èĪ±": 3342,
      "èĪ¶": 3343,
      "velop": 3344,
      "å¹»": 3345,
      "éľ¸": 3346,
      "çĽĴ": 3347,
      "åĭĺ": 3348,
      "Ġ2017": 3349,
      "åĲķ": 3350,
      "éĴ»": 3351,
      "ash": 3352,
      "å¸Ĩ": 3353,
      "å¿į": 3354,
      "å¼Ĺ": 3355,
      "ĠæĪª": 3356,
      "çĽ¼": 3357,
      "èŁ": 3358,
      "ient": 3359,
      "Ġå°ı": 3360,
      "ä»°": 3361,
      "è¯±": 3362,
      "Ġdown": 3363,
      "çĵ·": 3364,
      "åŁĭ": 3365,
      "çĲ³": 3366,
      "å§¿": 3367,
      "éĵŃ": 3368,
      "Ġday": 3369,
      "ener": 3370,
      "Ġmin": 3371,
      "åĨĢ": 3372,
      "Ġtoo": 3373,
      "å¦Ĩ": 3374,
      "89": 3375,
      "Ġ20": 3376,
      "ai": 3377,
      "stem": 3378,
      "ble": 3379,
      "ç¢İ": 3380,
      "æµ¸": 3381,
      "èĥĨ": 3382,
      "çĶ¸": 3383,
      "arch": 3384,
      "ied": 3385,
      "åĤ¬": 3386,
      "å¤ķ": 3387,
      "åĿª": 3388,
      "ç£ĭ": 3389,
      "ä»Ļ": 3390,
      "Ġé«ĺ": 3391,
      "ality": 3392,
      "ÃĹ": 3393,
      "Ġmed": 3394,
      "ix": 3395,
      "æĬĳ": 3396,
      "å¼Ħ": 3397,
      "74": 3398,
      "Ġlong": 3399,
      "gan": 3400,
      "pen": 3401,
      "åºŀ": 3402,
      "Ġtake": 3403,
      "åºĻ": 3404,
      "æĤł": 3405,
      "2005": 3406,
      "Ġbr": 3407,
      "61": 3408,
      "èĬ¬": 3409,
      "Ġinte": 3410,
      "ĠRe": 3411,
      "su": 3412,
      "Ġmade": 3413,
      "ĠéĻĪ": 3414,
      "æº¢": 3415,
      "aèĤ¡": 3416,
      "ock": 3417,
      "ax": 3418,
      "èĤĮ": 3419,
      "Ġçİ°": 3420,
      "ç©·": 3421,
      "ĠPro": 3422,
      "æĬļ": 3423,
      "71": 3424,
      "çĮ´": 3425,
      "çĴĥ": 3426,
      "éŃı": 3427,
      "æĤĶ": 3428,
      "url": 3429,
      "Ġ2022": 3430,
      "PP": 3431,
      "æīĳ": 3432,
      "Ġmod": 3433,
      "ited": 3434,
      "èķ´": 3435,
      "other": 3436,
      "æĺĤ": 3437,
      "è¾Ĳ": 3438,
      "Ġsim": 3439,
      "Ġshow": 3440,
      "çĽ¯": 3441,
      "Ġdid": 3442,
      "ner": 3443,
      "Ġmon": 3444,
      "è¹Ī": 3445,
      "Ġcre": 3446,
      "Ġå¼Ģ": 3447,
      "Ġ14": 3448,
      "ç£ģ": 3449,
      "æĹŃ": 3450,
      "æŁ¯": 3451,
      "air": 3452,
      "åĮł": 3453,
      "éħ·": 3454,
      "å³»": 3455,
      "æłª": 3456,
      "çĬ¹": 3457,
      "In": 3458,
      "äºŃ": 3459,
      "çĭĹ": 3460,
      "Ġused": 3461,
      "Ġdoes": 3462,
      "èĬĿ": 3463,
      "ĠæĹ¶": 3464,
      "çŁ©": 3465,
      "æ³ª": 3466,
      "Ġ2014": 3467,
      "Ġhand": 3468,
      "éĢ¼": 3469,
      "æ¬º": 3470,
      "rest": 3471,
      "ps": 3472,
      "éŃĶ": 3473,
      "æīŃ": 3474,
      "çİ²": 3475,
      "ç²Ĺ": 3476,
      "èµĮ": 3477,
      "Ġwee": 3478,
      "æ¡¶": 3479,
      "chn": 3480,
      "ident": 3481,
      "ull": 3482,
      "éĵ¸": 3483,
      "å¥Ī": 3484,
      "çĸ²": 3485,
      "ç»¸": 3486,
      "æĪĪ": 3487,
      "åīª": 3488,
      "èĲĮ": 3489,
      "åķ¡": 3490,
      "åĸĬ": 3491,
      "èĿ": 3492,
      "å§»": 3493,
      "Ġåľ°": 3494,
      "çªĥ": 3495,
      "ï¼İ": 3496,
      "èħĬ": 3497,
      "87": 3498,
      "ST": 3499,
      "Ġsur": 3500,
      "Ġatt": 3501,
      "æŀļ": 3502,
      "ork": 3503,
      "ç¼ħ": 3504,
      "gd": 3505,
      "ç¨į": 3506,
      "åĿĳ": 3507,
      "åİķ": 3508,
      "çĬ¬": 3509,
      "é³": 3510,
      "è´ª": 3511,
      "æ³Ħ": 3512,
      "åİĺ": 3513,
      "rib": 3514,
      "å§ĳ": 3515,
      "æ¾¡": 3516,
      "ually": 3517,
      "Ġlove": 3518,
      "æī®": 3519,
      "çĪ½": 3520,
      "ins": 3521,
      "Ġeas": 3522,
      "å¸½": 3523,
      "æĮ¤": 3524,
      "Ġdisc": 3525,
      "ba": 3526,
      "ĠCom": 3527,
      "èħĶ": 3528,
      "Ġæĸĩ": 3529,
      "æ¼ł": 3530,
      "å¤¯": 3531,
      "æĥĳ": 3532,
      "CA": 3533,
      "è¾°": 3534,
      "åĵŃ": 3535,
      "ĠAnd": 3536,
      "æĺķ": 3537,
      "çľł": 3538,
      "èĳ¬": 3539,
      "ather": 3540,
      "Ġend": 3541,
      "çĲ¼": 3542,
      "Ġlife": 3543,
      "å¼¥": 3544,
      "çĸ¼": 3545,
      "86": 3546,
      "Ġ$": 3547,
      "Ġcur": 3548,
      "atch": 3549,
      "é¼»": 3550,
      "ank": 3551,
      "ä¸¢": 3552,
      "Ġexp": 3553,
      "å¥ł": 3554,
      "ĠFor": 3555,
      "Ġvis": 3556,
      "%ãĢģ": 3557,
      "az": 3558,
      "Ġéĩĩ": 3559,
      "çĦķ": 3560,
      "cept": 3561,
      "Ġæ³ķ": 3562,
      "Ġpres": 3563,
      "ustom": 3564,
      "åłª": 3565,
      "ata": 3566,
      "ason": 3567,
      "Ġ2013": 3568,
      "gram": 3569,
      "ĠUn": 3570,
      "ages": 3571,
      "110": 3572,
      "ĠåĪĨ": 3573,
      "èİŀ": 3574,
      "µåĮĸ": 3575,
      "âĢĿ,": 3576,
      "èĮħ": 3577,
      "èİī": 3578,
      "ef": 3579,
      "Ġhere": 3580,
      "Ġçī¹": 3581,
      "è´©": 3582,
      "ç½Ĳ": 3583,
      "ier": 3584,
      "ç¾½": 3585,
      "Ġcall": 3586,
      "82": 3587,
      "Ġ30": 3588,
      "æĦģ": 3589,
      "ces": 3590,
      "èħº": 3591,
      "der": 3592,
      "ĠçĽ¸": 3593,
      "é¥²": 3594,
      "éĢ¢": 3595,
      "ional": 3596,
      "æĬĽ": 3597,
      "Ġfree": 3598,
      "Ġart": 3599,
      "Ġäºĭ": 3600,
      "é¥¼": 3601,
      "chool": 3602,
      "Ġstr": 3603,
      "åı¹": 3604,
      "è¾Ł": 3605,
      "gdp": 3606,
      "ĊĠĊ": 3607,
      "ç§ī": 3608,
      "åĲĬ": 3609,
      "æ±°": 3610,
      "ale": 3611,
      "åįľ": 3612,
      "éĺģ": 3613,
      "ced": 3614,
      "ç»ĳ": 3615,
      "iet": 3616,
      "arn": 3617,
      "ah": 3618,
      "ç³ķ": 3619,
      "olut": 3620,
      "æĵħ": 3621,
      "è¾£": 3622,
      "oad": 3623,
      "ince": 3624,
      "els": 3625,
      "Ġä¸ĵ": 3626,
      "çº¹": 3627,
      "83": 3628,
      "å±Ī": 3629,
      "Ġmem": 3630,
      "ouse": 3631,
      "Ġè¯ģ": 3632,
      "çĭł": 3633,
      "We": 3634,
      "æ³Ĭ": 3635,
      "ways": 3636,
      "çľī": 3637,
      "è¾¨": 3638,
      "ĠAl": 3639,
      "read": 3640,
      "Ġlook": 3641,
      "åħ½": 3642,
      "Ġ----": 3643,
      "Ġ16": 3644,
      "è½°": 3645,
      "Ġcare": 3646,
      "ple": 3647,
      "%ï¼ī": 3648,
      "èĵ¬": 3649,
      "èľľ": 3650,
      "ving": 3651,
      "Ġå·¥": 3652,
      "4000": 3653,
      "ç¢§": 3654,
      "Ġç»ĵ": 3655,
      "ina": 3656,
      "å®ł": 3657,
      "çĥĤ": 3658,
      "Ġlist": 3659,
      "Ġeach": 3660,
      "åħĨ": 3661,
      "æĢĸ": 3662,
      "ever": 3663,
      "land": 3664,
      "Ġbo": 3665,
      "Ġ2021": 3666,
      "è½´": 3667,
      "97": 3668,
      "ä¸§": 3669,
      "éĺĲ": 3670,
      "å£³": 3671,
      "åıī": 3672,
      "æķ²": 3673,
      "Ġdet": 3674,
      "åĩ¸": 3675,
      "ug": 3676,
      "æµħ": 3677,
      "Ġä¸ĩ": 3678,
      "éĥİ": 3679,
      "éĹ½": 3680,
      "çĿĽ": 3681,
      "åĽĬ": 3682,
      "Ġsub": 3683,
      "çº¤": 3684,
      "81": 3685,
      "Ġéĩį": 3686,
      "æĸĳ": 3687,
      "2004": 3688,
      "Ġadv": 3689,
      "ï¹": 3690,
      "åħ¹": 3691,
      "å¼¯": 3692,
      "å´Ķ": 3693,
      "Ġlast": 3694,
      "Ġed": 3695,
      "ness": 3696,
      "ĠåĲĦ": 3697,
      "èĲį": 3698,
      "erm": 3699,
      "uc": 3700,
      "Ġcour": 3701,
      "Ġfol": 3702,
      "Ġchar": 3703,
      "Ġgra": 3704,
      "ĠåĽł": 3705,
      "çĽĨ": 3706,
      "84": 3707,
      "ines": 3708,
      "Ġpol": 3709,
      "Ġret": 3710,
      "pr": 3711,
      "Ġsk": 3712,
      "Ġboth": 3713,
      "ç£Ĭ": 3714,
      "æĩĪ": 3715,
      "ĠæĿ¥": 3716,
      "çļĨ": 3717,
      "de": 3718,
      "æ¡©": 3719,
      "Ġ13": 3720,
      "way": 3721,
      "ĠæĳĦ": 3722,
      "èĻ¾": 3723,
      "ave": 3724,
      "é¹¿": 3725,
      "ize": 3726,
      "Ġpost": 3727,
      "çĪ¬": 3728,
      "çī²": 3729,
      "æı½": 3730,
      "Ġloo": 3731,
      "ital": 3732,
      "Ġpay": 3733,
      "çĮİ": 3734,
      "imes": 3735,
      "93": 3736,
      "è¡į": 3737,
      "Ġprof": 3738,
      "çªĿ": 3739,
      "Ġhim": 3740,
      "éŁµ": 3741,
      "Ġaut": 3742,
      "Ġç¦ı": 3743,
      "èīĺ": 3744,
      "æĲı": 3745,
      "æĵİ": 3746,
      "åĸĤ": 3747,
      "è±«": 3748,
      "çĮľ": 3749,
      "Ġæµ·": 3750,
      "è½¿": 3751,
      "æº¯": 3752,
      "2003": 3753,
      "ives": 3754,
      "æł½": 3755,
      "æŃ§": 3756,
      "å±¡": 3757,
      "Ġ.": 3758,
      "Ġtop": 3759,
      "ĠåįĹ": 3760,
      "ĠSh": 3761,
      "!!": 3762,
      "less": 3763,
      "éĦĤ": 3764,
      "Ġé¦ĸ": 3765,
      "Ġpub": 3766,
      "Ġteam": 3767,
      "éĳ": 3768,
      "ä¿©": 3769,
      "éĳ«": 3770,
      "ric": 3771,
      "æĢ¨": 3772,
      "Ġcle": 3773,
      "ures": 3774,
      "çºº": 3775,
      "ĠAs": 3776,
      "ç½ķ": 3777,
      "92": 3778,
      "å½¦": 3779,
      "åŀĤ": 3780,
      "Ġ17": 3781,
      "æĸľ": 3782,
      "Ġæķ°": 3783,
      "ci": 3784,
      "Ġ/": 3785,
      "æ¸Ĺ": 3786,
      "åŀĦ": 3787,
      "irect": 3788,
      "èĲĿ": 3789,
      "Ġdel": 3790,
      "ets": 3791,
      "riend": 3792,
      "lease": 3793,
      "This": 3794,
      "ä¾¯": 3795,
      "Ġsom": 3796,
      "91": 3797,
      "ten": 3798,
      "éĢĬ": 3799,
      "éĵĿ": 3800,
      "Ġopt": 3801,
      "æĴĴ": 3802,
      "Ġser": 3803,
      "åıĶ": 3804,
      "åµ": 3805,
      "ĠAn": 3806,
      "è£Ķ": 3807,
      "æħ¨": 3808,
      "que": 3809,
      "Ġfun": 3810,
      "ĠåħŃ": 3811,
      "èĮ¨": 3812,
      "éĥĬ": 3813,
      "oun": 3814,
      "ç¦½": 3815,
      "Ġä¹ł": 3816,
      "Ġå¤ļ": 3817,
      "èĴ¸": 3818,
      "åł¤": 3819,
      "Ġ199": 3820,
      "éĶĤ": 3821,
      "aut": 3822,
      "Ġlot": 3823,
      "unity": 3824,
      "é¹°": 3825,
      "é¼İ": 3826,
      "èľĤ": 3827,
      "Ġform": 3828,
      "Ġfew": 3829,
      "éģı": 3830,
      "ining": 3831,
      "ĠCl": 3832,
      "gg": 3833,
      "æĬĸ": 3834,
      "Ġpur": 3835,
      "éĵĥ": 3836,
      "arm": 3837,
      "æ§Ľ": 3838,
      "æĢĴ": 3839,
      "Ġext": 3840,
      "å¤¹": 3841,
      "éĹ¯": 3842,
      "Ġå®ŀ": 3843,
      "éĽģ": 3844,
      "çĥ¤": 3845,
      "æħķ": 3846,
      "æĬ¬": 3847,
      "é¹¤": 3848,
      "Ġæ°ĳ": 3849,
      "Ġpat": 3850,
      "ç¢Ĺ": 3851,
      "Ġlead": 3852,
      "Ġgl": 3853,
      "Ġè¿Ľ": 3854,
      "Ġplan": 3855,
      "ern": 3856,
      "éĨĩ": 3857,
      "Ġ2009": 3858,
      "ĠæĮī": 3859,
      "ä»Ĺ": 3860,
      "94": 3861,
      "åĬ«": 3862,
      "ç»£": 3863,
      "Ġå»º": 3864,
      "Ġide": 3865,
      "è°£": 3866,
      "Ġvar": 3867,
      "ĠéĴĪ": 3868,
      "æĭ©": 3869,
      "ved": 3870,
      "Ġåİ»": 3871,
      "2025": 3872,
      "âħ": 3873,
      "ex": 3874,
      "ĠèµĦ": 3875,
      "éĤµ": 3876,
      "ween": 3877,
      "éĹ¸": 3878,
      "1500": 3879,
      "çªĦ": 3880,
      "Ġåı°": 3881,
      "æ¶¯": 3882,
      "çłĤ": 3883,
      "å¡Į": 3884,
      "ivers": 3885,
      "æĤĦ": 3886,
      "ï¼ħ": 3887,
      "å·¾": 3888,
      "æį§": 3889,
      "iel": 3890,
      "æĻ´": 3891,
      "Ġkeep": 3892,
      "åĿ¤": 3893,
      "Ġ18": 3894,
      "ittle": 3895,
      "ER": 3896,
      "è½©": 3897,
      "aking": 3898,
      "æİ©": 3899,
      "æĨ¾": 3900,
      "ĠèģĶ": 3901,
      "Ġ2012": 3902,
      "é£ĺ": 3903,
      "èµ£": 3904,
      "è°Ń": 3905,
      "Ġsure": 3906,
      "ients": 3907,
      "Ġé©¬": 3908,
      "éļ§": 3909,
      "æ¤Ĵ": 3910,
      "iving": 3911,
      "ĠBut": 3912,
      "£å·¥": 3913,
      "âĢķ": 3914,
      "Ġint": 3915,
      "èĳĽ": 3916,
      "èĢ¶": 3917,
      "æ´½": 3918,
      "èĬ½": 3919,
      "Ġlar": 3920,
      "Ġhapp": 3921,
      "ES": 3922,
      "view": 3923,
      "Ġæ±Ł": 3924,
      "è¢ĸ": 3925,
      "ĠèĻ½": 3926,
      "Ġsame": 3927,
      "å«ģ": 3928,
      "ized": 3929,
      "åīĬ": 3930,
      "ering": 3931,
      "Ġfeel": 3932,
      "ç»İ": 3933,
      "èĩ£": 3934,
      "6000": 3935,
      "èįĨ": 3936,
      "be": 3937,
      "ware": 3938,
      "Ġsign": 3939,
      "gov": 3940,
      "Ġæ·±": 3941,
      "Ġve": 3942,
      "Ġopen": 3943,
      "æĿī": 3944,
      "å¥¢": 3945,
      "Ġdata": 3946,
      "ross": 3947,
      "Wh": 3948,
      "å®Ļ": 3949,
      "me": 3950,
      "Ġåįģ": 3951,
      "ĠThey": 3952,
      "co": 3953,
      "ody": 3954,
      "éĻĮ": 3955,
      "ology": 3956,
      "Ġæ²³": 3957,
      "ĠåŁº": 3958,
      "æİĢ": 3959,
      "ĠåĢ¼": 3960,
      "thing": 3961,
      "Ġrun": 3962,
      "ĠæľĪ": 3963,
      "éĺľ": 3964,
      "åĺ±": 3965,
      "æĮ£": 3966,
      "å´©": 3967,
      "åĴ±": 3968,
      "ars": 3969,
      "éĴ©": 3970,
      "]ï¼ī": 3971,
      "èªĵ": 3972,
      "ç»³": 3973,
      "âĢ¢": 3974,
      "Ġty": 3975,
      "Ġposs": 3976,
      "æľµ": 3977,
      "ants": 3978,
      "Ġéĩĳ": 3979,
      "Ġèĩ³": 3980,
      "au": 3981,
      "çĲª": 3982,
      "Ġval": 3983,
      "èĦĲ": 3984,
      "ºçī²": 3985,
      "ä¿±": 3986,
      "ç³Ĭ": 3987,
      "å°¹": 3988,
      "é©¿": 3989,
      "ĠNew": 3990,
      "Ġå¤©": 3991,
      "Ġé»Ħ": 3992,
      "alk": 3993,
      "æĭ¦": 3994,
      "ç¬¼": 3995,
      "let": 3996,
      "Ġreal": 3997,
      "æĥ¨": 3998,
      "çĺ¦": 3999,
      "bers": 4000,
      "arly": 4001,
      "man": 4002,
      "ger": 4003,
      "Ġpri": 4004,
      "ĠAd": 4005,
      "IP": 4006,
      "Ġéķ¿": 4007,
      "åį§": 4008,
      "Ġæīĵ": 4009,
      "Ġæ¯ı": 4010,
      "æĬ¹": 4011,
      "éĿĸ": 4012,
      "ä¸ĺ": 4013,
      "éħ¿": 4014,
      "ared": 4015,
      "Ġæ´»": 4016,
      "éľ¾": 4017,
      "æ§½": 4018,
      "kes": 4019,
      "Ġè¥¿": 4020,
      "éĢ¸": 4021,
      "åĸĢ": 4022,
      "é¸Ń": 4023,
      "Ġmust": 4024,
      "rol": 4025,
      "Ġrest": 4026,
      "Ġwebs": 4027,
      "ffect": 4028,
      "Ġcor": 4029,
      "æ·ĭ": 4030,
      "Ġbook": 4031,
      "2002": 4032,
      "ides": 4033,
      "é©³": 4034,
      "é¦¨": 4035,
      "èģª": 4036,
      "Ġ2024": 4037,
      "èŀº": 4038,
      "roup": 4039,
      "Ġob": 4040,
      "åŀ«": 4041,
      "Ġbel": 4042,
      "ton": 4043,
      "ĠéĿ¢": 4044,
      "Ġtry": 4045,
      "orts": 4046,
      "Ġmain": 4047,
      "AR": 4048,
      "rist": 4049,
      "åİ¢": 4050,
      "Ġsay": 4051,
      "è¶Ł": 4052,
      "æ»¥": 4053,
      "ĠDe": 4054,
      "å¹½": 4055,
      "åŀĴ": 4056,
      "+âĢĿ": 4057,
      "Ġç¼ĸ": 4058,
      "åį¸": 4059,
      "ĠåİĨ": 4060,
      "Ġref": 4061,
      "uss": 4062,
      "çĸ¯": 4063,
      "700": 4064,
      "æ¡Ĳ": 4065,
      "èĦĨ": 4066,
      "çĭ¼": 4067,
      "çķı": 4068,
      "ows": 4069,
      "æµ´": 4070,
      "èĤĩ": 4071,
      "stand": 4072,
      "Ġi": 4073,
      "ĠæıĲ": 4074,
      "ĠçĶµ": 4075,
      "èĤ¾": 4076,
      "æįŀ": 4077,
      "æīĩ": 4078,
      "èĭĳ": 4079,
      "the": 4080,
      "æ¾Ħ": 4081,
      "ired": 4082,
      "ames": 4083,
      "ights": 4084,
      "ç°": 4085,
      "ined": 4086,
      "ä¸Ľ": 4087,
      "ute": 4088,
      "ĠHow": 4089,
      "Ġdri": 4090,
      "Ġconf": 4091,
      "æ±ģ": 4092,
      "æ¢¨": 4093,
      "ĠæĹł": 4094,
      "Ġæ³¨": 4095,
      "åķ¥": 4096,
      "ĠçĦ¶": 4097,
      "Ġpass": 4098,
      "ider": 4099,
      "Ġ2010": 4100,
      "Ġbra": 4101,
      "çĨĻ": 4102,
      "Ġcome": 4103,
      "tt": 4104,
      "æħĮ": 4105,
      "ds": 4106,
      "æĮª": 4107,
      "Ġdef": 4108,
      "Ġput": 4109,
      "èĭį": 4110,
      "æĴ°": 4111,
      "é¬": 4112,
      "éģĤ": 4113,
      "rop": 4114,
      "qq": 4115,
      "é»Ķ": 4116,
      "æ¨±": 4117,
      "ural": 4118,
      "Ġfact": 4119,
      "gy": 4120,
      "Ġmus": 4121,
      "self": 4122,
      "ists": 4123,
      "å«©": 4124,
      "ruct": 4125,
      "ĠæĪĲ": 4126,
      "ç¿ł": 4127,
      "ves": 4128,
      "ĠâĢĿ": 4129,
      "Ġåĳ¨": 4130,
      "å±ł": 4131,
      "Ġwin": 4132,
      "of": 4133,
      "Ġä¸ľ": 4134,
      "Ġå±±": 4135,
      "æ®·": 4136,
      "åĤ²": 4137,
      "Ġnext": 4138,
      "feren": 4139,
      "é¼ł": 4140,
      "ploy": 4141,
      "Ġwr": 4142,
      "éĤ±": 4143,
      "éŁ§": 4144,
      "éĢĿ": 4145,
      "åŁĶ": 4146,
      "pm": 4147,
      "æĺĶ": 4148,
      "éĤ¹": 4149,
      "æĻĸ": 4150,
      "redit": 4151,
      ")ãĢĤ": 4152,
      "con": 4153,
      "ues": 4154,
      "Ġå®ī": 4155,
      "æĢ¡": 4156,
      "Ġrece": 4157,
      "oney": 4158,
      "éģ®": 4159,
      "èĬ¦": 4160,
      "ĠQ": 4161,
      "ccess": 4162,
      "Ġåįİ": 4163,
      "åĭ¾": 4164,
      "Ġroom": 4165,
      "CE": 4166,
      "æĿł": 4167,
      "è¯Ĩå´": 4168,
      "ĠLe": 4169,
      "æĭ¾": 4170,
      "ĠBl": 4171,
      "ĠçļĦ": 4172,
      "å»ĸ": 4173,
      "130": 4174,
      "ĠSe": 4175,
      "ately": 4176,
      "Ġphot": 4177,
      "bo": 4178,
      "ĠAr": 4179,
      "Ġeng": 4180,
      "Ġresp": 4181,
      "çıĬ": 4182,
      "èķ¾": 4183,
      "å·¢": 4184,
      "åĴ¬": 4185,
      "èĮ«": 4186,
      "It": 4187,
      "Ġå°±": 4188,
      "è¿Ń": 4189,
      "èĩŃ": 4190,
      "éĽĩ": 4191,
      "Ġbig": 4192,
      "è¤": 4193,
      "ĠåıĹ": 4194,
      "å½¬": 4195,
      "ided": 4196,
      "Ġable": 4197,
      "Ġä¸¤": 4198,
      "å±¯": 4199,
      "åĨĪ": 4200,
      "Ġcent": 4201,
      "çĦĬ": 4202,
      "Ġgive": 4203,
      "joy": 4204,
      "ĠPl": 4205,
      "Ġè¦ģ": 4206,
      "åĶ¤": 4207,
      "èıĬ": 4208,
      "ode": 4209,
      "ote": 4210,
      "åĩĳ": 4211,
      "na": 4212,
      "æ¸´": 4213,
      "ç¼Ĩ": 4214,
      "ç¿°": 4215,
      "ĠFr": 4216,
      "hone": 4217,
      "ĠæĬķ": 4218,
      "çĤ¬": 4219,
      "æ²§": 4220,
      "æ´Ĵ": 4221,
      "èĩĤ": 4222,
      ")ãĢģ": 4223,
      "ards": 4224,
      "éľī": 4225,
      "éª¤": 4226,
      "Ġtri": 4227,
      "cent": 4228,
      "é¡·": 4229,
      "çĿĲ": 4230,
      "å¨Ł": 4231,
      "å¤¸": 4232,
      "åĴ¸": 4233,
      "ĠæĿ¨": 4234,
      "åħĶ": 4235,
      "æłĸ": 4236,
      "åĿİ": 4237,
      "åĿł": 4238,
      "Ġfull": 4239,
      "cell": 4240,
      "æŃī": 4241,
      "over": 4242,
      "Ġcost": 4243,
      "ished": 4244,
      "è¾±": 4245,
      "ium": 4246,
      "©äºĨ": 4247,
      "Ġsal": 4248,
      ">>": 4249,
      "æĪļ": 4250,
      "åĨ¶": 4251,
      "Ġåīį": 4252,
      "åĲ¾": 4253,
      "å¼Ĭ": 4254,
      "çĹķ": 4255,
      "è°¦": 4256,
      "Ġ2008": 4257,
      "åīĸ": 4258,
      "Ġbro": 4259,
      "ling": 4260,
      "Ġfil": 4261,
      "ĠEx": 4262,
      "...": 4263,
      "Ġtru": 4264,
      "èĲ§": 4265,
      "åĸ»": 4266,
      "èļĬ": 4267,
      "çĭ®": 4268,
      "ĠBe": 4269,
      "ä»ĩ": 4270,
      "ral": 4271,
      "ĠéĤ£": 4272,
      "hip": 4273,
      "ä¾ł": 4274,
      "Ġopp": 4275,
      "Ġhead": 4276,
      "ä¼ŀ": 4277,
      "Ġcase": 4278,
      "èĶĵ": 4279,
      "meric": 4280,
      "å¸ľ": 4281,
      "å¦®": 4282,
      "Ġel": 4283,
      "ĠSo": 4284,
      "Ġèĭ±": 4285,
      "Ġrese": 4286,
      "Ġç§ĳ": 4287,
      "ĠæŃ£": 4288,
      "2001": 4289,
      "ducts": 4290,
      "ĠåĲĪ": 4291,
      "Ġdist": 4292,
      "ĠSp": 4293,
      "ior": 4294,
      "8000": 4295,
      "Ġå°½": 4296,
      "Ġinf": 4297,
      "Ġdays": 4298,
      "Ġgot": 4299,
      "é¾ļ": 4300,
      "If": 4301,
      "Ġfood": 4302,
      "Ġgame": 4303,
      "Ġexpl": 4304,
      "Ġhard": 4305,
      "Ġunt": 4306,
      "å¦¨": 4307,
      "oor": 4308,
      "æĳĶ": 4309,
      "ems": 4310,
      "opp": 4311,
      "æ²«": 4312,
      "ours": 4313,
      "ĠOn": 4314,
      ")ï¼Į": 4315,
      "åħľ": 4316,
      "Ġtest": 4317,
      "Ġsoc": 4318,
      "æ¶Ŀ": 4319,
      "åķ¤": 4320,
      "Ġarea": 4321,
      "ik": 4322,
      "iver": 4323,
      "Ġçľģ": 4324,
      "Ġben": 4325,
      "çªĳ": 4326,
      "åĥ§": 4327,
      "Ġåħļ": 4328,
      "Ġå¥³": 4329,
      "èĦĬ": 4330,
      "åĲµ": 4331,
      "æĸ¥": 4332,
      "æŀ£": 4333,
      "ON": 4334,
      "Ġcert": 4335,
      "ites": 4336,
      "lete": 4337,
      "load": 4338,
      "Ġéĺ¿": 4339,
      "ä½Ĳ": 4340,
      "è¯µ": 4341,
      "åĩ°": 4342,
      "pos": 4343,
      "reen": 4344,
      "å§¨": 4345,
      "ç¡«": 4346,
      "Ġsl": 4347,
      "çŁ«": 4348,
      "Ġgrow": 4349,
      "åĮ¿": 4350,
      "éģ£": 4351,
      "å©·": 4352,
      "é¬¼": 4353,
      "åĲĵ": 4354,
      "æĮ½": 4355,
      "èĵī": 4356,
      "orn": 4357,
      "ï¼Ī[": 4358,
      "Ġpop": 4359,
      "è£¤": 4360,
      "Ġgr": 4361,
      "Ġweek": 4362,
      "oot": 4363,
      "ĠéĿĴ": 4364,
      "æĬĦ": 4365,
      "åĻª": 4366,
      "åĩ¶": 4367,
      "éĴ¦": 4368,
      "ently": 4369,
      "ĠAll": 4370,
      "ĠZ": 4371,
      "é¢ł": 4372,
      "æ¹Ľ": 4373,
      "Ġä¸ª": 4374,
      "Ġåı¯": 4375,
      "æĥķ": 4376,
      "èĥĸ": 4377,
      "åł°": 4378,
      "Ġold": 4379,
      "ought": 4380,
      "Ġä¸ĥ": 4381,
      "IN": 4382,
      "work": 4383,
      "åĲŀ": 4384,
      "èĸĽ": 4385,
      "Ġeasy": 4386,
      "ii": 4387,
      "Ġé¢Ħ": 4388,
      "å¸ĸ": 4389,
      "èĤ¢": 4390,
      "att": 4391,
      "ision": 4392,
      "ç¢Į": 4393,
      "Ġcr": 4394,
      "è¶ģ": 4395,
      "ense": 4396,
      "èĹ¤": 4397,
      "book": 4398,
      "yle": 4399,
      "Ġä¸ļ": 4400,
      "ĠéŁ©": 4401,
      "éĴĵ": 4402,
      "é¡½": 4403,
      "Ġoper": 4404,
      "çĳ¶": 4405,
      "ĠæĢ»": 4406,
      "iron": 4407,
      "åĳµ": 4408,
      "èĬľ": 4409,
      "ron": 4410,
      "è£¹": 4411,
      "123": 4412,
      "ĠInd": 4413,
      "Ġ21": 4414,
      "0000": 4415,
      "çŃĭ": 4416,
      "ery": 4417,
      "å¨ĩ": 4418,
      "èŁ¹": 4419,
      "è©": 4420,
      "inal": 4421,
      "Ġview": 4422,
      "è©¹": 4423,
      "ĠSc": 4424,
      "Ġbuy": 4425,
      "180": 4426,
      "æŃĩ": 4427,
      "Ġca": 4428,
      "Ġless": 4429,
      "Ġmeet": 4430,
      "åŃľ": 4431,
      "åĭī": 4432,
      "ĠTo": 4433,
      "çŀ»": 4434,
      "Ġ2011": 4435,
      "pend": 4436,
      "Ġtak": 4437,
      "ç¥¸": 4438,
      "ç©´": 4439,
      "ope": 4440,
      "ats": 4441,
      "ape": 4442,
      "åĳĨ": 4443,
      "æµı": 4444,
      "tain": 4445,
      "å¿Į": 4446,
      "Ġfr": 4447,
      "Ġprom": 4448,
      "med": 4449,
      "ĠåŃ¦": 4450,
      "Ġfac": 4451,
      "æ²Ĥ": 4452,
      "eng": 4453,
      "éªĤ": 4454,
      "vent": 4455,
      "ç½¢": 4456,
      "ç«Ń": 4457,
      "ç¢±": 4458,
      "ieve": 4459,
      "çĩ¥": 4460,
      "çŀĦ": 4461,
      "ç¡ħ": 4462,
      "Ġmov": 4463,
      "æ£µ": 4464,
      "here": 4465,
      "ĠCol": 4466,
      "ĠPh": 4467,
      "ffic": 4468,
      "ĠæĭĽ": 4469,
      "æĺŃ": 4470,
      "çģ¿": 4471,
      "AèĤ¡": 4472,
      "250": 4473,
      "æĽ¦": 4474,
      "ases": 4475,
      "ream": 4476,
      "You": 4477,
      "Ġ08": 4478,
      "æ²¾": 4479,
      "æĥ§": 4480,
      "çłį": 4481,
      "ĠIs": 4482,
      "ney": 4483,
      "mon": 4484,
      "Ġè¡¨": 4485,
      "æ¾ľ": 4486,
      "1200": 4487,
      "è¸©": 4488,
      "Ġlet": 4489,
      "Ġæłĩ": 4490,
      "æĿı": 4491,
      "yl": 4492,
      "å¸Ĳ": 4493,
      "Ġpos": 4494,
      "231": 4495,
      "æĻķ": 4496,
      "ised": 4497,
      "ĠAf": 4498,
      "æ³¸": 4499,
      "sc": 4500,
      "Ġåħ«": 4501,
      "è¯ł": 4502,
      "ĠâĢĺ": 4503,
      "utes": 4504,
      "ĠWhen": 4505,
      "Ġé¦Ļ": 4506,
      "æ³µ": 4507,
      "Ġbre": 4508,
      "èĳ±": 4509,
      "æµĩ": 4510,
      "æĮ«": 4511,
      "ism": 4512,
      "éĴī": 4513,
      "ips": 4514,
      "mber": 4515,
      "ç§Ĩ": 4516,
      "èİ¹": 4517,
      "æ®¿": 4518,
      "ĠåĲ´": 4519,
      "æºĥ": 4520,
      "ĠWith": 4521,
      "tend": 4522,
      "lex": 4523,
      "perty": 4524,
      "èĬĴ": 4525,
      "éĶ¤": 4526,
      "ique": 4527,
      "æµĨ": 4528,
      "çħ®": 4529,
      "ott": 4530,
      "iety": 4531,
      "%,": 4532,
      "Ġä¿Ħ": 4533,
      "Ġä½Ľ": 4534,
      "Ġsing": 4535,
      "Ġann": 4536,
      "ipp": 4537,
      "atic": 4538,
      "éªĦ": 4539,
      "ify": 4540,
      "èĽĩ": 4541,
      "æ°¨": 4542,
      "çł¸": 4543,
      "çĥ¯": 4544,
      "160": 4545,
      "aring": 4546,
      "min": 4547,
      "èĤĨ": 4548,
      "Ġest": 4549,
      "è´¬": 4550,
      "ann": 4551,
      "Ġ100": 4552,
      "Ġkind": 4553,
      "èºº": 4554,
      "ienc": 4555,
      "æ¼Ĩ": 4556,
      "æįī": 4557,
      "å£¶": 4558,
      "aster": 4559,
      "ĠCon": 4560,
      "ED": 4561,
      "ĠShe": 4562,
      "ield": 4563,
      ".,": 4564,
      "Ġæ¹ĸ": 4565,
      "Ġwhy": 4566,
      ".\"": 4567,
      "ane": 4568,
      "åĦĴ": 4569,
      "ç£ħ": 4570,
      "ĠåĿļ": 4571,
      "ç²ĺ": 4572,
      "ills": 4573,
      "ok": 4574,
      "Ġæİ¨": 4575,
      "Ġpain": 4576,
      "icle": 4577,
      "Ġleg": 4578,
      "oh": 4579,
      "ĠçĶŁ": 4580,
      "éĹ·": 4581,
      "æ·ĳ": 4582,
      "ocus": 4583,
      "fort": 4584,
      "å®°": 4585,
      "atter": 4586,
      "part": 4587,
      "Ġæ¯Ķ": 4588,
      "ç§¸": 4589,
      "Ġbeg": 4590,
      "clude": 4591,
      "Ġå¤ĸ": 4592,
      "éľľ": 4593,
      "éħ±": 4594,
      "å´ĸ": 4595,
      "åķ¦": 4596,
      "æº¶": 4597,
      "AT": 4598,
      "ĠæīĢ": 4599,
      "Ġwrit": 4600,
      "åŀ¦": 4601,
      "ump": 4602,
      "mp": 4603,
      "åĵ¨": 4604,
      "æĦ¤": 4605,
      "Ġbas": 4606,
      "çªŁ": 4607,
      "Ġèµµ": 4608,
      "åĨķ": 4609,
      "ainst": 4610,
      "çĢ": 4611,
      "Ġmet": 4612,
      "Ġequ": 4613,
      "èĸĩ": 4614,
      "outh": 4615,
      "Ġla": 4616,
      "ĠWhat": 4617,
      "Ġturn": 4618,
      "æŀ«": 4619,
      "orm": 4620,
      "Ġdra": 4621,
      "ç¿ģ": 4622,
      "How": 4623,
      "Ġè°ĥ": 4624,
      "éĢ®": 4625,
      "åĴ½": 4626,
      "ample": 4627,
      "900": 4628,
      "br": 4629,
      "Ġä¿Ŀ": 4630,
      "room": 4631,
      "çĳ°": 4632,
      "360": 4633,
      "APP": 4634,
      "ãĢī": 4635,
      "Ġsite": 4636,
      "ator": 4637,
      "iting": 4638,
      "Ġpast": 4639,
      "ãĢĪ": 4640,
      "å°¸": 4641,
      "åĵĢ": 4642,
      "Ġcap": 4643,
      "èĸ¯": 4644,
      "ä¿Ń": 4645,
      "Ġcond": 4646,
      "é½¿": 4647,
      "ĠX": 4648,
      "æĭĲ": 4649,
      "ĠæĶ¿": 4650,
      "Ġå¤Ħ": 4651,
      "æ°¯": 4652,
      "è¥Ħ": 4653,
      "ĠGod": 4654,
      "éĤ¢": 4655,
      "ots": 4656,
      "ĠåĽŀ": 4657,
      "ids": 4658,
      "ivid": 4659,
      "æ©Ļ": 4660,
      "iful": 4661,
      "ably": 4662,
      "è¸¢": 4663,
      "åļ": 4664,
      "ĠéĹ®": 4665,
      "èģĤ": 4666,
      "åį¿": 4667,
      "Ġjob": 4668,
      "èŁĴ": 4669,
      "AN": 4670,
      "ials": 4671,
      "viron": 4672,
      "´éĢī": 4673,
      "ä¸Ļ": 4674,
      "ĠPM": 4675,
      "ries": 4676,
      "ged": 4677,
      "æ±¾": 4678,
      "ç¥ī": 4679,
      "anks": 4680,
      "ĠMan": 4681,
      "çĨ¬": 4682,
      "IT": 4683,
      "ooks": 4684,
      "oci": 4685,
      "350": 4686,
      "æĺı": 4687,
      "ä¹Ĵ": 4688,
      "Ġcou": 4689,
      "åĭ¿": 4690,
      "ush": 4691,
      "çİ«": 4692,
      "ley": 4693,
      "140": 4694,
      ",âĢĿ": 4695,
      "©çļĦ": 4696,
      "orth": 4697,
      "Ġæ¼Ĥ": 4698,
      "åº¸": 4699,
      "ults": 4700,
      "side": 4701,
      "Ġmill": 4702,
      "Ġhum": 4703,
      "ĠOur": 4704,
      "ogra": 4705,
      "ĠTe": 4706,
      "cer": 4707,
      "åĳĢ": 4708,
      "ising": 4709,
      "æģ¨": 4710,
      "æģ¼": 4711,
      "ĠRes": 4712,
      "ceo": 4713,
      "éŀį": 4714,
      "Ġz": 4715,
      "æ¸£": 4716,
      "æ¾İ": 4717,
      "èĶļ": 4718,
      "1999": 4719,
      "nect": 4720,
      "ĠåĪĽ": 4721,
      "ĠèĢģ": 4722,
      "æ¥ł": 4723,
      "³å·ŀ": 4724,
      "âĪ": 4725,
      "âī": 4726,
      "Ġå®¶": 4727,
      "ĠTr": 4728,
      "Ch": 4729,
      "Ġè¢«": 4730,
      "Ġä¸ĸ": 4731,
      "å®µ": 4732,
      "è¿Ħ": 4733,
      "åĮĨ": 4734,
      "çŃĴ": 4735,
      "ret": 4736,
      "æĻ¤": 4737,
      "Ġce": 4738,
      "Ġdone": 4739,
      "ified": 4740,
      "Ġåħ·": 4741,
      "Ġaway": 4742,
      "æ¸Ń": 4743,
      "èļķ": 4744,
      "As": 4745,
      "pi": 4746,
      "Ġpa": 4747,
      "åª³": 4748,
      "thers": 4749,
      "èľĢ": 4750,
      "å°¬": 4751,
      "Ġname": 4752,
      "af": 4753,
      "ä¸ĳ": 4754,
      "çļĦéŃ": 4755,
      "åĴ³": 4756,
      "vern": 4757,
      "Ġèĥ¶": 4758,
      "æĺĬ": 4759,
      "èĪĮ": 4760,
      "Ġmove": 4761,
      "ĠåĴĮ": 4762,
      "Ġæĺ¥": 4763,
      "å¼¦": 4764,
      "ĠMy": 4765,
      "æ¦Ĩ": 4766,
      "ĠUS": 4767,
      "è£¸": 4768,
      "Ġ25": 4769,
      "Ġsoft": 4770,
      "Ġçľĭ": 4771,
      "Ġbody": 4772,
      "æĴ¼": 4773,
      "Ġbeh": 4774,
      "Ġes": 4775,
      "å¤·": 4776,
      "éĢĽ": 4777,
      "èįĶ": 4778,
      "èĦ¾": 4779,
      "Ġ24": 4780,
      "ĠOr": 4781,
      "ding": 4782,
      "oice": 4783,
      "ĠçŃĶ": 4784,
      "çķĶ": 4785,
      "ript": 4786,
      "æķŀ": 4787,
      "ĠMar": 4788,
      "ready": 4789,
      "ĠæµĻ": 4790,
      "Ġair": 4791,
      "æºī": 4792,
      "Ġlaw": 4793,
      "Ġåħ±": 4794,
      "åªĽ": 4795,
      "Ġdev": 4796,
      "ĠåĨľ": 4797,
      "Ġå¾®": 4798,
      "Ġet": 4799,
      "Ġask": 4800,
      "7000": 4801,
      "wh": 4802,
      "ç²¹": 4803,
      "Ġlim": 4804,
      "Ġâĳ": 4805,
      "æĦī": 4806,
      "Ġpot": 4807,
      "æµĳ": 4808,
      "æ³¼": 4809,
      "2030": 4810,
      "ories": 4811,
      "Ġlive": 4812,
      "Ġey": 4813,
      "ĠAt": 4814,
      "by": 4815,
      "ĠæķĻ": 4816,
      "åĮª": 4817,
      "èº²": 4818,
      "ury": 4819,
      "IC": 4820,
      "èĤļ": 4821,
      "mb": 4822,
      "Ġæİ¥": 4823,
      "å¸·": 4824,
      "Ġfar": 4825,
      "Ġfav": 4826,
      "ift": 4827,
      "gle": 4828,
      "hor": 4829,
      "vious": 4830,
      "Ġåĩº": 4831,
      "çĥ¹": 4832,
      "èĨĢ": 4833,
      "ĠThat": 4834,
      "èħ»": 4835,
      "Ġæīĭ": 4836,
      "Ġvide": 4837,
      "PC": 4838,
      "Ġæľª": 4839,
      "ĠéĻķ": 4840,
      "èĤª": 4841,
      "iven": 4842,
      "ï¹Ĳ": 4843,
      "Ġ'": 4844,
      "æĸ©": 4845,
      "æ©¡": 4846,
      "Ġè´£": 4847,
      "æ¤İ": 4848,
      ",\"": 4849,
      "Ġtem": 4850,
      "eb": 4851,
      "Ġåįķ": 4852,
      "åĪ®": 4853,
      "çº±": 4854,
      "æ±²": 4855,
      "Ġdeal": 4856,
      "ances": 4857,
      "Ġå¼º": 4858,
      "ĠæŃ¦": 4859,
      "çī¡": 4860,
      "çĤ«": 4861,
      "icip": 4862,
      "Ġnet": 4863,
      "uper": 4864,
      "Ġæĺ¯": 4865,
      "Ġèĥ¡": 4866,
      "ĠæĿŃ": 4867,
      "åĪł": 4868,
      "æ·¤": 4869,
      "Ġmult": 4870,
      "1998": 4871,
      "fer": 4872,
      "lish": 4873,
      "Ġè¡Į": 4874,
      "ured": 4875,
      "ĠåĨħ": 4876,
      "Ġfour": 4877,
      "Ġdi": 4878,
      "äºŁ": 4879,
      "çİĦ": 4880,
      "éĤª": 4881,
      "Ġ22": 4882,
      "çĿ¿": 4883,
      "ustry": 4884,
      "AS": 4885,
      "ived": 4886,
      "æīĽ": 4887,
      "ç³Ł": 4888,
      "æ·³": 4889,
      "Ġline": 4890,
      "Ġvers": 4891,
      "èĲİ": 4892,
      "ither": 4893,
      "é²į": 4894,
      "comm": 4895,
      "Ġter": 4896,
      "çŁ¶": 4897,
      "Ġmar": 4898,
      "Ġste": 4899,
      "suv": 4900,
      "ains": 4901,
      "åĿŀ": 4902,
      "Ġside": 4903,
      "uture": 4904,
      "Ġtyp": 4905,
      "par": 4906,
      "Ġä¼ł": 4907,
      "éĽ¯": 4908,
      "Ġpar": 4909,
      "ĠCar": 4910,
      "é¹ħ": 4911,
      "arent": 4912,
      "Ġè¯´": 4913,
      "ä¾Ī": 4914,
      "Ġhot": 4915,
      "å°´": 4916,
      "itive": 4917,
      "play": 4918,
      "Ġå·´": 4919,
      "Ġconc": 4920,
      "port": 4921,
      "å·«": 4922,
      "ç¼Ķ": 4923,
      "Ġissu": 4924,
      "olid": 4925,
      "arted": 4926,
      "Ġbit": 4927,
      "æ¹ĥ": 4928,
      "æ¢Ń": 4929,
      "é¥¶": 4930,
      "ails": 4931,
      "cm": 4932,
      "æ³Į": 4933,
      "åįī": 4934,
      "ä¿ŀ": 4935,
      "Ġtre": 4936,
      "102": 4937,
      "è±¹": 4938,
      "jor": 4939,
      "é£Ļ": 4940,
      "åĢª": 4941,
      "ï¼į": 4942,
      "éĥĿ": 4943,
      "Ġhist": 4944,
      "ipo": 4945,
      "igned": 4946,
      "è´ŀ": 4947,
      "éĿĵ": 4948,
      "Ġ2007": 4949,
      "Ġx": 4950,
      "çº¬": 4951,
      "æį¡": 4952,
      "åµĮ": 4953,
      "éķĳ": 4954,
      "ones": 4955,
      "çĪµ": 4956,
      "ird": 4957,
      "....": 4958,
      "Ġfund": 4959,
      "anies": 4960,
      "Ġhold": 4961,
      "Ġorig": 4962,
      "2500": 4963,
      "cy": 4964,
      "ths": 4965,
      "osp": 4966,
      "Ġ2006": 4967,
      "RE": 4968,
      "é«ĵ": 4969,
      "orld": 4970,
      "ency": 4971,
      "most": 4972,
      "ĠçĶ¨": 4973,
      "Ġ50": 4974,
      "çłº": 4975,
      "èıĩ": 4976,
      "gra": 4977,
      "li": 4978,
      "æ¸¤": 4979,
      "èİĵ": 4980,
      "unch": 4981,
      "ç¯·": 4982,
      "An": 4983,
      "Ġèµ°": 4984,
      "çļĸ": 4985,
      "ç²ª": 4986,
      "Ġmind": 4987,
      "éŁ¶": 4988,
      "Ġæľį": 4989,
      "ç¦ħ": 4990,
      "èļĢ": 4991,
      "å¢©": 4992,
      "alf": 4993,
      "éĴĻ": 4994,
      "'re": 4995,
      "gr": 4996,
      "æ±ķ": 4997,
      "oose": 4998,
      "ganiz": 4999,
      "uro": 5000,
      "ç»Ĵ": 5001,
      "Ġdig": 5002,
      "çĳľ": 5003,
      "****": 5004,
      "St": 5005,
      "sel": 5006,
      "ĠåķĨ": 5007,
      "Ġè¯·": 5008,
      "ç£·": 5009,
      "çŀ©": 5010,
      "Ġdidn": 5011,
      "Ġeduc": 5012,
      "Ġäº¤": 5013,
      "Ġå¤®": 5014,
      "éļĻ": 5015,
      "æ¨Ĭ": 5016,
      "éĻĩ": 5017,
      "omen": 5018,
      "rove": 5019,
      "ĠCent": 5020,
      "'m": 5021,
      "nba": 5022,
      "Ġess": 5023,
      "ĠCan": 5024,
      "ship": 5025,
      "'ve": 5026,
      "é¢Ĥ": 5027,
      "Ġpage": 5028,
      "æ»¤": 5029,
      "Ġhig": 5030,
      "Ġ23": 5031,
      "èĶ½": 5032,
      "ä½£": 5033,
      "ä¾ĥ": 5034,
      "æ¸Ĭ": 5035,
      "veral": 5036,
      "ners": 5037,
      "ç¾¡": 5038,
      "å¨¥": 5039,
      "çŀĴ": 5040,
      "DP": 5041,
      "æĮ¨": 5042,
      "ox": 5043,
      "IS": 5044,
      "æĮļ": 5045,
      "æŀ¯": 5046,
      "Ġmen": 5047,
      "Ġæ¸ħ": 5048,
      "Ġtell": 5049,
      "Ġlow": 5050,
      "æħĳ": 5051,
      "gs": 5052,
      "Ġ,": 5053,
      "Ġè¯Ħ": 5054,
      "ilt": 5055,
      "èĻĲ": 5056,
      "Ġele": 5057,
      "èĽ®": 5058,
      "uff": 5059,
      "Ġmiss": 5060,
      "What": 5061,
      "cial": 5062,
      "ï¼Ĳ": 5063,
      "æİı": 5064,
      "Ġnon": 5065,
      "é¥¿": 5066,
      "gl": 5067,
      "å¥İ": 5068,
      "ribut": 5069,
      "ç¦¹": 5070,
      "éªı": 5071,
      ",âĢľ": 5072,
      "ĠæĽ¾": 5073,
      "aim": 5074,
      "bt": 5075,
      "ges": 5076,
      "sw": 5077,
      "çĶĦ": 5078,
      "é©´": 5079,
      "Ġever": 5080,
      "Ġå¾Ĳ": 5081,
      "åı®": 5082,
      "ç¦¾": 5083,
      "ĠåŃĻ": 5084,
      "itc": 5085,
      "enn": 5086,
      "å´Ń": 5087,
      "1995": 5088,
      "fact": 5089,
      "Ġç¤¾": 5090,
      "åĪ¹": 5091,
      "Ġocc": 5092,
      "osed": 5093,
      "ee": 5094,
      "ĠæŀĹ": 5095,
      "åĵº": 5096,
      "]ãĢĤ": 5097,
      "Ġè®©": 5098,
      "æ£ł": 5099,
      "éĴ®": 5100,
      "ford": 5101,
      "He": 5102,
      "Ġè¿ĺ": 5103,
      "Ġè§£": 5104,
      "Ġonce": 5105,
      "Ġmean": 5106,
      "ĠComm": 5107,
      "èµİ": 5108,
      "ä¾£": 5109,
      "Ġsw": 5110,
      "Ġcut": 5111,
      "icy": 5112,
      "æĴķ": 5113,
      "åĭĭ": 5114,
      "Ġstep": 5115,
      "place": 5116,
      "__": 5117,
      "por": 5118,
      "Ġæĸ¹": 5119,
      "iding": 5120,
      "Ġ]": 5121,
      "ç»½": 5122,
      "çĭŃ": 5123,
      "èĿ¶": 5124,
      "Ġçİ¯": 5125,
      "ored": 5126,
      "go": 5127,
      "Ġland": 5128,
      "urs": 5129,
      "èĨĿ": 5130,
      "220": 5131,
      "ls": 5132,
      "Ġåħĥ": 5133,
      "å¼Ī": 5134,
      "ene": 5135,
      "å£¹": 5136,
      "åĤį": 5137,
      "Ġens": 5138,
      "ĠæĹ©": 5139,
      "çķ´": 5140,
      "åĥµ": 5141,
      "ĠEng": 5142,
      "Ġå¾·": 5143,
      "ãĢĮ": 5144,
      "æŁ¬": 5145,
      "æºº": 5146,
      "Ġweb": 5147,
      "Ġæ¶Ī": 5148,
      "ãĢį": 5149,
      "åĴª": 5150,
      "æĦ§": 5151,
      "å¢ħ": 5152,
      "Ġtool": 5153,
      "aff": 5154,
      "Ġï¼ļ": 5155,
      "ĠçĻ¾": 5156,
      "åŁł": 5157,
      "è°ľ": 5158,
      "æ»ĩ": 5159,
      "ĠNo": 5160,
      "tv": 5161,
      "éĿ¶": 5162,
      "unic": 5163,
      "Ġè°Ī": 5164,
      "æīĶ": 5165,
      "ãĢĭ(": 5166,
      "urch": 5167,
      "blem": 5168,
      "cle": 5169,
      "æīģ": 5170,
      "ethod": 5171,
      "For": 5172,
      "Ġwind": 5173,
      "aces": 5174,
      "Ġleft": 5175,
      "æª": 5176,
      "duce": 5177,
      "jects": 5178,
      "Ġç½Ĺ": 5179,
      "resh": 5180,
      "Ġpack": 5181,
      "Ġtrad": 5182,
      "Ġment": 5183,
      "ster": 5184,
      "Ġdem": 5185,
      "AC": 5186,
      "ĠåºĶ": 5187,
      "Ġæ¬§": 5188,
      "Ġæľ±": 5189,
      "idd": 5190,
      "åĤ»": 5191,
      "Ġris": 5192,
      "ĠèĤ¡": 5193,
      "Ġèĭı": 5194,
      "inc": 5195,
      "105": 5196,
      "urity": 5197,
      "Ġvol": 5198,
      "Ġå¥¹": 5199,
      "èį§": 5200,
      "éħµ": 5201,
      "101": 5202,
      "èļģ": 5203,
      "wards": 5204,
      "augh": 5205,
      "aly": 5206,
      "è£Ļ": 5207,
      "pert": 5208,
      ":âĢľ": 5209,
      "Ġtax": 5210,
      "çĲ¦": 5211,
      "ĠçłĶ": 5212,
      "çģ¶": 5213,
      "Ġlog": 5214,
      "Ġstay": 5215,
      "oogle": 5216,
      "1997": 5217,
      "conom": 5218,
      "uck": 5219,
      "æĥŁ": 5220,
      "Ġpict": 5221,
      "Ġå£°": 5222,
      "å¹¢": 5223,
      "Ġcamp": 5224,
      "Ġfore": 5225,
      "ource": 5226,
      "èĨ³": 5227,
      "ĠçĤ¹": 5228,
      "Ġè¿ŀ": 5229,
      "Ġéĥĳ": 5230,
      "åįµ": 5231,
      "çº¾": 5232,
      "èı±": 5233,
      "èĨı": 5234,
      "ĠÐ": 5235,
      "æŃ¼": 5236,
      "ĠTra": 5237,
      "ĠCont": 5238,
      "ĠApp": 5239,
      "æ½į": 5240,
      "ĠMay": 5241,
      "Ġè´¢": 5242,
      "Ġtal": 5243,
      "çĹ´": 5244,
      "èĦĸ": 5245,
      "cript": 5246,
      "ially": 5247,
      "Ġä¾Ľ": 5248,
      "Ġcomb": 5249,
      "230": 5250,
      "ĠæŁ¥": 5251,
      "ĠçĻ½": 5252,
      "ĠéĻĦ": 5253,
      "ä¹¾": 5254,
      "éĺĢ": 5255,
      "Ġcra": 5256,
      "Ġant": 5257,
      "Ġç»¼": 5258,
      "æ±¶": 5259,
      "æĽĻ": 5260,
      "ĠDo": 5261,
      "There": 5262,
      "%-": 5263,
      "Ġsum": 5264,
      "Ġsell": 5265,
      "Ġcal": 5266,
      "Ġport": 5267,
      "æĤ¼": 5268,
      "irm": 5269,
      "ĠGu": 5270,
      "çĴĲ": 5271,
      "Ġ40": 5272,
      "èĢ¿": 5273,
      "Ġdou": 5274,
      "ateg": 5275,
      "èĨ¨": 5276,
      "Ġkey": 5277,
      "sp": 5278,
      "èł": 5279,
      "èģĨ": 5280,
      "åĢ©": 5281,
      "ead": 5282,
      "ians": 5283,
      "Ġqq": 5284,
      "Ġwond": 5285,
      "Ġbar": 5286,
      "OS": 5287,
      "æ¦´": 5288,
      "è¹²": 5289,
      "ball": 5290,
      "èĢį": 5291,
      "éºŁ": 5292,
      "Ġtook": 5293,
      "AL": 5294,
      "cpi": 5295,
      "pro": 5296,
      "ĠçĻ»": 5297,
      "ä¸¸": 5298,
      "åºĲ": 5299,
      "Ġyet": 5300,
      "ĠåĪ°": 5301,
      "ĠèŃ¦": 5302,
      "æľĶ": 5303,
      "rease": 5304,
      "éļ¶": 5305,
      "èºģ": 5306,
      "Ġrele": 5307,
      "ĠPr": 5308,
      "yd": 5309,
      "æ²¸": 5310,
      "ç¨½": 5311,
      "Ġoil": 5312,
      "itor": 5313,
      "170": 5314,
      "Ġener": 5315,
      "ĠInst": 5316,
      "Ġäº§": 5317,
      "çīŁ": 5318,
      "Ġwa": 5319,
      "éĶ£": 5320,
      "çĭĲ": 5321,
      "OR": 5322,
      "ä»ĳ": 5323,
      "éĹº": 5324,
      "Ġwar": 5325,
      "ç¼®": 5326,
      "Ġupd": 5327,
      "not": 5328,
      "ring": 5329,
      "å¯¡": 5330,
      "æ¯¯": 5331,
      "Ġdr": 5332,
      "ument": 5333,
      "ply": 5334,
      "Ġè¿ĩ": 5335,
      "Ġä¹Ł": 5336,
      "æ°®": 5337,
      "æ±Ŀ": 5338,
      "æ´¼": 5339,
      "hers": 5340,
      "peci": 5341,
      "'ll": 5342,
      "Al": 5343,
      "äº¨": 5344,
      "çĶ«": 5345,
      "è¯«": 5346,
      "nds": 5347,
      "ĠCo": 5348,
      "anges": 5349,
      "ĠåĨį": 5350,
      "å±¿": 5351,
      "æ³»": 5352,
      "è°İ": 5353,
      "Ġsit": 5354,
      "Ġbed": 5355,
      "irt": 5356,
      "Ġprob": 5357,
      "æ©ĺ": 5358,
      "Ġä¿¡": 5359,
      "å·į": 5360,
      "tect": 5361,
      "upp": 5362,
      "ãĥ": 5363,
      "Ġer": 5364,
      "ister": 5365,
      "Ġtot": 5366,
      "Ġdue": 5367,
      "china": 5368,
      "ĠMed": 5369,
      "istr": 5370,
      "agn": 5371,
      "Ġphys": 5372,
      "PT": 5373,
      "Ġwon": 5374,
      "Ġcity": 5375,
      "Ġmom": 5376,
      "Ġmil": 5377,
      "ç¦Ħ": 5378,
      "lege": 5379,
      "ourn": 5380,
      "ledge": 5381,
      "ET": 5382,
      "val": 5383,
      "ĠéĥŃ": 5384,
      "įåį«": 5385,
      "éĶļ": 5386,
      "æ²Ľ": 5387,
      "éĽĢ": 5388,
      "ç©Ĺ": 5389,
      "rap": 5390,
      "obal": 5391,
      "såºĹ": 5392,
      "Ġä½ł": 5393,
      "ç«ĸ": 5394,
      "Ġfail": 5395,
      "AM": 5396,
      "æĶĴ": 5397,
      "125": 5398,
      "ĠChe": 5399,
      "fully": 5400,
      "é³Į": 5401,
      "Ġè¯¦": 5402,
      "Ġflow": 5403,
      "ç¥ģ": 5404,
      "Ġhope": 5405,
      "çĨĶ": 5406,
      "duc": 5407,
      "dd": 5408,
      "my": 5409,
      "Ġæĺİ": 5410,
      "æłĪ": 5411,
      "ĠServ": 5412,
      "1996": 5413,
      "nov": 5414,
      "èĺ": 5415,
      "ï¿": 5416,
      "rew": 5417,
      "oll": 5418,
      "ĠAss": 5419,
      "å°§": 5420,
      "åİĮ": 5421,
      "çĿ¹": 5422,
      "çł¥": 5423,
      "Ġdoc": 5424,
      "Ġdiff": 5425,
      "å¥ķ": 5426,
      "ino": 5427,
      "çĤ³": 5428,
      "ĠFl": 5429,
      "iod": 5430,
      "Ġå¹³": 5431,
      "Ġtas": 5432,
      "å³ª": 5433,
      "ands": 5434,
      "ĠåĮ»": 5435,
      "Ġcard": 5436,
      "çĥĺ": 5437,
      "roll": 5438,
      "é²¸": 5439,
      "ging": 5440,
      "æŃª": 5441,
      "æĥ¹": 5442,
      "reet": 5443,
      "çĥ«": 5444,
      "ĠEn": 5445,
      "ĠNe": 5446,
      "gp": 5447,
      "106": 5448,
      "éĹ«": 5449,
      "ĠSte": 5450,
      "vert": 5451,
      "ests": 5452,
      "ris": 5453,
      "Ġèģļ": 5454,
      "Ġcook": 5455,
      "ç¥Ī": 5456,
      "ivity": 5457,
      "âĪļ": 5458,
      "çĽİ": 5459,
      "åīĶ": 5460,
      "Ġcame": 5461,
      "éĵ²": 5462,
      "å²ļ": 5463,
      "ĠTH": 5464,
      "Ġabs": 5465,
      "Ġjo": 5466,
      "duced": 5467,
      "US": 5468,
      "atur": 5469,
      "Ġfur": 5470,
      "icult": 5471,
      "Ġå¾Ī": 5472,
      "ä»ķ": 5473,
      "Ġenc": 5474,
      "éĻĢ": 5475,
      "108": 5476,
      "Ġli": 5477,
      "æ¢Ĺ": 5478,
      "119": 5479,
      "GB": 5480,
      "ched": 5481,
      "åĮĻ": 5482,
      "çĦļ": 5483,
      "éªļ": 5484,
      "èħķ": 5485,
      "Ġprep": 5486,
      "face": 5487,
      "ux": 5488,
      "Ġç²¾": 5489,
      "ï¼ĭ": 5490,
      "å¦ĥ": 5491,
      "ĠåŁİ": 5492,
      "åĸĺ": 5493,
      "Ġself": 5494,
      "oud": 5495,
      "ç¼ł": 5496,
      "éĴ¥": 5497,
      "oints": 5498,
      "EN": 5499,
      "Ġäºĳ": 5500,
      "Ġaud": 5501,
      "ohn": 5502,
      "ãĢĤ(": 5503,
      "åĮĢ": 5504,
      "æįĨ": 5505,
      "éħ¯": 5506,
      "éªĨ": 5507,
      "Ġexc": 5508,
      "aily": 5509,
      "Ġface": 5510,
      "æ·ĩ": 5511,
      "Ġnear": 5512,
      "Ġidea": 5513,
      "å¬": 5514,
      "ï¼ĳ": 5515,
      "Ġage": 5516,
      "åĸī": 5517,
      "ively": 5518,
      "crib": 5519,
      "Ġéĵ¶": 5520,
      "çİ®": 5521,
      "itch": 5522,
      "èĴ²": 5523,
      "II": 5524,
      "ches": 5525,
      "ma": 5526,
      "æī¯": 5527,
      "èĬĻ": 5528,
      "ĠComp": 5529,
      "ky": 5530,
      "oon": 5531,
      "1300": 5532,
      "stems": 5533,
      "urope": 5534,
      "ID": 5535,
      "Ġè½¦": 5536,
      "æ¶¡": 5537,
      "çĺ«": 5538,
      "èµĥ": 5539,
      "æ·¹": 5540,
      "ç¿ħ": 5541,
      "astic": 5542,
      "æłĹ": 5543,
      "ç¾ŀ": 5544,
      "éľĨ": 5545,
      "aving": 5546,
      "CC": 5547,
      "è°ħ": 5548,
      "éĵħ": 5549,
      "arget": 5550,
      "240": 5551,
      "obile": 5552,
      "angu": 5553,
      "OT": 5554,
      "Ġ60": 5555,
      "Ġsays": 5556,
      "Ġfre": 5557,
      "Ġdate": 5558,
      "ables": 5559,
      ".âĢĿ": 5560,
      "mg": 5561,
      "Ġä¾Ŀ": 5562,
      "Ġä¹Ŀ": 5563,
      "å¸ĺ": 5564,
      "107": 5565,
      "Ġblog": 5566,
      "720": 5567,
      "PS": 5568,
      "Ġsle": 5569,
      "ç±½": 5570,
      "Ġ07": 5571,
      "aps": 5572,
      "ç¼ī": 5573,
      "æ£į": 5574,
      "une": 5575,
      "ĠBr": 5576,
      "acy": 5577,
      "ained": 5578,
      "EC": 5579,
      "è¡¬": 5580,
      "è°´": 5581,
      "Ġear": 5582,
      "ĠOne": 5583,
      "çĺ¾": 5584,
      "AA": 5585,
      "aur": 5586,
      "ffe": 5587,
      "Ġæľº": 5588,
      "å·ħ": 5589,
      "Ġcir": 5590,
      "Ġhost": 5591,
      "imate": 5592,
      "acks": 5593,
      "oved": 5594,
      "450": 5595,
      "å¥´": 5596,
      "æ²¥": 5597,
      "æ±Ģ": 5598,
      "ãĢĭ,": 5599,
      "illed": 5600,
      "æĩĴ": 5601,
      "éŀŃ": 5602,
      "Ġ+": 5603,
      "Ġå¥¥": 5604,
      "Ġä¼Ĭ": 5605,
      "ony": 5606,
      "æĴ¬": 5607,
      "abor": 5608,
      "åĲ»": 5609,
      "ç¬ĭ": 5610,
      "ç²¥": 5611,
      "Ġsave": 5612,
      "azing": 5613,
      "Ġpriv": 5614,
      "Ġå±ķ": 5615,
      "åĪĥ": 5616,
      "é¥ª": 5617,
      "åĺİ": 5618,
      "ĠYour": 5619,
      "):": 5620,
      "And": 5621,
      "ĠçĽĽ": 5622,
      "éĺ±": 5623,
      "æĻĥ": 5624,
      "ume": 5625,
      "å¯Ĥ": 5626,
      "Ġred": 5627,
      "1990": 5628,
      "åĺĽ": 5629,
      "112": 5630,
      "Ġåĩ¡": 5631,
      "Ġsun": 5632,
      "æ»ķ": 5633,
      "å¨Ħ": 5634,
      "çĳŁ": 5635,
      "oe": 5636,
      "top": 5637,
      "Ġä¼ģ": 5638,
      "åįĴ": 5639,
      "åĩ³": 5640,
      "Ġmot": 5641,
      "Ġansw": 5642,
      "ler": 5643,
      "éĥ¡": 5644,
      "Ġwent": 5645,
      "æģ³": 5646,
      "æ®´": 5647,
      "Ġthin": 5648,
      "é»ı": 5649,
      "ĠĊĠĊ": 5650,
      "Ġtext": 5651,
      "TO": 5652,
      "½åŃĲ": 5653,
      "è¯Ģ": 5654,
      "æŀķ": 5655,
      "ç¡Ŀ": 5656,
      "Ġpick": 5657,
      "ĠAm": 5658,
      "ç¿Ł": 5659,
      "Ġsoon": 5660,
      "vr": 5661,
      "Ġå®¡": 5662,
      "Ġè®¸": 5663,
      "æĭĮ": 5664,
      "Ġcop": 5665,
      "Ġveh": 5666,
      "GDP": 5667,
      "mod": 5668,
      "Ġäºİ": 5669,
      "ç»¯": 5670,
      "ilar": 5671,
      "Ġsugg": 5672,
      "//": 5673,
      "On": 5674,
      "Ð¾": 5675,
      "ĠåıĮ": 5676,
      "Ġfive": 5677,
      "rown": 5678,
      "Ġstat": 5679,
      "Ġ28": 5680,
      "ç¿ĺ": 5681,
      "ror": 5682,
      "Ġæ¡Ī": 5683,
      "ĠåĶĲ": 5684,
      "è®¶": 5685,
      "inue": 5686,
      "Ġfast": 5687,
      "icro": 5688,
      "103": 5689,
      "asing": 5690,
      "ĠSer": 5691,
      "IM": 5692,
      "hing": 5693,
      "ĠåĲį": 5694,
      "ï¼Ĵ": 5695,
      "æķ·": 5696,
      "æĽ°": 5697,
      "Ġfall": 5698,
      "éĶĪ": 5699,
      "stant": 5700,
      "115": 5701,
      "å¨±": 5702,
      "Ġstra": 5703,
      "back": 5704,
      "come": 5705,
      "miss": 5706,
      "ufact": 5707,
      "è¾ľ": 5708,
      "reme": 5709,
      "éľĸ": 5710,
      "Ġfile": 5711,
      "ĠMe": 5712,
      "åĹ½": 5713,
      "yn": 5714,
      "Ðµ": 5715,
      "Ġpie": 5716,
      "Ġexam": 5717,
      "Ġetc": 5718,
      "èĬŃ": 5719,
      "ening": 5720,
      "ãĥ»": 5721,
      "ä¹ĵ": 5722,
      "ese": 5723,
      "çĸ¹": 5724,
      "Ġhalf": 5725,
      "ented": 5726,
      "Ġseen": 5727,
      "istic": 5728,
      "AP": 5729,
      "åĮĪ": 5730,
      "ç¥Ģ": 5731,
      "104": 5732,
      "roach": 5733,
      "æ¢ĵ": 5734,
      "å©ī": 5735,
      "Ġseem": 5736,
      "althy": 5737,
      "Ġä»£": 5738,
      "ĠæĶ¹": 5739,
      "Ġè´µ": 5740,
      "æĭ±": 5741,
      "Ġsat": 5742,
      "æĳ§": 5743,
      "éŃĦ": 5744,
      "1994": 5745,
      "Ġnews": 5746,
      "Ġago": 5747,
      "itted": 5748,
      "Ġtype": 5749,
      "VR": 5750,
      "èĥº": 5751,
      "where": 5752,
      "Ġä½į": 5753,
      "ĠâĢ¦": 5754,
      "åİĦ": 5755,
      "æ£ķ": 5756,
      "ĠCal": 5757,
      "acter": 5758,
      "aa": 5759,
      "è´¼": 5760,
      "æķĽ": 5761,
      "Ġcult": 5762,
      "Ġdam": 5763,
      "Ġlink": 5764,
      "Ġeff": 5765,
      "elt": 5766,
      "10000": 5767,
      "When": 5768,
      "ĠçĥŃ": 5769,
      "è¡«": 5770,
      "è´®": 5771,
      "Ġways": 5772,
      "Ġpan": 5773,
      "åĥļ": 5774,
      "ĠDis": 5775,
      "ief": 5776,
      "1993": 5777,
      "()": 5778,
      "ires": 5779,
      "æĺ¼": 5780,
      "å½¤": 5781,
      "nding": 5782,
      "ana": 5783,
      "æºľ": 5784,
      "new": 5785,
      "App": 5786,
      "km": 5787,
      "mpt": 5788,
      "Ġèĳ£": 5789,
      "éĢĹ": 5790,
      "Ġfire": 5791,
      "ili": 5792,
      "æ¥·": 5793,
      "æ½ĩ": 5794,
      "ĠGra": 5795,
      "ered": 5796,
      "âĨ": 5797,
      "çĽĶ": 5798,
      "çĦ°": 5799,
      "çħİ": 5800,
      "é¾Ł": 5801,
      "1992": 5802,
      "gest": 5803,
      "rim": 5804,
      "è®½": 5805,
      "æį£": 5806,
      "109": 5807,
      "Ġ26": 5808,
      "1600": 5809,
      "orted": 5810,
      "ï¿¥": 5811,
      "ESG": 5812,
      "Ġsize": 5813,
      "ened": 5814,
      "æ·Ħ": 5815,
      "å³¨": 5816,
      "1400": 5817,
      "iple": 5818,
      "lu": 5819,
      "éĤĳ": 5820,
      "çĬģ": 5821,
      "Ġmeas": 5822,
      "Ġçĸ«": 5823,
      "Ġach": 5824,
      "éĺ®": 5825,
      "ouldn": 5826,
      "ounds": 5827,
      "âħ¢": 5828,
      "ĠÂ": 5829,
      "Ġå°Ĩ": 5830,
      "æĸĽ": 5831,
      "è¢į": 5832,
      "ille": 5833,
      "ĠèĢĥ": 5834,
      "Ġlat": 5835,
      "ĠAut": 5836,
      "æ¿Ĵ": 5837,
      "Ġplat": 5838,
      "260": 5839,
      "ĠæĪ¿": 5840,
      "åĴı": 5841,
      "Ġwalk": 5842,
      "éĴł": 5843,
      "Ġ27": 5844,
      "Ġelse": 5845,
      "]ï¼Ľ": 5846,
      "son": 5847,
      "æ²Ĳ": 5848,
      "stru": 5849,
      "di": 5850,
      "oes": 5851,
      "Ġcrit": 5852,
      "ember": 5853,
      "ublic": 5854,
      "Ġtrue": 5855,
      "bl": 5856,
      "kg": 5857,
      "Ġä½ķ": 5858,
      "ĠçĶ³": 5859,
      "Ġmor": 5860,
      "èĳĨ": 5861,
      "1100": 5862,
      "èĴľ": 5863,
      "ogn": 5864,
      "!âĢĿ": 5865,
      "ç§§": 5866,
      "éĹµ": 5867,
      "Ġsol": 5868,
      "å¦į": 5869,
      "itten": 5870,
      "ees": 5871,
      "sue": 5872,
      "Ġ#": 5873,
      "è®³": 5874,
      "æłħ": 5875,
      "ĠPe": 5876,
      "1800": 5877,
      "cks": 5878,
      "Ġæ£Ģ": 5879,
      "ĠçŁ³": 5880,
      "ĠçĶ·": 5881,
      "ä¿¯": 5882,
      "hel": 5883,
      "rect": 5884,
      "oring": 5885,
      "Ġtold": 5886,
      "èĭ¯": 5887,
      "irit": 5888,
      "aby": 5889,
      "ores": 5890,
      "Ġbox": 5891,
      "ml": 5892,
      "put": 5893,
      "ãİ": 5894,
      "Ġ@": 5895,
      "ĠæĻº": 5896,
      "å¥¸": 5897,
      "ators": 5898,
      "éĶĮ": 5899,
      "Ġmess": 5900,
      "3500": 5901,
      "ĠJan": 5902,
      "EM": 5903,
      "NA": 5904,
      "head": 5905,
      "Ġinit": 5906,
      "éĴ§": 5907,
      "åĶĩ": 5908,
      "çĬĢ": 5909,
      "ĠMich": 5910,
      "Ġroad": 5911,
      "ecut": 5912,
      "ming": 5913,
      "time": 5914,
      "ĠåĲİ": 5915,
      "Ġå§Ķ": 5916,
      "Ġsent": 5917,
      "ctor": 5918,
      "Açº§": 5919,
      "açº§": 5920,
      "ael": 5921,
      "Ġè§Ħ": 5922,
      "çŁ¢": 5923,
      "ĠAust": 5924,
      "Ġdeg": 5925,
      "ĠKe": 5926,
      "ä½ĳ": 5927,
      "çĲĲ": 5928,
      "Ġtown": 5929,
      "ickly": 5930,
      "ords": 5931,
      "Ġrisk": 5932,
      "æ¶ħ": 5933,
      "icles": 5934,
      "umb": 5935,
      "ĠRep": 5936,
      "éºĵ": 5937,
      "ĠGl": 5938,
      "aged": 5939,
      "ober": 5940,
      "ze": 5941,
      "åĴĭ": 5942,
      "Ġwide": 5943,
      "Ġfit": 5944,
      "ĠPer": 5945,
      "efits": 5946,
      "ãİ¡": 5947,
      "æĭ¢": 5948,
      "ç¬ĥ": 5949,
      "ety": 5950,
      "Ġlear": 5951,
      "blems": 5952,
      "ĠãĢģ": 5953,
      "ç»·": 5954,
      "æ²ģ": 5955,
      "èĬ¹": 5956,
      "Ġhom": 5957,
      "çĹĴ": 5958,
      "Ġnice": 5959,
      "å®Ľ": 5960,
      "åľŃ": 5961,
      "Ġtou": 5962,
      "å½Ŀ": 5963,
      "æŁĳ": 5964,
      "åĸĩ": 5965,
      "medi": 5966,
      "So": 5967,
      "cba": 5968,
      "ĠçĽĳ": 5969,
      "Ġçº¢": 5970,
      "ĠåĲī": 5971,
      "éķĢ": 5972,
      "Ġful": 5973,
      "ç¦Ģ": 5974,
      "Ġstop": 5975,
      "çĨı": 5976,
      "Ġmach": 5977,
      "Ġæķ´": 5978,
      "åıĽ": 5979,
      "è¡ħ": 5980,
      "æĭŃ": 5981,
      "çĤľ": 5982,
      "Ġcell": 5983,
      "é©¼": 5984,
      "Ġpret": 5985,
      "Ġå¥½": 5986,
      "åĽ¤": 5987,
      "æĲħ": 5988,
      "çĵ£": 5989,
      "ibr": 5990,
      "aker": 5991,
      "Ġcoll": 5992,
      "Ġsitu": 5993,
      "Sh": 5994,
      "Ġfoot": 5995,
      "æ·«": 5996,
      "èį«": 5997,
      "éĴĽ": 5998,
      "éħ¶": 5999,
      "lebr": 6000,
      "é¥¥": 6001,
      "asses": 6002,
      "che": 6003,
      "xim": 6004,
      "Ġut": 6005,
      "Ġcode": 6006,
      "Ġisn": 6007,
      "ament": 6008,
      "ocol": 6009,
      "Ġsafe": 6010,
      "DA": 6011,
      "Ġå®ĭ": 6012,
      "å²Ķ": 6013,
      "ĠSm": 6014,
      "ung": 6015,
      "è¹Ħ": 6016,
      "320": 6017,
      "CP": 6018,
      "Ĭè·ĥ": 6019,
      "æĢł": 6020,
      "åĵĦ": 6021,
      "org": 6022,
      "olved": 6023,
      "éŃģ": 6024,
      "Ġupon": 6025,
      "OU": 6026,
      "To": 6027,
      "oid": 6028,
      "yond": 6029,
      "è°į": 6030,
      "Ġfig": 6031,
      "ç¥ł": 6032,
      "Ġstri": 6033,
      "æ¦Ħ": 6034,
      "280": 6035,
      "Ġkids": 6036,
      "uge": 6037,
      "ĠæĶ¶": 6038,
      "ĠæĶ¾": 6039,
      "Ġæ¾³": 6040,
      "Ġ70": 6041,
      "å½ª": 6042,
      "Ġcy": 6043,
      "ison": 6044,
      "èĭĽ": 6045,
      "éħĭ": 6046,
      "Ġlay": 6047,
      "å³¥": 6048,
      "ĠDes": 6049,
      "ager": 6050,
      "BC": 6051,
      "Ġå®ģ": 6052,
      "ç»ļ": 6053,
      "inite": 6054,
      "æ¨Ł": 6055,
      "ried": 6056,
      "ĠNot": 6057,
      "Ġåıį": 6058,
      "çĿ¦": 6059,
      "orge": 6060,
      "Ġloss": 6061,
      "Ġnat": 6062,
      "128": 6063,
      "aging": 6064,
      "avy": 6065,
      "bit": 6066,
      "sse": 6067,
      "Ġè°¢": 6068,
      "ç¬¨": 6069,
      "Ġcoun": 6070,
      "Ġbag": 6071,
      "ett": 6072,
      "adem": 6073,
      "amer": 6074,
      "ĠDr": 6075,
      "ounty": 6076,
      "Ġdraw": 6077,
      "apt": 6078,
      "Ġèħ¾": 6079,
      "å±ģ": 6080,
      "è½§": 6081,
      "Ġwall": 6082,
      "Ġbad": 6083,
      "Ġ2005": 6084,
      "OL": 6085,
      "ĠåĪ¶": 6086,
      "ĠéĢī": 6087,
      "èĢ½": 6088,
      "åķ¸": 6089,
      "ccgp": 6090,
      "ĠæĻ®": 6091,
      "æĮĿ": 6092,
      "nder": 6093,
      "èĮĦ": 6094,
      "eter": 6095,
      "imal": 6096,
      "èľ¡": 6097,
      "apan": 6098,
      "Be": 6099,
      "ipe": 6100,
      "rict": 6101,
      "Ġå·²": 6102,
      "Ġäº¬": 6103,
      "è·»": 6104,
      "used": 6105,
      "ĠHis": 6106,
      "anced": 6107,
      "Ġcirc": 6108,
      "Ġåı·": 6109,
      "2035": 6110,
      "Ġbill": 6111,
      "èĪħ": 6112,
      "Ġlo": 6113,
      "å«Ĥ": 6114,
      "ĠJust": 6115,
      "ted": 6116,
      "Ġåį³": 6117,
      "åį¤": 6118,
      "æ³Ĺ": 6119,
      "iter": 6120,
      "113": 6121,
      "idge": 6122,
      "Ġroll": 6123,
      "year": 6124,
      "çĶ©": 6125,
      "æŁ¿": 6126,
      "alys": 6127,
      "ç¼¸": 6128,
      "1985": 6129,
      "Ġä½ĵ": 6130,
      "Ġåı¤": 6131,
      "ä¿ı": 6132,
      "çĲ¢": 6133,
      "ules": 6134,
      "Ġvia": 6135,
      "email": 6136,
      "But": 6137,
      "PD": 6138,
      "ä¸ļåŃ": 6139,
      "éĵ®": 6140,
      "èĪľ": 6141,
      "ĠAir": 6142,
      "clus": 6143,
      "âĳł": 6144,
      "]ï¼Į": 6145,
      "çļĵ": 6146,
      "çľ·": 6147,
      "Ġop": 6148,
      "1980": 6149,
      "Ġones": 6150,
      "ĠUK": 6151,
      "fo": 6152,
      "ĠæĿĳ": 6153,
      "ĠæĶ¯": 6154,
      "Ġ80": 6155,
      "Ġ2000": 6156,
      "åºļ": 6157,
      "éĻĭ": 6158,
      "æ°Ł": 6159,
      "oura": 6160,
      "ç¼ª": 6161,
      "æ¢§": 6162,
      "ĠMin": 6163,
      "ĠDay": 6164,
      "arts": 6165,
      "Ġshop": 6166,
      "inu": 6167,
      "èĳ«": 6168,
      "uter": 6169,
      "ĠCity": 6170,
      "ĠAb": 6171,
      "illi": 6172,
      "Ġheld": 6173,
      "iol": 6174,
      "ole": 6175,
      "æĥ«": 6176,
      "orite": 6177,
      "Ġmix": 6178,
      "Ġep": 6179,
      "Phone": 6180,
      "gar": 6181,
      "Ġæ²¡": 6182,
      "Ġäº¿": 6183,
      "åĨī": 6184,
      "æİĸ": 6185,
      "çĲħ": 6186,
      "190": 6187,
      "èĳµ": 6188,
      "ĠQu": 6189,
      "oly": 6190,
      "Ġéĥ¨": 6191,
      "Ġä¸¥": 6192,
      "Ġè´§": 6193,
      "çī¦": 6194,
      "Ġbott": 6195,
      "BA": 6196,
      "Ġç»Ł": 6197,
      "Ġèİ·": 6198,
      "èµĲ": 6199,
      "ara": 6200,
      "chase": 6201,
      "CEO": 6202,
      "QQ": 6203,
      "qf": 6204,
      "zy": 6205,
      "Ġåĩł": 6206,
      "æĪİ": 6207,
      "Ġterm": 6208,
      "åĵ®": 6209,
      "Ġbal": 6210,
      "Ġlate": 6211,
      "çª¦": 6212,
      "ounts": 6213,
      "âĳ¡": 6214,
      "Cl": 6215,
      "Ġè¿Ŀ": 6216,
      "æłĵ": 6217,
      "èĩ»": 6218,
      "Ġuser": 6219,
      "Ġæ°´": 6220,
      "ĠåĪļ": 6221,
      "iles": 6222,
      "ĠTw": 6223,
      "Ġfeed": 6224,
      "Ġsche": 6225,
      "CO": 6226,
      "uary": 6227,
      "ĠåĮº": 6228,
      "åĵ¦": 6229,
      "Ġswe": 6230,
      "èİĨ": 6231,
      "ctv": 6232,
      "114": 6233,
      "å¨ħ": 6234,
      "1991": 6235,
      "9000": 6236,
      "rup": 6237,
      "¥å¹¸": 6238,
      "Ġtalk": 6239,
      "eral": 6240,
      "itut": 6241,
      "éħª": 6242,
      "tered": 6243,
      "%ï¼Ī": 6244,
      "ooth": 6245,
      "ran": 6246,
      "Ġåģļ": 6247,
      "åĨ¤": 6248,
      "éĿ¡": 6249,
      "æ¶ª": 6250,
      "æģª": 6251,
      "ÃĹÃĹ": 6252,
      "qfii": 6253,
      "MA": 6254,
      "TC": 6255,
      "Ġä¼ĺ": 6256,
      "Ġäºļ": 6257,
      "Ġç»§": 6258,
      "Ġwed": 6259,
      "roved": 6260,
      "oph": 6261,
      "earch": 6262,
      "vels": 6263,
      "grams": 6264,
      "ha": 6265,
      "hib": 6266,
      "sing": 6267,
      "Ð°": 6268,
      "Ġå®Į": 6269,
      "ĠåĽ´": 6270,
      "Ġhy": 6271,
      "Ġlif": 6272,
      "vey": 6273,
      "assic": 6274,
      "ĠVal": 6275,
      "RO": 6276,
      "ceed": 6277,
      "ĠSome": 6278,
      "ĠPre": 6279,
      "åĺ¿": 6280,
      "akes": 6281,
      "ĠStud": 6282,
      "lim": 6283,
      "ĠFin": 6284,
      "ĠGe": 6285,
      "å´İ": 6286,
      "Ġrole": 6287,
      "èķī": 6288,
      "PM": 6289,
      "fl": 6290,
      "gress": 6291,
      "ĠæĮģ": 6292,
      "æķĸ": 6293,
      "æ²¦": 6294,
      "alt": 6295,
      "122": 6296,
      "Ġcool": 6297,
      "rs": 6298,
      "uk": 6299,
      "æ³¾": 6300,
      "Ġaver": 6301,
      "1989": 6302,
      "Ġskin": 6303,
      "Ġeye": 6304,
      "©åľ¨": 6305,
      "ç¤ģ": 6306,
      "æįı": 6307,
      "åĢ¦": 6308,
      "ç³¯": 6309,
      "éĴ°": 6310,
      "oman": 6311,
      "1988": 6312,
      "ached": 6313,
      "ĠFrom": 6314,
      "å«¦": 6315,
      "Ġpubl": 6316,
      "210": 6317,
      "pa": 6318,
      "wise": 6319,
      "èµĵ": 6320,
      "çĭĻ": 6321,
      "ada": 6322,
      "139": 6323,
      "Ġrate": 6324,
      "åĲŁ": 6325,
      "Ġtour": 6326,
      "å§¥": 6327,
      "Ġsale": 6328,
      "æ®¡": 6329,
      "117": 6330,
      "hood": 6331,
      "åĩ¿": 6332,
      "æ¼ĵ": 6333,
      "306": 6334,
      "ĠBra": 6335,
      "ĠEd": 6336,
      "ĠJohn": 6337,
      "hold": 6338,
      "mit": 6339,
      "æī³": 6340,
      "Ġtit": 6341,
      "Ġsens": 6342,
      "Ġcat": 6343,
      "èĥ°": 6344,
      "ffee": 6345,
      "EO": 6346,
      "gt": 6347,
      "Ġå¸¸": 6348,
      "Ġé¾Ļ": 6349,
      "Ġæ²Ī": 6350,
      "æĸĭ": 6351,
      "Ġple": 6352,
      "ĠSy": 6353,
      "ĠAct": 6354,
      "åªļ": 6355,
      "ĠPart": 6356,
      "âī¥": 6357,
      "èł¢": 6358,
      "Pro": 6359,
      "ç»¥": 6360,
      "èĮ§": 6361,
      "èĮ¬": 6362,
      "åĸµ": 6363,
      "Ġload": 6364,
      "irth": 6365,
      "çĨł": 6366,
      "é¸¦": 6367,
      "Ġcopy": 6368,
      "mat": 6369,
      "oke": 6370,
      "ĠåĵĪ": 6371,
      "Ġbi": 6372,
      "1978": 6373,
      "ude": 6374,
      "phy": 6375,
      "gb": 6376,
      "Ġåį°": 6377,
      "inks": 6378,
      "ona": 6379,
      "Ġsn": 6380,
      "Ġsix": 6381,
      "Ġnorm": 6382,
      "135": 6383,
      "æ¦¨": 6384,
      "mas": 6385,
      "Ġåģ¥": 6386,
      "Ġç¯ĩ": 6387,
      "éĥ¸": 6388,
      "Ġwood": 6389,
      "Ġbank": 6390,
      "èĮµ": 6391,
      "118": 6392,
      "ĠJu": 6393,
      "ĠJes": 6394,
      "bb": 6395,
      "Â±": 6396,
      "erful": 6397,
      "æ¶©": 6398,
      "ĠApr": 6399,
      "Ġ31": 6400,
      "Ġneg": 6401,
      "board": 6402,
      "LL": 6403,
      "ĠåĬ¨": 6404,
      "ĠéĿŀ": 6405,
      "æł©": 6406,
      "åķĥ": 6407,
      "ĠBu": 6408,
      "aches": 6409,
      "tee": 6410,
      "éĨĭ": 6411,
      "1984": 6412,
      "!!!": 6413,
      "Ġill": 6414,
      "Ġé»ĳ": 6415,
      "æĸĲ": 6416,
      "å¯¥": 6417,
      "Ġdom": 6418,
      "çĭĦ": 6419,
      "270": 6420,
      "èļĤ": 6421,
      "://": 6422,
      "å±ĳ": 6423,
      "å¦ĸ": 6424,
      "ales": 6425,
      "èĮ¹": 6426,
      "116": 6427,
      "æĲģ": 6428,
      "ĠAN": 6429,
      "rench": 6430,
      "RT": 6431,
      "ĠçĪ±": 6432,
      "å¼ĵ": 6433,
      "Ġaw": 6434,
      "Ġwel": 6435,
      "Ġbase": 6436,
      "æ»ģ": 6437,
      "111": 6438,
      "ĠSoc": 6439,
      "iring": 6440,
      "ĠMc": 6441,
      "ĠPar": 6442,
      "ĠThen": 6443,
      "uals": 6444,
      "Our": 6445,
      "éĻ¡": 6446,
      "erc": 6447,
      "itors": 6448,
      "Ġhon": 6449,
      "ĠSec": 6450,
      "ĠLa": 6451,
      "èĶĹ": 6452,
      "ears": 6453,
      "ĠHere": 6454,
      "âħ¡": 6455,
      "hi": 6456,
      "sy": 6457,
      "ĠæĪ´": 6458,
      "Ġfa": 6459,
      "ari": 6460,
      "å²Ĥ": 6461,
      "Ġlost": 6462,
      "çªĸ": 6463,
      "aced": 6464,
      "izing": 6465,
      "?âĢĿ": 6466,
      "With": 6467,
      "wor": 6468,
      "ĠåĬŀ": 6469,
      "Ġæ¼Ķ": 6470,
      "Ġ>>": 6471,
      "Ġmat": 6472,
      "ĠSpe": 6473,
      "ĠBy": 6474,
      "estig": 6475,
      "ival": 6476,
      "Ġgoal": 6477,
      "ĠReg": 6478,
      "iddle": 6479,
      "eal": 6480,
      "Ġè§Ĥ": 6481,
      "Ġslow": 6482,
      "éļĭ": 6483,
      "olf": 6484,
      "èļĮ": 6485,
      "æ©Ħ": 6486,
      "çĢĳ": 6487,
      "330": 6488,
      "band": 6489,
      "kV": 6490,
      "lin": 6491,
      "ray": 6492,
      "Ġä¹ĭ": 6493,
      "Ġä»»": 6494,
      "ĠåĮ¿": 6495,
      "itute": 6496,
      "ises": 6497,
      "Ġfair": 6498,
      "Ġdest": 6499,
      "éĤ¯": 6500,
      "é»Ľ": 6501,
      "urb": 6502,
      "Ġ29": 6503,
      "ĠBar": 6504,
      "kend": 6505,
      "ĠDon": 6506,
      "çĴ§": 6507,
      "ĠTHE": 6508,
      "%;": 6509,
      "CT": 6510,
      "LP": 6511,
      "bor": 6512,
      "ev": 6513,
      "ĠçĽ´": 6514,
      "Ġåıª": 6515,
      "ĠçĶĺ": 6516,
      "åįĳ": 6517,
      "èıł": 6518,
      "pped": 6519,
      "ĠFeb": 6520,
      "ĠNow": 6521,
      "Ġkitc": 6522,
      "Ġprim": 6523,
      "430": 6524,
      "pose": 6525,
      "Ġæĸ¯": 6526,
      "å¸¼": 6527,
      "æİ·": 6528,
      "çŁ®": 6529,
      "æģ¤": 6530,
      "Ġinj": 6531,
      "æ£ĺ": 6532,
      "å¬ī": 6533,
      "Ġä»·": 6534,
      "åĮ¾": 6535,
      "æĬĴ": 6536,
      "erous": 6537,
      "Ġwish": 6538,
      "137": 6539,
      "ĠEven": 6540,
      "éĽį": 6541,
      "Ġsold": 6542,
      "éħĿ": 6543,
      "Ġdark": 6544,
      "Ġled": 6545,
      "ĠPark": 6546,
      "Ġdefe": 6547,
      "ĠYork": 6548,
      "Ġsaf": 6549,
      "é³Ħ": 6550,
      "All": 6551,
      "cast": 6552,
      "press": 6553,
      "Ġ:": 6554,
      "Ġing": 6555,
      "çļ±": 6556,
      "Ġtick": 6557,
      "reg": 6558,
      "ç´Ĭ": 6559,
      "121": 6560,
      "ĠMus": 6561,
      "ĠPC": 6562,
      "ĠEl": 6563,
      "Ġarri": 6564,
      "æ§¿": 6565,
      "Ġinsp": 6566,
      "ĠæĦı": 6567,
      "ĠåĪĿ": 6568,
      "Ġä¸´": 6569,
      "æĭ£": 6570,
      "æ¯Ĺ": 6571,
      "Ġpers": 6572,
      "ĠSep": 6573,
      "ĠAc": 6574,
      "key": 6575,
      "ĠAdd": 6576,
      "4500": 6577,
      "based": 6578,
      "onse": 6579,
      "erve": 6580,
      "Ġgen": 6581,
      "uses": 6582,
      "ams": 6583,
      "é¸½": 6584,
      "åĺ²": 6585,
      "ube": 6586,
      "endar": 6587,
      "Ġinde": 6588,
      "haps": 6589,
      "light": 6590,
      "Ġä¸ģ": 6591,
      "æĭĩ": 6592,
      "æıī": 6593,
      "æ´±": 6594,
      "ç¬Ľ": 6595,
      "Ġfill": 6596,
      "Ġbud": 6597,
      "æģŃ": 6598,
      "è±ļ": 6599,
      "iday": 6600,
      "æ½¼": 6601,
      "144": 6602,
      "æ¦ķ": 6603,
      "ĠHigh": 6604,
      "ĠDep": 6605,
      "çŀİ": 6606,
      "IG": 6607,
      "RA": 6608,
      "ĠçľŁ": 6609,
      "Ġæ¸©": 6610,
      "ãĢĩ": 6611,
      "Ġded": 6612,
      "èĻŀ": 6613,
      "ĠSw": 6614,
      "ades": 6615,
      "apter": 6616,
      "ordin": 6617,
      "Ġarch": 6618,
      "1982": 6619,
      "ING": 6620,
      "ses": 6621,
      "Ġri": 6622,
      "æĿŀ": 6623,
      "è¾Ĺ": 6624,
      "ç¾ļ": 6625,
      "éĽı": 6626,
      "æĻ¾": 6627,
      "124": 6628,
      "ĠSund": 6629,
      "iff": 6630,
      "allen": 6631,
      "aves": 6632,
      "anged": 6633,
      "GPT": 6634,
      "ĠåĮħ": 6635,
      "åľ©": 6636,
      "åĳķ": 6637,
      "æı£": 6638,
      "çģ¸": 6639,
      "Ġhair": 6640,
      "ested": 6641,
      "Ġclos": 6642,
      "like": 6643,
      "rate": 6644,
      "ĠæĮĩ": 6645,
      "ĠäºĴ": 6646,
      "Ġçºł": 6647,
      "æĮł": 6648,
      "001": 6649,
      "ioned": 6650,
      "è£´": 6651,
      "é¹Ń": 6652,
      "ĠOut": 6653,
      "Ġsaw": 6654,
      "aign": 6655,
      "ham": 6656,
      "just": 6657,
      "ĠåĪ©": 6658,
      "Ġä½ı": 6659,
      "å¼§": 6660,
      "âĢĿ.": 6661,
      "æ¶¤": 6662,
      "Ġfix": 6663,
      "Ġfirm": 6664,
      "Ġbur": 6665,
      "ppp": 6666,
      "Ġhear": 6667,
      "Ġdebt": 6668,
      "è¤ª": 6669,
      "PE": 6670,
      "ying": 6671,
      "Ġè§Ĩ": 6672,
      "Ġå¤ĩ": 6673,
      "ĠåĨĽ": 6674,
      "çŃ·": 6675,
      "Ġhuge": 6676,
      "cep": 6677,
      "1700": 6678,
      "ĠUp": 6679,
      "Ġ2003": 6680,
      "grade": 6681,
      "off": 6682,
      "è§ħ": 6683,
      "é¢Ĳ": 6684,
      "Ġfram": 6685,
      "Ġpet": 6686,
      "alu": 6687,
      "åŀ®": 6688,
      "126": 6689,
      "oles": 6690,
      "èĹ»": 6691,
      "ĠRed": 6692,
      "çĴ¨": 6693,
      "è¹Ń": 6694,
      "Ġprem": 6695,
      "***": 6696,
      "çĢļ": 6697,
      "010": 6698,
      "wind": 6699,
      "Ġ90": 6700,
      "æīĴ": 6701,
      "Ġcas": 6702,
      "è±ģ": 6703,
      "antly": 6704,
      "aught": 6705,
      "My": 6706,
      "zz": 6707,
      "ºåŃĲ": 6708,
      "Ġç«ĭ": 6709,
      "Ġè½¬": 6710,
      "Ġè¿Ķ": 6711,
      "å¨´": 6712,
      "ĠAre": 6713,
      "hern": 6714,
      "tempt": 6715,
      "ĠOf": 6716,
      "Ġgoes": 6717,
      "çĴĢ": 6718,
      "Ġsett": 6719,
      "ç°¿": 6720,
      "Ġcapt": 6721,
      "020": 6722,
      "Ex": 6723,
      "ĠæĬĬ": 6724,
      "ĠâĪļ": 6725,
      "æ²¼": 6726,
      "åĵĳ": 6727,
      "ç¾ģ": 6728,
      "æģº": 6729,
      "çĦī": 6730,
      "aries": 6731,
      "138": 6732,
      "Ġnote": 6733,
      "Ġdise": 6734,
      "Ġemb": 6735,
      "\".": 6736,
      "750": 6737,
      "gu": 6738,
      "Ġ00": 6739,
      "Ġball": 6740,
      "enty": 6741,
      "aller": 6742,
      "avid": 6743,
      "XX": 6744,
      "cos": 6745,
      "vs": 6746,
      "Ġ=": 6747,
      "Ġéĺ²": 6748,
      "ĠèĶ¡": 6749,
      "ä¹ĸ": 6750,
      "è·ª": 6751,
      "å§Ĺ": 6752,
      "èĮľ": 6753,
      "Ġemer": 6754,
      "Ġrent": 6755,
      "uth": 6756,
      "èıı": 6757,
      "ĠBas": 6758,
      "term": 6759,
      "1983": 6760,
      "éĦ±": 6761,
      "arned": 6762,
      "views": 6763,
      "sm": 6764,
      "Ġå¤ı": 6765,
      "ç«¿": 6766,
      "127": 6767,
      "ĠéĻĨ": 6768,
      "Ġæ³°": 6769,
      "Ġä¹Į": 6770,
      "åĮ®": 6771,
      "reed": 6772,
      "æŁļ": 6773,
      "Ġoffe": 6774,
      "ples": 6775,
      "Ġ2004": 6776,
      "Ġtrip": 6777,
      "Ġpaid": 6778,
      "lied": 6779,
      "rant": 6780,
      "ĠçŃī": 6781,
      "ĠåľŁ": 6782,
      "Ġæ¢ģ": 6783,
      "Ġult": 6784,
      "å¯ħ": 6785,
      "Ġcand": 6786,
      "oul": 6787,
      "omet": 6788,
      "iling": 6789,
      "Ġlab": 6790,
      "abil": 6791,
      "ĠChar": 6792,
      "ç£ħç¤": 6793,
      "225": 6794,
      "380": 6795,
      "IV": 6796,
      "æĭ¯": 6797,
      "atory": 6798,
      "Ġfish": 6799,
      "Ġmass": 6800,
      "èĮ¸": 6801,
      "ĠIN": 6802,
      "roups": 6803,
      "ibly": 6804,
      "Ġè®¾": 6805,
      "reci": 6806,
      "129": 6807,
      "iders": 6808,
      "ĠMod": 6809,
      "145": 6810,
      "146": 6811,
      "ĠBus": 6812,
      "Ġsend": 6813,
      "olute": 6814,
      "tvb": 6815,
      "PA": 6816,
      "cd": 6817,
      "ira": 6818,
      "ny": 6819,
      "åĩ¹": 6820,
      "Ġsong": 6821,
      "ç¼Ģ": 6822,
      "èĮİ": 6823,
      "Ġhit": 6824,
      "æļĩ": 6825,
      "ĠAcc": 6826,
      "ĠAug": 6827,
      "Ġheat": 6828,
      "Ġvict": 6829,
      "ĠNet": 6830,
      "izes": 6831,
      "care": 6832,
      "Ġåĵģ": 6833,
      "Ġmag": 6834,
      "ica": 6835,
      "çħ½": 6836,
      "ĠRec": 6837,
      "ĠRuss": 6838,
      "çĳĻ": 6839,
      "Ġword": 6840,
      "Ġflav": 6841,
      ");": 6842,
      "Re": 6843,
      "uel": 6844,
      "xx": 6845,
      "áĦ": 6846,
      "áħ": 6847,
      "æ±¹": 6848,
      "éĵ¿": 6849,
      "éĶµ": 6850,
      "Ġdru": 6851,
      "147": 6852,
      "ĠOct": 6853,
      "agram": 6854,
      "1987": 6855,
      "PV": 6856,
      "SC": 6857,
      "vis": 6858,
      "æĭĤ": 6859,
      "Ġfine": 6860,
      "Ġmid": 6861,
      "çªľ": 6862,
      "odes": 6863,
      "æ§Ĳ": 6864,
      ")ãĢĭ": 6865,
      "za": 6866,
      "Ġåį¡": 6867,
      "Ġsess": 6868,
      "155": 6869,
      "ĠCle": 6870,
      "èıģ": 6871,
      "ĠPres": 6872,
      "Ġdeep": 6873,
      "Ġviol": 6874,
      "arden": 6875,
      "Ar": 6876,
      "MI": 6877,
      "ki": 6878,
      "Ġ*": 6879,
      "ĠéľĢ": 6880,
      "Ġä¼Ĺ": 6881,
      "Ġå¸Į": 6882,
      "åıŃ": 6883,
      "å±¹": 6884,
      "het": 6885,
      "åħ¥å¨": 6886,
      "çķ¸": 6887,
      "Ġpen": 6888,
      "ç¼ļ": 6889,
      "Ġhun": 6890,
      "Ġreve": 6891,
      "ĠHer": 6892,
      "Ġplus": 6893,
      "hens": 6894,
      "DD": 6895,
      "ka": 6896,
      "Ġè·¯": 6897,
      "ä¹ŀ": 6898,
      "èµĤ": 6899,
      "info": 6900,
      "Ġwarm": 6901,
      "Ġobs": 6902,
      "175": 6903,
      "ĠInc": 6904,
      "åļ£": 6905,
      "ĠJuly": 6906,
      "ĠçĲĨ": 6907,
      "Ġæł¸": 6908,
      "Ġç»¿": 6909,
      "ĠåĲ¬": 6910,
      "Ġè¿Ī": 6911,
      "è¿¸": 6912,
      "çĽı": 6913,
      "é¢¤": 6914,
      "æĻı": 6915,
      "åĿŁ": 6916,
      "Ġcash": 6917,
      "ç¥º": 6918,
      "Ġdiv": 6919,
      "Ġgir": 6920,
      "çĺŁ": 6921,
      "ga": 6922,
      "©ä¸Ģ": 6923,
      "Ġå¢ŀ": 6924,
      "Ġç§¯": 6925,
      "Ġé£Ł": 6926,
      "Ġ--": 6927,
      "asons": 6928,
      "ilies": 6929,
      "unine": 6930,
      "opt": 6931,
      "ques": 6932,
      "ellow": 6933,
      "åĹĵ": 6934,
      "cul": 6935,
      "ĠæĦŁ": 6936,
      "ĠåĪ«": 6937,
      "Ġpred": 6938,
      "é©¹": 6939,
      "ico": 6940,
      "1949": 6941,
      "ĠAI": 6942,
      "ç¢ĺ": 6943,
      "venue": 6944,
      "??": 6945,
      "ek": 6946,
      "ech": 6947,
      "iable": 6948,
      "ĠÑ": 6949,
      "Ġç»Ħ": 6950,
      "Ġåħī": 6951,
      "ĠåŁ¹": 6952,
      "ĥèŁ¹": 6953,
      "åŃļ": 6954,
      "Ġaim": 6955,
      "å»ĵ": 6956,
      "165": 6957,
      "136": 6958,
      "2400": 6959,
      "ortun": 6960,
      "èĽĻ": 6961,
      "ruary": 6962,
      "Ġcars": 6963,
      "ttp": 6964,
      "ĠæĬĢ": 6965,
      "ĠåĶ®": 6966,
      "Ġæİ¢": 6967,
      "Ġè¾½": 6968,
      "èĢ»": 6969,
      "èĢĺ": 6970,
      "çĪ¹": 6971,
      "etic": 6972,
      "lying": 6973,
      "ayer": 6974,
      "131": 6975,
      "ropri": 6976,
      "Ġeyes": 6977,
      "BS": 6978,
      "bi": 6979,
      "Ġ)": 6980,
      "ç¾Į": 6981,
      "å¦Ħ": 6982,
      "Ġcoo": 6983,
      "132": 6984,
      "ĠFace": 6985,
      "Ġ06": 6986,
      "1986": 6987,
      "Ġacid": 6988,
      "Ġlots": 6989,
      "At": 6990,
      "MT": 6991,
      "Ġéĺ³": 6992,
      "éķĸ": 6993,
      "rel": 6994,
      "èº¬": 6995,
      "ils": 6996,
      "ĠWest": 6997,
      "ĠHar": 6998,
      "ĠHome": 6999,
      "ĠFree": 7000,
      "Ġdeb": 7001,
      "çŀ§": 7002,
      "opped": 7003,
      "\":": 7004,
      "lier": 7005,
      "Ġå¼ķ": 7006,
      "å¾Ļ": 7007,
      "åĳĲ": 7008,
      "éĽ¹": 7009,
      "icial": 7010,
      "Ġhosp": 7011,
      "1979": 7012,
      "Ġgas": 7013,
      "ĠMost": 7014,
      "Ġwasn": 7015,
      "comes": 7016,
      "onds": 7017,
      "Ġacqu": 7018,
      "åµ©": 7019,
      "fr": 7020,
      "Ġå½Ń": 7021,
      "çĶ¬": 7022,
      "èĤĭ": 7023,
      "aning": 7024,
      "148": 7025,
      "ĠNove": 7026,
      "ences": 7027,
      "rated": 7028,
      "ser": 7029,
      "ĠæľĿ": 7030,
      "âĢĿ)": 7031,
      "ç¦º": 7032,
      "çħľ": 7033,
      "çĮ¿": 7034,
      "pping": 7035,
      "141": 7036,
      "CS": 7037,
      "One": 7038,
      "ĠåĲĳ": 7039,
      "ĠåıĪ": 7040,
      "æĹ·": 7041,
      "éĩī": 7042,
      "åķĦ": 7043,
      "isc": 7044,
      "Ġbath": 7045,
      "Ġpath": 7046,
      "èİ½": 7047,
      "çĹ°": 7048,
      "ental": 7049,
      "ĠWell": 7050,
      "ç¯Ĩ": 7051,
      "efit": 7052,
      "Ġdeli": 7053,
      "AD": 7054,
      "UI": 7055,
      "fter": 7056,
      "gal": 7057,
      "vant": 7058,
      "ä¼½": 7059,
      "åºĩ": 7060,
      "è¾Ħ": 7061,
      "Ġwal": 7062,
      "çłĮ": 7063,
      "ç¼ķ": 7064,
      "åĸ§": 7065,
      "çĹĺ": 7066,
      "Ġeat": 7067,
      "å¨¶": 7068,
      "amed": 7069,
      "Ġvirt": 7070,
      "çĩİ": 7071,
      "Ġclub": 7072,
      "Ġwait": 7073,
      "ION": 7074,
      "gç½ĳ": 7075,
      "tra": 7076,
      "hest": 7077,
      "æĦļ": 7078,
      "orage": 7079,
      "Ġdro": 7080,
      "çª¥": 7081,
      "ota": 7082,
      "Ġvac": 7083,
      "éºĴ": 7084,
      "Ġdoor": 7085,
      "ĠProf": 7086,
      "TV": 7087,
      "pc": 7088,
      "Ġåį¢": 7089,
      "æĭİ": 7090,
      "åĿį": 7091,
      "æŁł": 7092,
      "Ġsus": 7093,
      "çĿģ": 7094,
      "çŁ£": 7095,
      "Ġfat": 7096,
      "ĠTV": 7097,
      "æ¤°": 7098,
      "Ġ04": 7099,
      "Ġsuit": 7100,
      "Ġ2002": 7101,
      "Ġgets": 7102,
      "airs": 7103,
      "ronic": 7104,
      "Ġéĵģ": 7105,
      "Ġåİ¦": 7106,
      "ĠåĨ¯": 7107,
      "è¦ĥ": 7108,
      "æ²ħ": 7109,
      "itter": 7110,
      "èĬ®": 7111,
      "ĠAng": 7112,
      "CAæķ°": 7113,
      "ios": 7114,
      "lies": 7115,
      "ä»¨": 7116,
      "åĲ¼": 7117,
      "æĸ§": 7118,
      "æĢľ": 7119,
      "inner": 7120,
      "Ġsil": 7121,
      "arter": 7122,
      "çĥ¨": 7123,
      "å²Ĳ": 7124,
      "Ġ35": 7125,
      "Ġuses": 7126,
      "ainly": 7127,
      "alled": 7128,
      "ago": 7129,
      "ĠJe": 7130,
      "leted": 7131,
      "OW": 7132,
      "cking": 7133,
      "ij": 7134,
      "Ġå¿ĥ": 7135,
      "ĠçŁ¥": 7136,
      "Ġæ¸¯": 7137,
      "Ġå¤ª": 7138,
      "ala": 7139,
      "Ġdat": 7140,
      "Ġgar": 7141,
      "åĥ»": 7142,
      "å³Ļ": 7143,
      "ĠMor": 7144,
      "ĠBo": 7145,
      "ĠGet": 7146,
      "oday": 7147,
      "Ġenh": 7148,
      "Ġrad": 7149,
      "ĠAlso": 7150,
      "rd": 7151,
      "ä¸«": 7152,
      "Ġbrow": 7153,
      "é¦ħ": 7154,
      "æ»Ķ": 7155,
      "èĥļ": 7156,
      "Ġlic": 7157,
      "æħ·": 7158,
      "156": 7159,
      "158": 7160,
      "æ¿®": 7161,
      "ĠMr": 7162,
      "ĠMon": 7163,
      "ĠMore": 7164,
      "sec": 7165,
      "185": 7166,
      "ansl": 7167,
      "rapy": 7168,
      "rupt": 7169,
      "SU": 7170,
      "hy": 7171,
      "Ġå¤į": 7172,
      "åĴķ": 7173,
      "orpor": 7174,
      "é¦į": 7175,
      "åŀ£": 7176,
      "æ¹Ħ": 7177,
      "æĤį": 7178,
      "365": 7179,
      "Ġteac": 7180,
      "éŀł": 7181,
      "hop": 7182,
      "ned": 7183,
      "Ġæ±½": 7184,
      "åħ¢": 7185,
      "ä½Ł": 7186,
      "æ³£": 7187,
      "èĤĺ": 7188,
      "aran": 7189,
      "iced": 7190,
      "Ġyes": 7191,
      "Ġrepl": 7192,
      "reng": 7193,
      "ĠÂ£": 7194,
      "Ġutil": 7195,
      "da": 7196,
      "çį": 7197,
      "ĠéĽĨ": 7198,
      "ĠéĢĤ": 7199,
      "Ġé»ĺ": 7200,
      "Ġaff": 7201,
      "éĥ´": 7202,
      "ç¨¼": 7203,
      "å§¬": 7204,
      "isa": 7205,
      "Ġboo": 7206,
      "arily": 7207,
      "èį¼": 7208,
      "roid": 7209,
      "èħ¥": 7210,
      "ĠPol": 7211,
      "ĠBro": 7212,
      "actly": 7213,
      "Ġtele": 7214,
      "ondon": 7215,
      "´èĿ¶": 7216,
      "Ġæī§": 7217,
      "Ġè®²": 7218,
      "ĠãĢĳ": 7219,
      "çļĤ": 7220,
      "âĢĿ(": 7221,
      "çİº": 7222,
      "æİł": 7223,
      "çŃĿ": 7224,
      "è¾į": 7225,
      "èĬĭ": 7226,
      "ç¡Ĵ": 7227,
      "èįŁ": 7228,
      "ĠAg": 7229,
      "é²¤": 7230,
      "see": 7231,
      "ĠBrit": 7232,
      "Ġevid": 7233,
      "pmi": 7234,
      "âĨĵ": 7235,
      "EL": 7236,
      "Open": 7237,
      "fc": 7238,
      "house": 7239,
      "ule": 7240,
      "Ġä¾ĭ": 7241,
      "ä½¬": 7242,
      "æĿĸ": 7243,
      "Ġsqu": 7244,
      "arc": 7245,
      "æ£±": 7246,
      "çģ¼": 7247,
      "Ġgift": 7248,
      "Ġjour": 7249,
      "Ġchem": 7250,
      "amera": 7251,
      "MS": 7252,
      "mv": 7253,
      "right": 7254,
      "rcep": 7255,
      "Ġèº«": 7256,
      "Ġæ¯Ľ": 7257,
      "åį¦": 7258,
      "æİº": 7259,
      "éķ¶": 7260,
      "é©Ń": 7261,
      "imf": 7262,
      "Ġclin": 7263,
      "order": 7264,
      "12345": 7265,
      "æª¬": 7266,
      "RS": 7267,
      "Ġtim": 7268,
      "Ġwww": 7269,
      "ç²±": 7270,
      "Ġdiet": 7271,
      "Ġhour": 7272,
      "Ġrev": 7273,
      "çĮķ": 7274,
      "ĠWar": 7275,
      "Ġdecl": 7276,
      "èľķ": 7277,
      "Ġemot": 7278,
      "âĳ¢": 7279,
      "enges": 7280,
      ")ï¼Ľ": 7281,
      "range": 7282,
      "uce": 7283,
      "Ġæ¸¸": 7284,
      "Ġä½Ļ": 7285,
      "Ġè¢ģ": 7286,
      "å¯ŀ": 7287,
      "æ²®": 7288,
      "itary": 7289,
      "Ġfant": 7290,
      "Ġhop": 7291,
      "152": 7292,
      "134": 7293,
      "é¸¥": 7294,
      "çĳķ": 7295,
      "Ġjud": 7296,
      "ĠJune": 7297,
      "____": 7298,
      "OM": 7299,
      "la": 7300,
      "pre": 7301,
      "pite": 7302,
      "rast": 7303,
      "Â®": 7304,
      "Ġèĥ½": 7305,
      "éĺİ": 7306,
      "èĲĥ": 7307,
      "è¶´": 7308,
      "éħĮ": 7309,
      "æĳĴ": 7310,
      "308": 7311,
      "ç¢¾": 7312,
      "ĠWind": 7313,
      "2300": 7314,
      "ĠOff": 7315,
      "Ġ2001": 7316,
      "Ġfeet": 7317,
      "Ġqual": 7318,
      "ancy": 7319,
      "èĿī": 7320,
      "CD": 7321,
      "ML": 7322,
      "aul": 7323,
      "car": 7324,
      "ĊĠ": 7325,
      "Ġæĭī": 7326,
      "æ¸²": 7327,
      "å¨ĵ": 7328,
      "char": 7329,
      "å©º": 7330,
      "sequ": 7331,
      "Ġsele": 7332,
      "ĠLaw": 7333,
      "ĠBlue": 7334,
      "BD": 7335,
      "UN": 7336,
      "cious": 7337,
      "ken": 7338,
      "mi": 7339,
      "ville": 7340,
      "Ġï¼Ľ": 7341,
      "Ġç®Ģ": 7342,
      "ç»ŀ": 7343,
      "å¿»": 7344,
      "æĭ§": 7345,
      "Ġsour": 7346,
      "Ġfash": 7347,
      "è¢ľ": 7348,
      "Ġmer": 7349,
      "chan": 7350,
      "Ġwear": 7351,
      "Ġord": 7352,
      "Ġsubs": 7353,
      "åĹ¨": 7354,
      "480": 7355,
      "After": 7356,
      "dna": 7357,
      "nes": 7358,
      "oom": 7359,
      "ta": 7360,
      "Ġç®¡": 7361,
      "Ġæĸ½": 7362,
      "Ġä¸¾": 7363,
      "Ġçªģ": 7364,
      "æĮŁ": 7365,
      "esg": 7366,
      "çĥ·": 7367,
      "asc": 7368,
      "çĮĿ": 7369,
      "æĲĵ": 7370,
      "æ½ŀ": 7371,
      "ĠPat": 7372,
      "ĠPal": 7373,
      "umn": 7374,
      "Ġ03": 7375,
      "perts": 7376,
      "ruit": 7377,
      "oving": 7378,
      "âħ£": 7379,
      "wood": 7380,
      "Ġé¢Ĩ": 7381,
      "Ġä¹¡": 7382,
      "Ġç§¦": 7383,
      "éĻ¨": 7384,
      "æ°ª": 7385,
      "itar": 7386,
      "èĭŁ": 7387,
      "éĴ¾": 7388,
      "çĥĽ": 7389,
      "Ġdry": 7390,
      "éª¸": 7391,
      "èº¯": 7392,
      "Ġgave": 7393,
      "oto": 7394,
      "133": 7395,
      "ĠWhe": 7396,
      "ague": 7397,
      "dule": 7398,
      "icken": 7399,
      "IPO": 7400,
      "ĠDece": 7401,
      "919": 7402,
      "IF": 7403,
      "bur": 7404,
      "ker": 7405,
      "ym": 7406,
      "Ġè¶ħ": 7407,
      "ĠçīĪ": 7408,
      "ä¿ĺ": 7409,
      "èĤ´": 7410,
      "Ġcab": 7411,
      "icing": 7412,
      "omas": 7413,
      "olve": 7414,
      "ama": 7415,
      "pper": 7416,
      "168": 7417,
      "Ġimm": 7418,
      "cles": 7419,
      "650": 7420,
      "dom": 7421,
      "free": 7422,
      "Ġé¢ĺ": 7423,
      "Ġè®º": 7424,
      "Ġæ¶ī": 7425,
      "Ġçľ¼": 7426,
      "Ġç¬Ķ": 7427,
      "ä½°": 7428,
      "åĽļ": 7429,
      "Ġtur": 7430,
      "èĬ¸": 7431,
      "Ġfelt": 7432,
      "anch": 7433,
      "è¥Ł": 7434,
      "Ġdrop": 7435,
      "Ġnar": 7436,
      "çªĺ": 7437,
      "ulf": 7438,
      "éĨĽ": 7439,
      "prise": 7440,
      "box": 7441,
      "ipped": 7442,
      "211": 7443,
      "Hz": 7444,
      "ares": 7445,
      "ĊĊ": 7446,
      "ĠåħĪ": 7447,
      "Ġæ±ª": 7448,
      "æĪĽ": 7449,
      "205": 7450,
      "æ¸İ": 7451,
      "Ġcup": 7452,
      "inger": 7453,
      "ald": 7454,
      "é©¯": 7455,
      "æĴ¸": 7456,
      "ĠTex": 7457,
      "Ġstru": 7458,
      "188": 7459,
      "ĠBook": 7460,
      "169": 7461,
      "aint": 7462,
      "Ġoutd": 7463,
      "attle": 7464,
      "bum": 7465,
      "ht": 7466,
      "log": 7467,
      "wto": 7468,
      "¬å¦Ĥ": 7469,
      "Ġåİ¿": 7470,
      "Ġåħ°": 7471,
      "ĠçĶ°": 7472,
      "ä½¼": 7473,
      "éĩľ": 7474,
      "Ġten": 7475,
      "åĵĹ": 7476,
      "Ġsav": 7477,
      "Ġcove": 7478,
      "Ġhus": 7479,
      "èĦĵ": 7480,
      "153": 7481,
      "çĨĦ": 7482,
      "'d": 7483,
      "Ð¸": 7484,
      "Ġå¸ĥ": 7485,
      "ĠèµĽ": 7486,
      "ĠéĤĵ": 7487,
      "iner": 7488,
      "éĺª": 7489,
      "åĿ¯": 7490,
      "æŁĦ": 7491,
      "Ġcru": 7492,
      "itz": 7493,
      "ç¦§": 7494,
      "2026": 7495,
      "Ġ02": 7496,
      "Ġknew": 7497,
      "enses": 7498,
      "overn": 7499,
      "LE": 7500,
      "iot": 7501,
      "ĠèĮĥ": 7502,
      "Ġåº§": 7503,
      "Ġtag": 7504,
      "åĳĹ": 7505,
      "æŃ¹": 7506,
      "åī¿": 7507,
      "çĤĻ": 7508,
      "æ·Į": 7509,
      "ç¼¤": 7510,
      "éħ¥": 7511,
      "çıĢ": 7512,
      "éŁ¬": 7513,
      "ĠSpr": 7514,
      "èı©": 7515,
      "Ġ45": 7516,
      "Ġimag": 7517,
      "Ġrock": 7518,
      "auty": 7519,
      "ĠArt": 7520,
      "Ġåħ¥": 7521,
      "ĠéĽ·": 7522,
      "ĠæĽ¹": 7523,
      "èµ¡": 7524,
      "Ġhor": 7525,
      "ste": 7526,
      "ĠSu": 7527,
      "åĺĢ": 7528,
      "é¹Ĭ": 7529,
      "2200": 7530,
      "cing": 7531,
      "no": 7532,
      "set": 7533,
      "Ġéī´": 7534,
      "Ġè´¾": 7535,
      "ãĢĤ[": 7536,
      "åĲ®": 7537,
      "è´°": 7538,
      "æ¯Ļ": 7539,
      "nded": 7540,
      "åĦĭ": 7541,
      "ĠCour": 7542,
      "istry": 7543,
      "2600": 7544,
      "åĹħ": 7545,
      "ç°ĩ": 7546,
      "CEP": 7547,
      "Gç½ĳ": 7548,
      "SS": 7549,
      "Ġæ°Ķ": 7550,
      "ĠèģĮ": 7551,
      "Ġåº·": 7552,
      "Ġver": 7553,
      "è¡¢": 7554,
      "enior": 7555,
      "Ġmark": 7556,
      "2027": 7557,
      "åĭº": 7558,
      "Ġalth": 7559,
      "Ġanim": 7560,
      "æ¦Ī": 7561,
      "ĠHall": 7562,
      "ĠDri": 7563,
      "ç£ķ": 7564,
      "ailed": 7565,
      "Ġrain": 7566,
      "ç°§": 7567,
      "420": 7568,
      "618": 7569,
      "bu": 7570,
      "body": 7571,
      "dr": 7572,
      "iance": 7573,
      "viv": 7574,
      "Ġå¾Ĺ": 7575,
      "Ġåħħ": 7576,
      "Ġæ½ĺ": 7577,
      "èĢ¸": 7578,
      "è½¶": 7579,
      "èĲ¤": 7580,
      "Ġfab": 7581,
      "Ġgold": 7582,
      "ĠIT": 7583,
      "142": 7584,
      "Ġdead": 7585,
      "gery": 7586,
      "gin": 7587,
      "wide": 7588,
      "Ġèĭ¥": 7589,
      "Ġèİ«": 7590,
      "é¢ħ": 7591,
      "ç¨ļ": 7592,
      "Ġson": 7593,
      "iture": 7594,
      "Ġborn": 7595,
      "æ£º": 7596,
      "èĮģ": 7597,
      "Ġnut": 7598,
      "ĠTO": 7599,
      "ĠSan": 7600,
      "ĠMany": 7601,
      "riz": 7602,
      "Ġ500": 7603,
      "akers": 7604,
      "ralia": 7605,
      "RCEP": 7606,
      "UT": 7607,
      "mar": 7608,
      "van": 7609,
      "©èĩª": 7610,
      "Ġè´¨": 7611,
      "Ġæ²Ļ": 7612,
      "èĭĩ": 7613,
      "oma": 7614,
      "ĠMac": 7615,
      "Ġ05": 7616,
      "èĽŁ": 7617,
      "These": 7618,
      "phic": 7619,
      "550": 7620,
      "CN": 7621,
      "No": 7622,
      "bon": 7623,
      "down": 7624,
      "td": 7625,
      "Ġè®¡": 7626,
      "Ġæĺĵ": 7627,
      "Ġæ¢ħ": 7628,
      "æµļ": 7629,
      "æŀ¸": 7630,
      "Ġhund": 7631,
      "ros": 7632,
      "Ġonto": 7633,
      "ĠCons": 7634,
      "ĠPet": 7635,
      "181": 7636,
      "urent": 7637,
      "ĠET": 7638,
      "erved": 7639,
      "Do": 7640,
      "ĠåĬ©": 7641,
      "Ġçģ«": 7642,
      "ĠæĤ¨": 7643,
      "å¾ĺ": 7644,
      "207": 7645,
      "æ¯ĭ": 7646,
      "Ġcord": 7647,
      "çĥĻ": 7648,
      "iger": 7649,
      "æ¾Ī": 7650,
      "ĠGerm": 7651,
      "èĿĩ": 7652,
      "Ġopin": 7653,
      "340": 7654,
      "370": 7655,
      "LED": 7656,
      "aks": 7657,
      "ault": 7658,
      "gen": 7659,
      "vin": 7660,
      "ĠèĲ¥": 7661,
      "Ġå®£": 7662,
      "ĠçĽĺ": 7663,
      "inate": 7664,
      "æĭ½": 7665,
      "è¾Ļ": 7666,
      "å¢Ĵ": 7667,
      "èĪµ": 7668,
      "å²ĳ": 7669,
      "icks": 7670,
      "oted": 7671,
      "tein": 7672,
      "Ġ01": 7673,
      "AG": 7674,
      "ded": 7675,
      "hèĤ¡": 7676,
      "ĠèĬ±": 7677,
      "Ġç´§": 7678,
      "ä¹į": 7679,
      "è¯¡": 7680,
      "å¾Ĭ": 7681,
      "206": 7682,
      "å¦Ĵ": 7683,
      "ç©¹": 7684,
      "çĸ®": 7685,
      "éª¼": 7686,
      "icies": 7687,
      "çĹª": 7688,
      "ĠBest": 7689,
      "iforn": 7690,
      "That": 7691,
      "è¤Ĵ": 7692,
      "OC": 7693,
      "dy": 7694,
      "æĪ³": 7695,
      "çŃĲ": 7696,
      "æ¸į": 7697,
      "Ġhous": 7698,
      "çĹ¹": 7699,
      "151": 7700,
      "ĠCoun": 7701,
      "ppi": 7702,
      "unte": 7703,
      "ifi": 7704,
      "rome": 7705,
      "anta": 7706,
      "æĩĭ": 7707,
      "igns": 7708,
      "1981": 7709,
      "Ġjoin": 7710,
      "sych": 7711,
      "fast": 7712,
      "net": 7713,
      "rat": 7714,
      "well": 7715,
      "Ġç³»": 7716,
      "ĠéĻį": 7717,
      "ĠéĤ®": 7718,
      "ä¾ĳ": 7719,
      "orney": 7720,
      "Ġmort": 7721,
      "ĠTues": 7722,
      "154": 7723,
      "182": 7724,
      "rial": 7725,
      "ç¯¡": 7726,
      "çĳļ": 7727,
      "269": 7728,
      "èĽĽ": 7729,
      "apec": 7730,
      "NG": 7731,
      "PU": 7732,
      "aper": 7733,
      "uan": 7734,
      "çµ": 7735,
      "ĠçŁŃ": 7736,
      "Ġä¼´": 7737,
      "alog": 7738,
      "èĭĶ": 7739,
      "æ¼¾": 7740,
      "ĠAnt": 7741,
      "raw": 7742,
      "Ġ32": 7743,
      "2800": 7744,
      "ipes": 7745,
      "acts": 7746,
      "Ġdish": 7747,
      "\",\"": 7748,
      "cont": 7749,
      "ç¶": 7750,
      "ĠåŃ©": 7751,
      "Ġåįĥ": 7752,
      "Ġå§ļ": 7753,
      "åĲĴ": 7754,
      "æ²±": 7755,
      "è·ĭ": 7756,
      "æĻŁ": 7757,
      "Ġwife": 7758,
      "itude": 7759,
      "éĴĬ": 7760,
      "ctors": 7761,
      "owed": 7762,
      "157": 7763,
      "ĠCard": 7764,
      "Ġaren": 7765,
      "ĠWes": 7766,
      "abl": 7767,
      "ĠOpen": 7768,
      "çŀª": 7769,
      "ĠRead": 7770,
      ".ãĢĬ": 7771,
      "Com": 7772,
      "cal": 7773,
      "Ġé£İ": 7774,
      "Ġæĥ³": 7775,
      "Ġå®Ŀ": 7776,
      "ï¼ķ": 7777,
      "è¯Ł": 7778,
      "æµĬ": 7779,
      "ä¾Ĺ": 7780,
      "Ġflex": 7781,
      "Ġband": 7782,
      "Ġpow": 7783,
      "ç¥Ľ": 7784,
      "elle": 7785,
      "149": 7786,
      "ĠBob": 7787,
      "ĠDec": 7788,
      "235": 7789,
      "ĠKore": 7790,
      "onday": 7791,
      "%~": 7792,
      "CL": 7793,
      "IA": 7794,
      "Pl": 7795,
      "qd": 7796,
      "©æĢ§": 7797,
      "Ġç¨ĭ": 7798,
      "Ġæµİ": 7799,
      "Ġç¡®": 7800,
      "ĠæĪĸ": 7801,
      "Ġåįļ": 7802,
      "Ġharm": 7803,
      "etf": 7804,
      "195": 7805,
      "ida": 7806,
      "amic": 7807,
      "ĠMex": 7808,
      "unk": 7809,
      "166": 7810,
      "179": 7811,
      "290": 7812,
      "ĠJack": 7813,
      "åļ¼": 7814,
      "âī¤": 7815,
      "word": 7816,
      "Ġæł¼": 7817,
      "Ġåĺī": 7818,
      "ĠæıŃ": 7819,
      "ĠçĨĬ": 7820,
      "Ġæ²ª": 7821,
      "çºĤ": 7822,
      "ç¾¹": 7823,
      "éľĦ": 7824,
      "ĠSch": 7825,
      "ĠSim": 7826,
      "159": 7827,
      "raft": 7828,
      "ç¢Ł": 7829,
      "Ġ300": 7830,
      "oprim": 7831,
      "text": 7832,
      "ĠEach": 7833,
      "æĨ¨": 7834,
      "axy": 7835,
      "rooms": 7836,
      "DR": 7837,
      "MB": 7838,
      "aj": 7839,
      "rum": 7840,
      "tpp": 7841,
      "Ġå¿«": 7842,
      "å°ī": 7843,
      "ä¿Ĳ": 7844,
      "ç¨ŀ": 7845,
      "Ġsust": 7846,
      "Ġwire": 7847,
      "Ġpoor": 7848,
      "Ġleng": 7849,
      "Ġgain": 7850,
      "ĠInt": 7851,
      "imum": 7852,
      "172": 7853,
      "èĹī": 7854,
      "256": 7855,
      "ously": 7856,
      "\",": 7857,
      "oices": 7858,
      "ĠæĹ¢": 7859,
      "Ġæīİ": 7860,
      "æ³ĵ": 7861,
      "è·¤": 7862,
      "æįĤ": 7863,
      "ç³Ļ": 7864,
      "Ġfurn": 7865,
      "Ġpark": 7866,
      "è¢±": 7867,
      "unt": 7868,
      "å«ī": 7869,
      "ĠOF": 7870,
      "è¹¦": 7871,
      "oys": 7872,
      "æ©ĩ": 7873,
      "Ġblue": 7874,
      "pects": 7875,
      "Hg": 7876,
      "ĠæĪĺ": 7877,
      "ĠåĲ¯": 7878,
      "Ġå§ľ": 7879,
      "Ġtips": 7880,
      "çº¶": 7881,
      "20000": 7882,
      "ç®Ķ": 7883,
      "Ġoven": 7884,
      "åĢļ": 7885,
      "Ġcry": 7886,
      "Ġcctv": 7887,
      "Ġble": 7888,
      "Ġbaby": 7889,
      "aling": 7890,
      "1958": 7891,
      "ĠID": 7892,
      "iment": 7893,
      "amb": 7894,
      "167": 7895,
      "ĠFind": 7896,
      "2700": 7897,
      "çŀ°": 7898,
      "Ġspr": 7899,
      "lowed": 7900,
      "æĨ§": 7901,
      "æĨ¬": 7902,
      "Ġ1999": 7903,
      "joyed": 7904,
      "Ġfilm": 7905,
      "lines": 7906,
      "more": 7907,
      "pet": 7908,
      "win": 7909,
      "Ġåī§": 7910,
      "éķĲ": 7911,
      "ä¾į": 7912,
      "esome": 7913,
      "æ·¼": 7914,
      "éĶ¯": 7915,
      "eds": 7916,
      "ç¿©": 7917,
      "Ġmeal": 7918,
      "Ġspot": 7919,
      "999": 7920,
      "Ġdesk": 7921,
      "ended": 7922,
      "Ġvalu": 7923,
      "310": 7924,
      "Sp": 7925,
      "cil": 7926,
      "ĠæľŁ": 7927,
      "Ġåħį": 7928,
      "Ġåı¶": 7929,
      "ä»Ĩ": 7930,
      "ä¼º": 7931,
      "Ġfans": 7932,
      "æ·¬": 7933,
      "Ġtow": 7934,
      "leg": 7935,
      "cel": 7936,
      "olar": 7937,
      "amily": 7938,
      "ĠBay": 7939,
      "èĹķ": 7940,
      "ieved": 7941,
      "oves": 7942,
      "666": 7943,
      "ĠAny": 7944,
      "Ġepis": 7945,
      "ç¶¦": 7946,
      "qdii": 7947,
      "030": 7948,
      "2100": 7949,
      "mo": 7950,
      "ĠèĬĤ": 7951,
      "ĠæĹħ": 7952,
      "ĠèĴĭ": 7953,
      "åĪģ": 7954,
      "éĿ´": 7955,
      "æ²ĵ": 7956,
      "æıª": 7957,
      "erry": 7958,
      "ouis": 7959,
      "Ġpool": 7960,
      "Ġstar": 7961,
      "ĠHane": 7962,
      "acity": 7963,
      "osis": 7964,
      "ĠLife": 7965,
      "They": 7966,
      "éĹ²å¨": 7967,
      "Ġfee": 7968,
      "ĠOnce": 7969,
      "ĠKeep": 7970,
      "çµ®": 7971,
      "HS": 7972,
      "des": 7973,
      "Ġéĥ½": 7974,
      "Ġä¸°": 7975,
      "Ġç¼©": 7976,
      "Ġçº½": 7977,
      "çļĦc": 7978,
      "æľ½": 7979,
      "çİ¥": 7980,
      "ç§ĥ": 7981,
      "orrow": 7982,
      "é¦Ĵ": 7983,
      "æº§": 7984,
      "éħ®": 7985,
      "ategy": 7986,
      "245": 7987,
      "thly": 7988,
      "ivil": 7989,
      "roud": 7990,
      "ption": 7991,
      "ĠVe": 7992,
      "æ§Ł": 7993,
      "Ġcold": 7994,
      "ĠWhy": 7995,
      "Ġguid": 7996,
      "Ġanti": 7997,
      "217": 7998,
      "CG": 7999,
      "MP": 8000,
      "Ne": 8001,
      "gage": 8002,
      "Ġå¸¦": 8003,
      "rees": 8004,
      "çĸµ": 8005,
      "Ġmagn": 8006,
      "1900": 8007,
      "çıĤ": 8008,
      "urt": 8009,
      "ĠCare": 8010,
      "Ġitem": 8011,
      "ĠWed": 8012,
      "ĠGold": 8013,
      "itect": 8014,
      "æĩ¿": 8015,
      "Ġunit": 8016,
      "forms": 8017,
      "Ġsymb": 8018,
      "kw": 8019,
      "nel": 8020,
      "uit": 8021,
      "è¤Ĳ": 8022,
      "Ġç©º": 8023,
      "Ġç»´": 8024,
      "Ġåħĭ": 8025,
      "ä¿¨": 8026,
      "Ġai": 8027,
      "ini": 8028,
      "204": 8029,
      "çĤĸ": 8030,
      "ero": 8031,
      "otes": 8032,
      "ĠSing": 8033,
      "osing": 8034,
      "ĠLet": 8035,
      "èĨĬ": 8036,
      "ĠAnn": 8037,
      "scape": 8038,
      "fit": 8039,
      "tr": 8040,
      "Ġæ´Ľ": 8041,
      "å®ķ": 8042,
      "åľĥ": 8043,
      "æĬī": 8044,
      "å¯Ŀ": 8045,
      "itiz": 8046,
      "ano": 8047,
      "çĥģ": 8048,
      "çĪª": 8049,
      "ĠIS": 8050,
      "åĻ©": 8051,
      "ĠMake": 8052,
      "å©ķ": 8053,
      "173": 8054,
      "ĠGood": 8055,
      "duate": 8056,
      "Ġfees": 8057,
      "oyal": 8058,
      "Ġrace": 8059,
      "ships": 8060,
      "ields": 8061,
      "Ġâĳ¡": 8062,
      "ENT": 8063,
      "MW": 8064,
      "OD": 8065,
      "ae": 8066,
      "hyd": 8067,
      "iant": 8068,
      "mark": 8069,
      "Ġå½±": 8070,
      "Ġä¿ĥ": 8071,
      "ĶèµĽ": 8072,
      "å¹Ĥ": 8073,
      "åĴĴ": 8074,
      "ittee": 8075,
      "Ġbow": 8076,
      "Ġdoll": 8077,
      "éªģ": 8078,
      "asy": 8079,
      "æ¢¢": 8080,
      "1950": 8081,
      "176": 8082,
      "Ġ36": 8083,
      "Ġmeat": 8084,
      "Ġkept": 8085,
      "ĠPhil": 8086,
      "560": 8087,
      "mw": 8088,
      "ĠæĬĵ": 8089,
      "ä¿ĳ": 8090,
      "èĩ§": 8091,
      "Ġbon": 8092,
      "aled": 8093,
      "Ġearn": 8094,
      "189": 8095,
      "ĠRem": 8096,
      "ï¹ĳ": 8097,
      "Ġâĳł": 8098,
      "aims": 8099,
      "èĺĳ": 8100,
      "lng": 8101,
      "Ġå¯¼": 8102,
      "ï¼Į*": 8103,
      "çļĦå¨": 8104,
      "ç»®": 8105,
      "éĽĮ": 8106,
      "Ġwat": 8107,
      "asion": 8108,
      "èĥ³": 8109,
      "1964": 8110,
      "ĠCA": 8111,
      "ĠMill": 8112,
      "ĠBec": 8113,
      "acing": 8114,
      "ĠFed": 8115,
      "ander": 8116,
      "kshop": 8117,
      "çĴĩ": 8118,
      "azon": 8119,
      "annel": 8120,
      "èĺ¸": 8121,
      "223": 8122,
      "390": 8123,
      "hol": 8124,
      "overy": 8125,
      "ua": 8126,
      "¬æĦı": 8127,
      "ĠæŀĦ": 8128,
      "ĠåŃŁ": 8129,
      "ï¼ĵ": 8130,
      "å¼Ľ": 8131,
      "æµĴ": 8132,
      "å¢Ł": 8133,
      "Ġsch": 8134,
      "è¢¤": 8135,
      "Ġmis": 8136,
      "ĠAriz": 8137,
      "å³Ń": 8138,
      "163": 8139,
      "åĺĺ": 8140,
      "ĠDUI": 8141,
      "ĠEduc": 8142,
      "Ġran": 8143,
      "Ġsuff": 8144,
      "çĴĭ": 8145,
      "inted": 8146,
      "ĠSee": 8147,
      "iques": 8148,
      "mail": 8149,
      "çĥ½": 8150,
      "Ġå®¢": 8151,
      "Ġè´Ł": 8152,
      "Ġä½İ": 8153,
      "Ġå±ħ": 8154,
      "Ġå»¶": 8155,
      "Ġè±ª": 8156,
      "ĠèĤĸ": 8157,
      "å¸§": 8158,
      "æī¼": 8159,
      "è½¼": 8160,
      "çľº": 8161,
      "çĤĬ": 8162,
      "æ¼³": 8163,
      "é²²": 8164,
      "ula": 8165,
      "ĠWash": 8166,
      "Ġdog": 8167,
      "Ġkid": 8168,
      "perly": 8169,
      "ĠIns": 8170,
      "Ġ1990": 8171,
      "posed": 8172,
      "Ġzyl": 8173,
      "Ġtask": 8174,
      "CH": 8175,
      "Is": 8176,
      "ixt": 8177,
      "vest": 8178,
      "Ġèµ·": 8179,
      "Ġæµģ": 8180,
      "Ġè®¤": 8181,
      "ĠèĲ½": 8182,
      "Ġè¡¥": 8183,
      "ĠæĿľ": 8184,
      "ä¾®": 8185,
      "Ġcore": 8186,
      "Ġfold": 8187,
      "omin": 8188,
      "é¥½": 8189,
      "ç¢ļ": 8190,
      "ĠMal": 8191,
      "Ġ37": 8192,
      "outs": 8193,
      "force": 8194,
      "ĠAlth": 8195,
      ".)": 8196,
      "GC": 8197,
      "IR": 8198,
      "MG": 8199,
      "PR": 8200,
      "kin": 8201,
      "Ġ?": 8202,
      "Ġq": 8203,
      "Ġçº¿": 8204,
      "ĠåĽ¢": 8205,
      "Ġè¶Ĭ": 8206,
      "Ġæ¯ķ": 8207,
      "ĠåĨ¬": 8208,
      "æĺ§": 8209,
      "ç½¹": 8210,
      "erg": 8211,
      "çī¹éŃ": 8212,
      "ĠTor": 8213,
      "ĠTop": 8214,
      "rie": 8215,
      "Ġexch": 8216,
      "285": 8217,
      "Ġ1998": 8218,
      "hetic": 8219,
      "AB": 8220,
      "Pe": 8221,
      "ca": 8222,
      "cb": 8223,
      "field": 8224,
      "ns": 8225,
      "vy": 8226,
      "vip": 8227,
      "Ġè¿Ĳ": 8228,
      "Ġç¥ŀ": 8229,
      "Ġä¹°": 8230,
      "Ġæķħ": 8231,
      "Ġæ³¢": 8232,
      "åĲı": 8233,
      "åĽ§": 8234,
      "æł¾": 8235,
      "inct": 8236,
      "rey": 8237,
      "æįħ": 8238,
      "Ġsup": 8239,
      "ç³ľ": 8240,
      "è¢Ĥ": 8241,
      "Ġhttp": 8242,
      "æ¢µ": 8243,
      "196": 8244,
      "ĠSur": 8245,
      "183": 8246,
      "essed": 8247,
      "ĠGr": 8248,
      "ĠOver": 8249,
      "ĠVis": 8250,
      "PPP": 8251,
      "works": 8252,
      "bed": 8253,
      "cs": 8254,
      "Ð½": 8255,
      "Ġæł¡": 8256,
      "Ġæ»¡": 8257,
      "Ġice": 8258,
      "ç»ħ": 8259,
      "ç»Ĭ": 8260,
      "è´±": 8261,
      "ç§¤": 8262,
      "éĵ¬": 8263,
      "icine": 8264,
      "ician": 8265,
      "ĠCe": 8266,
      "ĠMet": 8267,
      "uled": 8268,
      "187": 8269,
      "onsib": 8270,
      "é³ŀ": 8271,
      "ounce": 8272,
      "ĠPlus": 8273,
      "La": 8274,
      "Now": 8275,
      "Rob": 8276,
      "dæīĵ": 8277,
      "nb": 8278,
      "pire": 8279,
      "ĠæŁĲ": 8280,
      "åıģ": 8281,
      "ä¿ª": 8282,
      "Ġtrou": 8283,
      "209": 8284,
      "çľ¶": 8285,
      "Ġsort": 8286,
      "Ġox": 8287,
      "Ġcake": 8288,
      "çĸ¡": 8289,
      "Ġfan": 8290,
      "Ġfra": 8291,
      "1970": 8292,
      "ĠSil": 8293,
      "ĠAlex": 8294,
      "èħĮ": 8295,
      "sey": 8296,
      "ĠPri": 8297,
      "184": 8298,
      "ĠLake": 8299,
      "Ġ47": 8300,
      "ĠJose": 8301,
      "monst": 8302,
      "incip": 8303,
      "850": 8304,
      "New": 8305,
      "ias": 8306,
      "life": 8307,
      "pens": 8308,
      "Ġç«Ļ": 8309,
      "ĠèĪª": 8310,
      "Ġè¯Ń": 8311,
      "åŃ°": 8312,
      "æŀī": 8313,
      "iny": 8314,
      "oric": 8315,
      "çĸ±": 8316,
      "Ġban": 8317,
      "Ġpush": 8318,
      "Ġden": 8319,
      "è£ĺ": 8320,
      "çĲĥä¿": 8321,
      "æ¼¯": 8322,
      "197": 8323,
      "1972": 8324,
      "Ġge": 8325,
      "æļ®": 8326,
      "301": 8327,
      "igr": 8328,
      "186": 8329,
      "162": 8330,
      "obe": 8331,
      "èķĬ": 8332,
      "ĠAND": 8333,
      "315": 8334,
      "5500": 8335,
      "VE": 8336,
      "mes": 8337,
      "ye": 8338,
      "Ġä¿®": 8339,
      "äº¢": 8340,
      "è§ĳ": 8341,
      "çİĸ": 8342,
      "çĲĽ": 8343,
      "Ġfear": 8344,
      "çĦĻ": 8345,
      "ç¼¨": 8346,
      "oms": 8347,
      "çªį": 8348,
      "æĳ¹": 8349,
      "ĠIm": 8350,
      "eling": 8351,
      "ami": 8352,
      "Ġvan": 8353,
      "ĠLim": 8354,
      "ustr": 8355,
      "èľĴ": 8356,
      "ĠStar": 8357,
      "urned": 8358,
      "215": 8359,
      "PL": 8360,
      "bie": 8361,
      "Ġï¼Ł": 8362,
      "Ġç±³": 8363,
      "Ġæī¬": 8364,
      "ĠæĭŁ": 8365,
      "è´»": 8366,
      "éĥ«": 8367,
      "é«¦": 8368,
      "rely": 8369,
      "Ġsand": 8370,
      "isf": 8371,
      "Ġthus": 8372,
      "1960": 8373,
      "åĻ¬": 8374,
      "åĻ±": 8375,
      "ado": 8376,
      "143": 8377,
      "257": 8378,
      "ĠHard": 8379,
      "Ġdeck": 8380,
      "ĠRob": 8381,
      "isted": 8382,
      "226": 8383,
      "ĠLove": 8384,
      "udd": 8385,
      "Ġkn": 8386,
      "èľ¿": 8387,
      "Ġroof": 8388,
      "æ©±": 8389,
      "åĹľ": 8390,
      "ĠClub": 8391,
      "Chat": 8392,
      "224": 8393,
      "460": 8394,
      "CR": 8395,
      "SE": 8396,
      "cç½Ĺ": 8397,
      "rical": 8398,
      "Ġç±»": 8399,
      "ĠåªĴ": 8400,
      "åĪ¨": 8401,
      "åĴĲ": 8402,
      "inary": 8403,
      "real": 8404,
      "Ġwild": 8405,
      "çĿ«": 8406,
      "éĵĤ": 8407,
      "æ·Ĩ": 8408,
      "éĴ¨": 8409,
      "éª¥": 8410,
      "ĠSl": 8411,
      "178": 8412,
      "ĠDown": 8413,
      "never": 8414,
      "ĠWeb": 8415,
      "åµĬ": 8416,
      "580": 8417,
      "Face": 8418,
      "Un": 8419,
      "Your": 8420,
      "aven": 8421,
      "gency": 8422,
      "iber": 8423,
      "pk": 8424,
      "Ġçī©": 8425,
      "Ġè¾¾": 8426,
      "Ġir": 8427,
      "ĠæĻļ": 8428,
      "Ġæ°¸": 8429,
      "å®¸": 8430,
      "åĴİ": 8431,
      "æİĲ": 8432,
      "çŃ±": 8433,
      "ç½Ħ": 8434,
      "èģĭ": 8435,
      "åĢĺ": 8436,
      "ç²Ł": 8437,
      "Ġdang": 8438,
      "ommod": 8439,
      "Ġhar": 8440,
      "Ġlose": 8441,
      "Ġlux": 8442,
      "oting": 8443,
      "ĠAv": 8444,
      "verse": 8445,
      "ĠPort": 8446,
      "174": 8447,
      "umer": 8448,
      "umers": 8449,
      "ĠHist": 8450,
      "ç¯±": 8451,
      "ĠRE": 8452,
      "ĠEv": 8453,
      "ĠJo": 8454,
      "Ġtend": 8455,
      "reek": 8456,
      "Ġflu": 8457,
      "glas": 8458,
      "El": 8459,
      "SD": 8460,
      "gps": 8461,
      "Ġç¾¤": 8462,
      "Ġåħ´": 8463,
      "çļĦå´": 8464,
      "å¼ĭ": 8465,
      "é¢į": 8466,
      "éĵĢ": 8467,
      "ston": 8468,
      "12306": 8469,
      "âĢĻ,": 8470,
      "owing": 8471,
      "ĠAtt": 8472,
      "ĠMass": 8473,
      "ĠBel": 8474,
      "ifts": 8475,
      "177": 8476,
      "rief": 8477,
      "ĠDi": 8478,
      "ĠRoad": 8479,
      "ĠEast": 8480,
      "Ġmenu": 8481,
      "FC": 8482,
      "RI": 8483,
      "cr": 8484,
      "gn": 8485,
      "tcl": 8486,
      "uet": 8487,
      "Ġåºı": 8488,
      "ĠéĴŁ": 8489,
      "ĠæĺĨ": 8490,
      "åĴĢ": 8491,
      "æĢ¼": 8492,
      "éķį": 8493,
      "Ġwine": 8494,
      "Ġpull": 8495,
      "Ġdut": 8496,
      "ĠCap": 8497,
      "ĠPost": 8498,
      "ĠBet": 8499,
      "ĠWord": 8500,
      "ĠHol": 8501,
      "éĨļ": 8502,
      "ĠLear": 8503,
      "Ġrich": 8504,
      "ĠKing": 8505,
      "æĨ©": 8506,
      "mmHg": 8507,
      "Ġdete": 8508,
      "Ġgirl": 8509,
      "SUV": 8510,
      "212": 8511,
      "bre": 8512,
      "oors": 8513,
      "©ä¸Ĭ": 8514,
      "ĠçĿĢ": 8515,
      "Ġçĭ¬": 8516,
      "Ġç«ŀ": 8517,
      "Ġé²ģ": 8518,
      "Ġèı²": 8519,
      "Ġtast": 8520,
      "è·Ĩ": 8521,
      "åĿĤ": 8522,
      "æ¶§": 8523,
      "002": 8524,
      "ishes": 8525,
      "Ġbul": 8526,
      "Ġpin": 8527,
      "ĠTom": 8528,
      "305": 8529,
      "ĠCor": 8530,
      "ĠCode": 8531,
      "å©§": 8532,
      "æĵĺ": 8533,
      "ops": 8534,
      "Ġdep": 8535,
      "298": 8536,
      "berg": 8537,
      "åµĺ": 8538,
      "520": 8539,
      "Ad": 8540,
      "DF": 8541,
      "Ġur": 8542,
      "Ġçºª": 8543,
      "ĠåŁĥ": 8544,
      "çļĦAI": 8545,
      "æ¸ļ": 8546,
      "Ġsnow": 8547,
      "ora": 8548,
      "ingly": 8549,
      "èĪĶ": 8550,
      "arp": 8551,
      "éĤ¸": 8552,
      "iled": 8553,
      "Ġegg": 8554,
      "193": 8555,
      "1975": 8556,
      "ĠCH": 8557,
      "ĠCup": 8558,
      "ady": 8559,
      "ĠMem": 8560,
      "161": 8561,
      "ĠHot": 8562,
      "Ġvill": 8563,
      "ĠRet": 8564,
      "osure": 8565,
      "å¥ĩèĳ": 8566,
      "299": 8567,
      "Ġkill": 8568,
      "soft": 8569,
      "Ġimpl": 8570,
      "avior": 8571,
      "ints": 8572,
      "Ġbusy": 8573,
      "ganic": 8574,
      "erns": 8575,
      "While": 8576,
      "ximum": 8577,
      "3200": 8578,
      "TH": 8579,
      "ien": 8580,
      "uber": 8581,
      "Ġå°ĳ": 8582,
      "Ġæĥł": 8583,
      "æ¯ĵ": 8584,
      "onent": 8585,
      "æģį": 8586,
      "Ġmist": 8587,
      "Ġlack": 8588,
      "Ġgolf": 8589,
      "éŁŃ": 8590,
      "uman": 8591,
      "ĠDel": 8592,
      "ĠDem": 8593,
      "ĠDef": 8594,
      "çŀ¿": 8595,
      "åĹ¯": 8596,
      "Ġmini": 8597,
      "ganis": 8598,
      "cf": 8599,
      "lig": 8600,
      "look": 8601,
      "yles": 8602,
      "ĠåĦ¿": 8603,
      "Ġç¦»": 8604,
      "Ġå®ĺ": 8605,
      "ĠåįĬ": 8606,
      "Ġçĳŀ": 8607,
      "Ķä»»": 8608,
      "å¹Į": 8609,
      "æĺ±": 8610,
      "Ġtree": 8611,
      "éħ°": 8612,
      "Ġdur": 8613,
      "Ġdied": 8614,
      "èĥ±": 8615,
      "æĴĤ": 8616,
      "1973": 8617,
      "ĠSupp": 8618,
      "ĠCat": 8619,
      "ĠCur": 8620,
      "ĠCamp": 8621,
      "imens": 8622,
      "ĠMag": 8623,
      "æ¦Ķ": 8624,
      "ĠLoc": 8625,
      "ĠOR": 8626,
      "rica": 8627,
      "Ġruns": 8628,
      "ius": 8629,
      "áĨ": 8630,
      "Ġï¿¥": 8631,
      "æĸĵ": 8632,
      "inter": 8633,
      "ä¾Ħ": 8634,
      "Ġfarm": 8635,
      "èİĺ": 8636,
      "Ġlik": 8637,
      "Ġluck": 8638,
      "Ġlibr": 8639,
      "çĭ¸": 8640,
      "using": 8641,
      "å©¿": 8642,
      "Ġprop": 8643,
      "164": 8644,
      "ĠWill": 8645,
      "å«£": 8646,
      "ĠUt": 8647,
      "aked": 8648,
      "Ġrob": 8649,
      "Ġseek": 8650,
      "Ġlaun": 8651,
      "inued": 8652,
      "440": 8653,
      "Fi": 8654,
      "Ġå¹¶": 8655,
      "Ġè¯Ŀ": 8656,
      "ĠéĢĢ": 8657,
      "Ġé½Ĳ": 8658,
      "203": 8659,
      "éļħ": 8660,
      "éĶĦ": 8661,
      "Ġmo": 8662,
      "chat": 8663,
      "èĹ©": 8664,
      "255": 8665,
      "èĴ¿": 8666,
      "Ġship": 8667,
      "ĠOh": 8668,
      "èĨº": 8669,
      "apers": 8670,
      "%âĢĶ": 8671,
      "213": 8672,
      "680": 8673,
      "pd": 8674,
      "Ġå®ļ": 8675,
      "Ġæĥħ": 8676,
      "Ġä¹¦": 8677,
      "Ġå²ģ": 8678,
      "Ġåĥı": 8679,
      "ĠåĢŁ": 8680,
      "Ġé¼ĵ": 8681,
      "Ġè°ģ": 8682,
      "ï¼ĺ": 8683,
      "è¿¦": 8684,
      "åĮ£": 8685,
      "åĨĹ": 8686,
      "æĬ¨": 8687,
      "çĲ¶": 8688,
      "åĵĩ": 8689,
      "ç¾²": 8690,
      "Ġfed": 8691,
      "Ġmatt": 8692,
      "çĥĬ": 8693,
      "Ġdyn": 8694,
      "Ġthr": 8695,
      "192": 8696,
      "ulate": 8697,
      "ĠPaul": 8698,
      "abeth": 8699,
      "Ġ34": 8700,
      "ĠFe": 8701,
      "222": 8702,
      "Ġrout": 8703,
      "ĠArch": 8704,
      "âī§": 8705,
      "âĨĳ": 8706,
      "Con": 8707,
      "EX": 8708,
      "hk": 8709,
      "hand": 8710,
      "sa": 8711,
      "Ġåı¸": 8712,
      "Ġç§°": 8713,
      "çĽ±": 8714,
      "å¯°": 8715,
      "208": 8716,
      "æ¸º": 8717,
      "æ¶Ł": 8718,
      "Ġcast": 8719,
      "éĴµ": 8720,
      "éĤĹ": 8721,
      "icon": 8722,
      "Ġnor": 8723,
      "Ġnove": 8724,
      "1945": 8725,
      "1974": 8726,
      "æ½¢": 8727,
      "Ġprot": 8728,
      "248": 8729,
      "urer": 8730,
      "ocks": 8731,
      "297": 8732,
      "Ġ51": 8733,
      "izza": 8734,
      "Ġsurv": 8735,
      "Ġedge": 8736,
      "USB": 8737,
      "iliar": 8738,
      "ĠAuto": 8739,
      "Ġdrug": 8740,
      "6500": 8741,
      "From": 8742,
      "Ph": 8743,
      "col": 8744,
      "eåħ¬": 8745,
      "Ġåħ»": 8746,
      "Ġå¯Į": 8747,
      "Ġçİī": 8748,
      "inues": 8749,
      "reens": 8750,
      "ç¨ł": 8751,
      "Ġcred": 8752,
      "Ġdram": 8753,
      "1956": 8754,
      "semb": 8755,
      "umin": 8756,
      "estic": 8757,
      "rier": 8758,
      "236": 8759,
      "ĠGo": 8760,
      "ç£Ĳ": 8761,
      "ellig": 8762,
      "3600": 8763,
      "Ġarg": 8764,
      "âĳ£": 8765,
      "ucle": 8766,
      "inese": 8767,
      "Ġ1997": 8768,
      "è¤¶": 8769,
      "ograp": 8770,
      "urban": 8771,
      "vivo": 8772,
      "219": 8773,
      "317": 8774,
      "737": 8775,
      "AY": 8776,
      "Can": 8777,
      "Don": 8778,
      "En": 8779,
      "Not": 8780,
      "cp": 8781,
      "hors": 8782,
      "mal": 8783,
      "©æĿĥ": 8784,
      "Ġè§ģ": 8785,
      "Ġæī¿": 8786,
      "ĠåĲķ": 8787,
      "ç»°": 8788,
      "è®´": 8789,
      "éĺĻ": 8790,
      "æ·ĸ": 8791,
      "éĶ¥": 8792,
      "éªĭ": 8793,
      "èİº": 8794,
      "åĶĳ": 8795,
      "âĢ¦.": 8796,
      "ĠSn": 8797,
      "ushed": 8798,
      "ĠAM": 8799,
      "237": 8800,
      "275": 8801,
      "Ġ55": 8802,
      "oga": 8803,
      "rying": 8804,
      "azine": 8805,
      "ademy": 8806,
      "IL": 8807,
      "fa": 8808,
      "gçļĦ": 8809,
      "gers": 8810,
      "home": 8811,
      "know": 8812,
      "ĠåĨ³": 8813,
      "ĠåŃĹ": 8814,
      "ĠéĴ±": 8815,
      "Ġéĺħ": 8816,
      "Ġå´Ķ": 8817,
      "ï¼ĸ": 8818,
      "è¯¿": 8819,
      "ä¿º": 8820,
      "éĿ³": 8821,
      "Ġpair": 8822,
      "anz": 8823,
      "å£ĳ": 8824,
      "éħļ": 8825,
      "Ġdire": 8826,
      "èİħ": 8827,
      "1976": 8828,
      "ĠSun": 8829,
      "ads": 8830,
      "amin": 8831,
      "aming": 8832,
      "ĠMiss": 8833,
      "ĠBank": 8834,
      "ummer": 8835,
      "228": 8836,
      "ĠNOT": 8837,
      "inder": 8838,
      "Ġmap": 8839,
      "è¹Ĭ": 8840,
      "iana": 8841,
      "Ġ150": 8842,
      "æĨĭ": 8843,
      "lands": 8844,
      "coin": 8845,
      "iency": 8846,
      "Ġjobs": 8847,
      "214": 8848,
      "AE": 8849,
      "Ke": 8850,
      "cctv": 8851,
      "craft": 8852,
      "rors": 8853,
      "va": 8854,
      "Ġæ¬¡": 8855,
      "Ġåįı": 8856,
      "Ġåį«": 8857,
      "ĠçķĻ": 8858,
      "ĠåĢº": 8859,
      "ĠåĿĢ": 8860,
      "Ġå°¹": 8861,
      "ä¸Ģè¹": 8862,
      "åºµ": 8863,
      "åĩĽ": 8864,
      "éķģ": 8865,
      "è°Į": 8866,
      "Ġsin": 8867,
      "æ¡¦": 8868,
      "æ¡Ķ": 8869,
      "ĠMel": 8870,
      "Ġanc": 8871,
      "ĠBre": 8872,
      "æĵĤ": 8873,
      "çĨ¹": 8874,
      "eping": 8875,
      "avig": 8876,
      "Ġprec": 8877,
      "useum": 8878,
      "Ġsalt": 8879,
      "Here": 8880,
      "model": 8881,
      "410": 8882,
      "ben": 8883,
      "live": 8884,
      "page": 8885,
      "ĠæĻ¯": 8886,
      "Ġä¹Ĳ": 8887,
      "ĠåĲĥ": 8888,
      "Ġé¡¾": 8889,
      "ĠèĵĿ": 8890,
      "çľĻ": 8891,
      "è··": 8892,
      "Ġcrow": 8893,
      "ç¥İ": 8894,
      "ani": 8895,
      "icago": 8896,
      "æĤĸ": 8897,
      "1952": 8898,
      "ĠSub": 8899,
      "ĠFore": 8900,
      "Ġsea": 8901,
      "antic": 8902,
      "276": 8903,
      "3800": 8904,
      "ĠVol": 8905,
      "Ġrow": 8906,
      "Ġradi": 8907,
      "Ġshel": 8908,
      "nergy": 8909,
      "poses": 8910,
      "mpor": 8911,
      "which": 8912,
      "EE": 8913,
      "EPC": 8914,
      "Med": 8915,
      "hin": 8916,
      "how": 8917,
      "met": 8918,
      "night": 8919,
      "uin": 8920,
      "yer": 8921,
      "Ġè¿ľ": 8922,
      "Ġåį±": 8923,
      "åħ®": 8924,
      "æĸ¡": 8925,
      "åĨ¥": 8926,
      "å¯ĩ": 8927,
      "æ²Ń": 8928,
      "æĭĻ": 8929,
      "æ¡¨": 8930,
      "å²±": 8931,
      "éĤĥ": 8932,
      "æĴĩ": 8933,
      "eless": 8934,
      "Ġstun": 8935,
      "åłķ": 8936,
      "add": 8937,
      "Ġang": 8938,
      "Ġpros": 8939,
      "abs": 8940,
      "ĠRog": 8941,
      "ĠRock": 8942,
      "anted": 8943,
      "ups": 8944,
      "alls": 8945,
      "Ġplug": 8946,
      "plate": 8947,
      "Ġ1996": 8948,
      "reams": 8949,
      "ĠFlor": 8950,
      "345": 8951,
      "Bl": 8952,
      "HO": 8953,
      "Ġå°¤": 8954,
      "åĬĪ": 8955,
      "åĮ¡": 8956,
      "èĢ¦": 8957,
      "éļ½": 8958,
      "rote": 8959,
      "rodu": 8960,
      "1948": 8961,
      "çıĳ": 8962,
      "uries": 8963,
      "usion": 8964,
      "ĠMart": 8965,
      "232": 8966,
      "çĳ¾": 8967,
      "é¹ĥ": 8968,
      "berry": 8969,
      "ĠYes": 8970,
      "âĪ¶": 8971,
      "æªĲ": 8972,
      "alyt": 8973,
      "Ġloan": 8974,
      "218": 8975,
      "Me": 8976,
      "SL": 8977,
      "Some": 8978,
      "].": 8979,
      "gpt": 8980,
      "iat": 8981,
      "ket": 8982,
      "men": 8983,
      "nm": 8984,
      "vc": 8985,
      "ï¼Ļ": 8986,
      "åĴļ": 8987,
      "åĵ©": 8988,
      "çŁĹ": 8989,
      "Ġeth": 8990,
      "1962": 8991,
      "Ġgone": 8992,
      "ĠST": 8993,
      "ĠSal": 8994,
      "ĠMat": 8995,
      "ĠPay": 8996,
      "241": 8997,
      "ĠHam": 8998,
      "Ġven": 8999,
      "ĠLord": 9000,
      "Ġshut": 9001,
      "Ġkit": 9002,
      "æĩµ": 9003,
      "phics": 9004,
      "ĠYear": 9005,
      "rican": 9006,
      "Ġvari": 9007,
      "7500": 9008,
      "De": 9009,
      "bra": 9010,
      "eared": 9011,
      "gæīĭ": 9012,
      "gment": 9013,
      "zen": 9014,
      "Ġéģĵ": 9015,
      "Ġæ²»": 9016,
      "Ġè®®": 9017,
      "Ġæ±ĩ": 9018,
      "ä¸¨": 9019,
      "åĴĨ": 9020,
      "èĩĢ": 9021,
      "çĲµ": 9022,
      "åĮĸå¨": 9023,
      "ãĢĭ/": 9024,
      "ority": 9025,
      "Ġrepe": 9026,
      "ĠTake": 9027,
      "ĠMot": 9028,
      "ĠPT": 9029,
      "æĵĴ": 9030,
      "Ġchoo": 9031,
      "ç£º": 9032,
      "Ġring": 9033,
      "Ġlett": 9034,
      "aren": 9035,
      "Ġpray": 9036,
      "åĹĴ": 9037,
      "Ġ1995": 9038,
      "%âĢĿ": 9039,
      "Or": 9040,
      "po": 9041,
      "uct": 9042,
      "Ġä»ħ": 9043,
      "Ġå·¦": 9044,
      "Ġèī¾": 9045,
      "åŃª": 9046,
      "çłļ": 9047,
      "Ġfem": 9048,
      "èĮī": 9049,
      "éħ£": 9050,
      "çĥĥ": 9051,
      "æ¹Ł": 9052,
      "æĴ®": 9053,
      "etime": 9054,
      "194": 9055,
      "ĠImp": 9056,
      "çĭ©": 9057,
      "olic": 9058,
      "Ġstir": 9059,
      "ĠMark": 9060,
      "ĠRel": 9061,
      "ĠRich": 9062,
      "221": 9063,
      "Ġ400": 9064,
      "è¸µ": 9065,
      "ĠON": 9066,
      "Ġ52": 9067,
      "Ġflat": 9068,
      "Why": 9069,
      "490": 9070,
      "SH": 9071,
      "gon": 9072,
      "Ġåıĺ": 9073,
      "Ġè¯ķ": 9074,
      "Ġç¨İ": 9075,
      "Ġä¹ĺ": 9076,
      "ï¼ı": 9077,
      "äºµ": 9078,
      "éĺĳ": 9079,
      "éķĮ": 9080,
      "èģ¿": 9081,
      "Ġsam": 9082,
      "Ġcro": 9083,
      "icer": 9084,
      "åĸĨ": 9085,
      "ĠSP": 9086,
      "15000": 9087,
      "ĠCEO": 9088,
      "Ġvul": 9089,
      "usted": 9090,
      "266": 9091,
      "Ġliqu": 9092,
      "CPI": 9093,
      "327": 9094,
      "950": 9095,
      "Tube": 9096,
      "ZB": 9097,
      "lor": 9098,
      "Ġç¬¦": 9099,
      "Ġè·¨": 9100,
      "ĠæĢİ": 9101,
      "Ġç¦ģ": 9102,
      "Ġç§ĭ": 9103,
      "Ġè°Ń": 9104,
      "äº¥": 9105,
      "çļĭ": 9106,
      "éģĲ": 9107,
      "atin": 9108,
      "æ¡ĵ": 9109,
      "ita": 9110,
      "orter": 9111,
      "çĸ¤": 9112,
      "Ġfuel": 9113,
      "enes": 9114,
      "Ġmas": 9115,
      "æ££": 9116,
      "aser": 9117,
      "æ®ī": 9118,
      "state": 9119,
      "Ġgall": 9120,
      "cean": 9121,
      "ĠSam": 9122,
      "Ġ39": 9123,
      "acc": 9124,
      "ĠFire": 9125,
      "quo": 9126,
      "Ġvent": 9127,
      "Ġrub": 9128,
      "éŃħ": 9129,
      "Ġ48": 9130,
      "358": 9131,
      "ĠJer": 9132,
      "ĠYOU": 9133,
      "ĠItal": 9134,
      "rests": 9135,
      "reads": 9136,
      "æªĢ": 9137,
      "216": 9138,
      "Co": 9139,
      "ZC": 9140,
      "cap": 9141,
      "ih": 9142,
      "tw": 9143,
      "¦çĦ¶": 9144,
      "Ġèŀį": 9145,
      "ĠåŃĺ": 9146,
      "Ġæ¥¼": 9147,
      "Ġæ±ī": 9148,
      "Ġè·Ŀ": 9149,
      "åı¨": 9150,
      "ä»Ł": 9151,
      "éĢį": 9152,
      "Ġsitt": 9153,
      "Ġmal": 9154,
      "roy": 9155,
      "roxim": 9156,
      "1959": 9157,
      "1961": 9158,
      "1120": 9159,
      "Ġforg": 9160,
      "idate": 9161,
      "æĲĢ": 9162,
      "ĠCr": 9163,
      "igen": 9164,
      "ĠBen": 9165,
      "ç¿±": 9166,
      "ĠDiv": 9167,
      "Ġjump": 9168,
      "azz": 9169,
      "going": 9170,
      "cribe": 9171,
      "610": 9172,
      "Tw": 9173,
      "bour": 9174,
      "een": 9175,
      "fof": 9176,
      "yp": 9177,
      "©ä¸į": 9178,
      "Ġä½¿": 9179,
      "Ġåĩı": 9180,
      "Ġè·Ł": 9181,
      "Ġè´º": 9182,
      "ï¼Ĺ": 9183,
      "èµĺ": 9184,
      "çĲ¨": 9185,
      "åĿ·": 9186,
      "Ġsou": 9187,
      "esp": 9188,
      "çĸļ": 9189,
      "icate": 9190,
      "ette": 9191,
      "1965": 9192,
      "304": 9193,
      "cho": 9194,
      "ĠBoth": 9195,
      "Ġ33": 9196,
      "ĠDet": 9197,
      "ĠEm": 9198,
      "Ġrat": 9199,
      "oston": 9200,
      "Ġdogs": 9201,
      "3300": 9202,
      "366": 9203,
      "Ġglad": 9204,
      "while": 9205,
      "idden": 9206,
      "715": 9207,
      "985": 9208,
      "DI": 9209,
      "DS": 9210,
      "with": 9211,
      "©åĴĮ": 9212,
      "ĠäºĨ": 9213,
      "Ġçº³": 9214,
      "ĠçĪ¶": 9215,
      "ĠæŁ³": 9216,
      "ĵé£İ": 9217,
      "éĻĤ": 9218,
      "Ġaid": 9219,
      "inn": 9220,
      "2050": 9221,
      "remon": 9222,
      "Ġther": 9223,
      "éĵİ": 9224,
      "ç²½": 9225,
      "Ġhyd": 9226,
      "191": 9227,
      "åĭĲ": 9228,
      "ĠCT": 9229,
      "ĠCas": 9230,
      "olves": 9231,
      "æ½º": 9232,
      "ĠFund": 9233,
      "Ġvir": 9234,
      "ĠNort": 9235,
      "asted": 9236,
      "ĠJew": 9237,
      "phas": 9238,
      "Ġunc": 9239,
      "ĠPlay": 9240,
      "Ġelim": 9241,
      "Ġcris": 9242,
      "çĢĽ": 9243,
      "èĺĸ": 9244,
      "([": 9245,
      "328": 9246,
      "ĠéĶĢ": 9247,
      "Ġåı²": 9248,
      "Ġä»Ģ": 9249,
      "ĠéŃı": 9250,
      "è¿¥": 9251,
      "è¾ķ": 9252,
      "è°¬": 9253,
      "å§£": 9254,
      "ç¼Ń": 9255,
      "Ġdump": 9256,
      "é»¯": 9257,
      "oti": 9258,
      "é¥µ": 9259,
      "ownt": 9260,
      "ĠCa": 9261,
      "imb": 9262,
      "ĠMike": 9263,
      "rip": 9264,
      "ĠFood": 9265,
      "ĠDan": 9266,
      "osoph": 9267,
      "oster": 9268,
      "ĠOb": 9269,
      "4800": 9270,
      "cohol": 9271,
      "Ġinfo": 9272,
      "ĠTwo": 9273,
      "325": 9274,
      "By": 9275,
      "Che": 9276,
      "GW": 9277,
      "Net": 9278,
      "books": 9279,
      "ĠåĮĸ": 9280,
      "ĠåıĬ": 9281,
      "Ġç»Ļ": 9282,
      "Ġè®¿": 9283,
      "ĠåĬ³": 9284,
      "Ġå¥ĭ": 9285,
      "ĠåĨ·": 9286,
      "Ġæ´ª": 9287,
      "ĠåĩŃ": 9288,
      "Ĵæģ¯": 9289,
      "ï¼Ķ": 9290,
      "æĶĺ": 9291,
      "å®¶ä¿": 9292,
      "èĤ½": 9293,
      "æĥ¶": 9294,
      "Ġspl": 9295,
      "iti": 9296,
      "æ·ŀ": 9297,
      "Ġpo": 9298,
      "Ġdie": 9299,
      "Ġbear": 9300,
      "å¡¬": 9301,
      "ĠMT": 9302,
      "171": 9303,
      "ĠWor": 9304,
      "ria": 9305,
      "Ġneck": 9306,
      "229": 9307,
      "ĠLink": 9308,
      "ĠEU": 9309,
      "Ġ75": 9310,
      "ĠIts": 9311,
      "Ġsynt": 9312,
      "ç°¸": 9313,
      "ĠQue": 9314,
      "660": 9315,
      "846": 9316,
      "Acc": 9317,
      "ME": 9318,
      "]ãĢģ": 9319,
      "açļĦ": 9320,
      "fol": 9321,
      "lam": 9322,
      "point": 9323,
      "âĦ": 9324,
      "ĠæĪ·": 9325,
      "ĠæĺŁ": 9326,
      "Ġæ¿Ģ": 9327,
      "Ķåİī": 9328,
      "çļĦip": 9329,
      "ç»Ľ": 9330,
      "åĪĨå¨": 9331,
      "orial": 9332,
      "asure": 9333,
      "Ġnine": 9334,
      "1971": 9335,
      "Ġgun": 9336,
      "ĠMen": 9337,
      "illa": 9338,
      "ĠFant": 9339,
      "èĵĵ": 9340,
      "263": 9341,
      "268": 9342,
      "kings": 9343,
      "ieu": 9344,
      "Ġadm": 9345,
      "çŀŃ": 9346,
      "Ġfeat": 9347,
      "çĴŁ": 9348,
      "terns": 9349,
      "erned": 9350,
      "âħł": 9351,
      "Ġcoup": 9352,
      "what": 9353,
      "aaS": 9354,
      "ĠJean": 9355,
      "Sc": 9356,
      "She": 9357,
      "Ste": 9358,
      "TS": 9359,
      "ho": 9360,
      "ĠçīĽ": 9361,
      "Ġign": 9362,
      "Ġç©Ĩ": 9363,
      "ĠéĤ¹": 9364,
      "çļĦb": 9365,
      "ä¼¶": 9366,
      "çĲī": 9367,
      "æ²½": 9368,
      "æ±ŀ": 9369,
      "åĵī": 9370,
      "only": 9371,
      "è°§": 9372,
      "Ġfly": 9373,
      "Ġpul": 9374,
      "é¦¥": 9375,
      "alaxy": 9376,
      "éĤ¬": 9377,
      "Ġhire": 9378,
      "vere": 9379,
      "Ġgro": 9380,
      "ĠMer": 9381,
      "ĠDig": 9382,
      "239": 9383,
      "265": 9384,
      "Ġride": 9385,
      "Ġsole": 9386,
      "333": 9387,
      "336": 9388,
      "ĠUse": 9389,
      "Ġapps": 9390,
      "appy": 9391,
      "racts": 9392,
      "Ġends": 9393,
      "cepts": 9394,
      "ĠPlan": 9395,
      "known": 9396,
      "470": 9397,
      "BM": 9398,
      "Pre": 9399,
      "Wind": 9400,
      "dri": 9401,
      "made": 9402,
      "power": 9403,
      "ĠĠ": 9404,
      "Ġåıĸ": 9405,
      "ĠçĹħ": 9406,
      "Ġåī¯": 9407,
      "Ġè¯¾": 9408,
      "Ġrom": 9409,
      "æīī": 9410,
      "çľ©": 9411,
      "ç¨·": 9412,
      "éļĺ": 9413,
      "Ġfle": 9414,
      "Ġmine": 9415,
      "asp": 9416,
      "åĶł": 9417,
      "çħŀ": 9418,
      "1966": 9419,
      "ĠII": 9420,
      "ĠSa": 9421,
      "ĠCall": 9422,
      "rad": 9423,
      "irms": 9424,
      "Ġath": 9425,
      "233": 9426,
      "ĠRest": 9427,
      "ĠLike": 9428,
      "é¹«": 9429,
      "352": 9430,
      "ailab": 9431,
      "lling": 9432,
      "ĠUs": 9433,
      "30000": 9434,
      "apore": 9435,
      "cked": 9436,
      "anche": 9437,
      "Ġrail": 9438,
      "dered": 9439,
      "ERS": 9440,
      "è¤ļ": 9441,
      "aimed": 9442,
      "ĠÐ°": 9443,
      "âĦ¢": 9444,
      "Ge": 9445,
      "boss": 9446,
      "rc": 9447,
      "water": 9448,
      "words": 9449,
      "you": 9450,
      "ÑĤ": 9451,
      "Ġæĺ¾": 9452,
      "Ġéĩİ": 9453,
      "Ġä¹Ķ": 9454,
      "è¯ı": 9455,
      "Ġtun": 9456,
      "éľģ": 9457,
      "isher": 9458,
      "éĵĨ": 9459,
      "Ġpal": 9460,
      "ican": 9461,
      "çĬĴ": 9462,
      "uts": 9463,
      "èħĳ": 9464,
      "ĠMath": 9465,
      "ĠBig": 9466,
      "é¸ł": 9467,
      "259": 9468,
      "ĠHosp": 9469,
      "238": 9470,
      "262": 9471,
      "ella": 9472,
      "Ġsets": 9473,
      "Ġ1993": 9474,
      "hips": 9475,
      "posal": 9476,
      "Des": 9477,
      "but": 9478,
      "dis": 9479,
      "Ñĸ": 9480,
      "Ġçº¦": 9481,
      "ĠæĢĿ": 9482,
      "Ġå¿Ĺ": 9483,
      "Ġåģĩ": 9484,
      "Ġç´¢": 9485,
      "ĠçĦ¦": 9486,
      "ä¸ŀ": 9487,
      "æľ¦": 9488,
      "æĪį": 9489,
      "å¸ļ": 9490,
      "æĬł": 9491,
      "èµĪ": 9492,
      "çŃł": 9493,
      "hent": 9494,
      "èĲ±": 9495,
      "å¦Ĭ": 9496,
      "çĸŁ": 9497,
      "isl": 9498,
      "Ġpure": 9499,
      "é¦ĭ": 9500,
      "çģŀ": 9501,
      "æĤ¸": 9502,
      "1963": 9503,
      "ĠTur": 9504,
      "å¨ł": 9505,
      "ĠAP": 9506,
      "ĠAcer": 9507,
      "Ġ1000": 9508,
      "ç¿¡": 9509,
      "ĠHave": 9510,
      "ocr": 9511,
      "---": 9512,
      "oval": 9513,
      "cnn": 9514,
      "Ġguys": 9515,
      ")ï¼ļ": 9516,
      ".âĢľ": 9517,
      "AF": 9518,
      "Are": 9519,
      "GO": 9520,
      "Just": 9521,
      "Le": 9522,
      "TI": 9523,
      "bal": 9524,
      "fund": 9525,
      "wifi": 9526,
      "Ðº": 9527,
      "Ġè¯»": 9528,
      "ĠèĥĮ": 9529,
      "Ġåĩ¯": 9530,
      "Ġ...": 9531,
      "åŃ¢": 9532,
      "é¢Į": 9533,
      "åŁĹ": 9534,
      "æĻĹ": 9535,
      "ï¼ī/": 9536,
      "ç¥·": 9537,
      "éªħ": 9538,
      "åĶ¾": 9539,
      "stra": 9540,
      "Ġrear": 9541,
      "1969": 9542,
      "ĠToy": 9543,
      "othe": 9544,
      "ura": 9545,
      "ols": 9546,
      "oled": 9547,
      "irmed": 9548,
      "ĠMa": 9549,
      "Ġconv": 9550,
      "rian": 9551,
      "Ġvoc": 9552,
      "ĠLog": 9553,
      "355": 9554,
      "Ġju": 9555,
      "Ġjoy": 9556,
      "apes": 9557,
      "apos": 9558,
      "lower": 9559,
      "ender": 9560,
      "ĠWho": 9561,
      "ierre": 9562,
      "Ġ1991": 9563,
      "ĠPhot": 9564,
      "dden": 9565,
      "12000": 9566,
      "318": 9567,
      "540": 9568,
      "AH": 9569,
      "WTO": 9570,
      "eper": 9571,
      "iors": 9572,
      "mh": 9573,
      "spe": 9574,
      "²ç¾İ": 9575,
      "ãģ": 9576,
      "Ġç»Ĩ": 9577,
      "Ġå®Ī": 9578,
      "ï¼ľ": 9579,
      "åĳĽ": 9580,
      "å¥ļ": 9581,
      "æĭ·": 9582,
      "ç®į": 9583,
      "ï¼ļ/": 9584,
      "çĤ¯": 9585,
      "è¶¾": 9586,
      "èĬ·": 9587,
      "eting": 9588,
      "ĠTer": 9589,
      "othes": 9590,
      "307": 9591,
      "309": 9592,
      "Ġ250": 9593,
      "ĠBit": 9594,
      "ĠBox": 9595,
      "abet": 9596,
      "ĠHy": 9597,
      "urers": 9598,
      "ĠLab": 9599,
      "Ġshot": 9600,
      "è¸Ŀ": 9601,
      "agon": 9602,
      "issue": 9603,
      "Ġauto": 9604,
      "Ġelig": 9605,
      "Ġbowl": 9606,
      "Ġduty": 9607,
      "CM": 9608,
      "gas": 9609,
      "nj": 9610,
      "pid": 9611,
      "west": 9612,
      "Î²": 9613,
      "Ġå¹²": 9614,
      "ĠèĳĹ": 9615,
      "Ġç¿»": 9616,
      "æĶ¸": 9617,
      "èµ¦": 9618,
      "æ³ŀ": 9619,
      "é¢ĵ": 9620,
      "Ġsulf": 9621,
      "çĸ¸": 9622,
      "Ġfest": 9623,
      "Ġbac": 9624,
      "lets": 9625,
      "aste": 9626,
      "Ġredu": 9627,
      "1957": 9628,
      "ĠTest": 9629,
      "Ġbeer": 9630,
      "303": 9631,
      "ims": 9632,
      "igan": 9633,
      "eline": 9634,
      "adian": 9635,
      "258": 9636,
      "243": 9637,
      "ĠData": 9638,
      "ĠGene": 9639,
      "ĠEar": 9640,
      "ĠNote": 9641,
      "ĠJoe": 9642,
      "phs": 9643,
      "eps": 9644,
      "475": 9645,
      "BO": 9646,
      "CI": 9647,
      "FD": 9648,
      "GE": 9649,
      "LO": 9650,
      "can": 9651,
      "Ġéļ¾": 9652,
      "ĠéĽħ": 9653,
      "ĢåŃĲ": 9654,
      "åį¯": 9655,
      "åİ¥": 9656,
      "çĤ½": 9657,
      "çŁľ": 9658,
      "çĸĻ": 9659,
      "æģ¬": 9660,
      "Ġder": 9661,
      "Ġhang": 9662,
      "road": 9663,
      "åĻ¶": 9664,
      "rab": 9665,
      "rael": 9666,
      "éĵģéĶ": 9667,
      "Ġanx": 9668,
      "ĠBer": 9669,
      "ĠRew": 9670,
      "osen": 9671,
      "andy": 9672,
      "asts": 9673,
      "347": 9674,
      "Ġ95": 9675,
      "erves": 9676,
      "ocket": 9677,
      "é³Ĺ": 9678,
      "Ġfulf": 9679,
      "QQéŁ³": 9680,
      "logo": 9681,
      "cbd": 9682,
      "312": 9683,
      "432": 9684,
      "640": 9685,
      "FA": 9686,
      "Many": 9687,
      "Yes": 9688,
      "kers": 9689,
      "mers": 9690,
      "ters": 9691,
      "war": 9692,
      "ype": 9693,
      "¼çĸ¾": 9694,
      "Ġè´Ń": 9695,
      "Ġå¤ľ": 9696,
      "Ġæ²¿": 9697,
      "ãĢĤ\"": 9698,
      "Ġtail": 9699,
      "å¿±": 9700,
      "æ¶¿": 9701,
      "Ġcute": 9702,
      "oute": 9703,
      "ç¡¼": 9704,
      "Ġpill": 9705,
      "ali": 9706,
      "ompl": 9707,
      "è£³": 9708,
      "ilit": 9709,
      "style": 9710,
      "1955": 9711,
      "1953": 9712,
      "ĠTime": 9713,
      "ç´łc": 9714,
      "çĵ¯": 9715,
      "ums": 9716,
      "ĠHel": 9717,
      "288": 9718,
      "267": 9719,
      "ĠOld": 9720,
      "ework": 9721,
      "urns": 9722,
      "ĠReal": 9723,
      "PPO": 9724,
      "prene": 9725,
      "040": 9726,
      "4300": 9727,
      "Am": 9728,
      "Add": 9729,
      "SP": 9730,
      "Se": 9731,
      "TA": 9732,
      "mond": 9733,
      "qe": 9734,
      "writ": 9735,
      "Ġæ¨¡": 9736,
      "Ġèĩ´": 9737,
      "Ġæ²¹": 9738,
      "Ġçł´": 9739,
      "ĠçŃ¾": 9740,
      "ä½ĺ": 9741,
      "éĢħ": 9742,
      "éĢŀ": 9743,
      "inst": 9744,
      "inos": 9745,
      "æ¯½": 9746,
      "urate": 9747,
      "ĠSite": 9748,
      "ima": 9749,
      "ollow": 9750,
      "æ¤Ń": 9751,
      "essor": 9752,
      "umber": 9753,
      "254": 9754,
      "247": 9755,
      "249": 9756,
      "Ġseat": 9757,
      "227": 9758,
      "ĠLast": 9759,
      "aine": 9760,
      "ĠEST": 9761,
      "ideo": 9762,
      "Ġkick": 9763,
      "338": 9764,
      "Ġrot": 9765,
      "Ġphil": 9766,
      "Ġboat": 9767,
      "Ġ1994": 9768,
      "Ġâĳ¢": 9769,
      "ETF": 9770,
      "Ġhyp": 9771,
      "html": 9772,
      "688": 9773,
      "Bç±»": 9774,
      "Louis": 9775,
      "WS": 9776,
      "bles": 9777,
      "cons": 9778,
      "pass": 9779,
      "uke": 9780,
      "yers": 9781,
      "´èĢĮ": 9782,
      "Ġé¡º": 9783,
      "åİ®": 9784,
      "åĵİ": 9785,
      "éķ¯": 9786,
      "éģĽ": 9787,
      "è°Ļ": 9788,
      "Ġsad": 9789,
      "æ¶ķ": 9790,
      "arge": 9791,
      "å£ķ": 9792,
      "éĤº": 9793,
      "Ġgym": 9794,
      "Ġbeat": 9795,
      "ĠCy": 9796,
      "åĤ£": 9797,
      "ĠBack": 9798,
      "ĠWood": 9799,
      "Ġ38": 9800,
      "273": 9801,
      "çŀ³": 9802,
      "igner": 9803,
      "ĠKim": 9804,
      "398": 9805,
      "ĠAsia": 9806,
      "ĠNews": 9807,
      "owski": 9808,
      "centr": 9809,
      "Ġlaws": 9810,
      "ĠAtl": 9811,
      "Alth": 9812,
      "secut": 9813,
      "510": 9814,
      "Ag": 9815,
      "Cont": 9816,
      "TP": 9817,
      "bç«Ļ": 9818,
      "equ": 9819,
      "fram": 9820,
      "ras": 9821,
      "rig": 9822,
      "wr": 9823,
      "Ġç§į": 9824,
      "Ġåįĸ": 9825,
      "Ġèįī": 9826,
      "ĠæĬĹ": 9827,
      "Ġå¨ģ": 9828,
      "Ġé©»": 9829,
      "ĠèĴĻ": 9830,
      "åįŀ": 9831,
      "æ°°": 9832,
      "æĢĶ": 9833,
      "è°¤": 9834,
      "atm": 9835,
      "Ġfif": 9836,
      "ç²ĳ": 9837,
      "éĴĹ": 9838,
      "ilot": 9839,
      "éĢŁå´": 9840,
      "ĠTal": 9841,
      "ĠSet": 9842,
      "ĠCong": 9843,
      "elly": 9844,
      "ĠMil": 9845,
      "ĠPR": 9846,
      "ĠBul": 9847,
      "253": 9848,
      "246": 9849,
      "riage": 9850,
      "osh": 9851,
      "çĳĽ": 9852,
      "261": 9853,
      "295": 9854,
      "348": 9855,
      "ĠVer": 9856,
      "ocked": 9857,
      "ATION": 9858,
      "Ġlogo": 9859,
      "Also": 9860,
      "TOP": 9861,
      "PDF": 9862,
      "HD": 9863,
      "KE": 9864,
      "fs": 9865,
      "fin": 9866,
      "pret": 9867,
      "sdr": 9868,
      "ÑĢ": 9869,
      "Ñĥ": 9870,
      "ĠéĢł": 9871,
      "Ġç§»": 9872,
      "Ġåĸľ": 9873,
      "ĠéĽª": 9874,
      "Ġäº®": 9875,
      "ĠåŃĶ": 9876,
      "Ġèĭ¹": 9877,
      "Ġéľį": 9878,
      "Ġupp": 9879,
      "ĬåŃĲ": 9880,
      "âĢ°": 9881,
      "åĩĭ": 9882,
      "èĢĨ": 9883,
      "Ġton": 9884,
      "æŀĩ": 9885,
      "åĮĸéŃ": 9886,
      "æ´Ļ": 9887,
      "rete": 9888,
      "è°Ĩ": 9889,
      "Ġwit": 9890,
      "orry": 9891,
      "ç¨ĭç«": 9892,
      "anel": 9893,
      "ç²¼": 9894,
      "omp": 9895,
      "roval": 9896,
      "1947": 9897,
      "1951": 9898,
      "uters": 9899,
      "302": 9900,
      "ĠCD": 9901,
      "ĠAR": 9902,
      "rav": 9903,
      "eles": 9904,
      "Ġalle": 9905,
      "505": 9906,
      "ĠBE": 9907,
      "ĠBi": 9908,
      "æ¦Ń": 9909,
      "çĵ¢": 9910,
      "thy": 9911,
      "antas": 9912,
      "2900": 9913,
      "Ġ58": 9914,
      "ogen": 9915,
      "ĠKas": 9916,
      "Ġspin": 9917,
      "763": 9918,
      "ictor": 9919,
      "Ġflag": 9920,
      "Ġsyn": 9921,
      "Ġlock": 9922,
      "Ġentr": 9923,
      "ĠUSA": 9924,
      "Any": 9925,
      "ĠNext": 9926,
      "IMG": 9927,
      "block": 9928,
      "smart": 9929,
      "Let": 9930,
      "fire": 9931,
      "gæĬĢ": 9932,
      "hr": 9933,
      "iest": 9934,
      "mosp": 9935,
      "vas": 9936,
      "Ġäº²": 9937,
      "Ġä»¤": 9938,
      "Ġç©¿": 9939,
      "ĠæĲľ": 9940,
      "ĤéĢħ": 9941,
      "äººæĢ": 9942,
      "âĢĿ!": 9943,
      "Ġap": 9944,
      "Ġsac": 9945,
      "Ġcart": 9946,
      "Ġcoc": 9947,
      "007": 9948,
      "ç¼ľ": 9949,
      "Ġease": 9950,
      "çıº": 9951,
      "å¨£": 9952,
      "ĠMary": 9953,
      "ĠBill": 9954,
      "umst": 9955,
      "Ġvote": 9956,
      "ĠLuc": 9957,
      "Ġrice": 9958,
      "Ġrise": 9959,
      "ipl": 9960,
      "356": 9961,
      "irely": 9962,
      "reats": 9963,
      "Ġperm": 9964,
      "Ġtrig": 9965,
      "éĦĻ": 9966,
      "Ġguy": 9967,
      "èĿł": 9968,
      "ĠLead": 9969,
      "ĠSoft": 9970,
      "ĠIsab": 9971,
      "Once": 9972,
      "ĠUtah": 9973,
      "çĸĻçĺ": 9974,
      "530": 9975,
      "960": 9976,
      "GA": 9977,
      "Hi": 9978,
      "Mar": 9979,
      "SO": 9980,
      "card": 9981,
      "den": 9982,
      "lo": 9983,
      "tage": 9984,
      "Â°": 9985,
      "Î¼": 9986,
      "Ġu": 9987,
      "ĠãĢĭ": 9988,
      "ĠéĹ¨": 9989,
      "ĠæİĴ": 9990,
      "Ġéħį": 9991,
      "Ġç¨³": 9992,
      "Ġå¾Ģ": 9993,
      "ĠæĽ²": 9994,
      "Ġking": 9995,
      "ĠæģĴ": 9996,
      "Ġçºµ": 9997,
      "ŀçĮ": 9998,
      "åĳ¤": 9999,
      "éķ°": 10000,
      "è¶¸": 10001,
      "æ¶£": 10002,
      "ndant": 10003,
      "itig": 10004,
      "èĬ¥": 10005,
      "åķ¼": 10006,
      "æģķ": 10007,
      "anish": 10008,
      "edom": 10009,
      "Ġmur": 10010,
      "åĨ³æī": 10011,
      "1080": 10012,
      "æ¼±": 10013,
      "èĻĶ": 10014,
      "eta": 10015,
      "1968": 10016,
      "1967": 10017,
      "1977": 10018,
      "çĮŀçĮ": 10019,
      "ĠTR": 10020,
      "otion": 10021,
      "ola": 10022,
      "ulous": 10023,
      "abase": 10024,
      "244": 10025,
      "ĠHaw": 10026,
      "opy": 10027,
      "408": 10028,
      "ĠLong": 10029,
      "ĠGMT": 10030,
      "èĶ·": 10031,
      "Ġrank": 10032,
      "anded": 10033,
      "Ġ42": 10034,
      "agers": 10035,
      "inded": 10036,
      "pha": 10037,
      "3700": 10038,
      "385": 10039,
      "Ġ1984": 10040,
      "msci": 10041,
      "away": 10042,
      "mmol": 10043,
      "ï¹Ĵ": 10044,
      "Ġedit": 10045,
      "âħ¤": 10046,
      "Ġvend": 10047,
      "Ġlegs": 10048,
      "ĠPrem": 10049,
      "MV": 10050,
      "Most": 10051,
      "SR": 10052,
      "Sm": 10053,
      "flow": 10054,
      "hab": 10055,
      "host": 10056,
      "tæģ¤": 10057,
      "zo": 10058,
      "´åĬĽ": 10059,
      "Ġâ": 10060,
      "ĠçĿ£": 10061,
      "ĠéħĴ": 10062,
      "ĺèĽĽ": 10063,
      "å¤Ń": 10064,
      "è¯½": 10065,
      "Ġtor": 10066,
      "atre": 10067,
      "çł·": 10068,
      "edy": 10069,
      "Ġmir": 10070,
      "èĭĵ": 10071,
      "ç¼Ļ": 10072,
      "Ġdial": 10073,
      "iche": 10074,
      "icity": 10075,
      "æ®Ĩ": 10076,
      "Ġnone": 10077,
      "1954": 10078,
      "ĠIran": 10079,
      "çĮ¥": 10080,
      "otton": 10081,
      "aya": 10082,
      "irty": 10083,
      "æ¤¿": 10084,
      "252": 10085,
      "ĠLO": 10086,
      "284": 10087,
      "264": 10088,
      "ĠEr": 10089,
      "278": 10090,
      "Ġrule": 10091,
      "è¸ŀ": 10092,
      "369": 10093,
      "ĠVir": 10094,
      "éĦ¢": 10095,
      "anny": 10096,
      "Ġswim": 10097,
      "Ġcymb": 10098,
      "329": 10099,
      "435": 10100,
      "630": 10101,
      "Book": 10102,
      "Pad": 10103,
      "cher": 10104,
      "ja": 10105,
      "rich": 10106,
      "rics": 10107,
      "tod": 10108,
      "Ġæī¹": 10109,
      "Ġå§ĭ": 10110,
      "Ġå¾ĭ": 10111,
      "Ġé£ŀ": 10112,
      "Ġå®ĥ": 10113,
      "Ġæĭ¥": 10114,
      "ĠæĲº": 10115,
      "Ġè´Ŀ": 10116,
      "Ġæ¹ĺ": 10117,
      "Ġiron": 10118,
      "Ġæ¾İ": 10119,
      "Ĳå¿": 10120,
      "ĹéħĴ": 10121,
      "ï¼Ŀ": 10122,
      "ä¼İ": 10123,
      "æĿ·": 10124,
      "å¿Ĳå¿": 10125,
      "éķī": 10126,
      "ç«º": 10127,
      "Ġsoul": 10128,
      "ç¬Ļ": 10129,
      "èĬª": 10130,
      "ario": 10131,
      "Ġthor": 10132,
      "ĠIre": 10133,
      "ĠTre": 10134,
      "ĠSen": 10135,
      "ela": 10136,
      "å³¦": 10137,
      "Ġwhom": 10138,
      "tery": 10139,
      "ĠHT": 10140,
      "ĠFre": 10141,
      "ĠFun": 10142,
      "ĠDav": 10143,
      "this": 10144,
      "234": 10145,
      "ĠExt": 10146,
      "Then": 10147,
      "Ġ65": 10148,
      "368": 10149,
      "çĺĢ": 10150,
      "aped": 10151,
      "378": 10152,
      "ĠView": 10153,
      "rence": 10154,
      "Thank": 10155,
      "Anne": 10156,
      "ydney": 10157,
      "/ãİ¡": 10158,
      "4200": 10159,
      "436": 10160,
      "GåŁº": 10161,
      "Uber": 10162,
      "VER": 10163,
      "ait": 10164,
      "bçº§": 10165,
      "bro": 10166,
      "matic": 10167,
      "nett": 10168,
      "rick": 10169,
      "©è¿Ļ": 10170,
      "Ð»": 10171,
      "ĠæĿ¡": 10172,
      "ĠéĻ©": 10173,
      "Ġç«ł": 10174,
      "Ġè¿½": 10175,
      "Ġå®ľ": 10176,
      "Ġå®Ĺ": 10177,
      "äºĺ": 10178,
      "çļĳ": 10179,
      "çļĦm": 10180,
      "è¿¢": 10181,
      "çĶº": 10182,
      "æĺµ": 10183,
      "æİ°": 10184,
      "çīį": 10185,
      "çľ¸": 10186,
      "åĵ½": 10187,
      "æĦ£": 10188,
      "æĽ³": 10189,
      "eness": 10190,
      "Ġbare": 10191,
      "Ġboy": 10192,
      "Ġtom": 10193,
      "Ġmel": 10194,
      "Ġmac": 10195,
      "1050": 10196,
      "æ»¦": 10197,
      "çĹĬ": 10198,
      "ilst": 10199,
      "star": 10200,
      "æļ§": 10201,
      "raq": 10202,
      "ĠPub": 10203,
      "abled": 10204,
      "tex": 10205,
      "ĠList": 10206,
      "ĠLive": 10207,
      "289": 10208,
      "ĠEqu": 10209,
      "901": 10210,
      "agra": 10211,
      "eller": 10212,
      "inds": 10213,
      "ansp": 10214,
      "obby": 10215,
      "osely": 10216,
      "Ġarm": 10217,
      "888": 10218,
      "Ġrand": 10219,
      "ĠRev": 10220,
      "CAD": 10221,
      "ï¹Ķ": 10222,
      "Ġpoll": 10223,
      "oppo": 10224,
      "Ġdiam": 10225,
      "liers": 10226,
      "Eliz": 10227,
      "%ï½ŀ": 10228,
      ")âĢĿ": 10229,
      ",ãĢĬ": 10230,
      "Eve": 10231,
      "Every": 10232,
      "RNA": 10233,
      "rish": 10234,
      "sk": 10235,
      "uzz": 10236,
      "Ġå¤´": 10237,
      "Ġä»ĺ": 10238,
      "ĠåĲ¦": 10239,
      "Ġæ¯«": 10240,
      "Ġå¯Ĵ": 10241,
      "ĠåĩĮ": 10242,
      "Ġå²³": 10243,
      "Įåĳ¤": 10244,
      "Łåİ¿": 10245,
      "åĲĿ": 10246,
      "åĴ§": 10247,
      "æ°ĵ": 10248,
      "ç§½": 10249,
      "å¿¡": 10250,
      "éĺ¡": 10251,
      "orb": 10252,
      "Ġpump": 10253,
      "Ġmm": 10254,
      "Ġmixt": 10255,
      "èĭŀ": 10256,
      "èį¤": 10257,
      "éĴĴ": 10258,
      "éĴĿ": 10259,
      "1946": 10260,
      "race": 10261,
      "irds": 10262,
      "ĠMad": 10263,
      "ĠMax": 10264,
      "251": 10265,
      "ĠFL": 10266,
      "ĠFil": 10267,
      "Ġvibr": 10268,
      "ĠNov": 10269,
      "Ġ66": 10270,
      "ĠUAE": 10271,
      "aka": 10272,
      "Ġages": 10273,
      "fects": 10274,
      "AIçļĦ": 10275,
      "AIæĬĢ": 10276,
      "âĳ¤": 10277,
      "ugs": 10278,
      "Ġelev": 10279,
      "lsen": 10280,
      "Ġmilk": 10281,
      "paper": 10282,
      "RTX": 10283,
      "Ġnarr": 10284,
      "Keep": 10285,
      "499": 10286,
      "570": 10287,
      "911": 10288,
      "955": 10289,
      "LD": 10290,
      "cue": 10291,
      "date": 10292,
      "ez": 10293,
      "hp": 10294,
      "uis": 10295,
      "©åĲĪ": 10296,
      "©éĢĤ": 10297,
      "Ġå°¼": 10298,
      "Ġip": 10299,
      "Ġå»ĸ": 10300,
      "çļĦB": 10301,
      "âĢĿ[": 10302,
      "æ±Ĳ": 10303,
      "erst": 10304,
      "æĻĶ": 10305,
      "ato": 10306,
      "éľı": 10307,
      "éĶ°": 10308,
      "Ġmun": 10309,
      "æºħ": 10310,
      "åŀ¢": 10311,
      "éĤĽ": 10312,
      "1944": 10313,
[...]
