#version: 0.2
ï ¼
ä ¸
ã Ģ
ï¼ Į
ä º
å ħ
å ı
ãĢ ģ
å ®
ç ļ
æ ľ
çļ Ħ
å Ĭ
ãĢ Ĥ
ä »
å Ī
ä ½
â Ģ
å Ĳ
å ¤
ç »
æ ĸ
è ¿
è ®
å ľ
ä ¼
ç Ķ
å ¹
å Į
è ´
å ¸
å į
å Ľ
å ·
å ±
æ Ķ
æ Ĺ
å ¼
è ¯
æ Ī
å º
é ĩ
è ¡
ç Ľ
äº º
æ Ĭ
æ Ŀ
å Ĩ
ä ¹
æ ī
ä¸ Ģ
ä¸ ļ
æ ĺ
æ ł
é Ģ
å· ¥
âĢ ľ
å Ĵ
âĢ Ŀ
æ ķ
å ¯
æ °
ä¸ Ń
ä ¿
å¸ Ĥ
åĴ Į
å ĩ
å Ń
è µ
æ İ
ä½ ľ
è §
å °
è¡ Į
é Ļ
ç Ń
åľ ¨
åı ĳ
å¹ ´
å ĳ
ç º
æ ³
æ Ģ
ä¸ º
æ Į
åħ ¨
ç İ
ç §
åħ ¬
å Ł
æľ ī
é ¢
é Ĺ
å »
å¤ §
ç Ĳ
åĮ º
å® ŀ
ä¼ ļ
è ¦
åĽ ½
å İ
å» º
åĬ ¨
å ¿
çĶ Ł
è¦ ģ
é ¡
çĲ Ĩ
æĶ ¿
è¿ Ľ
åĬ ¡
å± ķ
æ µ
é ĥ
ç ®
å ¾
å ½
äº Ĩ
è Ģ
é Ŀ
2 0
æ³ ķ
æĸ °
ç ī
æ ²
åĮ ĸ
ä¸ į
æ ±
æ ŀ
äº §
ä¸ Ĭ
å ¥
æ Ń
é ĺ
æ ı
å·¥ ä½ľ
ä» ¥
åľ °
å¼ Ģ
é¡ ¹
åĩ º
æĺ ¯
ï¼ ī
çŃ ī
ï¼ Ī
æĪ Ĳ
è ĩ
çĶ ¨
åĲ Ī
æĹ ¶
æĹ ¥
ç ¤
å¯ ¹
æ° ĳ
ä ¾
éĥ ¨
è® ¾
åħ ³
åŃ ¦
ç «
åĬ Ľ
ä¿ Ŀ
ç ľ
æ ĭ
è ģ
ç ½
è ĥ
çĽ ®
èµ Ħ
æı Ĳ
å® ļ
ç ¨
æ ´
é ķ
æ ĥ
ä½ ĵ
ç® ¡
æ ¬
é «
ï¼ ļ
é« ĺ
æĸ ¹
è ¾
è Ĥ
è ½
å® ī
å® ¶
ä¸ »
åĬ ł
éĩ į
å ĵ
ä¸ ª
å §
ç» ı
éĢ ļ
Ł ¥
åĪ Ĩ
äº ĭ
æł ĩ
å ģ
æ ¸
èĥ ½
åĳ ĺ
æľ Ī
å ī
å ¢
çİ °
è Ĳ
æĸ ĩ
æľ ¬
åĲ Į
åĪ °
æľ º
è ·
åı Ĭ
åĪ ¶
æ Ħ
ç Ĥ
åº Ķ
è °
æľ į
å¼ º
å Ŀ
åıĳ å±ķ
ä½ į
ç ¬
è§ Ħ
é ģ
åħ ĥ
ä¸ ĭ
äº İ
é Ľ
é¡¹ çĽ®
éĿ ¢
åľ º
åº ¦
æİ ¨
å¿ ĥ
ï¼ Ľ
ä¸ İ
æľį åĬ¡
ä¼ ģ
å§ Ķ
éĩ ĳ
æ ¡
å¹ ³
åħ ļ
éķ ¿
å± Ģ
çĤ ¹
0 0
èĩ ª
åħ ¥
æĿ ¥
å»º è®¾
æĥ ħ
æ° ´
åı ¸
å¥ ½
æ ¯
é ļ
æ į
åĵ ģ
ç¤ ¾
åĬ ŀ
æĮ ģ
ä¿ ¡
çľ ģ
ä» ¶
æľ Ł
äº ¤
ä¼ģ ä¸ļ
æ´ »
ç ¾
è¿ ĩ
ç» Ħ
åĲ Ħ
åħ ±
æ² »
æ Ļ
ä¸ ī
ç¨ ĭ
åĨ ħ
æĸ ½
è´ £
åį ķ
ç ³
éĩ ı
åŁ º
ãĢ Ĭ
ãĢ ĭ
æ Ł¥
æĬ ¥
ç ¡
ç¬ ¬
æĿ ĳ
é £
åħ¬ åı¸
æĪ ĳ
ä» »
è ī
æĶ ¯
ç ł
ç³ »
ä» £
20 2
åī į
åĲ İ
å¤ ļ
ç®¡ çĲĨ
ç Ŀ
æ¬ ¡
éĹ ´
è´ ¨
æ ¶
æ ·
ä¸ ĩ
æĬ Ģ
å ķ
éĹ ¨
æķ Ļ
å¯ ¼
æ± Ĥ
æĺ İ
åĳ Ĭ
ç§ ĳ
æĢ §
è® ®
åĪ Ľ
è® ¡
çº §
èĢ ħ
çĽ ĳ
è´ ¹
åħ ¶
éĺ ²
ç ĸ
é¢ ĺ
å¼ ı
åķ Ĩ
å° Ĩ
åŁ İ
æ Ľ
èĤ ²
äº Į
åı ¯
åĨ ľ
æĬ ķ
è¡ ¨
å° ı
çĶ µ
çĽ ¸
ç ²
è¯ ģ
ä¸ ĵ
åİ ¿
ä¹ ¦
å®ī åħ¨
è· ¯
è® °
ä¾ Ľ
æ º
è Ĭ
å¤ Ħ
æĶ ¹
æĶ ¶
è Į
æ¡ Ī
è° ĥ
èģ Ķ
ç« ĭ
æ ģ
æķ Ī
éĩ ĩ
éĻ ¢
éģ ĵ
æ £
å½ ĵ
è ¶
åĲ į
ç» Ł
é¢ Ĩ
åº ľ
æį ®
å¹ ¶
å¢ ŀ
ç¤ º
çİ ¯
åĪ ©
æķ °
ç½ ĳ
åĲ ĳ
è§ £
ä¼ ł
æĶ¿ åºľ
æĦ ı
éĢ ł
çī ©
ç ¥
ç ±
åĨ ³
ç» ĵ
æ· ±
æī Ģ
å Ģ
è¿ Ĳ
éĽ Ĩ
æĢ »
ä» ¬
æĮ ĩ
è´ Ń
å¼Ģ å±ķ
åĩ Ĩ
éĹ ®
é ĵ
æº Ĳ
èĲ ¥
æĿ ¡
è½ ¦
å¾ Ĺ
èĲ ½
åĨ µ
è¿Ľ è¡Į
é ľ
æĽ ´
æł ¼
ä» ĸ
ä¸Ń åĽ½
é Ķ
å® ¡
åı °
åį ģ
è¿ Ļ
ç ´
åįķ ä½į
æ´» åĬ¨
æķ ´
ä¹ ĭ
äºº æ°ĳ
å° ±
åĮ »
ç¡ ®
å ¦
ç Ļ
çł Ķ
æŃ ¥
ç ©
çī ¹
éĻ Ĳ
æĬ ¤
èĮ ĥ
é¢ Ħ
ç² ¾
åŃ Ĳ
ç ķ
å¹ ¿
æµ ·
åı Ĥ
åİ Ł
ç¤¾ ä¼ļ
çº ¿
å± ±
æ£ Ģ
ä¹ ł
ä¼ ĺ
ç ¼
å¤ ĸ
åį Ĺ
å¤ ©
åĽ Ľ
å¢ ĥ
å® Į
åģ ļ
æĪ ĸ
æŀ Ħ
äºº åĳĺ
æĥħ åĨµ
éĥ¨ éĹ¨
åį ĩ
æľ ¯
äº§ ä¸ļ
åĿ ļ
å· ŀ
åı ĸ
è¿ ĳ
æģ ¯
è į
æµ ģ
é ¦
ç¾ ¤
èģ Į
æİ ¥
åı ·
è ¢
æĢ ģ
ç» Ń
æŃ £
ç» ĩ
é£ İ
ä¼ Ĺ
èµ ·
ä¸ ľ
ä» İ
å ŀ
è¦ģ æ±Ĥ
è Ī
ħ §
ç ģ
ä» ·
åį ı
è® ¤
é ª
æķĻ èĤ²
ç»Ħ ç»ĩ
èĩ ³
æī §
æµ İ
å¤ ĩ
é ħ
æĿ ĥ
ä¹ ¡
èī ²
è¢ «
å¸ ¸
ç ¦
æ ®
åĮ Ĺ
éĹ® é¢ĺ
åħ ·
éľ Ģ
çŃ ĸ
ç§ ¯
ä¸Ń å¿ĥ
æİ¨ è¿Ľ
åĪ Ĵ
åı Ĺ
éĢļ è¿ĩ
1 0
æĮ ī
æ¬ ¾
æī ĵ
åĬ ©
ç Ł¥
ä¹ Ł
ç® Ĺ
èĲ½ å®ŀ
æľ Ģ
è ¥
çĽ¸ åħ³
ä¸ĩ åħĥ
å ²
ç§ į
éĻ ©
èĬ Ĥ
éķ ĩ
æ± Ł
å¹ ²
ç»ı æµİ
èĢ ģ
å¦ Ĥ
è¥ ¿
æ »
é ©
è¯ ·
éĺ Ł
å¼ ķ
éĩĩ è´Ń
æĪ ·
è ŀ
åŁ Ł
æł ¡
å·¥ ç¨ĭ
ç± »
æ¯ Ķ
åį İ
çİ¯ å¢ĥ
å ĸ
æİ §
ç ĥ
è¯ Ħ
ç Ħ
ä¿¡ æģ¯
è ĭ
å® £
è¾ ¾
è´ Ł
æĹ ł
æŀ ľ
å½ ¢
èŀ į
çĶ ±
æĶ ¾
æł ¸
ç ħ§
æ Ł
è´£ ä»»
åı £
çĶŁ äº§
åĽ½ å®¶
æĬĢ æľ¯
èĢ ĥ
å· ²
ä¾ Ŀ
çĿ £
æĸĩ åĮĸ
çĿ Ģ
è½ ¬
éļ ľ
äº Ķ
åĽ Ń
æ¸ ¸
æ¶ Ī
å¤ į
è´ ¢
åģ ¥
ç¾ İ
æ¸ ħ
è´¨ éĩı
æĭ Ľ
åĬł å¼º
âĢĿ ï¼Į
æıĲ åįĩ
20 1
ä¼ļ è®®
åĽ ¢
ç Ł
è¯ Ĩ
æľ ª
åħ Ī
ä½ ¿
è¿ ĺ
ä¸ ¤
åŀ ĭ
æİ Ĵ
è £
è İ
ä¸ ¥
æĹ¶ éĹ´
å £
æıĲ ä¾Ľ
å¸Ĥ åľº
è¡Į æĶ¿
åĪĽ æĸ°
æİ¨ åĬ¨
æī ĭ
åŁ ¹
å¸ ĥ
åĽ ł
æ ¹
ç¾¤ ä¼Ĺ
è¯ ´
å¸ ¦
ä¿Ŀ éļľ
æ° Ķ
è§ ģ
æĪ ¿
æī ¹
ä¸Ģ æŃ¥
éĩį çĤ¹
éĻ ħ
èĤ ¡
å¿ «
æŀ ģ
åħ »
è§Ħ å®ļ
Ġ ï¼Ī
æĦ Ł
æŃ ¤
éª Į
ç¥ ŀ
æĹ ħ
å®ŀ æĸ½
ç« Ļ
å¾ ĭ
åĽ ´
æ² ³
å¸ Ī
é Ĵ
ä¸ ¾
æĪ ĺ
æ Ĥ
æī ¿
çĶ ³
æ ¨
ç½ ®
è º
æŀ Ĺ
èµĦ æºĲ
éĩį è¦ģ
æĸ Ļ
éĥ ½
æľº æŀĦ
æĬ Ĭ
æĶ¿ çŃĸ
éĩ Į
è´Ł è´£
è® ©
ä¹ ī
ç Ĺ
èº «
ãĢĤ âĢĿ
æľī éĻĲ
åŃ¦ ä¹ł
æĺ ĵ
åĮ ħ
1 2
åħ¨ éĿ¢
åº ·
ä½ ı
å® ¹
é Ĥ
æĸĩ ä»¶
æł ¹
ç¨ İ
å®£ ä¼ł
æ³ ¨
è¯ ī
å¤ ´
ç ª
éĢ ī
æĢ Ŀ
è§ Ĩ
ä» ½
æĸ¹ å¼ı
è¯ ¥
é »
äº§ åĵģ
å± ħ
ç²¾ ç¥ŀ
å¿ Ĺ
è¿ Ŀ
æ ¢
åĸ Ħ
ä» Ĭ
ä¹¦ è®°
å®ŀ çİ°
è¡ ¥
æ¨ ¡
å Ķ
åŁİ å¸Ĥ
çº ¦
é£ Ł
ç§ĳ æĬĢ
ä¿ ĥ
å¹³ åı°
çľ Ł
æĥ ³
éħ į
å± Ĥ
æµ ĭ
çĶŁ æĢģ
éĿ Ĵ
åħ ´
æĪĳ ä»¬
æĸ Ń
åı ĺ
æ¯ ı
éĿ ©
æī į
åī ¯
åĽ ŀ
ç§¯ æŀģ
ç ı
è® ²
æİ ª
æĢ ¥
çĽ Ĭ
äº ¬
ç§ °
èİ ·
1 1
æĬ ĵ
åħ ħ
ç© ¶
202 3
èµĦ éĩĳ
èĢ Į
ç Ī
è¯ ķ
æĭ ħ
æ Ĵ
ç» Ļ
çĦ ¶
è® Ń
æłĩ åĩĨ
3 0
åı į
çľ ĭ
çİ ĩ
æĬķ æłĩ
åħ³ äºİ
è§ Ĥ
å¯ Ł
çĸ «
åŃ Ĺ
å° ĳ
é¢ Ŀ
åĵ į
ç³» ç»Ł
å® ¤
ä¾ ĭ
è ±
ç» ´
æĻ º
åĨ Ľ
åĬ ¿
çĽ ´
å®Į æĪĲ
èµ Ľ
åĪ «
åŃ ĺ
å ĭ
åĳ ¨
å½ ±
é¢Ĩ å¯¼
å¼ ł
âĢ Ķ
çĸ Ĺ
åĪ ĩ
å® ¢
è Ń
ä¸» è¦ģ
èŃ ¦
åĪ Ĺ
æľī åħ³
æĮģ ç»Ń
æ ¼
çłĶ ç©¶
æĶ¯ åĩº
è¯ Ŀ
éĿ ŀ
æĬķ èµĦ
äº ¿
æ® µ
æ» ¡
åĢ ¼
ç» ¼
åĲĮ æĹ¶
åį «
èĥ½ åĬĽ
è£ ħ
éĶ Ģ
è Ħ
ä¿Ŀ æĬ¤
è¶ ³
åħ¶ ä»ĸ
çº ª
ç Ĭ
éĺ ³
çº ¢
æıĲ é«ĺ
æĸ¹ éĿ¢
âĢĿ ãĢĤ
éļ ¾
é¢Ħ ç®Ĺ
äº Ī
çĶŁ æ´»
æ ļ
è¡ Ĺ
é¦ ĸ
çĽĳ çĿ£
åĿļ æĮģ
è¶ ħ
åľ Ł
æĿ Ĳ
èµ °
æĻ ¯
ç¬¬ ä¸Ģ
èģ ļ
çĹ ħ
ä½ Ļ
å¹² éĥ¨
é ¾
æ·± åħ¥
ä»£ è¡¨
çİ° åľº
åĲĪ ä½ľ
åģļ å¥½
æ ĳ
æĮ ¥
ç¤¾ åĮº
ç»ı èĲ¥
åģ¥ åº·
ä½ľ ä¸º
æĮī çħ§
åı Į
è® º
æĶ¯ æĮģ
Ġ 1
çĽĳ ç®¡
ç» ¿
éĢ ģ
æł¹ æį®
ç¡ Ģ
åŁº ç¡Ģ
ä» ĺ
ç»¼ åĲĪ
åħ Ń
åħ¬ åħ±
æ£Ģ æŁ¥
åĬ Ł
çĻ ¾
åĪ¶ åº¦
ç© º
ç½ ļ
è´ ¯
çª ģ
äº ī
éĻ ¤
éĢ Ł
åĨħ å®¹
ä½¿ çĶ¨
ä¸Ģ ä¸ª
è¡Į åĬ¨
ä¸į æĸŃ
äº¤ éĢļ
åħ¨ åĽ½
ä¿ ®
ç» Ĩ
ç¨ ³
åİ Ĩ
èį ¯
æĻ ®
æĹħ æ¸¸
ç¦ ı
è´¢ æĶ¿
æľº åĪ¶
åĩ ı
åħ¨ å¸Ĥ
æĶ¹ éĿ©
æ¹ ĸ
åº ı
çī Į
çº ³
ç Į
åĪ Ļ
å½ ķ
åıĤ åĬł
åŁ¹ è®Ń
1 5
åħ ī
éĵ ¶
çĥ Ń
å± ŀ
ä»¥ ä¸Ĭ
çı Ń
ä½ İ
202 2
æ³ķ å¾ĭ
æī§ è¡Į
ç¡® ä¿Ŀ
çĻ »
çĶ³ è¯·
åºĶ æĢ¥
è ĳ
åĳ ½
æİª æĸ½
å½ »
åİ »
åı ²
åĨľ ä¸ļ
æľº åħ³
æĪĸ èĢħ
è± ¡
è¡Į ä¸ļ
èĩ ´
æī ĺ
åĶ ®
æī§ æ³ķ
å¼º åĮĸ
äº Ĵ
æķ ħ
åĮ» çĸĹ
è§Ħ åĪĴ
å± Ĭ
ç´ §
1 9
åĨľ æĿĳ
ä½ĵ ç³»
æľī æķĪ
æł ·
éĩį å¤§
ä¸ļ åĬ¡
å»º ç«ĭ
è¡Į ä¸º
è¾ ĥ
å ¡
é ¥
ç»ĵ åĲĪ
è¡¨ ç¤º
æĹ ı
æĭĽ æłĩ
æ²» çĲĨ
åĿ ĩ
æķ° æį®
äºº æīį
æķ ĳ
æĬ¥ åĳĬ
è®¾ æĸ½
å¾ ·
åĪ Ŀ
äº¤ æĺĵ
åı¯ ä»¥
æıĲ åĩº
çİ ĭ
æŃ ¢
èĬ ±
é¾ Ļ
äº¿ åħĥ
ä½ Ĩ
æĺ ¥
ä¸ĵ ä¸ļ
æīĵ éĢł
çķ Į
èī ¯
è´¯ å½»
è´ «
åĮĹ äº¬
è¿ĳ å¹³
ç¼ ĸ
çĸ« æĥħ
æĮĩ å¯¼
å¢ŀ éķ¿
å¤ ®
çī¹ èī²
åŁº æľ¬
çĲ ĥ
å Ħ
ä»¥ åıĬ
åĽ ¾
çŃ ¾
å¯ Į
æĺ ¾
ç« ł
åıĳ å¸ĥ
æ°´ å¹³
ä»» åĬ¡
ç± ³
è§Ħ èĮĥ
åĨ į
ç½ ²
äº ĳ
è Ļ
åŃ¦ æł¡
20 20
æ¶Ī è´¹
åİ ħ
æ² ¡
æĹ¶ ä»£
å®Į åĸĦ
åħ¶ ä¸Ń
åıĬ æĹ¶
åıĤ ä¸İ
åĲĪ åĲĮ
ä¾Ŀ æ³ķ
è¾ ¹
ç ĭ
å¹´ åº¦
åħ¬ åĳĬ
è¯ ¢
ĭ ç»
é£İ éĻ©
é¢Ĩ åŁŁ
Ġ âĢľ
åħ¬ å¼Ģ
å ł
ç ¢
æĢĿ æĥ³
éĻ į
ä¹¡ æĿĳ
202 1
åĦ ¿
è® ¸
ä»Ĭ å¹´
ç¬¬ äºĮ
ä¸Ń åįİ
å¤ ±
æ ¥
çĪ ±
ä¾Ľ åºĶ
ä¸ ĸ
ä¿ĥ è¿Ľ
åį °
æĦı è§ģ
Ġ 2
å® ³
åĪ ¤
å® ģ
æĶ¿ æ²»
åĬł å¿«
åĽ½ éĻħ
å¿ ħ
æĸ¹ æ¡Ī
éĩĳ èŀį
åº ķ
çŃ ĳ
å¯ Ĩ
å¸ ®
åŃ¦ çĶŁ
çģ ¾
ç» ľ
ä¹ Ĳ
202 4
èģĶ åĲĪ
è§£ åĨ³
èī º
çĽ® åīį
èģĶ ç³»
å® Ī
çĽ® æłĩ
å®ŀ éĻħ
åħħ åĪĨ
å§Ķ åĳĺ
å¥ ĸ
è¯ ¾
æĿ İ
éĺ² æİ§
è®¡ åĪĴ
å Ļ
æŁ Ĳ
æ Ĳ
å± ¥
è¢« åĳĬ
é» Ħ
æ¸ ©
ä¾ ¿
äº «
éļ ı
åºĶ å½ĵ
ç¥ ¨
å½± åĵį
åı ¬
è¿Ŀ æ³ķ
åį« çĶŁ
åıĳ æĮ¥
æĿĲ æĸĻ
åĽ °
æĶ¶ åħ¥
å¸ Ń
åį ³
çģ «
åĬŀ çĲĨ
äº Ľ
åº Ń
ç§ĳ åŃ¦
é© ¬
00 0
äºĭ ä¸ļ
æ¶ ī
è¿ ŀ
æ¼ Ķ
ç» ©
æ ½
ä¸Ń å¤®
åį ł
æī ¶
çī ĩ
ç´ ł
åĬ ±
è¾ ĵ
éľĢ æ±Ĥ
é Ł
ä¿Ŀ éĻ©
å¾ ģ
æĤ £
è¿ °
å¤Ħ ç½ļ
è® ¿
å¸Ĥ å§Ķ
æĿ¡ ä»¶
ä¸ĵ é¡¹
1 3
æĦ ¿
éĥ¨ åĪĨ
ä¸» é¢ĺ
å¿ µ
è· µ
åĬ ³
åľ° åĮº
âĢĿ âĢľ
æ± ¡
éĥ¨ ç½²
åħļ çļĦ
1 4
äºĨ è§£
ç¼ ´
æ¸ ¯
é¡ »
éĢ Ģ
å¾ ®
æ ¤
ç« ŀ
ä½ľ çĶ¨
å¤Ħ çĲĨ
åĻ ¨
æĪ ª
å¾ Ī
è ı
å£ «
å·¥ ä¸ļ
åħ± åĲĮ
ç½ĳ ç»ľ
åħļ åĳĺ
ä¸ ´
çŁ ³
çĽ ĸ
1 8
ç» §
åħ «
æĸĩ æĺİ
åĮº åŁŁ
åį Ī
å°± ä¸ļ
åº Ĩ
èĪ ª
âĢ ¦
éĢ Ĥ
é¦ Ĩ
åİŁ åĳĬ
è´ §
åĪĩ å®ŀ
éľĢ è¦ģ
ï¼Į âĢľ
æĴ Ń
å¥ ³
æľŁ éĹ´
èĭ ı
åĬŀ åħ¬
éĵ ģ
æ ¿
èµĦ æł¼
1 6
éĵ ¾
ä¸ °
ä¸ ĥ
å² Ĺ
åı ¤
è®¾ å¤ĩ
ä½ ķ
è¶ Ĭ
å½¢ æĪĲ
åı¬ å¼Ģ
çŁ¥ è¯Ĩ
çķ ¥
ç¤º èĮĥ
åŁº å±Ĥ
åıĳ çİ°
åıĳ çĶŁ
æĪĲ ä¸º
æľ¬ æ¬¡
çł ´
çĶµ åŃĲ
æķ´ æĶ¹
åŃ £
åĪ© çĶ¨
å¼Ģ åıĳ
æŁ ĵ
æķ° åŃĹ
æĮ ¯
éĻ Ī
è®° èĢħ
çĻ ½
5 0
% ï¼Į
éĽĨ åĽ¢
ç´ ¢
å±ħ æ°ĳ
çĬ ¶
çİ° ä»£
éĢļ çŁ¥
è¿ĩ ç¨ĭ
å Ĥ
åħ· æľī
æ¥ ¼
åŃĺ åľ¨
ä¸¥ æł¼
è® ¢
å·ŀ å¸Ĥ
% ãĢĤ
è½ ½
ç¬ ¦
éĵ¶ è¡Į
è° Ī
æł ĳ
åİ ĭ
çĮ ®
åį ļ
æ¿ Ģ
ç§ »
å· ±
äº¤ æµģ
å¾ ħ
Ġ 3
ä¸» ä½ĵ
ç¦ »
ä»¥ æĿ¥
ä¸» ä¹ī
çĻ» è®°
åĲ ¯
å· ¡
åĽ º
è¡Ĺ éģĵ
æĪĳ å¸Ĥ
è ħ
åº ĵ
ä¹ Ŀ
æľ Ľ
å®ī æİĴ
åħ· ä½ĵ
åº Ĺ
ç» ķ
åº §
æķ´ æ²»
æ± ĩ
æĻº èĥ½
ä¼ĺ åĮĸ
1 7
åĲ ¬
äºĭ é¡¹
æĸ½ å·¥
æĪĲ æŀľ
æ²¡ æľī
äº ļ
çŃ ¹
åģ ľ
åĲĦ é¡¹
å¢ŀ åĬł
è´ ·
æ ĵ
2 4
ä»¥ ä¸ĭ
åĵģ çīĮ
è¾ Ĩ
èĮĥ åĽ´
åĨ³ å®ļ
æİ ¢
åı ª
æ² ¹
æŃ ¦
äºº çļĦ
è´ ¸
é£Ł åĵģ
å· Ŀ
1 00
å¾ Ģ
èĩª å·±
å¢ŀ å¼º
åħ į
æĥ ł
æ¤ į
åİĨ åı²
å ³
è®¾ è®¡
éĴ Ī
æĭ ¬
åħ ĭ
çĶ °
å¥ Ĺ
æĶ »
ä¹ °
ç¬¦ åĲĪ
201 9
è¯ »
è¿Ĳ è¡Į
æĦı è¯Ĩ
å»º çŃĳ
è¿ ľ
æ ħ
åĮ» éĻ¢
ç® Ģ
è®¤ çľŁ
åıĸ å¾Ĺ
çī ¢
åĽ´ ç»ķ
éĽĨ ä¸Ń
åı ĭ
çķ Ļ
æĺİ ç¡®
åĮħ æĭ¬
ä¸Ĭ æµ·
ç»¿ èī²
åģ ĩ
åŁº åľ°
æį Ł
è´ ¦
æĿ ¿
å ¨
åĪ¶ å®ļ
ĭç» į
ä» ĭç»į
æİ Ī
èĩª çĦ¶
ï¼ Ł
å» ¶
ä»ĸ ä»¬
å£ °
ä¼ĺ åĬ¿
æ¡ ¥
æĶ¹ éĢł
åĴĮ åĽ½
Ġ Ċ
ä½ĵ èĤ²
ç§ Ł
çº ·
ä» ħ
é ¼
åħ¨ çľģ
è°ĥ æŁ¥
2 5
çĭ ¬
åĲ «
æĪĺ çķ¥
åĪ ĺ
ä¸» ä»»
éļ Ĳ
è ¨
æ³ķ éĻ¢
è¨ Ģ
åĬĽ éĩı
æ¨¡ å¼ı
ç¬¬ ä¸ī
æ¡Ī ä»¶
æĶ¯ ä»ĺ
å§Ķ ä¼ļ
å±¥ è¡Į
ç»´ æĬ¤
æ± ½
èĤ¡ ä»½
æĭ ī
æī ©
ä¸ª äºº
ä»· æł¼
å° Ķ
è¿Ĳ è¾ĵ
å¤§ åŃ¦
è´ ´
å® ľ
ãĢĭ ï¼Į
éĻ Ħ
å®ŀ è·µ
åĬŀ æ³ķ
å»º è®®
çĦ ¦
ç»§ ç»Ń
ç» Ī
20 0
ä¸ĸ çķĮ
æī ¬
ä¼ į
åĬ³ åĬ¨
ç»Ł ä¸Ģ
å° ½
èģ ĺ
åĬł å¤§
åĪ ¸
é ²
å§ ĭ
å¼ķ å¯¼
ç§ Ģ
åį Ĭ
å¹´ æĿ¥
èŀį åĲĪ
å½¢ å¼ı
æ·± åĮĸ
èĳ £
å¼ Ĥ
è® ¼
è°ĥ çłĶ
è¯ ¦
åĲ ¦
ä¿¡ çĶ¨
è¯ī è®¼
å¥ ĭ
åĨ Į
åį ĥ
åħ¬ å®ī
èį ī
é¢ ĳ
ç« ¯
åı Ī
æĮ¯ åħ´
æĸ ¯
çĽĳ æµĭ
å¼º è°ĥ
åºĶ çĶ¨
åŁº éĩĳ
æĹ¥ èµ·
äº ²
éģ Ĺ
æ°ĳ æĹı
ï¼ī ï¼Į
Ġ ä¸Ģ
éģ ĩ
æŀ Ĳ
ä¸ Ķ
è¯ģ æĺİ
åģ ¿
ãĢĭ ï¼Ī
èī¯ å¥½
ä¹ Ī
éĺ ¶
åĬĽ åº¦
äºĭ æķħ
éĢ Ĳ
æ³ķ æ²»
åħ³ ç³»
èĥ½ æºĲ
åĪ »
2 7
åį ¡
çĶ³ æĬ¥
ä½ ł
2 3
åį ±
å ª
ä¸ĵ å®¶
æĽ´ å¤ļ
èģĮ å·¥
åįı è°ĥ
åĩ »
æĪĲ ç«ĭ
ãĢĤ âĢľ
ä¼ł ç»Ł
éģĵ è·¯
åĤ ¨
èĩª æ²»
è§Ħ æ¨¡
æ ¦
çļĦ ä¸Ģ
åİ Ĥ
åĲĦ ç±»
Â ·
ç»ĵ æŀľ
å¤§ ä¼ļ
è¯ Ĭ
åĢ Ł
çł ģ
é ¸
å½ ©
çĸ ¾
æ´ ¾
åĿ Ģ
èĦ ±
ç¨³ å®ļ
éĶĢ åĶ®
ä»£ çĲĨ
æ¶Ī éĺ²
2 8
å®¶ åºŃ
ï¼ī ãĢĤ
ä½ľ åĩº
èµĦ äº§
å¿Ĺ æĦ¿
æı ´
éĽ ¶
å·² ç»ı
é¡ º
èį £
éĴĪ å¯¹
å®¡ è®¡
éĽ ¨
æĪĲ åĳĺ
è ĵ
æĭ ¨
åĲį ç§°
ä¸Ń çļĦ
åħ ¸
æĸ Ĺ
éĺŁ ä¼į
å¤§ å®¶
Ġ åľ¨
åĬ ª
âĢĶ âĢĶ
åħ¨ åĬĽ
âĢĿ ãĢģ
2 6
çŁ Ń
éĶ ®
ç ĩ
éļĲ æĤ£
è½ »
æ¯ Ĵ
ä¸Ń å°ı
åĬŁ èĥ½
æī¿ æĭħ
åħļ å§Ķ
è§ Ĵ
äºº å¤§
ç» ĥ
åĬª åĬĽ
e r
ä¿Ŀ è¯ģ
è¾¾ åĪ°
ä¼ ĳ
åª Ĵ
æĹ ©
æĺ Ł
ç»Ł çŃ¹
åĪĽ ä¸ļ
èĮ ¶
åĨ Ļ
ä¸¾ åĬŀ
ç´ ¯
èİ· å¾Ĺ
è°ĥ æķ´
ä¸» åĬ¨
éĽ ª
æĽ´ åĬł
æ±½ è½¦
å®¡ æī¹
è¿ İ
å® ĺ
ä¸į å¾Ĺ
è´ µ
æ³ķ è§Ħ
ç½ ª
ä¸ ½
ä» ¤
çĶµ è¯Ŀ
å¹¿ å¤§
o n
æ± ī
èı ľ
4 0
é¼ ĵ
å ĺ
è´ ¡
æį ¢
å¼Ģ æĶ¾
çŃ Ķ
èĳ£ äºĭ
åĪĨ åĪ«
è§ ī
ãĢ Ķ
æıĲ äº¤
ãĢ ķ
åģļ åĪ°
éĢ Ĵ
¤ Ĳ
åĪĨ æŀĲ
æ® ĭ
ä¸Ģ æ¬¡
æĶ» åĿļ
çªģ åĩº
éĩĩ åıĸ
åĲĮ å¿Ĺ
æ² Ļ
æ£Ģ æµĭ
é ¤Ĳ
æŃ¤ æ¬¡
åĪ¶ éĢł
åħ¬ ç¤º
åľŁ åľ°
æĭ Ł
åŃ ©
å¥ ¹
ç»Ļ äºĪ
åħ» èĢģ
å® Ŀ
çĬ ¯
æī İ
æł¸ å¿ĥ
æĭ ĵ
èĪ ¬
å§Ķ æīĺ
èģļ çĦ¦
åħ³ éĶ®
å¸Ĥ æ°ĳ
6 0
ï¼ļ âĢľ
è¶ħ è¿ĩ
Ġ äºĮ
è¦ Ĩ
æ´ ¥
âĢ Ļ
èģĮ ä¸ļ
ç £
éĩĳ é¢Ŀ
ç³» åĪĹ
2 2
âĢ ĺ
é© »
æĮĩ åĩº
è´¹ çĶ¨
ä½ı æĪ¿
éŁ ³
ç« ¥
é¦ Ļ
æĿ ¨
å°± æĺ¯
æŀĦ å»º
éħ Ĵ
æľª æĿ¥
e l
åĪĽ å»º
åĲ ¸
ï¼ ģ
ç¨ĭ åºı
æ ħ§
åĩ ł
æı ¡
è®° å½ķ
èĭ ±
éĿ¢ ç§¯
Ġ 4
é» ĳ
ä¼ Ł
è¯Ħ ä»·
å¤Ħ ç½®
åľ° çĤ¹
æ±¡ æŁĵ
ç² ®
è½¦ è¾Ĩ
è®² è¯Ŀ
éĹ »
é£ ŀ
æİ¥ åıĹ
èĢĥ æł¸
è®¸ åı¯
ä¼ °
æ° ¸
åĢ º
ç ĵ
æİĴ æŁ¥
äº ®
æī £
åľ° æĸ¹
é ½
ï¼ī ãĢģ
å¤§ åĬĽ
åł Ĥ
å¼ķ é¢Ĩ
ç»ı è´¹
åı¯ èĥ½
èģĮ è´£
æĵ į
on e
è´· æ¬¾
Ġ 0
åĲĦ çº§
é¥ ®
éĿĴ å¹´
ä¸į åĲĮ
h one
u m
åĢ Ļ
éĺ¶ æ®µ
è· ¨
2 9
ç ¿
æĸ° åĮº
åŁİ ä¹¡
å²Ĺ ä½į
æ´ ģ
b er
Ġ n
å¤ ª
å² Ľ
åĴ ¨
è¾ ĸ
åĽŃ åĮº
è¦Ĩ çĽĸ
å¿ħ é¡»
p hone
è¯´ æĺİ
um ber
201 8
è¿ ½
æ³ķ å®ļ
æĳ Ħ
å» ī
ç²¾ åĩĨ
å¸ Į
åģ¥ åħ¨
è¿Ľ åħ¥
æİ¢ ç´¢
å¼Ģ å§ĭ
å¤ Ł
è Ĵ
çļĦ æĸ°
å¸® åĬ©
æ¡ £
è´¡ çĮ®
ç©º éĹ´
åĴ¨ è¯¢
ç¬¬ åįģ
æĬ¥ åĲį
ç»ı éªĮ
çī Ī
èµĦ æĸĻ
æľ ¨
å± ĭ
æķĻ å¸Ī
è®¤ ä¸º
ä¼ ¤
æĶ¿ åĬ¡
äº ©
æ»¡ è¶³
å³ °
çİ¯ èĬĤ
åĽ° éļ¾
ç¡® å®ļ
æĺ ł
åı¸ æ³ķ
è£ ģ
äºĨ ä¸Ģ
æ¸ ł
é½ Ĳ
åĬ© åĬĽ
åħļ å»º
ä¿Ŀ æĮģ
æľŁ éĻĲ
ä¸Ģ èĪ¬
åħ µ
åįĩ çº§
å®¡ æŁ¥
2 1
ä¸Ģ ä½ĵ
åħ¨ çĲĥ
åŃ© åŃĲ
åİŁ åĽł
Ġ ä¸ī
æľ¬ éĻ¢
æ³¨ åĨĮ
åİŁ åĪĻ
æ² Ł
è¯ ļ
ä¸į èĥ½
ä¹Ł æĺ¯
ä¸° å¯Į
å½ĵ äºĭ
å¯¹ äºİ
è Ĺ
âĢ¦ âĢ¦
çĲĨ å¿µ
é«ĺ åº¦
è¡ Ģ
å°ı åĮº
æĬ Ĺ
åŁ¹ èĤ²
è¯ Ń
éĤ ®
çİ ī
éĢī æĭ
æīĢ æľī
æĻº æħ§
å· ®
åħļ ç»Ħ
æĮĩ æłĩ
åĩı å°ĳ
æĬĵ å¥½
è½ ®
æ³ ¢
è¯ģ åĪ¸
æĿ¡ ä¾ĭ
åħ¬ è·¯
åĲĮ æ¯Ķ
çī¹ åĪ«
æĶ¿ åįı
åĨ ł
åħ³ æ³¨
è¿ĳ æĹ¥
èĦ± è´«
ç ħ
æİ§ åĪ¶
åī §
åĿļ åĨ³
éĤ £
ä¾Ŀ æį®
æ°ĳ çĶŁ
æľĢ é«ĺ
çľ ¼
å°ı ç»Ħ
äºĪ ä»¥
ç ¯
ç»Ł è®¡
ãĢĭ ãĢĬ
æĸ° çļĦ
æļ ĸ
åįı è®®
ĥ åľ
çĿĢ åĬĽ
åŀ ĥåľ
åŀĥåľ ¾
é ī
éī ´
åĿ Ĺ
çłĶ åıĳ
çŁ ¿
æĺ Į
æĪª èĩ³
åħ °
ç¢ ³
åº Ł
å¹ ħ
æĪĲ åĬŁ
è¿Ĳ åĬ¨
é ¹
æ¬ ¢
è® ¨
åº Ħ
å¸ ģ
æĿ ¾
æ² ¿
ç»ĵ æŀĦ
èĥ ľ
ä»· åĢ¼
æĺ¯ åĲ¦
ä¸¤ ä¸ª
å¦Ĥ ä¸ĭ
çĸ ĳ
ä¼ĺ ç§Ģ
åħ¨ éĥ¨
åĵį åºĶ
8 0
æī ¾
ä¸¥ éĩį
å¤ ı
å»º æĪĲ
åĩº çİ°
è¯ º
ç Ĩ
æĪĲ æķĪ
çľģ å§Ķ
ä» ª
åªĴ ä½ĵ
ç¦ ģ
å¸Į æľĽ
è° ¢
å· ´
åĪ° äºĨ
è¯Ħ ä¼°
èİ· åıĸ
æİ¨ å¹¿
å¤§ çļĦ
å² ģ
åĨľ æ°ĳ
æĬķ åħ¥
è· Ł
åĲ¯ åĬ¨
ç¨İ åĬ¡
åĦ¿ ç«¥
äº§ æĿĥ
åŁİ åĮº
åį ĸ
ä½ĵ éªĮ
è Ķ
ç¼ĸ åĪ¶
ç´¯ è®¡
ç½ĳ ç«Ļ
è° ĭ
å ĥ
æ¹ ¾
çĩ ĥ
éĽĨ ä½ĵ
å¹ ¸
çº ł
æ£ ®
èīº æľ¯
çĽ ĺ
æŃ£ åľ¨
åħ¬ åĬ¡
æĹ¥ å¸¸
è¯ģ ä¹¦
æĭ ¥
ç¼ º
æ ¾
åĲ ī
æĹ Ĺ
èĲ¥ éĢł
çĶ »
è®¤ å®ļ
çŃ¾ è®¢
å¹´ çļĦ
Ġ 5
åħĪ è¿Ľ
è®¾ ç½®
é Ĩ
éĩį åºĨ
èĪ ŀ
çº¿ ä¸Ĭ
è§Ĩ é¢ĳ
åĨ³ çŃĸ
æķĻ åŃ¦
çĲĨ è®º
ç«ŀ äºī
è¿Ĳ èĲ¥
ä¸į ä»ħ
ä¸Ĭ åįĪ
æµģ ç¨ĭ
èº« ä»½
æ¯ ķ
åĽ½ åĨħ
åľº æīĢ
åıĳ æĶ¾
çĽ´ æİ¥
é º
äºĭ åĬ¡
è¿Ļ ä¸ª
å±ķ ç¤º
ç§į æ¤į
è ¸
åĨ ¬
æĭ¨ æ¬¾
èĪ ¹
3 1
åĭ ĩ
çĥ Ł
åĪ¤ åĨ³
éĺ ¿
äºĭ ä»¶
æ° Ľ
ä¸¾ è¡Į
ä¸ĵ é¢ĺ
åŃ¦ éĻ¢
åŁ¹ åħ»
æĮĩ æĮ¥
è¿Ļ äºĽ
æ´ ª
æ¸ħ åįķ
æ´ ²
éľ ²
ç½ Ĺ
æĬĢ èĥ½
éĻ Ĩ
æĹ §
t el
çĥ Ī
ä¸Ĭ çļĦ
æµ Ļ
é«ĺ æķĪ
èģĶ ç½ĳ
åįĹ çľģ
åıĹ çĲĨ
ä» Ģ
ä¸¾ æİª
e phone
åıį æĺł
åĪĨ ç±»
é© ¾
è¡¥ è´´
7 0
å½ĵ åīį
æĤ ī
ç¾İ åĽ½
éĢīæĭ ©
åıĮ æĸ¹
æĹ ¢
èĹ ı
é¼ĵ åĬ±
æ£Ģ å¯Ł
éĺ² èĮĥ
å¦Ĥ ä½ķ
è ĸ
æīİ å®ŀ
ç¬ Ķ
å½ĵ åľ°
æĿĳ æ°ĳ
å±± ä¸ľ
åĩ Ģ
éĩ Ĭ
ä¸» ç®¡
å®ŀ è¡Į
å¯¹ è±¡
çĬ¯ ç½ª
æ¶ī åıĬ
å®¡ æł¸
ä¹¡ éķĩ
å±Ģ éķ¿
ä¹ī åĬ¡
ä¸Ĭ è¿°
åįı åĲĮ
è¯ķ çĤ¹
å® Ĺ
åķĨ ä¸ļ
æķ° éĩı
å¾ Ħ
æĻ ļ
é² ľ
ç½ĳ ä¸Ĭ
è¾ĸ åĮº
å¤ ľ
åĲĪ çĲĨ
æī© å¤§
çĶŁ çī©
ä¸Ĭ å¸Ĥ
æĴ ĳ
3 5
åı ¦
æĪĳ åĽ½
æ¸ł éģĵ
æĸ° éĹ»
å¹¿ ä¸ľ
èĤ¡ ä¸ľ
* *
äºĭ å®ŀ
åħ¨ ä½ĵ
åĩº å¸Ń
è®¤ è¯Ĩ
çĶ¨ äºİ
çī µ
è½¬ åŀĭ
æĢ Ģ
åĿļ å®ļ
æĭħ å½ĵ
ç ĳ
å ´
å° ļ
æĮ Ĥ
åĨ³ ç®Ĺ
çī© æµģ
åĨ °
äºĮ æĺ¯
å² ¸
æĽ´ å¥½
å°ı æĹ¶
åĸ ľ
ç» Ŀ
ä¸Ģ æī¹
åħ± äº«
èĢģ å¹´
çİ¯ ä¿Ŀ
æ¢ ģ
åĽ¢ éĺŁ
æĪĲ ç»©
æ´ ĭ
åĪ ĳ
æĬ ½
ä¸ĭ åįĪ
åĳ ³
äºĮ åįģ
çº³ åħ¥
éĢł æĪĲ
æĪª æŃ¢
æĵį ä½ľ
ä¼ļ ä¸Ĭ
è´Ń ä¹°
æ¸¸ å®¢
è¯Ħ å®¡
èĥ½ å¤Ł
åĲį åįķ
å ©
çľģ çº§
w w
å¯¹ æİ¥
åİ ļ
åķĨ åĬ¡
æĹ¥ èĩ³
å§ ĭç»
èĲ¥ åķĨ
èĭ Ĺ
ä¸ª æľĪ
éģ ¿
åĥ ı
æĶ¯ æĴĳ
èµ Ķ
å§ĭç» Ī
èĲ½ åľ°
æ°Ľ åĽ´
éĩĩ çĶ¨
æĶ¯ éĥ¨
å· ¦
åĲĪ æł¼
ä¼ĺ è´¨
æ¢ °
æĺ¾ ç¤º
æĸ¹ ç±³
åĺ ī
çĶŁ åĳ½
å® ĥ
åĪ¶ ä½ľ
çĽ Ľ
æĸ¹ åĲĳ
èŀį èµĦ
æĿ Ł
ä¸» æĮģ
å¸¦ æĿ¥
9 0
æĿĥ çĽĬ
ä¹ĭ ä¸Ģ
æī «
é¡ ¾
ä¸» å¸Ń
åĩ Ŀ
ä» į
éħį åĲĪ
çĽ Ł
èģĶ åĬ¨
å¸¦ åĬ¨
æľī åĬĽ
æŀ ¶
è¡¥ åĬ©
æ°´ åĪ©
å¹ ¼
åĪ° ä½į
4 5
åĭ Ł
æ³ Ľ
èĢ ķ
ä¸Ģ æĺ¯
åĽ½ æľī
çİ° åľ¨
åķĨ åĵģ
çķ ħ
åĽĽ å·Ŀ
æĸ¹ æ³ķ
æ±Ł èĭı
åħ¬ åĽŃ
åħ¬ éĩĮ
æĬ ¢
æ± ł
éĺ² æ²»
ç»© æķĪ
å¹¸ ç¦ı
è¿ Ķ
è¿Ļ ä¸Ģ
æĺ¯ ä¸Ģ
ä» ĭ
éĩį è§Ĩ
æ½ ®
ç®Ģ ç§°
åħ¬ çĽĬ
æ± Ľ
æĢ» ä½ĵ
çĽ¸ åºĶ
éĢ Ķ
åħ¨ åĮº
å° ģ
å¹¿ è¥¿
åįı ä¼ļ
çªģ çł´
çº¢ èī²
æĹ¥ åĨħ
å¸® æī¶
æĽ ¾
è®¡ ç®Ĺ
ä½¿ åĳ½
ä¸ĭ éĻį
æ®ĭ çĸ¾
åĲ ¨
èĲ¥ ä¸ļ
æī¿ è¯º
æľī åºı
åĲĦ åľ°
èµ· æĿ¥
è¯ģ æį®
æĻ¯ åĮº
Ġ æľ¬
æĸĩ æĹħ
çģ¾ å®³
è ª
åľ Ī
ç¬¬ åĽĽ
æĪ¿ å±ĭ
åį° åıĳ
å½ Ĵ
èĭ ¥
ä¸º äºĨ
éļı çĿĢ
å·¥ èµĦ
å¾ ½
å¹ ķ
åĲĪ æ³ķ
åıĺ åĮĸ
éħį å¥Ĺ
ç»ı çĲĨ
å¸ĥ å±Ģ
åĪ ļ
åĲ ´
åľ ³
å½ ¹
ãĢģ âĢľ
çª Ĺ
ç¤ ¼
ä»Ģ ä¹Ī
å®¢ æĪ·
åĲ ĥ
æķ´ ä½ĵ
çº³ ç¨İ
å¡ «
æİ Į
æĸ° å¢ŀ
åĩĨ å¤ĩ
åħ· å¤ĩ
ä¹ ħ
æĭĽ åķĨ
é Ń
æ·± åľ³
åĲĦ åİ¿
éĺ ħ
æĭĽ èģĺ
é© ¶
çĶ ·
æ¯Ķ èµĽ
å¦ ĩ
è½¬ åĮĸ
çĶ¨ åľ°
çļĦ æĺ¯
éĴ ±
æĶ¹ åĸĦ
æ¶ ¦
æī¶ è´«
æĦı ä¹ī
åıĹ åĪ°
çħ ¤
è¿ ģ
æ½ ľ
éĺ µ
æ¬ §
ãĢĤ ï¼Ī
å£ ®
æµĻ æ±Ł
% ï¼Ľ
åıĳ è¡Į
èĥ Į
æ³ °
éĤ Ģ
ä¼ł æī¿
åı ¶
å¹¿ æ³Ľ
éĴ ¢
æ¦ Ĥ
éĿ ł
èĢĥ è¯ķ
æķ £
æĪ ı
ä½ľ ä¸ļ
èµĦ æľ¬
åĮ» èį¯
éĿ© åĳ½
3 6
æŃ£ å¼ı
å¸Ĥ çº§
åįģ åĽĽ
è®¾ ç«ĭ
åĬł å·¥
å° Ħ
å®¡ è®®
Ġ æį®
è¾ ħ
å® ¿
èĩª èº«
è¯¦ ç»Ĩ
æ·± åĪ»
é«ĺ æł¡
èµ ĭ
èĵ Ŀ
è´¢ åĬ¡
æ£® æŀĹ
ä¸Ģ å®ļ
ç¡ ¬
åı ³
çļĦ äºº
äºº æ¬¡
å¨ ģ
æĻ ĵ
æĲ Ń
éĵģ è·¯
è· ĳ
æĭ į
åĬŀ äºĭ
æ» ¨
åĲĮ æĦı
5 00
æľ Ŀ
å¼Ģ æłĩ
éħ ¸
å¾ Ĳ
éĶ ĭ
ä¾Ŀ æīĺ
Ġ åĽĽ
ç© ¿
å¿« éĢŁ
æº ª
éĩ İ
ä¸Ĭ è¯ī
æ³ ī
æĪĲ æľ¬
éģ µ
æĿ¥ èĩª
åħ¬ ä¼Ĺ
ç® ±
è§ Ī
èĤ ¥
åĮ» ä¿Ŀ
å¦Ĥ æŀľ
çºł çº·
åĭ ¤
æĭĵ å±ķ
äº§ çĶŁ
è¿Ļ æĺ¯
é¢Ħ èŃ¦
æ® ĸ
Ġ (
éķ¿ æľŁ
åŃ£ åº¦
éĴ Ł
åľ° åĿĢ
æŃ »
æĽ ²
Ã Ĺ
åĨ ²
å¥ ¥
æķĳ æı´
ç¡® è®¤
åħ± äº§
ãĢģ ãĢĬ
å® ½
çºª å¾ĭ
éĽ Ħ
ï¼ļ [
ä¸ī æĺ¯
èµ ´
çĿ£ ä¿ĥ
ç§ ĭ
ç»ı è¿ĩ
éĽ ·
201 7
æļ Ĥ
åĪĽ éĢł
æŃ Į
æįŁ å¤±
æ°ĳ äºĭ
å®ŀ éªĮ
æĿ Ĥ
ç§ĳ çłĶ
å¸¸ æĢģ
Ġ 6
åĩ ½
æ® Ĭ
ä½ľ é£İ
éĺ³ å¸Ĥ
éĹ ²
åĬ¨ åĬĽ
åįģ äºĮ
æ°Ķ è±¡
è´¸ æĺĵ
é«ĺ éĢŁ
çī© ä¸ļ
çĶ¨ æĪ·
æ³ķ äºº
æ¶ ¨
å· ©
æ¶ µ
è¯¦ è§ģ
å¾Ĺ åĪ°
çĶ ²
çº¦ å®ļ
åĽ½ åĬ¡
ä¹ĭ éĹ´
å®ī å¾½
å®ļ æľŁ
é¢Ħ è®¡
çī Ľ
å½¢ åĬ¿
çªģ åıĳ
ä½ ³
çĭ¬ ç«ĭ
çī© èµĦ
ä¼ Ļ
å¤ «
æ²Ł éĢļ
æĶ¶ è´¹
åıĬ åħ¶
çĸ Ĩ
èĳ Ĺ
å§ ĵ
ä¸Ĭ ä¸ĭ
æ¯ į
æŃ£ å¸¸
èĴ Ļ
æĬ µ
å°ĳ å¹´
è½ ¯
èĤ ĥ
æİ¥ å¾ħ
å¤ĩ æ¡Ī
åĩº åı£
ä¹ ĺ
åº§ è°Ī
èµ µ
å¤© æ´¥
éĨ Ĵ
èĩª è§ī
èħ Ĳ
åºĶ å¯¹
åħĪ åĲİ
ç¼ĸ åı·
åİ» å¹´
åĪ© çĽĬ
éĥ ĳ
èĢĥ å¯Ł
æĺİ æĺ¾
çī¹ æ®Ĭ
Ġ ä¸º
æĻ® éĢļ
ä½ľ åĵģ
åĩĨ ç¡®
èµ ¢
æ¯Ķ ä¾ĭ
çĹ ĩ
éĢļ éģĵ
éª Ĺ
éĢ ı
æĬķ è¯ī
çīµ å¤´
æķħ äºĭ
å¯¼ èĩ´
å¾ĭ å¸Ī
çģ µ
çŃī å¤ļ
åħ¸ åŀĭ
äºº åı£
æİ¨ åĩº
ç²® é£Ł
è¿Ŀ è§Ħ
å·© åĽº
åĩº åı°
ç± į
æķĳ åĬ©
æ¿Ģ åĬ±
åĲİ çļĦ
è· Ŀ
ç½ļ æ¬¾
æ¯ķ ä¸ļ
æģ ¢
ä¸Ģ èµ·
è¿Ĳ çĶ¨
å¤į åį°
åį ·
çģ ¯
æļ ¨
æĿ Ń
éĶ Ļ
æľī çļĦ
æŃ¤ å¤ĸ
ç§ ģ
èģĮ èĥ½
ä¹ Į
è´¢ äº§
è¯ Ī
ç¨İ æĶ¶
æ·± åº¦
å· ¨
åĨĽ äºº
æĸ° åŀĭ
3 3
éĿŀ å¸¸
ç®¡ æİ§
èĤ ī
ä¹ ±
9 9
åĲ¬ åıĸ
æľ «
éª ¨
æŁ¥ è¯¢
éĢļ æĬ¥
æĬĬ æı¡
èª ī
¹ ģ
çº ¸
ç ¹ģ
æıĲ åīį
å®£ è®²
åĲ¸ å¼ķ
æ¢ ¦
å¾ ª
è´« åĽ°
ä¸¾ æĬ¥
æķĪ çİĩ
u r
çĿ£ å¯¼
çĶ ĺ
å¾® ä¿¡
ä¸ī å¹´
æĮ ĸ
å¯¼ åĲĳ
å¸Ĥ éķ¿
éªĮ æĶ¶
åĮº å§Ķ
å¥ĸ åĬ±
åĳ ¼
åħ» æ®ĸ
æĹł æ³ķ
åĽĽ ä¸ª
ä¸į å°ĳ
ä»ª å¼ı
æ¡Ī ä¾ĭ
æĹ¥ åīį
åĽ¢ ç»ĵ
å¿ ł
èĻ ļ
é¡ ¶
æ¡£ æ¡Ī
æł· çļĦ
æİĪ æĿĥ
åħĪ çĶŁ
ä½į äºİ
æ»¡ æĦı
æģ¢ å¤į
æł¡ åĽŃ
åĵģ è´¨
å¾Ī å¤ļ
ä¼ ´
èĢģ äºº
åĳĺ å·¥
è¯ ¯
åĳ Ī
å® ı
è¿ĺ æľī
æĤ£ èĢħ
æĢ» ç»ĵ
3 00
å®ŀ åľ°
æµ ĵ
æ´» åĬĽ
å¼ķ è¿Ľ
ä¸Ģ äºĽ
éĻį ä½İ
çĶ± äºİ
è¿Ŀ åıį
çĶ¨ è½¦
è¾ ī
æĪĲ éķ¿
æľ ĭ
è¡ ¡
åĨ ·
åĨħ çļĦ
ç»ĵ æĿŁ
ç§ ĺ
æĭħ ä¿Ŀ
çºª å§Ķ
éī´ å®ļ
åĽł ä¸º
æ² ī
ä¸į åĬ¨
3 8
çľŁ å®ŀ
åħ± å»º
è Ľ
æł ı
åĳ¨ è¾¹
çĽ ¾
å¹¼ åĦ¿
åħ¬ å¸ĥ
å¤© æ°Ķ
æĤ ¨
æ³¨ æĦı
é¦ Ī
é ±
çĤ İ
ç»Ħ æĪĲ
å® ¾
å±ŀ äºİ
èµ ģ
å¼ ĥ
ç§Ł èµģ
é± ¼
4 8
èĢģ å¸Ī
è¯¢ éĹ®
éĹ Ń
åĮĸ çļĦ
åĮĸ è§£
è® ¯
ç¯ ĩ
Ġ å¸Ĥ
æ±ĩ æĬ¥
æ£Ģ éªĮ
ãĢĭ ãĢĤ
æľĢ å¤§
3 7
Ġ ãĢĬ
åĵ Ī
éĤĢ è¯·
é¦ĸ æ¬¡
å «
é¡º åĪ©
è£ħ å¤ĩ
èµĦ è´¨
çĽĳ å¯Ł
çĽ´ æĴŃ
å¥½ çļĦ
æī¹ åĩĨ
éļ Ķ
éĻĦ ä»¶
åį± éĻ©
éĢĢ å½¹
èĩª è¡Į
æł¼ å±Ģ
åĳĬ çŁ¥
æ°ĳ ä¸»
æľ¬ æ¡Ī
çľŁ æŃ£
è¡¥ åħħ
æķĪ æŀľ
çĨ Ł
ä¸Ģ çº¿
èį Ĳ
æ¢ ħ
åĩº è¡Į
æ¾ ³
ä¸Ń æłĩ
ä¸Ĭ å¹´
é¾ Ħ
éĿĴ å²Ľ
èį¯ åĵģ
ur l
ç¾İ ä¸½
å¡ Ķ
æ¯ı å¹´
èµĶ åģ¿
éĥ½ æĺ¯
ï¼ İ
äºº å·¥
çĪ Ĩ
æłĳ ç«ĭ
äºº åĬĽ
ä¼ļ è®¡
è° ·
æĲ º
å¹³ å®ī
ç¬¬ äºĶ
è¿ŀ ç»Ń
èµ° è®¿
è¿Ļ éĩĮ
çļĦ å¤§
å¹´ åĪĿ
æĮĩ ç¤º
åŁİ éķĩ
ä¼ł æĴŃ
ç¥ Ŀ
éĿ¢ å¯¹
çı ł
è°ĭ åĪĴ
æĭ Ĩ
æķ´ åĲĪ
åıį é¦Ī
ä»» ä½ķ
æīĭ ç»Ń
åįĬ å¹´
å±± å¸Ĥ
ä¾ §
ä¼ĺ åħĪ
å¥ĭ æĸĹ
Ġ äºĶ
Ġ 9
ä¸ĭ è½½
åĢ į
çĮ ª
åº Ĭ
ç¼ ĵ
ä¸Ģ çĽ´
éĿŀ æ³ķ
èĩª åĬ¨
çĳ ŀ
èĦ ĳ
å®ī è£ħ
æīĢ åľ¨
å¤± ä¿¡
äº« åıĹ
å¼ ±
æīĵ åĩ»
éĺ² æ±Ľ
å·¥ ä¼ļ
æ²» çĸĹ
ç¼´ çº³
ä¸º ä¸»
æĮ ĳ
ç»Ĩ åĮĸ
æ±¡ æ°´
éĢĤ çĶ¨
ä¸ī ä¸ª
æķ ¬
çĶµ è§Ĩ
è¯· æ±Ĥ
åıĺ æĽ´
æĢ§ åĴĮ
æ²³ åĮĹ
æİ ĺ
å°ı åŃ¦
è¿ ħ
æľĭ åıĭ
è®² è§£
åĢŁ æ¬¾
é©¾ é©¶
æ ĩ
åĩ Ń
å±ķ çİ°
éľ ĩ
æ¡ Ĥ
å·¥ åķĨ
åĿ Ľ
åİ ¦
åĤ¨ å¤ĩ
æľĢ åĲİ
ç« ¹
ç´ł è´¨
æİĮ æı¡
çŁ Ľ
æĭ ¿
æĿ¥ åĪ°
è½¬ ç§»
å¸¸ å§Ķ
åįģ ä¹Ŀ
éĢģ è¾¾
æĪĲ éĥ½
æľĢ ç»Ī
è·µ è¡Į
å¿ĥ çĲĨ
åĭŁ éĽĨ
3 4
å¼ ĺ
åĬ¨ æĢģ
é¤Ĳ é¥®
çĬ¶ åĨµ
çıŃ åŃĲ
åĿ Ĳ
ä¸Ń åħ±
åĩº åħ·
ä¹¦ éĿ¢
çĶŁ åĬ¨
çī §
åľº æĻ¯
Ġ 7
èĤ º
ç¦ı å»º
çŁĽ çĽ¾
éĢĲ æŃ¥
æ¿Ģ åıĳ
éĢ ¾
æľ ±
è§ ¦
å½ °
æķĪ çĽĬ
åĵ ª
ä¿® å¤į
åħ¨ ä¼ļ
ç«ĭ åį³
é¢Ħ éĺ²
å®ŀ äºĭ
é¢Ħ æ¡Ī
ä¸į æĺ¯
æ¯ı å¤©
æļ ´
æµ ¦
éĿ¢ åĲĳ
è´¦ æĪ·
åħ¨ åİ¿
åįĹ äº¬
201 6
æ¢ ¯
åħ ¼
æĹ¥ æľŁ
åĲĦ ç§į
æĪĲ äº¤
èŀį åħ¥
äºĴ åĬ¨
ä¾ µ
å¼Ĥ è®®
ä¸į äºĪ
ä¸į è¶³
åĿ ¡
ç£ ĭ
éĻ µ
æį ·
èĤ ¯
æĬ¥ éģĵ
æ¬ ł
çĿ£ æŁ¥
æĸ° å»º
æ¼ ı
æģ ¶
æľº æ¢°
éĶ ¦
ç ŀ
ç¾¤ ä½ĵ
çĽ Ĳ
åİ¿ å§Ķ
ï¼ī ï¼Ľ
èµ° è¿Ľ
æĬ ¼
5 5
æĢ§ çļĦ
èĢĥ çĶŁ
æŀĹ ä¸ļ
å® ĩ
å®¶ éķ¿
çº¿ ä¸ĭ
çľĭ åĪ°
æ¹ĸ åĮĹ
å¯ »
æĪĳ çľģ
å±± åĮº
è°ĥ åº¦
ä½ĵ çİ°
ç§ ©
3 9
æŃ£ ç¡®
æĽ´ æĸ°
åŃ Ļ
æĬ¥ ä»·
èĻ ½
æĶ¶ éĽĨ
äºº æķ°
æĦŁ æŁĵ
èĶ ¬
ç£ĭ åķĨ
æ°ĳ èĲ¥
æ» ĳ
ç§© åºı
ä¸Ģ å¹´
ç»´ ä¿®
å¹¿ åľº
è¯¾ ç¨ĭ
è¥¿ çľģ
åħ³ å¿ĥ
äº ķ
å± ı
åĩ ¡
åįı ä½ľ
åĬ ²
è¾ ½
è°ĥ è§£
æĥħ å½¢
6 6
çĬ¶ æĢģ
éĢĢ ä¼ĳ
0 9
åľ Ĩ
è¿ĺ æĺ¯
åħ¨ æ°ĳ
èĥ ¡
ç¼ ©
çļ ®
æĸĩ çī©
æ¯ Ľ
æłĩ å¿Ĺ
å¹³ åĿĩ
å¡ ĳ
çĶµ åķĨ
c n
ä¸Ģ èĩ´
æ¸ Ķ
ç«ĭ æ¡Ī
éĵ ľ
è½ ¨
ç¼´ è´¹
å¼Ģ å·¥
ç½ĳ æł¼
è ľ
èĤ¡ ç¥¨
è¿ħ éĢŁ
0 7
é² ģ
è¶ £
åįģ ä¸ī
çī¹ çĤ¹
æĸ° åĨł
åħļ åı²
åĪĹ åħ¥
åĬ¨ åĳĺ
æ´ Ĺ
æ¹ ¿
è° Ĳ
å·¡ æŁ¥
éĢĴ äº¤
è¿ ¹
å¸¦ é¢Ĩ
æĳ ¸
èĩª ä¸»
3 2
éĻ ķ
ä¿¡ å¿ĥ
å¯¹ å¤ĸ
æĭ Ĵ
å¥ ĳ
æĬ ĺ
åĪĨ å±Ģ
è´µ å·ŀ
å®¡ çĲĨ
å¥ ĩ
å±¥ èģĮ
éŁ ©
ç² ī
çªĹ åı£
åĪ© æģ¯
æħ °
æħ ¢
åĩĿ èģļ
è¿ĳ æľŁ
åħį è´¹
ä»İ ä¸¥
èĭ ¦
è¡ Ķ
åħ¨ å¹´
æĹ¶ æľŁ
è¿Ľ å±ķ
äº ¡
æķ ¢
ï¼Ľ ï¼Ī
ä»İ äºĭ
åĪĿ å¿ĥ
ä¾Ľ æ°´
è´§ çī©
ä» ĵ
å¢ Ļ
è´Ń ç½®
4 6
æīĭ æľº
ä¸Ģ æĿ¡
ç¨ĭ åº¦
åĴĮ è°Ĳ
æĦŁ åıĹ
å·¦ åı³
ä¸ Ŀ
æĴ ¤
æĬ «
æİ¨ èįĲ
4 7
åİ¿ çº§
æ³¨ éĩį
ç«ĭ è¶³
èĻ ĳ
. .
â ĳ
åģľ è½¦
å° ¼
ç¬¬ åħŃ
æ¸ħ çĲĨ
åĶ Ĳ
è¿Ľ åº¦
20 00
éĢ¾ æľŁ
ä¼ ¼
å¹´ è½»
å¼ĺ æī¬
åį ´
åĽł æŃ¤
æĦŁ è°¢
Ġ 8
æĺ¥ èĬĤ
çĽ® çļĦ
æĿ °
æ³ ½
æŁ¥ å¤Ħ
è¦ģ ç´ł
å®Į æķ´
å·¥ èīº
9 5
æµ ª
æĿ¥ æºĲ
åĽł ç´ł
æľº éģĩ
éĵ º
æĢĿ è·¯
åĢ ¡
ãĢ Ĳ
çļĦ é«ĺ
æ¶ ²
æĶ¶ åĪ°
çĪ ¶
æĭ¥ æľī
ç¥ ¥
çİ ©
çĤ ¼
éĿ Ļ
ç»¿ åĮĸ
æ°ĳ èŃ¦
ç¦ı åĪ©
æĸ° åįİ
0 8
çĶ¨ æ°´
è¾ ©
0 6
å±Ĥ æ¬¡
ä» ²
ï¼ī ï¼ļ
1 000
9 8
å¡ ĺ
åľ° äº§
èĩª æĪĳ
çŃ¾ çº¦
0 4
æľĪ ä»½
æŃ¦ æ±ī
ä½ĵ åĪ¶
åĨħ éĥ¨
è Ĩ
ä¸´ æĹ¶
æī¶ æĮģ
ä¸Ń åŃ¦
ãĢ ĳ
ä¼ ı
åī Ĥ
Ġ 10
åĬ¨ è½¦
å® ħ
ä»Ĭ å¤©
è ²
å¤ļ æ¬¡
æ°ĳ æĶ¿
æĸ ¤
çº¿ è·¯
åįļ çī©
ä¸ĵ éĹ¨
è®¨ è®º
æ¸ Ĳ
è ļ
å¤ļ ä¸ª
è¶ ĭ
è¯ķ éªĮ
éĺ² æĬ¤
å² Ń
å·¡ å¯Ł
è¯ Ĺ
ç¥ ĸ
è² Į
äºĭ å®ľ
åĢ Ĵ
7 5
ä½ĵ æ£Ģ
å·¥ å§Ķ
ä¿ Ħ
éĺħ è¯»
æ¬¢ è¿İ
èĦ ļ
ä¸Ģ è·¯
åĩº çĶŁ
çĻ¾ åĪĨ
ä¾Ŀ çħ§
åıĤ è§Ĥ
æĲŃ å»º
æĸ¹ ä½į
æľī æľº
äºº ç¤¾
åŃ¦ ç§ĳ
åįı åķĨ
èĬĤ èĥ½
åĿ Ĭ
æµģ åĬ¨
ç¾İ å¥½
èĶ¬ èıľ
è¡Ķ æİ¥
æĸ° çĸĨ
æł¹ æľ¬
æĿ¥ è¶Ĭ
201 5
å¼Ģ åĲ¯
è´£ ä»¤
ä¾¿ åĪ©
6 8
ä¼ĺ æĥł
æīĭ æ®µ
æĳ Ĩ
æİĴ æĶ¾
çº ½
è´ ¥
åħ¬ ç§¯
èµĽ äºĭ
çĸ¾ çĹħ
ä¸Ģ è¡Į
è¯ į
éŁ³ ä¹Ĳ
æĪĳ å±Ģ
å¤ļ åħĥ
ç» ĺ
å´ ĩ
ç¨ »
Ġ 2020
éļ Ĩ
å®ļ ä½į
æĬ« éľ²
ä¿ Ĺ
åĪĨ äº«
ww w
6 5
æĿĥ åĪ©
å¹¶ åľ¨
åĲĪ åĬĽ
å¹¿ å·ŀ
è¯ļ ä¿¡
å¤§ åŀĭ
èµ ¶
è®¤ è¯ģ
å« Į
åİĭ åĬĽ
é¡ µ
ä¿¡ è®¿
çĶµ åĬĽ
èµĭ èĥ½
çĻ¾ å§ĵ
æ· ·
Ġ å¯¹
æĹ ¨
åĵģ ç§į
æľ¬ äºº
åģ¥ èº«
åľ° è´¨
çĻ» å½ķ
åıĳ è¨Ģ
åİĭ å®ŀ
éº ¦
èº« ä½ĵ
4 9
åģ ı
æ¸ Ŀ
è®Ń ç»ĥ
æ¢ ³
æİ§ èĤ¡
çĩĥ æ°Ķ
æ´¾ åĩº
è¿ Ī
è½¬ åıĺ
é© ±
åĶ ±
æ¼Ķ ç»ĥ
è¿ĩ åİ»
å° ¤
åľ° ä¸ĭ
æĿ¥ çļĦ
èĤ¯ å®ļ
è¸ ª
æĿ ľ
è§Ĥ ä¼Ĺ
æ· ®
è¿Ļ ç§į
æĬ¥ éĢģ
çĽĳ æİ§
æĮĩ å®ļ
éĽ¶ åĶ®
èµ ŀ
è· ĥ
éĻ ¶
Ġ 2023
0 1
é¸ ¡
å®ī ç½®
æįŁ å®³
8 5
ä¹ Ļ
çĸ ı
åľ¨ çº¿
åĪĨ éĴŁ
ä¸ĭ åĪĹ
æĹ¶ åĢĻ
éķ¿ æ±Ł
äºī åıĸ
åĭ ĺ
æĻ® æ³ķ
æ¢³ çĲĨ
çºª æ£Ģ
éĻ¤ äºĨ
åħ¬ å¹³
åĳ¨ å¹´
éļ¾ é¢ĺ
é«ĺ çº§
å¤§ èµĽ
ä½į ç½®
ä¸ĭ çļĦ
äºº ä»¬
åĲĮ ä¸Ģ
æĬ¤ çĲĨ
çķħ éĢļ
ä¸ ¹
æĸ¹ ä¾¿
éĿ¢ ä¸´
æĪ ´
åĩ ¤
çŃī çº§
çº· çº·
æ² Ī
åĽº å®ļ
åĪ© çİĩ
å¦Ĥ ä»Ĭ
ä¼Ł å¤§
å»ī æĶ¿
æ¯Ķ è¾ĥ
æĹł äºº
ä¸ĩ äº©
éģ¿ åħį
æ³ ¥
å° Ĭ
æĢ İ
åįģ äºĶ
å¿ħ è¦ģ
å© ļ
è¡¨ çİ°
å¤Ħ åĪĨ
æł¸ éħ¸
æģ Ĵ
å¾ģ æĶ¶
éĽ ħ
äºº åľ¨
äºº å£«
åħ¬ äº¤
èĽ ĭ
åĮĸ åŃ¦
ç§ĳ æĻ®
æĢ» é¢Ŀ
Ġ åħŃ
ä¸Ĭ çº§
è®º åĿĽ
æĮĳ æĪĺ
æķ ı
è¡¥ åģ¿
éħį ç½®
æİ¨ è¡Į
æį Ĳ
ä¹ĭ åĲİ
éĺ »
åĪ© æ¶¦
å±ħ ä½ı
æıĲ éĨĴ
åħ± è®¡
éĥ Ń
ç»Ħ å»º
ç³ ĸ
éĥ¨ éķ¿
åħ³ èģĶ
å®ī å¸Ĥ
æ¯ı ä¸ª
æĺ¾ èĳĹ
æĺ Ĩ
ä¾Ľ ç»Ļ
æĳ ©
ç¢ į
æīį èĥ½
é¢ ģ
åĳĬ è¯ī
èĤº çĤİ
éĻĲ åĪ¶
æ¹ ĺ
æħ° éĹ®
åĲĮ æŃ¥
ä¸ļ ç»©
æī§ çħ§
å¯ Ħ
å¥ ī
å¿ Ļ
ç»ĵ ç®Ĺ
çŁŃ æĿ¿
åĩº äºĨ
åĬł çĽĸ
è§£ è¯»
èı Į
ä¸ĩ åĲ¨
é«ĺ ç«¯
ä¼ł è¾¾
çĽĳ å§Ķ
éĽĨ èģļ
åįģ åħ«
æµ· æ´ĭ
æ¨ ª
å½ĵ å¤©
è½½ ä½ĵ
å·¥ åħ·
å½¢ è±¡
å¯Ĩ åĪĩ
åĪĨ éħį
ä¸Ģ åĲį
å¿ ĺ
æĲ ¬
åĢº åĬ¡
æ¦ ľ
æ´ ŀ
çī¹ å®ļ
ä¿® æĶ¹
èĢħ çļĦ
çīĩ åĮº
0 5
ç§» åĬ¨
åģĩ æĹ¥
4 4
i n
çĹħ ä¾ĭ
% ãĢģ
å¯ ¿
è¯Ī éªĹ
è¡ £
éģ į
åºķ çº¿
ç¤¾ ä¿Ŀ
ä½ Ľ
ä¸» åĬŀ
çģ Ń
æł¸ åĩĨ
çĵ ¦
åĬł éĢŁ
èĢĥ èĻĳ
ä¼ Ĭ
æ· »
å¸¸ åĬ¡
åĮ» åŃ¦
ä¸ĵ çĶ¨
æł¸ æŁ¥
å¤§ å±Ģ
åĪĨ å·¥
æĤ Ł
ä¸º åĩĨ
çģ Į
g o
å¥³ å£«
åĬĽ çļĦ
åł µ
æı Ń
åīį æľŁ
æ¹ĸ åįĹ
å¼ ¹
æĶ¯ éĺŁ
æıĲ è´¨
å®ŀ æķĪ
æ¡ ĥ
æīĢ å¾Ĺ
çĥŃ æĥħ
åĨį æ¬¡
æĻ ĭ
éļı åĲİ
å¹´ åºķ
æŁ¥ çľĭ
æ¥ ļ
å¢ŀ æĶ¶
åħ¬ ç«ł
5 6
æľ Ĺ
èĪª ç©º
æµ· åįĹ
ä½ı å»º
çºª å¿µ
çº µ
éĢļ ä¿¡
çĥ §
åĿ ı
æ´ Ľ
èŃ¦ ç¤º
æĪĲ å¹´
8 8
9 6
çİ° å°Ĩ
å¤§ éĺŁ
çķ ľ
äºº ä¸º
çī© è´¨
åıª æľī
çı į
å¹¿ åĳĬ
æŁĲ æŁĲ
éģĹ äº§
åįı åĬ©
æĮĸ æİĺ
ç² ¤
æĿŃ å·ŀ
è½¯ ä»¶
å¤§ éģĵ
æŀĦ æĪĲ
ä½Ĩ æĺ¯
ç²¾ å½©
èĦ ī
è§Ħ åĪĻ
ä¸ī çº§
çĲĨ è§£
æīĢ ä»¥
èĬĤ æĹ¥
èĻ½ çĦ¶
ä¿® è®¢
åĳĪ çİ°
éĺ² æŃ¢
æı ı
æĶ¹ åıĺ
å°Ĩ åľ¨
ä¹ĭ åīį
æĭħ ä»»
Ġ [
å¸¦ å¤´
åħ± æľī
æ£ ļ
çĶ ļ
å° ¾
æĹ¥ æĬ¥
æ¸ ¡
åīį å¾Ģ
æłĩ çļĦ
Ġ æĳĦ
çº¿ ç´¢
é¡ ¿
è§£ éĩĬ
åİŁ ä»¶
5 9
è ķ
é¥ Ń
åĩº çļĦ
å² ©
ç¿ »
ï¼ģ âĢĿ
go v
åĮ» çĶŁ
è®¤ åı¯
æĻ® åıĬ
å»ī æ´ģ
è¿Ľ æŃ¥
åĪĨ ç®¡
ä½İ äºİ
è¾ĥ å¤§
çĲĨ çĶ±
äºĮ çº§
ç§ĳ å®¤
èĢ Ĺ
ç»Ħ éķ¿
æī¿ åĮħ
ä¼ ¸
èĢķ åľ°
å¾ª çİ¯
èµ ł
è®® æ¡Ī
éº »
7 8
ä¸ĩ äºº
ç§ĺ ä¹¦
åĿ Ŀ
åıĤ ä¿Ŀ
æľº åĻ¨
åĮº çļĦ
æıĲ ç¤º
æģ ©
æī¿ åĬŀ
èĥ ŀ
éĿ¢ è¯ķ
æľŁ åĨħ
5 8
ç Ĵ
éĤ »
00 00
çĹ Ľ
å¥ ¶
æĬĵ æīĭ
èĴĻ åı¤
å¿« éĢĴ
æĶ¿ æ³ķ
è£ ķ
åĢ ¾
é ŀ
è± Ĩ
èħ ¾
åıĳ åĬĽ
ï¼Į ãĢĬ
é¾Ļ å¤´
æľī æīĢ
çĽĳ äºĭ
åıĳ æĶ¹
çĶµ å½±
å®ģ å¸Ĥ
åĨľ æĪ·
A I
è° ģ
è´Ł æĭħ
æĸĩ ç«ł
é«ĺ æĸ°
åĪ Ĭ
æĸĩ èīº
ä»¥ ä¹ł
çĽ¸ æ¯Ķ
è·¯ å¾Ħ
é¦Ļ æ¸¯
æł ĭ
æĸĹ äºī
æĺ¯ åľ¨
èĪ Ĵ
ä¸º è¿Ľ
ä¼ĳ éĹ²
äºĳ åįĹ
ä»² è£ģ
ä¸ļ æĢģ
0 3
ä¸Ģ çº§
æľº åľº
åįł æ¯Ķ
æľī äºĨ
éħĴ åºĹ
æŃ» äº¡
æĳ ĺ
åĽ¾ ä¹¦
æķĻ æİĪ
çĶµ æ±ł
7 6
è¿Ļ æł·
åĳ¨ æľŁ
ç²¾ å¿ĥ
è·Ŀ ç¦»
å¡ ŀ
4 2
çĽ ¯
çİ° æľī
åĪĿ æŃ¥
å¤ ¯
ä¸į åı¯
æĬ½ æŁ¥
ä¸Ģ å¸¦
å¥ĳ æľº
å¹¶ å¯¹
4 3
åħ¬ æŃ£
ï¼ļ ï¼Ī
åĬ© æİ¨
éĶ ģ
è¿Ļ æ¬¡
çģ« çģ¾
çĻ¾ å¹´
æĹ ±
éĻ ª
ä¾¿ æ°ĳ
çĹħ æ¯Ĵ
ä¸Ĭ æ¶¨
çī Ļ
éĽĨ ç¾¤
åħ¨ ç¨ĭ
å·¡ è§Ĩ
å¸Ī çĶŁ
è¶ĭ åĬ¿
åĪ ·
æĭ ¼
çĽ¸ å¯¹
å¤Ħ äºİ
å¹¿ æĴŃ
é¥ °
å® ĭ
æĭĽ çĶŁ
ä¸» å¼ł
æĹħ å®¢
åĪĳ äºĭ
ä¸ĭ æĿ¥
æĬ ļ
å¤§ éĩı
å¼º åĪ¶
åĨľ çĶ°
éĢĤ åºĶ
å» Ĭ
æľĪ åºķ
æĪ Ĵ
Ċ ĠĊ
æĹ¶ åĪ»
ä½İ ç¢³
è§Ħ ç«ł
ä¸į ä¼ļ
å¡« åĨĻ
çĶļ èĩ³
åĩ ī
æ¦Ĥ åĨµ
ç«Ļ ä½į
P P
ä¸Ģ å®¶
çī¢ è®°
ä¸º æ°ĳ
ä»İ ä¸ļ
åĶ ¯
çĽ¸ äºĴ
éħį å¤ĩ
æĿ ¯
éĺ² çĸ«
é¦ĸ åħĪ
æ¸ħ æ´ģ
èº« è¾¹
çłĶ è®¨
æŁ ³
éĿŀ éģĹ
å¾ģ ç¨ĭ
åįģ åĪĨ
æĶ¶ çĽĬ
çĭ ±
èģĮ åĬ¡
éĩį æĸ°
éļĶ ç¦»
åħĪ è¡Į
æĽ´ å¤§
æķ´ ä¸ª
æľī åĪ©
çĽĳ çĲĨ
çĪ± å¿ĥ
èµ ı
è¾ ŀ
è¯¾ åłĤ
æ²³ åįĹ
æĸ Į
åĲĮ åŃ¦
Ġ 2022
åĪĽ ä½ľ
èĸ Ħ
0 2
ä» ģ
äºº ç±»
å¤ļ æł·
çŁ¥ åĲį
å£® å¤§
åİ ī
è·Ł è¸ª
å¤į æĿĤ
ç±» åŀĭ
ç¬ ĳ
æ°´ åºĵ
æĮĩ åįĹ
æ¶Ī éĻ¤
å¤¯ å®ŀ
ä¾ ¨
åĨħ æ¶µ
å¯ Ĵ
æĹ¥ æľ¬
ç¨ ¿
åĲĪ è®¡
4 00
äºº ç¾¤
5 7
çłĶ åĪ¤
æµģ åŁŁ
æĢĿ ç»´
è¡¨ åĨ³
éĺŁ åĳĺ
ç¯ ®
æĽ´ é«ĺ
ä¹ĭ è·¯
4 1
èĻ «
è ¹
éĻ¤ å¤ĸ
ä¸ī è§Ĵ
æ½ľ åľ¨
éģĩ åĪ°
èĢ Ĳ
åºĶ è¯¥
çĥŃ çº¿
åŁº äºİ
çŃĳ çī¢
ä¿ Ĭ
åĩº çīĪ
è¿Ľ åı£
å£° æĺİ
å°¤ åħ¶
çŃī åľ°
åħ³ çĪ±
æĮĩ æķ°
ä¸ĵ åĪ©
ç´§ å¯Ĩ
èĬĤ çĤ¹
è¿ «
ç®¡ éģĵ
éķ¿ æķĪ
å®ļ çĤ¹
æĶ¶ åıĸ
ç ĺ
ç¾İ é£Ł
åĮĸ å·¥
å¥ Ķ
ç¾ Ĭ
åĲī æŀĹ
6 7
æĥ ©
èĬĤ çº¦
æĿ Ĩ
èĸ ª
æµ ©
è®¸ å¤ļ
è¿Ĳ æ²³
æ¸© æļĸ
9 7
ä¼ļ çļĦ
æĸ° ä¸Ģ
èĬĤ çĽ®
ç¬¬ ä¸ĥ
å½ĵ æĹ¶
è¥¿ éĥ¨
æ¼ «
çĶĺ èĤĥ
è° ±
åĲĦ æĸ¹
èĭı å·ŀ
æĪĲ å°±
çİ° éĩĳ
åĲĮ æľŁ
åĬĽ äºī
Ġ 2021
åħļ åĴĮ
çİ° è±¡
æĢ» å±Ģ
æ¨¡ èĮĥ
æķĪ èĥ½
åıĸ æ¶Ī
å®ŀ ä½ĵ
æľ¬ åľ°
æİ¨ ä»ĭ
å° ĺ
å°ı å¾®
æºĲ å¤´
åĬ¨ çī©
ä¼ ¦
æļ ĳ
è·¨ å¢ĥ
åıĳ åĩº
éĺ ´
æıĲ èµ·
æĮĩ å¼ķ
éļľ ç¢į
éĺ² çģ«
åł Ĩ
è¾½ å®ģ
5 000
æ¯ «
é¹ ı
åºĶ åľ¨
æĶ¹ è¿Ľ
å®Ĺ æķĻ
çĩ ķ
é©± åĬ¨
± ä¹Ĳ
æ°Ķ æ¸©
åģļ æ³ķ
æĸ° åħ´
ä»£ çłģ
å¼Ģ å¹ķ
ä¸Ģ æµģ
æ¹¿ åľ°
è¡¨ æ¼Ķ
éģµ å®Ī
è¿Ŀ çº¦
ä¹ İ
éķ ľ
å¾ħ éģĩ
å¦ Ī
å¼ķ èµĦ
åı° è´¦
è´ ¤
åĨ »
è§£ éĻ¤
æ¼Ķ åĩº
è½¬ è®©
å·¥ äºº
å¤į å·¥
ç¾İ åħĥ
åĮħ è£ħ
æ° §
åıĳ çļĦ
ç§ ¦
ä¸Ģ ä»½
ç²¾ åĵģ
Ġ 2024
èĪ į
èĤ¡ æĿĥ
Ġ 11
å¸Ĥ åĮº
201 4
é Ħ
è¸ ı
è¥¿ èĹı
é¾Ļ æ±Ł
å¤© çĦ¶
æİ¥ ç§į
äº§ åĢ¼
æĽ´ æĺ¯
éĶ ¡
é¢Ħ æľŁ
åĨ° éĽª
ÃĹ ÃĹ
åĽĽ æĺ¯
èĥĮ æĻ¯
çĸ« èĭĹ
åıĳ è¡¨
åľº åľ°
æ¶ Ľ
æ¤į çī©
è¦ģ æĬĬ
Ġ 12
æıĲ æ¡Ī
Ġ ä¸ĥ
ä¾¿ æį·
åħ ģ
æį ķ
å®ŀ çļĦ
æľº ä¼ļ
çĭ¬ çī¹
è´ º
éĩĮ çļĦ
å»¶ ä¼¸
ä¸ī å¤§
ç»ı å¸¸
åħ¬ æ°ĳ
è¯ī æ±Ĥ
èī °
å¢ŀ æķĪ
ç©º æ°Ķ
å¸Ĥ æĶ¿
è·¯ çº¿
éĵ ¸
å°½ å¿«
Ġ è¿ĳ
è¡¨ è¾¾
å½¢ æĢģ
çŃ¾ ç½²
æ²» åħļ
å®Į åħ¨
ä¸ļ ä¸»
æŀ ¢
éĢļ è¡Į
åĪĨ ä¸º
è§Ĩ ä¸º
èĥľ åĪ©
è´ Ŀ
) ãĢĤ
ä¼ Ĳ
ï¼Ī [
æĿ¥ è¯´
çĽ® å½ķ
å£ ¤
çŁ¥ éģĵ
ç´§ ç´§
ä¸į åĨį
ä¸ī åħ¬
èĬ ³
å·ŀ åĮº
æ¡¥ æ¢ģ
éĢĶ å¾Ħ
æĹ ¦
æĶ¯ è¡Į
å»¶ æľŁ
æĢģ åĬ¿
å±ķ è§Ī
åĲİ ç»Ń
åĿļ å¼º
çĹĩ çĬ¶
é¸ Ł
æĹ¥ åľ¨
çĪ± åĽ½
éļı æľº
ç¦ģ æŃ¢
æĿ¥ çľĭ
æĢİ ä¹Ī
è·¯ æ®µ
ä»¬ çļĦ
ä»ĸ çļĦ
æµ· å¤ĸ
åĩº åıĳ
æľ¬ çº§
çĽĳ çĭ±
æĬĵ å®ŀ
éĺµ åľ°
ä¸´ åºĬ
åı¦ ä¸Ģ
èħĲ è´¥
æĿ Ģ
å¹³ ç¨³
åħħ çĶµ
5 2
C A
å¤§ åİħ
Ġ çİĭ
ç« £
æ¸¸ æĪı
8 6
äºī è®®
è¦ģ åľ¨
æłĩ æ®µ
å¦Ĥ æľī
ç«ŀ èµĽ
éģ Ń
ä¸ĩ ä½Ļ
è¯Ħ éĢī
å£ ģ
è¿ ª
åĽ½ éĺ²
å¿ Ĩ
çĶ¨ äºº
æ±Ł è¥¿
çŃ Ľ
æĩ Ĥ
æľĢ ä½İ
æµĭ è¯ķ
åĪ º
æµ ®
åĽ½ åľŁ
æ¬ £
é«ĺ éĵģ
ç§ĳ åĪĽ
æĦŁ åĴĮ
åĶ® ä»·
è§Ĥ çľĭ
è°Ī åĪ¤
çĶŁ æķĪ
åĿ ¦
èĪ Ł
ä¼ļ åĲĮ
åĪĨ è¡Į
åĨħ å¤ĸ
å½ĵ å¹´
éĻ¢ éķ¿
æĻ® æŁ¥
æ ©
ä¸Ń çº§
åħļ æĶ¿
æĬķ ç¥¨
ç»ı åİĨ
æ±ī æĹı
æĥ ¯
èĩª ä¿¡
åıĤ èµĽ
ä¸ĸ çºª
åĴĮ å¹³
å¯¹ çħ§
ï¼ ħ
ç»Ĩ åĪĻ
è¦ģ è¿Ľ
åĩº åĽ½
] ï¼ī
ä¸ ģ
çļĦ åīį
ç«£ å·¥
èĮ Ĥ
çĶµ ä¿¡
èĭ¥ å¹²
å±ķ å¼Ģ
åĿ ª
æ¨¡ åŀĭ
åħ¬ çĶ¨
æĪĳ çļĦ
å±Ģ éĿ¢
èĲ¥ éĶĢ
èĢĮ ä¸Ķ
å¦ĩ å¥³
åŃ¦ åİĨ
çİĩ åħĪ
æĻ ¨
é¢Ĩ åıĸ
åĩ Į
èĲ ¨
åį± å®³
åŃ Ķ
éĩĩ è®¿
å¢ ¨
æł¸ å®ŀ
èį£ èªī
èĩª çĶ±
ä¸į èī¯
æ¯Ķ å¦Ĥ
é» ĺ
åĬ¨ èĥ½
æĺ¯ æĮĩ
åŁİ ç®¡
å±± è¥¿
æĲº æīĭ
æŀ ª
æĭ ĸ
åĮħ åĲ«
åĢ¼ çıŃ
åŁº åĽł
å¤ļ ç§į
è¾ħ å¯¼
1 20
8 7
å¾ģ æ±Ĥ
åº· å¤į
éĤ® æĶ¿
Ġ å¹´
å® ª
éĥ¨ éĺŁ
202 5
æĶ¶ æĶ¯
éģĵ å¾·
éĢĲ æ¸Ĳ
åı «
äº§ éĩı
æĢ» éĩı
å³ ¡
æĹ º
èĲ¥ åħ»
æħ Ī
çº ¯
å¼º å¤§
ä¹Ł æľī
åĬł åħ¥
çŃĶ å¤į
åľŁ å£¤
ç»ı å¼Ģ
åĭ Ĵ
åħ¥ éĢī
éĽĨ æĪĲ
è¾ Ľ
åľ° åĿĹ
âĢĿ ï¼ī
è¾¾ æĪĲ
çļĦ å°ı
çĽ ¼
åİ ķ
èĻļ åģĩ
6 9
3 000
å®ŀ æĹ¶
å¿ §
åĽŀ è´Ń
éª¨ å¹²
ä¸į åĪ°
åĩº ç§Ł
æĥħ èĬĤ
åĩı çģ¾
5 1
äº Ń
éĺ Ķ
å¤į åħ´
ç«ĭ æ³ķ
éĺ³ åħī
äºº äºĭ
æ²³ éģĵ
ç´§ æĢ¥
æīĵ å¥½
ä»Ĭ åĲİ
èĻ İ
é¸ £
æĸĩ ä¹¦
è½¦ éĹ´
è¶³ çĲĥ
ä¸Ń åĮ»
åĿļ å®Ī
äºº å±ħ
å¢ŀ åĢ¼
å² ³
æľª æĮī
é©¬ åħĭ
è± ª
å®ģ æ³¢
ç¦ ½
æµİ åįĹ
ç´§ çĽ¯
æ¸¯ æ¾³
è£ģ å®ļ
ä¸Ĭ éĹ¨
èµ· è¯ī
æŀ¢ çº½
èĥ ¶
è´¨ çĸĳ
çĶµ æ¢¯
è§Ĥ å¯Ł
çİ° å®ŀ
åł ¡
æĽ ¿
åĩº è®©
æīĢ éľĢ
åħĪ éĶĭ
é»Ħ æ²³
ä¼ļ åľ¨
éĶ »
éĢī ä¸¾
éĢī æīĭ
èĢģ æĹ§
æ¶Ī æģ¯
5 3
æĵ ħ
ç¨³ æŃ¥
åľ° ä½į
åģľ æŃ¢
çĶ¨ å¥½
åĽ¢ ä½ĵ
ä¸Ĭ åįĩ
åĽŀ æĶ¶
çĶµ åĬ¨
èģĶ çĽŁ
ä¸Ĭ æĬ¥
è®² åº§
äº¤ ä»ĺ
åĢº åĪ¸
å¥ĭ è¿Ľ
7 7
ä¸ª ä½ĵ
éļ¾ çĤ¹
ä¸Ģ æł·
æ¯ı ä¸Ģ
æľĢ æĸ°
é£Ł çĶ¨
ç§Ł éĩĳ
çĵ ¶
æī¹ å¤į
èĪ Ĩ
ä¸¥ èĤĥ
å¥ĭ åĬĽ
) ãĢģ
å¦ ¥
9 2
è¦ģ ä»¥
å¼Ģ éĢļ
æ» ©
ä½ı å®ħ
å®Ī æĬ¤
åĲĦ ä¸ª
èī ¾
åı° æ¹¾
åĻ¨ æ¢°
å¤ º
Ġ å¼ł
ç¬¬ åħ«
è¿İ æĿ¥
ï¼ī ãĢĭ
æĻ¯ è§Ĥ
æ°ĳ éĹ´
æĽ ¹
çħ§ çīĩ
æ¯ı æľĪ
åĨ Ĵ
å¤ļ çļĦ
å¤ļ å¹´
è¡¨ å½°
æĥł æ°ĳ
éĹ¨ åı£
å±ŀ åľ°
éľ ŀ
ä½ı éĻ¢
å· §
å®¢ è§Ĥ
æµĵ åİļ
åħ» æĬ¤
å® «
éķ¿ æ²Ļ
è¢ ĭ
ä»¥ åīį
çĤ ī
é» İ
** **
çĲĨ æĥ³
å¥ī çĮ®
6 2
å¤§ å¹ħ
ä¸Ĭ ä¼ł
è¾ Ĳ
æ¶Ī æ¯Ĵ
éĵ¾ æĿ¡
ä»¥ åĲİ
éĹ¨ è¯Ĭ
æµģ éĩı
æİĴ åĲį
èİ· æĤī
Ġ èĩª
è¿ Ł
ä¸Ģ å®¡
å¸Ĥ çĽ´
ä»ĸ äºº
8 9
ä¿Ŀ åģ¥
ãĢĤ ãĢĬ
è¯Ħ æłĩ
åī¯ æĢ»
èĵ Ħ
éĢŁ åº¦
æķĳ çģ¾
Ġ0 9
äºº å¿ĥ
èµ £
- -
æĮĤ çīĮ
çĵ ľ
å¼º åĽ½
çŁ¿ å±±
åĬŁ å¤«
é«ĺ çļĦ
äºĮ æ¬¡
çĿ£ å¯Ł
æ²¿ çº¿
äºĶ ä¸ª
éĤ ¦
æĻ °
ä¼ĺ èī¯
é«ĺ ä¸Ń
æ· Ģ
å¢ĥ å¤ĸ
åħī ä¼ı
è¾Ĳ å°Ħ
åī ĳ
æł ª
æ²» å®ī
èģĮ ç§°
æĢģ åº¦
Ġ æĿİ
è· Į
é¸ ¿
åıĳ åĬ¨
æĬ¥ èĢĥ
éĿĴ æĺ¥
æİ¥ è§¦
è¿ĺ å°Ĩ
è¯Ń è¨Ģ
å° ĸ
å¼º çļĦ
èģļ éĽĨ
çĭ ł
åĢ¼ å¾Ĺ
èĩ´ å¯Į
åĲĦ çķĮ
çī¹ ç§į
éĩĬ æĶ¾
éĻĦ å±ŀ
èĩ³ ä»Ĭ
éĹ² ç½®
ä½Ļ äºº
é²ľ æĺİ
å¤į è®®
ä¼Ļ ä¼´
å· ·
åŃ¦ åĳĺ
è§£ æĶ¾
âĢĿ ï¼Ľ
æµģ éĢļ
ä¹Ł ä¸į
æĹ¶ éĻĲ
Ġ ä¸ĭ
åĲ¬ è¯ģ
7 2
ä¼ļ åĳĺ
å¾ ¡
èį¯ çī©
åĮ ł
è¿½ ç©¶
æı´ åĬ©
åĨ Ģ
åħ¬ æĸ¤
æİ¥ åĪ°
ä»İ èĢĮ
éĻ ·
] ãĢĤ
é ĳ
ä¸Ģ ç§į
ä¾Ľ çĶµ
éĳ «
åħģ è®¸
éĩĳ å±ŀ
æ°´ è´¨
åįģ æĿ¡
æ¸© åº¦
æĦı åĲĳ
å¤ĸ è´¸
äº ¦
åĪĨ å¸ĥ
æ¶ī å«Į
el l
ä¹ ı
ä¸İ ä¼ļ
çľģ å¸Ĥ
èįī åİŁ
ä¸ĵ çıŃ
r e
æĿĳ åºĦ
éŃ ħ
æĭĴ ç»Ŀ
6 00
å·¥ ä¿¡
æĪĳ åĮº
éĻĪ è¿°
åĬ³ åĬ¡
æİĪ äºĪ
ç½Ĺ æĸ¯
æ¶ Ĥ
åĭ ĥ
æ¸¯ åı£
æĪĺ æĸĹ
æ½ Ń
5 4
æ¶ Į
åİ¿ åŁŁ
å®ŀ åĬĽ
ç«ŀ ä»·
è· ³
ç»ĵ ä½Ļ
åħ¨ åŁŁ
èĢ ³
Ġ ä»İ
äºº åĴĮ
æ± ¤
åı ¥
201 3
å®¢ è¿Ĳ
åħ¨ å±Ģ
è¯ķ è¡Į
è´¦ åı·
åİ¦ éĹ¨
åĪĨ åŃĲ
é¦ĸ æī¹
èµ° åĩº
çİ° çĬ¶
åı¯ åľ¨
åĩ ¯
åįļ å£«
å·¥ åľ°
åĲĦ èĩª
ç½ ©
è¯» ä¹¦
7 9
èİ ±
å¾ģ éĽĨ
ä¸ĥ æĿ¡
ç¥ĸ åĽ½
å¹´ é¾Ħ
æķĪ åºĶ
æĻ® æĥł
å¤§ åİ¦
ä¼ł éĢĴ
ä¹ł æĥ¯
éħį éĢģ
å¿ł è¯ļ
æĹ¨ åľ¨
æł¡ éķ¿
è¯Ĩ åĪ«
æ §
æ³¨ åħ¥
æī§ ä¸ļ
12 3
æĭĵ å®½
æ¬§ æ´²
Ġ åı·
æŀ Ŀ
æĹ¥ æĻļ
æĳ Ĭ
éĻĦ è¿ĳ
èĪ¹ èĪ
åĲĪ èĤ¥
æľŁ å¾ħ
éĥ½ æľī
è¯¾ é¢ĺ
çŃī å¥ĸ
ä½ł ä»¬
6 4
äºº åĿĩ
å·¥ åİĤ
åħļ çºª
åĽŀ åºĶ
ä¸ľ åĮĹ
å° Ŀ
åħħ æ»¡
è®¢ åįķ
æĹ ģ
ä¸» å¯¼
ç¡ ķ
ä»£ ç¼´
åľ¨ æĸ°
å®£ å¸ĥ
ç¾İ æľ¯
å¯ ¨
åįķ åħĥ
åĨľ æľº
ä¹ĭ æĹ¥
å®¹ æĺĵ
ç¼ ĺ
æ²³ æ¹ĸ
æĵħ èĩª
åįģ ä¸Ģ
å²ģ çļĦ
éĻ¢ æł¡
å¯Ĩ éĽĨ
æ² ª
å¯¹ æŃ¤
åĬŀ åŃ¦
æĶ¾ åľ¨
æī °
æĸĩ åŃ¦
æīĵ éĢļ
7 3
åĪĨ çº§
ä¼Ĺ å¤ļ
é¢ ľ
åĵ ¥
æ±Ł å¸Ĥ
å½° æĺ¾
åĲ Ľ
æĪĲ äºĨ
å·® å¼Ĥ
æĴ¤ éĶĢ
è¾ ĳ
æ°´ çĶµ
è£ħ ç½®
æµ ¸
ç£ ¨
èĪ¹èĪ ¶
å¢ŀ éĢŁ
æĤ ¦
æħ İ
èĩ³ å°ĳ
ä¸ ²
è®º è¿°
ç´ «
6 3
åŃ µ
åģļ å¼º
æ¯ı æĹ¥
ç»ĵ è½¬
çĽ Ī
ç®¡ ç½ĳ
å°± åĮ»
èĪª å¤©
çī¢ åĽº
å¤ľ éĹ´
åĵĪ å°Ķ
1 10
ç» į
) ,
æ¡ Ĩ
éĢ »
å½ĵ æĹ¥
é¢ Ĺ
ç§ĳ çĽ®
éĤ ĵ
æĲ¬ è¿ģ
éŃħ åĬĽ
8 4
ä¸ĩ å¹³
è¿Ĳ ä¼ļ
8 2
c ell
å¤ĸ çļĦ
å¢ĥ åĨħ
èĢĥ åı¤
åį³ å°Ĩ
æ¹¾ åĮº
ç¬¬ ä¹Ŀ
ä» Ļ
åıį å¯¹
åħ ĳ
å®¶ åĽŃ
æĶ¶ èİ·
ä¸ľ æĸ¹
æī¹ æ¬¡
ãĢĭ ,
è§Ĥ å¿µ
åģĩ æľŁ
èģĺ çĶ¨
æĭĨ éĻ¤
ä¸Ģ æľŁ
å¹¶ ä¸į
åıĭ å¥½
åĽ½ èµĦ
æĹ¶ çļĦ
åĲİ æŀľ
ç¢ §
å·¥ ä¼¤
æĺĨ æĺİ
å¤§ æ°Ķ
è¯ģ ä»¶
åĸ ·
æĬµ æĬ¼
ç½ĳ åıĭ
9 4
ç»Ł æĪĺ
åĨ¬ åŃ£
Ġ åĮº
201 2
çĶ¨ çĶµ
å¢ ĵ
åģļ åĩº
äºĶ å¹´
ç´ł åħ»
éĦ Ĥ
ç«ŀ ä¹°
å¹¶ äºİ
æĹħ è¡Į
å®ª æ³ķ
èī ³
çģµ æ´»
ä¸į è¦ģ
åĲĦ åĮº
çī© åĵģ
è¥¿ å®ī
èĨ ľ
æ° ¢
æ£ ĭ
èį ·
èį Ĩ
åħļ é£İ
å¨ ±ä¹Ĳ
ï ½
è¯ ¸
å¯¹ æłĩ
ä¸¤ å¹´
é«ĺ èĢĥ
åĵª äºĽ
åľ° çĲĨ
éĢļ è®¯
è¶ħ å¸Ĥ
è¾ħ åĬ©
æłĩ è¯Ĩ
å°Ĩ ä»¥
æĶ¾ å¿ĥ
çĤ Ń
èĬ ¯
èĪŀ åı°
åį ĵ
å¥ ł
æĥ Ĭ
æĦ ģ
éĤ£ ä¹Ī
è¿ ·
å¼Ģ è®¾
æĶ¾ å¼ĥ
å¼ķ åıĳ
æĲ ľ
é«ĺ äºİ
ä¿¡ å¿µ
æĲ ŀ
ä¼ļ åľº
ä¸ĭ è¾¾
äºº æĸĩ
æĮģ æľī
7 1
ç² Ĵ
15 0
å½ Ń
é«ĺ å³°
é¦ĸ ä¸ª
éģµ å¾ª
åĪ¶ åĵģ
åħ± è¯Ĩ
å¼ķ èµ·
çļĦ äºĭ
åįģ åħŃ
èİ ŀ
æĩ Ī
Ġ èĩ³
æĭį æĳĦ
åĲ Ĺ
åıĳ çĶµ
çĶŁ èĤ²
åĪ Ģ
äº¤ èŃ¦
ä½ľ çī©
æĭ Ķ
è®² è¿°
i t
ä¹ ³
åĬ¡ å®ŀ
è° Ĭ
æ» ĭ
A PP
æ°ĳ å®¿
é£Ł åłĤ
8 3
ä¸į å¿ĺ
7 4
å¾ Ĵ
éĻĲ ä»·
æ°Ķ åĢĻ
éĿĴ å±±
å»¶ éķ¿
åŃµ åĮĸ
æº ¯
åĤ ¬
çĭł æĬĵ
åŃ¦ æľ¯
è¿ľ ç¨ĭ
ç¯ĩ ç«ł
ç¡® è¯Ĭ
é¢Ĩ ä¼ļ
åľ¨ å»º
é¢Ĩ åħĪ
8 1
9 3
åĽ½ æ°ĳ
åİ ¨
èĬĤ æ°´
åĨĽ éĺŁ
éģĹ åĿĢ
ä¸Ń èį¯
çĶ¨ éĢĶ
ç§į åŃĲ
æ¯ ģ
è½¨ éģĵ
ä¾ ¦
éĿĴ æµ·
è§Ĵ åº¦
éķ¿ åĪ¶
åįģ å¹´
åıĤ ä¼ļ
æŁ Ķ
èķ ´
äºº äºº
çº ²
æĹł è®º
æĶ¶ è´Ń
å¸¦ çĿĢ
é¹ ¤
èĭ ĳ
å·² æľī
ä¸Ń æľī
ä¸Ĭ äºĨ
åĪĽ æĦı
æīĢ å±ŀ
æĢ§ è´¨
æ±ĩ èģļ
å¯¹ æĸ¹
åīį æĿ¥
èİ «
äº® çĤ¹
å¡« æĬ¥
ç» µ
é«ĺ çŃī
å¤© çļĦ
èĭ± éĽĦ
èµĦ åĬ©
æ¡ Į
å¹¶ å°Ĩ
æļĤ è¡Į
åı ī
è¥¿ åįĹ
æīĭ æľ¯
åĶ¯ ä¸Ģ
è§ī å¾Ĺ
ä¸Ģ é¡¹
æ°ĳ åĬŀ
èģĶ ç»ľ
é© ³
èĻ ¹
çģŃ çģ«
ä¹Ł åľ¨
åĬł æ²¹
æĬĵ ä½ı
æ½ľ åĬĽ
è¿ŀ æİ¥
ä¸Ģ åľº
ä½ľ äºĨ
æĬ¤ èĪª
æľĢ è¿ĳ
æĿ¿ åĿĹ
æ°´ æºĲ
æī¹ ç¤º
æŃ¦ è£ħ
æĶ Ģ
æīĭ åĨĮ
éĻķ è¥¿
å®¶ ä¹¡
æµ· åħ³
æ±Ł åĮº
çļĦ å¥½
åĩŃ è¯ģ
æ¯ ħ
é¢Ħ çº¦
æŁ ±
æĻ® éģį
ç§ Ĵ
çİ¯ æ¯Ķ
å¤į äº§
ç»Ĩ èĥŀ
æī£ éĻ¤
èİ ²
å®ģ å¤ı
åľ £
åĲĪ è§Ħ
æĪ· å¤ĸ
çĶ± å¸Ĥ
çĶ¨ æĪ¿
å§ ľ
ç»ı åħ¸
çĥĪ çļĦ
éĢ ĥ
ä¸į ç§»
æĶ¹ æŃ£
æĬķ äº§
éĩĩ éĽĨ
æİĴ æ°´
æŃ¤ åīį
èĶ ¡
åĨ³ å¿ĥ
çĵ ·
åľĨ æ»¡
æħĪ åĸĦ
Ġ åħ«
åī ²
åıĤ çħ§
æīĵ èµ¢
é»Ħ éĩĳ
æĭ ³
åī ©
åĬŀ æ¡Ī
çŁ ©
èĩ´ åĬĽ
ç¢ ĳ
åĮº éķ¿
æĬ¢ éĻ©
æĸ° åŁİ
é¢Ħ æĬ¥
æĢ¥ æķĳ
å°½ è´£
æīĵ åį°
èĦ ¸
èģ Ĭ
ä¾Ľ éĶĢ
æļ Ĺ
å¼ Ħ
åıĤ èĢĥ
ä¸¤ åĽ½
æĳ ĩ
è¿½ æ±Ĥ
åįļ è§Ī
éĻĨ ç»Ń
åľ° çļĦ
è·¯ éĿ¢
å»º éĢł
ä¸į æľį
ä»ĺ æ¬¾
çł ĸ
æķ´ é¡¿
âĢĻ ï¼Į
é©» æĿĳ
çļĦ åħ¨
æľ¬ åľŁ
æĻ ¶
çļĦ ä¸į
å¸Ĥ åİ¿
åıį åºĶ
æī¾ åĪ°
åŃ¦ ä¼ļ
åĢ¼ å®Ī
å¤± ä¸ļ
% ,
å¼Ģ æĭĵ
èģļ åĬĽ
çł Ĥ
åĸ Ŀ
éĢī äºº
çĲ ´
åŃ Ŀ
å®ļ åĪ¶
åķĨ è´¸
éĺ² çģ¾
æĢĿ èĢĥ
å®ľ å±ħ
å¼Ĥ å¸¸
ä»¥ èµ´
å±Ĥ éĿ¢
è¾ĵ åħ¥
å¯¹ åħ¶
éª ĳ
æķĳ æ²»
åıĳ ç¥¨
èĬ± åĽŃ
å¹¶ ä¸¾
åł ¤
åı¦ å¤ĸ
å¹³ è¡¡
ä¾Ľ çĥŃ
ä¸ľ èİŀ
6 1
ä½ ©
åľ° éľĩ
èįī æ¡Ī
ä¸ī äºļ
çī¢ çī¢
è¿Ľ ç¨ĭ
æĢ§ èĥ½
èµ ĸ
æľī çĿĢ
åŃ¦ ä½į
éķ¿ æĺ¥
å±Ģ å°Ĩ
æĿĳ çº§
é» Ķ
å®ĺ æĸ¹
ä¸Ģ å¼ł
éĺ³ åĮº
äºĴ éĢļ
å¦ĩ èģĶ
i l
åĬ £
åı£ ç½©
ç§° åı·
Ġ ï¼Į
åħ¥ æĪ·
å¹¶ ä¸Ķ
æ¶µ çĽĸ
a n
çī¹ å¾ģ
æĬ ±
å¯ º
æĭ ľ
å¤ļ å®¶
åĨ¬ å¥¥
å§ĵ åĲį
ä» Ķ
ä¸į è¿ĩ
äº§ èĥ½
ï½ ŀ
åĬŀ å¥½
æ¸ħ æĻ°
ä¿Ŀ å¯Ĩ
ç»ı åĬŀ
è£ħ ä¿®
åĩı è½»
å°ļ æľª
åĸľ æ¬¢
ä¸Ģ æ¡Ī
å¥ ı
è´¯ ç©¿
æī Ľ
ä¸ľ åįĹ
è¯Ĭ æĸŃ
çļ ĩ
èĤ ©
æŁ ı
åı£ å²¸
æ¸ħ æ¥ļ
é¥ ±
åĮº çº§
çĶ¨ åĵģ
æŁ ľ
è¯Ĭ çĸĹ
åĢ¡ å¯¼
çĶ¨ å·¥
æľĢ ç¾İ
å¼ķ åħ¥
æķ´ çĲĨ
æĪ· ç±į
å°Ĩ äºİ
ä¹ĭ å¤ĸ
åĿļ å®ŀ
9 1
åĨ³ èµĽ
æĭį åįĸ
å°Ĭ éĩį
ç» ª
å¼ Ł
ä¿Ŀ çķĻ
æķ° é¢Ŀ
æ²¡ æĶ¶
åĴĮ çľģ
åıĳ æī¬
æĹł æķĪ
åĨł åĨĽ
æĹ ¬
åıĳ éĢģ
åħ¨ å·ŀ
åĬĽ åĴĮ
é¥ ¼
èĮ¶ åı¶
åºŁ çī©
åĬ Ŀ
å°± èĥ½
åĮĹ éĥ¨
éŃ Ĥ
ç¼ĵ è§£
æ°´ åĬ¡
çļĦ å¿ĥ
è¿Ŀ çºª
å°ı éķĩ
åħ´ å¸Ĥ
èį£ èİ·
èĵ ¬
åŃ Ł
c h
åĩº æĿ¥
åĨ³ è®®
èŃ¦ åĳĬ
çł´ åĿı
å¼Ĥ åľ°
çļĦ åħļ
éĺ ľ
åĪĴ åĪĨ
å¹´ åĨħ
çĥĪ å£«
æ± Ĺ
å¯Į è£ķ
åĲ Ĭ
é© ¿
èĳ ¬
æīĵ å¼Ģ
åĢ¡ è®®
ç¦ģ æ¯Ĵ
ä¿¡ åı·
æ£ ī
åĺ ±
ç¬Ķ è¯ķ
å®¶ çļĦ
èģĶ å¸Ń
éĥ½ å¸Ĥ
åĪ¶ å®ľ
è¾¾ æłĩ
æ» ļ
åº Ļ
æŃ£ æĺ¯
æĲº å¸¦
8 00
å¹² äºĭ
æįĲ èµł
åĢº æĿĥ
å¥ł å®ļ
æŃ¥ ä¼Ĳ
åĽł åľ°
âĢĿ ,
é«ĺ æ¸©
å°ı åŀĭ
å°ĳ æķ°
ä¾Ľ åĽ¾
æ¡Ĩ æŀ¶
èĤ ĸ
ç®Ģ åįķ
éĥĳ å·ŀ
ä¸Ģ åĪĩ
è´Ń çī©
åı° éĺ¶
ä¾Ŀ çĦ¶
åıª æĺ¯
éŃ ı
æ³ ¸
ä½Ļ åĲį
çł´ è§£
å¹² åĩĢ
Ġ 20
åĲ ķ
çļĦ çĥŃ
åŃĲ å¥³
ç§į ç±»
æĸ¹ éĴĪ
æĻ ´
èĳ ¡
çĽ Ĺ
ä¸Ģ ç«Ļ
åıª èĥ½
æĬķ æĶ¾
æ³¨ éĶĢ
é¦ĸ éĥ½
å·¥ æľŁ
ä¸į å¤Ł
æģ Ĳ
çŁ³ æ²¹
äºĮ æľŁ
åŃĺ éĩı
é¥ ²
å·¨ å¤§
I P
çļĦ ä¸»
åĲ §
æĬ¥ èŃ¦
åĽł åħ¬
éĢĤ å½ĵ
åĲĪ ä¼Ļ
åľº é¦Ĩ
è¢ ģ
é£İ æĻ¯
æĿĥ åĬĽ
çŃ¾ åŃĹ
Ġ ãĢĤ
éĢļ çĶ¨
æ¡ ©
çķ ª
ç»´ æĿĥ
èµ° åĲĳ
æĳĦ å½±
å¯¹ è¯¥
æĿĳ çļĦ
æĤ ¬
å±ħ å®¶
åľ¨ åīį
æĹ¥ çļĦ
æľ¬ å¸Ĥ
èĩª å¾ĭ
ãĢĭ ãĢģ
æµ· å¸Ĥ
åŃ ķ
æİ ī
åħĥ ç´ł
ç¥ Ń
åĨĽ äºĭ
å£° éŁ³
åħ³ æĢĢ
ä¸ª æĢ§
åģļ å¤§
ç»´ æĮģ
æ½ ĺ
éĻ¢ å£«
éĺ³ åİ¿
æľĪ èĩ³
é¢Ŀ åº¦
åį³ åı¯
åŃ ¤
éĺ² çº¿
å®¡ åĪ¤
æµ· åı£
åĲ¦ åĪĻ
æĹ Ń
Ġ ä»¥
ä¼ ¯
äºº åıĬ
æ± ª
ä¾Ŀ è§Ħ
æ¡ ĳ
èĩª æŁ¥
ç¹ģ èį£
çĪ¶ æ¯į
å¤§ æ¡¥
ä¹Ļ æĸ¹
åĮº åĴĮ
ä½ı æīĢ
æ¶ī æ¡Ī
æ¢¦ æĥ³
å± ¯
åĨ ¯
å±± æ°´
æ±ĩ æĢ»
çĥŁ èĬ±
æī« é»ĳ
è®° è½½
éĤ® ç®±
åķĨ ä¼ļ
éĻĲ é¢Ŀ
æµģ è½¬
ç»Ī ç»ĵ
åĩº åħ¥
æ»ĳ éĽª
åĮº åĨħ
åĲĮ æł·
è¿Ĳ è½¬
èĲ Ħ
åī¯ æľ¬
çİī ç±³
åģ ¶
ä¸¥ åİī
Ġ1 4
äº¤ åıī
èĳ¡ èĲĦ
åħļ åĨħ
201 1
è´¯ éĢļ
åĢŁ åĬ©
äºº çī©
éķ¿ åŁİ
èĩ´ è¾ŀ
æľī äºº
éĹ ª
ä¸¤ å²¸
å¾· åĽ½
æ¤ Ĵ
åºĨ ç¥Ŀ
æĺ ¨
æĺ¯ å¯¹
åī ª
è§Ħ å¾ĭ
æł¼ å¼ı
çļĦ æ°´
è¡Į çļĦ
æĪĲ çĨŁ
èĪ °
å¸Ī èĮĥ
è¿İ æİ¥
åİĤ æĪ¿
çĪ¶ äº²
åľ¨ æŃ¤
èĢ Ģ
èĥ½ éĩı
æī¹ è¯Ħ
å®ŀ å¤Ħ
åĿ ĳ
æī© å»º
æł ½
å¤§ åľ°
ä»į çĦ¶
ä¼ļ éķ¿
åĬŀ çļĦ
æĽ´ æľī
ä¸Ģ è¾¹
æĸĩ åĪĽ
æīĵ åį¡
åĽŀ å¤į
è´Ń æĪ¿
ç¢ °
è£ Ĥ
éļ¾ ä»¥
äºº å¯¹
æ³ Ĭ
è¾ Ī
è° ¨
å¦ Ĩ
åŃĺ æ¬¾
çļĦ ä¸Ń
ç¡® ç«ĭ
éħ ¬
èĦ Ĥ
éļı æĹ¶
åĪ° æľŁ
çĶ² æĸ¹
æĢ ķ
15 00
å³ »
æľª èĥ½
è´§ è¿Ĳ
æľ¬ å±Ĭ
äºĶ å¤§
çĦ¶ èĢĮ
ç»§ æī¿
ç¯® çĲĥ
é¡ ·
ä»» èģĮ
çİĩ è¾¾
åĻ ª
çĨ Ĭ
æĹ¥ çĽĬ
å¤ĸ åĩº
åį« åģ¥
åİŁ æĸĻ
æĬĵ ç´§
åģ¿ è¿ĺ
m a
ç§ Ĩ
äºº çĶŁ
ä¸Ģ ä½į
èµ ¤
åĳ ¢
èį Ĵ
è¹ Ī
æ³ ³
æ³ķ åĪ¶
å§ Ĳ
åħ± èµ¢
å®¶ å±ŀ
éĩĳ å±±
ä»ĸ è¯´
çī¹ æŃ¤
æ® ·
åĽŃ æŀĹ
åį ¢
ä¸Ĭ çº¿
åħ¥ é©»
è¯ģ çĽĳ
è·¨ è¶Ĭ
èĢħ åĴĮ
è½¦ ç«Ļ
éĻ¤ æģ¶
ä¸¤ çº§
åľ¨ äºİ
éĶ ħ
åģļ äºĨ
åįł çĶ¨
æĢ» ç»Ł
æĿ¡ æ¬¾
æĬ¢ æĬĵ
ä¿¡ è´·
èµ· äºĨ
èĢĮ æĺ¯
æ¾ Ħ
Ġ æĸ°
çłģ å¤´
è§ģ è¯ģ
æı Ĵ
é¢Ħ æµĭ
ä» °
å¸¦ éĺŁ
æī« æıı
è´¢ åºĵ
ç§ ¸
çĲĨ äºĭ
å±Ģ åī¯
çĿ£ åĬŀ
åĽ¾ çīĩ
çĽĸ ç«ł
éĺ Ĳ
ç»ı è´¸
æĸĩ åŃĹ
éģ ı
ç¼ Ŀ
æĮī æľŁ
èħ Ķ
å¤§ ä¼Ĺ
æķ° çļĦ
ä½Ļ é¢Ŀ
éĶ» çĤ¼
ç» £
æĹ ĭ
åĲĦ ä½į
ç«Ļ åľ¨
å£® æĹı
åĲ ¹
åĵģ çĽ®
åīį çļĦ
éĥ½ ä¼ļ
åĮ ¹
æĺ Ĥ
äºĨ æĸ°
åĪ° è¾¾
ç»Ħ åĲĪ
å¦Ĥ æŃ¤
åĪ¤ æĸŃ
å¥³ æĢ§
å¹¿ çĶµ
ãĢĭ (
èĲ½ åĪ°
åŀ Ĵ
ç«ł ç¨ĭ
éĻª åĲĮ
Ġ 30
çŃĸ çķ¥
ç»Ĩ èĩ´
éĽĦ å®ī
éĹ ¸
æ°ĳ åĪĿ
éķ¿ çļĦ
èµ· çĤ¹
éĻį éĽ¨
ç§¸ ç§Ĩ
å°Ĩ è¿Ľ
å°ı åº·
å½» åºķ
ä¸° æĶ¶
æĿľ ç»Ŀ
â ī
è° ĵ
èĬ ľ
åľ° è¯´
æĹ¶ æ®µ
åº¦ åģĩ
æĬĢ èīº
å¦ »
ä½ı å®¿
æľį è£ħ
ä¼ł æŁĵ
ä¸¤ åľ°
é£İ è²Į
å¤§ å¤ļ
æ± ķ
æ» ŀ
èİ· å¥ĸ
ç¼º ä¹ı
åħ¶ å®ĥ
åİ¿ åĮº
æº ¢
æĢ» éĥ¨
çĻ Į
åģļ å®ŀ
çĽĺ æ´»
çĽ ²
å¼Ģ æĪ·
åıĹ çĽĬ
Ġ1 5
ä¼ ª
åĮ» å¸Ī
æİĪ è¯¾
èĭ± åĽ½
å¯ ĵ
æĮī æĹ¶
å«Į çĸĳ
å®¶ äºº
èĪŀ è¹Ī
åħĥ çļĦ
è´¨ æķĪ
ä¹ĭ éĻħ
å·® è·Ŀ
åŁ ł
ç±» åĪ«
æİ¢ è®¨
æļ´ éĽ¨
âĢĿ ï¼Ī
æ° ı
æĥħ æĢĢ
åħļ æł¡
ä»· æ¬¾
ä¹Ł è¦ģ
è¯· æĮī
è¡¥ é½Ĳ
åħ¬ é¡·
ä¸Ĭ æĸ°
è¯· åľ¨
éĹ ¹
æ¸ħ å»ī
è¿ĺ è¦ģ
ç»Ī ç«¯
æľī æĿĥ
çĲ ¼
å§ ¿
è´¢ çī©
æľª ç»ı
çĶŁ çĮª
æľ¬ éĩĳ
èŃ¦ æĸ¹
åħī èį£
å© ´
ä½ľ æĪĺ
çĤ¹ åĩ»
çĪ ·
åĪĹ è½¦
Ġ åĪĺ
æıĲ ä¸ĭ
åĬŀ ç»ĵ
è°ĥ åĬ¨
éĶ Ĳ
æĭ¨ ä»ĺ
ç¿ Ķ
çĦ ķ
ç§» äº¤
å¤ ķ
æ² Ĥ
åľ° éĵģ
åİ¿ éķ¿
æĺĮ å¸Ĥ
å° º
åĬ¡ å·¥
æĵ ¦
åıª è¦ģ
äº² èĩª
çĶ ľ
åĴĮ é«ĺ
éĥ¨ ä»¶
åħ´ è¶£
èĢĥ è¯Ħ
ç«Ļ çĤ¹
æĪĺ äºī
çº¦ æĿŁ
äº¬ æ´¥
éģı åĪ¶
åº· åħ»
Ġ è¯¥
æ°ĳ æ³ķ
Ġ âĳ
çº º
åĽ½ ä¼ģ
åįļ ä¼ļ
å®ŀ å¹²
æ¹ Ľ
åŁ ĭ
çİ° å·²
å¢ŀ è¿Ľ
å°ı éº¦
å®Į æ¯ķ
è§Ĩ å¯Ł
äºĴ èģĶ
Ġ ä¸Ń
åı ł
åİ¿ åŁİ
è§£ çŃĶ
ç§» éĢģ
é¡¾ éĹ®
èĪĨ è®º
M A
çİ ²
å¤ĸ èµĦ
éĻĲ åº¦
çĲĨ è´¢
èħ ¹
æī¾ åĩĨ
éĽ· éĶĭ
åĨ ¶
æ³ Ħ
æĽ´ æį¢
éĻĲ æľŁ
å¤ĸ åĽ½
çŃĸ åĪĴ
æĮģ å¹³
æİĴ æ±¡
æĦŁ è§ī
ç§ ī
å¼Ģ åĪĽ
ä¸ĵ èģĮ
èĥ Ĩ
èĲ į
åīį ä¸ī
æ· ĺ
åĩĨ åħ¥
æĤ ł
å¤§ åĪ©
å¯¹ åºĶ
éĢļ åĬŀ
èĲ½ æĪ·
åį« æĺŁ
å¤ª éĺ³
çĶ· åŃĲ
æ¡ ¶
éŁ µ
ä¾µ æĿĥ
X X
å®¶ ä¸Ń
ä¸İ æŃ¤
æ¡ Ĳ
åıĺ éĿ©
é£ŀ è¡Į
Ġ æľĪ
å®ŀ åľ¨
ä¸ĵ ç§ĳ
ä¹Ł å°Ĩ
ä¸¥ ç¦ģ
ç´§ æī£
æ°´ ç¨»
æİ¥ æĶ¶
æĹł éĶ¡
éĢĲ ä¸Ģ
ä¹ ĥ
ç»Ļ ä»ĺ
èŃ¦ å¯Ł
çº¢ åĪ©
çĮ «
å¿ĥ çļĦ
æł¸ ç®Ĺ
åİĨ ç¨ĭ
åĲį å½ķ
å¤ļ åĲį
ä½Ļ å®¶
å®ŀ è´¨
æĽ´ æŃ£
éĴ »
çŃ¾ åĲį
ç¥Ŀ ç¦ı
æ» ´
æīĺ ç®¡
éĢĤ åĲĪ
åĴĮ æĸ°
åŃ¦ èĢħ
çĶµ ç½ĳ
è½¬ è´¦
èµ¢ å¾Ĺ
åľ¨ èģĮ
æ³ ¡
éģ Ĥ
æ°´ æŀľ
æĶ» åħ³
ï¼ į
å½ķ åıĸ
åĿĩ ä¸º
åīį æ²¿
åķĨ æĪ·
ç¨İ è´¹
å®ĺ åħµ
æ²ī æµ¸
æĴ ŀ
åĻ¨ æĿĲ
åĤ ħ
å® ´
æ² §
ä¸Ĭ æĿ¥
ä¸ĭ äºĨ
ä¼ĳ æģ¯
æĦ Ī
å®¤ åĨħ
åįĥ ä¸ĩ
æłĩ æĿĨ
è¥ Ħ
è¯Ħ è®®
å¿« ä¹Ĳ
Ġ éĻĪ
æľī ä¸Ģ
ç±» ä¼¼
è¾ĥ ä¸º
éĢīæĭ Ķ
ä»Ķ ç»Ĩ
åĳĺ çļĦ
èĮ ħ
çħ¤ çĤŃ
éĹ ½
åĲĪ ä¸Ģ
éĽ ¾
åħ¶ å®ŀ
ä¸ĵ äºº
é¼ İ
ç»Ī æŃ¢
éĤ® ä»¶
çİī æŀĹ
in a
e n
åıĮ åĲĳ
é«ĺ åľ°
éĹŃ çİ¯
åĿ ¤
ç®¡ æĬ¤
åħ¥ åºĵ
åĨľ åľº
çľ ī
èĤ² äºº
çłĶ åŃ¦
å±± åİ¿
ç§¯ ç´¯
è± «
åĨį çĶŁ
è´§ è½¦
åįģ å¤§
c g
çİ »
ä¸į å¼Ģ
è¿Ļ ä¹Ī
Ġ ç¬¬
æĸ° è´¨
åĪ° åºķ
åīį è¡Į
è¡¨ çļĦ
åŁ ĥ
åĩł ä¸ª
ç¼ Ĩ
å¸¸ è§ģ
åıĺ åĬ¨
ç¬Ķ å½ķ
èĸĦ å¼±
è®¡ éĩı
åĽĽ å¤§
çŁ «
çĪĨ ç«¹
ä» ¿
å»¶ ç»Ń
è¿Ķ è¿ĺ
è®° å¿Ĩ
èµ· èįī
ç´§ è¿«
ç¿ ł
èª ĵ
æłĩ é¢ĺ
è®º è¯ģ
ï ¿
å®¶ é£İ
éĹ¨ åºĹ
åĽ½ åºĨ
ç¨ Ģ
çĦ¶ åĲİ
é£ŀ æľº
ï¿ ¥
åķĨ æłĩ
é¦ ¨
è¥¿ åĮĹ
æī¿ æİ¥
åĿĩ è¡¡
æĵ İ
çĨŁ æĤī
å¼º åº¦
èĩª æĦ¿
å¤Ħ å¤Ħ
å°± ä¼ļ
åıĹ ä¼¤
è´¹ çŃī
è¿Ĳ ä½ľ
å¼Ģ åŃ¦
çĶ¨ å¿ĥ
å§ Ĩ
çĽ¸ ä¿¡
ä¸¥ å³»
è§ģ éĿ¢
éĶĻ è¯¯
æı ½
æŁ¥ æĺİ
ä¸ĭ æ²ī
åıį è¯Ī
ï¼Ł âĢĿ
çĴ ĥ
æŁ¥ éĺħ
æī¬ å·ŀ
è¡Į é©¶
å½ ¬
æ´ ½
æľ¬ é¢Ĩ
è¯Ħ å®ļ
ä¸¤ ä¼ļ
æį® æĤī
åįĹ æµ·
çģ °
è§ģ æķĪ
å¯Ł çľĭ
åľ° éĿ¢
æĿĥ å¨ģ
æ¬¾ é¡¹
è¡Ĺ åĮº
äºº é¡»
è¾ Ł
äºļ æ´²
åħĭ æľį
åĩł å¹´
ä¸Ģ ä»¶
æŃ£ å½ĵ
çĩĥ æĸĻ
åĺī å®¾
å±Ģ çŃī
åĨľ çī§
èĩ³ ä¸Ĭ
ä¹° åįĸ
d it
äºº ä¸İ
æ¶ Ŀ
éĵ Ŀ
è¯Ħ è®º
è°± åĨĻ
å° ¿
èµĦ è®¯
å¤ļ å½©
åı¯ éĿł
æ¸Ķ ä¸ļ
ãĢ ī
äºº åºĶ
ä¸Ģ ä¸ĭ
ä¸Ń ä»ĭ
é©³ åĽŀ
éĹ¨ æĪ·
æĪ¿ äº§
æ½ į
c re
è¡¨ æĺİ
çĶ° éĹ´
åįķ ä¸Ģ
å µ
æ¯Ķ éĩį
çĦ Ĭ
èµĽ éģĵ
è¡ ·
å¤® å¹¿
é¹ ¿
åľ¨ è¿Ļ
æ³ķ åĽ½
è½ ´
ä¸ª åĪ«
èĩª è´¸
æĿĳ éĩĮ
å·¥ åĮł
çİ Ľ
çĶ¨ çļĦ
æıĲ åıĸ
èĥ ¸
æĥħ ç»ª
å¯» æī¾
èĩª æľ¬
æĦı æĦ¿
çº¢ çº¿
çĪ± å¥½
cre dit
æĹ¥ åŃĲ
ä¸ľ è¥¿
é¦ĸ å¸Ń
éģ ´
èµĭ äºĪ
éĩį å¤į
åĽ¾ ä¸º
æĲ ı
çĮ® è¡Ģ
å· ¾
æľĪ çļĦ
è§Ĥ æĳ©
18 0
å¹´ ä»£
éĽ ķ
æľĢ ä½³
è¯Ħ ä¸º
ç´§ å¼ł
æĸ¯ åĿ¦
åĢŁ éī´
çºµ æ·±
éģ´ éĢī
å®ī åĮº
å§ ļ
è¿ĺ åľ¨
ç¨İ æ¬¾
é¦ĸ å±Ĭ
åĭĩ äºİ
ä¸Ģ æ®µ
èĴ ĭ
çħ Į
æī ĳ
åľ¨ å®¶
éĹ® è´£
.. ..
å¿ ½
æĹ¶ å°ļ
æ°ĳ ä¿Ĺ
èĭ ¹
çħ¤ çŁ¿
ma il
äºº éĺ²
éĥ½ èĥ½
Ġ ãĢĲ
åīį æĻ¯
äºĶ ä¸Ģ
è°Ī è¯Ŀ
æĳ¸ æİĴ
åĲĳ å¥½
é£Ł çī©
æĿĳ åħļ
èĢĮ è¨Ģ
éĢı æĺİ
çŃĽ æŁ¥
Ġ åħĥ
åĲĦ æĹı
æĸ½ çŃĸ
åīį è¿Ľ
æĽ ¼
è½¬ æį¢
åĲĮ å¿ĥ
åºĶ èģĺ
å®Į å·¥
æ¹ĸ åĮº
ç¿ ¼
Ġ çľģ
çĶŁ æĪĲ
ä¸ĩ æĪ·
æĿĥ çļĦ
æŁ ´
çĶŁ çļĦ
æ¬ º
æķ¢ äºİ
åĴ ĸ
åľ¨ å¸Ĥ
æµ ħ
â ħ
ä¸Ģ çĤ¹
æľ¬ ç§ĳ
æĿĥ éĻĲ
è¿ĺ æ¬¾
åħħ è¶³
çķľ çī§
ä¹¦ æ³ķ
å¹¶ åĲĳ
å¤ĸ äº¤
æĮ º
20 10
å¯¹ åı£
æĿ¡ çļĦ
åı° é£İ
åįł åľ°
e mail
éľ į
å°± è¿ĳ
åı· æ¥¼
ä¸ľ éĥ¨
å®Ī æ³ķ
åħ ½
è§Ħ æł¼
ç«ĭ ä½ĵ
ç½ĳ åĿĢ
èħ ¿
èĤ ¿
æĪĳ åİ¿
éĩĩ æł·
åı· åı¬
å¦¥ åĸĦ
å¤§ è¿ŀ
åħļ è¯¾
æīĵ çł´
è®© äºº
å±Ĥ å±Ĥ
å¿ħ éľĢ
Ġ ç»ı
çĿ ¡
æ· ¡
ä¸ľ çĽŁ
éŀ į
åħ¨ åĳĺ
éĿ¢ çļĦ
æ°´ åľŁ
åķĨ å®¶
åĪ¶ æŃ¢
æĥħ æĦŁ
åīį åĪĹ
æī¹ åıĳ
ch ina
Ġ ä¹Ŀ
æī¿ è½½
åıĮ æĭ¥
ä¸ļ çļĦ
æ² ĥ
åĽŀ å®¶
Ġ1 3
é¢ ĸ
åı¸ æľº
åįķ çĭ¬
å½ĵ å¥½
èĢĮ ä¸į
æ°ĳ ä¼Ĺ
åĪ° çļĦ
å¾Ī å¤§
å®Ŀ è´µ
çĶŁ éķ¿
çĤ ¸
ä¸ī æ¬¡
åŁº æķ°
æŁ¥ éªĮ
ç§¯ åĪĨ
ç¾İ çļĦ
éĥ½ åľ¨
ç»¿ æ°´
åŁİ åİ¿
åĮĹ åĮº
æ±Ł åİ¿
èĭ¹ æŀľ
Ġ è®¸
è¾ £
æķ´ æ´ģ
åıĹ çģ¾
çĥŃ çĤ¹
æĹ¢ æľī
ä¸ ĺ
èĥ ģ
æľŁ æ»¡
æİ¨ éĢģ
èĦ ı
åĳ½ è¿Ĳ
å°½ ç®¡
åº¦ åĴĮ
åĸ Ģ
åħį çĸ«
éļ §
çº¢ æĹĹ
13 4
èĬľ æ¹ĸ
åĮĸ åĴĮ
å¤ļ äºĳ
ç½ĳ çĤ¹
èį ¡
è¢ Ń
èŀ º
åŃĹ åı·
å±¥ çº¦
èĩ Ń
å®¶ åºĦ
çĤ¹ ä½į
æĬ¥ è¡¨
èĪ ±
æ°¸ è¿ľ
å Ĺ
ãĢ Ī
åĪ° æĿ¥
éĩı çļĦ
æłı çĽ®
éĽ ģ
ä¹Ł ä¼ļ
çĽ´ å±ŀ
éŀ ĭ
è¯ ±
æĸ° çĶŁ
ç¡¬ ä»¶
c o
éĥ¨ ä½į
åĤ¨ åŃĺ
å¹´ æľ«
æ¸ Ĺ
æ°´ æĸĩ
çľģ åĨħ
äº¤ çº³
åĲį ä¹ī
åįĹ éĥ¨
çľĭ æĿ¥
åĬ¨ ä½ľ
ä¸ĭ ä¸Ģ
çİ¯ åį«
åŀ «
çŃĶ è¾©
ç£ ģ
äºº èº«
ä¸Ģ æĹ¦
çİ» çĴĥ
åĴĮ å¸Ĥ
åĩ ¸
å¯¹ è¯Ŀ
èĤ ł
äº² å±ŀ
èĥĮ åĲİ
1 30
éĿ ĸ
æĸ¹ åı¯
éĶ Ĥ
Ġ åĲĦ
ä¸Ģ å¤©
é«ĺ åİĭ
å¼ķ æĵİ
æ³¨ æĺİ
éĤ® å¯Ħ
çļ ĸ
ä¸į åĲ«
åĩº èµĦ
éŁ© åĽ½
éĩĩ æĳĺ
æĽ´ ä¸º
ä¸į åľ¨
æĭ ¾
åıĺ æĪĲ
å¥ĸ è¡¥
å¥³ åŃĲ
çŃ¹ å¤ĩ
æ¯į äº²
4 000
æľī äºĽ
è¿ĩ ç¡¬
åķĨ åľĪ
åĭĺ å¯Ł
ä¸Ģ æĬĬ
æĻ Ĵ
åľ° åŁŁ
éĺ² å¾¡
æ±Ł éĹ¨
æī¿ ç§Ł
å½± è§Ĩ
) :
) ï¼Į
çĽ Ĵ
å¤ļ æİª
æĢ» åĢ¼
æĬĹ æĹ±
èļ Į
ï¼ ĭ
è®® äºĭ
èĲ½ ç»Ĩ
å¦ Ļ
å¤§ è¡Ĺ
å®ļ çļĦ
åľº çļĦ
åıĤ å±ķ
ä¸Ń æĸ¹
ï¼ī ï¼Ī
çŃī ä¸Ģ
ä»¬ åľ¨
åħļ æĢ§
åĳ¼ åĲ¸
æ¼ ³
ä¿Ŀ æ´ģ
æĬķ ä¿Ŀ
è®¤ çŁ¥
ä¹Ł åı¯
æľĢ å¤ļ
æĬ ĸ
æĸ° æĺ¥
ä¸į åıĺ
ç¾ ½
ä»£ æĶ¶
å¤ļ é¡¹
æĹł éľĢ
åıį å¤į
åı¤ åŁİ
é¥® é£Ł
èĢĲ å¿ĥ
Ġ 2019
ä¸Ń å±±
éĿŀ æ´²
æĥ ĳ
æķĻ æĿĲ
æ¤ ħ
é©¿ ç«Ļ
ä¸º æľŁ
éĩį çļĦ
åİŁ å®¡
çĥ ¤
å®ı è§Ĥ
æ°§ åĮĸ
å¸ Ĩ
éĵ Ń
ä¸º æŃ¤
åĲĦ åĽ½
åįĹ æĸ¹
éĨ ī
c cg
Ġ è¿Ļ
åĲ Ĳ
å¼ ¥
æĸ° é£İ
æŀ «
æ¯ı åĳ¨
æĻļ ä¸Ĭ
é¢ģ åıĳ
ccg p
è¾ ¨
ç¤¾ äº¤
æĸ½ è¡Į
æ²³ æµģ
ç©º è°ĥ
åĩł ä¹İ
å®Ĺ æĹ¨
7 00
åħ¥ åŃ¦
è¯ģ çļĦ
å¹¶ æĮī
æ¨¡ æĭŁ
æĢ¥ éļ¾
èı ²
äºº æĪĸ
å®ŀ æĪĺ
è¾ °
çī© çĲĨ
çĥŃ çĥĪ
ä¸į åĩº
ä¸ĭ åıĳ
åĲį çīĩ
ä½Ļ ä¸ª
éĢĢ åĩº
è¦ģ çĤ¹
å¹² èŃ¦
çĿĢ çľ¼
å¸ ľ
æĶ¿ å±Ģ
è·¯ åı£
åºı åı·
éĵ¾ æİ¥
å¯ ¸
çĶµ ç«Ļ
è·¯ ä¸Ĭ
å®Ī ä½ı
åĻª å£°
å¼Ģ åĬŀ
èĩª åĬ©
ä¹Ł ä¸º
åĦ¿ åŃĲ
ä¸į æĩĪ
çĽ¸ åĲĮ
æĦı åĳ³
æĬ¥ éĶĢ
ä»¤ äºº
åĵª éĩĮ
æ·· åĩĿ
è´ ¾
å¸ ħ
ä¸ľ é£İ
åĪĿ ä¸Ń
å¨ģ èĥģ
è£ħ é¥°
çĶ ¸
è´ ¿
å¼ ¦
å¤§ æ£ļ
æ±Ĥ èģĮ
çŁ¥ æĻĵ
ä½İ ä¿Ŀ
é¥ ¶
åºŁ å¼ĥ
åĴ ¸
é¢ Ī
å¹ħ åº¦
åī© ä½Ļ
ä½ĵ ä¼ļ
åı¯ è¡Į
å¾ģ åľ°
æī£ ç¼´
å°Ĩ åħ¶
å¾Ĺ åĪĨ
åĤ¨ èĥ½
æĽ¾ ç»ı
æĽ¿ ä»£
Ġ æĹ¥
èĤ Ŀ
éĿ¢ è²Į
äº ı
ä¿Ŀ åŃĺ
èĤ ĩ
å§ »
èĬ ½
æĦŁ åĪ°
åı¦ è¡Į
éģ ¥
æ´» è·ĥ
çķ ı
åŀ Ĥ
çĮ Ľ
åį° åĪ·
æ°ĳ å¿ĥ
ä¹ĭ å¹´
æŀĹ åľ°
ç»¿ åľ°
éĢģ åĪ°
çļĦ è¯Ŀ
åħ¨ éķĩ
åĬŀ åıĳ
åĽĽ çº§
è®¤ åĲĮ
å°½ éĩı
æµ· æ·Ģ
éĥ½ è¦ģ
çĻ½ å¤©
ç¦» å¼Ģ
æĥł åıĬ
åħļ æĹ¥
åħ± æ²»
é© °
åİĭ ç¼©
å¡ĳ æĸĻ
éĽĨ èµĦ
å¼Ģ åºŃ
åĩı åħį
åĺ ´
ä¸Ģ è¦ģ
åĲİ æľŁ
ç»ĵ å¯¹
å°± åľ¨
éĴ ©
èĵ ī
é«ĺ åİŁ
éķ¿ è¿ľ
ç»ĵ è®º
éª ¤
è´§ å¸ģ
æ³¢ åĬ¨
åĲİ æĿ¥
äºĮ è¦ģ
çĶµ èĦĳ
åĶ ¤
åİļ çļĦ
Ġ ãĢģ
æ± ²
éĢļ è½¦
ç«ĭ é¡¹
çī¹ æĸ°
åģľ äº§
æĥł ä¼ģ
æį¢ å±Ĭ
èĵ¬ åĭĥ
å± ł
çĽ¸ å½ĵ
éĢĤ æĹ¶
ç« Ł
çĥŁ åı°
æ´ª æ°´
è Ŀ
ä¸Ĭ ä¸Ģ
æŀģ ç«¯
åĩĢ åĮĸ
å´ Ķ
éĩį å»º
äºĭ è¿¹
è§Ħ çŁ©
Ġ ä¸į
åī ĸ
ä¸ī è¦ģ
éĻ¢ æīĢ
ä¾ĭ å¦Ĥ
å¤ı åŃ£
çº¸ è´¨
ä»¥ æ¡Ī
æĸĩ ä½ĵ
æľª è¢«
ä¸¥ éĺ²
åŃĺ åĤ¨
æ·· åĲĪ
G B
èĥ ĥ
ä»£ ä¼ļ
ä¸ĵ ç²¾
ç½ĳ çº¢
åĮ» åĬ¡
ä¸¤ åĲį
åĳ¨ åĽ´
å¼ĥ æĿĥ
Ġ ãĢĶ
æĸ ľ
äº¤ æīĢ
åĽ½ å¤ĸ
æıĲ éĹ®
ç®¡ çº¿
å¤į èĭı
åį± æľº
ä»ĵ åĤ¨
éļ§ éģĵ
æ³ķ å®ĺ
æ±Ł åįĹ
çıŃ åĪĹ
æ¼Ķ åĳĺ
è®¿ éĹ®
æ¡Ĥ æŀĹ
æµª è´¹
ä¸Ģ å¤Ħ
æĥ ľ
å¤ļ æĸ¹
æĢĿ æĶ¿
ä¼¤ å®³
çŁ« æŃ£
èĬ Ŀ
è¿ĺ èĥ½
åł °
å¾Ģ å¾Ģ
æ¦Ĥ å¿µ
èľ ľ
ä¼ļ å±ķ
ä¸ĵ åľº
é¦ĸ è¦ģ
æĺ¥ åŃ£
è¯ ĳ
éĥ ģ
æ°ĳ æĦı
ä¿¡ èªī
åĽŀ çŃĶ
èµ° æ·±
æħ¢ æĢ§
éĢ Ĩ
åıĳ èµ·
æĮ ¡
çĶµ æ°Ķ
ä¹¦ åĨĻ
æº ī
ç»¼ ä¸Ĭ
åĩı æİĴ
äºĨ å¯¹
ä¼ĺ å¼Ĥ
å¤ĩ æ³¨
Ġ1 9
åħŃ ä¸ª
å°Ŀ è¯ķ
ä¸Ģ çīĩ
å½ ¼
å¼º åĬ²
å°ĳ äºİ
èµ° å®ŀ
ç¼´ åŃĺ
èĪĴ éĢĤ
] ï¼Ľ
m m
Ġ å¤§
å¹´ åīį
æĢ§ åľ°
éĺŁ çļĦ
å±Ĭ æ»¡
çĺ ¤
_ _
å¤§ å¤§
æĶ¯ æı´
å¤© ä¸ĭ
åĽŀ é¡¾
å¼ł å®¶
æ°´ å¸Ĥ
æĹĹ å¸ľ
èĬ¯ çīĩ
ãĢĤ (
è¡Į ä½¿
æ°´ åŁŁ
æĮģ èĤ¡
åĲį çļĦ
éĶ ļ
ç¢ İ
æĦ¿ æĦı
ä¼ļ åķĨ
æıĲ è¯·
äºĮ æīĭ
å¸¸ è§Ħ
å®¶ çĶµ
å¹³ æĸ¹
åħ¥ åı£
åĨľ èį¯
æĢ» è®¡
éļ¾ åº¦
æĻ¯ çĤ¹
Ġ1 6
ç¥¨ æį®
çģĮ æºī
æ³ķ åºŃ
åĪĨ åĮº
èĢħ åľ¨
é£İ æł¼
çİĩ ä¸º
æĬ½ æ£Ģ
ä¹ĺ å®¢
æ¸¸ æ³³
åĳ¨ å²ģ
ç»Ŀ å¯¹
åİķ æīĢ
å¸ ½
æŀ £
å¼º å¸Ĥ
ä¹ĺ åĿĲ
å¼Ģ è¾Ł
å®ľ å®¾
è¯ µ
å¹¶ ä¸İ
å¹¿ éĺĶ
å¤į åĲĪ
æµĭ éĩı
åĽŀ åĪ°
æ¿Ģ æ´»
åħµ åĽ¢
æ½į åĿĬ
æĿĳ éķĩ
ä¾Ŀ éĿł
Ġ æĹł
åħ Ĩ
ä¹ĭ ä¸Ń
æĥ³ åĪ°
æĪª åĽ¾
ç£ Ĭ
äº® çĽ¸
æ³ µ
èĤ ¤
åĪ° åºŃ
èĩª è¯Ħ
æº º
æł· æĿ¿
è§Ĵ èī²
å¤ª å¹³
é½Ĳ åħ¨
Ġ è¦ģ
æĹ¶ æķĪ
éĩĳ åįİ
åĬ© äºİ
åĩ¸ æĺ¾
åİ ĺ
è®² å¥½
éĻ¶ çĵ·
å½ ¦
åįĹ éĢļ
å®ĥ ä»¬
+ âĢĿ
éĢ ¢
æ°´ æ³¥
åĲĦ å¸Ĥ
èĢħ ä»¬
ç»Ī äºİ
æĭ ©
å®ļ åĲĳ
æ¬ ²
åĲĦ æĿĳ
ä¸ī åĨľ
åĲį ä¸º
æĦı å¤ĸ
è½¬ è¿Ĳ
åĽŀ å¤´
æµ· ä¸Ĭ
åįĹ å®ģ
æľª åľ¨
çķľ ç¦½
åĮ¹ éħį
æľī æľĽ
å¤§ æī¹
å¯¹ æľ¬
å±Ģ çļĦ
ç«ĭ åľº
å¢ŀ éĩı
æŀĦ çŃĳ
çŁ³ åĮĸ
ç«¯ åįĪ
æĬĹ çĸ«
åłµ çĤ¹
A çº§
å®ŀ çĶ¨
ä¸¤ å§Ķ
å¡ĳ éĢł
å¤§ äºĭ
æĪĸ ä¸į
æ»¨ æµ·
å©ļ å§»
æ±² åıĸ
è¯ģ çħ§
äºĶ æĺ¯
éĤ µ
è§Ĩ éĩİ
å®³ äºº
çļĦ éĩį
ä¸Ģ å¯¹
çĽĳ æĬ¤
æīĢ éķ¿
å¥ĭ åıĳ
åĨ· éĵ¾
çĸı æķ£
å¼Ģ æĶ¯
ä¿Ŀ ä¾Ľ
ä¹ĭ å®¶
æµģ è¡Į
åı· çłģ
ä¸Ģ æĸ¹
åĪĨ åĮħ
æĿ¥ äºĨ
åĨľ èµĦ
åįģ åŃĹ
åħ« é¡¹
æĴŃ æĶ¾
åģľ ä¸ļ
ä¹ Ķ
ä¸Ģ å¹¶
åħ³ éĹŃ
åħ¶ ä½Ļ
ä¹ĥ èĩ³
åı Ļ
ä¸Ń ç§ĭ
éĹ´ çļĦ
æ£ Ĵ
æŀĹ èįī
æĺİ çĻ½
å¹² é¢Ħ
ä»½ é¢Ŀ
èĪª çº¿
éĻĦ åĬł
ä¸Ģ æĶ¯
æĶ¾ ç®¡
éŁ §
èĪª çıŃ
è¿Ķ ä¹¡
ä¸Ģ äºº
æģ °
åİŁ æĿ¥
è¾¹ å¢ĥ
åŃ¦ åīį
åķ ¡
é£İ éĩĩ
çĶ± æŃ¤
è£ħ ç®±
äºĴ è¡¥
åĽ° å¢ĥ
å½ĵ ä»£
è½¦ éģĵ
éģĹ æ¼ı
è¯ ŀ
çº ¤
éĹ ¯
è¯ģ å®ŀ
å½ĵ åľº
åĲĳ ä¸Ĭ
åĩĨ åŃĹ
çĸ¾ æİ§
è¡Ģ ç®¡
èĸ ¯
äºĨ ä»¥
æķĻ ç»ĥ
æĬķ èº«
èĳ Ľ
æļĤ æĹ¶
] ï¼Į
åĬŀ ç¨İ
ä¾µ å®³
æ¯« ç±³
åıĳ æİĺ
æĢ» æĶ¯
æ²Ī éĺ³
ä» Ĺ
æķ ¦
åľ¨ æľ¬
æİ¥ åħ¥
ç®Ģ è¦ģ
èĽĭ çĻ½
æĭ¼ æĲı
çº ¹
åı¤ æłĳ
ç§» æ°ĳ
æĸ ĳ
ä½ľ èĢħ
è¡¨ æī¬
éĽĨ çº¦
éĻĲ äºİ
ä½¿ å¾Ĺ
å¨ Ł
äº² åĪĩ
è¡ į
åĮĸ å¦Ĩ
åĪĨ ç¦»
æ°´ äº§
æ¬¢ ä¹Ĳ
å¯¹ æ¯Ķ
å¹³ çŃī
ç¡ ħ
æĶ¾ æĿ¾
å¿ħ çĦ¶
æºº æ°´
æĭ ĺ
èĲ Į
å±Ģ éĥ¨
åŃĹ è½¨
çºł æŃ£
ï¼ ĳ
åĨ Ī
æĪĳ ä¸º
ä»£ åĬŀ
ç²® æ²¹
æĪı æĽ²
å¦Ī å¦Ī
åĬł ä¸Ĭ
æľĪ é¥¼
åķĨ çļĦ
éĻį æ°´
åį ¸
ä¸į ä¹ħ
çĤ¹ åĴĮ
åŁº åĩĨ
åķĨ åľº
å¤ĸ éĥ¨
Ġ1 7
ç»Ĩ èĬĤ
æĭī å¼Ģ
éĢ» è¾ĳ
å±ķ åĮº
éķĩ è¡Ĺ
å¤į å®¡
å¤į æł¸
æĹĹ ä¸ĭ
ç¼© çŁŃ
åĴĸ åķ¡
é£ ĺ
å¹¶ å°±
å¹¶ éĿŀ
çī© çļĦ
ä¸ľ è·¯
æµĭ è¯Ħ
æ¯ı æ¬¡
ç»´ åº¦
åį° è±¡
éĢĢ è¿ĺ
åľ¨ å¤§
ç¥ŀ ç»ı
çºº ç»ĩ
çļĦ åı¯
çĶ¨ èį¯
åĪĨ æķ£
çľģ éķ¿
å¯Ĩ çłģ
è½½ æĺİ
ä¾ ¯
åĬł åĽº
ç² ª
åĽŀ æĬ¥
æĺ¥ è¿Ĳ
æ²¿ æµ·
C E
ä¸Ģ éģĵ
çº§ åĪ«
åĩĨ åĪĻ
èĻ ¾
è·Ł è¿Ľ
ä½© æĪ´
ä¸º æľ¬
å»º æĪ¿
å®¶ åħ·
äºĭ åħ³
ä»£ æī£
é¢Ħ çķĻ
æł¡ å¤ĸ
è¾ĥ é«ĺ
åıĭ è°Ĭ
ç§ĺ å¯Ĩ
è´Ŀ å°Ķ
çŃī æĸ°
ä¸¤ æ¬¡
çĥŃ çĪ±
å®ģ åİ¿
æ¸© é¦¨
å¥¹ çļĦ
èľ Ĥ
æķ° ä¸º
å¸ĥ ç½®
å¤´ éĥ¨
å·¡ éĢ»
é¥® æ°´
æĭĸ æ¬ł
è¯¸ å¤ļ
çº² è¦ģ
åĬ¡ å¿ħ
åĪ¶ çº¦
å½ĵ ä¸ĭ
è¿ŀ å¸¦
æĭ¨ æīĵ
å®ĺ ç½ĳ
å°ģ éĹŃ
å¸ Ŀ
ä¸Ģ åº§
åıĳ çĥŃ
åı¯ è§ģ
çĶµ è´¹
éĢł ä»·
åĮ» æĬ¤
çī¹ åĽ°
å·² åľ¨
æĳ¸ æ¸ħ
æ Ĩ
åĮº åİ¿
èĬ ¬
èĢĥ çĤ¹
èİ ī
éªĮ è¯ģ
æ¸¯ å¸Ĥ
æŃ¦ åĻ¨
çĸĳ éĹ®
è¯¯ å¯¼
é ³
åĵ ²
äº¤ å¾Ģ
æĶ¶ æĤī
è¥¿ æĸ¹
æĦŁ çŁ¥
äº² åŃĲ
é¥² æĸĻ
è®¾ å®ļ
ä¸ĵ æĪ·
çĪ ¸
æķ Į
éĩĳ çļĦ
åı· çº¿
ä¹Ł èĥ½
éĤ ±
å½© ç¥¨
åĩĿ å¿ĥ
èµ «
çº ¾
ä»¥ é«ĺ
æ´ Ĵ
åľº æ¬¡
åįİ ä¸º
æ¢ ¨
200 8
200 9
ä¸ §
æľ ´
å¼ ¯
åĲĪ å¹¶
èĥ Ģ
äºİ æĺ¯
æł¡ åĮº
è®© æĪĳ
è¯¥ åİ¿
é¦ĸ ä½į
åİħ éķ¿
è·¨ çľģ
æľĿ éĺ³
æıŃ çīĮ
é¢Ĺ ç²Ĵ
6 000
c m
çļĦ èĢģ
ä¼ļ çŃī
ä¸ĭ åİ»
ç¡® å®ŀ
åºŃ å®¡
æĦģ çĽ¼
Ġ é«ĺ
å®ī åİ¿
èİ· è¯Ħ
å¼ł è´´
ä¸Ń åĴĮ
ç® Ń
å®¶ æĶ¿
åħ¥ åħļ
æ°¸ ä¹ħ
åĨ² çªģ
è Ł
æ± °
ä¸Ĭ æľī
è§Ħ ä¸Ĭ
åįķ ä»·
æĺİ å¹´
æĹł åģ¿
è´¢ å¯Į
çº¦ è°Ī
èľ Ģ
è´¨ æĬ¼
ç¥ ī
æĢ» éĺŁ
äº« æľī
éŁ ¶
æ´½ è°Ī
ï¼ Ĵ
å¼Ģ éĩĩ
æ· Ħ
çĲĥ åĳĺ
åį° ç«ł
åħĭ éļ¾
å¨ ĺ
äº§ åŃ¦
å®¶ éĩĮ
èī ĺ
æ¯Ķ äºļ
æ¸© æ³ī
æĥ© æĪĴ
é«ĺ åħ´
åĪĨ è§£
éĩı åĮĸ
åĮº ç®¡
äºĭ åĲİ
è¿Ĳ ç»´
æĭī åĬ¨
åįĥ çĵ¦
æĺŁ çº§
èĴ ¸
æļĸ å¿ĥ
åħ³ åĪĩ
åĨľ è´¸
æ¸ħ åįİ
èħ °
è£ģ åĪ¤
ã İ
Ġ /
å»º æ¡£
æĽ Ŀ
å·ŀ å§Ķ
åŀ ¦
åıĺ å¾Ĺ
çķĻ å®Ī
ï¼ Ĳ
äºº éĢī
å¼Ģ å±Ģ
ä½į å±ħ
, ãĢĬ
åħ¬ åĬŀ
ä¸Ĭ æ¸¸
å®ļ ä»·
åĽŀ éģ¿
å¹´ çº§
åħļ ç¾¤
ä¸ĩ å®¶
ç¼ ®
çª ĳ
ç¦ı ç¥ī
èĵĿ åĽ¾
æĭ¿ åĩº
æ·» åĬł
æĪĲ åĵģ
ç½ Ĳ
å¢ ©
å°ı çļĦ
èī² çļĦ
è¯Ħ åĪĨ
è®º æĸĩ
æĹ¢ æĺ¯
æıı è¿°
â Ī
æł ĸ
ç½ ķ
é¢Ħ å®¡
ç§° ä¸º
çĻ¾ éĽ¶
âī ¥
Ġ æĿ¨
ä¸Ģ å¥Ĺ
èģĶ éĺ²
é¢Ĩ æĤŁ
åĪ© å®³
æīĢ è°ĵ
èİ· æī¹
çĬ ¬
å¾Ī å¿«
åªĴ ä»ĭ
è£ģ åĨ³
æİ Ģ
åħ¬ ç«ĭ
æĹ¥ æĿ¥
åĳ¨ æľ«
100 00
ç®Ģ åĮĸ
æ´¾ é©»
æĳĨ åľ¨
ä¸ Ļ
å® °
åĽ Ĭ
å°Ĩ ä¸º
åįĹ è·¯
ä¿® ç¼®
åĶ® åĲİ
é¤Ĳ åİħ
æµ¦ ä¸ľ
èī° èĭ¦
å¹³ æĹ¶
çĽ¸ ç»§
é¢Ĩ åĨĽ
ç¦ı å·ŀ
çĳ ¶
äºº çŃī
æľº çĶµ
å¦Ĥ å®ŀ
ä¸¤ ç§į
æ¨¡ åĿĹ
çŁŃ ä¿¡
åĨ² åĩ»
æ¾³ éĹ¨
co m
æĶ¹ å»º
ä¸¤ å¤§
è§Ĩ è§ī
æ¼Ķ è®²
å¨ ĥ
æ±Ľ æľŁ
çļĦ æĢ»
æıĲ æĮ¯
å¤ļ äºº
æ¸ħ æ´Ĺ
æĹħ è´¹
å¯Ĩ åº¦
åĲĮ è¡Į
ä¸ĭ å±ŀ
åĲİ åĭ¤
æŀģ å¤§
çŃĶ çĸĳ
åĪļ åĪļ
ä¸Ģ å¾ĭ
å®¶ å±ħ
éĺ² æ´ª
åŁİ å»º
æ¢ §
çºª å½ķ
é¼ »
åĲ¸ çº³
åĨł çĬ¶
éĺ¿ æĭī
å¹ ¢
å¤ļ å°ĳ
å°± æľī
æ¸ħ éĨĴ
æķ¬ èĢģ
äºº è¡Į
ä¸Ģ åı·
å¹´ èĩ³
åľ° ä¸Ĭ
åĲĦ å¤§
æĺİ ç»Ĩ
å¤į åĪ¶
æ¸ħ æĺİ
æłĳ çī¢
åĲ« éĩı
è¿½ æº¯
åŃ¦ æľŁ
äºİ æľ¬
ç³ ķ
æķĻ çłĶ
ä¾Ľ è´§
è°ĥ æİ§
é©¬ æĭī
æ®ĭ èģĶ
åĲ¸ æĶ¶
æļĤ åģľ
åħĳ çİ°
Ġ A
åıĳ æĺİ
èģĶ éĢļ
åįĹ åİ¿
çĥ ¯
åĪ¤ ä»¤
å»º è¨Ģ
è¦ģ æľī
ä»¥ æŃ¤
æľŁ æĿĥ
åħ¶ æ¬¡
æ» ĩ
éĤ ¹
åĩŃ åĢŁ
åħ¬ è¯ģ
å±Ģ åľ¨
å¾Ĺ çĽĬ
å±± éķĩ
ä¾Ŀ æ¬¡
æ¯Ĵ åĵģ
éĴ¢ éĵģ
åħ ľ
å¸Ĥ çļĦ
çŃī å¾ħ
æķĻ è®Ń
åĽŀ å½Ĵ
çĻ» éĻĨ
çŀ »
é¸ Ń
æ¦ľ æł·
å¸Ĥ å®¹
éĻ Ģ
è° Ń
ä¿¡ ä»°
çł º
æĢ» çĲĨ
è¿Ļ åľº
é¡¾ å®¢
æľī å®³
åĩº åĬ¨
åĬł å¯Ĩ
éĩĮ ç¨ĭ
åĪĿ å®¡
æĲľ ç´¢
åıĳ è¾¾
ä¸º åħ¶
é¢ ĩ
æ³ķ çļĦ
åĨľ å®¶
ä¹ĭ åŁİ
æŃ£ çļĦ
æ¯ı äºº
G D
Ġ åįģ
å¹´ éĻĲ
çĲ ³
å¼Ģ å¿ĥ
å¼º çĥĪ
åħ± éĿĴ
æŃ¥ éª¤
éĤ ¢
åºķ èķ´
Ġ æ³¨
æ¸ £
æ¬¾ çļĦ
èģĺ è¯·
æĭĨ è¿ģ
é¡µ éĿ¢
ç» ¸
å¹ »
æıĲ åĪ°
æľ¬ è´¨
æ°´ ä½ĵ
äº¤ æį¢
å°ı é¢Ŀ
ä¾Ľ åħ»
è°ĥ èĬĤ
è§£ å¯Ĩ
ä¼ł åªĴ
æ® ¡
éĴ ¦
åĨĽ æ°ĳ
åĭ ī
çļĦ æĹł
åİŁ åĪĽ
æ» ¥
æ¼ ł
æįŁ åĿı
èļĮ åŁł
æľ µ
å¤§ å¸Ī
ä¼ļ åĴĮ
çħ§ é¡¾
éĶĢ éĩı
ä½Ĩ ä¸į
ç °
ä¸ļ åĨħ
çī© ç§į
å¦ ¹
å¦Ĥ æľŁ
è¾ĥ å¥½
ç¼ĸ çłģ
æīİ æł¹
éĨ ĩ
éĵ¸ çī¢
123 45
æķ ²
åĲĮ äºĭ
èī ĩ
çĥ ¦
é¼ĵ èĪŀ
æ© Ļ
E D
åĽ½ éģĵ
éĢļ åĳĬ
å¥½ è¯Ħ
æŁ¥ æī¾
åĽĽ æ¬¡
æ»¡ çļĦ
ç¢ Į
èĸ Ľ
æĬ ĳ
éĻ ĩ
å¹´ äº§
çī ²
æĺ¯ æľĢ
åĪĨ çº¢
éĺ² ç©º
æ¶¨ å¹ħ
æĬĸ éŁ³
å¿ į
æµ ı
é£İ åħī
æ·ĺ æ±°
Ġ åĽł
åľ¨ åħ¨
æµ Ĩ
æ¶ ¯
ä¸ĵ åĮº
æ£Ģ çĸ«
å¤© åĨħ
æķĳ æĬ¤
å© ·
åĩī å±±
æĬ ¬
å®ī å±ħ
å¾Ĺ çŁ¥
10 2
æ°Ķ æ°Ľ
åĽŀ åįĩ
Ġ1 00
åħį ç¨İ
ç» ĳ
åĮº ä½į
èĲ¥ è¿Ĳ
èĭ į
è¶ħ çº§
åħī æĺİ
åħĭ åħ°
åįĥ å¹´
Ġ é»Ħ
å®ŀ åĲį
åĩº éĻ¢
èĥ İ
å°± è¯Ĭ
åıĸ æļĸ
è§Ĥ åħī
æ¿Ģ æĥħ
éĤ£ äºĽ
o r
p p
æľ¬ å¹´
ï¼Ľ âĢľ
æį ŀ
å¢ŀ è®¾
æİ¥ è¿ĳ
ä¸ľ åĮº
çĶ³ é¢Ĩ
å¤§ çĲĨ
å¯¹ æĸ°
ä¸» æµģ
å§ ĳ
å¹³ å¸Ĥ
æ°´ ä¸Ĭ
ãĢĭ ï¼Ľ
å¾® åŀĭ
æ²» åĽ½
æ±Ĥ æĺ¯
è¿Ļ é¡¹
è¶³ é¢Ŀ
Ġ9 134
éģŃ åıĹ
çĤ Ĵ
èģĮ æĿĥ
èĤ¡ æľ¬
åľ¨ æł¡
é¡ ½
è¿Ľ åıĸ
è¡¨ éĿ¢
åĮĹ è·¯
æ´¥ è´´
è¡Ģ æ¶²
å¹´ èµ·
å±ķ ä¼ļ
æŀ ļ
è¡¨ çİĩ
æī§ åĭ¤
èĤ¿ çĺ¤
Ġ S
æµ ĩ
ä¸ī é¡¹
å£ ¹
åħ» æĪĲ
åŃ£ èĬĤ
å°¼ äºļ
æļĳ æľŁ
g t
ä¸Ģ ä»£
ä¸Ģ ç½ĳ
ä¸Ń åİŁ
å»º æĿĲ
ä¸į åĪ©
ç¬ ¼
ä¸ĭ æ¸¸
èĢĥ éªĮ
çª ĥ
åĪĹ ä¸º
å½ķ åħ¥
æķħ éļľ
åīĸ æŀĲ
æ·± èĢķ
åįĹ åĮº
è´¢ ç»ı
äºī åħĪ
æĭī èĲ¨
ä»¤ ç¬¬
æĹ¢ è¦ģ
å±ı éļľ
P C
éĩį ç»Ħ
æ·± åıĹ
è¶ħ è¶Ĭ
å¾· å¸Ĥ
è¯¢ ä»·
æ¾ ľ
æĽĿ åħī
åľ° åĽ¾
å¼Ģ éĹ¨
å®ī å¿ĥ
éĩĩ äºĳ
å¹¶ æľª
è½¦ åŀĭ
è¿ĺ ä¼ļ
è®² åłĤ
å°Ķ å¤ļ
æĺ Ĭ
æĺ Ń
å¹´ ä¸Ĭ
å»º åħļ
ä¿Ŀ é©¾
ä¿¡ ä»»
åĽŀ è®¿
åĩ¡ å¯¹
Ġ æľī
ä¸Ģ åŃĹ
ï¼ī âĢľ
æıĲ éĢŁ
ä¸ª æĿĳ
åĬ© çĲĨ
æīĭ å·¥
æ¤į æłĳ
ç» ³
ä¸º ä¾ĭ
å¢ŀ æ·»
çī¹ å¤§
è®¤ è´Ń
æ¸ħ éĽ¶
æĦŁ æĤŁ
æĪĺ çº¿
åŃĺ æĶ¾
å¡ Į
ç§ĳ éĻ¢
å¤ĸ åľ°
è§Ĥ çĤ¹
èµ° åľ¨
æī¬ å°ĺ
éģŃ éģĩ
çĽ Ĩ
éķ¿ å®ī
äº¤ åĬŀ
ç² Ĺ
å®ŀ ä¸ļ
çŃī çļĦ
æľĪ åĪĿ
éĶ ¤
èŃ¦ åĬ¡
æ¼ Ĩ
äºĴ åĬ©
ä¸´ æ²Ĥ
200 7
ä½ĵ æ¸©
æľŁ ä¸º
ä¸ĵ æłı
è¥¿ è·¯
æ§ ½
ä¸į äºĨ
å®ī åº·
å¥½ äºº
ä¼¤ æ®ĭ
å¾Ĵ åĪĳ
ä¿Ŀ æ¸©
èģ Ĩ
æĸ¹ çļĦ
è¿ĩ çļĦ
å°± è¦ģ
ä¸¤ ä½į
äº¬ ä¸ľ
æ¦ Ĩ
éģ¿ éĻ©
åħ¨ æĸ°
å®ŀ çī©
åĽ½ äº§
çĶŁ æľº
å¼Ģ åħ·
æĭ Į
ä¾Ľ éľĢ
åĩı ç¨İ
éŁ ¦
å¥³ åĦ¿
ä¿ ±
å¤§ åħ´
éĺ ģ
äºĮ ç»´
èĬ ¦
çĹħ èĻ«
éĢģ ä¸Ĭ
åħŃ å¤§
çĭ ®
è°¢ è°¢
8 000
å¹´ åĿĩ
çİ° è¡Į
å¿ĥ éĩĮ
éĩĳ ç¨İ
æĺİ äºĨ
æ°Ķ ä½ĵ
å¾Ģ æĿ¥
ç¼º éĻ·
æĤ¬ æĮĤ
çļĦ å¤ļ
åĸĦ äºİ
æ¶ī ä¼ģ
ä½Ľ å±±
Ġ æĪĳ
åĲ ģ
æľī ä¸º
å·Ŀ åĮº
æ¬§ çĽŁ
çĽĪ åĪ©
3 50
æ°´ çļĦ
æŁ¥ å°ģ
ç§ĳ éķ¿
è¿Ļ åº§
é¹ ħ
æļ´ åĬĽ
å¯» æ±Ĥ
çļ Ĩ
å¸Ĥ å±Ģ
éĥ Ĭ
èĤ Į
æ¸ Ń
å°Ĩ è¢«
å±Ĥ çº§
èĢĥ è¯ģ
æł¹ åŁº
æµ¦ åĮº
Ġ ä¹ł
äºº åı¯
ä¸Ń éĺŁ
å¼º çľģ
ç»ĵ æł¸
ç© ·
åįĹ æĺĮ
éĵ¶ å±±
ä½İ æ¸©
ç»Ī èº«
200 6
çŃĽ éĢī
a r
çļĦ æľī
çļĦ åĨħ
å¯¼ èĪª
æµĭ ç®Ĺ
æĹ© æĹ¥
é¹ °
å®¿ èĪį
çĹĽ çĤ¹
åį ī
éĿ ¶
éĢļ å¸¸
åº¦ çļĦ
ä»ĸ åľ¨
åĮħ å®¹
è¯» èĢħ
éĢı éľ²
å¼± é¡¹
å±ł å®°
Ġ C
äºº ä¸į
ä¸º æĸ°
èĥ½ èĢĹ
æľ¬ èº«
è§Ħ ç¨ĭ
æĿ¡ ä¹ĭ
ä¹ĭ æĹħ
çĥ Ĥ
èİ Ĩ
é©¬ éŀį
æ¿Ģ åĬ¨
è¿ Ń
çĶŁ åŃĺ
ä¸ĭ è·Į
ä¸ľ èĲ¥
åįİ ä¾¨
æŀĹ åľº
çĥŃ éĹ¹
å± Ī
æĹ¶ æĬ¥
æĹ¥ åİĨ
ä»» æĦı
ä¸ĩ è¾Ĩ
è´¹ çļĦ
ä¹¦ çĶ»
åĽŀ å¿Ĩ
æĢ¥ éľĢ
æĺ¥ é£İ
16 0
å¦ĩ å¹¼
1 200
a t
ä¸Ń éĥ¨
ä¸ĩ ä¸ª
è½¦ çļĦ
å¸Ī èµĦ
è¯¥ å¸Ĥ
åħħ å®ŀ
å½± åĥı
åĩı æĮģ
çıł æµ·
é¢ģ å¥ĸ
å§¿ æĢģ
åı ®
æĹ¥ æŃ¢
å¿ĥ ä¸Ń
é£İ æ¸ħ
çº¾ åĽ°
èģĨ åĲ¬
ä¸Ģ åĲĮ
å¼º åĬĽ
èĩª æķĳ
æ· ĭ
éĥ½ ä¸į
çīĪ æĿĥ
èĳĹ åĲį
å¤ ¹
è¯ ł
å¹´ æĬ¥
ä¸ī æĸ¹
éĢł æŀĹ
åı° åĮº
èİ İ
æĺ¥ èĢķ
çŃĶ åį·
è¾ī çħĮ
ä¸į åıĹ
èĩª æľī
äºĮ å®¡
ç¼ ħ
çģ ¿
æĪ· åı£
éĢģ åİ»
çĻ¾ èī²
è¾ĥ å¤ļ
ç¢ Ĺ
æİĪ ä¿¡
å³° ä¼ļ
çŁ¿ ä¸ļ
å© Ĩ
èĵĿ å¤©
åľ° çĲĥ
æĹ¥ åĲĳ
æľŁ è´§
æĬĢ å·§
èĢĥ åľº
å®¢ æľį
ç¨³ ä¸Ń
æł· æľ¬
æ¾Ħ æ¸ħ
äº ³
ä¸Ģ çŃĸ
ä¸Ń æ¬§
å®ŀ è®Ń
å±ķ åİħ
åģ ·
çł ¥
èī² åĪĹ
èī² å½©
å·² äºİ
åĳ¼ åĲģ
æīĽ èµ·
éĥ¨ åī¯
çľģ ä»½
å°Ĩ ä¼ļ
å¤© åľ°
çĲĥ éĺŁ
åİĭ ç´§
9 00
ä»¥ åĨħ
ä¿Ŀ åį«
è§£ éļ¾
éĴ ī
ç®Ģ æĺĵ
è¯ł éĩĬ
æłĩ çŃ¾
ä½Ļ ä»½
åı¤ éķĩ
æ²¿ çĿĢ
çīµ å¼ķ
å¿Ļ ç¢Į
çĲĨ èµĶ
æĹ¥ åĿĩ
æĬ¥ åĪ°
æīĭ ä¸Ń
æĴ °
çł´ äº§
çĻ½ éħĴ
å·¡ åĽŀ
çĸı å¯¼
åł¡ åŀĴ
æ¶Į çİ°
å½ĵ ä¸Ń
éĢī æ´¾
çİĭ æŁĲ
1 12
æľŁ çļĦ
åıĤ æķ°
åıĸ è¯ģ
ä¸¥ å®Ī
çª Ħ
ç¼ĸ è¾ĳ
å¥ĸ éĩĳ
14 0
çĶ° åĽŃ
åĩł å¤©
æĪı åī§
ä½ Ĳ
å¸ Ĳ
éĩį çĹĩ
åĪĨ çļĦ
å°Ĩ å¯¹
æī§ æĶ¿
è¾ĥ ä½İ
ç¢ ±
äºº ä½ĵ
æľī æľŁ
åķĨ éĵº
å¤Ħ å®¤
åģļ ä¼ĺ
èİ ĵ
çªģ çĦ¶
çĮ® çŃĸ
å¨ ľ
è½» æĿ¾
æ°´ ä½į
å¤Ħ çļĦ
ä¹Ł è®©
è§Ĩ è§Ĵ
äºĴ çĽ¸
ä¼Ļ é£Ł
ãİ ¡
ä¸ Ī
èº« å¿ĥ
éĵ¶ å·Ŀ
çº½ å¸¦
ç¡ķ å£«
åĮĸ å±Ģ
çª Ŀ
åħ´ ä¸ļ
ä½Ļ æ¬¡
çĶ» åį·
æµ© çī¹
ä½ °
è¡Į æĿĥ
åıĳ åĶ®
åĮº åĿĹ
æĿĳ èĲ½
æĪĳ æĺ¯
åĨį åĪ°
æĮĤ éĴ©
æµĵ åº¦
æĤ¨ çļĦ
ä¸ ¢
åŃ ľ
ä¸Ĭ çıŃ
åĪ¶ è®¢
ä¼ł çľŁ
ç²¾ ç»Ĩ
èĢĮ ä¸Ĭ
åıł åĬł
çŃ ĭ
åħ¨ éķ¿
éĩĳ çīĮ
ä¹ĭ ä»¥
è´Ł åĢº
èī¯ æĢ§
åĴĮ å¤§
åĩ °
10 6
è¯¥ åĮº
çĮ İ
ä½Ĩ åľ¨
åħ° å·ŀ
æŃ» è§Ĵ
æļĹ è®¿
å° ¹
åľ° ä¸º
éĢļ é£İ
æĢ» çĽĳ
åĮ» åħ»
æµģ æĦŁ
ä¿® å»º
èį¯ åºĹ
åĽ¾ çº¸
éļı æĦı
åĨ² åĪº
è¶£ åĳ³
è¡ °
æľĪ ä¸Ń
ä¸ĭ ä¹¡
åķĨ é¡»
ç½ĳ ä¿¡
ç«ŀ æĬĢ
æĴŃ ç§į
æĭ¥ åĨĽ
Ġ ï¼ī
ä»¥ å¾Ģ
çİ¯ è¯Ħ
éª ı
å¸¸ å·ŀ
æ¸ħ åģ¿
çĪ ½
äºī åĪĽ
ä»ĵ åºĵ
GD P
å· ¢
ä¸į ä¾¿
éĩį æ¸©
å°ı äºĭ
å¸¸ å¹´
æİĴ éĻ¤
é©¬ ä¸Ĭ
s e
ç» ·
ä¸» çº¿
éĹ¨ ç¥¨
ä¹¦ é¦Ļ
åĪ¤ å¤Ħ
è¿Ķ è´«
Ġ 2018
åħ Ħ
åħ± ç®¡
å½ĵ çĦ¶
10 5
åħ» çĶŁ
ä¹ī è¯Ĭ
æ¼ Ĥ
ç£ ·
çĥŁ èįī
ä¸į å¥½
åĿ İ
èģĶ è¿Ĳ
çī¹ åĮº
æľĢ å¥½
è´Ł æľī
æ¸ħ æī«
ç§Ł æĪ¿
å¤ª åİŁ
æĬµ è¾¾
æº¯ æºĲ
ä¸į å½ĵ
ä¸į åģľ
çĿ Ľ
ä¹¦ çļĦ
ä¼ł è¾ĵ
éľ ¸
çº¢ åĨĽ
æ³ī å·ŀ
è¾© ç§°
æĳ© æīĺ
æĺ¨ å¤©
ç» İ
ä¸Ń åŀĭ
å¸Ĥ ä¸Ń
äº§ åĩº
çİ° ä»»
ä¸ĩ åĲį
å¯¼ å¸Ī
åŃĲ çļĦ
å¤ĸ äºĭ
ç§į ä¸ļ
çľŁ çļĦ
å¾® åįļ
ä¾µ çĬ¯
ä¸Ģ æĹ¥
åŃ¦ çļĦ
æıĲ åĲį
çĪ ¬
åıį å¼¹
ç±³ çļĦ
æĿİ æŁĲ
ä»ª åĻ¨
è¿Ľ åĩº
åĮĸ å¸Ĥ
éĢļ åħ³
éĽ ĩ
æķĻ å®¤
ä¹¦ ç±į
åĪ© äºļ
å¤ĸ åįĸ
æ¸ħ éĻ¤
è¶ħ åĩº
) ;
å¤§ éĻĨ
æĹ¶ è®¸
è° £
åħ¥ ä½ı
åĨľ æŀĹ
è¯ģ åı·
åįł æľī
æŀ¶ æŀĦ
åĮĸ èĤ¥
çŃī ä¸º
æĪĺ åľº
æ¢ Ń
çĹħ çļĦ
æ¹ĺ æ½Ń
éĤ» éĩĮ
2 20
å® µ
åħ¬ å¯ĵ
æľī æĦı
æĪĲ æ¸Ŀ
å¯¹ å¾ħ
ä¿Ŀ ç®¡
åĨľ åķĨ
éĢī åıĸ
çº¦ ä¸º
åĩĮ æĻ¨
ä¸Ń éĹ´
å¤§ æ¥¼
åľ° å¸¦
åĲĪ æĪĲ
è®¾ æľī
åħļ å¯¹
è®® é¢ĺ
åĮĹ æĸ¹
èĢģ åĮĸ
èĻļ æĭŁ
çļ® èĤ¤
ä¿ ±ä¹Ĳ
åºĶ äºĪ
éĢī åĿĢ
èµ° å»Ĭ
éĢĤ å®ľ
2 50
ä½ľ å®¶
è¿Ľ èĢĮ
èĪª éģĵ
æŃ¦ èŃ¦
éŃ Ķ
æģ¶ åĬ£
çł¥ çłº
3 60
è´ ©
éķ¿ æ²»
ç¡® éľĢ
å¤ĸ æĿ¥
10 1
æł¸ å®ļ
çĬ ¹
ä»ĺ åĩº
è¾¹ çķĮ
éĻį æ¸©
å®ĥ çļĦ
æĬĺ ä¸į
åħļ æ´¾
çĤ¹ çļĦ
çĤ¹ è¯Ħ
æ£ µ
åİŁ æľī
å£ ³
åĬ¿ å¤´
çĹħ äºº
ç©º ä¸Ń
èı Ĭ
åįĬ å¯¼
çŀ Ħ
éĶļ å®ļ
a l
çĤ ®
ç§ĳ åįı
ç«ĭ åį¡
æķĪ åĬĽ
åı£ èħĶ
å½± çīĩ
èĬ± åįī
çĻ½ äºĳ
äºļ è¿Ĳ
æħ ¨
ä»Ĭ æĹ¥
åŃĹ ç¬¬
éĢĢ ç¨İ
åħ¼ é¡¾
Ġ ï¼ļ
å¼ Ĭ
éĢ ¸
å±ķ æ¼Ķ
èĩª å¼º
ä¸ĵ æ³¨
è§ģ çļĦ
åį³ ä½¿
çĮª èĤī
æĪĴ æ¯Ĵ
ä¾¦ æŁ¥
. ãĢĬ
å¼Ģ çıŃ
åĩº åĶ®
çĶ¨ æĥħ
èĩª è´¡
åĮ» çĶ¨
å¤ĸ ç§ĳ
èµ· æŃ¥
å¸Ī åĤħ
åĬ³ æ¨¡
èĴ Ĥ
çĸĳ ä¼¼
æ· ¤
åı¯ è¾¾
ä¿® æŃ£
èį¯ ä¸ļ
å±Ĭ æĹ¶
æį¢ æĸ°
æ½® æµģ
å¤« å¦»
çŀ ¬
çļĦ ç²¾
åĮº å¸Ĥ
ä¼ļ è§ģ
ç®¡ åĪ¶
å§ ¨
çĶµ è·¯
åĲĳ å¾Ģ
æĢ» è¡¨
æĢ» æķ°
å°± åĥı
æŃ¥ è¡Į
å®¹ éĩı
å®¢ è½¦
çªģ åĩ»
ä¾¿ äºİ
æŃĮ æĽ²
å®ı ä¼Ł
æ·Ħ åįļ
ä¸ Ľ
æŃ ĩ
æĺ¯ æĸ°
åĬł çıŃ
èĥ½ åĲ¦
éĤ ¯
æĴ Ĵ
éĶĢ åı·
å¯Į æ°ĳ
åį° åº¦
é¢ĳ æ¬¡
åī§ éĻ¢
èĪĨ æĥħ
æ±ķ å¤´
% ;
ä¸» ä¸ļ
é¢Ħ åĪ¶
æĦŁ åĬ¨
åıĺ çĽ¸
åĪĹ å¸Ń
æĹ© æľŁ
åĳ³ éģĵ
ç§ĭ åŃ£
å¥Ķ èµ´
äºº è¯´
èµ Į
åľ¨ çļĦ
å¯¹ åĲĦ
ä¿Ŀ ç¨İ
æĶ¶ åī²
å¹² åĬ²
é¸¡ èĽĭ
æµı è§Ī
æµ ´
åĪĽ å§ĭ
ä¹ĭ å¤§
è¯· äºİ
åĸ Ĭ
ä¸¤ é¡¹
å¯Ĩ å°ģ
è¯¾ åĲİ
åĺ± æīĺ
åµ Į
çļĦ éĿŀ
åħ¬ è¯ī
æĹ¶ èĬĤ
å®ī ä¿Ŀ
ä¸ī æĿ¡
ä¹¦ åºĹ
æµ· å²¸
åĪĴ å®ļ
çľĭ çľĭ
å¥ĭ æĪĺ
ä¿ Ń
åĴĮ åĲĦ
ä¼ļ æľī
çŃī äºº
è°ĥ è¯ķ
å¢ŀ å¤ļ
çķ Ķ
çľĭ æľĽ
çĽ´ è¾¾
å¾Ī éļ¾
åĲ¯ çĶ¨
é¼ ł
æİĮ å£°
æĳ¸ åºķ
âĳ ¡
æĳĨ æĶ¾
åĪº æ¿Ģ
2 10
è´Ł éĿ¢
ç«Ļ çļĦ
åĪĩ åħ¥
åĽº ä½ĵ
ä¹Ŀ é¾Ļ
è¡Ģ åİĭ
å» ĸ
ä¸į çĶ¨
åīį åĲİ
å´ ĸ
æĬ½ åıĸ
æĭĴ ä¸į
çĵ¶ é¢Ī
º çī²
è´ °
ä¸Ģ ä¸Ģ
æĮ ļ
äºĨ å¸Ĥ
çī ºçī²
çŃī çŃī
æĹ¶ èĩ³
åħļ ç«ł
åħ¶ åľ¨
æµ· å³¡
åĽĽ åŃ£
æŃ£ ä¹ī
åħŃ æĿ¡
èħ º
èĶ ĵ
åĿĲ èĲ½
åįĵ è¶Ĭ
çŀĦ åĩĨ
åĽ½ ç½ĳ
è¿ĩ å¾Ģ
åĲį è¯į
åİŁ æľ¬
æŃ£ æĸĩ
çĻ¾ äºĶ
âĳ ł
å¸ ¼
åĴĮ ç¾İ
åħ¥ å¢ĥ
å¢ŀ å¹ħ
å±± æ´ª
èµ· åĪ°
æ¼ı æ´ŀ
åĲĬ éĶĢ
ä½ľ åģĩ
åĮº çŃī
çĲĨ å·¥
äºĨ ä¹ł
èį Ķ
éĤ ª
éĢĲ é¡¹
è´µ éĺ³
æºª å¸Ĥ
æĵ¦ äº®
å½ Ŀ
æĺ¯ ä»¥
é«ĺ ä½į
æ°´ åİ¿
è¿ĩ æĿ¥
æīĢ æĮģ
çº¿ çļĦ
çĻ¾ ä¸ĩ
éĵ¶ ä¿Ŀ
è´´ å¿ĥ
éĺ¿ å§¨
è¾ħ èŃ¦
ãĢĤ "
ä¼ ŀ
åº ŀ
åŃ¦ åŃĲ
éĩĳ éĴ±
æĻ ĸ
è½¬ åıĳ
ä¸¥ æĬĬ
æ¨ ±
æ¶ī åĨľ
æĭ¥ æĬ¤
ä¸Ģ å¤§
ä¸Ń è·¯
ä¸Ń ä¹ĭ
åľ¨ è¯¥
éĥ¨ çļĦ
åĬĽ åĨĽ
çĶµ ç¼Ĩ
çłĶ åĪ¶
ç© Ĩ
é£İ çĶµ
æ¸ħ æŁ¥
æĻ® éĻĢ
å®¾ é¦Ĩ
èī¾ æ»ĭ
å·¾ å¸¼
æİĢ èµ·
å® Ļ
ä¸Ģ åıį
å¤§ åĽ½
çĤ¹ èµŀ
åįĹ å¸Ĥ
çŃĶ é¢ĺ
æī£ æĬ¼
é¥® æĸĻ
ä¸į æĺĵ
åĪĨ æĶ¯
æ²³ åİ¿
ä¸¾ è¯ģ
åĬ¿ åĬĽ
èĩ´ ä½¿
éĻį è´¹
éĽ¨ æ°´
åºŁ æ°´
æī« çłģ
å¼Ħ èĻļ
ä»¥ åŃ¦
èĥ ĸ
ç®¡ è¾ĸ
æĶ¶ åĴĮ
éĻĦ è¡¨
éĶħ çĤī
éĺĲ è¿°
Ġ åĲ´
æĿ ı
å¤§ äºİ
å®ŀ ä¹ł
é«ĺ å±Ĥ
åĪĨ æµģ
è¥¿ çıŃ
è½¬ ä¸º
éĤ ĳ
ä¸´ è¿ĳ
è´§ æ¬¾
æ¿Ģ åħī
åį± æĪ¿
è·Ł çĿĢ
èİĨ çĶ°
Ġ åĳ¨
åħ¨ å¤©
å¤§ è±Ĩ
æľį ä»İ
åĲĳ å¸Ĥ
æĶ¾ å°Ħ
åĪĻ æĺ¯
æłĳ æľ¨
åģĩ åĨĴ
çĦ¦ çĤ¹
åı¦ æľī
åĸľ çĪ±
ä¸Ŀ ç»¸
åĢ¾ æĸľ
ï¼ħ ãĢĤ
ä¸Ģ åĳ¨
å¤§ ä½¿
å¯¹ è¡¨
ä¿Ŀ åĩ½
è¯¥ å±Ģ
æµĭ ç»ĺ
çĻ½ éĵ¶
éģĹ çķĻ
çŁŃ æľŁ
I C
åĵ ¨
å¾Ĺ ä»¥
ä¹ĭ ç¾İ
çĦ ļ
çħ§ æĺİ
çİĩ åĴĮ
å½ķ çĶ¨
å±Ĭ åħŃ
è´ ®
çĲĨ æĢ§
åĲĮ çº§
æķ° æĻº
10 3
åĭ ¾
å®¢ æµģ
èĶ ļ
éĺ¿ éĩĮ
ç§ģ åĭŁ
å±ı å¹ķ
è¾£ æ¤Ĵ
è ¤
æĮ ¤
ä¸Ĭ ç¼´
åħ¥ åĽ´
ç¾İ åĮĸ
12 5
å®¤ å¤ĸ
å¥ĸ é¡¹
åģľ æĶ¾
æĭŁ è®¢
åĩ¤ åĩ°
åĢ¾ åĲ¬
çĦĬ æİ¥
âĢ ¢
ä¸Ģ å¹ħ
åħ¨ çº¿
åħ¨ é¢Ŀ
åĲĮ æĹ¥
æł¸ å¯¹
æĥ³ è¦ģ
æĻ¯ è±¡
å±ŀ æĢ§
çĭ Ĥ
å£« åħµ
åľ¨ å¤ĸ
èĩª è±ª
è¿Ļ æĿ¡
äºĴ åĪ©
ä¹Ŀ æĿ¡
çģĮ åĮº
è¡ ¢
äºº çİĭ
åĴĮ åİ¿
éĥ ¸
ä¸Ĭ æ¼Ķ
ä¿Ŀ åħ»
åĬł æ·±
æĿ¥ çĶµ
åĵģ ç±»
åİŁ å§ĭ
è¯´ éģĵ
åĿĩ å·²
è´´ æģ¯
çļĦ ä¸ī
äºº å¯¿
åĴĮ å¯¹
ä¿Ŀ å®ī
åŁº è°ĥ
çº§ åıĬ
è°ĥ éħį
æµģ å¤±
10 8
åĽŃ çļĦ
æ²³ åĮº
æĺŁ æľŁ
ï¼ħ ï¼Į
å» ·
å¤§ é£İ
è¦ģ ä»İ
æĸ° å¹´
ç¨ ½
å¼ı çļĦ
ä¸ĵ åĳĺ
ä¹ĭ é£İ
åĪĩ èº«
ç´§ ç¼º
æħ ĳ
éĽ¨ éĽª
æĬ Ľ
åľ° å¤Ħ
æĿ¥ è®¿
èģĶ æİ§
æ·± æĮĸ
ç¦ ¹
æīĵ ç®Ĺ
èĢģ é¾Ħ
æĭħ å¿ĥ
èĳ ±
å¾Ī å¥½
èı ĩ
è¾ĸ å¸Ĥ
ä»ĭ åħ¥
éĿł åīį
L ED
çļĦ ç¾İ
åĴĮ åħļ
è¦ģ å°Ĩ
ä¸Ĭ å²Ĺ
å¼Ģ éĻ¤
ä¸ĵ å±ŀ
å±± æĿĳ
é£İ æĥħ
ç§¯ æ°´
åıĹ æįŁ
è¯¥ éĻ¢
T O
éĢ ¼
ä¸į æķ¢
çľ ł
èĲ §
éĶĢ åķĨ
æ»¨ å¸Ĥ
å®ĩ å®Ļ
æķı æĦŁ
å»Ĭ åĿĬ
èŁ ¹
æĺ¯ çĶ±
ï¼ī ãĢĬ
ä¿Ŀ èįĲ
æ¬¡ æķ°
å½ĵ éĢī
åĨ³ èĥľ
æľĢ æĹ©
ä¸¤ ä¾§
æīĺ èĤ²
é»Ħ å±±
åı¬ éĽĨ
æ¥¼ å®ĩ
é¡º åºı
éĺ¿ å°Ķ
åĺī åħ´
éĴ¢ ç®¡
æ¶² åĮĸ
çĶ¨ æ°Ķ
åŃ¦ æ³ķ
æĿ¥ ä¸´
å¤ļ äºĨ
åĪĽ åŁİ
å¹¶ çĶ±
ä¹ĭ ä¸ĭ
åģļ çļĦ
æ¯Ķ éĢī
æĬĬ åħ³
è¯¥ è¡Į
éħį ä»¶
é¦ĸ é¡µ
ä¼¤ äº¡
çº¤ ç»´
Ġ ä¸ª
å¸ ·
åį ľ
æī Ń
äº§ åľ°
èĬ Ĵ
åĬ© åŃ¦
æŃ¤ é¡¹
éĺ³ æĢ§
ç©º çĻ½
çģ¾ åĲİ
çĶŁ æł¹
çľģ çĽ´
åķ Ĭ
å¯¼ æ¼Ķ
è·¯ çģ¯
æµ· åŁŁ
éķĩ çļĦ
çĥŃ æ½®
å¯Į æľī
æ¸© å·ŀ
è¾ĵ åĩº
çĦ¦ ä½ľ
éģĹ å¤±
çĶ» éĿ¢
èĸª éħ¬
æ¬£ èµı
åı ¹
å¹´ ç¬¬
çŃī åĲĦ
ç»ı ä¿¡
åı£ å¸Ĥ
æĪĺ å½¹
æĤ Ķ
é¾ ļ
å±Ĭ äºĶ
æī© æķ£
è¿Ķ åĽŀ
é«ĺ è¾¾
ä¸ª åİ¿
å¹³ åĩ¡
é¢ĺ æĿĲ
æŀĹ åĮº
è¿ŀ äºĳ
200 5
è·Ł åħļ
ç§ī æĮģ
ä¸ĭ åĲĮ
æĿĳ æĿĳ
éĩĩ çº³
å¤© åºľ
å¸¸ ä½ı
Ġ1 8
çĽĽ å®´
çıį æĥľ
ç»į åħ´
è°¨ æħİ
; (
Ġ åĪĨ
åĴĮ ä¹ł
çŃ Ĵ
åĲİ å¤ĩ
å¹¶ ä¸º
æĹł æķ°
æ¶Ī æĿĢ
æ¸¯ åĮº
åºĨ å¸Ĥ
é½Ĳ æĬĵ
åįĸ åĩº
æ³¸ å·ŀ
Ġ ä¸İ
äºº æľī
åŁ Ķ
æĺ¯ è¦ģ
çĶ¨ åĬĽ
è¿ĩ éĶĻ
ä¸ī åįģ
åĲĳ åīį
æµ· äºĭ
èĴ ²
çŁ¿ äº§
å¸ ķ
ä¸Ń çŃī
åľ° æłĩ
ç»ı æŁ¥
æĸĩ æľ¬
æľº ç»Ħ
çĿ ¿
è§Ĩ åĲĮ
è§Ĥ æµĭ
äºĳ æµ®
å®¿ è¿ģ
æĿĤ å¿Ĺ
çİ© åħ·
è¿Ł å»¶
æ°¢ èĥ½
èģĬ å¤©
æ®¡ èĳ¬
ç» ½
äºº å¼ł
å¸Ĥ å±ŀ
åĪĽ åĬŀ
ç© Ĺ
åŀ Ħ
å¤ĩ åıĹ
éħ ¿
çĥ ĺ
æŁ ¯
èĢĮ åľ¨
éģµ ä¹ī
äºı æįŁ
ä¸Ń å¤ĸ
æĮ ª
å¼Ģ ä¸ļ
åĩº æµ·
åħ¥ æīĭ
çĸ ²
åķĨ åºĶ
å®¡ å®ļ
ç¼ Ķ
èģĮ ä½į
æ²³ éķ¿
éĥ½ åĮº
å¤´ èĦĳ
ä»ĺ è´¹
çº³ ç±³
ä½İ ç©º
é¡º çķħ
è£ģ éĩı
Ġ å°ı
è¡Į ç¨ĭ
ç« Ń
æ´ ¼
æĥ ķ
åŁº å»º
çĽĳ å±Ģ
æģ ĭ
æŃ£ è§Ħ
æĹł çº¿
æĦŁ æĥħ
ç¨³ å¦¥
è¾ĵ éĢģ
é²ģ æľ¨
èļ Ģ
ç Ģ
ä¸Ģ è¾Ĩ
è¿Ľ é©»
ä¼ĺ æĬļ
åıĹ è®©
è¯· ç¤º
çľĭ çĿĢ
çķĻ ä¸ĭ
ç¿ °
å´ Ľ
æ³° åĽ½
åĨ» ç»ĵ
ç¢° æĴŀ
åħ¨ åħļ
ä»¥ ä¸º
è½ ¿
ä¸İ åħ¶
æĥ³ è±¡
ç»Ļ äºĨ
èŃ¦ æĥķ
è¯Ŀ é¢ĺ
å¨ Ħ
èķ ¾
éĶ» éĢł
Ġ åįĹ
åħ ¹
ä¼ļ åĲİ
æĿ¥ ä¿¡
æĬ¥ åºŁ
ç± ½
æĹł éĻĲ
æĪ¿ åŃĲ
åıĪ æľī
èĵĿ èī²
ç¥Ŀ è´º
æī ĩ
åıĳ å°Ħ
å¤§ çĹħ
éĿ ĵ
æĹ¶ åħī
ä¸İ æľ¬
æĥħ æĻ¯
ä¸ĩ éĩĮ
éĻ¢ çļĦ
éķĩ æĿĳ
æĪĺ èĥľ
æĻº åºĵ
ä¹Ĳ åĽŃ
éĻĪ åĪĹ
èģĺ ä»»
ç£ ħ
åı® åĺ±
Ġ å¦Ĥ
æī ®
å®ļ é¢Ŀ
åĬł åĢį
ç¤¾ å·¥
æĺİ å¤©
éĺ² èħĲ
åŁİ ä¸Ń
æī§ çºª
æĭĽ å¼ķ
å¿« æį·
æĦŁ æģ©
æĻº åĬĽ
èĮħ åı°
æĸ° æĿĳ
ï¼ļ ãĢĬ
æłĩ è¯Ń
è¿Ļ ä»½
å¸¸ è¯Ĩ
çĹ ķ
åıĺ ä¸º
æĬ¢ æķĳ
å½Ĵ è¿ĺ
ÃĹÃĹ ÃĹ
éĵ¸ éŃĤ
åħĦ å¼Ł
å´Ľ èµ·
Ġ ä½ł
åı ģ
å¤§ å°ı
ä¼ļ åıĬ
çī ¡
åľ° å¤´
æıĲ æ¡£
æĪĳ åľ¨
éĹ® åĢĻ
åı£ å¾Ħ
å·² è¢«
æķħ æĦı
çģ¾ æĥħ
æ¶ī å¤ĸ
å³ ª
çĽĹ çªĥ
çĦļ çĥ§
s t
å¤§ æĪ·
åĪ° è´¦
èģĶ éĤ¦
åĪ© æ°ĳ
å±± è·¯
åįı åĬĽ
ä¹¡ è´¤
è¿ŀ éĶģ
Ċ Ġ
ä¼ļ åī¯
ç»Ħ çļĦ
ç»Ħ åĽ¢
åķ ¦
å°± åľ°
æŃ£ åĢ¼
åĮĹ æĸĹ
çĮ ´
åºķ æķ°
åºĬ ä½į
æ»ļ åĬ¨
è¯ŀ çĶŁ
Ġ è¯·
å®ļ åĬĽ
äºĭ æĥħ
ç¤¾ åıĳ
æĶ¶ åĽŀ
ç»Ł é¢Ĩ
ç¥ ģ
æĢ» æĺ¯
å»¶ å®ī
å¸· å¹ķ
çĶŁ æĦı
èĩ Ĥ
å¥½ äºĨ
æľŁ çĽ¼
æĪĺ å£«
ä¹° åħ¥
ç»ĺ çĶ»
æĢİ æł·
I T
éķ¿ å¾ģ
å±Ģ åĴĮ
åĲį åŃĹ
èģĮ å®Ī
ç½® æį¢
æĬĵ èİ·
ç»Ĩ åĪĨ
æł· åĵģ
å·Ŀ åİ¿
éĤ¯ éĥ¸
Ġ -
æĸ° é²ľ
å¹³ åİŁ
æĬ¥ éħ¬
èİ ¹
æĺĵ åľ°
è¶³ å¤Ł
æ¿Ģ çĥĪ
åĭŁ æĬķ
å½Ĵ å±ŀ
åħ¼ èģĮ
çļĦ åıĮ
ä¸į æĺİ
æłĩ æľ¬
åĲĮ èĥŀ
æ±Ĥ åĬ©
10 4
ä¾Ŀ èµĸ
åħī è¾ī
èĩ´ ä»¥
ç¿ ģ
çĪĨ çĤ¸
Ġ äºº
äºº æĿİ
ä¸Ģ æıĲ
æ° ¨
æĸ° é«ĺ
ä¸į è´Ł
åĲĦ éķĩ
åıĤ è®Ń
çģ ¶
æ¶Ī èĢĹ
è¯¥ é¡¹
åºĹ éĵº
ä»ħ æĺ¯
æī© å®¹
æĢ Ĵ
æĶ¿ ä¼ģ
å¤ļ åľ°
æĬĢ å¸Ī
æĦı å¿Ĺ
èĲ½ åĲİ
éħ ·
çĶ³ è¾©
è§Ĥ çļĦ
çĻ¾ æĹ¥
è¾¹ ç¼ĺ
è¿ľ ç¦»
æĭŁ å®ļ
å·® é¢Ŀ
æĹ§ åĿĢ
k m
åĲĮ ç±»
æľŁ æľĽ
è¶ Ł
ä¼ł æĦŁ
æµ· æĬ¥
æİ¥ çĿĢ
æĿĥ åĴĮ
éĻ© æĥħ
æĥ³ æ³ķ
çĻ¾ åĽĽ
å¤± èĥ½
çģ« çĥŃ
2 30
P M
è´ ª
æĬ Ħ
éĢ Ľ
äº¤ ä¼ļ
èĲ¥ æĶ¶
æµ· åĨĽ
åĽĽ æĿ¡
æİ¥ ç»Ń
ç¦ Ģ
æ¸ħ è¿ľ
è´´ è¿ĳ
åºŁ æ°Ķ
ç¼© å½±
è¡£ æľį
åĬĿ å¯¼
ä¸Ń å»º
åħ³ æĿĳ
ç¤¾ åĽ¢
æĢ§ å¼º
æĶ¶ ç¼´
åģļ èµ·
èĬĤ å¥ı
åħ« æĿ¡
é²ľ æ´»
ä»į æľī
äºº æ°Ķ
çĶŁ æĹ¥
ä¸į ç®¡
ä»¥ å¤ĸ
ï¼ī âĢĿ
éĿ¢ åīį
åįķ é¡¹
çĸ ¼
ä¾Ľ æļĸ
åįģ ä¸ĥ
ä¹¡ åľŁ
æ¸ħ æ°´
è§Ĥ èµı
åĤ ²
èħ Ĭ
åĺī å®ļ
éĶģ å®ļ
.... ..
20 30
çİ° å°±
ç¡ «
å¤ļ ä½į
åĲį ä¸ĭ
ä¹ĭ éĥ½
æ£Ģ ä¿®
åĬ© ä¼ģ
åĿĩ ä»·
åĺ İ
éī´ äºİ
æĢĢ æŁĶ
æ¬ł èĸª
èµ ļ
å¹´ æĺ¯
è¿Ľ åľº
ä¸» èĲ¥
åĨħ åľ°
èĤ² ç§į
åĨ³ æĪĺ
æīĢ è¿°
æĸŃ éĿ¢
çº· åĳĪ
åİļ æ¤į
èµĶ ä»ĺ
ç¡¬ åĮĸ
Ġ B
Ġ èµµ
çļĦ æ·±
åį §
è¿ĩ åº¦
è¿ĩ æ¸¡
æĬ¥ æī¹
æĶ¶ å®ĺ
éĽĨ å¸Ĥ
è¢ ĸ
åĽ¢ ä¼Ļ
200 2
] ãĢģ
å¹´ éĩĳ
ä½ĵ çļĦ
å±Ģ å¯¹
è´¹ åĴĮ
äºĮ æ¥¼
çī© ä»·
æµ· æĭĶ
åģļ ç»Ĩ
åĢŁ è´·
åĥ ļ
çĳ °
çıį è´µ
A èĤ¡
å¤ ·
æĪĲ çļĦ
ç®¡ åħļ
æľ¬ æģ¯
æ°´ è·¯
éĵ ĥ
å¾Ĺ ä½ı
åįĹ åĮĹ
æµģ æ°´
èĤ¡ ä»·
çıŃ çº§
ç½ª çĬ¯
é¡¶ å±Ĥ
æĺ¨ æĹ¥
è¡Į è´¿
æĢ ¡
éĹ «
å¯¹ åľ¨
ä¸» æĴŃ
åĲĮ çŃī
äºĶ æĿ¡
ä¿ĥ éĶĢ
åºķ èī²
ç«ŀ å¾Ĺ
æ²¹ æ°Ķ
æĬĹ åĩ»
æ¾ İ
" ,
æ³ ¾
èĲ Ŀ
ä¸ī æľŁ
æ¡¥ éķĩ
æĹ© ä¸Ĭ
è¿½ è´£
çŀ Ĵ
æ¯Ľ æ³½
åı¥ è¯Ŀ
è¥Ħ éĺ³
T C
ä¸Ń ä¿¡
åľ¨ é«ĺ
20 35
å¹³ åİ¿
åıĹ è®¿
æĭħ è´Ł
è¿° èģĮ
èĪª è¿Ĳ
çĩĥ æĶ¾
N A
Ġ æĢ»
æĹ¶ ç©º
å¹³ åĮº
åħ± åĪĽ
å¤ļ åıĳ
èģĶ èµĽ
æīĢ çļĦ
æŃ£ é£İ
æľĢ ä¸º
çł´ æįŁ
æī© å±ķ
åħ¸ èĮĥ
ç¦Ģ èµĭ
æĪ Ī
äºº éĻĪ
ä¸Ń é«ĺ
åľ¨ å²Ĺ
å¼Ģ å¥½
åħ± çĶŁ
åı¯ ä¾Ľ
æķ° åŃ¦
åİŁ çĲĨ
éĵ¾ çļĦ
æĹ¢ å¾Ģ
éĹŃ å¹ķ
çŀ¬ éĹ´
x x
Ġ ä¸Ĭ
æĬ ¹
ä¿Ŀ è´¨
äºĭ åıĳ
æľį é¥°
ãĢĭ ï¼ī
æĮĩ ä»¤
æ£Ģ è§Ĩ
å¤ĸ åķĨ
é£İ å°ļ
è¥¿ äºļ
æł¡ ä¼ģ
çĿĢ æīĭ
11 3
äºī åģļ
å¤® è§Ĩ
åį³ æĹ¶
æĭį çħ§
èĤ© è´Ł
æĴ° åĨĻ
ãĢ ĩ
å± ¡
ä¸Ģ äºĭ
éĥ Ŀ
äºĨ å¤§
å¯¹ çŃĸ
èĩª çŃ¹
æĶ¯ éħį
åı¯ æİ§
å¤ĸ æ±ĩ
10 7
è¾¾ å³°
çĽ´ èĩ³
æĳ Ķ
å®Ī æŃ£
å¾Ī æľī
èĭ± è¯Ń
æŃĮ èĪŀ
ä¹Į åħ°
è¯¯ å·¥
éĶ¤ çĤ¼
äºº å°Ĩ
ä¼ļ å¯¹
å¢ ħ
ç¾İ å¾·
æ¹ ĥ
å¸¦ è´§
éħį æĸ¹
åĿĩ åı¯
çķĻ åŃ¦
çķĻ è¨Ģ
åºĦ æĿĳ
ä»į åľ¨
ä½³ èĬĤ
èĳĹ ä½ľ
æ¨ª åĲĳ
ï ¹
ä¸Ń ç¾İ
æĮ ½
äºĨ åħ¨
æĭ ¦
è½ °
ç¬ ĥ
æ· ĳ
æĺİ æĺŁ
åĨľ æĬĢ
æīĢ ç§°
è¥¿ åĮº
è¶³ è¿¹
ä¿® åħ»
åħī çĶµ
åĪĿ çº§
200 3
200 4
å´ Ń
èĮĤ åĲį
æĺĤ æī¬
æ¸Ĺ éĢı
çī¡ ä¸¹
å¹ ½
åĮº éĹ´
ä»¥ ä¾¿
äº¤ è°Ī
åĢ ©
å¤ĸ åĮħ
ç¦ ¾
åĬ© é¤Ĳ
éĺŁ éķ¿
è¯Ĺ è¯į
åłµ å¡ŀ
å¦» åŃĲ
æĭĺ çķĻ
C P
æĶ¿ åħļ
äº§ æķĻ
æĪĲ åĪĨ
åĳĺ åĴĮ
åºĶ å±Ĭ
ä¿¡ æīĺ
ç»Ħ å¯¹
è´¨ è¯ģ
æĽ´ è¦ģ
æ» ¤
æ¸¸ çİ©
å£ ¶
å®ĺ åĥļ
è¸ ©
éĵľ éĻµ
èµł éĢģ
æ° ®
ä¸Ń åįĪ
æ°ĳ èĪª
ä¿Ŀ åħ¨
æ°´ è¿Ĳ
åĵģ çļĦ
å°Ĩ æľī
åĽĽ å¹³
æīĵ ä¸ĭ
å¹² éģĵ
ä¸¤ å®¶
æīĭ æĬĵ
çĽ´ åĪ°
é¦ĸ å®¶
Ġ2 3
24 0
åİĤ å®¶
Ġ è¡¨
ä¸Ń æĿ¥
åľ¨ çľģ
ä¸į éĢĢ
è¡¨ æĢģ
è·¯ åŃĲ
éĶ Ī
æ¯Ķ å¯¹
è¯Ħ çº§
åĮħ ä¿Ŀ
åİĨ ç»ı
åı¤ ä»£
é½ ¿
çľ¼ çĿĽ
æĭ¥ åłµ
é¢ľ èī²
çĨĬ çĮ«
æ»¥ çĶ¨
ç§ §
å»º åĬŁ
ä¸į æ¸ħ
éģ ®
éĹ´ æİ¥
çĶµ åĻ¨
æľĢ åħ·
å¹² çº¿
è¯´ æ³ķ
åıĮ åĩı
æİ¢ æµĭ
è½» å¾®
æ¯ķ èĬĤ
æĴ¤ åĽŀ
è¿Ń ä»£
çº ¬
å±ķ æĿ¿
éĩį å¡ĳ
åİ¿ çļĦ
çİ¯ çĲĥ
éĵ ²
æķ´ é½Ĳ
ä¹ĭ ä¹¡
ç²¾ æ·±
åĸ »
æİĴ éĺŁ
åĳ¨ å¯Ĩ
é½Ĳ å¿ĥ
çĸĳ éļ¾
çĽĽ ä¼ļ
éĺ» åĩ»
åĸĢ ä»Ģ
ç»½ æĶ¾
åĲ ¾
ç» ¥
ä¸Ģ æĪ·
é¢ Ĥ
äº§ éĶĢ
çĤ ¬
å§Ķ åĬŀ
é¢Ħ å¤ĩ
å±± çļĦ
æĹł å®³
è½¬ åħ¥
æ²³ å¸Ĥ
éĿŀ åħ¬
å®Ī ä¿¡
ç®Ģ ä»ĭ
ĠĊ ĠĊ
éĢĲ å¹´
æĳĦ åĥı
ä¸į åºĶ
åĩº ç¤º
åħĥ å®µ
æº ¶
ç½ĳ èģĶ
è¯Ħ å§Ķ
æ¶Ī åĮĸ
ä¸¤ äºº
çŃ¾ ç«ł
åĿĲ åľ¨
ç¥¥ åĴĮ
ç¿» è¯ĳ
éĻª ä¼´
æ© ĺ
ä¸Ģ æĿĳ
åĴ ¬
æķ ·
ä¸º çĶ±
å±ķ éĶĢ
ä¸į ä¸Ģ
åī ¥
å°ı è¯´
æĭĽ çīĮ
æĦŁ æħ¨
ä¹Ĳ è¶£
åī§ åľº
éĺĲ éĩĬ
å·¥ åºı
å»º åĨĽ
æŃ §
å®ī å®ģ
ä»£ è°¢
éķĩ éķ¿
è½¬ åĲĳ
çĻ¾ è®¡
ç¨³ åģ¥
åł ª
ç²ī ä¸Ŀ
Ġ çļĦ
ä¸Ģ åłĤ
å¸Ĥ å¤§
èĩ £
æĹ¥ çħ§
åĬł æĭ¿
åĪĨ éĺŁ
äº¤ ç®¡
å°ı å¹³
å¹¶ ä»¥
å¹¶ å¤Ħ
æķ° åįģ
ä¸¤ å¤©
åįĥ æĸ¹
åħ¸ å½ĵ
èĹ ¤
çĪĨ åıĳ
7 000
æ°´ ç³»
æĶ¶ çľĭ
æĦı æĢĿ
åıĸ æ°´
éĢī æ°ĳ
å¼ł æŁĲ
åıĮ åŁİ
åįĥ äº¿
é¢ĳ éģĵ
Ġ åī¯
äºĭ ä¸Ń
æľ¬ èī²
æĪĳ å°±
ä¹ī åĭĩ
åĳ¨ è½¬
å¤± è´¥
æĸ¯ å¸Ĥ
ä½ł çļĦ
å²ģ æľĪ
åĪĳ æ³ķ
èĦĤ èĤ
ä¸Ģ åº¦
åĲĪ åĶ±
æľº çŃī
æĮģ ä¹ħ
è¿Ļ çīĩ
å°± è¯»
æ²³ éķĩ
å®¤ çļĦ
åıĮ ç¢³
åĪĿ æľŁ
åĲ« æľī
éļĲ ç§ģ
çīĪ æľ¬
æ¾İ æ¹ĥ
èĦĤèĤ ª
r o
å° §
åĩº æĸ°
å¯¹ æīĭ
åĬł ä»¥
æĪĳ å·ŀ
å¤ļ æķ°
çŁ¥ æĥħ
çħ§ æĸĻ
èº« ä¸Ĭ
çľĭ çĹħ
èĦ Ĩ
å¯Į æ±Ĺ
éĻµ åĮº
è¿« åĪĩ
å¸Ĥ æĢ»
å¯¹ ä¸į
æ°ĳ æĥħ
ç»ĩ å¯Ĩ
çħ§ æĬ¤
æŃ¤ æĹ¶
11 5
æĬĵ ç»Ĩ
å¤® ä¼ģ
åĪ¤ å®ļ
èĮ¶ åĽŃ
å¯Ħ éĢĴ
æ§ Ľ
èķ´ åĲ«
å¼¥ è¡¥
ç»· ç´§
, âĢľ
åħ¬ èģĮ
å±ķ æľĽ
éĥ İ
å¥ İ
åĪĨ æķ°
åº¦ è¿ĩ
äº¤ èŀį
åĲį å¸Ī
è§ģ ä¹ł
ä¿ĥ ä½¿
æīį æĺ¯
èµĽ åľº
æĶ» åĩ»
åįĥ å®¶
é¢ĳ ç¹ģ
å¥¹ ä»¬
æ¬ł æ¬¾
ä¼¼ ä¹İ
ä¼Ĭ æľĹ
æ© ¡
ç» Ĵ
ä¼ļ æļ¨
æĭ ±
èĤ Ĩ
æķĻ ç§ĳ
è®¡ çĶŁ
æŃ£ éĿ¢
ç§į åħ»
çĸ« çĹħ
çº¢ æ²³
æľĿ é²ľ
ç¹ģ èĤ²
æŁĶ æĢ§
ä¸Ģ å²Ĺ
âĢĿ ï¼ļ
ä¸į ä½ı
ä¿Ŀ å®ļ
ç®¡ å®¶
ä¸ī æĺŁ
åĲį åŁİ
ç»ĵ å©ļ
æ·± è¿ľ
é¢Ħ åĶ®
æīĵ åĵį
æĪ· çļĦ
å®£ è¯»
çĶ± åĮº
é¦ĸ åĪĽ
é¾Ļ èĪŁ
æ»¨ æ±Ł
åĳ¼ åĴĮ
æŁ´ æ²¹
ä¸Ģ æ¥¼
ä¸Ĭ ç½ĳ
å¼º åĨĽ
åħ± æĢ§
æĪĳ è¦ģ
éĩĮ éĿ¢
éħį åģ¶
æ»¡ æ»¡
è£ħ æľº
æ¼Ķ ç¤º
åĲ¬ åĪ°
ç©¿ è¶Ĭ
åĳ¼ ä¼¦
åłĨ æĶ¾
ä¸Ń æĸ°
åıĳ åĮħ
åİ ¢
æľ¬ èģĮ
åħļ ç±į
ä¸ī å³¡
æ· ³
ä¸ĩ ä»¶
å¯¼ å¼¹
æĬ¤ å£«
ç®Ĺ æ³ķ
ç®Ĺ åĬĽ
æł¸ éªĮ
åıį è¯ī
è£ħ éħį
åİ» äºĨ
åºŃ éĻ¢
æ¦ ´
ä¹ĺ è½¦
åİ¨ æĪ¿
ç§ī æī¿
åħ¬ åİķ
ä¸į ç»Ŀ
ä»¥ æĹ§
å¼Ģ èĬ±
çĤ¹ äº®
äº¤ äºĴ
éĹ¨ æ§Ľ
æ¡Ī æ¶ī
é£İ éĽ¨
éª Ħ
æĮī æľĪ
è´¢ éĻ©
æ¥ ł
å¡« è¡¥
åĲ ŀ
åĴ ³
éĺ Ģ
å¼Ģ è¡Į
å¼Ģ ç¥¨
æĸĩ çĮ®
ä¸ī åĮº
åĨħ è®¾
æĶ¯ æŁ±
æķĻ ä½ĵ
æºĲ åľ°
åįģ è¶³
è¿Ļ ä½į
æ¸ħ è¿Ĳ
ä¸¥ è°¨
å¿« çļĦ
å®ģ åĮº
çģ¯ åħī
éľĩ æħĳ
æĭ¿ åĪ°
V R
Ġ çŃĶ
å¸Ĥ åŁŁ
æłĩ æ³¨
èĥ½ çº§
éģ £
ç²¾ åĬĽ
10 9
ç¾İ æĻ¯
éĢĤ åº¦
éĩİ å¤ĸ
éªĹ åıĸ
æ´Ľ éĺ³
S T
Ġ åľ°
ä¸Ĭ æľĪ
æĪĲ äºº
éĢļ ä¿Ĺ
äº¤ æ±ĩ
åĽĽ å±Ĭ
è´Ł èį·
æĶ¾ å¤§
æŃ¤ åĲİ
è¯¥ æł¡
è®² æİĪ
è¡Ĺ å¤´
åıĮ åĪĽ
å¾· å®ı
åĩł åįģ
Ċ Ċ
Ġ åİ¿
å® ł
ä½ľ çļĦ
å¤§ éĹ¨
å¤§ èĦĳ
å®ŀ ç»©
åħĥ æĹ¦
æĿĳ å±ħ
éĽĨ éķĩ
æĽ´ åħ·
ç¡® æľī
åĩı åįĬ
çĮ ľ
Ġ2 1
æĭŁ æ´¾
ç¿ Ł
é¥Ń åºĹ
æłª æ´²
æĭľ çĻ»
âĪ ļ
: âĢľ
æĹ¥ æĺ¯
åĪ¶ çļĦ
éĺ² åŁİ
ç¾İ å®¹
è£ ¹
éħį çĶµ
4 50
i c
å»º å¼º
ä¸į é«ĺ
éķ¿ æĿİ
åķ Ħ
èģĶ è°Ĭ
æĢ» è£ģ
ç²¾ åº¦
å¹¿ åħĥ
åĮĹ æµ·
èĢĮ æĿ¥
åĻ¨ åħ·
åºĵ åŃĺ
éĤ£ ä¸ª
å·´ é»İ
æºª åİ¿
èļ Ĭ
å´ĩ å·¦
éĺ´ æĢ§
G P
äºĨ è¿ĳ
åŃ¦ å®¶
è½ ©
åĪ° äºº
æ°´ ä¸ĭ
è®¡ æıĲ
ä¼ĺ ç¾İ
ä»İ ä¸Ń
è± ¹
æĴŃ åĩº
çķĻ åľ¨
çĨ Ļ
å¥¥ è¿Ĳ
è¿Ī è¿Ľ
é¹¤ å£ģ
ä¸Ģ äºĮ
ä¸Ń æĸĩ
ä¸º é¢ĺ
ï¼ļ ï¿¥
äºĭ åīį
ä½į åĪĹ
éķ¿ çĻ½
å¹¶ éĩį
æĬ¤ æłı
æİ¥ åĬĽ
å¤ĩ æĪĺ
å®£ åĳĬ
æŀĹ æľ¨
çľŁ æĺ¯
çľŁ è¯ļ
æįŁ ä¼¤
æĬ½ è°ĥ
çĨŁ ç»ĥ
% ï¼ī
Ġ å¾Ĳ
ä¸ļ é«ĺ
ä¸º æŃ¢
çľģ éģĵ
ç³» æķ°
èĲ¥ åĪ©
åįĹ åħħ
å®£ æķĻ
ä¸¤ ä¸į
ç»¼ æ²»
é¾Ļ å²©
å¥ĭ åĭĩ
å¤ª æ¹ĸ
æĬĹ æĹ¥
çħ ®
è¸ Ĭ
ä¹ħ ä¹ħ
éĽ· è¾¾
æ¶µ åħ»
æĤł ä¹ħ
æĭ© ä¼ĺ
Ġ ï¿¥
ä¸Ģ çªĹ
ä¸į æĢķ
æľĪ èµ·
éķ¿ çİĭ
åīį çŀ»
è·¯ ç½ĳ
ç«ĭ å¾·
ç© ´
è¿ĺ éľĢ
èº« å½±
çĹħ æĥħ
åıĮ è´£
è¯ļ å®ŀ
æºª éķĩ
éĩİ çĶŁ
éĤ» å±ħ
æ¹Ľ æ±Ł
âĢ ķ
å®¶ æĹı
ä¸İ å¸Ĥ
åħļ åĬ¡
æĿ¥ æ°´
æĬ¥ å¤ĩ
ä¼ł åĶ¤
æĢ» ä¼ļ
æİ¥ åľ°
ä¸¥ çļĦ
äºī å½ĵ
åĦ Ĵ
å¥ĸ æĥ©
æĮ¯ å¥ĭ
25 00
åĪĺ æŁĲ
äº® çļĦ
æĿ ŀ
èĢ ¶
åĲĪ éĢĤ
åĬł åĿ¡
å°ı äºİ
çĶµ æºĲ
ä¹¡ å¸Ĥ
æ¯Ķ æŃ¦
çĿĢ éĩį
æ¢ Ĺ
åĦ ĭ
é»Ħ èī²
æ²¹ èıľ
èĭĹ æĹı
æ¸¡ åı£
åİĺ ç±³
Ġ P
å¼ Ĺ
æľī è¶£
å¤§ å®Ĺ
æ² ¥
èģ ª
æłĩ ä¹¦
ä¸İ è¢«
çĥ ¹
æĹł åħ³
è¡Ĺ éķĩ
èµ° è¿ĩ
æĹ© åľ¨
æľ¨ é¸Ł
éľ² å¤©
æ¨ª å¹ħ
èī° å·¨
æł½ åŁ¹
ä¸º é«ĺ
æĹ¶ éķ¿
åŁİ çļĦ
æģ ³
æĶ¾ å®½
13 5
åĲ¦ åĨ³
ç³ĸ å°¿
è¾Ľ èĭ¦
å·¥ è´¸
æİ ©
åľ¨ åħ¶
æľ¬ æľŁ
æĬ¥ æĸĻ
è½¦ ä¸»
æĽ´ æ·±
åįģ åł°
åĽĽ ä¸Ń
å®Į å¤ĩ
ä¸¥ æĺİ
æĬĬ å¥½
çľĭ å¾Ĺ
çĪ± çļĦ
æĬ¢ ä¿®
ä¸² èģĶ
æ£ī èĬ±
åĴ ±
åĳ µ
æľī èī²
è´¹ çİĩ
ç² ½
è®° å¾Ĺ
æµ· åĮº
åĽĽ é£İ
èĪ Į
èĬĤ åīį
èĢģ æĿ¿
å¼ķ æīį
ä¾Ŀ æĹ§
æ¨ Ĭ
åĮħ å¤´
åĽŀ èĲ½
ä¸° ç¡ķ
åıª éľĢ
ç»ĥ åħµ
èªī ä¸º
å¥ĳ åĲĪ
-- --
âī ¤
å¤§ åĲĮ
åĽ½ çļĦ
å±ķ é¦Ĩ
ä¸Ĭ é¥¶
å¯¹ åħļ
èĤ ¢
ä¸ī æ¥¼
ä¸ľ æµ·
åĭ ĭ
åĩı åĢ¼
èļ ģ
åĭĺ æİ¢
è¸Ĭ è·ĥ
ä¸Ń å¸Ĥ
ä¸Ń æľŁ
å¹´ ä¸Ģ
çĽ® åħī
æľº çļĦ
äºĮ æĿ¡
æĶ¶ åıĹ
è®¤ æ¸ħ
åĩı è´Ł
å®ģ å¾·
æ¸© å®¤
åįł æĢ»
éĢĢ åĽŀ
çľ¼ åīį
ç©¿ æ¢Ń
åĨ² éĶĭ
æ¥ļ éĽĦ
ä¸Ģ å¿ĥ
å¼Ģ å°ģ
æĺ¯ ä»İ
åħ³ åı£
åĬł è£ħ
ä½į çļĦ
çī¹ æĢ§
ä¹¡ é£İ
åħĪ çĥĪ
æĺĵ æĩĤ
çĥŃ å¿ĥ
ä¸ĥ ä¸Ģ
17 0
ç»ĥ ä¹ł
å·¨ äºº
æĿ ī
ä¸Ń æīĢ
éĻ Į
å®ŀ æĵį
ä¼ļ åīį
åĮĸ æĸ°
å±Ģ åľ°
ä¸ī ä¸Ń
ä¸ī ç±»
åĨľ åī¯
æģ ¤
éĢł ç¦ı
åĽĽ è¦ģ
æĿĥ å±ŀ
ç¦ Ħ
èĢĮ åĩº
åıį èħĲ
ç¨³ ä½ı
ç¤¼ åĵģ
åĲĥ é¥Ń
çıł å®Ŀ
B A
å¹´ åįİ
è¿Ľ è´§
ä¸į éĶĻ
æĬ¥ å¸Ĥ
202 6
æ±Ĥ è¿Ľ
æīĵ åĮħ
æ¢ ĵ
é£Ł æĿĲ
è¯ķ çĶ¨
èĬ± çĶŁ
ä¹Ĳ è§Ĥ
è°Ī å¿ĥ
è¯Ĺ æŃĮ
Ġ )
Ġ M
ä¸Ģ çĽĺ
åľ° è¡¨
ä¿Ŀ è´¹
æ²» æ°´
ä»İ å°ı
éĴ ĵ
å¿ħ å°Ĩ
ä¾¿ æĺ¯
æħ ķ
åįĥ éĩĮ
é²ľ èĬ±
è¿Ī åĲĳ
åĭĺ æŁ¥
åħľ åºķ
Ġ é©¬
Ġ åĿĢ
ä» ķ
åĮº åĪ«
ä¸į æĥ³
æľ¬ çĿĢ
éĺ² æ°´
ç² ĺ
éĢł åŀĭ
æĮĩ æİ§
èĲ½ èĦļ
æµİ å®ģ
ä¸¥ å¯Ĩ
æĤ ²
æ¯ı ä½į
çģ¾ åĮº
å®Ī çī¢
çŁ© éĺµ
è¦ģ å¯¹
æĸ½ èĤ¥
éģĵ çļĦ
ä¹ĭ å¿ĥ
éħ ±
æ¸¸ è§Ī
éĴ Ļ
å®¤ çŃī
éĶĢ æ¯ģ
Ġ åİŁ
ä¸Ģ å¦Ĥ
æ° Ł
åħ¨ èµĦ
20 000
æ² ģ
åĪĨ ç»Ħ
æľ¬ åĮº
åĵģ å°Ŀ
ç»Ħ ä»¶
äºĶ åĽĽ
åŀĭ åı·
12 8
æ¼Ķ ç»İ
é¡º åºĶ
èī° éļ¾
è½¿ è½¦
åĮĸ ä¸º
æ± ģ
ä¸Ĭ éĻĲ
æ°ĳ åħµ
æľĪ æľ«
åºĶ æĮī
ç½ĳ çº¦
ä»İ æľª
ä¹Ł å¾Ī
æĴ ¬
çģ« çĤ¬
å¥³ åŃ©
ä¸ĥ ä¸ª
é»ĳ èĩŃ
è¯Ń éŁ³
å½Ĵ éĽĨ
å°º å¯¸
æŀ« æ¡¥
å½¼ æŃ¤
èĶĵ å»¶
Ġ ï¼Ľ
ä¸Ģ éĥ¨
æķ ŀ
è¡Į èµ°
åľ¨ ä¸Ń
æĺ¯ å¤§
åĪĨ åĢ¼
ä¸ī æĺİ
éĻ¢ åĨħ
æĽ´ å¼º
ä¹ĭ åĬĽ
æµģ åħ¥
æ» ģ
æ°Ķ çļĦ
å¾ģ åħµ
æ±ĩ æ¬¾
ä¸½ çļĦ
åľ ©
äºº æĿĥ
ä¸Ĭ åĳ¨
åıĬ åĲĦ
éĿ¢ ä¸Ĭ
æĺİ çıł
éĹ® çŃĶ
çī¹ æ´¾
åĽ¢ åĳĺ
é£Ł çĽĲ
æĻº éĢł
Ġ2 5
ä¸´ æ¸¯
éģĹ ä¼ł
ä»¿ ä½Ľ
åŀ« ä»ĺ
æĢ ĸ
çİ «
éĥ ´
ä¸į ä¸Ĭ
æĹ¥ åĪ¶
åĬĽ æ±Ĥ
éĩį éĺ³
éĢļ èĥĢ
éķ¿ åº¦
åı¯ ä¸º
è¿Ļ æł¹
æŃ£ å¦Ĥ
åįİ äºº
è½¬ è¯Ĭ
èº º
çŃ¾ è¯ģ
éĻµ åĽŃ
æľĹ è¯µ
į åį«
ä¸Ń æ¯Ĵ
æ³ ª
å¤§ ç±»
å»º åĽ½
å»º æĸ°
å±ķ åĩº
åĩº åľŁ
åºĶ è¯ī
ä¸ĭ æĹ¬
åħ¥ èģĮ
åķĨ è¶ħ
æºĲ äºİ
å¸¸ å¸¸
æĹł ç¼Ŀ
çģ« è½¦
å·Ŀ æ¸Ŀ
æı´ çĸĨ
å¤ľ å¸Ĥ
æĤ¨ å¯¹
æĤ¨ å¥½
æĥĬ åĸľ
I M
çļĦ æľĢ
ä¸į åĬĽ
å¼º éĻ©
ä¸İ æĸ°
éĹ´ æĸŃ
æīĢ æľª
éĽĨ ç»ĵ
æĮĩ æ´¾
ä¸ľ å¸Ĥ
é»Ħ çŁ³
åıĪ è¦ģ
æµĵ æµĵ
æ¸Ķ èĪ¹
æģĲ æĢĸ
æĪ İ
ä¸Ģ åĿĹ
æ£ ł
èĩ³ åħ³
åįİ åįĹ
ä¹ī ä¹Į
éĿĴ éĵľ
ç»Ļ æĪĳ
çŃ¹ éĽĨ
å·® åĪ«
ç¼º å°ĳ
èĻ« çĹħ
: "
äº Ł
çļĦ é¦ĸ
åħ¨ æĿĳ
ä¸į ç¬¦
å¿ĥ çģµ
åĨħ å¿ĥ
åĲİ å°Ĩ
ä¸ĩ ç«ĭ
ä¸ĩ äº¿
åįİ ä¸ľ
æĹł ç§ģ
æŃ¤ ç±»
è¿ģ ç§»
æ³° å±±
æıı ç»ĺ
éĻ· åħ¥
ä½Ĳ è¯ģ
N G
Ġ éĩĳ
ä¸į çķĻ
åħĥ æķ´
ç«ĭ æĶ¹
ä¹¡ äº²
è§Ĩ åĲ¬
çĥŃ éĹ¨
åį± åĮĸ
æĬµ åĪ¶
æħ¢ æħ¢
æįĲ æ¬¾
æļĳ åģĩ
Ġ å½ĵ
å¯¹ è¢«
ä½ĵ è´¨
æĪĳ å§Ķ
æ¡Ī åį·
å°± é¤Ĳ
ä¸¥ æİ§
å¸Ī å¾·
11 4
éĻį å¹ħ
Ġ2 4
æ¶ī ç¨İ
çĥŁ çģ«
åı Ķ
å¹´ åľ¨
æµ ĳ
çī Ł
éĥ¨ çŃī
ä¸ĭ è°ĥ
å¿ĥ èĦı
çĤ¹ å¯¹
æĿ¥ ä¹ĭ
æķĻ èģĮ
èĮ ¨
éĻĲ åĶ®
éħ Į
æİĴ å¤´
åĽŀ æĿ¥
èŃ¦ åĬĽ
Ġ2 2
é©¬ æĸ¯
æĭŁ ä»»
é½Ĳ èģļ
èĶ ½
èµ£ å·ŀ
çļĩ å²Ľ
åīª çº¸
æĹĭ å¾ĭ
A pp
ä¸Ń èĢĥ
ï¼ļ /
åºĶ æľī
åķĨ åľ¨
ä¹¦ ä¹ĭ
å¤Ħ çº§
æĶ¶ èĹı
ç½ĳ ä¸ĭ
è¿Ļ ä¹Ł
çī¹ äº§
æĪ¿ éĹ´
äº¬ åī§
æĺ¥ å¤©
è§Ĵ éĢĲ
Ġ æĺ¯
çŃī åľ¨
æĹ¶ æĹ¶
ä¸ĭ è¡Į
å¥½ è½¬
åķĨ åŁİ
åİ¿ å¸Ĥ
ä¹¦ åıĬ
å¤Ħ éķ¿
å¢ŀ èµĦ
ä¼ł å¯¼
ä»· çļĦ
æĹł çĸĳ
æ¸ħ ç®Ĺ
è®© ä»ĸ
ç»´ ç¨³
è®¿ è°Ī
æ²¹ èĮ¶
åİĤ åĮº
å£ģ åŀĴ
è¡į çĶŁ
èµ ĵ
åıĳ çĹħ
å»º åįİ
å¼Ģ åħ³
çĶ¨ é¤Ĳ
åī Ĭ
ä¸ī ä½į
åĢ ª
éĹ® åį·
æ±Ł åĮĹ
è¿ĺ ä¸º
èĳ Ĩ
åĳ½ ä»¤
æĦ¿ æĻ¯
é¡» åľ¨
åıĪ æĺ¯
çŃĶ æ¡Ī
åĭĩ æ°Ķ
èħ¾ è®¯
æŀĿ èĬ±
ä» Ł
æĸ ©
æ³ Ĺ
ä¸į æĹ¶
åĲĪ éĩĳ
æĹ¥ æĳĦ
ä½ĵ å½©
çľģ åŁŁ
ç³ Ĭ
å°ı å··
éĻ¢ åĴĮ
çī© æĸĻ
æŀľ èĶ¬
æĦŁ çļĦ
è¯¥ æĿĳ
11 8
çģ« ç®Ń
13 00
åıĪ ä¸Ģ
æĸ¯ çī¹
èĤī çīĽ
æ¸Ķ æ°ĳ
çº½ çº¦
èĢĹ æĿĲ
è¾Ľ åĭ¤
çļĦ åı¤
ä¹ Ĵ
äºĨ åľ¨
ä¸į å®¹
éĽ Ģ
æľŁ æľ«
æĬĢ æĶ¹
åĪĽ å®¢
æ·± æ·±
æ® ¿
ä¸¥ ç®¡
éħį åĶ®
è®² å¸Ī
èµ° å¥½
è½½ äºº
èıľ åįķ
è¡Ģ èĦī
æĳĬ ä½į
3 20
ä¿ ŀ
åľ¨ åĲĦ
å®¶ ä½ı
æľº åĬ¨
æİ¨ åĲĳ
å§Ķ åī¯
çľģ å¤ĸ
ç§ĳ æķĻ
ç½ĳ æ°ĳ
åĲĳ ä¸ľ
ä¹ĭ åľ°
å¦ ¨
å¤© æķ°
ä½ı æĪ·
å·¡ æ£Ģ
åįĥ ä¼ı
åª Ľ
å®ĺ åĳĺ
å¥¹ è¯´
èĭĹ æľ¨
èĿ ¶
ä¸Ģ ç±»
ä½ľ åºŁ
å¤§ èĥĨ
åĽ½ åĢº
æıĲ çĤ¼
ä¸» è´£
ç²¾ å¯Ĩ
èį «
æľĢ ä¼ĺ
æĭĽ åĭŁ
åĽŀ æĹı
å¸® å¿Ļ
é¦Ĩ çļĦ
è¯Ń æĸĩ
éĺµ éĺµ
æĳĺ è¦ģ
åŃ¤ åĦ¿
æł ĵ
ä¸Ń åİ»
å¹´ è´§
åĮĸ çŃī
ä¸ĩ èĤ¡
ä¹ĭ å¤Ħ
æĹł è¯ģ
æŀĹ ä¸ĭ
åĭ ¿
å®Ī åľŁ
é¢ĳ çİĩ
ç¼º å¤±
æ·® åĮĹ
åħĳ æį¢
åŀĦ æĸŃ
E S
Ġ åĲ¦
äºº æľª
åĴĮ åıį
å¹´ éĹ´
ä¸į ä½Ĩ
æĺ¯ æĪĳ
æĹ¥ ä¸º
åħĥ åıĬ
ä¸ĭ æ»ĳ
ç¤¾ çļĦ
å°ı ç±³
ç¥ Ģ
å®¹ åĻ¨
æĢ¥ è¯Ĭ
ä½Ļ ä»¶
æĹ© å·²
å« ©
( [
A A
O S
Ġ 2017
æĹ¶ æľº
ä¾ ł
è° ¦
ä¸ĭ æŃ¥
å±Ģ å±ŀ
èĩª ç«ĭ
æºĲ åİ¿
æİ¥ åı£
èĬĤ çļĦ
æŀľ åĽŃ
æĺ¾ çİ°
éº ĵ
âĳ ¢
éļĨ éĩį
0000 00
æłĸ æģ¯
çļĦ æīĭ
ä¸Ģ åĪ»
å¤§ ç±³
åĮº åħļ
åĮĸ éĥ¨
èµĦ ä¿¡
æį įåį«
åķ ¥
æį® æŃ¤
éħ ¯
åħ´ å¥ĭ
ç¢³ æ±ĩ
èĽ ĩ
çºµ åĲĳ
æ£ļ æĪ·
" ãĢĤ
çļĦ å¤ĸ
ç»ı æĻ®
éķ¿ å¼ł
æĬ¥ çº¸
éĹ¨ åīį
è½¦ ä½į
ä¹ĭ æīĢ
éĻĲ æĹ¶
åįĹ å±±
åįĹ æ²Ļ
è¯Ħ æŁ¥
è´¢ ç¨İ
çĹ ¹
å®¢ åİħ
èµ° ä¸Ĭ
ä½Ļ é¡¹
æ¼Ķ èīº
åºĨ åĮº
åºĹ éķĩ
ä¸½ æ°´
åĨ° åĨ»
æĽ¾ åľ¨
æµª æ½®
éĿ¶ åĲĳ
ç¼ħ æĢĢ
]ãĢģ [
Ġ D
ä¸º ä½ķ
æ°ĳ è¿Ľ
èĥ½ åľ¨
åħ¥ åĽŃ
è¿ĩ æĪ·
åŁº ç«Ļ
ç§ĳ çº§
ä»ĸ è¿ĺ
æĬ¤ æŀĹ
èĢģ åĮº
è£ ¸
èĩ´ è´«
è¾¹ çļĦ
èįī èİĵ
è·¨ çķĮ
åĢ¾ åĲĳ
ç¥Ń æī«
è¡· å¿ĥ
çĶ Ħ
åĮº åĪĨ
å»º çļĦ
ä¸į æ¼ı
éĩı ä¸º
åĲİ åĨį
åĲİ åįĬ
åĮ» ç§ĳ
åı· çļĦ
è½¬ èĤ¡
éĴ ¥
æī¿ ä¿Ŀ
å®Ī å¥½
éĢĤ é¾Ħ
ç¦» åŃĲ
éº Ł
æµª æ¼«
æıŃ ç¤º
éĢĥ çĶŁ
Ġ æµ·
æľ Ķ
å®ŀ æĥł
çŃī ä¸į
é« ĵ
é«ĺ å±±
éĩį ä»»
åĲĮ åŁİ
åºĶ æĶ¶
æĪĳ åĴĮ
å¤Ħ æĸ¹
å¹² æī°
åı£ éķĩ
11 1
è¯Ŀ è¯Ń
èĩ´ æķ¬
è¿ŀ çīĩ
å¾Ģ è¿Ķ
çĭ¬ åħ·
æĭ¥ æĬ±
éĢĶ ä¸Ń
å²³ éĺ³
èªĵ è¯į
l e
åº Ĳ
ä¸ī åľ°
è´¨ çļĦ
åķĨ äºĭ
æĶ¶ åĲ¬
èĬĤ çľģ
è¥¿ åİ¿
éĢī çĶ¨
å¤± æķĪ
14 1
éĵģ åĨĽ
ç®Ģ åİĨ
å®ľ ä¸ļ
æĻļ ä¼ļ
æ¦Ĥ çİĩ
ç° ¿
ä¸Ī å¤«
I I
äºº æĺ¯
ä¸Ģ çĻ¾
å»º å¥½
åĩº åİ»
å®ļ ä¹ī
ç¨ į
00 1
éļ ¶
ç½ĳ é¡µ
æ·± æĥħ
ç¦ı çĶ°
ç«ŀ æłĩ
çŁŃ çŁŃ
åĲī ç¥¥
çŀ ©
èµ¶ è¶ħ
çļĦ å®¶
ä¸Ģ ç»ı
åĴĮ ä¸Ń
åıĳ æĸĩ
æŀ ¯
é¡¹ çļĦ
ä¸ª çľģ
å¼º éĵ¾
ä¸ĩ å¤ļ
å®Į ç¾İ
éħ µ
é¦ĸ åıĳ
åĲ¬ åħļ
çŃ¹ æİª
å¨ ±
åįĥ åħĥ
é¼ĵ æ¥¼
éĻĨ æµ·
æ´ĭ æº¢
éº» çĹ¹
é¥² åħ»
åĴĮ ä¸į
è§ ħ
ä¸º åĬŁ
é¢ ł
åĩº éĹ¨
æ¸ ´
åĪ° åľº
çĤ¹ çĩĥ
ä¹¦ å±ĭ
å®¡ æħİ
æ°Ķ æģ¯
11 9
äºĴ è®¤
åı¤ èĢģ
æłĳ äºº
éķľ å¤´
æįķ æįŀ
ä¼ª éĢł
Ġ åĽ¾
åĪ ®
æ° ¯
æľī æĹ¶
æľī çĽĬ
å¤§ åĴĮ
åĬ¨ èĦī
æĺ¯ ä¸į
æĺ¯ ä¸ª
åĪĨ æľŁ
æĦ ī
ä¸ĭ è®¾
åĨħ çĶŁ
çĿ Ĳ
è®® æĶ¿
å¢ŀ äº§
éĢī èģĺ
11 7
åįł æį®
è¶Ĭ åįĹ
åĪĬ åıĳ
æ¯« ä¸į
éĤª æķĻ
é ¬
çļĦ æµ·
å· į
ä¸Ģ éĶ®
æĭ £
éķ¿ å»Ĭ
è®¡ åħ¥
äºĮ ä¸Ń
åĲį èĥľ
äºĶ å±Ĭ
ç¼ĸ åĨĻ
åĽ¾ åĥı
é©¬ è·¯
ä¼ĳ åģĩ
åºĦ éķĩ
å®Ĺ åľ°
çĸı éĢļ
åĨ¶ éĩĳ
è¢Ń åĩ»
èĲĿ åįľ
èµĵ ç»Ń
å¸Ĥ æĸ°
å¤§ çº¦
è¿Ľ åİ»
æ± Ŀ
çİ° å¯¹
å¿ĥ äºĭ
å¿ĥ æĢģ
ä¿¡ åĩ½
äº¤ ç»Ļ
å¾Ĺ å¥½
å®¡ ç¾İ
æķ´ è½¦
åįİ åĮĹ
éĿĴ çĿĲ
çľĭ è§ģ
èī¯ ç§į
éĺµ éĽ¨
æĲŃ éħį
çģµ éŃĤ
æķ¬ æĦı
éĵº è®¾
èįĨ éĹ¨
çļĦ è¿Ľ
æľī å¾ħ
èĩª è´Ł
æ°´ éĩı
éĽĨ æķ£
çī¹ éķ¿
æł¸ æ¡ĥ
å¤į æŁ¥
çŁ ¢
11 00
ç¨³ å²Ĺ
ç¼ĸ åĬŀ
éĻį èĩ³
èĪª æ¯į
æ´¾ éģ£
èĦļ æŃ¥
æ¶Ĥ æĸĻ
ç¥Ń ç¥Ģ
3 18
å¹´ ä¸ĭ
æĹ¥ ç¨ĭ
ç»ı å¸Ĥ
åįķ åĲĳ
ä¸ĩ è¾¾
èĤ² èĭĹ
ä¹ĭ æĥħ
æĬ¤ çħ§
æĿĥ è´£
æĪĺ æľ¯
çĽ´ è§Ĥ
çŁ³ æ¦´
åĸľ éĹ»
åĶ± åĵį
ç¯® åŃĲ
__ __
G C
åıĳ è¯ģ
è¿Ľ æĿĳ
åĲĪ å½±
éĩį åŀĭ
æĿ¥ æĬĵ
æĺİ æĻ°
åĲį æľ¨
å®£ èªĵ
çľŁ æĥħ
åºı å¹ķ
è¾ĥ å¿«
çĻ½ èī²
ç¦» èģĮ
æī© å¼ł
æļ´ éľ²
æ¡ĥ èĬ±
å¡ŀ å°Ķ
æ±ķ å°¾
Q Q
o u
å® Ľ
å·¥ åĿĬ
ä»¥ æĸ°
åŃ¦ åı²
åĲĮ å¹´
åĪ° ä½İ
æĪĳ éķĩ
åħĪ å¯¼
è¯¥ éķĩ
è¡¥ éĵ¾
èı ±
å·¡ æ¸¸
åįĬ å²Ľ
ç¼º å¸Ń
æĲŃ è½½
æķ¬ ä¸ļ
çĺ ¦
äºº ä¿Ŀ
ä¸ļ çŃī
æ³ Į
åħ¬ çº¦
æľī æĹł
çĲ ħ
è¿Ľ æĿ¥
æ°ĳ çĶ¨
ä¿Ŀ æľī
åĬł æ²Ļ
éĢļ èĪª
æĬķ åĲĳ
æĽ´ å¿«
æµ· èįī
ä¸¤ æĿ¡
éĵ¶ ä¼ģ
åĿĩ åľ¨
å¤® è¡Į
åĻ¨ ä»¶
ä¸° åİ¿
æŃ¦ å¤·
å½© èī²
é¢ģ å¸ĥ
è¸ı åĭĺ
åł¤ éĺ²
i s
Ġ R
çļĦ è½¦
æ³ ¼
æ± ¾
åĩº å¢ĥ
å¯¹ æĬĹ
ç»ı çºª
åĪ¶ èį¯
äº¤ æİ¥
éĩı åŃĲ
åįģ ä¸ª
ä¸ľ åİ¿
åĨĽ å§Ķ
èµĽ åŃ£
çŃ¾ åıĳ
åħ« å¤§
æ±ĩ éĽĨ
å®ľ æĺĮ
ä¹± è±¡
é»İ æĹı
ç¨½ æŁ¥
çİ« çĳ°
è¦ģ ä¹ī
ä»¥ çĤ¹
çĶ¨ çģ«
éĥ¨ å§Ķ
åħ³ èĬĤ
åºĶ çĶ±
ç¬ ĭ
å¤ļ çĤ¹
ä¸ĩ å¤´
éľ ľ
çķ ´
ä¸ľ æ¹ĸ
ä»İ å¸Ĥ
æľĢ éķ¿
è½¬ åĢº
ä½ı åĿĢ
ä»ĺ æģ¯
åĬŁ çİĩ
çİĭ åĽ½
æİĪ çīĮ
é©» è¶³
è·ĳ èħ¿
å¾Ĳ å·ŀ
çīĽ èĤī
æĬĺ æī£
ç¾½ æ¯Ľ
Ġ E
äºº ä»¥
å¹´ ç»Ī
åĩº ä¸Ģ
æĺ¯ æľ¬
æĭ Ĳ
æ¸ Ĭ
æĮģ è¯ģ
æĪĳ æĥ³
æĢ§ åĪ«
çº§ çļĦ
éķĩ æ±Ł
é¦Ĩ çŃī
çŁŃ ç¼º
in g
æĬļ æģ¤
æĹº åŃ£
çĪ· çĪ·
æŀ£ åºĦ
åµĮ åħ¥
æ©¡ èĥ¶
e t
Ġ T
è¡Į éķ¿
ä¸į ä¸ĭ
èĤ ¾
èĥ½ æīĭ
äº¤ è´§
ãĢĬ âĢľ
æ·± åİļ
æīĵ éĿŀ
å² ļ
å·² çĶ±
åĽŃ çŃī
è´¢ åĬĽ
ç½ļ æģ¯
åİĨ æĹ¶
æ¹ĸ æ³Ĭ
äºĴ éī´
çł´ éĻ¤
200 1
åİĤ åķĨ
æ°¸ èĳĨ
åĪļ æĢ§
æģ¶ æĦı
åŃĿ æĦŁ
Z C
Ġ åŃĻ
âĢĿ ï¼Ł
å¹´ åĳ³
æĶ¿ ç»©
åĬł åī§
éĩį å¿ĥ
æĸĩ æĺĮ
å¿ĥ æĥħ
æł¼ å¤ĸ
å¤ĩ æŁ¥
æ» ķ
è§ģ åĪ°
æĪĺ çļĦ
æĤ Ħ
éĥ½ å¾Ī
äºļ å¤ª
æĸĹ å¿Ĺ
éĢĴ è¡¥
è¯ļ æĮļ
åºŁ æĹ§
å¤ı å¤©
æķ¬ è¯·
ï¼ĳ ï¼
ä¸Ģ æĸ°
æĢ ł
å¥ Ī
æłĩ é¡¹
èĩª é©¾
åı¯ è§Ĩ
å¹¶ æĹł
åĲĳ éĺ³
åĽĽ æĸ¹
æľĢ åĪĿ
ç±» çļĦ
æĺĵ ä¿Ĺ
èĦ Ĭ
æĵį çºµ
çľ¼ ä¸ĭ
åĸľ æĤ¦
æŃĮ å£°
ï¼ħ ï¼Ľ
Ġ ä»ĸ
Ġ è¥¿
åħ¬ æĬ¥
å®ī éĺ²
æľ¬ åĳ¨
éĶ £
å¤į åŀ¦
è¯¥ æ¡Ī
åĩı éĩı
ä¹Ĳ å±±
ç»Ī çĤ¹
ç¼º åı£
çĴ §
æĴ¬ åĬ¨
Ġ åıĹ
ä¸Ģ åı°
ä¸į æŃ¢
æĺ¯ æľī
æĪĲ æīį
è¾ ±
æĸĩ èģĶ
åĨħ ç§ĳ
åĪĽ ä¼ĺ
ç«ĭ è¡Į
è®¤ ç½ª
è¯Ħ æ¯Ķ
æĹł å½¢
æī¿ è®¤
ç»´ äºļ
éĿŀ åĩ¡
åħī çĽĺ
åĦ¿ ç§ĳ
åĻ¨ çļĦ
å®Ŀ é¸¡
è·Ł éļı
çĩĥ æ²¹
ç¬Ķ èĢħ
ç¬Ķ è®°
æķ¬ çķı
æ»ĳ åĿ¡
æŁ³ å·ŀ
åİī è¡Į
C O
åĪ ł
åĮ Ģ
æĪ ļ
äºº åĪĺ
ä¸Ģ å±Ĥ
éĢ Ĭ
è¡Į äºº
ä¸º èĢģ
çĶŁ æ¶¯
æĥ §
å®ī é¡º
åĪĨ å±Ĥ
ä¸ī å®¶
è§£ æĥĳ
ç¥ ł
åĩĨ äºĪ
è¿ĺ åı¯
æµĭ æ¸©
11 6
éĿŀ ç¨İ
å·¨ æ½®
ç¹ģ å¿Ļ
P E
a c
Ġ G
çļĦ ç¬¬
å¿ĥ æĦ¿
ä¸İ æĹ¶
éķ¿ å¯¿
è¿ĩ æ¡¥
æ²» æĦĪ
æĶ¹ ä¸º
é¢Ĩ è·ĳ
éľ ĸ
åı· çŃī
ä»· ä¸º
æ±Ł æ´¥
æĢ¥ æĢ§
ç´§ æĬĵ
ç§» é£İ
è¡Ģ ç³ĸ
A R
q u
Ġ èĢĮ
ä½ £
åº ¸
ä¸Ģ ä¸Ń
å¸Ĥ éĽĨ
ä½ľ åĿĬ
æŀ ¸
åĨħ éĻĨ
è·¯ æ¼Ķ
èģĶ ç¤¾
è¿Ĳ éĢģ
è¿Ļ ç±»
åįİ å¤ı
åĽ¢ çļĦ
åıĺ çļĦ
ä¿® çĲĨ
åĶ® åįĸ
é¾Ļ åįİ
Ġ2 6
åºķ æ°Ķ
åİĭ åĩı
ç¤¼ åłĤ
èµ¶ åĪ°
æĻĭ åįĩ
ç¢§ æ°´
a s
å¿ »
ä¸į æģ¯
åĩº åĢŁ
ä¸ī æĹł
æĶ¶ æ¬¾
è´Ń éĶĢ
åįģ åĩł
æ»¡ äºĨ
æĦ¿ æľĽ
æ¿ ®
æĥł åĨľ
çķĻ åħļ
ä¸Ķ åľ¨
éľ² èĲ¥
éĴ¢ çŃĭ
æ¦Ĥ è¦ģ
çİ© å¿½
I S
L P
ä¸Ģ åĵģ
è¡Į è½¦
ä¸º äºº
çĶ¨ æ³ķ
ä¸ĭ éĿ¢
äºİ æ°ĳ
å¿ĥ å¾Ĺ
å¤ļ ä¸ĩ
å¹¶ ä½ľ
å¹¶ è´Ń
æŃ¥ éģĵ
ä¼ĺ è¶Ĭ
æ¸ħ é£İ
æŀģ åħ·
ç«Ļ çŃī
åĪ« äºº
æķħ ä¹¡
çĭ Ĺ
26 0
èĭ± æĸĩ
åĢĻ éĢī
è¿½ è¸ª
æĬ½ æł·
æ³° å®ī
å¨ģ æµ·
é»ĺ é»ĺ
éĺľ æĸ°
çĦķ åıĳ
æ³Ħ éľ²
2 19
e b
æĺ Ķ
åĴĮ æĿĳ
æĢ ª
ä¸į æ»¡
å¥½ å¥½
éļ Ļ
ä¸ī è½®
å¤Ħ åľ¨
èŀį éĢļ
æ¸¸ åĽŃ
å°ĳ åħĪ
å®¢ åķĨ
éĿŀ æľº
å¸® åĬŀ
æĲ ħ
è½» éĩį
æ½® å·ŀ
çĶ· å¥³
ä¸Ŀ è·¯
çĽ² çĽ®
çĪ¸ çĪ¸
" ãĢģ
e s
i on
çļĦ åĨľ
ä¸Ń æĸŃ
çĲ ¦
äºĨ åĩł
åħ¥ èĤ¡
åĵģ æł¼
åįķ æį®
éĩı èº«
åķĨ ä¸ĺ
è§£ æŀĲ
åı· æĸĩ
æĪĺ åıĭ
æŀĹ éķ¿
æ¯ı åĪ°
ä¾ĭ è¡Į
åĽ¾ æĸĩ
æĺ¾ å¾Ĺ
æĶ» åħĭ
å·´ è¥¿
ç¤¼ çī©
åĳ¼ å£°
Ġ 00
éĹ µ
æ² Ĳ
äº§ åĮº
éĥ¨ åĴĮ
é«ĺ é¢ĳ
çĿ ¦
æ¶ ª
èĮ Ħ
ç²¾ ç®Ģ
è¢« åĬ¨
è¾¾ å·ŀ
12 7
çİĩ çļĦ
éĻ¤ æŃ¤
15 02
çĻ» ä¸Ĭ
åĳ½ åĲį
èĻ ŀ
14 00
åħ« ä¸ª
çĦ¦ èĻĳ
äº² èº«
æ¦ ķ
å¤ª ç©º
åºŁ æŃ¢
ç¬ĳ å®¹
ç½ķ è§ģ
æŀ¸ æĿŀ
åĪ ĥ
ä¸Ń è½¬
åľ¨ åĨħ
åĪ° å¤§
ä¸ĭ æĶ¾
ä¸ĭ ç§°
åħļ äºº
èĩª çĲĨ
æį §
å¯¼ æ¸¸
å¤ĸ è§Ĥ
åı· ä¸º
ç¾İ èĤ²
æ²³ åı£
æ¯ı èĤ¡
æ¼Ķ å¥ı
éĻĪ æŁĲ
æĮĳ éĢī
éĶ¦ æłĩ
Ġ H
çļ ĭ
ä¸Ń éĿŀ
ä¸į çŁ¥
å®ļ æĹ¶
æ´ ±
æĸĩ å¹¿
äº¤ åĩº
ä¸ī åĪĨ
ä¸ī çº¿
æĬĢ å·¥
èĬ ¹
æĶ¶ åĤ¨
çī¹ æľĹ
åģļ å¾Ĺ
åĬ© åĨľ
ä¹Ł æľª
è¥¿ æ¹ĸ
äºĶ æĺŁ
åĽł çĹħ
æ¯ı äº©
çķĮ éĿ¢
è¾¹ éĺ²
åĪ¸ åķĨ
å±ĭ é¡¶
åºĦ ä¸¥
æĻļ æĬ¥
ç¼ĵ æħ¢
åĭī åĬ±
a m
Ġ æĹ¶
è®¾ åľ¨
æľº ç¥¨
éĩĳ åŃĹ
èĩª çºł
åħ± é¸£
ä¸ī å¤©
ä¸ľ èĩ³
éª Ĩ
æĿĥ è¯ģ
åĸ ĩ
12 1
å¤´ çļĦ
æĴ ¼
éĻį ç¢³
18 00
åįĥ ç±³
çĩ ¥
æ²ī æ·Ģ
ç¨» çĶ°
å¤º åıĸ
å¿½ è§Ĩ
æĬĳ åĪ¶
æ ª
Ġ å¹¿
Ġ æľª
çļĦ åĩĢ
äºº éĥ½
åħ¬ å¢ĵ
å¼Ģ äºĨ
æĹ¥ çĶŁ
é«ĺ é¾Ħ
å¼º åİ¿
åħ± è°ĭ
æĪĳ ä¹Ł
å¤Ħ ä»¥
æºĲ å¸Ĥ
å¤© æ¶¯
åįı å®ļ
æł¸ åıĳ
æī¹ éĩı
ä¿ĥ æĶ¹
çº¢ æĺŁ
çĹħ ç§į
èĩ´ è¿ľ
æ¥ ·
éĺµ é£İ
æĿĤ çī©
éĶ¦ æĹĹ
èĽĭ ç³ķ
ç»µ éĺ³
ä¹ ¾
ä¸Ń å¯¹
åĴĮ åĮº
åľ¨ å¯¹
äºĨ åĲĦ
ä¸į å¤§
ä»¥ æĽ´
è®® ç¨ĭ
å¼ı ä¸Ĭ
çĽ¸ è¿ŀ
è½¦ ä¸Ĭ
å®¹ å¿į
çĥŃ åº¦
åĽ° æī°
18 5
ç§» æ¤į
æĺĮ åĮº
æĮĤ èģĮ
èĤ¥ èĥĸ
M W
ãĢĤ ï¼ī
å¤ ¸
æĮ £
å»º ç®¡
åĬ¨ çĶ»
ä¸Ĭ è¯¾
æĺ¯ ä¸º
çł į
çĽ¸ ä¼ł
éĽĨ åĲĪ
çłĶ ä¿®
éľĢ åľ¨
æŁ ĳ
å¸¦ çıŃ
è¿Ŀ ç«ł
åıį æĢĿ
ç»¿ éģĵ
æĪª çķĻ
ç§Ģ åĮº
é»ĳ èī²
ç¤¼ ä»ª
åĪĬ çĻ»
9 000
ç ¶
çĶµ æľº
å¤Ħ åī¯
åįģ æ¬¡
è¯· éĹ®
æ¸ħ æĸ°
æł¹ æºĲ
ç§° èµŀ
å®¤ åī¯
åĨĽ åľ°
ä»ĺ æ¸ħ
åĦ¿ å¥³
28 0
è´µ å®ī
æ²¿ è¡Ĺ
æİĮ ä¸Ĭ
èĤĥ çºª
æ±Ĺ æ°´
åŀĤ çĽ´
äºº åĲĳ
ä¹ ĵ
ä¸Ń åĮº
ä¿ ©
åħ¨ æĸĩ
åĬ¨ æīĭ
å¼º åŁº
ä¸ī å±Ĭ
å°ı éĻ¢
ç«ĭ æĸ°
æģ ª
é¢Ĩ çķ¥
å¢ŀ åĩı
æīĢ æĬķ
æĪĸ è®¸
è¿ĳ çĻ¾
ä¸ľ åĿ¡
è¥¿ å¸Ĥ
è¥¿ ä¾§
12 6
å¿Ĺ å¼º
ç´§ è·Ł
çĲĥ è¿·
æ²¹ çĶ°
æ²Ļ çī¹
æĳĦ åħ¥
éĤ® è½®
åĸľ åºĨ
æ¯į å©´
å´ĩ é«ĺ
å¯¿ åĳ½
ä¼ª åĬ£
ä¿± è¿Ľ
Ġ è®©
åĮ Ļ
ä¸Ģ å±Ĭ
ä¸Ń è¥¿
ä¸Ń éĵģ
æĮ Ŀ
å¥ ¢
ä¸ī æ±Ł
åĨħ éľĢ
åīį ç½®
éĹ¨ å¤´
è¯ģ æĪĸ
è¿Ĳ åĬĽ
ä¸ľ ä¾§
æĿĥ äºº
è¢« åĽ°
çĶ± çľģ
å¸¦ éĿ¢
åħŃ åįģ
çıŃ çļĦ
æŁĲ äºĽ
å³ ¨
ç¿ ħ
çĩĥ çħ¤
åħ¼ æ²»
æ´Ĺ ç¤¼
ç»ĺ å°±
å¿Ļ çĿĢ
èĪĴ å¿ĥ
èįĨ å·ŀ
åŃķ èĤ²
ä¹Ĵ ä¹ĵ
ç¶ ¦
Ġ åĲį
Ġ æ±Ł
ĸ åŃĲ
ç» ļ
çĽ Ķ
æĸ° æĹ§
çĶ¨ ä¹ł
å¯¹ ä¸ĭ
éķ¿ åģĩ
æį ¡
æ²» æľ¬
å°ı é¾Ļ
ç²¾ èĩ´
ä¼ĺ å¾ħ
åĽĽ å¹´
è¯´ çļĦ
12 2
çıŃ ç»Ħ
çģ« çĪĨ
é©¬ åºĹ
å¤ª æŀģ
çĩĥ çĥ§
æĹĹ èĪ°
éĢĶ ç»ı
é¢ľ åĢ¼
èİ² èĬ±
O C
Ġ çŁ³
ä¸Ģ è¯¾
åľ¨ ä¸Ģ
åĩº æłı
ä½ĵ éĩį
é«ĺ åĪĨ
é«ĺ æ½®
åħ¥ åľº
åı¸ ä»¤
æĬ¥ åĪĬ
ä»¬ å¯¹
è½¦ çŃī
èĮĥ çķ´
åİŁ å¸Ĥ
åįĹ é£İ
ä¹Ł è¢«
èĢģ åħµ
ç½® ä¸ļ
é¢Ŀ ä¸º
åĨĽ çļĦ
èµĽ åĮº
é¾Ļ éĹ¨
ä»ħ æľī
åĤ¨ èĵĦ
é»ĳ æģ¶
ç¯ ·
æ²¿ æ±Ł
çĽĲ åŁİ
ç¼© å°ı
å°¼ æĸ¯
å¯ĵ æĦı
çĳ¶ æĹı
è´® åŃĺ
a g
Ġ èĥ¡
è¯ «
åĴĮ æ°´
åĬł çĽŁ
æĽ Ļ
éĩĩ çłĤ
èĬĤ åºĨ
äºĶ éĩĳ
ä½¿ åħ¶
åĮħ è£¹
éĢī è´Ń
é¢Ŀ çļĦ
åįł éģĵ
18 1
åģľ å·¥
éĢĲ çº§
æ¬§ ç¾İ
å¤« å¦ĩ
èĤī ç±»
ç²ī å°ĺ
æĥ© æ²»
èĦ¸ ä¸Ĭ
éªĳ è¡Į
éĵŃ è®°
éŁ§ æĢ§
å¸ ĺ
ä¸Ģ çİ¯
âĢĿ )
æ² ±
æ² Ľ
ä¸į åĩĨ
ä¸Ĭ åŃ¦
ä»¥ åħ¶
ä¸» è§Ĥ
åħļ è§Ħ
çľģ ä¼ļ
åĲĦ åı¸
è´¹ åıĬ
åŁİ åħ³
å°ı åŃ©
è·¯ åŁº
æĶ¶ çĽĺ
éĹ® æķĪ
è¿Ļ å®¶
å¢ĥ çķĮ
ç¾¤ éĺ²
è®¤ é¢Ĩ
ç¦ ħ
ä¸¤ æ±Ł
12 4
30 2
ä½Ļ äº©
åıĮ éĩį
çĻ¾ ä¸Ģ
ä½İ æķĪ
å¾· èĤ²
13 3
16 6
å¾Ģ å¹´
æħ Į
æī© éĿ¢
å°½ æĹ©
æĬĹ ç¾İ
35 00
æ¼³ å·ŀ
CE P
ç»ĳ å®ļ
3 10
ä¸Ģ åĮº
åľ¨ åħļ
åĮº å°Ĩ
ä¸į å¤ļ
åĬł éĩį
éĩį æķ´
ä¸ĭ æ°´
æĥħ æĬ¥
åı¯ è°ĵ
ä¸ĵ çº¿
è°ĥ å¤Ħ
æµ· è¿Ĳ
ç§¯ éĽª
é© ¼
éĺŁ åľ¨
å·² è¾¾
åıĮ è¾¹
15 8
19 89
çĪ± æĬ¤
è¯¦ æĥħ
åħ¸ ç¤¼
çĳ ľ
å°ļ éľĢ
çĺ Ł
æ²¥ éĿĴ
i d
Ġ æľ±
çļĦ åĽ½
å¤§ éĥ¨
è¾ į
èĥ½ ä¸º
è° ľ
éĩĳ æ²Ļ
è´¹ çĶ±
åħ¶ èģĮ
çĶµ åİĤ
æĢ» åı°
åĮĹ ä¾§
äºĶ æ¬¡
çľŁ å¿ĥ
èĢĮ è¡Į
è± ļ
è¶ħ éĻĲ
19 0
è¾ĥ å°ĳ
æ¼Ķ åĶ±
èĵ Ł
é¤Ĳ æ¡Į
ä¼° ç®Ĺ
é©¾ è½¦
å½Ĵ æ¡£
å« ģ
è½¨ è¿¹
æĴ¤ è¯ī
çĥ§ çĥ¤
ä¸§ å¤±
ä» ĳ
å¸Ĥ åĨħ
å»º å¹³
å¼Ģ æĮĸ
éĩį åº¦
åĨħ åľ¨
éĩĩ çŁ¿
åĲĳ åħ¶
ä¹ł ä¿Ĺ
æĪĸ æĺ¯
æ±Ł æ²³
è¿ĺ å¯¹
çĶ³ åĬŀ
çĽ´ éĿ¢
åħī å¤§
é¥ ª
åı¤ ç±į
ç¦» å©ļ
çķĻ åŃĺ
æ´¥ åİ¿
éħĴ ä¸ļ
æ²Ł æĿĳ
èĪ¹ åĳĺ
èĨ ı
çĥ¹ é¥ª
Z B
Ġ âĢĿ
çļĦ åĲĦ
çĽ ı
å° ¸
åħ¨ ç§ĳ
çĲ ª
åĮº åĪĴ
ä¸Ĭ éĿ¢
ä¸Ĭ çľĭ
çŃī åħ¨
çŃī äºİ
èĩª åŃ¦
æį ī
è¿ĩ æľŁ
åħ± å¯Į
ä¸ī çĤ¹
åīį è¿°
åĪĽ ç«ĭ
åĪĽ åį«
æ·± åĪĩ
ç¡® æĿĥ
åĽĽ å¥½
åĽŀ æļĸ
è¯ķ åĽ¾
è¾ĥ å¼º
åĿĩ æľī
æķĳ æµİ
éĤ® ç¼ĸ
åĨ° ç®±
åĢį å¢ŀ
èĨ ³
åĢĴ éĢ¼
å¥ī è´¤
çļĦ ä¸¤
è¡ ¬
ä¸Ģ åįĬ
æľī è´£
å»º åĪ¶
çĶŁ çĲĨ
äºĨ ä»İ
å®¶ å¸¸
åĿ ł
éķ¿ åĬ¿
å±Ģ åĬ¿
æĿ¥ åĽŀ
ä»» åĳ½
åīį ç§»
éĹ´ éļĶ
æ±Ĥ çľŁ
èĤ² æīį
è¯ģ åĴĮ
ä¹¦ ä¸Ń
å¹¶ ç»ı
æķ° çĻ¾
ç§į èĭĹ
èĢģ æĮĿ
æ³¨ å°Ħ
éĺ³ æĺİ
ä½Ļ æĿ¡
èħ »
å»¶ æĹ¶
æı´ æľĿ
æĿ¾ æĿĲ
æĿ¾ æĩĪ
å²¸ çº¿
500 00
: [
o l
çļĦ èĬ±
ãĢĤ ãĢĶ
åľ¨ ä¸İ
å±ķ ä½į
äºĨ è¯¥
å¯¹ æµģ
æ°´ åİĤ
å°ı åĲĥ
éĻ¢ çŃī
ç²¾ èĭ±
æ¨¡ æĿ¿
ä¸ĥ å±Ĭ
æ¬ł æĿ¡
å¥ĩ è¿¹
è¾© æĬ¤
èµ¶ èµ´
è¹ ²
åĤ¬ åĮĸ
åĲķ æ¢ģ
ç¨Ģ åľŁ
åĹ ½
qu o
Ġ æİ¥
çļĦ å±±
äºº å°±
æİ ĸ
å¹´ ä¸Ń
å¹´ è¢«
èĢ ¿
ä¸į åıĬ
è¿ĩ è·¯
åħ± æµİ
åħ± æĮ¯
åŁº çŁ³
èĢħ å¯¹
æĬķ çĶ¨
åĲį äºº
éĵ ħ
å¾Ĺ åĩº
èģļ åĲĪ
åģľ çĶµ
æ¤į è¢«
é©» åľ°
éĤ£ éĩĮ
è¿Ķ æł¡
éĵľ æ¢ģ
æ´Ĺ æīĭ
æ¦ľ åįķ
ä¼¦ çĲĨ
åĴ³ åĹ½
éĻĮ çĶŁ
å± ¿
å¸Ĥ åįĹ
åľ¨ æĪĳ
åıĳ èĤ²
æľī çĤ¹
å¤§ æĬĵ
åĽ½ åºĵ
æĸ° äºº
ä¸Ĭ åİ»
æĹ¶ åºĶ
è¿ĩ åĲİ
åĨħ æİ§
éĩı è¾¾
ä»£ ä¸º
å°Ĩ ä¸İ
å°ı çº¢
åįĹ ä¾§
åįĩ æ¸©
ç§į è´¨
æĭĽ å½ķ
åĽ¢ å§Ķ
åħŃ æĺ¯
åħŃ çĽĺ
çĥŃ å¸¦
èĬ± å¼Ģ
é©¬ æĿ¥
æĺĮ åİ¿
å·´ å½¦
èĤ¥ æĸĻ
å¥¶ å¥¶
åĮł å¿ĥ
Ġâĳ ł
æ³Ħ æ¼ı
éŁ¶ åħ³
) ãĢĭ
çļĦ æĿĳ
åĴĮ éĿŀ
è¡Į åĲĦ
ä¸º åĽ½
é¢ Ĳ
ä¸į æīĵ
åŃ¦ æ·±
äºĭ äºĭ
çĤ ³
æīĵ å·¥
è¥¿ çĵľ
æł¸ éĶĢ
è¯¥ çĬ¯
åħ´ èµ·
åıĺ è¿ģ
ä½Ļ åľº
åĨį åº¦
è¿ŀ å¿ĥ
å¤ı æĹ¥
åĲĥ èĭ¦
èĵĦ æ°´
èµĮ åįļ
C C
R CEP
¥ å¹¸
Ġ æĸĩ
Ġ å¤©
åħ Ķ
éĢ ®
éĢ Ŀ
åħ¨ æĻ¯
ä¸į è®©
ä¸Ĭ æ¦ľ
çĶ¨ äºĨ
ä¾ ¥å¹¸
é«ĺ ä¸¾
ä¸ĭ åįķ
äºİ å¿ĥ
éĿ¢ å¹¿
åº¦ æ±Ľ
ä¸ī ç§į
æ¡Ī çļĦ
è°ĥ åīĤ
æĿ¡ ç¬¬
ä¹ĭ åĨħ
çī¹ æĸ¯
åĽĽ é¡¹
çĻ¾ äº¿
çĻ¾ è´§
çķĮ å®ļ
éļĲ çŀĴ
23 4
éª¨ æĬĺ
ç¬ĳ çĿĢ
æĲŀ å¥½
åĬĿ éĺ»
æ³Ĭ ä½į
å¨Ħ åºķ
I D
m g
ä¸º å·±
å¤§ çĪ·
ä¸į è®º
åĩº å½©
å¯¹ è´¦
åħ³ ä¹İ
æľº åħ·
é¢ĺ ä¸º
åķĨ åºĹ
å°Ĩ ä»İ
ä¸ĵ åįĸ
è·¯ çļĦ
è¶ ģ
åĲĳ è¥¿
æŃ¥ åħ¥
ç²¾ æ¹Ľ
ä½ı äºĨ
åŃĺ ç»Ń
è±¡ å¾ģ
é¾Ļ æ³ī
éļı åį³
é¡º å¾·
æĬĹ æ´ª
èĹı æĹı
ç¼ĵ åĪĳ
éľĩ æĴ¼
æĴ¤ ç¦»
èļ ķ
ä¸Ń äºļ
æ² «
ä¸į æĶ¾
åĪ° å¤Ħ
éĹ¨ çªĹ
å°Ĩ è¯¥
æºĲ æºĲ
åįģ ä½³
èĢģ ä¸Ģ
è®© èĢģ
åĨį éĢł
è°Ī åĪ°
23 6
é¡º ä¹ī
æĬµ æī£
ç¥Ŀ æĦ¿
èĭ¦ å¹²
Ġ è¢«
äºº è¦ģ
20 8
æĸ° å±Ģ
å¥ ķ
åĩº äºİ
èµĦ æ·±
å®ī æ£Ģ
åĬł çĥŃ
åĬł ç´§
éķ¿ è¾¾
åĬŀ è¯ģ
è¿ĩ å¹´
åķ ¤
çĶµ ç£ģ
æĶ¹ èī¯
éģĵ çĲĨ
ä¼ł å¥ĩ
è½¦ ä¼ģ
åı° èĥŀ
å¦Ĥ éľĢ
ç«Ļ éķ¿
æ¨ Ł
æĺĵ åıĳ
å®¤ åĴĮ
ä¸´ ç©º
æ¿ Ĵ
åĽº åºŁ
æ²¹ çĥŁ
æįŁ çĽĬ
å¨ ¥
ä¸Ķ æľª
æ²Ļ é¾Ļ
ä»į æľª
åĿĿ åĮº
è¢ĭ åŃĲ
CE O
å½Ŀ æĹı
æĢĴ æ±Ł
éĴ¥ åĮĻ
R E
åľ ĥ
ä¸Ģ æ±½
çº ±
é¢ į
å®ŀ æĭĽ
åĬ¨ æ¼«
å¯¹ æĪĳ
æ°ĳ çĽŁ
é«ĺ åıĳ
åľº ç«Ļ
å¹³ éĿ¢
æľŁ åĪĬ
æ´» æĢ§
ä¸ī ä¼ļ
ä»£ æĽ¿
éĩĩ ä¿¡
é¢Ĩ èĪª
åı° ä¸Ĭ
å¹² æĹ±
è¯· åĲĦ
è¯´ è¯Ŀ
è¿Ŀ èĥĮ
èµ° åĪ°
æłĳ æŀĹ
æ±ĩ çİĩ
è¿ľ æĻ¯
ä¸½ æ±Ł
ä¹± æĶ¾
èķ ī
è¯± å¯¼
% ï¼Ī
Ġ åĮħ
ä¸Ģ æľ¬
äºĨ å¤ļ
é«ĺ èģĮ
å®ī å®ļ
åĳĺ æ³ķ
åĿ ¯
å°ı å°ı
ç«ĭ åĪ»
å¢ŀ å¤§
ç¾¤ åĽ¢
åħĪ è¯ķ
æĹħ å±ħ
éĿŀ çħ¤
æĺ¥ èģĶ
çķĮ çļĦ
è¿ŀ çº¿
æŃ¦ æľ¯
ç§Ł çĶ¨
çĨ ł
çĽĲ ç¢±
æĭĴ æĶ¶
éĽħ å®ī
æ§ Ĳ
çĿ¡ çľł
P D
T V
ä¸Ģ åı£
å¸Ĥ è¥¿
åľ¨ ä¸į
20 7
ä¸į åħ¨
åħ³ åģľ
åĬł åĪĨ
åĪĨ èĩ³
æ¸ ¤
æ°´ åĮº
æ¯ Ĺ
æĬ¥ æ¡Ī
ç¡ Ŀ
æīĢ èĥ½
é£İ åĬĽ
åıĹ å®³
åĸ Ĥ
å¸¦ æľī
æĭħ å¿§
åŃĺ æłı
èŃ¦ æĥħ
çĻ¾ ä¸ĥ
ä¹Ŀ å±Ĭ
å®ľ æĺ¥
åħ¼ ä»»
å°¤ ä¸º
æĻ´ éĹ´
æ¬º è¯Ī
éĢ® æįķ
G E
d quo
i v
åı Ń
ä¸Ģ ä¼ģ
æł Ĺ
å¸Ĥ éĩĳ
åĴĮ è§£
å½ ª
é«ĺ äº§
å®¶ æł¡
äºĭ åħĪ
éĩı å¤§
æ¶ §
ä¸ĩ çī©
æĢ» åĴĮ
è¿Ļ æ®µ
åİŁ æ²¹
ä¼Ĺ åĪĽ
å¤į æĹ¦
è¡¥ ç¼º
ä¹Ĳ åĽ¢
13 2
13 8
åĲ¯ åıĳ
è·¨ åĽ½
éĵľ ä»ģ
æ·® æ²³
åĸĩ åıŃ
C G
Ġ æĤ¨
Ġ âĪļ
åľ¨ åįĹ
åĽ½ çľģ
æĸ° åĵģ
çŃī åĢĻ
æĹ¶ ä¸į
ç®¡ å¥½
å®ī åºĨ
çĤ ľ
å¥½ åıĭ
äº¤ çĶ±
åĨħ æ±Ł
èĮ ¬
æ¡Ī å¤ĸ
æ¸ħ æ·¤
ä¸¤ æĸ°
æī¿ å¾·
èº« çĿĢ
åĮħ èģĶ
ä½ı åľ¨
è¡¥ åĬŀ
è¶³ ä»¥
åħŃ å±Ĭ
åı² è®°
èĭı åĮº
æİ¢ å¯»
âĢĻ âĢĺ
åī§ çĽ®
çĨ Ķ
èļ Ĥ
éŀ Ń
æĶĢ åįĩ
ï¼Ĵ ï¼Ĳ
æī® æ¼Ķ
Ġ åĴĮ
Ġ åįİ
ï¼ ķ
çļĦ å¤©
çĶ «
å¯ ¡
ä¸Ń è¦ģ
æĸ° å®ī
æĹ¶ èµ·
ä¿Ŀ å±±
é«ĺ è´¨
æ²» æ±¡
æŁ¥ åĬŀ
çĽ¸ ç¬¦
åĲĳ åĮĹ
éĢł è¡Ģ
ä»İ æĿ¥
éª ļ
ä¹Ł å°±
ç§į ç²®
æ±Ł å±±
æ¯Ķ æĭ¼
æĪ¿ åľ°
è¿Ŀ å»º
ä¿ĥ æĪĲ
åŃĹ æł·
éļ¾ åħ³
è¶ħ æłĩ
å±ŀ å®ŀ
çĪ± æĥħ
13 7
é¡» çŁ¥
16 00
åĲ¬ è¯´
çĨ ¬
ç¤¼ åĮħ
å´ĩ å°ļ
çĽ² åĮº
æ¨± æ¡ĥ
å®ł çī©
èĪĮ å°ĸ
é¬ ¼
äºº æµģ
ä¸Ģ é¢Ĺ
å¹´ åĲİ
åħ¬ ä¿¡
çĲĨ é¡º
æĹ¶ è¯´
ç¤ ´
å¯¹ æľª
åŃ¦ ä¸ļ
èĤ ļ
åĲĮ åĲĳ
è° ħ
éĽ ¯
åħ¥ å¿ĥ
åħ¥ æ²³
ä¸ī èĢħ
åĨľ æĪ¿
çĽ¸ ä¼¼
èģĶ å»º
åįı åĬŀ
å±Ĥ çļĦ
åıį åĵį
ç©º æ¸¯
èĳ µ
èĬ± è´¹
èĬ± æµ·
å¤± åİ»
çĪ± æ°ĳ
é»Ħ åĨĪ
åį³ ä¾¿
å¾ģ ä¿¡
éĵģ å²Ń
å½© èĻ¹
æµĵ éĥģ
è¾ŀ èģĮ
èĪŁ å±±
è¯µ è¯»
éĤ¢ åı°
ç£ħ ç¤´
2 15
Ġ &
Ġ è¿Ľ
çļĦ åħī
ä¸į å¼º
çĶ¨ è¶³
æľ¬ æĸĩ
åĲĮ ä¸ļ
æľº æĪ¿
æĦ §
æĿĳ åĨħ
åīį æıĲ
æķĻ å§Ķ
éĺ² æļĳ
ä¹¦ éĻ¢
ä¼ł æİĪ
æĪĸ åľ¨
åıĹ è´¿
æ¸ħ æŃ£
åħŃ å®ī
æ½ ¼
æ¦ Ħ
ä¼° åĢ¼
æ²¿ å²¸
æ´ª æ¶Ŀ
36 5
çıł æ±Ł
æĿ° åĩº
Ġâĳ ¡
âĪ ¶
3 16
Ġ å·²
ç» Ľ
æĺ ķ
ä¼ļ å°Ĩ
åĪĨ åī²
ç¾ ļ
èĮ µ
åĲį å®¶
è¿Ļ å°±
å¤ĸ å¢Ļ
å·ŀ çº§
æŃ£ æ°Ķ
ä¸¥ æŁ¥
å¾ĭ å®¾
æī¿ è¿Ĳ
çĶ³ è¯ī
æł¹ æ²»
çľŁ çĲĨ
èŃ¦ æĪĴ
èµ° åĬ¿
ç¥¨ æĪ¿
æ¥¼ éģĵ
æİ¢ è®¿
å·Ŀ åī§
é£ŀ åľ°
å´ ©
çīĽ å¥¶
åģı è¿ľ
æ»ŀ åĲİ
åĲŀ åĲĲ
Ġ ç½Ĺ
çļĦ å¸Ĥ
ä¸Ģ çĶŁ
å»º è¡Į
æĸ¹ è¨Ģ
åĪĨ æĭ£
åħļ å¤ĸ
æ°´ éĿ¢
ä»» æľŁ
å°Ĩ æĺ¯
æĦı ä¸º
å¾Ĺ æĽ´
è¾¾ äºº
æ°Ķ ç¥ŀ
ç¨İ æİ§
éĢī å®ļ
åĽŀ åĽ½
ç©¶ ç«Ł
å¼ł æİĸ
è¾ĥ å°ı
ç¦» ä¼ĳ
è´¦ æ¬¾
æľ¨ æĿĲ
éĩĬ æ³ķ
çĶ· æĢ§
éĶĻ å³°
èµŀ æĪĲ
éĺ» æĸŃ
éĶ¡ æŀĹ
å¤º å¾Ĺ
èĲĮ èĬ½
ç²ª æ±¡
ç¬ĥ è¡Į
Ġ L
äºº è¢«
ä¸Ģ éĿ¢
ä¸Ģ ç¾¤
ä¿ ¯
åħ¨ å¿ĥ
æĶ¿ åĬŀ
è¿Ľ äºĨ
åĪ° å²Ĺ
æľį åĪĳ
æ°´ è´¹
æ¯ ¯
ä»£ è¨Ģ
äºĮ å¹´
åĩĨ è®¸
ä¹ĭ åĪĿ
ä¹ĭ å£°
åıĸ ç¼Ķ
æŀľ æĸŃ
è¯´ æĺ¯
åħ´ æĹº
é¾Ļ å¹´
14 5
ç¼´ æ¬¾
æ¥¼ æ¢¯
ä¹Ŀ æ±Ł
æī¬ åŃĲ
æį¢ ä¹ĺ
æ®ĭ çķĻ
éħĴ é©¾
åĭĩ æ¯ħ
æĬ¢ åįł
ç§ģ åĪĨ
å¡Ķ åĮº
åĢĴ æİĴ
çĴ ¨
æīĳ æķĳ
åħ½ åĮ»
è¾¨ è¯Ĩ
"ãĢģ "
åķ¤ éħĴ
u n
å ļ
âĢ °
å¸Ĥ é«ĺ
åľ¨ ä»Ĭ
æĢ ¨
æĮ ¨
çİ Ħ
åĩº æ¸¸
æĪĲ åŀĭ
å±Ģ ä¸İ
èĩª å®¶
åıĤ å»º
åİŁ åĪ¤
ç¾İ åŃ¦
éĴ §
åĪĹ åĩº
äº¿ åĲ¨
çİĭ æĻĵ
åĨį çİ°
èĻ Ĳ
éĢĢ ä¼į
ç´¢ åıĸ
å°½ åĬĽ
ä¼ĳ æĹ¥
çĵ ¯
çŁ¿ åĮº
æ½ľ èĥ½
å¾Ĳ æ±ĩ
éĺ» ç¢į
çĴ Ģ
æĲħ æĭĮ
Ġ ä¸ľ
ï¼ ı
çļĦ æ¯ı
äºº éĹ´
ä¸Ģ æ´¾
å¸Ĥ æŃ¦
è¡Į æĥħ
çĲĨ åıĳ
20 5
çŃī é«ĺ
å¯¹ å¸Ĥ
éĢļ çķħ
åºĶ ä»ĺ
æĿ¥ å®¾
æŁ¥ æĳĨ
éĺ² éľĩ
è¡¨ è¿°
ä¹ĭ ä¸Ĭ
ç¥ŀ èĪŁ
æŀĹ çĶ°
30 6
èĦ ¾
æĻ¯ å¾·
éĢģ çļĦ
æĥł å·ŀ
åĭĩ æķ¢
45 00
æĬµ å¾¡
è·ĥ åįĩ
æīĽ çī¢
éģ¥ æĦŁ
åİĺ æ¸ħ
æ¸£ åľŁ
éªĦ åĤ²
çĴĢ çĴ¨
2 28
æĿ ł
è¡Į æĿİ
äºĨ ä¸¤
ä¸į å®ŀ
å¼Ģ éĺĶ
åĲĪ è®®
æĹ¥ ä»İ
å®ļ äºİ
åĪ° æĿĳ
åĪ¶ è£ģ
åľº ä¸Ĭ
éķ¿ åĪĺ
èĩª åıĳ
åĲĦ çľģ
åĲİ åı°
æĢ§ ä¸İ
åĨľ èĢķ
çĽ¸ è¾ĥ
ä¾Ľ æ°Ķ
æµ· æ»¨
èĢĥ éĩı
è¿ĺ ä¸į
å®¹ ç§¯
æ¼ ĵ
è¶ħ åīį
åľŁ èĢ³
13 9
çŁ³ å¤´
16 2
æŃ¦ å¨ģ
åħĭ å¼º
åĲ¸ åıĸ
çĨ ı
åĺī å³ª
çĶ² çº§
çīĽ ç¾Ĭ
çıį ç¨Ģ
æĬļ åħ»
è¸ı å®ŀ
æ³µ ç«Ļ
æ¯Ĺ éĤ»
f o
Ġ ä¸ĩ
Ġ 50
ï¼ ĵ
åĮ ¿
ä¸ļ ä½Ļ
ä¸Ń ä¸ĵ
åĩ ¶
åľ° å¸Ĥ
åľ° åľ¨
å¯¹ å·²
èģ Ĥ
åĬł ä¹ĭ
åĬŀ æĪĲ
æĪĳ ä¼ļ
æ¬¡ åħļ
æµ· ç»µ
å±± æµ·
å¤ĸ éĺ²
é£İ æ°Ķ
åı£ ç¢ĳ
èĢĮ æĪĲ
éļ¾ å¾Ĺ
19 80
ç¼ĸ ç»ĩ
æĺ¾ çĦ¶
è¿ŀ åĲĮ
æ¥¼ æłĭ
åĨĻ ä½ľ
é¡¶ å°ĸ
èĲ¨ åħĭ
en t
è ĺ
çĽ İ
æĬ Ĵ
ä¸Ģ æĹ¶
è¦ ĥ
å¿ Į
ä¸Ĭ åı°
çĶ¨ æĿ¥
æĹ¥ ä»¥
ç®¡ å§Ķ
ä¸İ åĲĦ
åħ± åķĨ
åįķ ä¸ª
æŁ¥ èİ·
æĺİ åĮº
å°ı å¹ħ
çĶµ çº¿
åĲĳ ä½ł
åıĤ è°ĭ
å¤ĸ ç±į
æµģ è°ĥ
èĩ³ æŃ¤
æī¿ åıĹ
æŀĹ æĿĥ
è¯ī èĩ³
çľĭ å¥½
çĽ´ å¾Ħ
è¶ħ é¢Ŀ
è¶ħ è½½
éĻį æľ¬
åį° å°¼
çŁ³ æĻ¯
è¶Ĭ éĩİ
è§Ĵ èĲ½
è¿İ éļ¾
ç£ Ĳ
æĬĹ æĪĺ
åĥ µ
åĳ³ çļĦ
æ³ī æ°´
ç§ģ äºº
åĵĪ å¯Ĩ
çĳŀ å£«
æĭ¿ çĿĢ
ç»ĺ åĪ¶
æ·® å®ī
] ï¼Ī
Ġ éĥŃ
äºº å®¶
ä¸Ń èģĮ
ä¸º ä¸Ń
çĶŁ ç´ł
äº§ å¦ĩ
èĥ º
ç²¾ çĽĬ
åŃĲ éĩĮ
åįĹ å·ŀ
åĮĹ å¤§
å² Ķ
æŀľ ç³ĸ
åı£ åı·
æĪ¿ çļĦ
çľĭ æ³ķ
è£ħ åį¸
èĦ ĸåŃĲ
19 96
èĬ± æ¤Ĵ
èħĲ èļĢ
èµı èĬ±
æŀª æĶ¯
ãİ¡ ï¼Į
ä¸¢ å¤±
Ġ å°Ĩ
Ġ 40
çļĦ éĤ£
äºº éľĢ
ä¸Ģ æ¬¾
åľ¨ äºĨ
å¤§ éĻ¢
äºĨ å¾Ī
åľ° æ®µ
åŃ¦ è´¹
åĵ Ģ
æľ¬ è½®
çĤ «
å¹³ åĩī
æ· ĸ
å°ı å¿ĥ
å°ı åĵ¥
è¯ģ çŃī
è´Ń ç¥¨
å±± æ²³
å®Į å¥½
åĪĴ æĭ¨
çĶ± åİ¿
åı£ å¤´
æŀģ ä¸º
åıĺ å¼Ĥ
èĦ Ĳ
çĻ¾ å¼º
15 5
çĻ» å±±
13 6
éĽ¶ å·¥
è¿İ æ£Ģ
å®Ŀ å±±
èĭ± çĥĪ
é½Ĳ é²ģ
å·´ å·´
èĶ Ĺ
æľ« ç«¯
ä¼´ éļı
åĿĲ æłĩ
æģ© æĸ½
2 25
3 70
â Ĩ
Ġ éĥĳ
æł Ī
æľī å¤ļ
20 6
å®¶ åĽ½
æľĪ çĶŁ
ç¤¾ æĥħ
ç¤¾ ç§ĳ
æĺİ çļĦ
æĬķ æ³¨
åĲį é¢Ŀ
é¢Ħ åĳĬ
é¢Ħ è®¢
ç¼ Ģ
èĩ³ äºİ
æ¬¾ ç¬¬
ç¾İ èģĶ
åĮħ è½¦
è¯ī è¯·
é£Ł èį¯
è¯ķ åīĤ
ç»Ļ ä»ĸ
èŃ¦ æĬ¥
çŃĳ æ¢¦
å®Ī çºª
14 4
è¯Ĭ æ²»
é©» çĤ¹
æľĿ çĿĢ
éģį å¸ĥ
æ¬º åĩĮ
èĤĩ äºĭ
3 30
e d
Ġ å°±
Ġ äºĳ
çļĦ åİŁ
å·¥ ç§į
éĻ ¡
è½ §
éĢļ è¾¾
ä¸İ çľģ
æĢ§ çŃī
åĪĽ æĬķ
äºĮ äºº
è·¯ ä¸İ
æ·± å¤Ħ
çī¹ éĤĢ
å±± ä½ĵ
ä»İ åħ¶
å¦Ĥ éģĩ
äºĶ åįģ
çª ĸ
åıį èĢĮ
Ġ2 7
16 8
åĤ į
çŃ¹ å»º
ä¹° åıĹ
æ¡¥ å¤´
å®Ŀ å®Ŀ
å¤ª ä»ĵ
è¿½ åĬł
çĽĺ éĶ¦
å°ģ æİ§
å¡ĺ æĿĳ
èĨ Ģ
æĳĺ å¸½
çłĤ çŁ³
èļĤ èļģ
ä¸Ń ç§ĳ
çŃ Ŀ
åľ¨ æīĭ
ä¸º å¸Ĥ
æĶ¿ åķĨ
ä¿Ŀ å®Ī
ä¸» æĶ»
å¹³ æķ´
æ´» æ°´
åĲĦ æľī
ä¸ī éĹ¨
è¯ģ è¨Ģ
æ¡Ī æĥħ
åıĹ éĤĢ
çĶ± åİŁ
è¯´ èµ·
æ²³ æĿĳ
çĶ³ è´Ń
éĢģ èĩ³
15 9
çĥŃ æ°´
è¿İ æĺ¥
äº® çľ¼
æ¦Ĥ ç®Ĺ
æĽ² éĿĸ
éĢı æĶ¯
éº» éĨī
âħ ¡
èŀº æĹĭ
é¡½ å¼º
çĸ² åĬ³
2 24
ä¸Ģ åĪĨ
å¹´ å¸Ĥ
ä¸º åħĪ
åħ¨ æł¡
ä½ĵ èĥ½
è¯ģ äºº
éĢł å°±
å¾Ĺ å¤©
æł¼ åħ°
åıĹ æīĺ
è¡¥ åıĳ
åĨĽ èĲ¥
çĻ¾ èĬ±
åºı åĪĹ
éĵ¶ åıĳ
æķħ å±ħ
14 6
å»¶ éĵ¾
æ²Ļ åĿª
Ġ0 8
è¿½ åĽŀ
éĴ¢ æĿĲ
è·ĳ è·¯
æĭĨ è§£
èµ¤ å³°
çĻĮ çĹĩ
C h
Ġ ä½Ĩ
åĴĮ åľ¨
åĽ½ æ³°
è¦ģ æĥ³
å±ķ åĵģ
ä¸į åĩı
åľ° éĩĮ
çĶ¨ èĥ½
éķ ģ
é«ĺ ç©º
åĲĮ é¢ĳ
åľº éķĩ
åħ± çĶ¨
æĻ ı
åįķ è½¦
æŁ¥ æ¼ı
ç«ĭ éĿ¢
ç»ĵ æ¡Ī
éĹ® è¯Ĭ
ä¹ĭ å¿§
èį Ł
æīĵ ç£¨
æĹł ä¸Ģ
æĬĬ æīĭ
çľĭ å¾ħ
çº¢ èĸ¯
çĥŃ è¡Ģ
å¤± èģĮ
éļı ä¹ĭ
è¿ŀ éĢļ
å¨ ĩ
è¿Ķ å²Ĺ
ç¨» è°·
æ·ĸ å°Ķ
Ġ F
ä¸ ¸
æĸ ¥
èµ İ
ä¸º åħļ
æľī å¤§
åĮº æĸ°
åĽ½ ä¼ļ
å»º æľī
åľ° åĴĮ
éĥ¨ çº§
éĢļ åĬĽ
æ°´ æĥħ
æ°´ åĮĹ
ä»¶ äºĭ
æĻ ¾
åıĤ æĶ¿
éľĢ è¿Ľ
åıĹ ä¼Ĺ
çĥ «
å¤´ çĽĶ
çľĭ ä¼¼
åĵį èµ·
èµ° äºĨ
å·¡ æ²³
å¥Ĺ é¤Ĳ
éĢĲ æĿ¡
ç´¯ ç§¯
èĭ± æīį
åĨ¬ å¤©
éĵľ å·Ŀ
æĮª çĶ¨
N O
a k
Ġ 60
ï¼Į âĢĺ
çļĦ è¿ĳ
æľī åģ¿
å¤§ ä¸ĵ
è¿Ľ åŁİ
éĥ ¡
åĩº åºŃ
åĲĪ èµĦ
å®¶ ä»¬
åĬł åĬĽ
åĪĨ ä¼ļ
æ¡ ¦
å¹³ æ¹ĸ
å±Ģ ä»¥
ä¿¡ ä»¶
çł Į
åīį å¤ķ
çĽĳ ä¼ļ
å°ı å§Ĳ
ç¥ Ī
æīĢ åĪĹ
ä»ĸ å¯¹
ä»İ å®ŀ
èĢģ å®¶
çĦ °
æŁ ¬
æ¶Ī å¤±
ç¾İ æĸ¹
çĻ¾ åº¦
19 99
ä½Ĩ æľª
16 5
æ±½ æ²¹
çīĪ çº³
çľ¼ éķľ
** ãĢĤ
åĶĲ å±±
æ¯« æĹł
æī° ä¹±
æ²ĥ åľŁ
æĺŃ éĢļ
G W
Ġ åħ¨
çĶ ¬
ä¸Ģ åıª
ä¼ļ è¯Ĭ
ä¸į å¤ª
ä¸Ĭ å¥½
ä¸Ĭ æľĢ
æĹ¶ é¡»
æĸ¹ çķ¥
åĪ° ä¼ļ
æĿĳ çŃī
æĪĳ å°Ĩ
åīį æ¬¾
éĹ® è¯¢
éĵ ®
æµģ æµª
ä¸ľ äº¬
æī§ çĿĢ
è£ ¤
ç¥ŀ ç§ĺ
éĢī è°ĥ
éħį å¼º
çº¢ åĮħ
åįļ æĹ¶
åĢĻ é¸Ł
æĬĹ éľĩ
è½® èĥİ
çĽĺ çĤ¹
éĽ· çĶµ
çī§ åľº
æįĲ çĮ®
æ»ŀ çķĻ
s se
äºº éģĵ
åľ¨ ä¸Ĭ
ä¸º ä¸į
å®ŀ æľī
ç« ĸ
ä¸» æĹ¨
ä¸ª å¤ļ
åĳĺ åľ¨
å±Ģ è¦ģ
èĬ Ń
è¿Ļ éĥ¨
åĽĽ æ¥¼
æģ¯ æģ¯
èµ· å§ĭ
æŀľ æłĳ
æīĭ æ³ķ
æ¨¡ åħ·
èŃ¦ éĨĴ
è±¡ æ£ĭ
å¾· éĺ³
åĽ¾ æĻ¯
çĭ Ń
å¤± è¯¯
åĻ¨ çŃī
éĽ¨ æ±¡
åī§ æľ¬
çºł æ²»
éº Ĵ
æĮĤ å¸ħ
å°Ħ åĩ»
éģµ çºª
æĿĤ èįī
è¹ Ħ
èį· åħ°
æ»ŀ çº³
æĦĪ åıĳ
åĳµ æĬ¤
Ġ çĻ½
è¿ Ħ
ä¸Ń ä¸ľ
çĶŁ é²ľ
å½ ¤
ä¸į çķı
å®ī éĺ³
åºĶ ä¸º
åĨħ åĲĳ
å¤ļ å¼ı
å°Ĩ èĩ³
é¢Ĩ äºĭ
åĩĨ æĹ¶
åįĹ æ¹ĸ
æ±Ł æ·®
åı£ çļĦ
è½¬ å¢ŀ
æ¸ħ åĩī
éħį é½Ĳ
çº¢ çģ«
åį³ åĬŀ
ç´ł æĿĲ
éĨĴ çĽ®
å¥Ķ è·ĳ
çĽİ çĦ¶
äºº æĢ§
ä¸Ģ å¼ı
ä¸Ń å±Ĥ
å¼Ģ è½¦
æĹ¥ åĲİ
åŃ¦ ç±į
æıĲ åĢ¡
å®¶ æķĻ
å¢ Ł
çĤ¹ æ»´
åħ¥ èĦĳ
æĿĳ åĴĮ
åı¯ çĶ¨
æĶ¹ è£ħ
å½ĵ ä½ľ
å½ĵ æľŁ
æĢ» ç«Ļ
åĽĽ ç§į
è¥¿ åıĮ
èĭ ¯
åħĪ è¾Ī
æİĴ å¿§
æ°Ķ æŃ£
12 9
ä½Ļ ä¸ĩ
èį¯ æĿĲ
çĥŃ åĬĽ
é¥ º
åĿĩ æľª
æ²Ļ æ¼ł
åĪĳ ç½ļ
æ±Ľ æĥħ
âħ ¢
A M
åį ¿
åĴ ½
å¸Ĥ å®ī
å¤§ é¢Ŀ
å¤§ å¥ĸ
åĮĸ åİ¿
ä¸į æĮī
ä¸į å¦Ĥ
åľ° å½¢
æĹ¥ éĹ´
èĥ °
é«ĺ æ¸ħ
å®¶ æĿĳ
åĪĨ éĻ¢
åĪĨ æī¹
åĲĮ è´£
ä¸ĭ æĸ¹
å§Ķ çŃī
éķ¿ ä¹ħ
å¥½ æŃ¥
ä¿¡ ç®±
ä»¶ ä»¶
äº¤ åĵį
åħ± è¿Ľ
åħ¶ éĹ´
çĽ¸ æľº
èģĶ åĬŀ
å½ĵ æľĪ
å½ĵ å±Ģ
æĦı åĽ¾
å¤© æ°´
æŃ£ åĲĳ
ä¹Ł æ²¡
åįİ ä¸Ń
å®£ è´¯
åı£ æĦŁ
æĭĽ å·¥
ä¸¤ ä»½
åĽŀ æī§
äº¿ ç«ĭ
ç©º åĨĽ
13 1
åĻ¨ å®ĺ
æ¡¥ åĮº
ä¼° è®¡
éĺ¿ åĿĿ
åĪĳ æľŁ
éĿł è¿ĳ
åĭ¤ ä¿Ń
åĵª ä¸ª
ä¹Ļ çĥ¯
å¥¶ ç²ī
å»Ĭ éģĵ
ä¾¨ èģĶ
éģŃ åĪ°
åĭĥ åĭĥ
åĤ¬ çĶŁ
çģ¿ çĥĤ
Ġ éķĩ
Ġ è¯Ŀ
çļĦ åİ¿
çļĦ å¿ħ
ä¸Ń è¢«
åıĳ éħµ
èĩ »
æłĩ åħµ
çİ° å½¹
åħ¥ ä¼į
åı¸ éķ¿
æĬ¥ è£ħ
å¤ļ äº©
ç§ĳ åĳĺ
åŁİ åįĹ
åŁİ åĮĹ
å¹¶ è¿Ľ
ç½ĳ åĬŀ
åĲĳ åįĹ
åĲĳ åĸĦ
è½¦ åºĵ
ä¼ĺ éĢī
å¤ĸ çķĮ
æİ¥ è®¿
åĬ© æ®ĭ
èĢģ è¡Ĺ
å¦Ĥ å¯¹
å·² æĺ¯
ç¾İ èªī
å¸¦ ç»Ļ
èŃ¦ éĴŁ
ç»¿ ç¾İ
åİ» ä¸ĸ
æ½ ĩ
è¿ľ åİ¿
çİī æºª
èĪŀ å¼Ĭ
èĵĿ æŁĲ
ç©¿ çĿĢ
ä¹Į éķĩ
å¯Ĵ æ½®
é¸Ł ç±»
èĻ¹ åı£
æ®· åĪĩ
æķ¦ çħĮ
åĵ² åŃ¦
Ġ Q
Ķ åİī
çļĦ é£İ
æī Ķ
ä¸Ń èĢģ
ä¸į éĢĤ
ä¸Ĭ è¡Į
ä¸Ĭ ä¸į
åĩº åİĤ
æĺ¯ ä¹ł
æĹ¶ ä»»
èĲ ĥ
æĸĩ èĦī
çľģ åİħ
ä¸ī äº§
ç¡ Ĵ
æ¬¡ çļĦ
æ¬¡ æĹ¥
åŁİ éĻħ
åı¯ çĸĳ
æĶ¶ è¿Ĳ
è´Ń è½¦
é¢Ħ äº¤
ç²¾ ç¡®
ç²¾ éĢī
ä¸ľ èĪª
ç¦ º
å®£ è¨Ģ
æİĴ çĲĥ
è§Ĩ åĬĽ
åĳ¨ äºĶ
çĬ ģ
éĢĢ æ¬¾
è°Ī åıĬ
æĸ¯ ç§ĳ
27 0
è¸ Ķåİī
èĸ ĩ
èĭ¥ æľī
å¡« åŁĭ
éŃ Ħ
300 00
æ´Ĺ éĴ±
èĨ Ŀ
in fo
æ¡Ĳ ä¹¡
é¢ł è¦Ĩ
a y
h e
çļĦ åĲİ
äºº æł¼
æī ģ
ä¸Ń æľĢ
å¸Ĥ ä¸ľ
åľ¨ äº¬
åħ¬ åĭŁ
å»º äºİ
äºĨ çĶ±
æ² ½
ä¸Ĭ çĻ¾
å¯¹ æľī
ä¸» äºº
åĵ º
æľ¬ æĬ¥
æĶ¯ æµģ
è·¯ è¾¹
æĶ¶ çªĦ
é¢Ĩ å¤´
ç¥ ¸
å¦ ®
åıĤ è¯Ħ
åĮĹ è¾°
ç§į ç§į
å¹² çļĦ
è¥¿ åħ°
è¿ĺ åºĶ
åĽł åŃĲ
å¤´ çŃī
èĢĮ çĶŁ
éĺ³ æ±Ł
è¶ħ å¤§
åħŃ ç¨³
æ¹ĸ èįī
ä¾¿ å®ľ
çľ¼ ç§ĳ
åĩĢ åĢ¼
èĦļ è¸ı
æ´ŀ åºŃ
åĪ· æĸ°
éĶĲ æĦı
2 14
A åº§
L NG
Â ¥
Ġ .
å¸Ĥ æľĿ
åľ¨ ä»ĸ
å®ŀ æĻ¯
ä¼ļ è°Ī
çĲĨ æĶ¿
å±ķ æľŁ
ä¿Ŀ æļĸ
ä¸ª ä¸ª
å°ı éĽ¨
æĶ¹ åİķ
ä»ĸ æĺ¯
åįĹ éĺ³
å¤© æĸĩ
æ±Ł éĺ´
æ¸¸ ä¹Ĳ
æŃ¤ ä¸¾
åħ´ å®ī
ä¾ĭ ä¼ļ
æ»¡ æĢĢ
çº¢ å¤ĸ
åĬŁ æķĪ
èı ı
å·¡ æĬ¤
åºĵ åĮº
è¿ľ è¿ľ
å»¶ è¿Ł
åĲ« ç¨İ
åĨĻ åŃĹ
çİī éº¦
æĽ² èīº
çĶ² éª¨
) ï¼Ľ
E T
Ġ éķ¿
æĸ ĭ
åį µ
éĻ ĭ
å¹´ æľŁ
çİ ĸ
å¤§ æľī
å¤§ åºĨ
åĽ½ æ½®
æĶ¿ åıĳ
æĹ¶ æľī
å®¶ åĴĮ
éĢļ å·ŀ
åºĶ éĤĢ
è§Ħ æ°ĳ
æ²» æ²Ļ
åĪĽ æĸĩ
æºĲ çļĦ
è¿Ļ æ¬¾
å¹¿ åº¦
éħ ¥
çĥ ·
è£ Ļ
æ¯ı åĲį
åĪĩ åı£
ä½Ļ æĪ·
åħŃ ä¸Ģ
åħŃ ä¿Ŀ
éĻį è§£
åıª è§ģ
ç»Ī å®¡
æ´¾ åıĳ
æ´² åĮº
æĬ½ æ°´
ä¼´ æľī
å²Ń åįĹ
æ¹ĺ è¥¿
å¿ĺ è®°
åĿ¦ è¨Ģ
çĦķ çĦ¶
èĥ¸ æĢĢ
TO P
è°ħ è§£
è¿Ħ ä»Ĭ
> >
Ġ å®ī
çļĦ å¯¹
è´ ŀ
âĢĿ (
åĴĮ æĹł
èµ ĥ
åĽ½ å¼º
åĽ½ æĹĹ
20 9
ä¸Ĭ æĺ¯
æĺ¯ åħļ
æłĩ çīĮ
åĪ° æĪ·
åĪ¶ åıĳ
è§Ħ éģ¿
æį ı
ä¸ī æľĪ
åĨħ æľī
æ· ĩ
è¡¨ æł¼
åĪ© çļĦ
æ·± æµ·
è¿ĳ å¹´
äºĶ é¡¹
âĢĶ âĢľ
åĪĹ è¡¨
éļ¾ çļĦ
çĹħ æĪ¿
15 2
è¾¹ çĸĨ
é¡» ç»ı
åħ« å±Ĭ
æĿ¨ æŁĲ
æĺĮ åĲī
å·´ åĭĴ
åĸľ è¿İ
åİļ åº¦
æĻĭ çº§
æ»ĭ åħ»
å§Ĳ å¦¹
åĴ± ä»¬
ç²½ åŃĲ
ES G
2 26
h t
ãĢ Į
å¸Ĥ åĢ¼
åŃ ļ
äºĨ é«ĺ
ä¸į å¯¹
æŃ ī
åķĨ ä¸º
éĩĩ ä¼Ĳ
ç½ĳ åıĳ
æĢ» åĪĻ
æİ¥ è¿ŀ
ä»İ è½»
è½¬ åĮħ
èĳ «
é¥ ¿
éģĹ åŃĺ
éģĹ è¿¹
éħĴ ç±»
èĭ± åĭĩ
èĴ ľ
è°ĭ åıĸ
æ¬§ éĺ³
è·ĳ æŃ¥
æ¹¿ åº¦
åĨ¶ çĤ¼
åŁĥ åıĬ
æĨ ¾
5 50
Ġ ç§°
ĩ ç§ģ
åĬ «
åĮ ª
å· «
ä¸Ģ å£°
ä¸Ģ æ¡£
æĮ «
å¤§ æ¦Ĥ
å¾ ĩç§ģ
åº¦ é«ĺ
ä¿¡ èµĸ
äº¤ çķĮ
æĻ Ł
åĳĬ åĪ«
äºĮ å±Ĭ
åİ¿ çĽ´
åĽĽ ç±»
æĪĸ åħ¶
æİ¥ éĢģ
æİ¥ åĲ¬
è¯Ħ ä¼ĺ
çĶ± åĲĦ
æĭĽ æĶ¶
ä¸¤ å¸Ĥ
æŀģ éĻĲ
æ¯ı æĪ·
å¯Ł å¸ĥ
åıĮ èĬĤ
äºĳ ç«¯
æĤ£ æľī
åį± åıĬ
èĦ± é¢ĸ
æı´ èĹı
ç¯ Ĩ
ä¹ĺ åĬ¿
æ¢¯ éĺŁ
æ·» å½©
å¯Ĵ åĨ·
çķª ç¦º
çľī å±±
E R
ãĢ į
çļĦ å¾Ĺ
ä¸Ģ ç±³
ä¸Ń æµ·
åľ¨ æµ·
æľī æ¯Ĵ
å¤§ åĬ¿
å±ķ åı°
äºĨ çľģ
åľ° åĲį
åľ° åĲĳ
æıĲ æłĩ
å®¶ æ¬¡
éĿ¢ ç²ī
åĵģ çŃī
ä¸ī ç»´
ä¸ī åħ«
å¤ļ éĩį
ä¾Ľ è¿°
èģĶ ç»ĵ
ç«ĭ äº¤
åĪ© å¥½
èĲ¥ åľ°
ä¹ĭ åŁº
å¤© ä½¿
å¼ķ æĻº
åįİ çļĦ
æŁ ¿
æİĴ æ¶Ŀ
æĬĬ æİ§
èº« ä¸º
éĢī é¢ĺ
å¿Ĺ åĪļ
éħį å»º
çĽĬ éĺ³
æł· åŃĲ
å¾· åįİ
å¥ĸ ç«ł
æįŁ æ¯ģ
æ¡¥ æĿĳ
Ġ0 2
æĳĦ æ°ı
æ²¿ éĢĶ
è¡¡ éĩı
æµ¦ åİ¿
ç§¦ å²Ń
èī° è¾Ľ
ç²ª ä¾¿
çĥĺ å¹²
çĸ¼ çĹĽ
U S
åĮ Ĩ
ä¸Ģ å¤´
ä¸Ģ åı¥
ä¸ļ çķĮ
å¸Ĥ å·ŀ
åĽ½ åŃ¦
ä¸į æŃ£
æĹ¥ åĴĮ
åĳĺ ä»¬
æĻ ķ
æĪĳ æł¡
ä»» çĶ¨
å½ĵ å®¶
å¢ŀ èĩ³
è´Ń è¿Ľ
ä¹ĭ éģĵ
ä¹ĭ ä¸¾
éĻĲ å®ļ
åĽĽ æĸ°
åįİ æ¶¦
è¿ĺ ä¸İ
èµ° ç§ģ
000 1
17 8
éħĴ ç²¾
éĨ ĭ
æ¬§ åħĥ
çļ® ä¹¦
ä¼Ĭ å§ĭ
è½´ æī¿
æµħ åĩº
è¡¢ å·ŀ
Ġ I
çļĦ éķ¿
ä¸Ń éĢī
åľ¨ ç¼ĸ
å¤§ çľģ
æĪĲ çīĩ
æĹ¥ å¯¹
åŃ¦ åłĤ
åĵ Ń
å¤ļ æĿ¡
è®¡ ä»·
äºĮ ç±»
èģĶ æīĭ
è§£ éĶģ
å¾Ĺ èµ·
å¤ĸ å®¾
å¤ĩ ä»½
æ¯Ķ åĪĨ
ä¸¤ åĮº
çı Ĭ
çĽ´ åįĩ
å½ķ åĪ¶
15 6
ä½İ ä»·
éĢĤ éħį
åĲ¯ ç¤º
ä¸Ķ ä¸į
éĺ¶ çº§
æ®ĭ å¥¥
æĿ¨ æµ¦
çĵ £
çħ¤ æ°Ķ
è·ĳ åĩº
åĨ· åĨ»
66 6
æ¼« æŃ¥
123 15
Ġ å¤ļ
äºº æŃ¦
åĮĸ åİħ
ä¸į åĸĦ
åŃ¦ ç¤¾
åħļ æģ©
éķ¿ å¤§
å¥½ äºĭ
è¿ĩ åįĬ
åİ¿ ä¹¡
èģĶ ä½ĵ
è½¦ éĺŁ
å¤ĩ å¿ĺ
éħ ¶
ä¹Ł è¶Ĭ
èĢĥ åĬ¡
ä¸¤ å±±
æŀģ åħ¶
çľŁ åĪĩ
åĨĽ åĮº
æĻ® æ´±
19 78
å¾· éĩĮ
çŃ¾ åĪ°
å¯Ĩ äºĳ
éļı å¤Ħ
å¾ģ ç®¡
æ±ĩ ç¼ĸ
æī¬ å¸Ĩ
é² į
å½© ç¤¼
çŁŃ æĹ¶
ç¡¬ ä»Ĺ
æºª åĮº
åĭ¤ åĬ³
åĢį æĦŁ
åħ¼ åħ·
cn info
èµ¶ èĢĥ
éĴ» çłĶ
æı½ åŃĲ
) âĢľ
Ġ çĶ±
çļĦ åĪĨ
ä¸Ģ ç»Ħ
æĺ ¼
å¹´ åįĬ
åħ¬ åħģ
äºĨ ä¸Ń
ä¸į è§ģ
ä¸Ĭ åĨį
æĥ ¨
æłĩ è®°
åĳĺ çŃī
åºĶ äºİ
åħļ æĹĹ
æĿĳ å®¹
æĪĳ éĻ¢
åĲİ åľ¨
äºĮ è·¯
æ¡Ī åıĳ
ä¼ł ç¥¨
éĢł åģĩ
è¿Ļ å¯¹
åıĤ èĤ¡
ç¼ ª
æľ¯ åĲİ
è¢« éªĹ
å¦Ĥ æĺ¯
å¼ķ èĤ²
æ»¡ åĪĨ
åĩı åĪĳ
ä¸´ å¤ı
17 6
äºļ åĨĽ
åħį éĻ¤
çĭ¬ å±ħ
åª ³
é½Ĳ å¸Ĥ
æ»¨ æ²³
çģµ æĦŁ
æ¢ħ èĬ±
çŀ ª
åľĨ æ¢¦
æ·· ä¹±
æĲ¬ è¿Ĳ
çīĻ é½¿
æĬļ æħ°
æĭĸ æĭī
XX XX
æĮ½ åĽŀ
CP I
è ©
çļĦ æĦŁ
åį Ĵ
åĨ ķ
å¸Ĥ åĨľ
æľī ä½ķ
ä¼ļ åĦ¿
ä¸į è®¡
ä»¥ æľĢ
åĩº è¡Ģ
æĭ ¢
é«ĺ æ¶¨
åĪ¶ åīĤ
åħĥ ä¸º
åħļ åľ¨
æ°´ ä¹¡
ä¸ī éĺ²
éĩĩ æĶ¶
æµ· é²ľ
åŀ £
å² ±
æł¡ åıĭ
åĸ ī
æĶ¾ ç½®
èĢĥ åīį
å¿« æīĭ
å®¹ ç¼º
åıĺ çĶµ
30 4
å°ĳ åĦ¿
ç¨³ åĽº
æ¹ĸ æ»¨
åħī åŃ¦
19 97
åĿĩ çĶ±
åį° åĪ¶
ä¸ĥ æ¬¡
17 7
çĶ° éĩİ
åģĩ è®¾
å°½ èģĮ
æ¦Ĥ æĭ¬
èĨ ¨
è±Ĩ èħĲ
éĨī é©¾
åĪł éĻ¤
æ¸¤ æµ·
S H
Ġ æŀĹ
å· ħ
åĩ ³
åľ¨ åĮº
å¤§ å±ķ
ä¼ļ ä¸º
åĽ½ æĥħ
æ³ķ æ¡Ī
æĹ¶ å¸¸
åħ³ ç¨İ
ä¿Ŀ åº·
åī Ķ
äº¤ æĬķ
ä»» åħį
åĲİ åı¯
éĺ² é£İ
åı¯ æĺ¯
å¹¶ åıĳ
æ·± åŃ¦
ä»ĸ åĴĮ
ä¹ĭ æĹ¶
ä¹ĭ ä½Ļ
å¤© å¤©
æŃ£ æľ¬
è¿ĺ åİŁ
æĬĬ èĦī
é» ı
å½± éĻ¢
åį« ä¸ľ
åĩı èĤ¥
æ¹ĸ å·ŀ
ä½Ĩ ä¹Ł
14 3
æ¸¯ èĪª
åı¤ åħ¸
è®¢ ç«ĭ
è´¦ éĿ¢
éļĲ èĶ½
æĭī ç½ĳ
è½» åŀĭ
æĹ© é¤Ĳ
å¤ª è¡Į
æĬĹ ä½ĵ
äºķ åĨĪ
èľ ¡
è¿Ī åĩº
å°Ĭ æķ¬
éĥŃ åĭĴ
è¡£ çī©
ä½Ľ æķĻ
èĻ¹ æ¡¥
åħ½ èį¯
æ¿Ĵ åį±
è© ¹
d f
Ġ éĹ®
åĴĮ å°ı
åľ¨ åľº
è¦ģ åģļ
ä¸į å®ľ
ä¸Ĭ è°ĥ
è¾ ľ
ä¸» åĬĽ
ä¸» å§Ķ
èĥ½ æķĪ
æĸĩ å±±
ä¸ĭ è½¦
éĽ ı
çľģ æĢ»
ç»Ħ åľ¨
æĻ ĥ
åīį å°Ĩ
åķĨ çĶ¨
åķĨ å¯¹
ä¸ĵ è®¿
éĵ ¿
èĲ¥ åı£
èĲ½ ä¸ĭ
åı° åİ¿
ä¹ĭ äºĮ
æµģ ä¼ł
çģ ¸
å¼ķ äºº
æł¡ åĨħ
éĢī èĤ²
å¿Ĺ æĪĲ
åıĺ å±Ģ
19 9
å¯Ĩ éĹŃ
ä¹Ĳ ä¸ļ
å¾Ī å°ĳ
çł´ èİ·
åĽº æľ¬
çŃ¹ èµĦ
åħĭ æĭī
ä»ħ ä¸º
é¢ĳ é¢ĳ
åıĪ èĥ½
æ²¿ æ²³
** *
å°ļ æ¬ł
çķħ è°Ī
æ¦Ĥ è¿°
è§¦ æĳ¸
æģ¶ æĢ§
åģı å·®
ä¹³ ä¸ļ
! âĢĿ
2 16
6 50
Ġ åĽ½
Ġ å¹³
Ġ å±Ģ
ä¸Ģ çľĭ
ä¸Ń éĿĴ
è¡Į ç¨³
å®¶ ç¦½
æ°´ æ²³
çľģ å±ŀ
äº¤ æĪ¿
è¿ĩ é«ĺ
è¿ĩ å¤ļ
æĢ§ æł¼
èĢħ ä¸º
åı¯ åıĬ
ä¹¦ åĴĮ
èĮ «
é¢Ħ æĭĮ
åĽĽ ä½į
åĪĴ è½¬
è¾¾ äº§
è¿ĺ æ¸ħ
æī¿ æı½
é£Ł å®ī
çľĭ åĩº
è§Ĥ å½±
åĪĩ åī²
çĹħ å®³
è¾¹ åĿ¡
å°½ æĥħ
éĽ¶ ç¢³
åĲ¸ æ¯Ĵ
äº© åĿĩ
æĮĤ åĽ¾
å°ģ éĿ¢
å¿ł å®ŀ
æ¡Ĥ åĽŃ
åĭĺ æµĭ
æĹº çĽĽ
èĳ« èĬ¦
D R
Ġ è¿ŀ
çļĦ è·¯
æĶ Ĵ
å¸Ĥ çĽĳ
çĶŁ æ®ĸ
æıĲ åıĬ
æľ¬ æ³ķ
åºĶ åĲĳ
äº¤ ç»ĩ
åĲĳ åħļ
æĢ» åĪĨ
ä¹ĭ æľ¬
è¿ĳ è§Ĩ
æŃ£ è§Ĩ
ä¸ľ åħ´
æĿĥ éĩį
æīĵ æī«
è¥¿ å®ģ
æĹł è¯¯
çĶ± åħ¶
åı£ è¢ĭ
ç¾İ åĨĽ
ç«Ļ åĴĮ
çİĩ éĺŁ
å®¢ äºº
18 8
çĻ½ èıľ
åºĹ åĨħ
çķĻ ä½ı
çĭ¬ è§Ĵ
äº® åĮĸ
éĻµ åİ¿
è¾½ å¸Ĥ
åĭĺ éªĮ
åĲ¹ åĵį
çŁ¢ å¿Ĺ
èĦĲ æ©Ļ
C N
Ġ éĻ¤
çļĦ æľ¬
åĪ ¹
åĮ Ī
âĢľ ãĢĬ
å¸Ĥ éĿĴ
å¸Ĥ æ¸Ŀ
ç§ ¤
åħ¬ è½¦
åĮº ä¸º
çĲĨ æ¸ħ
20 4
æ± Ģ
é¡¹ ä¸ĭ
åĲĪ çº¦
å¿ĥ èĤº
éĩĳ çŃī
éĩĳ çŁ³
æ°´ ä¸Ń
ä¸ĩ è±¡
æķĻ å¯¼
å°Ĩ æĿ¥
éĩĩ çŁ³
ç´ Ĭ
èĮĥ æľ¬
èģĮ åľº
ä¹Ł å¯¹
æ±Ł éķĩ
æĪ¿ æºĲ
åĽ´ å¢Ļ
èº ¬
éĢī æłĳ
30 3
åĪĩ æĸŃ
æ®µ çļĦ
åºı æĹ¶
åħī å½±
ä½İ çļĦ
åį° è¯ģ
æ¶ī æ°´
å¥Ĺ è·¯
æĭī è¿ĳ
åį¡ éĢļ
å¥¹ åľ¨
ç¦ģ çĥ§
ç¼º çļĦ
æķ£ è£ħ
éĽ· éĽ¨
æļĤ ä½ı
å¢Ļ éĿ¢
çıį çıł
ç¬ĳ è¯Ń
ç¡ķ æŀľ
âħ ł
è°£ è¨Ģ
æĭ± å¢ħ
èıı æ³½
% -
C T
çļĦ åºĶ
çļĦ éĺ²
äºº åĽł
ä¸Ģ èĤ¡
âĢľ âĢĺ
ä»¥ å¤§
ä¿Ŀ çķħ
ç½ ¢
é«ĺ ç®¡
ä¸ª èĤ¡
åľº éĿ¢
ä¿¡ éĺ³
è¿ĩ äºİ
åĨħ æ²³
è´¨ çĽĳ
åĪĽ åĪĬ
åĨľ æĹħ
æĶ¶ æį®
éĻ¢ åĮº
æīĢ çĽ¼
åı° åķĨ
æ±Ł æµ·
æīį æľī
ç»Ĩ å¿ĥ
19 8
åĪĿ åĪĽ
é©¬ å°Ķ
åĲ¯ èĪª
åºĵ çļĦ
æ¤į åħ¥
çĶ° åİ¿
æĹ© æĻ¨
æ¯ķ ç«Ł
åĺī åĸĦ
éģµ çħ§
å¥¥ æŀĹ
å®½ å¸¦
ä½³ ç»©
çģ¯ ç¬¼
æĭĴ èħĲ
æ¸¡ è¿Ĳ
æįķ æįī
æ»© åĮº
æĲľ æķĳ
æ®· æ®·
RE IT
Ġ t
Ġ æĭŁ
çļĦ çº¢
ä½ľ æ¡Ī
åıĳ æĢ§
åİ Į
ä¸į æ³ķ
ä¸į èµ·
ä»¥ åħį
åĩº èī²
åĩº åĩ»
ä¸ī åĽĽ
æĸ½ æķĳ
æĬ¥ åĽ½
æ· ¼
è®® éĻ¢
æº ľ
éĻ¢ å¯¹
å½ĵ ä»Ĭ
è¿Ļ ä¸¤
å°± æĬĬ
å±± åľ°
èĬĤ çŃī
å¹² çĩ¥
åįİ çĽĽ
è¯Ħ åħĪ
æĹł åºŁ
è£ Ķ
ä¿® åīª
ç»Ĩ èıĮ
19 88
çĲĥ åľº
åį³ ä¸º
14 8
é¦Ĩ èĹı
åºĹ çļĦ
17 5
æĵ ĺ
äº² æĥħ
æī£ åĩı
è¿½ ç¼´
å¤ı ç²®
æĹ¢ å®ļ
ä¹ħ å®ī
ç©¿ æĪ´
çĶĺ åŃľ
å¼± åĬ¿
ä¾µ åįł
æıŃ éĺ³
PP P
å³¡ è°·
æĳĩ åı·
æ¥· æ¨¡
3 40
å ¬
Ġ %
Ġ |
Ġ åīį
Ġ ä½ķ
Ġ éĻĦ
Ġ åĩ¡
äºº æĹł
ä¸Ģ æīĢ
åĩ ĳ
åĬ¨ çļĦ
é¡¹ ä¹ĭ
éĥ¨ æĢ»
åĬł åİĭ
æľĪ åľ¨
æľĪ ä»»
æľį å½¹
è¿ĩ èĬĤ
æĻ ¤
æĿĳ è²Į
ä»£ å»º
å¤ļ å¤ļ
æ· ¹
èĮ ¹
æīĢ åŃ¦
åįģ å±Ĭ
ä¹ĭ åħī
ä¹ĭ æĺŁ
å¤ĸ åĽ´
æĪĸ å°Ĩ
åįĩ é«ĺ
æĶ¾ ç¼ĵ
åĽł åħ¶
éĥ½ åİ¿
åıĺ å½¢
éĿ© æĸ°
è¶³ åĮº
å½ķ éŁ³
19 98
åĪĿ å§ĭ
ä½Ĩ ä»ĸ
éĻĪ åįİ
Ġ3 1
èħ ķ
æľĽ è¿ľ
17 00
éģĹ æĨ¾
æĭŁ å¯¹
é£ŀ è·ĥ
è¿½ èµ¶
å·´ åŁº
å®ĥ æĺ¯
çĮª çĺŁ
å¯Ĵ åģĩ
æ¼« çĶ»
an d
é¼» åŃĲ
éĿĵ ä¸½
a d
Ġ çĶµ
äºº å¤´
ä¸Ń è¯ķ
å¹´ æľ¬
å±ķ æĴŃ
äºĨ ä¸İ
äº§ åŁİ
æĹ¥ çĶµ
å¯¹ åı°
æıĲ æķĪ
å®¶ è®Ń
åĪĨ åıĳ
åĪ° å¸Ĥ
æİ¨ éĢī
åħ¥ ä¾µ
ä¸ī éĩį
åįķ çº¯
æĿĳ ç»Ħ
åĲİ å®¡
å°Ĩ æĬĬ
ç² ¹
çī© åĴĮ
çī¹ è®¸
è¿ĳ ä¸ī
ç»Ń å»º
ä»İ æŃ¤
æĮī éľĢ
åĬ© æīĭ
å¤į æ£Ģ
ç¾İ è§Ĥ
ä¸¥ æĥ©
åĽł æľª
æŀģ èĩ´
åĽŀ ä¹¡
åŃĺ æ¡£
æĿĲ è´¨
19 95
Ġ2 8
å¸® æķĻ
ä¹Ĳ éĺŁ
æŁĲ çļĦ
æ¶ī é»ĳ
14 7
é¦Ĩ åĨħ
è¿ľ çļĦ
åĲ¸ çĥŁ
åī§ åĽ¢
èĭĹ å¤´
èĵĿ èİĵ
æľĿ å¤©
å¯¿ åİ¿
æĤŁ éĢı
æĹģ åĲ¬
åĮ¹ åħĭ
éĽĩ ä¸»
åĦĭ å·ŀ
2 13
2 27
æĹ ·
åħ¨ èº«
æĶ¿ å§Ķ
æ² ¼
åĩº åľĪ
æ°ĳ å±ħ
ä¾ Ĺ
åĪĨ æĭħ
åıĬ æĹ©
äºİ æŃ¤
å¿ĥ å£°
çĤ¹ å¤ļ
è¿ĩ å¤§
ä»£ ä»·
è´¨ ä¿Ŀ
å°± æŃ¤
åįĹ ç«Ļ
æĪĸ æľī
é¦ ħ
èµ· éĩį
ä¹¡ æĦģ
äºĶ çº§
æİĴ åĪĹ
æĪ¿ ç§Ł
ç¥ŀ å¥ĩ
çº¦ åįł
ç»´ ä¿Ŀ
çºª æ³ķ
çº¢ çļĦ
çĹħ åİŁ
éĢģ å¾Ģ
åĽ¾ æ¡Ī
éĻį éĽª
çģ« æĥħ
14 9
èıľ åĵģ
çľ¼ åħī
éģ¿ æļĳ
åı³ ä¾§
æĲº ç¨ĭ
æıŃ æ¦ľ
æĦģ ä¸ī
å¾Ĵ æŃ¥
å°º åº¦
é³ Į
åĲ¾ å°Ķ
äºŁ å¾ħ
æŁĳ æ©ĺ
ï¼ Ķ
ä¸Ń åįĹ
ä¸į æĪĲ
æĭ §
ä½ĵ éĩı
ç®¡ å±Ģ
å®ī éĿĻ
æĸĩ æ¡£
éĩĳ å¥ĸ
èĬ ®
è§£ æ°ĳ
æĿ¡ æĸĩ
åįĹ èĩ³
è¿ĳ ä»£
æµģ åĲĳ
è¥¿ æĺĮ
æĪ· æĪ·
å·² åĲĳ
ç¾İ åĽ¢
æľª å°½
ä½¿ é¦Ĩ
æİĴ æ°Ķ
æĦŁ è§¦
æĺĵ çĩĥ
è¡¥ æŃ£
ç»Ļ åĩº
30 1
è± ģ
åĨĽ å±ŀ
è£ħ è½½
çĻ¾ åħĥ
åĿĩ åĮĢ
åİħ åī¯
çĪ± åħļ
æ±¡ æ³¥
åº§ æ¤ħ
ç«¯ çļĦ
äº² åıĭ
éĤ® åĤ¨
é¹ Ń
æ¶¨ ä»·
å¯» å¸¸
äºķ çĦ¶
æ´Ĺ è¡£
æķı éĶĲ
å°¾ çŁ¿
çĺ «
åŃ¤ çĭ¬
èĩŃ æ°§
éĶĤ çĶµ
æ¦Ĩ æŀĹ
è½° é¸£
éĹµ è¡Į
7 50
s h
Ġ åĮĹ
äºº äºİ
äºº æīĢ
åľ¨ æĿĳ
å¹´ çºª
æŀ ķ
åľ° çº§
å¼Ģ æĿ¥
æ°ĳ ä¼ģ
æ°ĳ ç»Ī
ä¿Ŀ ä¿®
éĩį åľ¨
åĪĨ è£Ĥ
æľ¬ æĿ¥
éķ¿ éĻĪ
æ´» åĮĸ
æĺİ æľĪ
æĶ¹ åĪ¶
è°ĥ åıĸ
çİ¯ çº¿
æĦı çļĦ
çī© çŃī
çī¹ æĦı
éĻĲ åĢ¼
ç¾¤ çļĦ
åı· éĻ¢
ä»İ éĩį
çŁ¥ è¡Į
æľĢ å¼º
æľĢ å¿«
æł¸ ä¸İ
åħ» çĬ¬
æ¼ ¯
15 1
15 7
è®¸ æĺĮ
å²Ĺ åĮº
è¿½ åģ¿
çİī åħ°
è¸ ¢
å®½ åº¦
éĶ¦ ç»£
.. .
éĺ» æŃ¢
å¼¹ æĢ§
éº» çĥ¦
an g
é¥± æ»¡
æł½ æ¤į
ä¸Ļ çĥ¯
å§ĳ å¨ĺ
éĴī éĴī
4 12
æĸ Ĳ
å·¥ åįķ
å¹´ çīĪ
éĺ ®
ä»¥ èµĽ
ä¿Ŀ èĤ²
ä¿Ŀ å§Ĩ
ä¸» æĿĥ
åĪĨ æł¡
äºĭ çļĦ
æ°´ çĶŁ
åĵģ åĳ³
ç¾ Į
è¿ĩ æķı
åĨħ æ¶Ŀ
ä¸ĩ åĪĨ
è®® åĳĺ
èĢħ çŃī
åħ¶ ä¸İ
åħ¶ è´£
æĶ¹ ç¼ĸ
å¹¿ å®ī
è½¬ è½½
è¿ĺ æľª
æ¹ Ħ
åĽ´ æĮ¡
éĿĴ å°ĳ
åħī è°·
åĳ½ é¢ĺ
äºĴ æķĳ
åĿĩ æĹł
æĺ¥ ç§ĭ
æ¼Ķ ä¹ł
å¾Ī é«ĺ
çĶ° å¾Ħ
23 5
éĽ¨ éĩı
å®Ŀ é©¬
åħ¼ å®¹
ç¼© åĩı
æ³½ åĮº
æ¸Ĳ æ¸Ĳ
ç»ĺ æľ¬
æĥ© ç½ļ
èµ£ åįĹ
å¢ĵ èĳ¬
åĻª éŁ³
èªĵ è¨Ģ
å¦¨ ç¢į
åĤį æĻļ
1 2000
C S
çļĦ çİĭ
äºº æĥħ
äºº ä¹Ł
ä¸ļ åĴĮ
æ³ »
åĮº åıĬ
å»º æŀĦ
å¼Ģ èµĽ
æĹ¶ è¦ģ
åĬł æģ¯
éĩį éĩı
èĥ½ åĬ¨
æľĪ ä¸Ĭ
æĸĩ åįļ
å¹³ é¡¶
åĬŀ åī¯
202 7
èĬ Ļ
ç«ĭ ä¸ļ
çİ¯ åŁİ
åĽĽ ä¸į
é£İ æļ´
æ¸ħ æĻ¨
åĽ¢ ç»Ħ
æĦŁ åı¹
è¡¥ è¶³
çľŁ éĩĳ
åĽŀ åİ»
åĳ¨ ä¸Ģ
æĻ¯ æ°Ķ
çĹħ åİĨ
19 90
è¾ĥ å·®
æķĳ çĶŁ
16 7
åģľ éĿł
åįĥ åĲį
æ¬¢ å£°
å²ģ æľ«
åĢ¾ åĢĴ
èħ¾ åĨ²
èįĴ æ¼ł
æ¢§ å·ŀ
çĢ ļ
æĻ¾ æĻĴ
æĵĺ çĶ»
2 18
o t
Ġ åĪ°
Ġ åı°
ä¸Ń ä¹Ł
åĴĮ åħ¨
åĴĮ åı¯
åıĳ è´§
æľī åĪ¶
æľī æĿ¡
å¤§ å±±
åĮº é«ĺ
è¦ģ è®©
è¿Ľ ä¿®
æ² ¸
ä¸į å·²
åľ° æĬĬ
æĹ¥ åĪ°
ä¿Ŀ éĩı
å®ļ åİ¿
åĪ¶ å¤ĩ
åºĶ ä»¥
å¿ĥ ç³»
éĩĳ ç§ĭ
å¹³ è°·
æĿ¥ è®²
æ°´ çŃī
åĵģ è¡Į
çľģ çļĦ
åįķ ä½ĵ
æĬ¥ è¯·
ä»£ ä»£
ä¸ĩ åıª
å°Ĩ çĶ±
åı¯ æĮī
æĶ¶ ä»¶
æīĢ çŃī
æł¼ å°Ķ
é¢Ħ åħĪ
æİ¥ åĨį
æİĴ åºı
è£ħ è®¢
æ¶ī æģ¶
åħ« æĸ¹
éĵģ å¡Ķ
åİĭ åĻ¨
åįĥ äºº
åį¡ åı£
23 7
éĴ± åĮħ
çģ¯ å¡Ķ
åĨ· èĹı
è§¦ è§Ĵ
åĬ² æĿ¾
èµ¶ ç´§
çĸı è§£
æ¹ĺ æ±Ł
è±ª åįİ
è·Į å¹ħ
èįĴ åľ°
B åº§
I N
k V
å¸Ĥ åĲĦ
æľī ä¸ª
éĹ ·
å®ŀ åĬ¡
èĢ į
20 3
æĺ¯ é«ĺ
å¯¹ é«ĺ
éĢļ è¯Ŀ
æľ¬ ç«Ļ
çľģ å±Ģ
æ· Į
åķĨ éĩı
çĶµ åı°
ä¾Ľ åľ°
æº §
éĻ¢ åī¯
æĮĩ åľ¨
è½¦ åľ¨
å¾Ĺ å¾Ī
éľ ī
åįĹ å²¸
çħ§ äº®
å·² å°Ĩ
åħĪ æľŁ
éĥ½ å°Ĩ
åħħ åĢ¼
é¢Ŀ å¤ĸ
èµĽ çļĦ
éļ¾ å¿ĺ
éĻ¤ å°ĺ
æĺ¥ åįİ
è¿ŀ è¿ŀ
è´§ åĢ¼
ä¸ĥ å¤ķ
23 00
æĿ¨ æ¢ħ
çīĪ åĽ¾
çĽĽ ä¸ĸ
åĲ´ å¿ł
âĳ £
å´ĩ å¾·
æ´ŀ å¯Ł
æ¸¡ èĪ¹
åĤ¬ äºº
éħĮ æĥħ
2 11
C D
ä¸ ĳ
æł ¾
åľ¨ èĤ©
å¹´ åĪ°
çº Ĥ
ä¸º åħ¨
ä¸Ĭ åģļ
å¯¹ åįİ
åĬĽ è¡Į
ä¸» æĿ¿
éĩį æĭ³
è· »
ä¸ĭ æµ®
ç»Ħ åĪ«
åĲİ éĿ¢
æĢ» ä»·
è½¦ è½½
è½¦ åİ¢
ä»ĸ å°±
å¤ĩ èĢķ
ç§į çļĦ
äºĶ ä½į
åĽŃ åĨħ
ç«Ļ åı°
èº ²
åľŁ è±Ĩ
çĹħ åŃ¦
çıŃ æ¬¡
é¾Ļ å±±
é»Ħ åŁĶ
è¿ľ æĸ¹
ä»ħ ä»ħ
çĭ¬ èµĦ
æĬĹ åĬĽ
åİļ çĪ±
å°ģ ä¿¡
å°ģ é¡¶
æ¢ħ å·ŀ
Ġ20 80
IP O
è¾Ī åŃĲ
èĤł éģĵ
èµİ åĽŀ
3 80
Ġ :
ä½ ĳ
åĩ ¿
å¹´ æĸ°
ä¼ļ ä»¥
åĽ½ åĬ¨
è¿Ľ æĶ»
æŃ ª
éķ Ģ
åĪ¶ æ¯Ĵ
èĩª å»º
ä¸ī åĽ½
å¤ļ å¤Ħ
ä¸ĩ ç§ĳ
è·¯ çŃī
ç«ĭ å¿Ĺ
æ£ ±
ç»Ł æ²»
é¢Ĩ è¡Ķ
èĲ½ åľ¨
éĶ µ
å¤© å±±
å¤© ç©º
æĪĸ æľª
è¢ į
èµ· æŃ¢
å¤ĩ è¯¾
æīĵ åĪĨ
çĥ ĥ
åĽ¢ åľĨ
çľŁ çĽ¸
è¯ķ åį·
åĪ« åħĭ
åŃĺ è´§
åĳ¨ åı£
ä½Ļ å¹´
ä½Ļ ç§į
é¾ Ł
åıĮ æīĭ
äºī å¤º
15 4
ä¸ĥ å¤§
æ±ĩ æ¼Ķ
éģĩ è§ģ
åį± åºŁ
æ±ī æľį
éħĴ åĲİ
ä¼Ł ä¸ļ
éĤ£ æĹ¶
æ´ª æ¹ĸ
éĴ¢ æĿ¿
çº² é¢Ĩ
æ·ĺ å®Ŀ
æµĩ çŃĳ
äº³ å·ŀ
éŃĶ æľ¯
çĬ¹ å¦Ĥ
GP T
èĨ³ é£Ł
o f
Ġ æĮī
Ġ åĶĲ
çļ Ĥ
åĨ ī
æī ¯
ä¸Ģ æł¹
ä½ľ å¼Ĭ
åľ¨ åİŁ
æ³ ĵ
æµ ľ
äºĨ åħ¶
æĸ° æĶ¿
æĹ¶ èĢĮ
æİ¨ çĲĨ
éĩĳ åĴĮ
00 2
æ°´ æ¸ħ
åħ± çŃĳ
æĪĳ å®¶
åīį æµ·
æ¶ ¡
ä¸ĩ å¥Ĺ
ä¸ĩ åįĥ
ä¸ĵ æ¬¾
èĬ ĭ
éĩĩ é£İ
å½ĵ æĻļ
çİ¯ è·¯
å±± èĮ¶
å¤ĸ çľģ
å² Ĳ
è¿ĺ æľ¬
éĺ³ éķĩ
åıĮ èµ¢
ç½ļ ç¼´
éĻ¤ éĻ©
æ¸© æĥħ
é©¬ åĬĽ
æĦ¿ åĲĮ
åħ« æ¬¡
è´§ æºĲ
ä¹Ŀ ä¸ī
åºĹ éĩĮ
æĹ¢ èĥ½
å¤ľ æĻļ
æī« é»Ħ
æºª æĿĳ
å¡Ķ å°Ķ
çĳŀ è¾¾
äºķ çĽĸ
åĬ² å¤´
éĦ ±
åī¥ å¤º
æŃ§ è§Ĩ
çŀª ç¾ļ
m l
Ġ èĢģ
Ļ åİ¿
è¿ ¸
è´ »
æł ħ
ä¸Ń è¯´
ä¸º åľ¨
åħ¨ å®¶
å»º ç«ł
ä¸Ĭ æ±½
çĶ¨ æ´»
éĩį æŀĦ
æľĪ åº¦
è° İ
ä¸İ ä¹ĭ
è¿ĩ äºĨ
æĪĳ ä¸į
çĶµ æ±ĩ
çĽ¸ å·®
çĽ¸ ä¼´
åĲį åĮ»
è§£ è¯´
æīĢ èĩ´
æŃ¥ èµ°
æµ· æ°´
åģļ æ·±
åĮĹ èĩ³
ç§¯ æ·Ģ
æľĢ æľī
å¦Ĥ åľ¨
æĭĽ èĢĥ
æľª æľī
åħĪ å¤©
è®© å¥¹
èĢĮ éĿŀ
åĪĹ æĶ¯
15 3
19 92
è¾ĥ ä¸Ĭ
çģ« éĶħ
ç´ł æľī
14 2
éĢĢ è´§
åĢŁ åĬĽ
é©» åįİ
åĿĹ éĴ±
æĽ¾ æĺ¯
çĶ² éĨĩ
ç¹ģ æ®ĸ
è¡¡ éĺ³
çĽ¾ æŀĦ
ç¨¿ ä»¶
åĿª æĿĳ
æ³¡ æ²«
æ²§ å·ŀ
è·» èº«
u s
åĲ ĵ
äºº åĪ°
åĴ ı
å¸Ĥ åĴĮ
åĮº ä¸Ń
åĮº çĽ´
æĶ¿ æĿĥ
ä¸į çķħ
ä¸į éĶĪ
ä»¥ èĩ´
åľ° å°Ĩ
ï¼Ľ (
éļ ĭ
ç»Ħ è£ħ
ä¸ī çľģ
æ±Ĥ ç²¾
åĨľ åİĨ
æĬķ è¿Ĳ
ç½ĳ çļĦ
éĶ Į
å¦ ĥ
æĮī å¹´
èĭ Ł
å·² ä¸º
è´¢ éĩĩ
æ¸ħ å¸Ĥ
åŀĭ çļĦ
å¸Ī å¤§
éĴ °
æĴ Ĥ
30 5
30 9
ç¨³ å±ħ
çīĮ çħ§
å½ķ åĥı
æīĺ åħ»
èįī èį¯
è¾ĸ åĨħ
è¿Ķ ç¨ĭ
å°Ħ çº¿
åĨ² æ´Ĺ
èĦļ ä¸ĭ
å°Ĭ å´ĩ
æĹģ è¾¹
ç¢° ç¡¬
P A
Ġ W
çļĦ èĩª
çļĦ å¾®
éĻ Ĥ
åľ¨ æ¯ı
åĮº å¤§
æĺ¯ ä¸Ń
æ°ĳ é£İ
æĸ¹ èĥ½
åĪ° åħļ
åĪ¶ åĴĮ
ä¸İ å¤§
éķ¿ æĬ¤
åĲĦ åħ·
ç§ĳ å¤§
å°Ĩ æĮī
çĽ¸ çº¦
é¢Ĩ åľŁ
æĽ´ æĶ¹
èĪ ľ
æĮī æĳ©
ä¹Ł è®¸
æľĢ å°ı
éĺŁ åıĭ
è¿ĺ çĶ°
ä¸¥ æīĵ
æ°Ķ è´¨
åħ´ åĽ½
åħ´ åİ¿
çĻ¾ å®¶
åĩı å¼±
çıŃ éķ¿
æķħ éĩĮ
éĻį åĪ°
åħ« ä¸Ģ
éĻĪ å»º
åĽº åĮĸ
åĲ¬ ä¼Ĺ
çŃ¹ åĪĴ
æĸ¯ æ´Ľ
æĹ© æĹ©
äº© äº§
èĹ »
å¹¸ è¿Ĳ
éĺ¿ åħĭ
è¿ģ å»º
å¯Ħ è¯Ń
èĦī ç»ľ
å¥Ķ é©°
åĪĢ åĪĥ
å¸Ĳ ç¯·
éªļ æī°
é¥º åŃĲ
S A
çļĦ ä»¥
çļĦ çĶµ
æĺ ı
åĴĮ èĢģ
çĲ Ĳ
ä¼ļ æĻ¤
ç® Ķ
èĢ ½
å®ļ éĩı
æĸ¹ éĺµ
ä¸» è®²
æĸĩ åı·
åĿ »
å±Ģ äºİ
çľģ ä¸Ń
åĲĦ åħļ
ä¸ī äºº
å¯¼ åħ¥
çĽ¸ éĢļ
éĩĩ æİĺ
æµ· æ¶Ľ
åİŁ æĸĩ
ä¼ĺ å±ŀ
ä¹Ł å·²
æĹł æ¯Ķ
æĶ¾ çľ¼
èº« ç©¿
åĶ ĩ
æīį ä¼ļ
è®² ç©¶
åĪ« å¢ħ
å¼ł æĻĵ
è¶ħ å£°
èį¯ æ¢°
ç»ľ ç»İ
çŁ³ éĹ¨
ç¬¦ åı·
æłĳ ç§į
è´¸ ä¿ĥ
åħį åİ»
é¢ĳ åıĳ
éĺ¶ å±Ĥ
å®Ŀ åĿ»
æĵį æİ§
åĨ¬ æĹ¥
æµĻ åķĨ
éª¨ å¤´
é¡¶ çº§
çĮª åľº
è¿Ī åħ¥
èĵĦ èĥ½
æī° æ°ĳ
èį· èĬ±
å¥ı åĵį
2 200
Ġ Â·
Ġ 2016
çļĦ éĿĴ
å¹´ åĴĮ
ä¸º åĨľ
æľī å¥ĸ
æµ ļ
æĸ° ä½Ļ
åĮĸ åĲĪ
çŃī åĬŁ
å®¶ å®¶
åĪ° ä¸Ń
ä¸ĭ çıŃ
èĩª ä»İ
æĿ¥ åįİ
æĿ¥ å¾Ģ
æį Ĩ
åĲĦ æł¡
åħ± ä½ĵ
ä¸ī è¯ģ
ä»£ åģ¿
åķĨ åı¯
çĽ¸ éĤ»
åĲį èªī
åĲĳ çĿĢ
ä¼ł æĿ¥
åįĹ å¹³
æµģ çļĦ
ç§¯ èĵĦ
ä¹Ł éĥ½
èĬĤ åĲİ
å¿« æĬ¥
å¼ł æĸĩ
åĢ¼ ä¸º
åľŁ å»º
Ġ1 99
èį¯ æĪ¿
éĵ¶ æ²³
éļı è®¿
æ¼Ķ è¿Ľ
çĽĸ æľī
èĪª è¡Į
åİĤ çļĦ
éĽ¶ é£Ł
éĽ¶ æĺŁ
éŁ³ é¢ĳ
é½Ĳ é½Ĳ
åį´ æĺ¯
çĹķ è¿¹
éĵ¿ éĶµ
Ġ æŃ¤
ä¸Ģ æī«
ä¸º å¤§
åĮº è¦ģ
åĮº æĢ»
åĬ¨ å·¥
èĢ ĺ
æ³ķ åŃ¦
åľ° è²Į
çŃī éĿŀ
ç®¡ åĳĺ
åĬł æĮģ
åĪĨ è®¸
ä¸İ åħ±
éĩĳ é¾Ļ
éķ¿ çº¦
æ°´ ç½ĳ
æ°´ æĹ±
æĶ¯ æķĻ
èĮ Ĺ
ç¥ º
ç¾¤ æ²»
éķĩ åŁŁ
æīĭ æĮģ
ç«Ļ åĨħ
æ²³ è¥¿
è§Ĥ éŁ³
é¦ĸ æĹ¥
èĩ´ çĹħ
Ġ2 9
ä¸´ æ²§
16 9
åħį å¾ģ
è¿ľ æµģ
å°½ äº«
åį¡ è½¦
ç«¥ å¿ĥ
é£ŀ æī¬
è·¨ åĮº
æ´ģ åĩĢ
åĪĳ ä¾¦
å£® éĺĶ
æľĿ å¤ķ
çŀ °
èĸĦ èĨľ
æĭľ è®¿
çĦķ æĸ°
æ´Ĵ æ°´
èĤĮ èĤī
4 20
Ã ·
Ġ æĬĬ
çļĦ è¦ģ
ä¸Ģ è½®
åľ¨ ä¸ľ
åĩº ä¸į
æĪĲ åĥı
çĶ¨ åħ·
æĹ¥ æĸ°
åĬĽ ä¿ĥ
ä¿Ŀ åĪ©
åĬł çłģ
åĵģ éī´
è¿ĩ åĨ¬
æ²» è¶ħ
ä¸ī æĶ¯
åĨħ æľª
ç³ ¯
éĩı äº§
è®® ä¼ļ
è´¹ ä¸º
å¹¶ ç½ĳ
è¿Ĳ åŁİ
èĲ½ å¹ķ
é¢Ħ ä»ĺ
ç²¾ ç¾İ
æ£Ģ ç´¢
èĪ µ
çŁ¥ çļĦ
è¥¿ åĵ¥
æĭĽ åĳ¼
ç¥ŀ åľ£
å¸Ī é£İ
éĴ ®
ç¨İ é¢Ŀ
èĢĮ æľª
é¦ĸ åľº
é¦ĸ åºĹ
é¦ĸ å¥Ĺ
ç¦ı å½©
15 000
çĻ» åľº
åı² ä¸Ĭ
19 5
åºķ åº§
è¿ŀ éĺŁ
å¥³ ç«¥
çĻ½ æ²Ļ
çķĻ å¿µ
å£° ç§°
ä»ħ éľĢ
åį¡ çĤ¹
æ¦ ¨
ä»¤ èĲ¥
åĭĩ æĭħ
ä»į æĺ¯
åĲĥ çļĦ
éĢı æŀĲ
ç§ģ èĩª
æ¼Ĥ äº®
çĢ ĳ
æĽĻ åħī
d o
i g
Ġ å±±
Ġ 70
å± ¹
ä¸Ń æŃ¢
åľ¨ ä¸»
åľ¨ å±±
åľ¨ è¥¿
æľī å£°
å¤§ æīĭ
åĮº åľ¨
ä¸Ĭ éĺµ
åĩº è´§
æıĲ è®®
ä¸» è§Ĵ
åĵ Ħ
åĲĮ æµİ
ç»Ħ åĴĮ
ä¸ī å±Ĥ
åŁº åĿĳ
æĪĳ åİħ
åĲİ åįģ
å°Ĩ åĨĽ
åı¯ åĲĳ
è·¯ èĩ³
éĻ¢ èĲ½
ç½ĳ è´Ń
èģĮ æķĻ
åı£ åĳ³
è½¬ åĬŀ
æĭĽ åıĮ
ä¸¤ é«ĺ
ä¸¤ éĻ¢
å¤´ åıĳ
è¡¥ æ°´
é£Ł å®¿
çķĮ éĻĲ
åºķ å±Ĥ
æĿİ å¼º
æŁĲ ç§į
å¥³ è¶³
17 9
è¨Ģ è®º
æĭī åħĭ
éĢĲ æĪ·
éĽ¨ æĥħ
æ±ī åŃĹ
å¤ª å¤ļ
è½® æ¤ħ
éľĩ èį¡
çİ© æ³ķ
èĸª çģ«
å©´ åĦ¿
æ·¡ æ°´
æģ° éĢ¢
; &
çļĦ éĴ±
åĮ ¾
å¹´ æĹł
åħ¨ åľº
çĶŁ äºİ
è¿Ľ ç«Ļ
åĮĸ çİĩ
ä¸Ĭ åĲĪ
åŃ¦ åĮº
åŃ¦ æĢĿ
åĪ¶ åĶ®
åºĶ çŁ¥
å¹³ æĿ¿
åħļ ç®¡
éĩı åĴĮ
ä¸ĵ åĪĹ
æĶ¶ çļĦ
å¢ŀ æĮģ
éĽĨ è®Ń
åįģ é¡¹
èµ· ä¼ı
ä»· æ¯Ķ
ä¹¡ åİ¿
åĬ© èĢģ
æ±Ł è·¯
å¤´ æĿ¡
30 8
çİĩ ä¸ĭ
é¢Ŀ è¾¾
åĨĽ ä¼ĳ
éĺ³ æ³ī
å¯Į å¼º
å®Ī æľĽ
é»Ħ æŁĲ
è¶Ĭ æĺ¯
100 000
è¯» æĩĤ
é¸ ½
èĪ¬ çļĦ
æĬĹ è¾©
çĽĺ ä¸Ń
åĩĢ åľŁ
å®½ æĿ¾
å¢Ļ ä½ĵ
æĺĨ å±±
æ¨ª çĲ´
åĢ¾ åĬĽ
æĶĢ çĻ»
éĺľ éĺ³
åŁĭ å¤´
ä¸§ èĳ¬
æ»ĩ æ±ł
D N
çļĦ åī¯
çļĦ çĻ½
äºº æĿ¨
äºº èĦ¸
ä¸Ģ è§Ī
å¸Ĥ å°Ĩ
åıĳ åħī
å¤§ å±ı
çĶŁ çŃī
å±ķ éĻĪ
æĹ¥ å¤ľ
æľĪ çĲĥ
æľº åĴĮ
éķ¿ èĢħ
æĪĳ åı¸
å¤ļ åľº
æĺİ ä»£
æº ĥ
å¹¶ æĬ¥
éĽĨ éĩĩ
æĮĩ ä¸º
åĽĽ åĮĸ
èį ¼
æµģ åĩº
å¸¸ å¾·
å¦Ĥ åĽł
æ¯Ķ åŃ¦
æĶ¾ åħ¥
æ¶Ī çģŃ
è¿ĺ æ²¡
ä¸¤ çĽ´
èĤ¡ å¸Ĥ
éĴ ł
åĽŀ æľĽ
èĢĮ åıĪ
æĴ ķ
æ»¡ æĹı
åľŁ æĸ¹
åħī å½©
çĥŃ è®®
19 94
è¯¾ æĹ¶
æĤ£ çĹħ
ä»ħ çĶ¨
åįĬ å¾Ħ
æı´ å»º
é©» å¸Ĥ
è¿½ å¯»
æĬĹ åİŁ
éĤ£ æł·
æĻļ å¹´
æķ£ åıĳ
æ»¨ åĮº
ç©¿ å±±
æŃĮ åĶ±
å« Ĥ
æ¢¯ æ¬¡
å¥¶ çīĽ
è´º åħ°
éĵ¸ å°±
å·§ å¦Ļ
çķª èĮĦ
ä»¿ çľŁ
èĴ¸ æ±½
LP R
4 80
C o
Ġ N
Ġ äºİ
Ġ çľŁ
çļĦ ä¸º
çļĦ åıį
çļĦ å¼ł
ä¸Ģ åįķ
è¡Į æĺŁ
åħ¬ æĿĤ
åĽ½ å®ī
åĽ½ æłĩ
çĶŁ æºĲ
ä¸Ĭ è¦ģ
æĹ¥ è¶ĭ
å®ī çĽĳ
ä¸ª å¤§
æľĪ äº®
äºİ è¡Į
ä¸İ é«ĺ
åĬŀ çŃī
é£ Ļ
æ· ¬
åķĨ æ´Ľ
ä¸ĵ æ¡Ī
èĮ ľ
è°ĥ è¿Ĳ
åĲį åĪĹ
å¹¶ ä»İ
å·ŀ çļĦ
å·ŀ éķ¿
åı· ä»¤
æ® ´
ä¹Ł ç»Ļ
å·² å¯¹
å·² ä¸İ
äºĶ å½©
æĪ¿ ä¼ģ
éĴ Ľ
åĪĩ æį¢
éĢģ å®¡
ç¨³ äº§
æ¹ĸ éķĩ
åĪĿ è¡·
é¾Ļ æ½Ń
çĪ± èĢģ
éļı åľ°
çģ« å¦Ĥ
è½½ å®¢
æĵ Ĥ
èĦ± ç¦»
28 5
âĢĻ âĢĿ
ä¼¤ åĳĺ
ç¦ģ æįķ
åĸľ äºº
å© ī
å½Ĵ åı£
åĲĥ å¾Ĺ
çĶ· ç¯®
åĨ· éĿĻ
è´º ä¿¡
éĦĤ å·ŀ
æ¡Į æ¤ħ
é¥± åĲ«
åĶ¤ éĨĴ
èĿ ĩ
æ®¡ ä»ª
âĨ ĵ
O p
S C
i r
Ġ åĨħ
Ġ åĲĳ
Ġ ç¦ı
ä¸Ń æ¸¸
ä¸Ń å¥ĸ
åĴĮ ä¸ĭ
ä¸º çİĭ
ä¸º éī´
åĽ½ ç±į
äºĨ å¥½
æ² Ń
åĮĸ çŁ³
ä»¥ åįĹ
ä»¥ åĮĹ
ä¸ª æ¡Ī
æłĩ ä»·
èĥ½ è®©
åıĬ å¸Ĥ
åºĶ åıĹ
éĩĳ éĻµ
èĩª çłĶ
åįķ äº§
çł ¸
ä¸ĩ æ¬¡
åķ ĥ
éĹ¨ å¸Ĥ
ç«ĭ åĪ¶
æģ ¼
é¢Ĩ è¢ĸ
åı° èµĦ
æİ¥ è¯ī
ç»Ń èģĺ
é£İ åĲĳ
è¢« çĽĹ
åĮĹ çº¦
æīĵ åĩº
æŀľ å®ŀ
è½¬ ä¸ļ
åĸĦ åĲİ
ä¿ĥ å¹²
åĭ Ĳ
åħŃ é¡¹
ä½İ æ´¼
èĩ´ çĶµ
åİħ çŃī
åı¬ åĽŀ
é©¬ éĵĥ
æ½ ŀ
æ¸¯ æ¹¾
çŁ³ å¢¨
18 2
èįī åĿª
é¡º åİ¿
éĹ» åĲį
é£ŀ èĪ¹
è¿½ æ¢¦
åįĸ åľº
æ±ł å·ŀ
éĺµ å®¹
èĽ Ļ
ç¼ĵ ç¼ĵ
æ³¥ åľŁ
éĵ¸ éĢł
åħĳ ä»ĺ
åģ¶ çĦ¶
å¤ķ éĺ³
èĤĩ åºĨ
æ©Ļ èī²
9 13
A T
H z
Ġ çİ°
Ġ ç³»
Ġ éĿĴ
ï¼Į [
çļĦ é»Ħ
æĺ ±
å·¥ åĨľ
ä¸Ń éĺ¿
æİ ı
åľ¨ ä¸º
åľ¨ æ°´
åıĳ å£°
å¹´ éĩĮ
æĮ ł
çİ ®
å¤§ æĪĺ
å¤§ å¦Ī
å¾ Ļ
äºĨ æĪĳ
ä¸į æĦ¿
æĺ¯ ä¸İ
åĬł çĤ¹
åĪĨ å¼Ģ
åĪĨ æ³Į
æľ¬ æľĪ
å¼º åĬ¿
åĵģ ä½į
è´¨ æ£Ģ
ä¸ĩ åı°
åħ¶ å¯¹
æĶ¶ æ²»
ä¹ĭ ç§°
æµ· æ²³
ç¼ ł
ä¹Ł ä»İ
è¥¿ å±±
å¼ķ æ°´
æł¡ åľ°
æł¡ è½¦
æĪ¿ è´·
èº« å¤Ħ
åĮħ å¹²
è¯ī åīį
åħ´ åĨľ
é¦ĸ åı°
çĥŃ çģ«
çĭ ¼
ä¸ĸ ä»£
æĿİ å®¶
å±¥ è´£
è¾ĵ çĶµ
åº§ ä½į
æİ¢ ç©¶
çĶ° æĿĳ
äº² äºº
åĨĻ éģĵ
è¿İ å®¾
é¦Ļ å±±
çī§ ä¸ļ
è¿¹ è±¡
æ³½ æ°ĳ
å¡ĺ éķĩ
å©ļ ç¤¼
é»ĺ è®¤
åİ¨ å¸Ī
åŃ¤ å¯¡
å¸½ åŃĲ
çĽĨ åľ°
PD F
4 40
B C
Ġ ï¼
Ġ ä»»
Ġ 2015
åĲ µ
ä½ľ åĪĻ
åħ¬ æĸĩ
æľī æĸ°
å¼Ģ åĩº
æĹ¶ éľĢ
æĹ¥ è¢«
ä¿Ŀ åįķ
åĪ° åĲĦ
æľº è¦ģ
åħĥ é¦ĸ
å¿ĥ ä¸Ĭ
ï¼Ľ ãĢĬ
å¥½ åĥı
æ´» æ³¼
åīį åľ¨
ä¸ĩ ä¼Ĺ
æĢ§ åıĬ
å°ı æīĭ
çĶµ å·¥
æ£ ĺ
å¢ŀ ä¿¡
æºĲ æ³ī
è½¦ çīĮ
å¾Ĺ äºĨ
å¾Ĺ ä¸Ĭ
åįģ éĩĮ
çº¿ çŃī
å·ŀ æ¹¾
æİ¥ çıŃ
é£İ çŃĿ
äºĶ æĮĩ
æĬĬ ä¹ł
åĮħ çļĦ
åİ» çļĦ
19 2
19 7
é¾Ļ éķĩ
ç¼ĸ çºĤ
è¯¾ çļĦ
çīĩ çļĦ
éĢĢ è´¹
æ¤ °
16 1
ç§Ģ ç¾İ
åĨĻ çħ§
æ²Ļ æ»©
éŁ³ åĥı
åºŁ æłĩ
å°ļ åľ¨
èĭĹ åľĥ
è¿ħ çĮĽ
éĶ¦ èµĽ
èµł ä¸İ
é»ĺ å¥ĳ
çº¯ æ´ģ
re ak
æµ¸ æ¶¦
éĢĥ éģ¿
âħ £
æ¨± èĬ±
æĬĦ éĢģ
æĺ¼ å¤ľ
) ï¼ļ
2 12
D NA
E PC
Ġ ä½Ļ
çļĦ çĶŁ
çļĦ éĩĳ
ä¼ ½
è¯ Ģ
ä¸Ń ä¿Ħ
åľ¨ åİ¿
åħ¬ å¼ı
æĶ¿ é£İ
æĸ° é¢ĸ
ä¸į ç´Ĭ
å¼Ģ æºĲ
å¯¹ åĨħ
åĬĽ åŃ¦
çľ ·
æĦ ¤
éĽ į
æ¡ Ķ
å¹³ æ°ĳ
åĨħ éĺ²
åĲİ èĢħ
æ¬¡ æĢ§
ä¸ĩ ä¼ģ
æĬķ éĢĴ
çĽ¸ åıį
ä¸ĵ ç¨ĭ
èģĶ åĲį
éĩĩ æļĸ
é¢Ĩ åŃ¦
æµ· å²Ľ
ç¼ ī
å¤© æ¡¥
è¯· æĤ¨
ç¾İ å¦Ĩ
æľª åĲĳ
æī¿ å»º
ä¿ĥ åŃ¦
æļ ĩ
åı² æĸĻ
åĿĩ çŃī
èĬ± æł·
ç¼ĸ ç¨ĭ
å¸® å¸¦
è¿ŀ çĿĢ
åģľ è¿Ĳ
28 00
èĮ¶ åĨľ
æľ¨ èĢ³
æĺĮ å¹³
æŃĮ æīĭ
æ»ĳ åĨ°
è¾© è¯ģ
æĳĨ èĦ±
åģı ä½İ
ä¼¦ æķ¦
è¿ª åºĨ
å¿§ æĤ£
æ»ĭ çĶŁ
åŃķ å¦ĩ
èĲ§ å±±
ç¯Ĩ åĪ»
5 20
e m
p ag
Ġ èĭ¥
ä¸Ń ä¸į
ä¸Ĭ äºĳ
åľ° ç¼ĺ
çŃī ä¸İ
éĥ¨ å°Ĩ
åŃ¦ æĩĤ
æĭ Ń
é«ĺ çĤ¹
åĬł è®¡
æĸĩ æĸĮ
è° ¯
äº¤ ä»£
æĪĳ æĸ¹
ä¹¦ æĪ¿
è°ĥ åħ¥
æºĲ èĩª
æĽ´ èĥ½
å°± è¢«
çī¹ çº¦
çº¿ åĴĮ
åįĩ è§Ħ
èģĮ çº§
å¤ĩ çĶ¨
å¸¸ çĶ¨
æĮī åİŁ
èĬĤ æ°Ķ
èĬĤ ä¿Ń
æ±Ł ä¸ľ
æĹł å¿§
æĶ¾ åĪ°
æĶ¾ ä¸ĭ
åĽŃ èīº
è¯´ åĪ°
èĤ¡ å®¤
å¾ĭ å·±
ç¨İ æ³ķ
è¯¥ åĽ½
çľŁ æĮļ
åĽŀ è¿ģ
åĪĩ åĭ¿
èµ° çļĦ
åİĨ ç»ĥ
æĻ® äº¬
åİ» åĲĳ
åĶ® ç¥¨
è¯¾ å¤ĸ
æ¤ İ
ä¹° äºĨ
ĠĊ Ġ
é² ¤
èįī åľ°
26 6
âĢĻ ãĢĤ
ç¦ģ æ¸Ķ
èĥĮ è¡Ĺ
æĭ¿ èµ·
æĲľ éĽĨ
é¥± åĴĮ
æ¬º éªĹ
èĬĿ éº»
èĤ¢ ä½ĵ
eb reak
2 100
D A
z f
Ġ ,
Ġ åı¤
çļĦ ç¡¬
å¯ Ĥ
ä¸Ń å¾·
åĩ ¹
å¼Ģ åľº
çŃī ä»¥
æĹ¥ æ¸Ĳ
æ°ĳ å·¥
å®ļ ä¸º
å®ī æĬļ
ç»ı åıĹ
ç»ı éĶĢ
åĪĨ æĪĲ
æľº è½¦
éĿ¢ æºĲ
ä»¶ çļĦ
ä¸ī èµĦ
æ¬¡ çĶŁ
åı¯ ä¸į
ä¹¦ çŃī
è·¯ åĨµ
éģĵ åı£
æĽ´ ä¼ĺ
æł¼ éĩĮ
åı° åĬŀ
çķ ²
æµ· åºķ
ç¼ ¸
æĮī éĴ®
å¹² æµģ
ç¾İ åĳ³
åĽł èĢĮ
éĥ½ è¢«
åĨĽ è¯´
åį« å£«
éĶĢ è·¯
æĻ¯ èī²
çĹħ åĮº
åİ» åģļ
19 49
åĨį åĪĽ
é©¬ æŁĲ
ç«ŀ çĽ¸
èı ģ
18 6
åĲ¬ å¾Ĺ
çķĻ æĬµ
åĪĺ å¿Ĺ
ç«¯ æŃ£
åĪ» èĭ¦
é¡º å»¶
æ²Ł æ¸ł
çİī æłĳ
çħ İ
çħ ľ
å·´ å·ŀ
æĬ½ çŃ¾
æŀ¶ è®¾
æĻĵ æĺİ
éªĹ åŃĲ
é¡µ å²©
çºµ æ¨ª
éŀ ł
åłĨ ç§¯
å´Ń æĸ°
è£¸ éľ²
3 15
a a
äº ¨
çļĦ ä½İ
åľ¨ ç¬¬
å¹´ ä¸º
è¦ģ ä¸İ
æĸ° åħµ
ä¸į çŃī
ä»¥ è´¯
åľ° åĪ©
æĹ¶ éĢŁ
æ°ĳ å»º
ä¸» åľº
éĢļ å¾Ģ
åĪĨ æ®µ
åĳĺ çİĭ
åĳĺ æĿİ
éĩĳ åıĬ
çĤ¹ çŃī
åĲİ åĬ²
åĲİ åŃĶ
å¤ļ æĿ¥
æĺİ çŁ¥
åķĨ æĬ¥
æīĢ è¾ĸ
å°± ä¸į
åİŁ åī¯
å¤© åłĤ
åı· è§Ĵ
æŃ£ å¥½
æ±Ł è±ļ
å¹² æ¶ī
æĹł ä¸į
èŀį åªĴ
æľª æ»¡
å¸¦ åĪ°
æ¢ ¢
æĭħ è´£
ç»Ļ ä½ł
åıį æģĲ
é¦ĸ éĢī
æĳ Ĵ
çĮ ķ
ä½Ĩ åħ¶
å¸Ń ä½į
æ¶ī å¯Ĩ
éĢĢ åĮĸ
ç«ŀ ç§Ł
æ²¹ èĦĤ
é¸ ¥
èį£ èĢĢ
çŁŃ åī§
çŁŃ æļĤ
èĮ¶ ä¸ļ
Ġ4 45
æľ¨ åħ°
éĤ£ æĺ¯
è¿ģ å¾Ļ
æĻĵ ä¸ľ
33 3
99 9
è¡¡ æ°´
æŀª åĩ»
é£ĺ æī¬
2 17
D I
l o
Ġ "
Ġ é¾Ļ
åŃ ª
ä¸º è¾ħ
åħ¨ ç½ĳ
æľī æĪĳ
æĸ° åĬŀ
æĸ° è½¦
ä»¥ ä¸ľ
åĪĨ ä¸¤
åĪĨ æŃ§
åľº çŃī
æİ¨ è¿Ł
æ²» å¸Ĥ
æ¶ £
åħ¶ è¿ĳ
åı¯ çĪ±
æĬķ ç¨¿
å°ı ä¼Ļ
çĶµ ç«ŀ
çĽ¸ èŀį
è°ĥ æ°´
éĻ¢ åīį
å½ĵ åºŃ
ç»ĵ åĨ°
è¿Ļ è®©
éĻĲ éĩı
åŃĲ å®«
æµ· çļĦ
æµ· æ¹¾
è®¤ ç½ļ
éħ ĭ
æīĵ çī¢
æĪ· åĴĮ
ä¾Ŀ çºª
æ¸¸ èīĩ
æ¶Ī çº³
æĭĽ æīį
æĭĽ ç§Ł
èĢĮ ä¸º
åħŃ æ¬¡
ç¢ ¾
çģ« æĺŁ
éĵ¾ ä¸»
åħį æĶ¶
è¿ľ æľŁ
ä»ħ ä¾Ľ
å°½ çļĦ
åıĪ ä¸į
éģĩ éļ¾
29 0
29 9
æ²Ł åĮº
åĲī å®ī
åĨ¬ æĺ¥
åĪļ æīį
æµ¦ æ±Ł
éĻ¶ èīº
å¤º åĨł
ç´« å¤ĸ
æĬ± åĽ¢
å¼Ł å¼Ł
Ġâĳ ¢
éĴ¦ å·ŀ
åŁĶ å¯¨
r a
Ġ æ¯ı
çļ ĵ
äºº å·²
ä¸Ģ æīĭ
ä¸Ģ ç¬Ķ
ä¸Ģ çķª
å»º å·¥
å»º äº¤
äºĨ ä¸į
ä¸į æ¸Ŀ
éĺ ±
ï¼ī +
åĬł ä»·
æĸĩ çļĦ
æľº æĶ¶
åĪ¶ èĮ¶
åºĶ å°Ĩ
æľį çĶ¨
éĽ ¹
å¹³ è¡Į
éĹ¨ ç±»
åķĨ éľĢ
åŁİ æĬķ
ä¸ĵ ç½ĳ
ä¾Ľ æ±Ĥ
å½ĵ å¤´
é¢Ĩ åĬŀ
ç½ĳ çĲĥ
åĲĳ è¢«
æĽ´ è¶³
ç²¾ å°ĸ
ç¼ ¤
åįĩ åŃ¦
åĿļ ä¿¡
å² ĳ
è¥¿ æ±Ł
æŁ Ĵ
æ¸ħ éĢĢ
å¤´ çĹĽ
éĢī é¡¹
æ»¡ è½½
é¦ĸ æľŁ
ä½Ļ åħĥ
äºĴ ä¿ĥ
19 85
19 93
çİĭ æ°¸
äºĳ å³°
ç¢ ļ
çģ¾ éļ¾
å¾ģ è¯¢
è¶Ĭ å¥½
50 2
Ġ3 5
æŃ¦ è¿Ľ
åĪĺ åħī
äº² æ¸ħ
äº² æīĭ
23 2
é£ŀ çļĦ
è½® å²Ĺ
è½® çķª
çľ¼ éĩĮ
é¹ ĥ
çĥŁ åı¶
èĹı çĿĢ
çīµ æĮĤ
æ³° å·ŀ
36 6
å¾Ĳ æŁĲ
å®½ æķŀ
éĢı è¿ĩ
é±¼ ç±»
æ·® åįĹ
æĥ© å¤Ħ
æīĳ çģ«
é£ĺ é¦Ļ
ï¹ Ŀ
æĸ© èİ·
èĨ¨ èĥĢ
çĮķ çĮ´
S D
] -
a pp
Ġ K
Ħ æ¦Ħ
çļĦ åĩł
çļĦ åĩ½
ä¸Ģ ä¸ļ
å¸Ĥ ä¸ĩ
å¤§ åĿĿ
åĮº åĲĦ
å®ŀ æĥħ
äºĨ ä»ĸ
æĸ° åĨľ
ä¸į è¿ľ
å¼Ģ ç«ĭ
çĶ¨ æĿĥ
æĥ Ł
é«ĺ ä½İ
éĩį å·¥
éĩį ç£ħ
éķ¿ éĢĶ
çĤ¹ åįĬ
å¥½ çī©
æĿĳ å§Ķ
è®¡ æĹ¶
èĢħ åı¯
çĶµ éĩı
çĶµ ä»·
åİ¿ åĴĮ
èĬ ¸
æĶ¹ åĪ¤
å¹¶ èģĶ
è¿Ļ åĿĹ
å±± ä¸Ĭ
æ£Ģ å®ļ
åıĸ ä»£
ç»Ń è´·
ä¸ľ åŁİ
åıĹ è¿ĩ
ç§į ç¾¤
è¥¿ èĩ³
æĪ· æķ°
æł¡ èĪį
åĽŃ è·¯
ä¸¤ åľº
æŃ¤ ä»¶
å±ħ å§Ķ
åħ´ éļĨ
åĽŀ é¦Ī
çľĭ å®Ī
å°ĳ éĩı
åĪ« çļĦ
åİ» å¤Ħ
19 87
ä¹Ĳ åĻ¨
çģ« æºĲ
é¦Ĩ åĴĮ
æ¥¼ æĪ¿
åĲ« ä¹ī
åĲ¦ è®¤
23 1
å±ĭ éĿ¢
èĹ ķ
æĹ¢ çĦ¶
æĢĢ çĸĳ
æĮĤ åı·
è·ĳ éģĵ
å¥¥ æĸ¯
çĹĩ ç»ĵ
è¾ī æĺł
å¯Ħ å®¿
æ© Ħæ¦Ħ
å³¡ å¸Ĥ
éĽķ å¡ĳ
æ¸´ æľĽ
Ġ å½ķ
Ġ æ²Ī
Ġ CA
ĩ æĿ
è¯ ¿
ä¸Ģ èº«
ä¸Ń éĻ¢
è¡Į é£İ
è¡Į åĪĹ
åľ¨ åĨĮ
æŀ ĩæĿ
åľ° æ¯¯
ä¿Ŀ éĢļ
æıĲ æĭĶ
é«ĺ æŀ¶
å®¶ åľ¨
åºĶ ä¸İ
å§Ķ æ´¾
ä¸ī å¤ı
çĿ ¹
ä¸ĩ æĿĳ
æĬĢ éĺ²
æĺİ æ¸ħ
åĪĽ ä¸ĭ
éĺ² ä¼ª
çĸ ¯
äºĮ å±Ĥ
åĨľ è¡Į
åĪ© åİ¿
åĪ© åīĳ
ä¼ł è¯´
è½¦ åĨħ
åģļ äºĭ
ç¾¤ éĩĮ
æİ¥ ä¸ĭ
éª Ĥ
éĺŁ åĴĮ
å½¢ çĬ¶
åĽŃ éķ¿
æ¸¸ åĩ»
æ¸ħ æ²³
åĨĽ åľ¨
ç»¼ ä¿Ŀ
è¡Ĺ å··
ä½Ļ å¤Ħ
çĻ¾ åħŃ
åİĨ å¹´
åİĨ ä»»
äºĴ æĥł
19 86
19 84
è¾ĥ è½»
é»Ħ æµ·
åĲ¬ åĬĽ
24 5
éĽ¨ èĬ±
âĢĻ ãĢģ
ä»į éľĢ
éĴ± çļĦ
ç§ĭ æĶ¶
æļĤ æľª
ä½³ æľ¨
å¡Ķ åĪ©
çī§ åĮº
æĳ¸ ç´¢
èµŀ èµı
æ£ļ æĶ¹
åĵ¥ ä¼¦
å¼Ħ éĢļ
çĤĴ ä½ľ
åĿİ ä¸Ĭ
ï¹ ŀ
èĦĨ å¼±
ç»ļ ä¸½
èĢ½ è¯¯
æŀĩæĿ ·
3 25
E M
V OC
Ġ èģĶ
Ġ éŁ©
çļĦ çĪ±
å¼ §
å¼ ĵ
ä¸º è¯¥
æľī æį®
äºĨ å¼º
äºĨ åĿļ
åĮĸ åĲį
ä»¥ å¼º
ä¸» æ¬¡
å¼º åĮº
å¹³ å¸¸
ç¤¾ éķ¿
ä¸ī åĲį
åĨħ åĮĸ
æĬ¥ æľ¬
åĲİ ç»ı
æķĻ ä¹¦
åŁİ éĩĮ
åİ¿ æĸ°
æ£ į
åºľ åĬŀ
å®¡ ç»ĵ
èµ· æºĲ
å¦Ĥ åħ¶
å¼ķ æµģ
åı£ æľį
è½¬ åĩº
éĥ½ æ²¡
å¤´ éķĩ
è¡¥ çŁŃ
èĢĮ èĩ³
è§Ĥ åĴĮ
çĽ´ éĶĢ
è¶ħ ä½İ
èģļ é¤Ĳ
ç½ļ æ²¡
ä¿® è¯¾
åİĨ æ¬¡
å¾· å·ŀ
å¯Į ç¡Ĵ
åĨį å®¡
çĪ± å²Ĺ
å¯Ĩ åħĭ
æŁĲ éĥ¨
åĽ° æĥĳ
18 3
18 7
å·¡ æ¼Ķ
å¨ ĵ
å»¶ åºĨ
éģĹ ä½ĵ
åĩł æ¬¡
æ°¸ å®ī
29 7
çºł éĶĻ
ç»Ŀ ä¸į
æĬĺ å°Ħ
éĵº å¼Ģ
èµŀ èªī
åĨĴ åħħ
éĻ· éĺ±
ä¾¦ çł´
ç»£ èĬ±
ç³ķ çĤ¹
èħº çĻĮ
å¬ ī
æĳĴ å¼ĥ
S U
çļĦ æĿİ
ä¸Ģ çłģ
åıĳ è½¦
åĳ Ģ
æľī äºĭ
ä¸į éĻĲ
ä¸Ĭ è¯ģ
å¼Ģ è¶³
ï¼ī :
æİ¨ è¯¿
æ°´ åĩĨ
åīį æĸ¹
å¤ļ ä¸º
åĳĬ è¯«
å¹¶ åĪĹ
çī© èģĶ
éĽĨ è´¸
æĮĩ åĲĳ
è½¦ æµģ
çī¹ è´¨
æµ· æ£ł
çº¿ ç¼Ĩ
åĽĽ åĨĽ
é£İ åĳ³
èµ· çļĦ
è¯Ħ åį·
çŁ ¶
æīĭ å¥Ĺ
æŃ¤ äºĭ
éĴ ¾
åº· å¸Ĥ
éĻ¤ éĽª
éĵ¶ æĿı
åºķ éĥ¨
å¯Ĩ æİ¥
ä¸ĥ åı°
åı¤ ä»Ĭ
æŃ¦ æĺĮ
åħį è´£
å»¶ è¯¯
åį± æĹ§
ç»ĥ å°±
èĥľ åľ°
èĹı åľ¨
å© º
çħ¤ çĶµ
åĳĪ æī¹
åĿ¡ åĮº
å²© çŁ³
åĸ· éĽ¾
éĽķ åĪ»
éĥĬ åĮº
å©Ĩ å©Ĩ
REIT s
3 28
Ġ å»º
Ġ å·ŀ
ï¼ ĺ
åº ļ
äºº æĿ¥
äºº åĲ´
ä¸Ń å°Ĩ
å¤§ è®¡
åĮº å±ŀ
æµ Ķ
ä¸į ä½³
çŃī åĪ°
æĹ¶ éļĶ
å¯¹ å¤§
åŃ¦ å£«
ç®¡ çļĦ
æĸ¹ èĪ±
æłĩ åĮħ
å¢ Ĵ
ä¸ĭ çº¿
åŁº çĤ¹
åĪĽ è®¾
åı¯ æ¯Ķ
ç² ¥
å¹¶ èĮĤ
åĲĳ çľģ
ä¼ł éĶĢ
æīĢ åī¯
è¿Ĳ è´¹
é¢Ħ åĪ¤
å±± èĦī
ç¼ ķ
åıĸ åĲĳ
åıĸ åĨ³
æµģ æ·Į
æīĵ äºĨ
æ±Ł æ±ī
å¦Ĥ åĲĮ
è¥¿ å§Ĩ
æĹł å£°
äºĶ è¦ģ
è´¢ ä¼ļ
è¿ĺ åĲĳ
ä¸¤ çľģ
å¸¦ çļĦ
éĴ Ĭ
æ¯ı å®¶
åıį éĿ¢
è¯Ŀ åī§
åĢ¼ çļĦ
çº¢ å²©
åıĮ æİ§
å¾· æĻº
é¾Ļ èĻ¾
æ¼Ķ åıĺ
ä¸´ é«ĺ
ä¸´ æ±¾
18 4
å¥³ çĶŁ
æ¥¼ çļĦ
ç§» é»ĺ
17 1
åįĬ åľº
é»ĳ æ²³
æ¡£ æ¬¡
èĪ¹ åıª
åĭŁ æįĲ
éŃ ģ
æ³ī åİ¿
ç§ģ å®¶
æĭĨ åĢŁ
åĢį çļĦ
åĩŃ ç¥¥
æħ¢ çĹħ
ä¸Ŀ æ¯«
çĵ¦ æĸ¯
åĶ¯ æľī
èĸª èµĦ
æµ© çĦ¶
éĢĨ è¡Į
åıĻ äºĭ
èįĶ æŀĿ
å¹½ é»ĺ
æķ· è®¾
æģª å®Ī
3 23
5 30
I V
Ġ ä¸»
Ġ èĭı
Ġ å®ĭ
çļĦ çľģ
å¸Ĥ æ²³
åľ¨ ä»¥
åľ¨ åľ°
åľ¨ åįİ
åľ¨ äºĳ
åıĳ ç»Ļ
åıĳ èĬ½
è¦ģ çĶ¨
æ³ķ åĬ¡
åĮĸ ä¸İ
ä¸Ĭ åīį
çĶ¨ ä»¥
è®¾ æ³ķ
åŃ¦ çĶ¨
å®ļ æĢ§
å®ī å®¶
å®ī åĲī
ä¸» æī¿
åĵ ĳ
ç»ı ä¸Ĭ
ç¬ º
å§Ķ å°Ĩ
éķ¿ è¶³
èĩª åı¤
åħ¥ çľ¼
æĥħ è°Ĭ
åįķ æĸ¹
æĪĳ æľī
åīį åįģ
å¼ı é¥®
çĽ¸ è¿ĳ
å½ĵ æĪĲ
åĲį åĴĮ
åĲĳ æľ¬
è½¦ èº«
ä»ĸ å°Ĩ
ä¹ĭ çŃĸ
åŃĲ å±±
åĿļ éŁ§
æµģ çķħ
ç§¯ æ¡Ī
æ±Ł åı£
å¹² åľ¨
çĦ Ļ
å·² æĮī
çĿĢ çļĦ
è¿ĺ å°±
å®¹ éĶĻ
çª ¦
æ¢ µ
æ¯ı å¥Ĺ
åĽŀ ä¿¡
é¦ĸ çĽ¸
ç½ļ éĩĳ
åİĨ å±Ĭ
æ¹ĸ è·¯
åĿĩ ä¸į
ç¼ĸ æİĴ
ç¼ĸ åī§
å¥ĸ çīĮ
å±¥ çļĦ
é©¬ çĶ²
13 40
ä¸ĥ æĺŁ
éĻĪ æĺİ
åĲ¯ è¿ª
çŃ¹ åĬŀ
çĭ¬ å®¶
åĪĺ æ°¸
æ²Ł éķĩ
æĬĹ çģ¾
éī´ åĪ«
æĺĮ æ±Ł
åĲī åĪ©
ç½Ĺ é©¬
çĪĨ çł´
æ¢¯ çĶ°
æĬĺ æĹ§
æħ¢ è¡Į
æ¶² ä½ĵ
å°Ĭ ä¸¥
çĹĽ èĭ¦
å¥¶ èĮ¶
ç´« éĩĳ
æ¾Ħ è¿Ī
æĹĭ è½¬
èıĬ èĬ±
B ç±»
F A
c e
u l
Ġ åĪĻ
Ġ æ¢ģ
ï¼Į âĢĿ
è¡Į ä¹ĭ
åĳ Ĩ
åħ¨ åĨĽ
åħ¨ çĽŁ
è¦ģ åĬ¡
è¿Ľ åĨĽ
æĸ° è·¯
æĸ° èį¯
äº§ ç§ĳ
åĩº æ°´
åĩº çĤī
æĭ İ
å®¶ æ¹¾
åĿ ŀ
ç¤¾ çŃī
äº¤ åıĭ
ç¾ ģ
è¿ĩ å¢ĥ
æĪĳ å¯¹
å¤ļ è¾¹
æķĻ äºİ
åĨľ çī¹
è¡¨ åĴĮ
å¹¶ æľī
ç»ĵ æ¸ħ
éľ ¾
æĽ´ åı¯
åİŁ åħĪ
ä¼ĺ äºİ
ä¼ĺ èĥľ
åģļ ç²¾
å¦Ĥ çļĭ
æĹł çº¸
çĶ± éķĩ
ä¸¤ èĢħ
èİ ĺ
æ²³ æºĲ
æ²³ å¥Ĺ
å¤´ æĿĳ
å±ħ çķĻ
åıĺ èº«
æĬĵ çī¢
é¦ĸ ä¾ĭ
èµ° è¿ĳ
çĹħ çŃī
éĢģ ç»Ļ
äºī ä¼ĺ
çĥŃ çļĦ
çĻ» é«ĺ
å¥ĸ çļĦ
ç¥¨ åĨ³
æ¼Ķ çļĦ
å¾ģ æĸĩ
24 00
æ¤į ä¿Ŀ
éļĲ å½¢
æĭī å°Ķ
23 9
22 1
éħĴ åºĦ
é£ŀ å¤©
åĢĻ è½¦
29 8
è°ĭ æ±Ĥ
éĺ¿ æł¹
æĤī å¿ĥ
æĽ¾ ä»»
çĶ· åŃ©
æĬµ ç¼´
çģ¯ çģ«
å·¨ åıĺ
ä¹± åłĨ
è§¦ åıĳ
åĵª åĦ¿
æĿľ é¹ĥ
ä¹ı åĬĽ
åİ¨ ä½Ļ
æĤł æĤł
èĶļ æĿ¥
ç¿ħ èĨĢ
ç¼¤ çº·
. âĢľ
: (
B S
E C
Ġ çľĭ
çļĦ ä¸Ĭ
çļĦ æľª
å¹´ å®¡
åħ¨ éĻ¢
åĬ¨ åĲĳ
æĸ° ç¯ĩ
ä¸Ĭ è·¯
æŃ ¼
åľ° å¯¹
çŃī é¢Ŀ
åĳĺ å¼ł
æľĪ èĸª
åºĶ å¾ģ
ä¸ĭ èĲ½
å¹³ ä»·
åĵģ å¾·
ä¸ī çİ¯
ç§ĳ å¹»
æĽ ¦
åĨľ çķľ
åĪ© äºİ
æ·± çļĦ
æ·± æ¸¯
æīĢ æ¬²
è¿Ļ å¼ł
åĮ» æĶ¹
æµ· è¥¿
åıĤ éĢī
ç»ĩ çī¢
å¹² ç¾¤
è¥¿ éĹ¨
æĹł å¥Ī
æĹł æĦ§
çĶ± åįĹ
åĽŃ åĴĮ
æİĴ ç»ĥ
æīĭ èīº
éĩĮ æľī
éĩĮ èµ°
è¡¥ ç¼´
æ¨¡ ç³Ĭ
åħħ è£ħ
èĢĮ åĬ¨
ç»Ļ æ°´
é¦ĸ å¹´
èģļ æ°¨
ä½Ļ ä½į
ä¿® è¡¥
19 6
16 4
éĻĪ åĭĩ
åºĵ åĴĮ
24 8
ç®Ģ çº¦
ä½ł å¥½
26 4
æ²Ļ æºª
å·¦ ä¾§
çħ¤ æĶ¹
æļĤ ä¸į
æ¶¨ åģľ
èĻļ æŀĦ
ä¾§ éĩį
2000 00
åģı ç¦»
ä¼Ĭ çĬģ
æıŃ æĻĵ
æ¢§ æ¡Ĳ
ç¼ħ çĶ¸
èºº å¹³
æ·¬ çĤ¼
i an
Ġ å¼Ģ
ä¸Ģ ä¸¾
å¸Ĥ ä¸°
åľ¨ å°ı
åľ¨ æľĢ
æ² ¾
åĮĸ åĮº
åĮĸ é«ĺ
æĪĲ é£İ
é«ĺ åį±
å®¶ éĹ¨
åĪĨ è¾¨
åıĬ æĸ°
éķ¿ é¸£
å±Ģ åıĬ
æį Į
ä¸ī é«ĺ
æŁ¥ æ¸ħ
åķĨ æľº
äºĮ åı·
ç»Ł æı½
æķ° æİ§
æ·± å¤ľ
éĹ® éľĢ
ä¹ĭ åĬ¿
å¤© é¹ħ
åĽĽ åĳ¨
åĽĽ åı²
ç»Ń åĨĻ
æł¡ æľ¬
æĶ¾ å¼Ģ
æ¸ħ æľĹ
æĭĽ èĤ¡
æĦŁ åĨĴ
æ²³ æ°´
è£ħ è½¦
çĻ¾ åĲį
äºĴ ä¿¡
19 91
åĪĿ æ¬¡
éĻį ä»·
çĪ± åį«
ç¥¨ ä»·
éĢĢ èĢķ
çŁ³ èĨı
18 9
ä½ķ æĹ¶
çĮ® ç¤¼
åģľ çķĻ
æ²¹ çŃī
éĽª èĬ±
æ°¸ å®ļ
æ°¸ æģĴ
é¥® éħĴ
è¯ļ æĦı
çŁ¿ çŁ³
çŁ¿ äºķ
åİļ éĩį
èĢķ ä½ľ
å°ģ éĶģ
åĲĥ éĢı
æ»¨ å·ŀ
çĶ² çĬ¶
å·¨ å¤´
æ¼ı æ°´
æĬ¼ éĩĳ
å¯¿ åħī
è¸ı ä¸Ĭ
çłĤ æµĨ
èĦı ä¹±
åŀĤ èĮĥ
æ£µ æłĳ
æīŃ è½¬
æĭ¦ æĪª
è¾ľ è´Ł
L A
d a
Ġ J
Ġ æ°´
Ġ åħ±
Ġ åıĮ
çļĦ ä»ĸ
ä» ĩ
åĴĮ æľ¬
åĴĮ çĿ¦
å¤§ çĽĺ
å¤§ å§Ĳ
è¦ģ å¤ļ
è¿Ľ çļĦ
ä¸Ĭ ä¹Ł
ï¼Ī ï¿¥
æĹ¥ çĶ¨
å¯¹ æĭŁ
é«ĺ éĤ®
å®¶ çĶ¨
åĬł çĵ¦
æľ¬ ä¹¦
åĪ¶ åĨ·
åĿ Ł
åħ¥ å¸Ĥ
å¤ļ æľĪ
è·¯ æ¡¥
è®° è´¦
åĲį æł¡
ç»ĵ ä¸ļ
è¿Ĳ è½½
è¿Ļ æĹ¶
ä¹ĭ æľĢ
æ£Ģ åĩº
ç»Ń èĪª
ä»İ æĶ¿
ä»İ ç»Ĩ
å¸¸ çĨŁ
åĮĹ ç«Ļ
å¼ķ å¾Ĺ
çĥ ½
å®£ åĪ¤
æĶ¾ æµģ
èĢĥ åĭ¤
è¯´ æľį
æĦŁ æ¿Ģ
æĹħ å±Ģ
æ²³ æ®µ
æĥ³ èµ·
çİĩ ä¸į
çĽ´ éĢļ
éĶĢ å¾Ģ
ä½Ļ æĿŃ
åıĮ çĻ¾
åİĨ æĿ¥
åı² çļĦ
19 1
çİĭ æĸĩ
æĺ¥ æĹ¥
ç±³ æĺĵ
é»Ħ èĬ±
èĭı èģĶ
åıª äºī
åıĪ åľ¨
æ±ī è¯Ń
é¦Ļ æŀľ
åħ° èĬ±
éĺ¿ åĭĴ
çīµ æīĭ
æ½ľ å¿ĥ
åĭ¤ åĭī
ç§ģ èĲ¥
çĶĺ èĶĹ
æļ´ åıĳ
æ¶² åİĭ
çĺ ¾
æ¬£ æħ°
æĭĸ å»¶
æ¶Į åĬ¨
ä¾¦ åĬŀ
èħ¹ åľ°
æ»´ çģĮ
æĤĶ ç½ª
çŀĴ æĬ¥
éĴĵ é±¼
Ġ çĶ¨
Ġ åı¯
æľ Ń
çļĦ å¹´
çļĦ å¹¿
æĹ Į
ä¸Ģ é¦ĸ
ä¸Ģ ç¥¨
ä¸Ģ ç¯ĩ
åľ¨ éķ¿
åħ¨ ä¹¡
ä¼ļ è¢«
ä¸į æĶ¶
ä¸į æĩĤ
æĪĲ å¥Ĺ
æ°ĳ éĿ©
åŃ¦ å¥½
èµĦ æĶ¿
å®¶ åºķ
éĩį åĲ¯
èĥ½ äºº
åĪ° æľī
å±Ģ åħļ
èĩª èĲ¥
è¿ĩ ä¸Ĭ
è¿ĩ æ»¤
ä¸ī ä»£
ãĢĭ ;
éĹ´ è·Ŀ
éĺ² éªĹ
å°Ĩ è¿ĳ
ä»¬ ä¹Ł
éľ Ħ
æķ´ å½¢
ä¹ĭ æºĲ
åİŁ åĢ¼
å¤ĸ è¯Ń
æİ¥ è¿ĩ
ä¸ľ ç«Ļ
çģ ¼
åĮĹ éĹ¨
éķĩ çº§
æ¯Ķ åĪ©
è£ ´
å¸ĥ å°Ķ
å¸Ī çļĦ
éĤ Ĺ
ç¨İ çİĩ
æµĭ åºı
ä½Ļ èµ·
éĢģ æ³ķ
19 4
çķĮ åĪ«
åįļ å·ŀ
Ġ3 3
17 2
äºļ æ¬§
åħĭ å°Ķ
çĭ¬ èĩª
éĻĦ çĿĢ
é¤Ĳ åİ¨
é¦Ļ æĸĻ
åĨ· æ°´
ç¥Ŀ æŁĲ
ä¿Ħ ä¹Į
è¿Ī ä¸Ĭ
æ·» çłĸ
CA éĶģ
äº¦ æľª
çłĸ åİĤ
æ¡© åŁº
åĹ ħ
çĶĦ åĪ«
åĮª æµħ
3 12
M V
T A
ï¼Į ï¼Ī
âĢĿ -
ä¸Ń è¿ĺ
çŃ ·
åľ¨ ä¸ī
é¢ ħ
å¤§ æµ·
æĸ° è®¾
æĸ° èĤ¡
æ² £
ä»¥ èº«
æĺ¯ å°Ĩ
èģ ĭ
éĩį éĩį
ä¸İ è¯¥
æ¡ ĵ
å¥½ å¥ĩ
ä»¶ å¹¶
ç¾ ²
åĪĽ ä¼¤
éĺ² éĽ·
åŁİ å¢Ļ
æ·± æ°´
æĮĩ å°ĸ
æĿ¡ çº¦
ä»ĸ ä»İ
åįģ å¤ļ
ä¹ĭ ä¸º
æİ¥ ç®¡
å¸¸ æĬĵ
æ» ¦
è¯· ä½ł
çĥ ¨
å·² çĦ¶
