#version: 0.2
ï ¼
ä ¸
ï¼ Į
ã Ģ
ä º
å ħ
ç ļ
å ı
çļ Ħ
æ ľ
å ®
ãĢ Ĥ
å Ĭ
ãĢ ģ
ä »
å Ī
â Ģ
å ¤
ä ½
å Ĳ
ç »
è ¿
æ ĸ
å ľ
è ®
ä ¼
å ¹
ç Ķ
å Į
å Ľ
å ¸
è ´
å į
å ·
æ Ĺ
å ±
æ Ķ
å ¼
æ Ī
è ¯
é ĩ
å º
è ¡
äº º
ç Ľ
æ Ŀ
ä ¹
æ Ĭ
å Ĩ
æ ĺ
ä¸ Ģ
æ ī
ä¸ ļ
æ ł
é Ģ
âĢ ľ
ä¸ Ń
âĢ Ŀ
å ¯
æ ķ
å Ĵ
å °
å ĩ
å Ń
æ °
å· ¥
åĴ Į
ä ¿
è µ
å¸ Ĥ
åľ ¨
è §
æ İ
é Ļ
ä½ ľ
å¹ ´
è¡ Į
å ĳ
ç Ń
åı ĳ
ä¸ º
ç º
æ Ģ
æľ ī
ç İ
æ ³
å¤ §
æ Į
ç §
åĽ ½
åħ ¬
é ¢
åħ ¨
é Ĺ
å Ł
ä¼ ļ
å »
å İ
ç Ĳ
åĮ º
å® ŀ
è ¦
äº Ĩ
å ¿
å ¾
è¦ ģ
é ĥ
çĶ Ł
æ µ
åĬ ¨
å» º
è Ģ
è¿ Ľ
é ¡
å ½
é Ŀ
åĬ ¡
çĲ Ĩ
ç ®
å± ķ
ä¸ į
2 0
ç ī
æĺ ¯
ä¸ Ĭ
æĸ °
æĶ ¿
å ¥
æ ²
æ Ń
æ³ ķ
æ ±
æ ŀ
åĮ ĸ
åĩ º
äº §
åľ °
ä» ¥
é ĺ
è ĩ
æ ı
æĹ ¥
æĪ Ĳ
æĹ ¶
å¼ Ģ
å¯ ¹
çŃ ī
ç ¤
åĲ Ī
çĶ ¨
ï¼ ī
åŃ ¦
ï¼ Ī
æ° ĳ
ç «
æ ĭ
ä ¾
é¡ ¹
è ĥ
éĥ ¨
ç ľ
åĬ Ľ
åħ ³
è® ¾
é ķ
ä¿ Ŀ
èµ Ħ
è ģ
æ ĥ
æı Ĳ
ç ½
çĽ ®
æ ´
æ ¬
æĸ ¹
å® ¶
å® ļ
è ½
è Ĥ
è ¾
é «
ä½ ĵ
é« ĺ
å ĵ
ä¸ ª
ä¸ »
ï¼ ļ
ç» ı
ç® ¡
åĬ ł
ç ¨
å ī
èĥ ½
å §
éĩ į
åĪ Ĩ
æľ Ī
åĪ °
æ ¸
çİ °
å ģ
å® ī
å ¢
éĢ ļ
åĳ ĺ
äº ĭ
æ Ł
åĲ Į
æľ ¬
è Ĳ
æĸ ĩ
æł ĩ
æľ º
æ Ħ
è ·
åĪ ¶
è °
å Ŀ
ç Ĥ
åı Ĭ
äº İ
æĿ ¥
é ģ
åħ ĥ
æľ į
ä¸ ĭ
æ ¯
éĿ ¢
éķ ¿
ç ¬
åľ º
å¼ º
åº ¦
ä½ į
ä¸ İ
è§ Ħ
é Ľ
å¿ ĥ
èĩ ª
åº Ķ
ä¼ ģ
0 0
å§ Ķ
éĩ ĳ
åĵ ģ
æİ ¨
åı ¸
åħ ¥
å¹ ³
çĤ ¹
ï¼ Ľ
æ į
é ļ
è¿ ĩ
æĥ ħ
å¥ ½
æ ¡
ç ¾
åħ ļ
æ Ļ
æĮ ģ
å± Ģ
ç¤ ¾
ä¿ ¡
æĪ ĳ
æľ Ł
çľ ģ
åħ ±
åĬ ŀ
åĨ ħ
å¤ ļ
æ° ´
ä¸ ī
äº ¤
åĲ Ħ
éĩ ı
æ´ »
ãĢ ĭ
ãĢ Ĭ
åŁ º
ç» Ħ
ä» ¶
åī į
åĲ İ
é £
ç ³
æ² »
æĶ ¯
æĿ ĳ
ç ł
ç Ŀ
è ī
ç¬ ¬
ç¨ ĭ
ç ¡
æĬ ¥
åį ķ
ä» »
æ¬ ¡
æ ¶
æŁ ¥
ç³ »
ä¸ ĩ
è´ £
æĺ İ
æĸ ½
è® ¡
æĢ §
éĹ ´
å° Ĩ
ç Ł
åħ ¶
æ Ľ
ç ĸ
å ķ
ä» £
æķ Ļ
å¯ ¼
å° ı
çĶ µ
åĳ Ĭ
é¢ ĺ
è¡ ¨
æ ·
èĢ ħ
æ± Ĥ
è´ ¨
è® ®
ç§ ĳ
å¼ ı
éĹ ¨
æĬ Ģ
åı ¯
åĪ Ľ
çº §
20 2
è´ ¹
åķ Ĩ
çĽ ¸
åŁ İ
æĬ ķ
è® °
è¿ Ļ
åĨ ľ
äº Į
çĽ ĳ
èĤ ²
è ¶
ç ²
æ ģ
ä¸ ĵ
ç« ĭ
è¯ ģ
éĺ ²
è· ¯
ä¾ Ľ
å¢ ŀ
éĻ ¢
æķ °
éģ ĵ
åİ ¿
åĲ į
ä¹ ¦
è Ĭ
å Ģ
è° ĥ
æ º
ä» ¬
æĶ ¶
èģ Ķ
æĶ ¹
æį ®
ç¤ º
æķ Ī
ç ±
è Į
åĪ ©
æ £
å¹ ¶
ç½ ĳ
ç» Ł
å° ±
å½ ĵ
é¢ Ĩ
æĦ ı
è½ ¦
æī Ģ
è§ £
åĲ ĳ
åº ľ
æ¡ Ī
ç ¥
ä» ĸ
ç» ĵ
éĩ ĩ
æĢ »
å ¦
çİ ¯
å¾ Ĺ
éĹ ®
é ĵ
ä¼ ł
éĢ ł
é ľ
ä¹ ĭ
è¿ Ĳ
é Ķ
æ· ±
æĮ ĩ
åĨ ³
éĽ Ĩ
çī ©
èĲ ¥
å¤ Ħ
æĽ ´
æº Ĳ
å¤ ĸ
åŃ Ĳ
ç ´
æł ¼
ç ©
åı °
ç Ļ
ç ķ
å¤ ©
è´ Ń
çī ¹
æµ ·
åį ģ
åĨ µ
åĩ Ĩ
çł Ķ
æĿ ¡
èĲ ½
åĮ »
åİ Ł
è ¢
éĻ Ĳ
æķ ´
ç¡ ®
æŃ ¥
é ¦
å· ŀ
åį Ĺ
é¢ Ħ
çº ¿
è¿ ĳ
åı Ĥ
å¹ ¿
è į
æĬ ¤
å® ¡
èĮ ĥ
å± ±
ä¹ Ł
ä» İ
ä¼ ĺ
ç² ¾
æ£ Ģ
å® Į
èµ ·
æİ ¥
ä¹ ł
åģ ļ
æŀ Ħ
æŃ £
ç ¼
å¢ ĥ
åį ĩ
ä¸ ľ
æģ ¯
åı ĸ
æľ ¯
å ŀ
åĽ Ľ
è Ī
ä» ·
åĿ ļ
ç» Ń
ä¼ Ĺ
è¢ «
æµ ģ
ç¾ ¤
æĢ ģ
èĩ ³
èģ Į
æľ Ģ
æµ İ
ç ģ
é£ İ
åı ·
æ¯ Ķ
è® ¤
é ħ
åĮ Ĺ
ħ §
é ª
é ©
æĪ ĸ
å¤ ĩ
ç» ĩ
æĿ ĥ
åį ı
1 0
ç ¦
å¸ ¸
å¦ Ĥ
ç§ į
éľ Ģ
å· ²
åĪ Ĵ
åı Ĺ
ç® Ĺ
èī ²
å ²
è ĭ
åĬ ©
æī ĵ
è ¥
åħ ·
20 1
çŃ ĸ
ä¹ ¡
è¿ ĺ
ç¾ İ
è¯ ´
ç§ ¯
æ ®
è¥ ¿
æĪ ·
éĺ Ł
ç Ħ
çĿ Ģ
å ĸ
å¹ ²
æī §
çŁ ¥
æĹ ł
æł ¡
æ¬ ¾
å¼ ķ
æŀ ľ
æĮ ī
ç± »
è¾ ¾
åı £
èĢ ĥ
æĶ ¾
æ »
æ± Ł
éķ ĩ
çĶ ±
ç ĥ
ä¸ ¤
æİ §
åŁ Ł
èĢ ģ
å½ ¢
èĬ Ĥ
åį İ
èĤ ¡
åĽ Ń
è¯ ·
æ¶ Ī
æ¸ ¸
æŃ ¤
ç ħ§
è İ
å £
è ŀ
éĻ ©
æł ¸
åĽ ł
è½ ¬
è´ Ł
æľ ª
æī ĭ
é Ĵ
éĥ ½
çĿ £
åĽ ¢
åħ Ī
è¯ Ħ
äº Ķ
æĪ ¿
èŀ į
åŀ ĭ
è £
æĭ Ľ
å¸ ĥ
å® £
ä½ ¿
æ° Ķ
æ¸ ħ
å¤ į
è´ ¢
éĻ ħ
éļ ľ
åģ ¥
ä¾ Ŀ
æİ Ĵ
æĪ ĺ
æ ¹
è¯ Ĩ
éĩ Į
å¸ ¦
ä¸ ¥
è§ ģ
åŁ ¹
å¿ «
æĦ Ł
è º
éª Į
åħ »
æ ¨
æ Ĥ
ç« Ļ
Ġ ï¼Ī
æŀ ģ
æŀ Ĺ
è® ©
æĹ ħ
èĢ Į
ä¸ ¾
å¸ Ī
æī ¹
å Ķ
ä» Ĭ
é Ĥ
å¾ ĭ
èº «
1 2
æĬ Ĭ
ç¥ ŀ
è¯ ¥
åĽ ´
æī ¿
æĺ ĵ
é »
ä¹ ī
ç½ ®
è§ Ĩ
åĮ ħ
æ² ³
æ³ ¨
ç Ĺ
éĢ ī
ä» ½
æĸ Ļ
çľ ĭ
ä½ ı
çº ¦
å¤ ´
å± ħ
æł ¹
åĽ ŀ
äº ¬
ç Ī
å® ¹
çĦ ¶
ç ª
åº ·
æ¯ ı
æĥ ³
åĸ Ħ
è¯ ī
æ ¢
æ¨ ¡
æĢ Ŀ
å° ĳ
é£ Ł
çľ Ł
çĶ ³
èİ ·
å¿ Ĺ
äº ¿
1 1
ç§ °
åı ĺ
ç© ¶
éħ į
å½ ±
åī ¯
èµ Ľ
æĸ Ń
çİ ĩ
ä¿ ĥ
æ ¼
æī į
åĪ «
è ±
è¯ ķ
å± Ĥ
çĸ «
çĽ Ĭ
åħ ´
éĿ ©
æ Ĵ
çĽ ´
å¼ ł
éĿ Ĵ
è§ Ĥ
å¯ Ł
è¡ ¥
ç ı
æµ ĭ
å® ¢
åı į
æĭ ħ
åĨ Ľ
åħ ħ
åĬ ¿
è® Ń
é¦ ĸ
é¢ Ŀ
åĵ į
3 0
åŃ ĺ
åĳ ¨
âĢ Ķ
ç» Ļ
è® ²
åĢ ¼
æİ ª
ç» ´
éĶ Ģ
è¯ Ŀ
éĿ ŀ
æĬ ĵ
æĻ º
éļ ¾
è Ħ
è Ń
èŃ ¦
çĸ Ĺ
å ĭ
ä¾ ĭ
ç Ĭ
éĺ ³
å® ¤
åŃ Ĺ
åĪ Ĺ
è¿ Ŀ
åĪ ĩ
è£ ħ
è¶ ³
æ» ¡
æ ļ
èµ °
è¶ ħ
è® º
é ¾
ä½ Ĩ
ç© º
202 3
æ® µ
çº ª
åİ »
çº ¢
ä½ Ļ
éĢ Ł
ç» ¼
åľ Ł
æĻ ¯
çĻ ¾
åį «
ç¨ İ
æĢ ¥
è¡ Ĺ
æ ĳ
çĹ ħ
ç» ¿
1 5
èį ¯
åı Į
æĿ Ĳ
éĵ ¶
åİ Ĩ
åĪ Ļ
äº ī
æĮ ¥
çī Į
çĲ ĥ
åĬ Ł
æł ·
åĶ ®
ä½ İ
æĻ ®
è ĳ
èģ ļ
åĩ ı
åħ ī
è± ¡
çķ Į
ç¨ ³
éĻ ¤
ç± ³
çİ ĭ
ç Į
1 9
ç» Ĩ
å Ħ
ç¡ Ģ
åĿ ĩ
æ² ¡
å± ŀ
ç¦ ı
ä» ĺ
è¾ ĥ
çª ģ
æ¹ ĸ
å½ ķ
éĢ ģ
çĥ Ń
åħ Ń
äº Ľ
ä¿ ®
åĳ ½
äº Ĵ
è´ ¯
Ġ âĢľ
èĩ ´
è Ļ
æĺ ¾
ä¸ ĸ
å¥ ³
åĨ į
åĦ ¿
çĻ »
äº Ī
çı Ń
åº ı
è´ «
åĪ Ŀ
ç´ §
åı ²
åĽ ¾
æķ ħ
éĻ į
å± Ĭ
å¾ ·
é¾ Ļ
æĺ ¥
å¾ Ī
èĬ ±
é ¥
Ġ 1
202 2
æŁ Ĳ
ç ĭ
å¤ ®
é© ¬
ç¥ ¨
çº ³
æī ĺ
æķ ĳ
å ¡
æ ¥
ç¼ ĸ
å½ »
äº ĳ
ä¹ Ĳ
æĹ ı
èī ¯
æ¼ Ķ
è¾ ¹
è¿ ŀ
çĪ ±
20 20
é Ł
å¯ Į
å ł
ç ¢
å§ ĭ
ä» ĭ
åº Ń
æŃ ¢
202 1
åĬ ±
çī ĩ
å¿ ħ
çģ «
éļ ı
æ ¿
å¤ ±
æĿ İ
ç» Ī
å¾ ®
å¸ ®
åį °
åĽ °
åİ ħ
åº ķ
æ Ĳ
ç½ ²
ä¾ ¿
å¯ Ĩ
åĪ ¤
çŃ ¾
å£ «
å Ļ
åį ³
ç« ł
é» Ħ
åı ¬
æ ½
00 0
æ¸ ¯
çŃ ĳ
ç» ©
æ¿ Ģ
è¯ ¢
ä½ ķ
å¸ Ń
èī º
è¶ Ĭ
è´ §
åº Ĩ
åį ł
ç» ľ
å¥ ĸ
æĦ ¿
ç´ ł
æ¶ ī
Ġ 2
ï¼ Ł
å® ģ
äº «
æ¸ ©
åħ ĭ
å® Ī
è® ¿
å· ±
è¯ ¾
% ï¼Į
è¿ °
è® ¸
âĢ ¦
æī ¶
åı ª
å¾ ģ
1 4
åĻ ¨
å¿ µ
% ãĢĤ
éĢ Ĥ
å® ³
1 3
ç» §
çĻ ½
èĪ ª
åį Ī
æĴ Ń
çŁ ³
çģ ¾
1 6
æ± ¡
çķ ¥
ç¦ »
ç« ŀ
1 8
è ı
äº ļ
é¦ Ĩ
æľ Ľ
é¡ »
æĪ ª
è¾ ĵ
è· µ
åħ «
æ¥ ¼
æ ¤
çĽ ĸ
ä¸ ´
åº Ĺ
åŃ £
æĤ £
åį ļ
æĸ ¯
å² Ĺ
éĵ ¾
çł ´
å¾ ħ
éĢ Ģ
èĭ ı
å± ¥
5 0
Â ·
è° Ī
ä¸ ĥ
ä¸ °
éĵ ģ
åİ ĭ
ä» ħ
ç´ ¢
å¾ Ģ
æŁ ĵ
æİ Ī
åĬ ³
æĭ ī
çĬ ¶
éĻ Ī
ç» į
è´ ¸
è ħ
æ ħ
202 4
æĮ ¯
å° Ķ
1 7
æ± ĩ
å ¨
ç¬ ¦
æ² ¹
å ³
åı ĭ
ä¹ Ī
è¾ Ĩ
åģ ľ
åĲ ¯
æŃ ¦
è½ ½
æĭ ¬
è® ¢
åı ¤
å£ °
åģ ĩ
æł ĳ
20 0
å Ĥ
2 4
è ¨
è¨ Ģ
ç½ ļ
æİ ¢
ä¹ Ŀ
è¿ ľ
å· Ŀ
æĥ ł
çĮ ®
201 9
ç® Ģ
ä¹ °
åĲ ¬
è´ ·
çĭ ¬
åº §
å¥ Ĺ
éĴ Ī
æĿ ¿
åĪ ĺ
çķ Ļ
çŃ ¹
æĶ »
åħ į
ç» ķ
Ġ 3
åº ĵ
1 00
ç§ »
åĽ º
è¯ »
åı Ī
å· ¡
ä½ ł
æ¤ į
2 5
åĪ ¸
èĳ £
æ ĵ
æ± ½
ç« ¯
åĲ «
å ª
çĶ °
äº ²
é ²
åį Ĭ
å° ½
ä¸ Ķ
æī ©
é ¼
æ¡ ¥
åį ¡
å¥ ¹
è´ ¦
çº ·
é¢ ĳ
ç§ Ģ
çī ¢
åį ĥ
èģ ĺ
åĩ »
ç§ Ł
ç¼ ´
Ġ ä¸Ģ
åĢ Ł
åİ Ĥ
å® ĺ
å® ľ
åĲ ¦
åĩ ł
éĻ Ħ
åĨ Į
åª Ĵ
è´ ´
è´ µ
éģ ĩ
éģ Ĺ
Ġ åľ¨
å¼ Ĥ
Ġ Ċ
æ ¦
æ´ ¾
æį Ł
æĹ ©
åĪ »
æı ´
çĦ ¦
èį ī
èĭ ±
çŁ Ń
æĺ Ł
éĽ ¨
åģ ¿
2 3
éĢ Ĳ
é¡ º
ä¼ į
è¯ Ĭ
å¥ ĭ
å» ¶
æŀ Ĳ
å½ ©
è½ »
2 8
è¯ ¦
èĦ ±
æĭ ¨
éļ Ĳ
ç½ ª
éĺ ¶
çł ģ
è§ ī
æ± ī
åį ±
æ² Ļ
å¤ ª
è§ Ĵ
ï¼ ģ
è® ¼
éĤ £
æī ¬
åĨ Ļ
ç« ¥
èį £
åŃ ©
åĬ ª
åĢ Ļ
çĸ ¾
éĽ ¶
åħ ¸
ç´ ¯
ç» ĥ
èĪ ¬
2 6
ä¼ ĳ
æ¯ Ĵ
æĸ Ĺ
éĹ »
åħ °
é ¸
è¿ İ
å ĺ
éŁ ³
é¦ Ļ
æĭ Ł
å¸ Į
¤ Ĳ
éħ Ĵ
çŃ Ķ
åĲ ¸
2 2
éĶ ®
å® Ŀ
è ĵ
é ¤Ĳ
ç ĩ
çī Ī
æį ¢
èı ľ
åī §
4 0
é¼ ĵ
åĤ ¨
èĮ ¶
ä» ¤
è´ ¡
ä¸ ½
6 0
é£ ŀ
âĢ Ļ
è¦ Ĩ
âĢ ĺ
é» ĳ
çĬ ¯
åĢ º
åĿ Ģ
2 7
201 8
ç £
e r
å¤ Ł
Ġ ç¬¬
éĺ ¿
å· ´
ç½ Ĺ
éĽ ª
ç Ĩ
æĿ ¨
å³ °
é© »
è Ĵ
éĢ Ĵ
æĺ ł
æľ ¨
ç ĵ
o n
Ġ 0
åĨ ł
ä¼ °
é ½
è¯ Ń
æ´ ¥
å ĥ
æ° ¸
è¿ ½
äº ®
å¸ ģ
æī İ
å² ģ
æ ħ§
åł Ĥ
å» ī
æĬ Ĺ
å¹ ħ
æĭ ĵ
ä¼ ¤
æı ¡
Ġ äºĮ
é¥ ®
æ¹ ¾
ç ¿
æ´ ģ
2 9
åľ ¾
åŀ ĥ
è£ ģ
2 1
ä¼ Ł
æ³ ¢
Ġ 4
æī ¾
æ® ĭ
æ ¾
é½ Ĳ
çľ ¼
è· ¨
Ġ æľ¬
æĭ ©
ç² ®
åħ µ
ç ħ
äº ©
è½ ®
æĵ į
æ´ ²
èĥ ľ
åĿ Ĺ
e l
çĸ ĳ
æ¬ ¢
å ©
ä» Ģ
è Ķ
éľ ²
å· ®
æ¯ ķ
ç ¯
æĳ Ħ
åĴ ¨
ä» ª
çĶ »
è Ĺ
ç¢ ³
è· Ł
æ¡ £
èĭ Ĺ
è¯ º
Ġ ä¸ī
éĻ Ĩ
é© ¾
åı ¦
å± ĭ
æĺ Į
ç¦ ģ
æ² Ł
é ¹
å² Ľ
åº Ł
çİ ī
è¡ Ģ
on e
è® ¨
åį ĸ
è¾ ĸ
p h
åĥ ı
æ¸ ł
æĻ ļ
æ£ ®
u m
Ġ n
ä» į
8 0
b er
éĤ ®
è¯ ļ
åĩ Ģ
çŁ ¿
æĿ ¾
çĽ ĺ
çĶ ·
è° ¢
æļ ĸ
Ġn um
3 1
ç¼ º
ãĢ Ķ
çĥ Ī
åº Ħ
Ġ æį®
ãĢ ķ
æĤ ī
é º
åĲ ī
æ¬ §
æĽ ¾
å° ļ
é Ĩ
å® ĥ
å¦ ĩ
èĪ ŀ
å¤ ı
çĩ ĥ
åĸ ľ
çº ł
Ġ ä¼ļ
åĨ ¬
ç¬ Ķ
å¹ ¸
æ² ¿
éĩ Ĭ
å¥ ¥
7 0
èĪ ¹
åĳ ³
æĹ ¢
æµ Ļ
ç ĳ
åĪ ļ
æĮ Ĥ
å½ Ĵ
å² ¸
æĭ ¥
è ĸ
3 5
å¤ ľ
æ´ ĭ
è ¸
Ġ 5
* *
å ´
ç» Ŀ
æĢ Ģ
çĥ Ł
æĹ §
æ½ ®
åĲ ¨
åĲ ĥ
è° ĭ
éĴ ±
èĹ ı
åĭ ĩ
é² ľ
é© ¶
é ī
éī ´
çĽ Ľ
æĹ Ĺ
æĴ ĳ
æ¶ ¦
å· ¦
å¹ ķ
æ¯ į
åĲ ´
é¡ ¾
çĽ Ł
æĬ ¢
å¤ «
éĴ Ł
é Ń
æ¢ ģ
w w
åĪ ĳ
æŀ ¶
åİ ļ
æ° Ľ
å¾ Ħ
è¿ Ķ
% ï¼Ľ
æ´ ª
æ± ł
4 5
éģ ¿
åĺ ī
åı ³
æĿ Ł
el e
æĿ Ĥ
å® Ĺ
æī £
å° ģ
èĥ Į
æĬ ½
èµ Ķ
æŃ Į
t ele
201 7
å¹ ¼
éĿ ł
åĨ °
éĢ Ķ
æŃ »
èĭ ¥
æ³ Ľ
åľ ³
è¿ ģ
åĨ ²
æĪ ı
å¨ ģ
æ¶ ¨
éĴ ¢
ä¹ ħ
å¾ Ĳ
9 0
æ³ °
æķ £
æĭ į
ç¤ ¼
éĺ ħ
çħ ¤
è ª
èĳ Ĺ
Ġ ä¸º
æĻ ĵ
è· ĳ
æľ Ŀ
æī «
Ġ ä¸Ń
5 00
ç¡ ¬
æĽ ²
3 6
åľ Ī
å® ½
æ½ ľ
çª Ĺ
éĽ ·
æ¢ °
åı ¶
æ® Ĭ
åĳ ¼
çī µ
éĺ µ
æ¾ ³
åĭ ¤
æĲ Ń
éħ ¸
çķ ħ
åĩ Ŀ
åĭ Ł
ä¼ Ļ
éĥ ĳ
èĢ ķ
éĶ Ļ
æİ Į
ç® ±
èĻ ļ
å¾ ½
èµ µ
ç© ¿
å· ¨
å° Ħ
åĵ Ī
éĤ Ģ
çī Ľ
ä½ ³
è§ Ī
Ġ åĽĽ
éĢ ı
æĭ ¿
æ¦ Ĥ
ç§ ĺ
Ã Ĺ
éģ µ
å¡ «
èĴ Ļ
èĤ ¥
ï¼ļ [
å§ ĵ
è¾ ħ
éĨ Ĵ
å «
æļ Ĥ
æľ ĭ
çĶ ĺ
èĤ ĥ
ä¼ ´
éŁ ©
æ¢ ¦
èµ ´
éľ ĩ
èĤ ī
å£ ®
çģ µ
æľ «
çĸ Ĩ
ç§ ģ
æ³ ī
åį ´
éĩ İ
è· Ŀ
3 3
çģ ¯
çĹ ĩ
èĵ Ŀ
éĶ ĭ
å® ¿
èµ ¢
æ¢ ħ
éĽ Ħ
é¡ ¶
èĻ ½
è® ¯
¹ ģ
èµ ĭ
æ¶ µ
æĿ Ń
ä¹ Į
éļ Ķ
æļ ´
ç ¹ģ
ä¹ ĺ
çº ¸
å® ¾
ä¹ ±
åŃ Ļ
è½ ¯
Ġ 6
201 6
æģ ¢
æ® ĸ
å¾ ª
æĤ ¨
åĿ Ľ
å½ ¹
éª ¨
å° ¼
çĨ Ł
èª ī
éĹ ²
ãĢ Ĳ
æ» ¨
æ± Ľ
3 00
éĹ Ń
ç§ ĭ
ç± į
ç¯ ĩ
å¼ ĥ
æĮ ĳ
ãĢ ĳ
é¾ Ħ
åį ·
åĩ ½
æĬ µ
å® ı
æº ª
è¿ ħ
æµ ĵ
èĦ ĳ
åĨ ·
é ±
åĢ į
Ġ é¡¹
å¡ Ķ
è¯ ¯
3 7
é± ¼
è¾ ī
çĳ ŀ
3 4
ä¿ Ħ
åº Ĭ
9 9
èĥ ¡
ç¼ ĵ
åĵ ª
æļ ¨
å¿ ł
åĳ Ī
å· ©
æ² ī
çĪ ¶
è¡ ¡
çĪ Ĩ
çĤ İ
3 8
å¯ »
è° ·
éª Ĺ
èħ Ĳ
å¼ ±
u r
æĭ Ĩ
ä¾ §
è ľ
Ġ (
å¥ ĩ
ç¥ Ŀ
æĮ ĸ
çĽ ¾
Ġ åħ¬
_ _
çĶ ²
èĤ º
è§ ¦
ç¼ ©
æ ĩ
èĻ ĳ
å© ļ
å® ĩ
â ĳ
ä¸ Ŀ
æ´ Ĺ
4 8
é² ģ
ä¼ Ĭ
Ġ å¸Ĥ
ï¼ İ
è Ľ
èĤ ¯
201 5
ä¼ ¼
æľ ±
åĿ Ĳ
äº ¡
éĿ Ļ
ä¾ µ
æķ ¬
æ¼ ı
æ¯ Ľ
æµ ¦
æµ ª
7 5
Ġ æŃ¤
èį Ĳ
åħ ¼
åľ Ĩ
åĶ ±
20 00
åĩ Ń
æĬ ĺ
æħ ¢
èĭ ¦
æĬ «
åī Ĥ
æĲ º
æį ·
Ġ 7
åĶ Ĳ
å½ °
å¼ ĺ
é¦ Ī
æĢ İ
ä¸ ¹
ur l
æģ ¶
3 9
è¶ ĭ
éĻ ķ
åĩ ¡
çı ł
ç² ī
åĢ Ĵ
åİ ¦
çŁ Ľ
æ¹ ¿
å° ¤
éĵ ľ
Ġ ãĢĬ
å± ı
æĿ ľ
æ¢ ¯
ç ŀ
4 6
çļ ®
èµ ģ
å¡ ĳ
è Ĩ
çĮ ª
1 000
çī §
è¾ ½
åģ ı
æł ı
0 9
æĿ °
æ» ĳ
è¯ Ī
è¿ ¹
Ġ äºĶ
äº ķ
å« Į
åĢ ¡
æ¸ Ĳ
éĻ µ
èĶ ¬
éĢ ¾
æ¬ ł
3 2
5 5
Ġ è¿ĳ
æĬ ¼
0 8
c n
çĽ Ĳ
èµ ¶
æķ ¢
æģ Ĵ
åĿ ¡
å¼ ¹
æ³ ½
éĵ º
è¯ Ĺ
ä» ģ
æĳ ¸
9 8
6 5
èµ ŀ
9 5
ç« ¹
åĬ ²
0 7
æĭ Ĵ
è¯ į
ç£ ĭ
è¶ £
6 8
ä» ĵ
ä¿ Ĺ
æħ °
Ġ Â·
æĺ Ĩ
å¥ ĳ
çİ ©
éĽ ħ
å¦ Ī
çĶ ļ
è° Ĳ
èĦ ļ
ä½ Ľ
ä¼ ı
Ġ ä»Ĭ
æİ ĺ
4 4
æ¶ ²
è· ĥ
æ¦ ľ
å¢ Ļ
éģ į
Ġ 8
åĿ Ĭ
æģ ©
i n
éº ¦
å® ħ
æĹ ¨
ç§ ©
æ² Ī
åĩ ¤
éļ Ĩ
ç¥ ¥
é¡ µ
0 6
éĶ ¦
æ· ·
çĸ ı
æĿ ¯
è¡ Ķ
æį Ĳ
4 7
Ġ 10
æĳ Ĩ
æĪ ´
çº ½
è´ ¥
ç² ¤
ç¥ ĸ
ç¨ ¿
Ġ æĸ°
æ¡ Ĥ
å¯ ¿
ä¼ ¦
çĤ ¼
è ²
æķ ı
å¿ Ļ
éĺ »
ww w
æ¨ ª
å² Ń
åĿ ı
0 5
èħ ¾
ç» ĺ
å¿ ĺ
è ļ
é¥ Ń
è² Į
è½ ¨
æ¸ Ķ
è¡ £
æ´ ŀ
è¾ ©
ä» ²
çĵ ¦
è¿ Ī
å° Ĭ
åĪ ·
æĲ ¬
çı į
æľ Ĺ
éĥ Ń
è¸ ª
Ġ è¿Ļ
ä¹ İ
æ¸ Ŀ
4 9
æ´ Ľ
0 1
é© ±
201 4
æĭ Ķ
è° ģ
6 6
æĸ ¤
8 5
æ· »
æĻ ĭ
éº »
å® ª
çģ Ń
æ¡ ĥ
é¢ ģ
æĴ ¤
å¡ ĺ
Ġ å¯¹
æ¹ ĺ
Ġ æł¹
å® ĭ
ç¬ ĳ
æĳ ©
æ¥ ļ
. .
Ġ éĩĩ
æı ı
é ŀ
æ¢ ³
ä¹ Ļ
åĢ ¾
å¥ ¶
æħ Ī
è¿ ª
Ġ [
ä¾ ¨
æ³ ¥
7 8
æ° §
ç¨ »
åĿ ¦
ç Ĵ
ç¿ »
9 6
è ķ
Ġ å½ĵ
å¯ Ħ
å° ĺ
Ġ åľ°
ä¼ ¸
æĤ Ł
æ£ ļ
] ï¼ī
æĬ ļ
åĩ Į
å´ ĩ
0 4
æĿ Ĩ
éĻ ª
èµ ł
Ġ åħŃ
åĵ ¥
åĶ ¯
éĻ ¶
éĶ ģ
èĢ Ĺ
èĥ ŀ
èĽ ĭ
æĻ ¨
g o
± ä¹Ĳ
éĶ ¡
èĪ Ĵ
æ· ®
å¥ ī
æł ĭ
4 2
5 7
æ¸ ¡
5 8
æı Ń
é¸ ¡
5 6
Ġ 9
è¾ ŀ
åł µ
5 9
æĺ ¨
èĦ ī
è¿ «
æĳ ĺ
å¿ Ĩ
4 00
é¥ °
Ġ å¹´
çī Ļ
æĹ ¦
ç§ ¦
æĿ Ģ
æ¯ «
æĭ ¼
å² ©
é¹ ı
çº µ
å» Ĭ
å° ¾
çĥ §
- -
æĹ ±
ç³ ĸ
7 6
åĪ Ĭ
8 8
çģ Į
ç ĺ
å¡ ŀ
% ãĢģ
é¡ ¿
4 3
è· Į
ç¢ į
èĲ ¨
0 3
æĪ Ĵ
éĤ »
çķ ľ
è ¹
èĪ į
æ¼ «
åİ ī
éģ Ń
è¿ ·
åı «
çĽ ¯
go v
Ġ åħ¨
çĹ Ľ
ç¾ Ĭ
åĿ Ŀ
å¥ Ķ
åł Ĩ
4 1
åĭ ĺ
å¤ ¯
è± Ĩ
æµ ©
ÃĹ ÃĹ
é» İ
èĸ ª
201 3
Ġ åĽ½
ç¯ ®
Ġ ç»ı
æĸ Į
Ġ èĩª
Ġ åįģ
9 7
è´ º
Ġ ä»İ
å¯ Ĵ
æĥ ¯
æŁ ³
èĸ Ħ
Ċ ĠĊ
P P
æĥ ©
å® «
è¾ Ľ
èµ ı
éĺ ´
åĭ Ĵ
éķ ľ
èĢ Ĳ
é» ĺ
Ġ ãĢĲ
6 7
Ġ 11
é¸ Ł
3 000
æļ ĳ
Ġ ä¸į
Ġ 12
æį ķ
00 00
å¤ º
çĨ Ĭ
åĪ º
Ġ ä¸ĭ
Ġ åħ¶
èī °
éĴ ¦
è± ª
Ġ æĹ¥
èı Į
åĩ ī
å² ³
è´ Ŀ
çº ¯
æ¬ £
è° ±
Ġ æĪĳ
201 2
æ §
ä¸ ģ
æĹ º
è· ³
ä¼ Ĳ
åı ¥
0 2
æĽ ¹
æµ ®
æĩ Ĥ
å¿ §
å· §
8 6
Ġ æĳĦ
Ġ ä»¥
å¯ ¨
è£ ķ
5 2
Ġ åĲĦ
åĩ ¯
æĽ ¿
æĲ ľ
1 20
çĵ ¶
èĪ Ł
æĭ ĸ
è¾ ĳ
ç¼ ĺ
é Ħ
Ġ çİĭ
ä¿ Ĭ
è¸ ı
æĥ Ĭ
èĻ «
èĻ İ
æ¶ Ľ
èĮ Ĥ
8 7
5 4
å° ĸ
Ġ ä¸ĩ
** **
Ġ èģĶ
èĥ ¶
è¢ ĭ
æģ Ĳ
Ġ ä¸Ĭ
èĢ ³
èį ·
è´ ¤
çĽ Ī
ï¼Ī [
5 000
èµ £
r e
è¿ Ł
ç« £
7 7
è¯ ¸
æŀ ¢
åĲ Ľ
æĹ ģ
èİ ±
åĲ Ĺ
åł ¡
8 9
å¼ Ł
åĨ »
å£ ģ
Ġ ä¸ĥ
åĿ ª
åħ ĳ
èĬ ¯
Ġ éĢļ
éĺ Ķ
6 00
5 3
a n
åİ ķ
Ġ åĲĮ
åĨ Ĵ
ħ åĬĽ
Ġ å¦Ĥ
Ġ ä½ľ
æī °
Ġ è®°
6 9
çĽ ¼
æ¶ Į
èĵ Ħ
äº ¦
__ __
éª ĳ
ç¡ ķ
Ġ æĿİ
ä¼ ¯
202 5
èĬ ³
èĶ ¡
åŃ Ķ
Ġ å¤§
éĵ ¸
å³ ¡
5 1
æ ©
ç½ ©
èĦ ¸
çĩ ķ
å¾ Ĵ
çĵ ľ
çĿ ¡
201 1
7 3
C A
çŃ Ľ
èİ «
Ġ æ´»
15 0
7 9
å§ Ĳ
èĪ Ĩ
åĳ ¢
ä¹ ı
éĻ ·
å¦ »
å£ ¤
åĲ §
æŀ Ŀ
å½ Ń
æĤ ¦
é¸ £
Ġ0 9
Ġ âĳ
éĶ »
éĤ ¦
6 2
å· ·
7 2
æĲ ŀ
åĪ Ģ
Ġ åĬł
æĻ °
i t
éĢ ĥ
çĻ Į
æħ İ
æ» ©
Ġ çĽ®
Ġ å¼ł
å¾ ¡
å¢ ¨
Ġ å»º
çĤ ¸
9 3
åĨ Ģ
å° Ŀ
6 4
åħ ģ
) ãĢĤ
Ġ æĪª
ç» µ
å¦ ¥
çĮ «
æĻ ¶
æł ª
8 2
æİ ī
æĽ ¼
ï ½
æ½ Ń
6 3
ç£ ¨
ä¹ ³
8 3
çļ ĩ
ä¾ ¦
æŁ Ķ
æĳ Ĭ
Ġ ï¼Į
æ¡ Ĩ
é» Ķ
åľ £
9 2
åŃ µ
å¥ ı
ï¼ ħ
7 1
Ġ é¢Ħ
8 4
èİ ²
ä½ ©
è¢ Ń
æĹ ¬
æ¡ Į
äº Ń
9 4
æ² ª
ç´ «
ç¢ ĳ
) ãĢģ
èĢ Ģ
çĤ Ń
çĭ ł
Ġ åıĳ
Ġ äºº
Ġ 19
åį ĵ
æŀ ª
ç§ Ĵ
P M
i l
X X
è° Ĭ
èī ³
1 10
é ĳ
æŁ ľ
æļ Ĺ
èĨ ľ
éĳ «
A I
8 00
æķ ¦
Ġ å¼Ģ
Ġ æĬķ
æ½ ĺ
æ± ª
æŁ ±
çĭ ±
æĢ ķ
é¢ Ĺ
æĬ ±
ç» ª
æĭ ľ
æ¯ ģ
Ġ åĮĹ
èī ¾
Ġ åĲĪ
åī ĳ
çķ ª
åĭ ĥ
é¢ ľ
èģ Ĭ
åī ©
Ġ æĹ¶
ï½ ŀ
7 4
è° ĵ
m a
éĢ »
åı ī
æĹ ĭ
èµ ĸ
ç¢ §
åİ ¨
æĦ ģ
éľ ŀ
ç¦ ½
çº ²
èı ²
åĸ ·
åĤ ¬
æ· Ģ
ç¿ Ķ
æĻ ´
åŃ Ŀ
] ãĢĤ
ä¸ ²
å¼ Ħ
el l
èĭ ĳ
Ġ âĢĶ
æ± Ĺ
c h
éŃ ı
Ġ éļı
çĤ ī
èĤ ©
8 1
å© ´
6 1
æµ ¸
éĽ ķ
åī ²
åģ ¶
Ġ ä¸»
æı Ĵ
æ± ¤
éŃ Ĥ
æĩ Ī
éĶ ħ
æĳ ĩ
Ľ èµ·
éĿ ĸ
çĽ Ĺ
è¾ Ĳ
èĪ ¶
é¹ ¤
åĮ ¹
èĤ ĸ
çħ Į
åĸ Ŀ
å¥ ł
Ġ ãĢĤ
èį Ĩ
åį ¢
12 3
Ġ åħ«
Ġ æĭĽ
c o
Ġ æľĢ
åĬ £
æĴ ŀ
Ġ èĩ³
20 10
9 1
æ¯ ħ
çĪ ¸
å§ ¿
Ġ æĹł
æĭ ³
çĬ ¬
åŃ ķ
ç² Ĵ
éĤ ĵ
ä¹ ĥ
é¸ ¿
Ġ åħ³
æĶ Ģ
) ,
å¯ º
æº ¯
ç¢ °
ä» Ļ
èĳ ¡
æ² §
çł ĸ
èİ ŀ
èĻ ¹
çĲ ´
èķ ´
åĴ ĸ
åŁ ĥ
åĺ ±
åĨ ¯
Ġ æľī
æ» ´
Ġ å¹¿
ç« Ł
æ» ĭ
éĦ Ĥ
æ² ĥ
çº º
æ° ¢
çŁ ©
c ell
Ġ éĩį
çĶ ľ
ç¼ Ŀ
æ» ļ
Ġ 15
åŃ Ł
å³ »
Ġ å·¥
æ£ ĭ
æ³ Ĭ
åĮ ł
èĲ Ħ
é¥ ±
Ġ æľĪ
çł Ĥ
Ġ è¯¥
æĤ ¬
å¯ ĵ
çİ ²
åĲ Ĭ
ä» Ķ
æŁ ´
åŃ ¤
æ° ı
èĲ į
åı ł
åĬ Ŀ
èµ ¤
Ġ åĪĺ
èĵ ¬
A PP
åº Ļ
åĻ ª
æ¡ ĳ
èĪ °
åĲ ķ
å§ ľ
é© ³
å§ ļ
éħ ¬
ä» ¿
çĪ ·
å° º
èĬ ľ
æ¾ Ħ
Ġ æĬ¥
è¾ Ī
åŁ ĭ
éĢ Ĩ
é© ¿
è£ Ĥ
çĽ ²
è¢ ģ
æ¶ Ĥ
èį Ĵ
å µ
æķ Į
Ġ çī¹
æ³ ¡
èĴ ĭ
ä» °
çĲ ¼
æ± ķ
éĹ ¹
å§ Ĩ
ç§ ī
åĿ ĳ
éĶ Ĳ
å¤ ķ
åī ª
åł ¤
è´ ¿
æĹ Ń
å± ¯
æł ½
éĹ ª
ãĢĭ ,
æº ¢
å® ´
çĽ Ĵ
çģ °
çĵ ·
æ· ¡
Ġ æĮī
éĺ Ĳ
æ· ĺ
å½ ¬
éļ §
çİ »
éĤ µ
e n
æĵ ħ
è° ¨
åĲ ¹
è¾ Ł
æ³ ³
è½ ´
åĺ ´
çİ Ľ
æĮ º
200 9
æĵ ¦
äº ı
èħ ¿
Ġ éĻĪ
åı Ļ
èį ¡
è¹ Ī
åĨ Ī
æĦ Ī
Ġ1 4
ãĢĭ (
åĲ Ĳ
é¢ ĸ
c c
è´ ¾
æ´ ½
éŀ į
I P
èĦ ı
èħ Ķ
Ġ åĽ¾
éĶ Ĥ
Ġ æĽ´
åĤ ħ
èľ ľ
ç£ Ĭ
éĺ ľ
å§ »
é¥ ²
éŁ µ
é¼ İ
éģ ı
åķ ¡
200 8
åħ ½
ä¼ ª
éĥ ģ
Ġ é«ĺ
ç¥ Ń
Ġ çİ°
ä¸ ĺ
æ¤ Ĵ
Ġ æķ°
Ġ åĿļ
æĭ ĺ
ä¾ ¯
èĦ Ĥ
å¢ ĵ
a t
è Ŀ
æ³ Ħ
é¡ ·
ç¾ ½
ç§ Ĩ
èĳ ¬
åŀ Ĵ
èĤ ĩ
æ Ĩ
çĶ ¸
æĽ Ŀ
Ġ çľģ
å¯ ¸
éĽ ģ
ma il
æ» ŀ
Ġ ä¸İ
ç§ ¸
15 00
æ® ·
å¼ ¥
éĵ Ŀ
çº ¤
èĤ ¿
åŁ ł
å¦ Ļ
å· ¾
Ġ æĸĩ
è¾ £
é© °
Ġ è¡Į
% ï¼ī
p p
³ å·ŀ
è¡ ·
ç¼ Ĩ
è¾ °
åŀ «
å¸ ħ
4 000
ãĢ ī
çĴ ĥ
in a
Ġ æıĲ
Ġ æ³¨
é¦ ¨
æ¼ Ĥ
é¹ ¿
å¨ ĺ
æ¬ º
å Ĺ
æ³ ¸
Ġ å®ŀ
æĺ Ĥ
åĴ ¸
é¢ Ī
è± «
å¨ ľ
éĹ ½
æ¡ ©
â ī
å¸ Ŀ
æĲ ı
ç¿ ¼
çĺ ¤
% ,
èĩ Ń
Ġ åĮº
ç® Ń
ç¨ Ģ
ãĢ Ī
éģ Ĥ
a l
æ¡ Ĳ
Ġ åĪĨ
Ġ æİ¨
a r
çĦ ķ
æ¡ ¶
æĤ ł
èĥ ģ
éĵ Ń
Ġ æ³ķ
æī ĳ
æŁ ı
çŁ «
d it
éĹ ¸
èĥ ¸
c re
èĥ İ
Ġ 20
æı ½
èĪ ±
Ġ è¯ģ
éĴ ī
æ¸ Ĺ
æĥ ĳ
æģ °
èª ĵ
æĸ ľ
éĴ »
æĮ ¡
å½ ¼
èħ °
Ġ -
çļ ĸ
éĽ ¾
Ġ ä¹Ŀ
éģ ´
æĵ İ
âĢĿ ,
æ² Ĥ
æ¬ ²
Ġ1 6
æ¶ Ŀ
æĥ ľ
çľ ł
å¦ Ĩ
æµ ħ
æŀ «
Ġ æ·±
æ£ Ĵ
Ġ éĻ¤
èĭ ¹
æĻ Ĵ
å¦ ¹
åħ Ĩ
å´ Ķ
åĵ ²
Ġ åįĹ
â ħ
ç» £
Ġ åįķ
Ġ 30
èİ ī
é¥ ¶
éĢ ¢
åĶ ¤
èľ Ĥ
Ġ ä¾Ľ
m m
ç» ¸
å¿ ½
æŀ £
Ġ å¼º
éľ į
Ġ ï¼ī
çľ ī
ä¹ Ķ
+ âĢĿ
éŀ ĭ
1 30
g p
ï¼ į
èµ Į
Ġ è¦ģ
å¸ Ĩ
èµ «
è Ł
æĬ ĸ
Ġ å®ī
åħ Ħ
è¾ ¨
ï¼ ĭ
æľ ´
Ġ1 3
æ¢ ¨
çĮ Ľ
ç¿ ł
éĨ ī
Ġ çĶµ
èĤ ¤
éĹ ¯
æ£ ī
ç¢ İ
çĤ Ĵ
åĸ Ģ
æ³ µ
åĿ ¤
ç£ ģ
é¢ ĩ
èĲ Į
æ¼ ł
èĳ Ľ
éŁ §
co m
ä¸ §
åŀ Ĥ
åł °
å© Ĩ
æ¤ ħ
Ġ æĪĲ
200 7
Ġ æľį
Ġ å°ı
è¯ ĳ
çĥ ¦
Ġ éķ¿
Ġ ä¸ĵ
) ï¼Į
Ġ æłĩ
è¯ ±
çĥ ¤
é ³
æ½ į
è¯ ŀ
èĤ Ŀ
çķ ı
Ġ1 7
¿ ¥
ï ¿¥
6 000
èĥ Ĩ
é£ ĺ
é¸ Ń
éĥ İ
å¨ ĥ
7 00
éĴ ©
.. ..
Ġ åİŁ
Ġ åıĤ
åĭ ī
G D
éĤ ¹
èĵ ī
å½ ¦
èĮ ħ
Ġ åħĥ
Ġ ç¾İ
Ġ éĻĦ
çĭ Ĥ
Ġ å¤©
å¸ ½
èĤ ł
éª ¤
Ġ åħļ
å¹ ¢
çĲ ³
çĮ ´
æĸ ĳ
è¥ Ħ
åĲ ģ
éĤ ±
è° Ń
å° ¿
èħ ¹
cc gp
æİ Ģ
èĬ Ŀ
Ġ ç½ĳ
è¡ į
æĬ ĳ
åĩ ¸
èī ĩ
éģ ¥
å¸ ľ
ç¡ ħ
æ» ¤
åķ Ĭ
èĬ ¬
Ġ æĿ¥
Ġ è´£
åį ¸
å§ ĳ
åħ ľ
ç½ Ĳ
Ġ æĺ¯
o r
éŁ ¦
200 6
èŀ º
18 0
Ġ C
æ´ Ĵ
æ¹ Ľ
åİ ĺ
æ± ²
A èĤ¡
èļ Į
Ġ æµ·
æľ µ
åĨ ¶
ä» Ĺ
Ġ éĴĪ
éľ ¸
æµ Ĩ
æĭ ¾
çª ĥ
åĩ °
çª ĳ
Ġ æĸ¹
Ġ ä»ĸ
åī ĸ
æŀ ļ
æŁ ¯
å¼ ¯
æģ ĭ
çĬ ¹
Ġ è¡¨
Ġ åĲį
æį ŀ
å¨ Ł
çº ¾
éĥ Ĭ
ç² ª
èľ Ģ
Ġ ä¹ł
å¹ »
å° ¹
çī ²
é¼ »
A çº§
ç °
åĲ ¾
æĻ ĸ
çĦ Ĭ
æķ ²
Ġ çĶ±
æµ ĩ
ç³ ķ
é¹ °
èĲ §
èī ĺ
çĤ ®
èĸ Ľ
] ï¼Į
å¼ ¦
Ġ èµĦ
æ³ Ĺ
ã İ
Ġ æĢ»
å» ·
ç² Ĺ
Ġ é»Ħ
åģ ·
è¡ °
æ¸ £
ç£ ·
è´ ª
Ġ å¤ļ
ãİ ¡
åŁ Ķ
ä¸ Ī
ç¼ ħ
ç» İ
æ± °
Ġ æĶ¿
è° £
çĪ ½
æĺ Ń
16 0
1 200
çĽ Ĩ
Ġ åĽł
çĪ ¬
Ġ ä¸ª
Ġ åŁº
èĬ ½
èĴ ¸
Ġ ãĢģ
åĦ ĭ
æĮ ¤
é¥ ¼
s t
Ġ A
ãĢĤ (
] ï¼Ľ
å® Ļ
åĽ Ĭ
çĿ Ľ
ç© Ĩ
æĴ °
Ġ ä¿Ŀ
éĢ ¼
ç¬ ¼
Ġ åı¦
èħ Ĭ
è¯ µ
æ¼ Ĩ
èĤ Į
Ġ æĮĩ
æī ®
Ġ æ±Ł
å´ ĸ
Ġ èĢĮ
èµ ļ
æµ ı
æĢ ¡
ç¥ ī
éĶ ļ
10 2
éĢ ¸
ç¢ Į
æ° ¨
èĻ ¾
Ġ äºĭ
Ġ ç§ĳ
çī ¡
èį Ķ
éŁ ¶
çł º
8 000
Ġ é¦ĸ
åŀ Ħ
Ġ åħ·
C E
Ġ é©¬
å¸ Ĳ
èĬ ¦
i c
æĬ Ľ
s e
Ġ åŃ¦
Ġ ç¤¾
ä¸ ¢
åº ŀ
åĿ İ
ç© ·
çĥ ĺ
Ġ æ¯ı
éĺ ģ
èİ ĵ
ç¼ Ķ
ç» ³
çŀ ¬
æĬ ¬
å¤ ¹
3 50
çĥ Ĥ
èĥ ĥ
èı Ĭ
çŀ »
Ġ æĿ¨
åı Ķ
æ· Ħ
æł ĸ
éŃ Ķ
æ§ ½
, ãĢĬ
Ġ è¥¿
èĬ Ĵ
å© ·
14 0
GD P
Ġ |
çļ Ĩ
çĭ ®
æ¦ Ĩ
é¡ ½
èĴ Ĥ
u n
ä¸ Ļ
çĸ ²
å£ ³
E D
å¿ į
G B
Ġ è¿Ľ
Ġ éĩĳ
Ġ è°ĥ
æĪ Ī
å¡ Į
Ġ åıĹ
ç½ ķ
ç¢ Ĺ
Ġ ä»£
åı ¹
åį ī
Ġ1 8
Ġ çĶ³
çŃ ĭ
èĸ ¯
Ġ æīĵ
ä¿ ±
éĶ ¤
åĸ Ĭ
æ» ¥
ç² ½
æ¨ ±
ç§ §
çī º
æ¾ ľ
æ§ Ľ
è¿ Ń
æŃ §
Ġ æ°ĳ
çĨ Ļ
Ġ åİ¿
æī Ń
è½ ¿
çĳ ¶
å¥ Ī
åŀ ¦
ç» ĳ
æī Ľ
è½ ©
æ¶ ¯
åİ ¢
æĴ Ĵ
åł ª
Ġ è¯¦
è¡ ¢
æº ī
Ġ éĥ¨
æħ ¨
ä½ Ĳ
éĥ ´
è¢ ĸ
Ġ S
Ġ ä¼ģ
ä¼ ŀ
çª Ħ
èķ ¾
Ġ D
æµ ´
éĤ ¢
å³ ª
ç¥ ģ
èĶ ĵ
éĻ ĩ
èĥ Ģ
ç¼ ®
) ;
åı ®
èĭ į
â Ī
å¼ Ĺ
çº ¹
æĤ ²
) :
Ġ ç»ĵ
E C
èĶ ļ
å¼ Ĭ
éĶ Ī
åį §
-- --
Ġ æ²³
Ġ ç¦ı
åħ ¹
çģ ¿
éħ ¿
200 5
æ³ ª
2 50
Ġ å®Į
è¯ ł
9 00
Ġ åı·
ä¿ Ń
çŀ Ħ
æ© Ļ
r o
ä¸ Ľ
éħ ·
Ġ éĿ¢
Ġ æŃ£
æ£ µ
æ· ĭ
å§ ¨
èĴ ²
Ġ ä½Ĩ
éĨ ĩ
2 10
âĢ ¢
éĿ ¶
çª Ŀ
ç« Ń
èħ º
çł ¥
èŁ ¹
Ġ åĨľ
å· ¢
èģ Ĩ
ç Ģ
Ġ B
ãĢĤ "
èĩ Ĥ
å¢ ©
l e
åį ľ
åµ Į
æĿ ı
è½ °
éĽ ĩ
æ· ¤
æŃ ĩ
12 5
200 2
2 20
Ġ ä¿¡
å» ĸ
âĳ ł
å¸ ķ
æī ĩ
æĮ ª
æ¨ Ĭ
æĬ Ħ
éĻ Ģ
èİ İ
Ġ çŃĶ
å± ¡
Ġ ä¸ľ
åŃ ľ
æĥ ķ
Ġ äº¤
Ġ çĽ¸
200 4
Ġ ï¼ļ
10 1
èĦ Ĩ
200 3
Ġ çĶŁ
10 3
Ġ åĳ¨
ï¼ Ĵ
âĳ ¡
Ġ éĿĴ
è´ ©
èĩ £
éĵ ĥ
ç¢ ±
ä¹ Ĵ
1 12
Ġ å°±
å¦ ¨
çĮ ľ
æİ ©
åĭ ¾
è ¤
Ġ èģļ
Ġ ä¾Ŀ
Ġ åĢ¼
ç¬ ĥ
Ġ æľª
èĮ ¨
Ġ å¹³
âī ¥
éģ ®
éĤ ĳ
Ġ /
æĮ ļ
çģ ¶
æĢ Ĵ
å® µ
æ³ ¾
ç£ ħ
Ġ åĬŀ
Ġ åĪĽ
å± Ī
Ġ ä½ł
é¹ ħ
è¶ Ł
å£ ¹
E T
Ġ æİ¥
10 5
çŀ Ĵ
çĥ ¯
çĭ Ĺ
èļ Ģ
Ġ åĩº
Ġ åħ±
è´ ®
æĢ ĸ
æº ¶
g t
æĺ Ĭ
æħ ķ
ç» ·
åĵ ¨
éĤ ª
20 30
k m
10 6
å¸ ·
æ° ¯
ç¨ į
Ġ1 00
Ġ å±±
ç» ½
èİ ¹
Ġ åŁİ
çĹ ķ
Ġ âĢĿ
éĿ ĵ
æ¶ ª
åķ ¦
a g
Ġ æ£Ģ
çĤ ¬
Ġ æķ´
æ¥ ł
i s
æĭ Ĳ
èİ Ĩ
æ¢ §
æ¸ Ń
éĥ Ŀ
çĸ ¼
2 30
x x
çŃ Ĵ
éģ £
Ġ ç»Ħ
Ġ åĶ®
Ġ åĲ´
: "
Ġ è§Ħ
æ® ¡
æħ ĳ
A P
Ġ æĻ´
èĹ ¤
èĤ ¾
e s
æĢ ª
ç© Ĺ
çķ Ķ
3 60
Ġ éĹ®
å¸ ¼
å« ©
Ġ èµµ
æĬ ¹
Ġ åİ»
åį ¿
åī Ĭ
é¾ ļ
ï¼ Ĳ
æ´ ¼
éĵ ²
è¯ «
æĮ ½
åĤ ²
éħ ¯
ç¡ «
éĵ ħ
èĪ Į
å´ Ń
Ġ çĽĳ
ç¿ °
å¨ Ħ
Ġ èµ°
èĿ ¶
æĽ Ļ
10 8
åº Ĳ
M A
ç¨ ½
éĴ Ļ
" ,
7 000
Ġ ä¸ļ
éĽ Ģ
æ¢ Ń
çĮ İ
Ġ2 3
å± ł
ç¬ ĭ
èĸ ĩ
10 4
å² ļ
Ġ P
éĴ ĵ
B A
c e
Ġ å¾Ĳ
èĦ Ĭ
æĿ ī
æ² ¥
æĤ Ķ
èĳ ±
åĥ ļ
Ġ éĺ¿
æ² ģ
å® ł
é¢ Ĥ
C T
Ġ è¢«
Ġ è¯·
ç¦ Ħ
æ¦ ´
èļ ķ
a s
åĲ ŀ
æĭ ¦
æĤ Ħ
çº ¬
é½ ¿
èĶ ½
a pp
åĴ ±
åĭ ĭ
éĢ Ĭ
Ġ åīį
Ġ ä¸¥
Ġ ç¼ĸ
åķ ¤
ï ¹
æĳ Ķ
åľ ©
éĻ Į
éĹ «
æµ ĳ
ä¾ ł
æį §
ç¦ ¾
25 00
L ED
Ĭ è·ĥ
åĿ ł
11 5
11 9
é¼ ł
Ġ çļĦ
äº Ł
æĸ ©
éĺ Ģ
æº º
æ» ĩ
åĭ ¿
. ãĢĬ
Ġ s
å® °
åĳ µ
Ġ æ¹ĸ
è´ °
å¹ ½
æ· ĳ
éħ ±
17 0
æ¾ İ
i v
Ġ åºĶ
è£ Ķ
C P
q u
ï¼ļ /
ç³ Ĭ
Ġ åĮħ
éª Ħ
24 0
11 3
Ġ äº§
Ġ å¤ĩ
å¤ ·
åĢ ª
į åį«
ãĢ ĩ
åĸ Ĥ
èı ĩ
Ġ åŃĻ
çĿ Ĳ
200 1
æ´ ±
å« ģ
çº ±
Ġ2 1
e t
æĿ ł
åĴ ¬
æ· ³
åĸ »
åĦ Ĵ
a m
æ ª
ï¼ ĳ
æ® ¿
XX XX
Ġ åºı
æ± ¾
Ġ0 8
ç¿ ģ
ä¿ ©
çĥ ¹
èģ ª
Ġ æĺ¨
10 9
i d
Ġ ä¼ĺ
Ġ è´¢
éĢ Ľ
èĤ ¢
ç¯ ·
Ġ çĶ¨
Ġ å®¡
èĥ ĸ
ç² ĺ
æ» ģ
G P
10 7
èĨ ı
Ġ èĢĥ
ä¹ ĵ
åĢ ©
è£ ¸
Ġâĳ ł
o l
å¸ ĸ
in g
Ġ åı¯
æĢ ¨
Ġ åŁ¹
æĴ ¬
çĺ ¦
æĨ ¾
E S
Ġ è´Ł
æĺ Ķ
æ° ®
Ġ å·²
ç» Ĵ
åĵ Ń
Ġâĳ ¡
Ġ åı°
Ġ æĤ¨
Ġ ä¼ł
Ċ Ġ
Ġ ç»¼
æĭ ±
18 00
æ© ĺ
è£ ¹
) ãĢĭ
20 35
è¾ ±
Ġ æľº
å¸ ĺ
çĦ ļ
æ¹ ĥ
èĳ «
æ¦ ķ
Ġ )
åħ Ķ
éĢ Ŀ
æ¸ ¤
çĤ ľ
è¶ ģ
Ġ æĶ¶
å· į
æĮ £
åĸ ĩ
æ© ¡
æŁ ¬
Ġ èĤ¡
Ġ èİ·
æĦ ī
åı ģ
æ¸ ´
çħ ®
éº Ł
i on
Ġ åĨħ
Ġ åĽŀ
Ġ åĲ¦
æĥ §
åĵ º
çĮ ķ
é ¬
å£ ¶
Ġ æ¯Ķ
Ġ äºĳ
æĪ ļ
ä¿ ŀ
æ£ ł
æħ Į
ä» ķ
æ± ģ
èĤ Ĩ
é« ĵ
éª Ĩ
éĤ ¯
13 00
Ġ è´¨
å¿ »
éĥ ¸
Ġ2 2
èĢ ¶
çĿ ¿
ç¦ Ģ
èº º
çŀ ©
Ġ è®©
çī Ł
æĭ Į
ç ¶
çĳ °
© ¹
è ©¹
Ġ åģļ
Ġ éĤ£
æ¯ ¯
æ³ ¼
èĶ Ĺ
âī ¤
" ãĢĤ
çĶ Ħ
ç¥ ¸
âĪ ļ
ç¶ ¦
S T
i p
Ġ æĶ¯
çł į
èĨ ³
çĲ ª
çĿ ¦
12 8
çª Ł
Ġ a
äº ¨
éĹ µ
> >
Ġ æ¶Ī
Ġ ï¿¥
æį ¡
åķ Ħ
26 0
Ġ æŃ¦
Ġ æľ±
çĲ ¦
æŁ ¿
èĮ «
12 2
Ġ ä¸¤
æ³ Į
11 6
Ġ å®¶
ä» ĳ
éĢ ®
å¥ İ
æŀ ¯
11 1
æģ ¤
ç¦ ¹
11 8
13 5
Ġ éĤ®
çĽ Ķ
11 4
æ¿ ®
âĳ ¢
Ġ æĺİ
éĴ ¥
Ġ R
14 1
28 0
Ġ ä½ı
æŁ ĳ
éº ĵ
Ġ åķĨ
åĴ ³
æ± Ŀ
æ¸ Ĭ
Ġ å§Ķ
ç© ´
Ġ åįİ
æĮ ¨
å¥ ķ
è° ¦
è° ľ
éļ ¶
çŁ ¢
éľ ľ
O P
Ġ æ°´
ä½ £
èħ ķ
æķ ŀ
éĶ £
æ» ķ
qu o
4 50
Ġ ç©º
æł Ĺ
åķ ¥
æ¢ ĵ
Ġ2 4
e b
æķ ·
Ġ è¯Ħ
æĢ ł
çİ Ħ
æĻ ¤
çĨ ı
æ² «
èģ Ĥ
Ċ Ċ
Ġ å®ģ
å½ Ŀ
åĵ Ģ
çĳ ľ
l o
Ġ èĥ¡
å¤ ¸
ç¦ ħ
% ;
3 70
N G
å® Ľ
å¥ ¢
åī ¥
çĤ ³
11 7
å ļ
Ġ ä½ķ
ç± ½
12 6
Ġ åĽ´
èµ ĵ
è¸ ©
Ġ M
Ġ åĴĮ
Ġ éŁ©
ä¹ ¾
ç¿ ħ
æł ĵ
åª Ľ
ä½ °
æģ ³
ĠĊ ĠĊ
åĮ Ģ
å° §
æĥ ¨
èĦ ĸ
3 20
D N
S C
Ġ åĮ»
æĮ «
å¢ ħ
éļ Ļ
èĳ Ĩ
o f
Ġ è´µ
åĥ µ
ç° ¿
Ġ æīĢ
æĽ ¦
ET F
AP EC
Ġ èĻ½
ç» ¥
16 00
é² į
åĪ ®
Ġ æĮģ
é¢ ł
00 1
Ġ å¤Ħ
Ġ çĻ¾
Ġ æĺ¥
èµ ĥ
19 0
19 99
( [
Ġ é¾Ļ
èĲ Ŀ
éª ı
çĭ Ń
èĨ Ģ
Ġ æµĻ
è± ļ
I T
d quo
å¦ ®
15 6
h e
åĪ ł
æŃ ī
éĽ ¯
éħ µ
éħ Į
é© ¼
P D
Z C
a k
Ġ t
Ġ æķĻ
Ġ éĥĳ
æį Ĩ
èĬ Ļ
çĢ ļ
åĴ ½
åĳ Ģ
çļ ĭ
åĮ ¿
åĮ Ļ
æł Ī
æ² Ľ
éľ ¾
éĴ Ľ
çı Ĭ
Ġ çĶ°
è§ ħ
å½ ¤
V R
u s
ç¥ ł
ç¼ ł
Ġ è¯´
åı Ń
å° ¸
ç½ ¢
12 4
èĻ ŀ
13 7
P C
Ġ è®¡
Ġ æŀĹ
æ¢ Ĺ
11 00
éŀ Ń
Ġ èĢģ
Ġ è¿Ŀ
æ° Ł
çİ «
I I
T C
Ġ c
Ġ æ¸ħ
ä¸ ¸
åĬ «
æĴ ¼
Ġ ç»Ł
Ġ åģ¥
Ġ æĦŁ
Ġ åī¯
Ġ çŁ³
æĮ Ŀ
Ġ2 5
åĤ į
CE P
g d
h t
âĢ ķ
æĿ ŀ
æĭ £
è± ¹
æİ ĸ
è° ħ
14 00
è¸ ¢
Ġâĳ ¢
s se
çķ ´
çĥ «
12 7
æ½ ¼
èķ ī
Ġ åĪ°
èĤ ª
A R
Ġ ä½į
åĪ ĥ
åĮ Ĩ
çĽ İ
12 9
Ġ æ±ķ
èĭ ¯
èĽ ĩ
Ġ æĻ®
è¦ ĥ
èĥ º
30 6
e d
Ġ 00
æĸ ¥
åĨ ī
èµ İ
Ġ å¤ĸ
Ġ ç²¾
Ġ çĸ«
æ± ¶
æ¡ ĵ
èº ²
15 5
35 00
PP P
é¬ ¼
Q Q
Ġ åĪ¶
ä» Ł
åĮ Ī
æĪ İ
éĺ ®
çĽ ı
çĩ ¥
I M
Ġ ï¼Ľ
Ġ ç§¯
Ġ å¥³
æī ģ
åİ Ħ
èĮ Ħ
å¨ ±
çĴ §
Ġ çĤ¹
Ġ âĢ¦
åº ¸
Ġ è®¸
Ġ åĲī
åĩ ĳ
20 5
ç¡ Ŀ
éĴ ł
çĹ ¹
å´ ©
d o
Ġ ä»»
Ġ 50
åĮ ª
k V
çĶ ¬
é¢ Ĳ
æ¼ ¯
36 5
Ġ G
çĸ ¯
èĬ Ń
éľ ĸ
æ¥ ·
è¹ ²
9 000
: âĢľ
R CEP
Ġ åĵģ
Ġ å°Ĩ
æľ Ķ
19 89
13 4
åĺ İ
] ãĢģ
Ġ åıĮ
èĤ ļ
18 5
Ġ çľĭ
Ġ æĽ¾
çŃ Ŀ
i m
r a
Ġ åº§
è¾ į
ç¥ Ģ
A pp
i f
Ġ çłĶ
å¿ Į
C G
Ġ äº¿
Ġ æĭŁ
æĥ Ł
æį ī
èĪ ľ
èĨ Ŀ
Ġ åıį
Ġ å¾·
Ġ æ¬¢
æĺ ı
202 6
éĴ §
é¥ ª
13 3
éŃ Ħ
âħ ¡
2 25
Ġ æī§
Ġ èĳ£
æī ¯
éĻ ĭ
% ï¼Ī
Ġ æĶ¹
çĦ °
éĴ ®
19 98
2 15
æĺ ķ
i a
Ġ è¿ĩ
æİ ı
çł ¸
æģ ª
er s
é¹ ĥ
é³ Į
¥ å¹¸
Ġ èĭı
Ġ åĿĢ
çĨ ¬
Ġ æĸ½
Ġ çİ¯
Ġ éĿŀ
çĲ ħ
Z B
Ġ çĦ¶
åİ Į
æ¼ ³
19 80
Ġ å®£
æī Ķ
æ± Ģ
æ· ¹
14 5
13 9
å¨ ĩ
Ġ çº¢
Ġ è¿ŀ
19 97
é¥ ¿
ES G
gd p
Ġ b
è´ ŀ
èĢ ¿
éľ ī
é¥ º
èħ »
A A
f o
Ġ è®¾
Ġ éĥŃ
éħ ī
Ġ è°¢
13 8
èļ Ĭ
æ² ¸
æĦ §
èĮ ¬
è£ ´
èļ ģ
Ġ æĬĬ
ç¤ ´
ç« ĸ
13 6
æĶ Ĵ
èº ¬
A T
Ġ æĻº
ä¿ ¯
è° İ
éª ļ
æ£ ĺ
çĭ ¼
åª ³
Ġ m
Ġ æĬĢ
Ġ èĲ½
o t
Ġ ç½Ĺ
æĻ Ł
æģ ¼
o u
å² Ķ
æ® ´
17 00
éĦ ±
, âĢľ
Ġ å¢ŀ
Ġ åİĨ
ä» ĩ
ç´ Ĭ
å² ±
16 8
Ġ H
Ġ éĺ²
å· «
èį «
è¹ Ħ
O C
åľ ĥ
è¡ ¬
ç¥ Ī
çĵ £
it y
a p
k g
Ġ 40
æĬ Ĵ
æ² ħ
æ² Ĳ
æº ľ
19 96
æ¿ Ĵ
16 5
æ¤ °
éª Ĥ
å³ ¨
27 0
çĨ Ķ
ÃĹ **
P R
Ġ çªģ
Ġ çĻ½
23 1
23 00
3 30
I S
a èĤ¡
åĩ ¶
ç£ Ĳ
a b
i g
è¿ Ħ
éĻ Ĥ
é£ Ļ
æº §
12 1
14 8
13 2
CE O
5 50
Ġ å±ķ
Ġ è°Ī
çĶ «
è¡ ħ
æĺ ¼
15 8
2 28
: [
Ġ L
P A
åĲ ĵ
é¢ į
en t
o d
Ġ ç»¿
ç¬ Ľ
a i
c m
åĩ ³
17 8
Ġ å¾®
Ġ å°½
20 4
æŃ ¼
ç² ¥
30 1
èĳ µ
æ½ ĩ
èı ±
çĴ ¨
æ§ Ĳ
Ġ æĬĵ
âĢĿ )
å¯ ¡
è¾ ľ
A åº§
Ġ E
éķ Ģ
åī Ķ
æ¡ ¦
éĶ Į
æĩ Ĵ
Ġ äºİ
ä¸ ĳ
18 1
çĨ ł
a c
13 1
éŃ ģ
çĴ Ģ
3 40
o p
Ġ ä½ĵ
Ġ å¸¸
20 8
æ² ¾
æ¡ Ķ
æ¶ ¡
èĬ ĭ
æ¤ İ
17 5
20 6
æŃ ª
Ġ æĿŃ
èĢ į
æ¯ Ĺ
45 00
âħ ¢
Ġ ä¹¡
19 92
14 4
P S
Ġ éĽĨ
Ġ å¼ķ
Ġ of
éĥ ¡
20 3
ç² ¹
èĬ ¹
æ¨ Ł
an d
I C
Ġ éĵ¶
Ġ ç®Ģ
å½ ª
çĺ Ł
m g
p ag
Ġ ç´§
ä½ ĳ
ç» ļ
åį µ
ç¾ ģ
è£ ¤
é» ı
Ġ2 6
Ġ2 9
Ġ &
Ġ éľĢ
éĻ ¡
çİ ®
æĻ ĥ
16 9
re ak
Ġ é£Ł
Ġ å®ĭ
æŀ ¸
èĲ ĥ
ç¦ º
å¨ ¥
é² ¸
2 17
A S
M P
Ġ èĭ±
éĹ ·
åĿ ŀ
æĻ ¾
éĶ µ
15 3
15 4
æĲ ħ
14 7
çĳ ķ
D R
Ġ å£°
è´ ¬
ç¼ ī
Ġ åĩ¡
Ġ âĪļ
æµ ļ
éĵ ¿
èį Ł
çĬ ģ
15 2
èĨ ¨
! âĢĿ
Ġ :
Ġ T
Ġ è´§
åĪ ¹
çĲ Ĳ
çĤ «
èı ı
A B
Ġ çĿ£
ï¼ ı
åĵ Ħ
ç¡ Ĵ
èį §
ç¼ ª
19 93
æ¦ Ħ
èĴ ľ
3 80
Ġ ä¿Ħ
ï¼Į [
åĨ ķ
è· »
Ġ2 8
14 2
14 6
14 9
âĳ £
Ġ I
æĦ ¤
æ¶ §
30 2
) ï¼ļ
Ġ ä¸´
Ġ åĶĲ
è¿ ¸
èµ ¡
19 94
åĥ §
å ¬
Ġ åĬ©
Ġ çĶĺ
æł ħ
14 3
å© ī
D I
Ġ F
ç¤ ģ
éĽ į
çł Į
15 9
C N
e c
Ġ ç§°
Ġ ç¬¦
Ġ æ²Ī
20 7
ä¾ Ĺ
çĸ µ
ç¿ Ł
åĹ ½
C O
Ġ è¿Ĳ
Ġ è½¬
âĢ °
èĩ »
æº ĥ
15 7
18 8
2 11
] ï¼Ī
] ï¼ļ
Ġ W
Ġ ç®¡
åį ¤
æĭ Ń
èĥ °
æ¶ ¤
16 6
å³ ¥
æ§ Ł
) âĢľ
çļ ĵ
åĴ ı
éĽ ¹
èį ¥
è± ģ
Ġ2 7
G C
a d
q q
Ġ ç«ĭ
Ġ æī¿
Ġ æĹ©
æĭ ¢
æĭ §
æ¹ Ħ
éĨ ĭ
7 50
t v
Ġ çľŁ
Ġ ä¸ĸ
æŀ ķ
çľ ·
é¹ Ń
a y
Ġ æĿĳ
Ġ èĲ¥
Ġ é£İ
Ġ ç«ŀ
Ġ 60
Ġ æ½®
åº ļ
R O
Ġ åĪ©
Ġ éĻķ
åĲ µ
æį ı
ç¾ Į
èį ¼
ç¼ Ģ
æ¢ µ
èĻ Ĳ
âħ ł
3 45
4 40
M O
Ġ p
Ġ æ¡Ī
Ġ ç¡®
Ġ ä¹Ĳ
å± ¿
æł ¾
ç³ ¯
e m
Ġ è§£
ç³ Ł
éĴ Ĭ
æĤ ¼
æĴ ķ
Ġ åĴ¨
ĩ æĿ
èĢ ĺ
èĵ Ł
ĩæĿ ·
Ġ é¢Ĩ
Ġ çĻ»
å» ĵ
åĸ ī
èĹ »
IP O
3 10
Ġ èģĮ
Ġ èĭ¥
99 9
PD F
Ġ ä½Ļ
å· ħ
èµ Ĥ
éķ ģ
åķ ¸
å¦ ĥ
2 12
å¥ ´
ç« ¿
èĲ İ
çŁ ¶
16 2
Ġ3 1
2 24
Ġ ç³»
Ġ è®¤
Ġ æĪ¿
å¯ Ĥ
19 86
èĶ º
G W
f c
èĢ ½
202 7
éľ Ħ
19 6
19 90
è¸ Ķ
; (
b a
Ġ åĲİ
Ġ è½¦
Ġ ä¸¾
Ġ æ¢ģ
Ġ æĽ¹
ï¼ ĵ
æ² ±
æ¸ ļ
åĿ Ł
19 7
o m
Ġ æŁ¥
ç® Ķ
æģ ¨
åĸ ĺ
16 7
18 3
Ġ w
Ġ è¿ĺ
Ġ åĪĿ
çł ¼
19 5
19 95
16 1
âĪ ¶
2 200
è ĺ
Ġ ä¹Ł
Ġ éķĩ
ï¼Ľ (
é¾ Ł
19 8
17 7
a a
Ġ å¾Ĺ
Ġ çĽ´
Ġ åĨį
ä¼ ½
åĴ Ķ
æĮ ł
èŀ ĥ
15 1
19 88
in fo
s u
30 4
æĳ §
18 6
æ¦ Ķ
U S
åį Ĵ
è¯ Ģ
æ¢ ¢
19 9
A M
P V
Ġ æīĭ
Ġ è¯Ŀ
Ġ éĺ³
Ġ é¦Ļ
âĢĿ (
èĪ µ
èĦ ¾
19 84
C h
T O
çĵ ¯
èľ ¡
in e
C S
Ġ æŀĦ
æ³ »
æµ Ķ
å§ ¬
è° ´
æĻ ı
æĻ ķ
æ½ ¢
16 3
18 7
éº Ĵ
Ġ ,
Ġ åı¤
Ġ ä½Ľ
å¦ į
çģ ¸
19 83
17 1
24 00
% -
æ· ĩ
åŀ £
19 87
åµ ©
i i
Ġ N
Ġ ç±»
Ġ æ¸©
Ġ å¥¹
æĹ ·
æİ º
éĽ ı
çĿ ¹
éĴ ´
æĴ Ĥ
ç¢ ļ
åµ Ĭ
Ġ å·´
Ġ å¤ı
æ£ ķ
éħ ¶
éĴ ¾
æļ ĩ
18 2
17 6
** *
å« Ĥ
çĴ ŀ
çĺ «
2 26
6 50
i b
i an
Ġ åįı
Ġ å±ħ
Ġ æ¼Ķ
Ġ çĶ·
Ġ æ¬§
Ġ è¾½
æ² ½
éħ ĭ
é© ´
èº ģ
é» Ľ
24 8
â Ĩ
Ġ åĲĳ
Ġ çĹħ
çŃ ·
çĲ ¢
èĬ ¸
19 85
çĭ Ĳ
18 9
çĺ ¾
åµ ĺ
% ~
C D
M E
Ġ æł¸
Ġ åĵĪ
æģ º
30 3
30 5
30 9
33 3
B åº§
m l
Â ¥
Ġ æľŁ
Ġ åľŁ
Ġ åĲ¯
20 9
16 4
34 8
2 13
Ġ ä¿ĥ
Ġ èŃ¦
çº Ĥ
æı £
åķ ĥ
æ¼ ĵ
19 78
C R
Ġ d
Ġ è§Ĩ
Ġ ç¥¨
åĽ ¤
æģ Ń
èĬ ·
25 5
22 1
ç¿ ĺ
èľ ķ
A C
Ġ åį³
å¼ Ī
ä¾ £
å¨ ĵ
æĨ ©
2 19
Ġ .
çĥ ģ
çĥ Ĭ
19 82
17 3
Ġ3 5
æĵ ĺ
éĨ Ľ
èĽ Ļ
.. .
ç° ĩ
L NG
i r
Ġ f
Ġ è§Ĥ
æĪ ³
å° ¬
åĳ Ĩ
ç¨ ¼
çŁ ®
éĵ ®
èĭ Ł
åĭ Ĳ
23 8
2 100
Ġ çŃī
ï¼ ķ
éĢ Ĺ
éķ ¶
æĳ Ĵ
17 9
23 7
çĳ Ľ
çĴ Ĳ
, "
4 20
7 20
Ġ æĥħ
Ġ é¼ĵ
åĮ ¾
æ² Ń
18 4
åª ļ
Ġ0 7
èĽ ®
2 16
4 80
s h
Ġ ä¹Į
Ļ åİ¿
å¥ ¸
æ² ¼
éĴ °
æ½ ŀ
27 9
Ġ0 1
3 35
Ġ å¤®
å° ´
åĩ ¿
00 7
ç¥ º
ç¼ ķ
Ġâĳ £
# ãĢģ
a v
s åºĹ
Ġ éģĵ
Ġ èµ·
çĶ ©
åĳ Ĳ
è½ §
è° ¯
éħ ®
å² Ĳ
19 91
æĲ ģ
29 0
29 9
éŀ ł
) ï¼Ľ
Ġ ç¨İ
èİ ħ
28 00
Ġ èº«
Ġ çº³
Ġ é»ĳ
ä¹ ŀ
çİ ĸ
æŁ ł
æĦ ļ
æ· ¼
éĶ ¯
17 4
22 2
çŀ °
U V
u l
Ġ éĢī
Ġ æ¿Ģ
æ³ ĵ
éĽ Į
æ· «
å¨ ´
in d
c p
Ġ ç»§
Ġ çĭ¬
Ġ æ½ĺ
åĲ Ł
éĺ İ
çĥ ·
17 2
é² ²
æ¾ Ī
éĦ ŀ
èĿ ī
G ç½ĳ
L PR
Ġ å¥½
Ġ è¡¥
Ġ CA
23 3
é¸ ¥
4 60
Ġ äº¬
Ħ æ¦Ħ
ç² ±
23 2
23 6
èľ ¿
èľ Ĵ
èļ Ĥ
èļ Ŀ
3 15
S D
Ġ å®ļ
Ġ åħħ
æķ Ľ
ä¾ ĥ
æ£ ±
èĿ ĩ
E R
g e
Ġ åħ¥
Ġ çĿĢ
å± ¹
19 2
é¥ ¥
çħ İ
Ġ ç¾¤
Ġ æİ¢
ł æ±Ł
åĪ ģ
å¼ ĵ
èĢ »
è¢ į
çĥ ¨
è£ Ļ
åĤ »
24 2
åĺ Ľ
. âĢľ
5 20
M W
u b
Ġ K
Ġ æ²¡
è® ³
æĹ Į
èĦ Ĳ
èı ģ
23 4
I N
Ġ çŃ¾
éħ Ŀ
èĹ ķ
è¤ ª
GP T
ª çĶŁ
Ġ åĨ³
Ġ æ¸¸
Ġ å¤ª
Ġ æĿľ
Ġ un
æĸ Ĳ
æł ©
æ¶ ħ
èĮ Ĺ
èĭ Ľ
åĸ §
çĥ ½
26 00
èĽ Ł
2 18
B çº§
Ġ æµİ
Ġ ç»©
Ġ åģľ
æĺ ±
çİ º
éķ į
çª ¦
çª ĸ
Â· Â·
ï¹ ŀ
n e
t e
Ġ çĥŃ
ãĢ Į
æ· ¬
æ· ĸ
çķ ²
30 7
30 8
å¨ ħ
26 5
27 00
36 00
3 25
Ġ "
Ġ çº¿
Ġ èĬĤ
åħ ¢
æľ ½
ç§ ¤
æ¸ İ
ç¼ ¤
çĹ ĺ
22 9
ï¹ Ŀ
T A
] -
Ġ åĵį
Ġ åı¶
ãĢ į
éĿ ¡
ä¾ Ī
èĥ ļ
æ· Į
éľ Ĩ
Ġ3 6
23 5
22 7
3 28
8 50
9 13
V OC
Ġ åĬ¨
è¯ ¿
æµ ľ
t p
Ġ çĲĨ
Ġ æ¬¡
Ġ æĦı
Ġ èĮĥ
Ġ å¾Ī
Ġ å¥ĭ
Ġ éĽ·
Ġ ä¸ģ
Ġ å½Ń
å¼ Ľ
ä¿ ı
åģ ĥ
å¢ Ł
èĭ Ķ
19 71
è¹ ¦
è¤ Ĵ
Ġ X
Ġ éĢĤ
Ġ åĲ¬
ï¼ Ķ
ä¸ ¨
æ± Ĳ
è· ·
éļ ĭ
æ¶ ¿
26 9
27 5
i e
Ġ æĿ¡
Ġ æ»¡
Ġ å¾ģ
åħ ®
å® ķ
ä¿ ĺ
åĿ ¯
ç¾ ¡
çĿ ¢
25 6
36 1
çĴ ĭ
èĺ ĳ
G A
Ġ ç¨ĭ
Ġ å·ŀ
Ġ ç¬Ķ
Ġ åĪļ
Ġ éī´
Ġ çĽĽ
Ġ çīµ
Ġ æ±ª
ä¸ «
æİ ·
00 2
ç¼ ¸
èİ ĺ
æ© ±
3 200
u t
åĴ Ĳ
æ¶ Ł
çĸ ¹
åŀ ®
çģ ¼
19 3
æĵ Ĥ
27 6
4 45
A ç±»
G åŁº
æĸ ĭ
ä¿ ĳ
æĭ Ĥ
çľ º
æ¸ ²
19 79
50 5
é¸ ½
ç¿ ©
çĳ Ł
å´ İ
æª Ģ
p l
Ġ æĶ¾
Ġ å»¶
Ġ åİ¦
åĲ Ĵ
å¯ ħ
é¢ ħ
ç¾ ļ
19 65
19 72
19 81
28 4
40 1
Ġ0 2
xx xx
3 18
] ,
Ġ å±Ģ
Ġ éĻĨ
åı Ľ
æı ª
è° Ĩ
èĬ ®
19 68
19 49
50 6
çĢ ĳ
5 60
Ġ èĥ½
Ġ 70
ä» Ĩ
è® ´
æį £
çģ ŀ
çĪ µ
æ¼ ª
100 1
23 9
æª Ĳ
O N
S S
i o
Ġ æ¶ī
Ġ åħį
Ġ åħ°
Ġ çİī
Ġ 90
è¯ ¬
ï¼ļ (
çĬ Ģ
æħ ·
Ġ3 2
èĿ ´
3 16
B ç±»
E M
z y
Ġ åĺī
åĲ »
æ² ĵ
éĺ ±
æ¦ ¨
26 6
çĳ ¾
p a
Ġ g
Ġ èĵĿ
åį ĳ
å¼ §
æķ ĸ
å¾ ĩ
æ² ¦
èĮ ¹
19 70
24 7
39 8
æĨ ¨
3 99
Ã ·
è ł
Ġ h
Ġ å®Ī
Ġ æ°¸
åº µ
èĥ ¥
æĥ ¹
éħ ļ
60 1
29 5
37 5
an g
5 500
: (
C C
c t
o k
Ġ çĪ±
è¡ «
æī ³
èµ Ī
åĳ ·
è½ ¼
éļ ħ
åĹ ħ
VOC s
S H
r y
Ġ +
Ġ ç»´
Ġ å¥¥
Ġ ç§¦
é¦ ħ
åĶ ĩ
19 00
24 5
26 8
å© º
CP I
T V
Ġ å½ķ
Ġ èĶ¡
åº ĩ
å¾ Ļ
æĭ ĩ
æĻ Ĺ
èĮ §
çĹ °
26 7
èĹ ī
34 6
æĨ ¬
o w
Ġ åį°
Ġ æīİ
çļ Ĥ
çļĦ S
èµ Ĳ
é¢ ¤
ï¼ī -
åĵ Ĺ
åĿ į
æ¼ ¾
40 5
å´ Ĥ
âħ £
é³ Ħ
3 12
Ġ åħĪ
Ġ åıĺ
ãĢģ "
è® ½
åĮ ®
ä¿ Ĳ
æĭ ¯
æĭ İ
ç¨ ł
æ£ į
å² ·
33 9
åļ £
3 90
O S
P E
U PS
e åħ¬
Ġ Y
Ġ åĳĺ
Ġ çī©
Ġ ç§į
å¯ ĩ
éķ ĳ
æ¸ į
å³ Ļ
24 4
28 5
ç¯ Ĩ
68 8
I F
T OP
Ġ åıĬ
Ġ 80
Ġ åĲķ
Ġ âī¥
å¼ ĭ
æį Į
çĦ Ļ
æĴ ¸
19 1
24 6
é² ¤
Ġ5 00
33 8
èŁ Ĵ
or t
ht tp
2 23
5 10
Ġ è®²
Ġ åįļ
Ġ æ¢ħ
Ġ åį¢
ï¼ Ĺ
ä½ Ł
åį ¦
è· ĭ
æģ ķ
éĵ Ĩ
çĥ ĥ
çĹ ´
éŁ ¬
24 3
æ¾ ¡
çħ ľ
ç¯ ¡
å« ¦
aa S
T B
g g
§ æĨ¬
Ġ åĪĻ
Ġ åıª
Ġ æ³°
Ġ æħĪ
å® ¸
åĴ ª
åĵ ¦
ç¨ ļ
éĵ Ĥ
æ¤ ¿
å¨ ¶
24 1
29 8
2 14
E V
u p
Ġ V
Ġ å¤į
Ġ æī¹
Ġ æĽ²
æ¶ £
50 8
28 8
åĹ ¨
å¬ ī
G K
² æĺ¥
Ġ å¸Į
Ġ çľ¼
ï¼ ĸ
æ³ £
è¾ Ĺ
èĲ ¤
éĤ ¸
25 2
am p
3 11
9 14
D S
n a
¼ çĸ¾
Ġ å¿«
ï¼ ĺ
éĺ ¡
æ¯ ĵ
50 1
Ġ3 9
25 4
4 200
d a
Ġ åĩł
Ġ åĳ¼
æ² £
å§ ¥
éª ¸
åĸ Ĩ
åĤ £
24 9
25 8
60 3
60 6
Ġ0 3
at e
é³ ŀ
âĨ ĵ
4 10
] )
Ġ ]
Ġ l
Ġ v
Ġ åħ´
Ġ ä¸°
Ġ co
Ġ è¢ģ
åĩ ¹
åİ Ŀ
èĤ ´
æŁ Ĵ
åĿ »
èĮ ¸
è¢ ¤
åĭ º
19 75
) (
3 21
4 30
6 18
6 500
H PV
¦ çīĽ
Ġ è·¯
Ġ ä½¿
Ġ æİĴ
Ġ æĹħ
Ġ åħī
Ġ éĵģ
Ł åİ¿
ç» ŀ
æĸ Ľ
åĳ ķ
æĥ ¬
èĮ ģ
æ¾ §
37 7
fc g
r i
t a
Ġ æĪ·
Ġ å¿Ĺ
Ġ è¡Ĺ
Ġ ç±³
ï¼ Ļ
åĮ ¡
éĩ ľ
èĤ ĺ
è° į
çķ ¸
å² ĳ
æ» Ķ
çĥ Ľ
éĴ ŀ
éĤ º
28 6
é¸ ¦
4 70
D A
Q I
z fcg
Ġ ä¾ĭ
Ġ æĭī
Ġ è´¦
Ġ åĨ¯
Ġ qq
äº ¥
åĪ ¨
ä½ ĺ
åľ Ń
è¯ ¡
éĿ ³
æ± ¹
éķ Į
ç¾ ŀ
çł ļ
æĽ °
èĮ ľ
å¦ ĸ
çª ¥
19 69
Ġ2 10
èħ Į
27 7
su v
3 19
3 13
3 26
3 36
5 80
o s
p d
Ġ æ°Ķ
Ġ åĢº
Ġ èµ£
Ġ èĤĸ
Ġ å§ļ
ä¿ º
ï¼ī :
è· ¤
çĦ ī
19 73
ç¢ ¾
50 2
25 7
åĺ ²
èĵ ĵ
Ġâĳ ¤
le d
SC I
3 23
9 25
p v
t er
Ġ åĽ¢
Ġ æĪĺ
Ġ æİĪ
Ġ çº¸
Ġ æĺĨ
è® ¶
å¯ ¥
æ¶ ©
çĸ Ł
ĠĊ Ġ
Ġ4 1
35 8
36 6
39 5
CT V
5 30
Ġ å®¢
Ġ åĦ¿
Ġ åįĥ
Ġ æ²Ļ
Ġ æī¬
ç» ®
æĥ «
00 5
éĶ ²
çĥ Ļ
çª ľ
Ġ3 3
29 7
âĳ ¤
4 75
C çº§
G CP
O F
c z
Ġ ä¹ĭ
Ġ ç¦»
Ġ åĨ¬
Ġ æľĿ
Ġ éĿĸ
åĮ £
å± ĳ
æı ī
éĽ ī
å¦ Ħ
éĶ ¹
æ¹ Ł
çı Ĥ
19 4
5 40
Z F
Ġ äºĴ
Ġ å®ľ
Ġ çĶ²
Ġ æ¯Ľ
Ġ å°Ĭ
Ġ æ²§
æĶ ¸
åĴ Ģ
èĤ ĭ
åĵ ĳ
ç¼ ¨
çĪ ª
Ġ3 7
Ġ3 8
å© §
çĺ ´
æª ¬
e v
e y
m il
Ġ æĢĢ
Ġ æī«
Ġ éĵľ
Ġ éŃı
çĲ ¶
éħ ¥
26 4
76 3
Ġ ç«Ļ
Ġ æ¸¯
Ġ æĲŃ
äº ¢
åŃ ļ
èĢ ¦
å¢ Ĵ
æ¡ ¨
åĢ ¦
èĮ µ
éħ ª
19 66
19 64
25 3
6 80
H S
I D
R T
m e
Ġ æµģ
Ġ çŁ¥
Ġ åħ»
Ġ å½±
ä½ ¼
åĲ ı
åĮ Ŀ
åĴ ĭ
ï¼ī ,
æŁ ļ
éģ Ľ
ç² ¼
éĤ ¡
Ġ3 4
Ġ3 00
60 2
Ġ4 2
36 2
38 8
-- -
ma r
" "
0 10
3 27
4 95
5 70
L L
o g
Ġ åŃĺ
Ġ äºī
Ġ 200
å¸ ļ
è´ ¼
ä¹ į
åĴ ķ
æµ Ĭ
æĽ ³
ç² Ł
åĶ ĳ
Ġ4 7
35 1
35 5
èķ Ĭ
ar d
N A
o c
Ġ éĻĲ
Ġ è®º
Ġ èĥ¶
Ġ >>
åĵ ®
ç¾ ²
é¦ į
ç¼ Ļ
ç¼ ļ
æ» ¦
æ¼ ķ
19 63
éŁ Ń
çĨ Ħ
ç¯ ±
36 8
38 00
ĠP ro
% âĢĿ
o v
Ġ æĥł
Ġ å·¡
Ġ ä¼´
Ġ éĢ¾
æĸ ĵ
ä¼ ¶
æ· ħ
èİ º
éĤ ķ
å¡ ¬
29 1
37 8
èĽ ³
4 25
I n
b s
Ġ æķĪ
Ġ è§ģ
Ġ åĩı
Ġ éĺľ
ä¾ ®
èº ¯
19 60
19 67
19 74
60 5
29 4
44 3
gg zy
3 17
9 19
l y
Ġ å¿ĥ
Ġ ä¹¦
Ġ èŀį
Ġ åį«
Ġ äºļ
Ġ è´º
Ġ éĤĵ
Ġ æ¼Ĥ
èģ ĭ
åĢ ļ
Ġ4 5
çŀ ª
ar t
Ch at
4 98
6 30
A G
w s
z h
Ġ æĪĸ
Ġ èµĽ
Ġ æĺĮ
Ġ çºł
Ġ éĴŁ
Ġ çĳŀ
çĿ «
çª ¨
19 76
25 9
26 3
70 1
85 7
an k
åļ ¼
N F
O p
Z X
ç µ
Ġ %
Ġ è´Ń
Ġ ä»·
Ġ åº·
Ġ åĬ³
Ġ æĮĤ
Ġ ãĢĳ
Ġ å²³
Ġ è°Ń
åĽ ļ
ä¹ ĸ
åĩ Ľ
å§ £
çĤ Ļ
10 50
èĭ ĩ
æ¥ «
000 1
28 7
40 2
Ġ0 5
80 2
33 00
5 12
5 11
9 50
G S
b o
Ġ J
Ġ è¶Ĭ
Ġ èĮ¶
Ġ èįĨ
æĶ ĺ
éª ĭ
19 77
çĩ İ
çĨ ¹
çĵ ®
33 7
38 5
PP T
XX X
çµ ®
- âĢľ
8 32
; &
C B
C ç½Ĺ
e x
Ġ åįł
Ġ çł´
Ġ éĤ¹
æĪ Ľ
æĿ ĸ
è½ ¶
è° Į
é£ ĵ
éĵ ¬
éĴ ³
28 3
27 1
27 2
27 4
35 6
35 9
Ġ5 3
45 6
36 9
34 4
åĹ ĵ
Ġt he
TC L
ĠI n
C F
D æīĵ
K W
e p
Ġ æĿĥ
Ġ é©»
Ġ éļĨ
åĬ Ī
ä½ ¤
éĹ º
åī ¿
éª ¼
éĤ ĥ
éĤ Ľ
å¨ ©
40 4
29 6
33 4
66 6
DN A
7 500
C M
Ġ åĽŃ
Ġ çº¦
Ġ éħį
Ġ è¶ħ
Ġ ç¨³
Ġ è®¿
Ġ å¼Ĥ
Ġ çĥŁ
Ġ ç§ģ
Ġ é²ģ
Ġ æŁ³
Ġ æ¾Ħ
æĸ §
åĨ ¤
æŁ Ħ
00 3
00 6
æļ ®
50 3
40 6
27 8
34 7
GD R
as h
do c
p m
r an
Ġ åı¸
Ġ é¡º
Ġ ä»ª
Ġ ä¼Ĭ
æŀ ŀ
ä¾ Ħ
æĻ Ķ
èĮ İ
éĶ °
éĶ Ń
é© Ń
æ½ º
å¨ £
28 9
40 7
** ,
45 9
èĽ Ľ
ce o
3 24
H TC
S Z
g s
Ġ Q
Ġ åĳĬ
Ġ åĨĽ
Ġ åı¬
Ġ åĩĮ
Ġ çĨĬ
ï¼ ľ
ï¼ Ŀ
æ° ª
æ° °
ç§ ĥ
èĢ ¸
éķ ī
åĵ ©
éħ °
éĴ Ĵ
èı ł
28 2
36 7
34 9
ib m
A QI
l i
w e
Ġ 202
Ġ æĺĵ
Ġ æĻ¯
Ġ åį¡
Ġ æ´ª
çļ ±
ãĢĤ [
åĴ ļ
æŃ ¹
è¾ Ļ
åŀ Ľ
æ¼ ±
èľ Ĺ
DI Y
cp i
6 20
D B
J L
t h
u d
Ġ ä¿®
Ġ çŃĳ
Ġ åĽº
Ġ åĢŁ
Ġ èĴĭ
Ĭ å¨
æī Ĵ
éª ¥
40 9
60 4
èĴ ¿
åĥ »
29 3
80 1
35 7
Ġ5 1
38 6
ur e
48 8
46 5
IS O
Ĭå¨ ł
4 23
B C
B åĮº
s s
ã ĥ
Ġ è¯ķ
Ġ å¯Į
Ġ æ¾³
Ġ èħ¾
Ġ æ¸Ŀ
è¡ Ļ
çŃ Ĳ
è¾ Ħ
è¶ ´
å² Ĥ
çĹ Ĵ
æ¥ Ĥ
Ġ0 4
Ġ4 8
37 00
Op en
A E
I V
S UV
p x
Ġ =
Ġ @
Ġ å¯¼
Ġ çī¢
Ġ ç§Ł
Ġ æµı
ãĢĤ )
çĲ Ľ
å¿ ±
çľ ¶
æ¡ ¢
èį »
éª ħ
éª Ľ
è¥ Ł
çı º
å³ Ĵ
26 2
34 00
3 100
3 22
6 10
9 90
G MP
b b
c l
ç į
Ġ æ¯ķ
éĢ ħ
çĲ µ
éĥ §
ï¼ī +
ç¬ ¨
éĤ Ĥ
19 50
æĲ ĵ
26 1
Ġ4 4
è¹ Ń
CA R
en d
or n
4 15
5 34
6 70
M V
c d
k v
å ¶
Ġ è¾¾
Ġ ä»ĺ
Ġ èĪª
Ġ å®Ĺ
Ġ ç£ĭ
Ġ æ´Ľ
Ġ ä¹Ļ
Ġ éĤµ
åķ °
åŀ ¢
10 10
28 1
40 8
çħ ½
å© ķ
45 5
58 3
æ§ ¿
iv o
ãĥ »
0 20
3 14
5 32
7 80
9 11
A åĮº
B N
M ag
j ian
Ġ é½Ĳ
Ġ åĩĿ
Ġ in
Ġ éĻ¶
Ġ å§ľ
æĬ ī
æĺ §
å¯ Ŀ
20 80
ä¾ į
ãĢĭ ;
è¢ ±
èĪ ħ
é© ¯
é¹ Ĭ
45 8
36 3
çĴ ĩ
èŁ ł
Ġc al
SD GP
0 23
6 60
D çº§
O PP
] (
c y
Ġ å¸ĥ
Ġ éĻį
Ġ å®Ŀ
Ġ ä»Ģ
Ġ è¿Ķ
è´ »
æĪ į
æİ ł
åĵ ĩ
çŁ ¸
çŁ Ĺ
ç² ĳ
èĮ ī
åĶ ¿
éĤ ¬
çı ı
27 3
ç¿ Ĭ
Ġ4 9
èĹ ©
34 1
99 8
od el
4 38
N at
i P
Ġ è¯¾
Ġ www
Ġ é»Ķ
Ġ st
ç¨ ŀ
æ¶ ŀ
ç¥ Ľ
çı ŀ
19 56
19 62
æ¦ §
åĺ ĺ
âĢĻ ,
Ġ0 6
29 2
80 3
37 2
38 9
59 7
ï½ ľ
9 60
E æĭĽ
G X
H B
Q C
c on
d æīĵ
o ur
Ġ ä»¶
Ġ æĬ¤
Ġ æł¡
Ġ åĪĩ
Ġ å±ŀ
Ġ èī¯
Ġ ç«ł
Ġ æĸ¯
Ġ å±¥
Ġ è¾Ĩ
Ġ ç½ļ
Ġ å´Ķ
æ± ŀ
è° §
çĤ ½
çĤ Ĭ
æ· ŀ
ç¦ §
éĤ Ĺ
25 1
ç£ º
29 00
35 3
37 4
34 2
è¹ ´
ic e
çĢ Ľ
è¤ ļ
OPP O
% âĢĶ
4 28
B IM
H C
H N
n ba
s d
Ġ çº§
Ġ å§ĭ
Ġ æ¥¼
Ġ èĦ±
Ġ åĥı
Ġ éĺħ
ï¼ ½
ï¼ ŀ
ä¼ º
æĮ Ł
ç³ Ļ
æ· Ĩ
éĵ İ
çı ĳ
å³ Ń
45 1
90 2
39 4
46 00
98 5
47 2
ç° ¸
% )
4 17
5 18
5 300
5 99
8 60
E PC
M L
O L
a çº§
f u
k W
o b
Â ³
Ġ åĮĸ
Ġ å¹¶
Ġ æĥ³
Ġ åħĭ
Ġ æ±ĩ
Ġ è´¾
ï¼ »
çº ¶
éĿ ´
è° ²
çĤ ¯
çĦ ±
éĴ ¨
çĹ ª
50 4
50 7
on g
ç¿ ¡
è¸ µ
90 9
38 1
38 4
39 1
39 3
çŀ ¿
èĨ º
un d
0 11
0 70
4 48
5 75
C L
E N
b p
r u
Ġ U
Ġ ä¼Ĺ
Ġ å¸¦
Ġ æĢĿ
Ġ æĭħ
Ġ æŁĲ
Ġ æ±ī
Ġ å¤ľ
Ġ 75
ç» Ĭ
ä¼ İ
ä¿ ¨
20 50
ç¨ Ķ
çķ Ī
ç¼ Ń
éª ģ
19 55
19 54
19 61
é² Ł
å´ ĥ
36 4
æĩ ¿
48 5
68 5
ç° §
" ï¼Į
8 70
M I
V S
Ġ å½¢
Ġ åĬŁ
Ġ è´¯
Ġ èĬ±
Ġ éĢĢ
Ġ åıĪ
Ġ æĹ¢
Ġ å¨ģ
Ġ å°¹
çº «
å¾ Ĭ
çĿ ģ
202 8
æģ ¬
éĵ £
éĶ Ħ
å£ ĳ
åĶ ł
çĭ Ħ
35 2
37 6
48 00
39 6
46 6
47 9
åĹ Ĵ
iv e
5 15
A ED
C OP
H W
L A
M C
R E
e st
f f
s a
¬ å¦Ĥ
Ġ æĢ§
Ġ åıĸ
Ġ å¤±
Ġ å²Ĺ
Ġ æĬĹ
Ġ æ»¨
Ġ and
åĨ ¥
åŃ °
èĤ ½
ãĢĭ )
æ¶ ĵ
æº ħ
è¢ ħ
çĮ ¿
çĮ Ĺ
çĭ Ļ
40 3
68 1
AI GC
al l
II I
7 65
: ãĢĬ
A D
a x
Ġ çºª
Ġ åı²
Ġ è·¨
Ġ å°ļ
Ġ æĲº
ĺ å¾Ĭ
å¸ §
çĽ Ĥ
æĢ ľ
çİ ¥
æĭ Ļ
æ¯ ĭ
çĸ ®
éħ £
æ» ĺ
è£ ĺ
19 38
ç¿ ±
80 5
80 9
é²ģ H
44 7
56 00
77 7
cc tv
un t
cz t
) âĢĿ
/ [
4 12
5 35
F J
G E
G O
T H
Z H
d e
e è´·
m v
p er
Ġ å¹²
Ġ æķĳ
Ġ æ±½
Ġ æĺŁ
Ġ ãĢĶ
Ġ åĭĩ
Ġ æ±ł
Ġ å§ĵ
Ġ çıł
Ġ ä¾¯
ä½ ¬
âĢĿ ;
å¯ °
é¢ Į
éĥ ľ
é£ ļ
çĪ ¹
çª ĺ
æ¥ ¹
æ¿ ī
åĻ ¬
60 8
80 6
çĳ ļ
å´ Ĩ
34 3
44 4
IP v
pd f
B è¯ģ
C o
S åºĹ
i k
n er
Ġ ç»Ĩ
Ġ ç´¢
Ġ éĽ¨
Ġ æĻļ
Ġ èĴĻ
Ġ çĪ¶
å¯ ŀ
åİ ¥
æ± ¨
æŀ ī
èį ¤
çı Ģ
ç¢ Ł
æĵ ŀ
åĺ ¹
éŃ ħ
èĽ ¾
39 7
in k
47 8
Ġâĳ ¥
4 46
6 40
? âĢĿ
H èĤ¡
S O
d na
l t
x t
è ¤Ĳ
Ġ k
Ġ æ²»
Ġ æ±Ĥ
Ġ éĥ½
Ġ è¯»
Ġ èį£
Ġ åŃ©
Ġ 95
Ġ æĪ´
Ġ æ¡ĵ
Ĵ å¤´
âĢ »
æī ¼
ç§ ½
ç½ ¹
è¶ ¸
éĶ ¥
è¢ ľ
èİ Ĵ
çª į
é¥ µ
70 6
33 2
37 1
47 6
è¹ ļ
id e
tv b
4 14
5 13
6 98
7 25
8 80
D H
Ġ O
Ġ åĨµ
Ġ çĽĬ
Ġ çģ«
Ġ æłĳ
Ġ æ·®
Ġ æ³¸
çĲ ®
çĤ ĸ
éĽ ³
èĬ Ĺ
19 58
60 7
é¹ ¦
70 3
45 7
90 7
48 1
48 6
éĦ ¢
ip o
/ /
4 18
4 36
5 46
6 68
7 10
7 37
9 15
F OF
G J
G Z
H K
R I
T E
T S
U çĽĺ
h one
i ph
j y
v ivo
¯ èļ
Ġ e
Ġ åºĨ
Ġ æī©
Ġ è¿İ
Ġ éĽĦ
Ġ ä¸¹
Ġ 96
Ġ å»ĸ
çļĦ B
åĲ ¼
çĽ ±
å° ī
åŃ ¢
åĿ ·
åŀ Į
èİ ½
çĭ ©
èĹ ¿
é¹ ī
45 2
90 1
37 3
99 3
Ġ7 00
55 5
49 6
¯èļ ĵ
3 31
4 19
6 25
N O
W TO
s p
v s
v er
Ġ é¢ĺ
Ġ ç¤º
Ġ åĪ«
Ġ èīº
Ġ çīĪ
Ġ çīĽ
Ġ å´ĩ
Ġ éĺ´
Ġ åħģ
åį ¯
éĺ ĸ
ï¼ī /
å§ Ĺ
åĿ ¨
æ¯ Ļ
00 4
é£ Ĵ
æģ į
éľ ¹
åĭ ł
æĳ ¹
19 45
Ġ1 20
Ġ4 6
èĶ ¼
Ġ6 5
èĨ Ĭ
4 35
6 96
9 10
C BA
D IP
P H
T I
i st
y s
Ġ y
Ġ è¯¢
Ġ ï¼Ł
Ġ çŁŃ
Ġ äº®
Ġ ç¦ģ
Ġ æĿ¾
Ġ çĽĺ
Ġ é»ĺ
Ġ é¾ļ
åĲ ¡
ç» Ľ
åĨ ½
åŁ Ĥ
çĲ ¨
çľ ¸
éķ °
ç½ Ħ
æ¸ º
çŁ £
èĬ į
ç© ¹
åŀ ł
æĤ į
Ġ1 10
æ¥ ŀ
é² ¨
38 7
55 6
67 9
lo go
) /
4 300
5 78
6 99
6 48
6 65
9 80
H Y
] .
i z
l a
t o
Ġ å¿ħ
Ġ å¯Ĩ
Ġ è¿ľ
Ġ é£ŀ
Ġ å¸ģ
Ġ è·Ł
Ġ éĴ±
Ġ re
åį ŀ
çŃ ±
åŁ ĩ
ï¼ī (
èĲ ¦
æį Ĥ
19 37
19 57
19 52
å© µ
è¸ ŀ
38 2
çŀ §
66 7
çĴ Ł
ĊĠ ĠĊ
im f
ig ht
KW P
4 100
4 26
4 99
4 32
5 98
G æĻº
J S
M S
N C
c k
Ġ j
Ġ éĢģ
Ġ å¥ĸ
Ġ è¿½
Ġ èĪŀ
Ġ ç²¤
Ġ å¤¯
Ġ åŃŁ
ãĢģ [
ç» °
æĸ ¡
çĶ ¥
è§ ĳ
00 10
æį ħ
éľ ģ
è¢ Ĥ
ç¼ ľ
éĴ ľ
19 53
é² «
èĵ ¥
70 9
Ġ5 7
èľ ĩ
39 2
46 8
Ġ8 5
47 7
49 4
ĊĠ Ġ
0 12
4 27
8 500
L O
P N
W ind
c i
g w
Ġ ä¹ī
Ġ èĩ´
Ġ åºŁ
Ġ ç§ĭ
Ġ éĿĻ
Ġ æµ¦
Ġ æ¡Ĥ
Ġ éĤ±
ä¸º A
ç« º
æĭ ½
æŁ ĺ
éļ ½
ç¾ Ķ
19 48
19 47
ç£ ķ
Ġ4 3
48 3
46 3
98 8
49 1
57 3
58 9
5 100
6 55
6 78
7 60
B P
F W
I RO
O A
a ce
f ii
l an
q fii
Â ±
Ġ åľº
Ġ åİĭ
Ġ ç«¯
Ġ æĭ¥
Ġ 99
Ġ æ¹ĺ
Ġ æ½į
äº µ
åı ©
å¹ Į
éĩ ī
èµ ī
æİ Ĳ
èĩ §
æ´ ®
åĿ Ĥ
ç² ķ
èĳ ©
37 9
38 3
68 7
47 1
49 3
57 9
è¹ Ĭ
et a
Ġa c
IC U
0 30
4 11
4 13
4 16
4 90
5 25
5 26
7 11
9 55
S K
e e
± å¤´
Ġ åĬ¡
Ġ æł¼
Ġ åĩĨ
Ġ åįĬ
Ġ æľ¨
Ġ å²ģ
Ġ é¡¾
Ġ èµĶ
Ġ å·©
Ġ é»İ
Ġ æ²ª
Ġ èī¾
Ġ éĤ¢
Ģ åŃĲ
æī ī
åĴ ¯
æ³ ŀ
çĲ ¥
åĿ ³
éĴ µ
000 7
å³ ¦
80 8
Ġ5 8
Ġ6 6
48 4
48 7
46 2
46 7
68 3
47 4
110 1
en s
åĹ £
è¤ ¶
âĨ ĳ
4 24
5 19
5 28
7 30
A N
K TV
P ro
X J
h a
m in
t op
Ġ ç»Ļ
Ġ æĬ¢
Ġ çĽĲ
Ġ èĲ§
Ġ éĥĿ
è¯ ²
è¯ ı
éĢ į
æİ °
éĻ ²
ç¨ ·
éļ ĺ
ç² ³
åĢ ĺ
ç¥ ¯
éľ ĵ
åŀ Ń
çĮ ¥
50 9
100 2
60 9
éĨ ´
70 5
çĳ Ļ
45 4
in do
il y
110 2
é³ ħ
+ âĢľ
/ ï¼ī
5 36
8 20
8 18
9 12
A H
A n
H O
t he
Ġ Z
Ġ éĹ¨
Ġ çĦ¦
Ġ åĵª
Ġ åĩŃ
Ġ éĽħ
Ġ æĻĭ
Ġ å®ª
Ġ çºµ
Ġ èļĮ
Ĩ ä¸Ń
çļĦ C
å¤ Ļ
æł ī
å° ķ
çŃ ł
éľ ı
æĳ ŀ
19 59
åł ĥ
13 70
èħ ¥
èĴ Ĺ
44 2
44 00
57 7
Ġs an
mil e
" )
% (
5 16
5 90
C åº§
] /[
o h
v r
Ġ æŃ¥
Ġ åģĩ
Ġ åį±
Ġ åĸľ
Ġ æ²¿
Ġ åĨ°
Ġ éģµ
Ġ å¡«
Ġ æģĴ
Ġ ç»ĺ
Ġ æľµ
Ġ åĦĭ
ĩ è±Ĩ
åħ ĸ
ä½ ĥ
æĹ »
èĥ ³
èĲ ±
ç¡ ¼
çĸ ¡
èĬ ¥
éĵ µ
éĶ Ķ
12 50
12 34
19 21
19 35
åĺ Ł
70 8
46 9
55 2
ar k
ĠC h
Ġco l
CB D
4 22
7 15
8 30
G L
O R
S F
T F
b ank
s çļĦ
½ è°
Ġ r
Ġ ãĢĭ
Ġ æŀľ
Ġ åŀĭ
Ġ ç¥ŀ
Ġ åŃĹ
Ġ éĵ¾
Ġ éĢĲ
Ġ çĥĪ
Ġ æĭį
Ġ å¼ĺ
Ġ éº¦
Ġ 150
Ġ AI
Ī åĥ
è¿ ¥
åº ¶
æĢ ¯
éĥ «
æĭ ´
è¾ ķ
æ£ £
åŀ ¸
èŀ Ĥ
æĤ ĸ
çª Ĵ
é¥ ½
100 8
Ġ5 5
âĳ ¥
48 2
75 7
47 3
66 4
78 9
97 3
Ġs h
ou t
ec t
GW h
½è° ¤
Īåĥ ³
) ãĢĬ
0 19
4 33
4 37
6 45
6 37
7 90
8 99
8 39
; ï¼Į
A L
A l
A BA
G æĬĢ
M SCI
S aaS
d ing
m an
Â ²
Ġ x
Ġ è®®
Ġ å¢ĥ
Ġ ä½İ
Ġ å·Ŀ
Ġ ä¸½
Ġ ç²®
Ġ å·¦
Ġ åı³
Ġ æĬ½
Ġ ç¥Ŀ
Ġ è°ģ
ĺ èĽĽ
æĺ Ģ
ç® ķ
éĺ ª
çĶ¨ A
æĭ ·
çľ ¯
é« ¦
åĵ Ł
è· Ĩ
çĤ ķ
æ¶ ķ
çĸ ¤
çģ ı
çı Ī
19 40
èħ ĳ
é² Ī
å© ¿
Ġ[ ],
58 1
110 3
èŁ ĳ
ET C
DR G
0 35
3 29
6 13
6 90
9 65
B B
X Y
Y C
Z ä¸ĸ
e z
h er
p c
q d
s k
u e
Î ¼
Ġ éĺŁ
Ġ èįī
Ġ æĭĵ
Ġ æ£®
Ġ å®ĥ
Ġ å¹¸
Ġ çģµ
Ġ ç¯ĩ
Ġ æĲľ
Ġ ï¼ħ
Ĭ æĦĪ
ı æĤĶ
ľ å¾
âĢ ²
åĴ Ĵ
ä¸º C
æµ Ĵ
æ² ®
ï¼ī .
è· ª
æ¡ ģ
éĵ Ľ
èħ ®
çĵ ´
39 00
46 4
85 8
æ§ Ń
89 3
ï¼į [
Ġs z
ht c
AA A
AT A
AT M
TB M
ľå¾ ī
0 14
0 55
5 17
5 24
5 31
5 33
5 96
7 28
7 70
9 30
B O
H D
J C
R NA
S N
c a
e a
l s
m ent
s on
Ġ 201
Ġ æİ§
Ġ å°ĳ
Ġ å¥Ĺ
Ġ åĬª
Ġ åŃĶ
Ġ èĸĽ
Ġ æ³Ĺ
ĭ æ¯ģ
Ŀ çģ«
ï¼ Ĭ
åĲ Ĩ
ç» ħ
åĽ½ A
ç® į
éģ Ĳ
10 12
10 24
èĭ ´
19 46
ç¢ ĺ
æ¿ ¡
æ¦ Ī
åĺ Ģ
35 4
Ġ5 2
90 3
75 1
44 1
in t
49 7
88 8
çĺ ł
é³ ĸ
5 14
5 45
9 20
G åºĶ
N i
R A
W E
Ġ ä»½
Ġ åºĵ
Ġ è¯Ń
Ġ æļĤ
Ġ å¡Ķ
Ġ å°¤
Ġ æĬļ
Ġ èĬľ
Ġ çļĸ
ãĢĤ #
è® ·
åº ¹
åĨ Ĺ
æĮ İ
çĲ ī
æ± Ĭ
å§ Ĭ
è° ı
è° Ľ
00 8
00 9
æ¡ ī
çĸ Ļ
10 80
éĴ Ŀ
è£ ±
19 51
18 50
èĴ Į
çħ ¦
Ġ5 4
78 7
57 2
76 7
æĨ ĭ
åĹ ľ
ĠS t
US B
èł ¡
0 13
0 22
0 27
4 39
5 65
6 16
6 32
7 40
? ?
C ç±»
X C
h pv
m p
Ġ çŃĸ
Ġ åĸĦ
Ġ æķħ
Ġ æ¯į
Ġ æ½ľ
Ġ è¡¡
Ġ æıı
Ġ èİ«
Ġ èı²
Ġ ï¹
æ² Ķ
éķ ĵ
æį º
èĬ ª
æ¿ Ĥ
èı ĸ
Ġ6 3
68 6
Ġ8 8
57 1
56 4
çĺ ©
en ce
GP S
ig n
PA H
) -
) .
5 23
5 49
6 28
6 27
7 18
7 36
8 10
8 11
8 75
9 500
A ç»Ħ
T P
X M
Z L
f er
i x
n g
n i
u an
Ġ è´¹
Ġ æīĺ
Ġ æī¶
Ġ æ²¹
Ġ åĲĥ
Ġ ä¹ĺ
Ġ åĿĲ
Ġ ma
Ġ âĢ»
Ģ å±±
ç§ Ń
çĲ °
å¾ ķ
æĥ ¦
æº ¥
ç¼ İ
èİ ¨
è£ ³
19 20
19 27
æ¿ ¯
é¹ «
99 6
çŀ Ń
46 1
78 6
åļ ı
IM G
ME GA
ZF CG
Ġï¹ ¨
% /
) ï¼ī
* .
0 40
0 21
4 29
5 22
5 27
6 26
6 22
C MA
D F
P G
U N
e g
e i
m o
p o
y n
z cy
é ı
Ġ äºĨ
Ġ åĬĽ
Ġ éĢł
Ġ ç»Ń
Ġ åı£
Ġ å®¹
Ġ æ¼
Ġ æµĭ
Ġ åºŃ
Ġ çķĻ
Ġ ç¼©
Ġ æĢİ
ä¸ ŀ
è¿ ¦
åĵ ½
åĿ Ń
åľº B
çĸ ļ
éĵ ł
çĻ «
çĻ ĸ
æĴ ®
æĴ ĩ
çĭ ¸
åĻ ©
000 5
æĵ Ĵ
å´ ½
Ġ6 1
99 1
99 5
75 5
55 4
98 1
98 2
98 9
68 9
85 1
58 7
88 7
al k
le ge
IM T
ap ec
pl ap
6 24
7 96
8 25
8 40
8 35
8 90
9 66
E F
G T
I A
J T
M B
S P
S h
] âĢĿ
o y
r as
u st
Ġ æŀģ
Ġ ä¹°
Ġ éħĴ
Ġ å»ī
Ġ èĳĹ
Ġ æłı
Ġ éĶ¦
Ġ æ®·
Ġ èĳĽ
Ļ è°Ĳ
ł éĤĳ
äº ĺ
åı ¨
åĩ ĩ
èµ Ł
çĲ Ĭ
çľ Ļ
çł ¾
å£ ķ
æ¢ Ĩ
11 50
çĬ Ĭ
çĮ Ŀ
19 30
åĻ ¶
13 10
80 4
èľ ±
48 9
55 3
çĴ ľ
57 6
88 4
æ§ ĥ
il l
ï½ŀ -
co l
at a
ic al
CP U
PA C
od s
èł ¢
0 26
0 45
4 31
4 34
5 200
6 23
7 68
A U
H U
N BA
c ba
² ç¾İ
Ġ åŃĲ
Ġ åĪĴ
Ġ å¾ĭ
Ġ ç§»
Ġ å®ĺ
Ġ åªĴ
Ġ åĨĻ
Ġ æ³¢
Ġ çķħ
Ġ èĤĩ
Ġ éĹ«
åĳ Ľ
æ³ ±
æ¯ Ĥ
ç¬ Ĩ
èĮ ı
éª ķ
é© ¹
èĭ ĵ
12 80
èĳ ĳ
ç¢ £
Ġ2 20
Ġ2 12
13 50
éĨ ļ
70 7
55 1
65 6
65 9
68 4
49 00
58 00
67 2
67 7
re n
79 2
pp p
ar ch
es s
lo b
lo g
im e
if i
CN AS
" ;
- [
0 18
0 50
0 102
4 21
5 21
6 29
6 76
6 41
7 98
7 47
9 16
9 17
9 23
C CTV
D C
D ç±»
G çļĦ
G éĢļ
I E
Z Y
a we
c s
g b
l d
n m
w h
Ġ åĪĹ
Ġ æĺ¾
Ġ å¸®
Ġ çģ¾
Ġ åŃ£
Ġ âĢĺ
Ġ åŀĥ
Ġ 98
Ġ æįĲ
Ġ å¥ī
Ġ is
çļĦ M
åĲ ±
åľ ª
åĽ §
å± ģ
åĨ ¼
æ° ¦
éĹ ±
éĥ ¢
éĥ ¯
å¥ Ĥ
éķ Ĥ
åĵ Ķ
èĪ ¸
éª ĩ
é© ¸
èĳ º
16 88
æ¦ Ń
Ġ4 00
è¸ Ŀ
Ġ5 9
Ġ6 2
âĳ ´
75 6
èĨ ¦
65 3
68 2
éĦ ¯
it e
at t
ar m
ce p
ol d
PC R
ac t
CR M
pa es
gs xt
0 15
0 25
5 66
5 42
6 15
7 75
8 16
8 37
8 98
A r
B è¶ħ
F G
G äº§
H z
L D
M T
P ET
T J
ï ¸
Ġ *
Ġ å¸Ī
Ġ è¶³
Ġ æ¥ļ
Ġ æ±¤
Ġ èģĤ
æľ ¦
ç» ¢
åŃ ³
çŃ ı
èĤ Ľ
ç³ ľ
éĶ Ł
æ¨ µ
èĦ ĵ
19 29
ç¢ Ľ
èı ©
æ¦ »
é¸ ł
åĺ »
åĺ ¿
22 50
ç£ ¬
ç¿ İ
70 2
55 7
65 7
95 1
56 7
or d
CN N
CR S
ide o
0 17
6 21
7 26
8 46
K V
P L
R F
R S
S Y
b m
e éĩĩ
h m
t i
Ġ ç®Ĺ
Ġ äº²
Ġ å¯»
Ġ åĩ¤
Ġ æıŃ
Ġ è¾Ľ
Ġ è¸ı
Ġ èµ«
Ġ æ¨Ĭ
ãĢģ -
è¿ ¤
å¼ ©
å¯ ®
åĩ Ħ
éĺ Ļ
èĥ §
ç½ ¡
å§ Ŀ
å² ĸ
èĭ ŀ
éĴ İ
æļ §
19 39
èĻ ¢
é¸ ¾
70 4
èľ »
èľ ĵ
55 8
49 2
éŀ ĺ
è¤ ¥
ĠR e
ac k
av id
éı ĸ
ï¸ °
% +
% âĢ¦
, (
0 16
0 60
5 44
5 43
6 12
6 19
6 35
8 34
D K
F P
N e
P QC
T he
] ;
d i
w an
Ġ åįĩ
Ġ èį¯
Ġ ç»Ī
Ġ è·µ
Ġ ä»ħ
Ġ åħ¸
Ġ é¤Ĳ
Ġ åī§
Ġ æŃĮ
Ġ ç©¿
Ġ æ³ī
Ġ ç¾Ĭ
Ġ çĩķ
Ġ ç»µ
Ġ åŃĿ
Ġ åĤħ
Ġ æ·Ħ
Ġ éĥ´
Ġ åĮ¿
ï¼ Ĥ
çļĦ T
åĬ ¾
ãĢģ (
ç» ¯
è¿ ©
åº ĸ
æİ £
æ³ ®
ç® Ĳ
æ± ©
æ± ´
ç½ Ķ
æ£ º
ç¥ ļ
èĪ ·
èĭ ľ
çĥ ľ
11 20
11 10
19 34
19 32
19 41
æĲ Ģ
000 3
14 50
å³ ģ
Ġ3 10
é¸ ³
er v
éº ĭ
Ġ5 6
ãĢĳ :
æĩ µ
65 2
65 8
05 1
66 2
96 7
59 00
97 2
re me
Ġâĳ ¦
mm un
); (
CO D
/ ãİ¡
0 37
5 38
5 48
6 36
7 14
7 16
7 66
A çļĦ
E L
F F
L E
P I
V IP
Z J
Z Z
e at
g ç½ĳ
h k
o re
r on
Ï Ĩ
Ġ åº¦
Ġ æºĲ
Ġ å¤´
Ġ ä¾¿
Ġ è´·
Ġ éŁ³
Ġ éĢĴ
Ġ æ´¥
Ġ æĹĹ
Ġ åİļ
Ġ æī£
Ġ åĢ¡
Ġ æ¼«
Ġ ch
Ġ ç©Ĩ
Ġ æĬĦ
Ġ åĢª
į ä¸º
å¤ Ķ
åĽ ±
æĹ ¸
æĹ ĸ
è¯ £
èµ Ĭ
æİ ĩ
æµ Ī
éķ Ĳ
åĵ ¼
åĵ ī
è° ļ
ç¬ Ļ
åķ ¶
ç¥ ·
èį ļ
10 20
å² «
æ¹ į
æ¢ ĥ
é¾ ĺ
19 44
19 42
19 43
ç¢ ī
æ¿ ł
13 20
èı ¡
é² ¢
çħ ¨
ç¯ ĵ
80 7
90 8
75 4
95 8
47 00
66 1
85 6
78 2
58 2
58 8
59 1
76 1
76 00
88 6
67 3
86 9
gp s
EC MO
is h
>> >
Ġf or
ub e
EM S
con t
) "
5 68
6 34
6 47
7 200
7 21
8 36
9 76
D U
G F
G N
H J
K M
R M
S J
S V
U P
a st
c r
d r
f t
i ch
j s
l us
n at
n et
p ort
u c
y st
Ġ æĴŃ
Ġ è¯ļ
Ġ å¦ĩ
Ġ æĭĨ
Ġ æķ¬
Ġ åľĨ
Ġ éº»
Ġ åįĵ
Ġ åºŀ
çļĦ F
ä½ Ĺ
å¼ ¼
è¯ Ł
åĨ ¢
åĳ ¦
éĹ ¾
å» ¿
æĥ °
æ¯ ¡
00 17
è¶ ¾
éģĵ S
éĵ ¨
12 10
12 30
çĹ «
11 30
é¥ ¹
000 9
æľĽ U
90 5
75 3
75 9
98 00
95 3
95 7
in s
78 00
57 00
59 3
120 8
79 3
èĿ Ĺ
çļĸ C
âħ ¤
doc x
" (
0 24
0 38
5 400
6 33
6 300
8 67
B L
B U
D O
D Z
G çŃī
K B
M BA
N K
O D
O TA
S OP
S up
Y Y
a il
b c
b ur
p H
r cep
s o
° åİ¿
Ġ è£ħ
Ġ æĿĲ
Ġ ä¼į
Ġ éĽª
Ġ åĩĢ
Ġ å®¿
Ġ æħ°
Ġ al
Ġ se
Ġ è¡¢
Ġ ç¥ģ
çļĦ A
âĢ ĵ
ç» «
ä¼ «
è´ ±
æĹ İ
å± ī
æĺ ¶
æĢ Ĥ
åİ ®
å¥ ļ
éĺ Ĥ
çľ ©
è° ¬
éģ ģ
èį ŀ
çĦ ĺ
é» ¯
000 2
16 50
100 4
100 6
on d
èĹ ĵ
90 6
å« £
å« ĸ
95 9
in i
96 00
Ġ9 1
76 9
è¹ ¬
or k
ç° ĭ
un g
ro m
es g
ol og
MP V
pa ce
pv c
bb c
bp s
NC CA
! "
% ï½ŀ
0 36
5 47
7 24
7 31
7 39
7 97
8 42
: //
H R
J Y
M D
O T
P K
X R
a u
f i
g r
h y
k ey
n ov
q ing
s i
t t
w ifi
z f
¤ æ°
Ġ ç»ĩ
Ġ è¾ĥ
Ġ å¾Ģ
Ġ æ´¾
Ġ éĽ¶
Ġ ç´¯
Ġ ä¼Ł
Ġ æī¾
Ġ æļĸ
Ġ ç¿»
Ġ åĭĺ
Ġ ç´«
Ġ åŁĥ
Ġ èĴ²
æĪ Ĭ
âĢľ +
é¢ Ĭ
éĥ ı
éĺ ĳ
èĩ Ģ
ç½ Ĥ
è½ «
åĵ İ
ç¾ ¹
æĻ ¦
éĵ Ħ
çº¿ K
10 16
10 26
å² Ļ
èĭ ·
éĴ ¼
12 60
19 36
èĻ Ķ
åł ķ
åĻ »
14 80
17 50
22 10
21 30
å© ¶
99 99
95 6
44 9
66 9
78 8
56 3
76 2
86 4
89 2
CA SS
en g
ML F
qd da
¤æ° ²
) ÃĹ
, ,
5 29
5 85
6 11
6 75
7 85
8 85
9 40
9 34
F M
J H
R o
Y ç±»
e é¾Ļ
g a
t d
¨ æ¸¸
Ġ æ¨¡
Ġ éļ¾
Ġ æ®µ
Ġ ç¼´
Ġ èĪ¹
Ġ å°¼
Ġ åĩ½
Ġ æ¨ª
Ġ çĲ¼
Ġ ãİ¡
Ġ éĶļ
ĭ æĥľ
âĢ ³
çĶ º
éĻ ī
é¢ ĵ
åŁ ķ
å¿ ¡
èĢ Ĩ
æŀ Ń
è½ ²
è¾ Ĭ
ï¼ļ -
åī ĥ
æĦ £
ç³ ł
ç¥ İ
é¦ ı
æ® ī
åĶ Ĩ
12 70
11 12
æ¼ ī
çĮ ĸ
19 03
å¡ į
èĵ ¿
èĶ ĳ
Ġ6 8
âĳ ¦
èĽ °
Ġ7 9
65 4
59 4
77 9
PM I
or g
ĠS J
IT U
OC R
ab y
CO L
ER P
lt ra
5 37
6 400
7 22
8 21
9 24
9 26
9 48
? "
B J
C on
D L
H I
N T
Q F
X å°Ħ
Y H
a re
c ç½Ĺ
m s
n ing
Ġ ;
Ġ éĩı
Ġ å¯Ł
Ġ å®¤
Ġ äº«
Ġ æĤ£
Ġ åĲ¸
Ġ å³°
Ġ å°ģ
Ġ çªĹ
Ġ èĻļ
Ġ æ¦Ĥ
Ġ åĨ·
Ġ è¯¯
Ġ æĿ°
Ġ ä»ģ
Ġ ä¹³
Ġ åıĻ
Ġ âĢ¢
Ġ èİĨ
Ġ èĢ¿
Ŀ çłģ
ä¸ ķ
çļĦ V
æĬ ł
æĺ µ
æ° ĵ
æĮ Ľ
æĭ ®
æĥ ¶
é« Į
æ¸ ¥
è° Ł
çł ·
ç¡ ļ
åķ §
è¢ Ĵ
é¦ ĩ
åŀ ħ
10 60
çĥ ©
æĤ ¸
ç´ł E
14 02
æħ ľ
æĵ Ģ
é¸ ¯
29 50
çħ ŀ
45 3
75 2
05 3
85 4
78 4
56 9
PP I
86 00
89 1
79 1
79 4
åĹ ª
ar a
MA X
as s
ion s
lo v
ou l
0 28
6 38
7 33
7 99
7 46
8 14
8 38
8 68
9 70
9 38
9 68
C åĮº
E B
G MV
I çº§
M G
M eta
P O
S t
S PAC
V E
e w
k w
l in
t on
t pp
Ġ åĤ¨
Ġ on
Ġ ï¼İ
Ġ é¢ģ
Ġ èĪĴ
Ġ çķľ
Ġ èĮĤ
Ġ éĦĤ
Ġ éľį
Ġ éŁ¶
Ġ æ¾İ
äº ³
æĶ ¥
éĢ ŀ
ä¿ ³
æİ ¬
åĳ Ĺ
åĳ ľ
æµ £
20 60
ï¼ī ;
ä¾ ¬
æŁ ŀ
éļ į
ç¡ Ĳ
æ¶ ®
æ¶ İ
æĽ Ī
æģ Ļ
åĢ Ń
éª Ĭ
çĦ ¯
èŀ Ł
çª ł
11 99
æ¼ ©
èĦ į
é¾ Ľ
14 01
çĵ ¢
çħ ²
é¹ ®
é¹ ³
Ġ6 9
75 8
55 9
57 4
88 00
97 4
87 1
87 00
69 3
Ġâĳ µ
co s
åĹ ¡
âī §
ic s
Ġt ag
ht ml
IM F
å¬ Ĺ
PV C
ĠN O
RE IT
mv p
% ÃĹ
0 39
0 32
0 44
6 46
8 15
8 48
9 36
9 43
A K
A ir
B I
B åŀĭ
C Z
D åº§
E ç±»
F DA
L CD
N I
N V
S X
W H
Y L
b id
n o
o x
p e
p r
t s
u g
v ip
z a
Ġ èĤ²
Ġ éĻ¢
Ġ çıŃ
Ġ æ±¡
Ġ æľĽ
Ġ æ¤į
Ġ ä»¤
Ġ èĭĹ
Ġ çĩĥ
Ġ è°ĭ
Ġ èĢķ
Ġ æ¢¦
Ġ å©ļ
Ġ æĳ©
Ġ æ¯«
Ġ è´Ŀ
Ġ åĩ¯
Ġ èİ±
Ġ çĭł
Ġ ç¢§
Ġ æĵ¦
Ġ çī¡
Ġ âī¤
į éĵĦ
ĳ æ±ł
äº ĵ
çļ Ļ
çļĦ D
æķ ķ
åĴ §
åĩ ¼
åĩ ĭ
æİ ¼
çŃ ļ
èĢ Ĵ
ç½ ĺ
ç¬ º
æį »
éģĵ G
æº ´
éĵ Ģ
é¦ Ĺ
éħ Ĳ
10 19
10 17
çĹ ī
çĬ ·
é¾ ĭ
19 28
19 26
é¥ ķ
000 6
Ġ6 7
Ġ8 2
Ġ8 00
66 3
éŀ £
78 1
96 1
67 4
67 00
æ§ Į
æ© ĩ
at er
or y
ic ro
BA NK
é¬ ĥ
DN O
om p
èĺ ¸
ml f
ON E
TE U
% =
0 31
6 39
7 23
8 13
8 29
8 65
8 47
8 66
9 29
B ç»Ħ
C X
C æłĭ
G ä¿¡
H T
K E
a e
c do
e ch
f or
h u
i ma
w ard
¢ åĳĲ
Ġ çħ§
Ġ åįĪ
Ġ å½Ĵ
Ġ æŃ»
Ġ æļ´
Ġ åľ£
Ġ æķ¦
Ġ èģĬ
Ġ çİĽ
Ġ ä¹Ķ
Ġ åĸĢ
Ġ éĻĩ
Ġ ä¿ŀ
ï¼ ĥ
çļ ¿
åĮ ķ
åĽ ¿
åŃ º
ä¸º G
æµ Ĳ
å½ Ĺ
æĭ Ī
æĥ ®
ç³ į
ç¡ ĸ
éĶ ı
çĻ £
é¦ ¥
èį ª
10 21
åĶ ı
12 12
æĴ ©
çı ħ
çı Ĳ
æļ Ħ
19 22
19 31
14 40
èı ħ
100 3
100 7
åĺ Ī
ç£ ´
er n
on y
å© ª
ber t
99 00
âĳ µ
Ġ7 1
65 1
68 00
in gt
96 4
96 9
04 2
56 2
97 1
86 3
87 4
77 1
77 2
Ġâĳ ¶
åĹ ²
ĠC o
112 2
xx x
AR T
AB CG
AE O
MC U
% ),
' ,
0 33
5 95
6 14
6 31
7 29
8 19
8 200
8 78
; âĢľ
A t
B S
F A
G G
J M
L Y
M R
S em
T R
T h
T æģ¤
W T
b l
b r
f ace
g çļĦ
i çļĦ
k a
n s
p ro
t f
u cc
¾ åŁİ
Ġ éªĮ
Ġ éĶĢ
Ġ çĲĥ
Ġ åİħ
Ġ å¾ħ
Ġ ç»į
Ġ è´´
Ġ åĭ¤
Ġ åĭŁ
Ġ è·Ŀ
Ġ é¡¶
Ġ åĶ±
Ġ å¡ĳ
Ġ çĮª
Ġ æģ©
Ġ çĽĪ
Ġ æĭľ
Ġ æŁ´
Ġ ç§ī
Ġ ï¼į
Ġ ro
Ġ le
Ġ èĻŀ
Ġ âĨĳ
çļĦ R
ä½ ļ
åĲ Ŀ
æĸ Ł
éĻ ¨
éĺ Ī
èĩ Ĩ
èĥ ±
æĥ º
åģ ķ
æ¯ ½
èī ®
åķ ª
æ· Ŀ
æº ±
çķ ¿
ç¼ «
10 92
æ» ¢
15 07
Ġ1 80
çĭ ¡
Ġ2 16
14 30
ç£ ²
ç¿ Į
ur al
æĩ ĭ
çŀ İ
66 00
85 9
04 1
88 1
88 2
86 1
77 3
77 4
an ce
åĹ ¯
é³ į
é³ Ļ
ç° ª
è¤ Ĥ
is s
AP I
MA RT
SC F
ot o
TA s
mar t
bo ok
çį Ĳ
LO GO
" ãĢģ
" ([
/ ï¼Ī
0 29
5 39
7 19
7 13
7 35
7 38
7 32
8 26
8 33
8 76
9 200
9 37
; ãĢĬ
B ç«Ļ
C ç«¯
D M
G åħ¨
H A
J X
P aaS
Q Y
S AP
T ç»Ĩ
T PP
W eb
X B
b en
d d
h èĤ¡
k e
o o
p g
r s
t ra
Ġ ç©¶
Ġ æĢ¥
Ġ åıĭ
Ġ å·®
Ġ å£®
Ġ å®ı
Ġ å¡ŀ
Ġ åĩī
Ġ èį·
Ġ é¹¿
Ġ å½¼
Ġ æŁ¯
Ġ æ¢§
Ġ å¨Ħ
Ġ éªĨ
Ġ è©¹
Ġ éĹµ
ģ åŁİ
Į å¹³
ľ æĿİ
ł ä¸į
çļ ĳ
åı ½
æľ Ĳ
ä» ¡
è¿ ¢
å± İ
æĪ ®
æĪ Ł
åĴ «
èµ ĺ
çĲ ı
20 40
æ² ļ
éĺ Ĭ
æ´ µ
ï¼ļ $
00 24
æ¡ ħ
ä¸ĩ m
çĸ ±
ç± ģ
é¦ ĭ
é¦ ķ
ç¼ °
éª ¡
éª ŀ
æĤ ¯
12 20
11 13
çı ²
19 33
Ġ1 36
Ġ2 21
ï¼Ł (
13 60
èĸ °
å´ §
90 4
Ġ6 4
èľ ¥
âĳ §
Ġ7 2
çŀ ħ
98 6
85 3
04 3
59 2
97 7
97 9
87 2
re g
re al
69 1
69 2
69 4
it h
è±« A
ar b
900 1
DR T
å¬ Ľ
AG V
GS K
ran s
cl n
çį Ĺ
FP GA
' s
) âĢĶ
+ âĢĻ
0 99
0 48
0 47
6 95
7 17
7 45
7 95
8 23
8 27
8 55
8 49
8 43
8 41
9 18
9 32
; ï¼Ī
A F
B E
C çļĦ
D E
D ç»ı
L C
R C
R e
T Z
X çº¿
a ch
b t
c g
e an
l ine
m i
m çļĦ
n ä¸º
p re
p ol
r ic
t æģ¤
y a
Â ¤
ã Ī
Ġ æŃ¢
Ġ èģĺ
Ġ éģĹ
Ġ æį¢
Ġ è£ģ
Ġ äº©
Ġ è¾ĸ
Ġ ç¼º
Ġ åºĦ
Ġ ç¤¼
Ġ ç®±
Ġ ç¹ģ
Ġ çº½
Ġ è¿Ī
Ġ åĪ·
Ġ å¯Ĵ
Ġ è±ª
Ġ éŁ¦
Ġ çŀĦ
Ġ æĢĴ
Ġ æ¶ª
Ġ ï¼ĳ
Ġ è¦ĥ
Į å¤§
Ĳ å¿
Ĺ éħĴ
Ĺ ç£²
ä¸ Ĳ
ï¼Į *
çļĦ f
çļĦ m
æľ Ń
è¿ Ĥ
è´ ²
æł İ
å¤§ V
é¢ Ģ
é¢ ī
éĹ °
å¾ Ĥ
æµ ł
æŀ ·
åī ģ
è° Ļ
00 23
00 28
00 26
çł °
æ¶ ¸
æ¶ ł
æĽ ľ
æģ ¿
éĵ ¢
èį ĥ
èĪ «
10 70
10 65
10 47
10 58
10 73
æ» ¹
åĶ ¾
12 23
æļ ¹
é¾ Ī
19 19
14 08
18 05
çĨ µ
ç¿ Ģ
âĳ ¶
çŀ ³
98 3
Ġ8 6
06 7
Ġ9 2
çĺ Ģ
çĺ ģ
87 7
89 4
an o
an t
110 4
ĠD A
le y
ï¹ ¢
AR J
ĠE n
âĢ° ,
pl us
bm w
ail o
Ĳå¿ ĳ
# -
( âĢľ
0 104
1 123
6 49
7 300
8 100
8 28
8 95
8 400
9 45
9 75
9 39
9 44
9 78
B M
B æłĭ
C l
C ä½į
F i
F l
G Y
I EC
L H
L i
L è£ħ
M an
M DRT
N ä¸ª
P B
P T
S I
S oul
T op
U E
U åŀĭ
b et
m é«ĺ
n al
s z
x ls
¤ ®
¼ èħ
é ¤®
Ġ çŃ¹
Ġ å½©
Ġ éĩĬ
Ġ é²ľ
Ġ å·¨
Ġ å¼ĥ
Ġ é±¼
Ġ è°·
Ġ èĤº
Ġ ä»ĵ
Ġ ç¥¥
Ġ æ¡ĥ
Ġ éĶģ
Ġ æļĳ
Ġ åĲĲ
Ġ éĹ½
Ġ å´ĸ
Ġ èįĶ
Ġ ç¿ģ
Ġ éŀł
Ġ ãĪ
Ń åľĨ
Ń èĦĤ
åħ Ģ
çļĦ K
åĪ į
èĩ ¼
éķ ķ
æ´ Ħ
åķ ¼
æģ £
èĬ ĥ
ç¥ Ł
éľ Ń
èį ı
åŀ ļ
10 11
éĴ Ĺ
12 16
é» Ŀ
åĮħ A
11 60
11 37
çı ©
15 20
15 03
æĲ ª
Ġ2 93
ï¼Ł [
14 20
13 14
16 80
ÃĹ (
èĽ Ģ
Ġ7 6
95 2
è² Ĥ
05 7
58 4
79 00
Ġâĳ §
110 8
ch ez
en o
pp i
âī ¦
Ġ20 8
130 1
or ld
ĠC O
ï¹ Ĵ
ES I
IT ED
ot e
ab b
PA DN
pl ay
ud io
Î¼ g
Â¤ Â¤
¼èħ Ĩ
0 111
1 201
6 200
6 44
7 78
7 43
B H
D D
E X
G ä¸İ
K US
L P
L T
N o
O K
O LED
U NG
Z R
_ [
a w
a se
e am
h i
k n
k tv
n bs
o st
q i
v ie
y u
y out
z j
© éªĤ
Î ¦
é Ĭ
Ġ é¢Ŀ
Ġ åĿĩ
Ġ è¾¹
Ġ çīĩ
Ġ æĮ¯
Ġ é¢ĳ
Ġ èĹı
Ġ éĴ¢
Ġ éĤĢ
Ġ æĮĸ
Ġ åģı
Ġ èµŀ
Ġ éĴ¦
Ġ èµ¤
Ġ åĴ¸
Ġ çľī
Ġ åħ¹
Ġ æ¸Ń
Ġ çīŁ
Ġ æ»ķ
Ġ âĨĵ
ï¼Į (
çļĦ P
çļĦ g
è¯ §
åŁ Ń
ç® ´
éķ ĸ
è° ķ
çĤ Ķ
00 27
æį ¶
æĻ ģ
æ· ¦
æ· ł
åĪĽ A
æº Ĩ
ç± ¼
éĵ Ł
èĪ Ģ
é© ®
10 90
èĭ «
èĭ Ĵ
èĭ ķ
æ® Ĩ
åĸ µ
èİ ´
éĴ º
11 75
15 88
19 24
19 06
æĲ Ĥ
16 20
18 01
17 08
100 5
100 9
é¸ ®
el ab
çĳ Ħ
500 1
èľ ·
__ _
Ġ7 8
98 7
Ġ8 3
05 6
85 2
è¿ª Q
96 3
èķ Ļ
AI TO
ch o
at ch
130 2
é³ Ŀ
if e
TO D
ne o
da o
ly n
å¶ Ĥ
Sem i
nbs p
éĬ ®
# #
6 17
7 41
8 12
9 35
B eat
C J
E E
E K
G o
H L
J PG
L J
L ME
M ax
N åŀĭ
N NF
W S
W TH
W HO
Y E
a ma
f l
g y
i al
k en
m er
o ph
o led
o ice
q e
u i
z x
¨ åĩ»
Ġ q
Ġ æ¬¾
Ġ æīį
Ġ è´«
Ġ åĲ«
Ġ æ¡¥
Ġ æįŁ
Ġ è½»
Ġ ph
Ġ çŁ¿
Ġ å¹¼
Ġ èµĭ
Ġ è½¯
Ġ èĶ¬
Ġ ä¼¦
Ġ ä»²
Ġ è¿ª
Ġ èĻİ
Ġ è¯¸
Ġ åĨĢ
Ġ é¢ľ
Ġ èµĸ
Ġ åĸ·
Ġ éģĤ
Ġ æ¡Ĳ
Ġ æĤł
Ġ mm
Ġ am
Ġ QQ
ľ é±¼
ï¼Į -
å¹ ¡
è´ ĩ
å¯ Ĳ
ä¿ ª
ä¿ ¸
ä¸º K
ç® «
èĩ ¾
çĶ¨ W
ï¼ī [
ä¾ ı
èĥ ¤
èĥ «
åĵ Ĵ
çĤ ħ
ç¬ ł
å¿ĥ A
00 13
çŁ ¾
ç¥ Ĳ
å¦ ĵ
é¦ ģ
åŀ ©
åı· A
10 30
10 22
10 45
å² ¢
åĸ ĥ
åĶ §
12 25
12 55
11 80
11 70
15 12
15 60
19 12
19 05
19 01
Ġ1 85
æ½ ¦
è¶Ĭ l
ç´ł B
èħ ±
17 02
21 10
çħ Ĭ
èĶ »
Ġ5 33
99 2
ur t
æĩ Ĭ
èĽ İ
Ġ8 9
èļ ľ
èķ ĥ
58 6
è¹ ¿
67 1
87 9
89 00
an y
il e
en e
åĹ ĳ
ED A
230 5
Ġt o
ĠG RO
IC S
MP a
fc s
av e
SD G
IF I
zh ou
cd s
ob ol
An d
0 80
0 46
0 65
5 41
7 12
7 34
7 44
7 49
8 24
8 31
8 300
8 97
9 33
D åĮº
E x
H g
I AE
M e
S A
U n
W Z
Y J
[ (
a h
l l
m b
m ä¿Ŀ
o ung
s our
t c
t y
Ġ æ¿
Ġ è¨Ģ
Ġ çĶ»
Ġ èĥĮ
Ġ çħ¤
Ġ æµª
Ġ æħ¢
Ġ æķ¢
Ġ è¯į
Ġ æĳĺ
Ġ èĲ¨
Ġ èĸª
Ġ éªĳ
Ġ éĵ¸
Ġ åĲĬ
Ġ å³ª
Ġ ï¼Ĵ
Ġ LED
Ġ è£´
Ħ çĿĢ
Ĵ è·
ç» ¶
âĢĿ -
èµ ľ
åľ¨ S
æµ ¯
20 41
æ² Į
ï¼Ī -
çľ ¨
æ´ Ļ
éģ Ĵ
éĽ Ĵ
00 25
00 29
çĸ ĥ
åķ ī
åĢ Ķ
éĵ ĸ
éĶ ĳ
èĩ³ K
10 68
çĦ ĸ
éĤ Ŀ
11 15
11 36
11 33
11 55
15 50
19 18
000 4
000 8
13 40
13 75
17 40
è§Ĵ G
é¸ ¢
åĺ ¶
åĺ Į
ãĢĳ ,
99 7
Ġ7 3
èĨ ĺ
05 2
56 1
Ġ9 3
88 90
120 7
éĦ Ļ
åĨĢ E
èŁ ¾
le ar
ag e
ĠP RO
et f
æª Ŀ
PC B
kV A
ĠL IM
Ġp ro
å¶ Ŀ
GE F
SK U
QF II
Ĵè· ļ
( %
( Â¥
) +
6 398
7 42
7 76
8 17
8 22
8 96
9 27
B BC
C ç»Ħ
C ity
E O
F C
F S
G æīĭ
G IS
L o
S G
T æĹ¥
T ok
T reg
V A
V ç³»
V ç±»
W IFI
Y ou
Z E
a åįķ
a åº§
c el
f und
g x
g åŁº
g en
i u
o ok
p k
u x
z w
¦ çĦ¶
Ġ ~
Ġ å±Ĭ
Ġ è´¸
Ġ éļĲ
Ġ ä¼ĳ
Ġ è´¡
Ġ åħµ
Ġ æĵį
Ġ èĥľ
Ġ ç¢³
Ġ ãĢķ
Ġ æ´ĭ
Ġ æ¶¦
Ġ åĨ²
Ġ ä½³
Ġ æĭ¿
Ġ éĩİ
Ġ å®¾
Ġ æĬµ
Ġ æ²ī
Ġ æ´Ĺ
Ġ ä¿Ĺ
Ġ å¯¿
Ġ é¹ı
Ġ å®«
Ġ éŀį
Ġ èĬĴ
Ġ é²į
Ġ âĪ¶
ï¼ Ĩ
ï¼Į "
ãĢ Ĺ
çļ İ
è¿ ³
å¹ Ĥ
å¸ Ľ
éĢ ¯
âĢľ (
âĢĿ ?
åĴ İ
åĴĮ C
åĴĮ G
åĴĮ S
åĮº B
éĥ ĵ
éĺ ļ
ç½ į
åī ½
èĲ ĺ
00 30
æ¡ ¡
çł Ń
ç¥ ľ
éĵ ¤
è¢ Ħ
åŀ ¡
10 40
10 83
æ® ĥ
åĸ ³
è£ ¨
æĤ ļ
åĶ ģ
éĤ ¨
12 11
12 33
11 14
30 10
15 26
çĮ ©
19 10
19 16
19 02
ç¢ ¶
ç´ł C
ç´ł D
13 25
13 44
16 02
18 10
18 95
24 50
24 04
åĺ §
çĨ ¨
Ġ4 75
Ġ4 76
um an
ä½³ a
99 4
Ġ7 7
08 4
cn n
Ġ8 7
87 3
110 9
en n
ĠR S
AT P
ig h
ĠT he
AB C
AB S
ul l
ID C
mar k
Î¼ m
) ï¼Ī
0 116
0 803
3 150
6 42
7 27
7 284
9 22
9 21
9 41
A W
A æłĩ
A æĻ¯
A DI
B æľ¬
B æĺŁ
D P
D r
E NG
E ver
E lan
F R
F T
H X
H Z
M on
M ar
M ate
N N
O X
S Q
V TO
X T
Y S
Z W
c ul
d l
d v
e VTO
h eb
i es
j ing
j pg
m RNA
s m
w to
y ou
Ï Ģ
é İ
Ġ {
Ġ Â
Ġ åºĹ
Ġ éģĩ
Ġ çĸ¾
Ġ æ®ĭ
Ġ æ¡£
Ġ è¯º
Ġ åĲ¨
Ġ éģ¿
Ġ ä¹ħ
Ġ æ³½
Ġ è¯Ĺ
Ġ æĭĴ
Ġ go
Ġ é¸¡
Ġ æĭ¼
Ġ èĪį
Ġ å·§
Ġ èĳ¡
Ġ è¡·
Ġ èĭ¹
Ġ æ¹Ľ
Ġ æ»ģ
Ġ ç¶¦
Ġ å·«
Ġ ibm
Ħ åŁİ
Ĩ åĵ®
Ń æ¯
ï¼Į /
ãĢ ĸ
çļĦ G
æĶ «
éĩ Ĩ
æĺ Ļ
åĴĮ M
åľ¨ G
åĳ ¤
åĳ ±
ä¸º I
æ³ ł
ï¼Ī .
æĥ ļ
è¾ «
æ¶ Ķ
ç² ²
èĬ ¾
èĬ Ĭ
èĮ ±
éĵ ī
éĶ Ĺ
çķ ¦
ç¼ ¥
10 35
10 36
10 38
10 49
æ¨ ¨
12 26
11 11
11 47
11 63
çı Ļ
èĻ ¬
Ġ1 46
Ġ1 41
æ¥ ¸
æĲ Ĳ
Ġ2 29
14 68
14 03
13 12
24 05
Ġ3 65
æ¦ ·
æ¦ Ľ
23 50
28 10
er a
ç¯ ª
é¹ ¬
è¸ ¹
ÃĹ ,
èĽ Ĭ
Ġ7 4
09 4
09 7
Ġ8 1
06 4
è² Ķ
05 4
01 12
78 3
è¹ ĩ
re e
110 6
en p
or a
is mo
es p
MA C
Ġa i
OP O
åļ ·
fo x
ab le
PA N
ĠE x
MP O
AC L
av is
], [
IF A
RT S
AD C
TH E
KE Y
ech n
IAE A
éİ ı
Ńæ¯ ĳ
. ï¼Ī
0 34
0 103
0 114
2 150
9 144
A åľ°
B t
B ç«¯
B å¹¢
C U
C ä¸ī
D X
G åĴĮ
G åıĳ
H F
J K
J Z
M M
N M
N AT
Q S
S L
S U
W i
Y N
[ ï¼Ī
a f
a el
a in
b ç«¯
f a
g l
k ell
l ish
m d
m en
r am
v ol
w ind
y t
Ġ #
Ġ äº
Ġ éĩĮ
Ġ ç½®
Ġ å¨
Ġ çĮ®
Ġ ç«¥
Ġ é¥®
Ġ æĹ§
Ġ æģ¢
Ġ çĨŁ
Ġ éĹŃ
Ġ å½°
Ġ é¡µ
Ġ æķı
Ġ çĵ¦
Ġ æĻ¨
Ġ å¥Ķ
Ġ è±Ĩ
Ġ æĹº
Ġ å¯¨
Ġ ä»°
Ġ æĪĪ
Ġ æŁ¬
Ġ ...
Ġ ãĢĮ
Ġ end
Ħ é¥
İ æ¢
ï¼Į #
å¤ Ń
æĪ Į
åĴ Ļ
è§ Ĳ
æİ Ĥ
çİ ĳ
çİ Ł
æ³ ·
ç§ £
çĲ ¬
åĮº A
éĥ ¦
éĥ ħ
èĢ Ļ
20 48
çī į
å¥ Ħ
ï¼ī *
ï¼ī =
é« »
ï¼ļ "
ï¼ļ @
æį İ
çł »
çł Ł
çĿ ¬
çĸ ½
æ· Ļ
202 9
èĮ ¯
å¦ ¤
éĵ °
éª §
10 15
10 14
10 27
10 66
10 88
10 97
10 82
éĴ £
éĴ ¿
12 19
12 14
12 18
12 40
12 46
12 49
11 76
è± Į
30 60
èĦ ²
çĬ ĩ
15 40
15 80
15 01
19 25
19 23
èĻ ±
èĻ ı
Ġ1 30
æ¥ Ķ
æ¿ ĳ
åĻ ľ
Ġ2 13
14 60
13 28
13 22
13 21
13 98
16 60
èı ĺ
èħ Ń
17 30
17 07
åĤ ©
25 50
23 60
40 50
27 08
el d
é¹ Ħ
Ġn ot
300 1
èľ ļ
èĽ ¤
èĽ ¹
èĨ Ľ
09 5
Ġ8 4
06 2
88 9
52 23
120 4
ar p
Ġ30 1
ĠS h
ĠS HI
ro id
et er
GP U
ip ad
OP S
of f
PD P
è§ħ S
if a
ia o
and a
AS KB
ii i
TB T
og le
kW h
CL DN
TI ON
ucc i
YE AH
Ħé¥ ¨
İæ¢ ı
' '
. ,
0 303
1 202
4 221
6 97
8 45
9 46
9 47
9 49
= ï¼Ī
A k
A pol
B X
B éĵħ
C I
C V
C åŀĭ
C CS
G å»º
H ER
I L
I R
I ON
P op
S W
S p
V è°·
V ID
Y X
Z S
b i
b it
c al
d B
e k
g h
i SDG
j i
o ma
o le
o ec
p s
s an
s ys
u ber
w n
w it
w en
y d
y le
¸ çĦ¶
Ã ©
è ¬
Ġ z
Ġ éĹ´
Ġ è®Ń
Ġ è±¡
Ġ åĪ¤
Ġ 000
Ġ æĿ¿
Ġ éĹ»
Ġ **
Ġ éĿł
Ġ è·ĳ
Ġ éļĶ
Ġ å¾ª
Ġ å¥ĩ
Ġ æĳ¸
Ġ æ¸Ķ
Ġ æĲ¬
Ġ æľĹ
Ġ å»Ĭ
Ġ éķľ
Ġ èİ²
Ġ æļĹ
Ġ æĶĢ
Ġ æ´½
Ġ éĥİ
Ġ å§ĳ
Ġ èĬ¦
Ġ å¼Ĺ
Ġ ETF
Ġ éĺ®
Ġ do
Ġ ç²²
ģ èĵī
Ħ èĢ
ī è·
į æ²³
çļĦ a
çļĦ n
è¯ ĺ
æī ¦
åĴĮ P
èµ ¦
é¢ ¢
æŃ Ĩ
æŀ ĭ
ï¼ī )
èģ ©
æĸ¹ C
è¾ ĺ
åģ İ
è· º
ç¬ ¤
ç¬ Ī
æį ĭ
ç¾ Ł
çĿ ¾
çĿ ĳ
èĬ ©
èĬ Ī
æº Ł
éª Ĳ
10 18
10 23
10 28
10 48
10 78
10 87
å² ¿
æ® ĩ
éĤ °
12 28
12 44
12 47
12 96
12 69
12 64
ç¥ŀ L
11 32
15 30
15 28
15 02
19 08
19 07
åĦ Ĩ
Ġ1 40
åł ł
ç´ł c
Ġ2 46
14 07
13 17
13 56
13 71
18 43
17 20
17 01
Ġ3 70
é² µ
23 12
26 99
60 30
27 58
çħ ħ
èĹ ľ
éº Ŀ
Ġ5 50
33 42
Ġ6 00
09 1
07 6
Ġ8 23
è² ħ
05 9
96 2
èķ ¨
Ġ9 7
120 5
at hy
èĿ ł
ar i
130 7
or p
ic k
ic u
ic at
ĠD U
112 8
230 3
ĠP C
Ġs u
åļ ĵ
DN S
Ġt h
Ġc on
ed u
im g
CN BC
*** ,
ul t
ow er
In s
GE P
oh n
Ni Co
WE I
NI CE
ZE RO
oec d
ĦèĢ ĭ
0 49
0 105
0 602
2 202
2 160
2 260
3 103
9 100
9 300
A åħĪ
B RT
C y
E P
F un
G bps
H arm
I AM
K èĬ±
M ust
N B
N S
P ä¸º
R Z
R AS
T L
W h
X åħī
c çº§
c is
d ata
f w
j in
