{
  "version": "1.0",
  "truncation": null,
  "padding": null,
  "added_tokens": [
    {
      "id": 0,
      "content": "<unk>",
      "single_word": false,
      "lstrip": false,
      "rstrip": false,
      "normalized": false,
      "special": true
    },
    {
      "id": 1,
      "content": "<s>",
      "single_word": false,
      "lstrip": false,
      "rstrip": false,
      "normalized": false,
      "special": true
    },
    {
      "id": 2,
      "content": "</s>",
      "single_word": false,
      "lstrip": false,
      "rstrip": false,
      "normalized": false,
      "special": true
    }
  ],
  "normalizer": null,
  "pre_tokenizer": {
    "type": "ByteLevel",
    "add_prefix_space": false,
    "trim_offsets": true,
    "use_regex": true
  },
  "post_processor": null,
  "decoder": {
    "type": "ByteLevel",
    "add_prefix_space": true,
    "trim_offsets": true,
    "use_regex": true
  },
  "model": {
    "type": "BPE",
    "dropout": null,
    "unk_token": null,
    "continuing_subword_prefix": null,
    "end_of_word_suffix": null,
    "fuse_unk": false,
    "byte_fallback": false,
    "ignore_merges": false,
    "vocab": {
      "<unk>": 0,
      "<s>": 1,
      "</s>": 2,
      "!": 3,
      "\"": 4,
      "#": 5,
      "$": 6,
      "%": 7,
      "&": 8,
      "'": 9,
      "(": 10,
      ")": 11,
      "*": 12,
      "+": 13,
      ",": 14,
      "-": 15,
      ".": 16,
      "/": 17,
      "0": 18,
      "1": 19,
      "2": 20,
      "3": 21,
      "4": 22,
      "5": 23,
      "6": 24,
      "7": 25,
      "8": 26,
      "9": 27,
      ":": 28,
      ";": 29,
      "<": 30,
      "=": 31,
      ">": 32,
      "?": 33,
      "@": 34,
      "A": 35,
      "B": 36,
      "C": 37,
      "D": 38,
      "E": 39,
      "F": 40,
      "G": 41,
      "H": 42,
      "I": 43,
      "J": 44,
      "K": 45,
      "L": 46,
      "M": 47,
      "N": 48,
      "O": 49,
      "P": 50,
      "Q": 51,
      "R": 52,
      "S": 53,
      "T": 54,
      "U": 55,
      "V": 56,
      "W": 57,
      "X": 58,
      "Y": 59,
      "Z": 60,
      "[": 61,
      "\\": 62,
      "]": 63,
      "^": 64,
      "_": 65,
      "`": 66,
      "a": 67,
      "b": 68,
      "c": 69,
      "d": 70,
      "e": 71,
      "f": 72,
      "g": 73,
      "h": 74,
      "i": 75,
      "j": 76,
      "k": 77,
      "l": 78,
      "m": 79,
      "n": 80,
      "o": 81,
      "p": 82,
      "q": 83,
      "r": 84,
      "s": 85,
      "t": 86,
      "u": 87,
      "v": 88,
      "w": 89,
      "x": 90,
      "y": 91,
      "z": 92,
      "{": 93,
      "|": 94,
      "}": 95,
      "~": 96,
      "¡": 97,
      "¢": 98,
      "£": 99,
      "¤": 100,
      "¥": 101,
      "¦": 102,
      "§": 103,
      "¨": 104,
      "©": 105,
      "ª": 106,
      "«": 107,
      "¬": 108,
      "®": 109,
      "¯": 110,
      "°": 111,
      "±": 112,
      "²": 113,
      "³": 114,
      "´": 115,
      "µ": 116,
      "¶": 117,
      "·": 118,
      "¸": 119,
      "¹": 120,
      "º": 121,
      "»": 122,
      "¼": 123,
      "½": 124,
      "¾": 125,
      "¿": 126,
      "À": 127,
      "Á": 128,
      "Â": 129,
      "Ã": 130,
      "Ä": 131,
      "Å": 132,
      "Æ": 133,
      "Ç": 134,
      "È": 135,
      "É": 136,
      "Ê": 137,
      "Ë": 138,
      "Ì": 139,
      "Í": 140,
      "Î": 141,
      "Ï": 142,
      "Ð": 143,
      "Ñ": 144,
      "Ò": 145,
      "Ó": 146,
      "Ô": 147,
      "Õ": 148,
      "Ö": 149,
      "×": 150,
      "Ø": 151,
      "Ù": 152,
      "Ú": 153,
      "Û": 154,
      "Ü": 155,
      "Ý": 156,
      "Þ": 157,
      "ß": 158,
      "à": 159,
      "á": 160,
      "â": 161,
      "ã": 162,
      "ä": 163,
      "å": 164,
      "æ": 165,
      "ç": 166,
      "è": 167,
      "é": 168,
      "ê": 169,
      "ë": 170,
      "ì": 171,
      "í": 172,
      "î": 173,
      "ï": 174,
      "ð": 175,
      "ñ": 176,
      "ò": 177,
      "ó": 178,
      "ô": 179,
      "õ": 180,
      "ö": 181,
      "÷": 182,
      "ø": 183,
      "ù": 184,
      "ú": 185,
      "û": 186,
      "ü": 187,
      "ý": 188,
      "þ": 189,
      "ÿ": 190,
      "Ā": 191,
      "ā": 192,
      "Ă": 193,
      "ă": 194,
      "Ą": 195,
      "ą": 196,
      "Ć": 197,
      "ć": 198,
      "Ĉ": 199,
      "ĉ": 200,
      "Ċ": 201,
      "ċ": 202,
      "Č": 203,
      "č": 204,
      "Ď": 205,
      "ď": 206,
      "Đ": 207,
      "đ": 208,
      "Ē": 209,
      "ē": 210,
      "Ĕ": 211,
      "ĕ": 212,
      "Ė": 213,
      "ė": 214,
      "Ę": 215,
      "ę": 216,
      "Ě": 217,
      "ě": 218,
      "Ĝ": 219,
      "ĝ": 220,
      "Ğ": 221,
      "ğ": 222,
      "Ġ": 223,
      "ġ": 224,
      "Ģ": 225,
      "ģ": 226,
      "Ĥ": 227,
      "ĥ": 228,
      "Ħ": 229,
      "ħ": 230,
      "Ĩ": 231,
      "ĩ": 232,
      "Ī": 233,
      "ī": 234,
      "Ĭ": 235,
      "ĭ": 236,
      "Į": 237,
      "į": 238,
      "İ": 239,
      "ı": 240,
      "Ĳ": 241,
      "ĳ": 242,
      "Ĵ": 243,
      "ĵ": 244,
      "Ķ": 245,
      "ķ": 246,
      "ĸ": 247,
      "Ĺ": 248,
      "ĺ": 249,
      "Ļ": 250,
      "ļ": 251,
      "Ľ": 252,
      "ľ": 253,
      "Ŀ": 254,
      "ŀ": 255,
      "Ł": 256,
      "ł": 257,
      "Ń": 258,
      "ï¼": 259,
      "ä¸": 260,
      "ï¼Į": 261,
      "ãĢ": 262,
      "äº": 263,
      "åħ": 264,
      "çļ": 265,
      "åı": 266,
      "çļĦ": 267,
      "æľ": 268,
      "å®": 269,
      "ãĢĤ": 270,
      "åĬ": 271,
      "ãĢģ": 272,
      "ä»": 273,
      "åĪ": 274,
      "âĢ": 275,
      "å¤": 276,
      "ä½": 277,
      "åĲ": 278,
      "ç»": 279,
      "è¿": 280,
      "æĸ": 281,
      "åľ": 282,
      "è®": 283,
      "ä¼": 284,
      "å¹": 285,
      "çĶ": 286,
      "åĮ": 287,
      "åĽ": 288,
      "å¸": 289,
      "è´": 290,
      "åį": 291,
      "å·": 292,
      "æĹ": 293,
      "å±": 294,
      "æĶ": 295,
      "å¼": 296,
      "æĪ": 297,
      "è¯": 298,
      "éĩ": 299,
      "åº": 300,
      "è¡": 301,
      "äºº": 302,
      "çĽ": 303,
      "æĿ": 304,
      "ä¹": 305,
      "æĬ": 306,
      "åĨ": 307,
      "æĺ": 308,
      "ä¸Ģ": 309,
      "æī": 310,
      "ä¸ļ": 311,
      "æł": 312,
      "éĢ": 313,
      "âĢľ": 314,
      "ä¸Ń": 315,
      "âĢĿ": 316,
      "å¯": 317,
      "æķ": 318,
      "åĴ": 319,
      "å°": 320,
      "åĩ": 321,
      "åŃ": 322,
      "æ°": 323,
      "å·¥": 324,
      "åĴĮ": 325,
      "ä¿": 326,
      "èµ": 327,
      "å¸Ĥ": 328,
      "åľ¨": 329,
      "è§": 330,
      "æİ": 331,
      "éĻ": 332,
      "ä½ľ": 333,
      "å¹´": 334,
      "è¡Į": 335,
      "åĳ": 336,
      "çŃ": 337,
      "åıĳ": 338,
      "ä¸º": 339,
      "çº": 340,
      "æĢ": 341,
      "æľī": 342,
      "çİ": 343,
      "æ³": 344,
      "å¤§": 345,
      "æĮ": 346,
      "ç§": 347,
      "åĽ½": 348,
      "åħ¬": 349,
      "é¢": 350,
      "åħ¨": 351,
      "éĹ": 352,
      "åŁ": 353,
      "ä¼ļ": 354,
      "å»": 355,
      "åİ": 356,
      "çĲ": 357,
      "åĮº": 358,
      "å®ŀ": 359,
      "è¦": 360,
      "äºĨ": 361,
      "å¿": 362,
      "å¾": 363,
      "è¦ģ": 364,
      "éĥ": 365,
      "çĶŁ": 366,
      "æµ": 367,
      "åĬ¨": 368,
      "å»º": 369,
      "èĢ": 370,
      "è¿Ľ": 371,
      "é¡": 372,
      "å½": 373,
      "éĿ": 374,
      "åĬ¡": 375,
      "çĲĨ": 376,
      "ç®": 377,
      "å±ķ": 378,
      "ä¸į": 379,
      "20": 380,
      "çī": 381,
      "æĺ¯": 382,
      "ä¸Ĭ": 383,
      "æĸ°": 384,
      "æĶ¿": 385,
      "å¥": 386,
      "æ²": 387,
      "æŃ": 388,
      "æ³ķ": 389,
      "æ±": 390,
      "æŀ": 391,
      "åĮĸ": 392,
      "åĩº": 393,
      "äº§": 394,
      "åľ°": 395,
      "ä»¥": 396,
      "éĺ": 397,
      "èĩ": 398,
      "æı": 399,
      "æĹ¥": 400,
      "æĪĲ": 401,
      "æĹ¶": 402,
      "å¼Ģ": 403,
      "å¯¹": 404,
      "çŃī": 405,
      "ç¤": 406,
      "åĲĪ": 407,
      "çĶ¨": 408,
      "ï¼ī": 409,
      "åŃ¦": 410,
      "ï¼Ī": 411,
      "æ°ĳ": 412,
      "ç«": 413,
      "æĭ": 414,
      "ä¾": 415,
      "é¡¹": 416,
      "èĥ": 417,
      "éĥ¨": 418,
      "çľ": 419,
      "åĬĽ": 420,
      "åħ³": 421,
      "è®¾": 422,
      "éķ": 423,
      "ä¿Ŀ": 424,
      "èµĦ": 425,
      "èģ": 426,
      "æĥ": 427,
      "æıĲ": 428,
      "ç½": 429,
      "çĽ®": 430,
      "æ´": 431,
      "æ¬": 432,
      "æĸ¹": 433,
      "å®¶": 434,
      "å®ļ": 435,
      "è½": 436,
      "èĤ": 437,
      "è¾": 438,
      "é«": 439,
      "ä½ĵ": 440,
      "é«ĺ": 441,
      "åĵ": 442,
      "ä¸ª": 443,
      "ä¸»": 444,
      "ï¼ļ": 445,
      "ç»ı": 446,
      "ç®¡": 447,
      "åĬł": 448,
      "ç¨": 449,
      "åī": 450,
      "èĥ½": 451,
      "å§": 452,
      "éĩį": 453,
      "åĪĨ": 454,
      "æľĪ": 455,
      "åĪ°": 456,
      "æ¸": 457,
      "çİ°": 458,
      "åģ": 459,
      "å®ī": 460,
      "å¢": 461,
      "éĢļ": 462,
      "åĳĺ": 463,
      "äºĭ": 464,
      "æŁ": 465,
      "åĲĮ": 466,
      "æľ¬": 467,
      "èĲ": 468,
      "æĸĩ": 469,
      "æłĩ": 470,
      "æľº": 471,
      "æĦ": 472,
      "è·": 473,
      "åĪ¶": 474,
      "è°": 475,
      "åĿ": 476,
      "çĤ": 477,
      "åıĬ": 478,
      "äºİ": 479,
      "æĿ¥": 480,
      "éģ": 481,
      "åħĥ": 482,
      "æľį": 483,
      "ä¸ĭ": 484,
      "æ¯": 485,
      "éĿ¢": 486,
      "éķ¿": 487,
      "ç¬": 488,
      "åľº": 489,
      "å¼º": 490,
      "åº¦": 491,
      "ä½į": 492,
      "ä¸İ": 493,
      "è§Ħ": 494,
      "éĽ": 495,
      "å¿ĥ": 496,
      "èĩª": 497,
      "åºĶ": 498,
      "ä¼ģ": 499,
      "00": 500,
      "å§Ķ": 501,
      "éĩĳ": 502,
      "åĵģ": 503,
      "æİ¨": 504,
      "åı¸": 505,
      "åħ¥": 506,
      "å¹³": 507,
      "çĤ¹": 508,
      "ï¼Ľ": 509,
      "æį": 510,
      "éļ": 511,
      "è¿ĩ": 512,
      "æĥħ": 513,
      "å¥½": 514,
      "æ¡": 515,
      "ç¾": 516,
      "åħļ": 517,
      "æĻ": 518,
      "æĮģ": 519,
      "å±Ģ": 520,
      "ç¤¾": 521,
      "ä¿¡": 522,
      "æĪĳ": 523,
      "æľŁ": 524,
      "çľģ": 525,
      "åħ±": 526,
      "åĬŀ": 527,
      "åĨħ": 528,
      "å¤ļ": 529,
      "æ°´": 530,
      "ä¸ī": 531,
      "äº¤": 532,
      "åĲĦ": 533,
      "éĩı": 534,
      "æ´»": 535,
      "ãĢĭ": 536,
      "ãĢĬ": 537,
      "åŁº": 538,
      "ç»Ħ": 539,
      "ä»¶": 540,
      "åīį": 541,
      "åĲİ": 542,
      "é£": 543,
      "ç³": 544,
      "æ²»": 545,
      "æĶ¯": 546,
      "æĿĳ": 547,
      "çł": 548,
      "çĿ": 549,
      "èī": 550,
      "ç¬¬": 551,
      "ç¨ĭ": 552,
      "ç¡": 553,
      "æĬ¥": 554,
      "åįķ": 555,
      "ä»»": 556,
      "æ¬¡": 557,
      "æ¶": 558,
      "æŁ¥": 559,
      "ç³»": 560,
      "ä¸ĩ": 561,
      "è´£": 562,
      "æĺİ": 563,
      "æĸ½": 564,
      "è®¡": 565,
      "æĢ§": 566,
      "éĹ´": 567,
      "å°Ĩ": 568,
      "çŁ": 569,
      "åħ¶": 570,
      "æĽ": 571,
      "çĸ": 572,
      "åķ": 573,
      "ä»£": 574,
      "æķĻ": 575,
      "å¯¼": 576,
      "å°ı": 577,
      "çĶµ": 578,
      "åĳĬ": 579,
      "é¢ĺ": 580,
      "è¡¨": 581,
      "æ·": 582,
      "èĢħ": 583,
      "æ±Ĥ": 584,
      "è´¨": 585,
      "è®®": 586,
      "ç§ĳ": 587,
      "å¼ı": 588,
      "éĹ¨": 589,
      "æĬĢ": 590,
      "åı¯": 591,
      "åĪĽ": 592,
      "çº§": 593,
      "202": 594,
      "è´¹": 595,
      "åķĨ": 596,
      "çĽ¸": 597,
      "åŁİ": 598,
      "æĬķ": 599,
      "è®°": 600,
      "è¿Ļ": 601,
      "åĨľ": 602,
      "äºĮ": 603,
      "çĽĳ": 604,
      "èĤ²": 605,
      "è¶": 606,
      "ç²": 607,
      "æģ": 608,
      "ä¸ĵ": 609,
      "ç«ĭ": 610,
      "è¯ģ": 611,
      "éĺ²": 612,
      "è·¯": 613,
      "ä¾Ľ": 614,
      "å¢ŀ": 615,
      "éĻ¢": 616,
      "æķ°": 617,
      "éģĵ": 618,
      "åİ¿": 619,
      "åĲį": 620,
      "ä¹¦": 621,
      "èĬ": 622,
      "åĢ": 623,
      "è°ĥ": 624,
      "æº": 625,
      "ä»¬": 626,
      "æĶ¶": 627,
      "èģĶ": 628,
      "æĶ¹": 629,
      "æį®": 630,
      "ç¤º": 631,
      "æķĪ": 632,
      "ç±": 633,
      "èĮ": 634,
      "åĪ©": 635,
      "æ£": 636,
      "å¹¶": 637,
      "ç½ĳ": 638,
      "ç»Ł": 639,
      "å°±": 640,
      "å½ĵ": 641,
      "é¢Ĩ": 642,
      "æĦı": 643,
      "è½¦": 644,
      "æīĢ": 645,
      "è§£": 646,
      "åĲĳ": 647,
      "åºľ": 648,
      "æ¡Ī": 649,
      "ç¥": 650,
      "ä»ĸ": 651,
      "ç»ĵ": 652,
      "éĩĩ": 653,
      "æĢ»": 654,
      "å¦": 655,
      "çİ¯": 656,
      "å¾Ĺ": 657,
      "éĹ®": 658,
      "éĵ": 659,
      "ä¼ł": 660,
      "éĢł": 661,
      "éľ": 662,
      "ä¹ĭ": 663,
      "è¿Ĳ": 664,
      "éĶ": 665,
      "æ·±": 666,
      "æĮĩ": 667,
      "åĨ³": 668,
      "éĽĨ": 669,
      "çī©": 670,
      "èĲ¥": 671,
      "å¤Ħ": 672,
      "æĽ´": 673,
      "æºĲ": 674,
      "å¤ĸ": 675,
      "åŃĲ": 676,
      "ç´": 677,
      "æł¼": 678,
      "ç©": 679,
      "åı°": 680,
      "çĻ": 681,
      "çķ": 682,
      "å¤©": 683,
      "è´Ń": 684,
      "çī¹": 685,
      "æµ·": 686,
      "åįģ": 687,
      "åĨµ": 688,
      "åĩĨ": 689,
      "çłĶ": 690,
      "æĿ¡": 691,
      "èĲ½": 692,
      "åĮ»": 693,
      "åİŁ": 694,
      "è¢": 695,
      "éĻĲ": 696,
      "æķ´": 697,
      "ç¡®": 698,
      "æŃ¥": 699,
      "é¦": 700,
      "å·ŀ": 701,
      "åįĹ": 702,
      "é¢Ħ": 703,
      "çº¿": 704,
      "è¿ĳ": 705,
      "åıĤ": 706,
      "å¹¿": 707,
      "èį": 708,
      "æĬ¤": 709,
      "å®¡": 710,
      "èĮĥ": 711,
      "å±±": 712,
      "ä¹Ł": 713,
      "ä»İ": 714,
      "ä¼ĺ": 715,
      "ç²¾": 716,
      "æ£Ģ": 717,
      "å®Į": 718,
      "èµ·": 719,
      "æİ¥": 720,
      "ä¹ł": 721,
      "åģļ": 722,
      "æŀĦ": 723,
      "æŃ£": 724,
      "ç¼": 725,
      "å¢ĥ": 726,
      "åįĩ": 727,
      "ä¸ľ": 728,
      "æģ¯": 729,
      "åıĸ": 730,
      "æľ¯": 731,
      "åŀ": 732,
      "åĽĽ": 733,
      "èĪ": 734,
      "ä»·": 735,
      "åĿļ": 736,
      "ç»Ń": 737,
      "ä¼Ĺ": 738,
      "è¢«": 739,
      "æµģ": 740,
      "ç¾¤": 741,
      "æĢģ": 742,
      "èĩ³": 743,
      "èģĮ": 744,
      "æľĢ": 745,
      "æµİ": 746,
      "çģ": 747,
      "é£İ": 748,
      "åı·": 749,
      "æ¯Ķ": 750,
      "è®¤": 751,
      "éħ": 752,
      "åĮĹ": 753,
      "ħ§": 754,
      "éª": 755,
      "é©": 756,
      "æĪĸ": 757,
      "å¤ĩ": 758,
      "ç»ĩ": 759,
      "æĿĥ": 760,
      "åįı": 761,
      "10": 762,
      "ç¦": 763,
      "å¸¸": 764,
      "å¦Ĥ": 765,
      "ç§į": 766,
      "éľĢ": 767,
      "å·²": 768,
      "åĪĴ": 769,
      "åıĹ": 770,
      "ç®Ĺ": 771,
      "èī²": 772,
      "å²": 773,
      "èĭ": 774,
      "åĬ©": 775,
      "æīĵ": 776,
      "è¥": 777,
      "åħ·": 778,
      "201": 779,
      "çŃĸ": 780,
      "ä¹¡": 781,
      "è¿ĺ": 782,
      "ç¾İ": 783,
      "è¯´": 784,
      "ç§¯": 785,
      "æ®": 786,
      "è¥¿": 787,
      "æĪ·": 788,
      "éĺŁ": 789,
      "çĦ": 790,
      "çĿĢ": 791,
      "åĸ": 792,
      "å¹²": 793,
      "æī§": 794,
      "çŁ¥": 795,
      "æĹł": 796,
      "æł¡": 797,
      "æ¬¾": 798,
      "å¼ķ": 799,
      "æŀľ": 800,
      "æĮī": 801,
      "ç±»": 802,
      "è¾¾": 803,
      "åı£": 804,
      "èĢĥ": 805,
      "æĶ¾": 806,
      "æ»": 807,
      "æ±Ł": 808,
      "éķĩ": 809,
      "çĶ±": 810,
      "çĥ": 811,
      "ä¸¤": 812,
      "æİ§": 813,
      "åŁŁ": 814,
      "èĢģ": 815,
      "å½¢": 816,
      "èĬĤ": 817,
      "åįİ": 818,
      "èĤ¡": 819,
      "åĽŃ": 820,
      "è¯·": 821,
      "æ¶Ī": 822,
      "æ¸¸": 823,
      "æŃ¤": 824,
      "çħ§": 825,
      "èİ": 826,
      "å£": 827,
      "èŀ": 828,
      "éĻ©": 829,
      "æł¸": 830,
      "åĽł": 831,
      "è½¬": 832,
      "è´Ł": 833,
      "æľª": 834,
      "æīĭ": 835,
      "éĴ": 836,
      "éĥ½": 837,
      "çĿ£": 838,
      "åĽ¢": 839,
      "åħĪ": 840,
      "è¯Ħ": 841,
      "äºĶ": 842,
      "æĪ¿": 843,
      "èŀį": 844,
      "åŀĭ": 845,
      "è£": 846,
      "æĭĽ": 847,
      "å¸ĥ": 848,
      "å®£": 849,
      "ä½¿": 850,
      "æ°Ķ": 851,
      "æ¸ħ": 852,
      "å¤į": 853,
      "è´¢": 854,
      "éĻħ": 855,
      "éļľ": 856,
      "åģ¥": 857,
      "ä¾Ŀ": 858,
      "æİĴ": 859,
      "æĪĺ": 860,
      "æ¹": 861,
      "è¯Ĩ": 862,
      "éĩĮ": 863,
      "å¸¦": 864,
      "ä¸¥": 865,
      "è§ģ": 866,
      "åŁ¹": 867,
      "å¿«": 868,
      "æĦŁ": 869,
      "èº": 870,
      "éªĮ": 871,
      "åħ»": 872,
      "æ¨": 873,
      "æĤ": 874,
      "ç«Ļ": 875,
      "Ġï¼Ī": 876,
      "æŀģ": 877,
      "æŀĹ": 878,
      "è®©": 879,
      "æĹħ": 880,
      "èĢĮ": 881,
      "ä¸¾": 882,
      "å¸Ī": 883,
      "æī¹": 884,
      "åĶ": 885,
      "ä»Ĭ": 886,
      "éĤ": 887,
      "å¾ĭ": 888,
      "èº«": 889,
      "12": 890,
      "æĬĬ": 891,
      "ç¥ŀ": 892,
      "è¯¥": 893,
      "åĽ´": 894,
      "æī¿": 895,
      "æĺĵ": 896,
      "é»": 897,
      "ä¹ī": 898,
      "ç½®": 899,
      "è§Ĩ": 900,
      "åĮħ": 901,
      "æ²³": 902,
      "æ³¨": 903,
      "çĹ": 904,
      "éĢī": 905,
      "ä»½": 906,
      "æĸĻ": 907,
      "çľĭ": 908,
      "ä½ı": 909,
      "çº¦": 910,
      "å¤´": 911,
      "å±ħ": 912,
      "æł¹": 913,
      "åĽŀ": 914,
      "äº¬": 915,
      "çĪ": 916,
      "å®¹": 917,
      "çĦ¶": 918,
      "çª": 919,
      "åº·": 920,
      "æ¯ı": 921,
      "æĥ³": 922,
      "åĸĦ": 923,
      "è¯ī": 924,
      "æ¢": 925,
      "æ¨¡": 926,
      "æĢĿ": 927,
      "å°ĳ": 928,
      "é£Ł": 929,
      "çľŁ": 930,
      "çĶ³": 931,
      "èİ·": 932,
      "å¿Ĺ": 933,
      "äº¿": 934,
      "11": 935,
      "ç§°": 936,
      "åıĺ": 937,
      "ç©¶": 938,
      "éħį": 939,
      "å½±": 940,
      "åī¯": 941,
      "èµĽ": 942,
      "æĸŃ": 943,
      "çİĩ": 944,
      "ä¿ĥ": 945,
      "æ¼": 946,
      "æīį": 947,
      "åĪ«": 948,
      "è±": 949,
      "è¯ķ": 950,
      "å±Ĥ": 951,
      "çĸ«": 952,
      "çĽĬ": 953,
      "åħ´": 954,
      "éĿ©": 955,
      "æĴ": 956,
      "çĽ´": 957,
      "å¼ł": 958,
      "éĿĴ": 959,
      "è§Ĥ": 960,
      "å¯Ł": 961,
      "è¡¥": 962,
      "çı": 963,
      "æµĭ": 964,
      "å®¢": 965,
      "åıį": 966,
      "æĭħ": 967,
      "åĨĽ": 968,
      "åħħ": 969,
      "åĬ¿": 970,
      "è®Ń": 971,
      "é¦ĸ": 972,
      "é¢Ŀ": 973,
      "åĵį": 974,
      "30": 975,
      "åŃĺ": 976,
      "åĳ¨": 977,
      "âĢĶ": 978,
      "ç»Ļ": 979,
      "è®²": 980,
      "åĢ¼": 981,
      "æİª": 982,
      "ç»´": 983,
      "éĶĢ": 984,
      "è¯Ŀ": 985,
      "éĿŀ": 986,
      "æĬĵ": 987,
      "æĻº": 988,
      "éļ¾": 989,
      "èĦ": 990,
      "èŃ": 991,
      "èŃ¦": 992,
      "çĸĹ": 993,
      "åĭ": 994,
      "ä¾ĭ": 995,
      "çĬ": 996,
      "éĺ³": 997,
      "å®¤": 998,
      "åŃĹ": 999,
      "åĪĹ": 1000,
      "è¿Ŀ": 1001,
      "åĪĩ": 1002,
      "è£ħ": 1003,
      "è¶³": 1004,
      "æ»¡": 1005,
      "æļ": 1006,
      "èµ°": 1007,
      "è¶ħ": 1008,
      "è®º": 1009,
      "é¾": 1010,
      "ä½Ĩ": 1011,
      "ç©º": 1012,
      "2023": 1013,
      "æ®µ": 1014,
      "çºª": 1015,
      "åİ»": 1016,
      "çº¢": 1017,
      "ä½Ļ": 1018,
      "éĢŁ": 1019,
      "ç»¼": 1020,
      "åľŁ": 1021,
      "æĻ¯": 1022,
      "çĻ¾": 1023,
      "åį«": 1024,
      "ç¨İ": 1025,
      "æĢ¥": 1026,
      "è¡Ĺ": 1027,
      "æĳ": 1028,
      "çĹħ": 1029,
      "ç»¿": 1030,
      "15": 1031,
      "èį¯": 1032,
      "åıĮ": 1033,
      "æĿĲ": 1034,
      "éĵ¶": 1035,
      "åİĨ": 1036,
      "åĪĻ": 1037,
      "äºī": 1038,
      "æĮ¥": 1039,
      "çīĮ": 1040,
      "çĲĥ": 1041,
      "åĬŁ": 1042,
      "æł·": 1043,
      "åĶ®": 1044,
      "ä½İ": 1045,
      "æĻ®": 1046,
      "èĳ": 1047,
      "èģļ": 1048,
      "åĩı": 1049,
      "åħī": 1050,
      "è±¡": 1051,
      "çķĮ": 1052,
      "ç¨³": 1053,
      "éĻ¤": 1054,
      "ç±³": 1055,
      "çİĭ": 1056,
      "çĮ": 1057,
      "19": 1058,
      "ç»Ĩ": 1059,
      "åĦ": 1060,
      "ç¡Ģ": 1061,
      "åĿĩ": 1062,
      "æ²¡": 1063,
      "å±ŀ": 1064,
      "ç¦ı": 1065,
      "ä»ĺ": 1066,
      "è¾ĥ": 1067,
      "çªģ": 1068,
      "æ¹ĸ": 1069,
      "å½ķ": 1070,
      "éĢģ": 1071,
      "çĥŃ": 1072,
      "åħŃ": 1073,
      "äºĽ": 1074,
      "ä¿®": 1075,
      "åĳ½": 1076,
      "äºĴ": 1077,
      "è´¯": 1078,
      "ĠâĢľ": 1079,
      "èĩ´": 1080,
      "èĻ": 1081,
      "æĺ¾": 1082,
      "ä¸ĸ": 1083,
      "å¥³": 1084,
      "åĨį": 1085,
      "åĦ¿": 1086,
      "çĻ»": 1087,
      "äºĪ": 1088,
      "çıŃ": 1089,
      "åºı": 1090,
      "è´«": 1091,
      "åĪĿ": 1092,
      "ç´§": 1093,
      "åı²": 1094,
      "åĽ¾": 1095,
      "æķħ": 1096,
      "éĻį": 1097,
      "å±Ĭ": 1098,
      "å¾·": 1099,
      "é¾Ļ": 1100,
      "æĺ¥": 1101,
      "å¾Ī": 1102,
      "èĬ±": 1103,
      "é¥": 1104,
      "Ġ1": 1105,
      "2022": 1106,
      "æŁĲ": 1107,
      "çĭ": 1108,
      "å¤®": 1109,
      "é©¬": 1110,
      "ç¥¨": 1111,
      "çº³": 1112,
      "æīĺ": 1113,
      "æķĳ": 1114,
      "å¡": 1115,
      "æ¥": 1116,
      "ç¼ĸ": 1117,
      "å½»": 1118,
      "äºĳ": 1119,
      "ä¹Ĳ": 1120,
      "æĹı": 1121,
      "èī¯": 1122,
      "æ¼Ķ": 1123,
      "è¾¹": 1124,
      "è¿ŀ": 1125,
      "çĪ±": 1126,
      "2020": 1127,
      "éŁ": 1128,
      "å¯Į": 1129,
      "åł": 1130,
      "ç¢": 1131,
      "å§ĭ": 1132,
      "ä»ĭ": 1133,
      "åºŃ": 1134,
      "æŃ¢": 1135,
      "2021": 1136,
      "åĬ±": 1137,
      "çīĩ": 1138,
      "å¿ħ": 1139,
      "çģ«": 1140,
      "éļı": 1141,
      "æ¿": 1142,
      "å¤±": 1143,
      "æĿİ": 1144,
      "ç»Ī": 1145,
      "å¾®": 1146,
      "å¸®": 1147,
      "åį°": 1148,
      "åĽ°": 1149,
      "åİħ": 1150,
      "åºķ": 1151,
      "æĲ": 1152,
      "ç½²": 1153,
      "ä¾¿": 1154,
      "å¯Ĩ": 1155,
      "åĪ¤": 1156,
      "çŃ¾": 1157,
      "å£«": 1158,
      "åĻ": 1159,
      "åį³": 1160,
      "ç«ł": 1161,
      "é»Ħ": 1162,
      "åı¬": 1163,
      "æ½": 1164,
      "000": 1165,
      "æ¸¯": 1166,
      "çŃĳ": 1167,
      "ç»©": 1168,
      "æ¿Ģ": 1169,
      "è¯¢": 1170,
      "ä½ķ": 1171,
      "å¸Ń": 1172,
      "èīº": 1173,
      "è¶Ĭ": 1174,
      "è´§": 1175,
      "åºĨ": 1176,
      "åįł": 1177,
      "ç»ľ": 1178,
      "å¥ĸ": 1179,
      "æĦ¿": 1180,
      "ç´ł": 1181,
      "æ¶ī": 1182,
      "Ġ2": 1183,
      "ï¼Ł": 1184,
      "å®ģ": 1185,
      "äº«": 1186,
      "æ¸©": 1187,
      "åħĭ": 1188,
      "å®Ī": 1189,
      "è®¿": 1190,
      "å·±": 1191,
      "è¯¾": 1192,
      "%ï¼Į": 1193,
      "è¿°": 1194,
      "è®¸": 1195,
      "âĢ¦": 1196,
      "æī¶": 1197,
      "åıª": 1198,
      "å¾ģ": 1199,
      "14": 1200,
      "åĻ¨": 1201,
      "å¿µ": 1202,
      "%ãĢĤ": 1203,
      "éĢĤ": 1204,
      "å®³": 1205,
      "13": 1206,
      "ç»§": 1207,
      "çĻ½": 1208,
      "èĪª": 1209,
      "åįĪ": 1210,
      "æĴŃ": 1211,
      "çŁ³": 1212,
      "çģ¾": 1213,
      "16": 1214,
      "æ±¡": 1215,
      "çķ¥": 1216,
      "ç¦»": 1217,
      "ç«ŀ": 1218,
      "18": 1219,
      "èı": 1220,
      "äºļ": 1221,
      "é¦Ĩ": 1222,
      "æľĽ": 1223,
      "é¡»": 1224,
      "æĪª": 1225,
      "è¾ĵ": 1226,
      "è·µ": 1227,
      "åħ«": 1228,
      "æ¥¼": 1229,
      "æ¤": 1230,
      "çĽĸ": 1231,
      "ä¸´": 1232,
      "åºĹ": 1233,
      "åŃ£": 1234,
      "æĤ£": 1235,
      "åįļ": 1236,
      "æĸ¯": 1237,
      "å²Ĺ": 1238,
      "éĵ¾": 1239,
      "çł´": 1240,
      "å¾ħ": 1241,
      "éĢĢ": 1242,
      "èĭı": 1243,
      "å±¥": 1244,
      "50": 1245,
      "Â·": 1246,
      "è°Ī": 1247,
      "ä¸ĥ": 1248,
      "ä¸°": 1249,
      "éĵģ": 1250,
      "åİĭ": 1251,
      "ä»ħ": 1252,
      "ç´¢": 1253,
      "å¾Ģ": 1254,
      "æŁĵ": 1255,
      "æİĪ": 1256,
      "åĬ³": 1257,
      "æĭī": 1258,
      "çĬ¶": 1259,
      "éĻĪ": 1260,
      "ç»į": 1261,
      "è´¸": 1262,
      "èħ": 1263,
      "æħ": 1264,
      "2024": 1265,
      "æĮ¯": 1266,
      "å°Ķ": 1267,
      "17": 1268,
      "æ±ĩ": 1269,
      "å¨": 1270,
      "ç¬¦": 1271,
      "æ²¹": 1272,
      "å³": 1273,
      "åıĭ": 1274,
      "ä¹Ī": 1275,
      "è¾Ĩ": 1276,
      "åģľ": 1277,
      "åĲ¯": 1278,
      "æŃ¦": 1279,
      "è½½": 1280,
      "æĭ¬": 1281,
      "è®¢": 1282,
      "åı¤": 1283,
      "å£°": 1284,
      "åģĩ": 1285,
      "æłĳ": 1286,
      "200": 1287,
      "åĤ": 1288,
      "24": 1289,
      "è¨": 1290,
      "è¨Ģ": 1291,
      "ç½ļ": 1292,
      "æİ¢": 1293,
      "ä¹Ŀ": 1294,
      "è¿ľ": 1295,
      "å·Ŀ": 1296,
      "æĥł": 1297,
      "çĮ®": 1298,
      "2019": 1299,
      "ç®Ģ": 1300,
      "ä¹°": 1301,
      "åĲ¬": 1302,
      "è´·": 1303,
      "çĭ¬": 1304,
      "åº§": 1305,
      "å¥Ĺ": 1306,
      "éĴĪ": 1307,
      "æĿ¿": 1308,
      "åĪĺ": 1309,
      "çķĻ": 1310,
      "çŃ¹": 1311,
      "æĶ»": 1312,
      "åħį": 1313,
      "ç»ķ": 1314,
      "Ġ3": 1315,
      "åºĵ": 1316,
      "100": 1317,
      "ç§»": 1318,
      "åĽº": 1319,
      "è¯»": 1320,
      "åıĪ": 1321,
      "å·¡": 1322,
      "ä½ł": 1323,
      "æ¤į": 1324,
      "25": 1325,
      "åĪ¸": 1326,
      "èĳ£": 1327,
      "æĵ": 1328,
      "æ±½": 1329,
      "ç«¯": 1330,
      "åĲ«": 1331,
      "åª": 1332,
      "çĶ°": 1333,
      "äº²": 1334,
      "é²": 1335,
      "åįĬ": 1336,
      "å°½": 1337,
      "ä¸Ķ": 1338,
      "æī©": 1339,
      "é¼": 1340,
      "æ¡¥": 1341,
      "åį¡": 1342,
      "å¥¹": 1343,
      "è´¦": 1344,
      "çº·": 1345,
      "é¢ĳ": 1346,
      "ç§Ģ": 1347,
      "çī¢": 1348,
      "åįĥ": 1349,
      "èģĺ": 1350,
      "åĩ»": 1351,
      "ç§Ł": 1352,
      "ç¼´": 1353,
      "Ġä¸Ģ": 1354,
      "åĢŁ": 1355,
      "åİĤ": 1356,
      "å®ĺ": 1357,
      "å®ľ": 1358,
      "åĲ¦": 1359,
      "åĩł": 1360,
      "éĻĦ": 1361,
      "åĨĮ": 1362,
      "åªĴ": 1363,
      "è´´": 1364,
      "è´µ": 1365,
      "éģĩ": 1366,
      "éģĹ": 1367,
      "Ġåľ¨": 1368,
      "å¼Ĥ": 1369,
      "ĠĊ": 1370,
      "æ¦": 1371,
      "æ´¾": 1372,
      "æįŁ": 1373,
      "æĹ©": 1374,
      "åĪ»": 1375,
      "æı´": 1376,
      "çĦ¦": 1377,
      "èįī": 1378,
      "èĭ±": 1379,
      "çŁŃ": 1380,
      "æĺŁ": 1381,
      "éĽ¨": 1382,
      "åģ¿": 1383,
      "23": 1384,
      "éĢĲ": 1385,
      "é¡º": 1386,
      "ä¼į": 1387,
      "è¯Ĭ": 1388,
      "å¥ĭ": 1389,
      "å»¶": 1390,
      "æŀĲ": 1391,
      "å½©": 1392,
      "è½»": 1393,
      "28": 1394,
      "è¯¦": 1395,
      "èĦ±": 1396,
      "æĭ¨": 1397,
      "éļĲ": 1398,
      "ç½ª": 1399,
      "éĺ¶": 1400,
      "çłģ": 1401,
      "è§ī": 1402,
      "æ±ī": 1403,
      "åį±": 1404,
      "æ²Ļ": 1405,
      "å¤ª": 1406,
      "è§Ĵ": 1407,
      "ï¼ģ": 1408,
      "è®¼": 1409,
      "éĤ£": 1410,
      "æī¬": 1411,
      "åĨĻ": 1412,
      "ç«¥": 1413,
      "èį£": 1414,
      "åŃ©": 1415,
      "åĬª": 1416,
      "åĢĻ": 1417,
      "çĸ¾": 1418,
      "éĽ¶": 1419,
      "åħ¸": 1420,
      "ç´¯": 1421,
      "ç»ĥ": 1422,
      "èĪ¬": 1423,
      "26": 1424,
      "ä¼ĳ": 1425,
      "æ¯Ĵ": 1426,
      "æĸĹ": 1427,
      "éĹ»": 1428,
      "åħ°": 1429,
      "é¸": 1430,
      "è¿İ": 1431,
      "åĺ": 1432,
      "éŁ³": 1433,
      "é¦Ļ": 1434,
      "æĭŁ": 1435,
      "å¸Į": 1436,
      "¤Ĳ": 1437,
      "éħĴ": 1438,
      "çŃĶ": 1439,
      "åĲ¸": 1440,
      "22": 1441,
      "éĶ®": 1442,
      "å®Ŀ": 1443,
      "èĵ": 1444,
      "é¤Ĳ": 1445,
      "çĩ": 1446,
      "çīĪ": 1447,
      "æį¢": 1448,
      "èıľ": 1449,
      "åī§": 1450,
      "40": 1451,
      "é¼ĵ": 1452,
      "åĤ¨": 1453,
      "èĮ¶": 1454,
      "ä»¤": 1455,
      "è´¡": 1456,
      "ä¸½": 1457,
      "60": 1458,
      "é£ŀ": 1459,
      "âĢĻ": 1460,
      "è¦Ĩ": 1461,
      "âĢĺ": 1462,
      "é»ĳ": 1463,
      "çĬ¯": 1464,
      "åĢº": 1465,
      "åĿĢ": 1466,
      "27": 1467,
      "2018": 1468,
      "ç£": 1469,
      "er": 1470,
      "å¤Ł": 1471,
      "Ġç¬¬": 1472,
      "éĺ¿": 1473,
      "å·´": 1474,
      "ç½Ĺ": 1475,
      "éĽª": 1476,
      "çĨ": 1477,
      "æĿ¨": 1478,
      "å³°": 1479,
      "é©»": 1480,
      "èĴ": 1481,
      "éĢĴ": 1482,
      "æĺł": 1483,
      "æľ¨": 1484,
      "çĵ": 1485,
      "on": 1486,
      "Ġ0": 1487,
      "åĨł": 1488,
      "ä¼°": 1489,
      "é½": 1490,
      "è¯Ń": 1491,
      "æ´¥": 1492,
      "åĥ": 1493,
      "æ°¸": 1494,
      "è¿½": 1495,
      "äº®": 1496,
      "å¸ģ": 1497,
      "æīİ": 1498,
      "å²ģ": 1499,
      "æħ§": 1500,
      "åłĤ": 1501,
      "å»ī": 1502,
      "æĬĹ": 1503,
      "å¹ħ": 1504,
      "æĭĵ": 1505,
      "ä¼¤": 1506,
      "æı¡": 1507,
      "ĠäºĮ": 1508,
      "é¥®": 1509,
      "æ¹¾": 1510,
      "ç¿": 1511,
      "æ´ģ": 1512,
      "29": 1513,
      "åľ¾": 1514,
      "åŀĥ": 1515,
      "è£ģ": 1516,
      "21": 1517,
      "ä¼Ł": 1518,
      "æ³¢": 1519,
      "Ġ4": 1520,
      "æī¾": 1521,
      "æ®ĭ": 1522,
      "æ¾": 1523,
      "é½Ĳ": 1524,
      "çľ¼": 1525,
      "è·¨": 1526,
      "Ġæľ¬": 1527,
      "æĭ©": 1528,
      "ç²®": 1529,
      "åħµ": 1530,
      "çħ": 1531,
      "äº©": 1532,
      "è½®": 1533,
      "æĵį": 1534,
      "æ´²": 1535,
      "èĥľ": 1536,
      "åĿĹ": 1537,
      "el": 1538,
      "çĸĳ": 1539,
      "æ¬¢": 1540,
      "å©": 1541,
      "ä»Ģ": 1542,
      "èĶ": 1543,
      "éľ²": 1544,
      "å·®": 1545,
      "æ¯ķ": 1546,
      "ç¯": 1547,
      "æĳĦ": 1548,
      "åĴ¨": 1549,
      "ä»ª": 1550,
      "çĶ»": 1551,
      "èĹ": 1552,
      "ç¢³": 1553,
      "è·Ł": 1554,
      "æ¡£": 1555,
      "èĭĹ": 1556,
      "è¯º": 1557,
      "Ġä¸ī": 1558,
      "éĻĨ": 1559,
      "é©¾": 1560,
      "åı¦": 1561,
      "å±ĭ": 1562,
      "æĺĮ": 1563,
      "ç¦ģ": 1564,
      "æ²Ł": 1565,
      "é¹": 1566,
      "å²Ľ": 1567,
      "åºŁ": 1568,
      "çİī": 1569,
      "è¡Ģ": 1570,
      "one": 1571,
      "è®¨": 1572,
      "åįĸ": 1573,
      "è¾ĸ": 1574,
      "ph": 1575,
      "åĥı": 1576,
      "æ¸ł": 1577,
      "æĻļ": 1578,
      "æ£®": 1579,
      "um": 1580,
      "Ġn": 1581,
      "ä»į": 1582,
      "80": 1583,
      "ber": 1584,
      "éĤ®": 1585,
      "è¯ļ": 1586,
      "åĩĢ": 1587,
      "çŁ¿": 1588,
      "æĿ¾": 1589,
      "çĽĺ": 1590,
      "çĶ·": 1591,
      "è°¢": 1592,
      "æļĸ": 1593,
      "Ġnum": 1594,
      "31": 1595,
      "ç¼º": 1596,
      "ãĢĶ": 1597,
      "çĥĪ": 1598,
      "åºĦ": 1599,
      "Ġæį®": 1600,
      "ãĢķ": 1601,
      "æĤī": 1602,
      "éº": 1603,
      "åĲī": 1604,
      "æ¬§": 1605,
      "æĽ¾": 1606,
      "å°ļ": 1607,
      "éĨ": 1608,
      "å®ĥ": 1609,
      "å¦ĩ": 1610,
      "èĪŀ": 1611,
      "å¤ı": 1612,
      "çĩĥ": 1613,
      "åĸľ": 1614,
      "çºł": 1615,
      "Ġä¼ļ": 1616,
      "åĨ¬": 1617,
      "ç¬Ķ": 1618,
      "å¹¸": 1619,
      "æ²¿": 1620,
      "éĩĬ": 1621,
      "å¥¥": 1622,
      "70": 1623,
      "èĪ¹": 1624,
      "åĳ³": 1625,
      "æĹ¢": 1626,
      "æµĻ": 1627,
      "çĳ": 1628,
      "åĪļ": 1629,
      "æĮĤ": 1630,
      "å½Ĵ": 1631,
      "å²¸": 1632,
      "æĭ¥": 1633,
      "èĸ": 1634,
      "35": 1635,
      "å¤ľ": 1636,
      "æ´ĭ": 1637,
      "è¸": 1638,
      "Ġ5": 1639,
      "**": 1640,
      "å´": 1641,
      "ç»Ŀ": 1642,
      "æĢĢ": 1643,
      "çĥŁ": 1644,
      "æĹ§": 1645,
      "æ½®": 1646,
      "åĲ¨": 1647,
      "åĲĥ": 1648,
      "è°ĭ": 1649,
      "éĴ±": 1650,
      "èĹı": 1651,
      "åĭĩ": 1652,
      "é²ľ": 1653,
      "é©¶": 1654,
      "éī": 1655,
      "éī´": 1656,
      "çĽĽ": 1657,
      "æĹĹ": 1658,
      "æĴĳ": 1659,
      "æ¶¦": 1660,
      "å·¦": 1661,
      "å¹ķ": 1662,
      "æ¯į": 1663,
      "åĲ´": 1664,
      "é¡¾": 1665,
      "çĽŁ": 1666,
      "æĬ¢": 1667,
      "å¤«": 1668,
      "éĴŁ": 1669,
      "éŃ": 1670,
      "æ¢ģ": 1671,
      "ww": 1672,
      "åĪĳ": 1673,
      "æŀ¶": 1674,
      "åİļ": 1675,
      "æ°Ľ": 1676,
      "å¾Ħ": 1677,
      "è¿Ķ": 1678,
      "%ï¼Ľ": 1679,
      "æ´ª": 1680,
      "æ±ł": 1681,
      "45": 1682,
      "éģ¿": 1683,
      "åĺī": 1684,
      "åı³": 1685,
      "æĿŁ": 1686,
      "ele": 1687,
      "æĿĤ": 1688,
      "å®Ĺ": 1689,
      "æī£": 1690,
      "å°ģ": 1691,
      "èĥĮ": 1692,
      "æĬ½": 1693,
      "èµĶ": 1694,
      "æŃĮ": 1695,
      "tele": 1696,
      "2017": 1697,
      "å¹¼": 1698,
      "éĿł": 1699,
      "åĨ°": 1700,
      "éĢĶ": 1701,
      "æŃ»": 1702,
      "èĭ¥": 1703,
      "æ³Ľ": 1704,
      "åľ³": 1705,
      "è¿ģ": 1706,
      "åĨ²": 1707,
      "æĪı": 1708,
      "å¨ģ": 1709,
      "æ¶¨": 1710,
      "éĴ¢": 1711,
      "ä¹ħ": 1712,
      "å¾Ĳ": 1713,
      "90": 1714,
      "æ³°": 1715,
      "æķ£": 1716,
      "æĭį": 1717,
      "ç¤¼": 1718,
      "éĺħ": 1719,
      "çħ¤": 1720,
      "èª": 1721,
      "èĳĹ": 1722,
      "Ġä¸º": 1723,
      "æĻĵ": 1724,
      "è·ĳ": 1725,
      "æľĿ": 1726,
      "æī«": 1727,
      "Ġä¸Ń": 1728,
      "500": 1729,
      "ç¡¬": 1730,
      "æĽ²": 1731,
      "36": 1732,
      "åľĪ": 1733,
      "å®½": 1734,
      "æ½ľ": 1735,
      "çªĹ": 1736,
      "éĽ·": 1737,
      "æ¢°": 1738,
      "åı¶": 1739,
      "æ®Ĭ": 1740,
      "åĳ¼": 1741,
      "çīµ": 1742,
      "éĺµ": 1743,
      "æ¾³": 1744,
      "åĭ¤": 1745,
      "æĲŃ": 1746,
      "éħ¸": 1747,
      "çķħ": 1748,
      "åĩĿ": 1749,
      "åĭŁ": 1750,
      "ä¼Ļ": 1751,
      "éĥĳ": 1752,
      "èĢķ": 1753,
      "éĶĻ": 1754,
      "æİĮ": 1755,
      "ç®±": 1756,
      "èĻļ": 1757,
      "å¾½": 1758,
      "èµµ": 1759,
      "ç©¿": 1760,
      "å·¨": 1761,
      "å°Ħ": 1762,
      "åĵĪ": 1763,
      "éĤĢ": 1764,
      "çīĽ": 1765,
      "ä½³": 1766,
      "è§Ī": 1767,
      "ĠåĽĽ": 1768,
      "éĢı": 1769,
      "æĭ¿": 1770,
      "æ¦Ĥ": 1771,
      "ç§ĺ": 1772,
      "ÃĹ": 1773,
      "éģµ": 1774,
      "å¡«": 1775,
      "èĴĻ": 1776,
      "èĤ¥": 1777,
      "ï¼ļ[": 1778,
      "å§ĵ": 1779,
      "è¾ħ": 1780,
      "éĨĴ": 1781,
      "å«": 1782,
      "æļĤ": 1783,
      "æľĭ": 1784,
      "çĶĺ": 1785,
      "èĤĥ": 1786,
      "ä¼´": 1787,
      "éŁ©": 1788,
      "æ¢¦": 1789,
      "èµ´": 1790,
      "éľĩ": 1791,
      "èĤī": 1792,
      "å£®": 1793,
      "çģµ": 1794,
      "æľ«": 1795,
      "çĸĨ": 1796,
      "ç§ģ": 1797,
      "æ³ī": 1798,
      "åį´": 1799,
      "éĩİ": 1800,
      "è·Ŀ": 1801,
      "33": 1802,
      "çģ¯": 1803,
      "çĹĩ": 1804,
      "èĵĿ": 1805,
      "éĶĭ": 1806,
      "å®¿": 1807,
      "èµ¢": 1808,
      "æ¢ħ": 1809,
      "éĽĦ": 1810,
      "é¡¶": 1811,
      "èĻ½": 1812,
      "è®¯": 1813,
      "¹ģ": 1814,
      "èµĭ": 1815,
      "æ¶µ": 1816,
      "æĿŃ": 1817,
      "ä¹Į": 1818,
      "éļĶ": 1819,
      "æļ´": 1820,
      "ç¹ģ": 1821,
      "ä¹ĺ": 1822,
      "çº¸": 1823,
      "å®¾": 1824,
      "ä¹±": 1825,
      "åŃĻ": 1826,
      "è½¯": 1827,
      "Ġ6": 1828,
      "2016": 1829,
      "æģ¢": 1830,
      "æ®ĸ": 1831,
      "å¾ª": 1832,
      "æĤ¨": 1833,
      "åĿĽ": 1834,
      "å½¹": 1835,
      "éª¨": 1836,
      "å°¼": 1837,
      "çĨŁ": 1838,
      "èªī": 1839,
      "éĹ²": 1840,
      "ãĢĲ": 1841,
      "æ»¨": 1842,
      "æ±Ľ": 1843,
      "300": 1844,
      "éĹŃ": 1845,
      "ç§ĭ": 1846,
      "ç±į": 1847,
      "ç¯ĩ": 1848,
      "å¼ĥ": 1849,
      "æĮĳ": 1850,
      "ãĢĳ": 1851,
      "é¾Ħ": 1852,
      "åį·": 1853,
      "åĩ½": 1854,
      "æĬµ": 1855,
      "å®ı": 1856,
      "æºª": 1857,
      "è¿ħ": 1858,
      "æµĵ": 1859,
      "èĦĳ": 1860,
      "åĨ·": 1861,
      "é±": 1862,
      "åĢį": 1863,
      "Ġé¡¹": 1864,
      "å¡Ķ": 1865,
      "è¯¯": 1866,
      "37": 1867,
      "é±¼": 1868,
      "è¾ī": 1869,
      "çĳŀ": 1870,
      "34": 1871,
      "ä¿Ħ": 1872,
      "åºĬ": 1873,
      "99": 1874,
      "èĥ¡": 1875,
      "ç¼ĵ": 1876,
      "åĵª": 1877,
      "æļ¨": 1878,
      "å¿ł": 1879,
      "åĳĪ": 1880,
      "å·©": 1881,
      "æ²ī": 1882,
      "çĪ¶": 1883,
      "è¡¡": 1884,
      "çĪĨ": 1885,
      "çĤİ": 1886,
      "38": 1887,
      "å¯»": 1888,
      "è°·": 1889,
      "éªĹ": 1890,
      "èħĲ": 1891,
      "å¼±": 1892,
      "ur": 1893,
      "æĭĨ": 1894,
      "ä¾§": 1895,
      "èľ": 1896,
      "Ġ(": 1897,
      "å¥ĩ": 1898,
      "ç¥Ŀ": 1899,
      "æĮĸ": 1900,
      "çĽ¾": 1901,
      "Ġåħ¬": 1902,
      "__": 1903,
      "çĶ²": 1904,
      "èĤº": 1905,
      "è§¦": 1906,
      "ç¼©": 1907,
      "æĩ": 1908,
      "èĻĳ": 1909,
      "å©ļ": 1910,
      "å®ĩ": 1911,
      "âĳ": 1912,
      "ä¸Ŀ": 1913,
      "æ´Ĺ": 1914,
      "48": 1915,
      "é²ģ": 1916,
      "ä¼Ĭ": 1917,
      "Ġå¸Ĥ": 1918,
      "ï¼İ": 1919,
      "èĽ": 1920,
      "èĤ¯": 1921,
      "2015": 1922,
      "ä¼¼": 1923,
      "æľ±": 1924,
      "åĿĲ": 1925,
      "äº¡": 1926,
      "éĿĻ": 1927,
      "ä¾µ": 1928,
      "æķ¬": 1929,
      "æ¼ı": 1930,
      "æ¯Ľ": 1931,
      "æµ¦": 1932,
      "æµª": 1933,
      "75": 1934,
      "ĠæŃ¤": 1935,
      "èįĲ": 1936,
      "åħ¼": 1937,
      "åľĨ": 1938,
      "åĶ±": 1939,
      "2000": 1940,
      "åĩŃ": 1941,
      "æĬĺ": 1942,
      "æħ¢": 1943,
      "èĭ¦": 1944,
      "æĬ«": 1945,
      "åīĤ": 1946,
      "æĲº": 1947,
      "æį·": 1948,
      "Ġ7": 1949,
      "åĶĲ": 1950,
      "å½°": 1951,
      "å¼ĺ": 1952,
      "é¦Ī": 1953,
      "æĢİ": 1954,
      "ä¸¹": 1955,
      "url": 1956,
      "æģ¶": 1957,
      "39": 1958,
      "è¶ĭ": 1959,
      "éĻķ": 1960,
      "åĩ¡": 1961,
      "çıł": 1962,
      "ç²ī": 1963,
      "åĢĴ": 1964,
      "åİ¦": 1965,
      "çŁĽ": 1966,
      "æ¹¿": 1967,
      "å°¤": 1968,
      "éĵľ": 1969,
      "ĠãĢĬ": 1970,
      "å±ı": 1971,
      "æĿľ": 1972,
      "æ¢¯": 1973,
      "çŀ": 1974,
      "46": 1975,
      "çļ®": 1976,
      "èµģ": 1977,
      "å¡ĳ": 1978,
      "èĨ": 1979,
      "çĮª": 1980,
      "1000": 1981,
      "çī§": 1982,
      "è¾½": 1983,
      "åģı": 1984,
      "æłı": 1985,
      "09": 1986,
      "æĿ°": 1987,
      "æ»ĳ": 1988,
      "è¯Ī": 1989,
      "è¿¹": 1990,
      "ĠäºĶ": 1991,
      "äºķ": 1992,
      "å«Į": 1993,
      "åĢ¡": 1994,
      "æ¸Ĳ": 1995,
      "éĻµ": 1996,
      "èĶ¬": 1997,
      "éĢ¾": 1998,
      "æ¬ł": 1999,
      "32": 2000,
      "55": 2001,
      "Ġè¿ĳ": 2002,
      "æĬ¼": 2003,
      "08": 2004,
      "cn": 2005,
      "çĽĲ": 2006,
      "èµ¶": 2007,
      "æķ¢": 2008,
      "æģĴ": 2009,
      "åĿ¡": 2010,
      "å¼¹": 2011,
      "æ³½": 2012,
      "éĵº": 2013,
      "è¯Ĺ": 2014,
      "ä»ģ": 2015,
      "æĳ¸": 2016,
      "98": 2017,
      "65": 2018,
      "èµŀ": 2019,
      "95": 2020,
      "ç«¹": 2021,
      "åĬ²": 2022,
      "07": 2023,
      "æĭĴ": 2024,
      "è¯į": 2025,
      "ç£ĭ": 2026,
      "è¶£": 2027,
      "68": 2028,
      "ä»ĵ": 2029,
      "ä¿Ĺ": 2030,
      "æħ°": 2031,
      "ĠÂ·": 2032,
      "æĺĨ": 2033,
      "å¥ĳ": 2034,
      "çİ©": 2035,
      "éĽħ": 2036,
      "å¦Ī": 2037,
      "çĶļ": 2038,
      "è°Ĳ": 2039,
      "èĦļ": 2040,
      "ä½Ľ": 2041,
      "ä¼ı": 2042,
      "Ġä»Ĭ": 2043,
      "æİĺ": 2044,
      "44": 2045,
      "æ¶²": 2046,
      "è·ĥ": 2047,
      "æ¦ľ": 2048,
      "å¢Ļ": 2049,
      "éģį": 2050,
      "Ġ8": 2051,
      "åĿĬ": 2052,
      "æģ©": 2053,
      "in": 2054,
      "éº¦": 2055,
      "å®ħ": 2056,
      "æĹ¨": 2057,
      "ç§©": 2058,
      "æ²Ī": 2059,
      "åĩ¤": 2060,
      "éļĨ": 2061,
      "ç¥¥": 2062,
      "é¡µ": 2063,
      "06": 2064,
      "éĶ¦": 2065,
      "æ··": 2066,
      "çĸı": 2067,
      "æĿ¯": 2068,
      "è¡Ķ": 2069,
      "æįĲ": 2070,
      "47": 2071,
      "Ġ10": 2072,
      "æĳĨ": 2073,
      "æĪ´": 2074,
      "çº½": 2075,
      "è´¥": 2076,
      "ç²¤": 2077,
      "ç¥ĸ": 2078,
      "ç¨¿": 2079,
      "Ġæĸ°": 2080,
      "æ¡Ĥ": 2081,
      "å¯¿": 2082,
      "ä¼¦": 2083,
      "çĤ¼": 2084,
      "è²": 2085,
      "æķı": 2086,
      "å¿Ļ": 2087,
      "éĺ»": 2088,
      "www": 2089,
      "æ¨ª": 2090,
      "å²Ń": 2091,
      "åĿı": 2092,
      "05": 2093,
      "èħ¾": 2094,
      "ç»ĺ": 2095,
      "å¿ĺ": 2096,
      "èļ": 2097,
      "é¥Ń": 2098,
      "è²Į": 2099,
      "è½¨": 2100,
      "æ¸Ķ": 2101,
      "è¡£": 2102,
      "æ´ŀ": 2103,
      "è¾©": 2104,
      "ä»²": 2105,
      "çĵ¦": 2106,
      "è¿Ī": 2107,
      "å°Ĭ": 2108,
      "åĪ·": 2109,
      "æĲ¬": 2110,
      "çıį": 2111,
      "æľĹ": 2112,
      "éĥŃ": 2113,
      "è¸ª": 2114,
      "Ġè¿Ļ": 2115,
      "ä¹İ": 2116,
      "æ¸Ŀ": 2117,
      "49": 2118,
      "æ´Ľ": 2119,
      "01": 2120,
      "é©±": 2121,
      "2014": 2122,
      "æĭĶ": 2123,
      "è°ģ": 2124,
      "66": 2125,
      "æĸ¤": 2126,
      "85": 2127,
      "æ·»": 2128,
      "æĻĭ": 2129,
      "éº»": 2130,
      "å®ª": 2131,
      "çģŃ": 2132,
      "æ¡ĥ": 2133,
      "é¢ģ": 2134,
      "æĴ¤": 2135,
      "å¡ĺ": 2136,
      "Ġå¯¹": 2137,
      "æ¹ĺ": 2138,
      "Ġæł¹": 2139,
      "å®ĭ": 2140,
      "ç¬ĳ": 2141,
      "æĳ©": 2142,
      "æ¥ļ": 2143,
      "..": 2144,
      "Ġéĩĩ": 2145,
      "æıı": 2146,
      "éŀ": 2147,
      "æ¢³": 2148,
      "ä¹Ļ": 2149,
      "åĢ¾": 2150,
      "å¥¶": 2151,
      "æħĪ": 2152,
      "è¿ª": 2153,
      "Ġ[": 2154,
      "ä¾¨": 2155,
      "æ³¥": 2156,
      "78": 2157,
      "æ°§": 2158,
      "ç¨»": 2159,
      "åĿ¦": 2160,
      "çĴ": 2161,
      "ç¿»": 2162,
      "96": 2163,
      "èķ": 2164,
      "Ġå½ĵ": 2165,
      "å¯Ħ": 2166,
      "å°ĺ": 2167,
      "Ġåľ°": 2168,
      "ä¼¸": 2169,
      "æĤŁ": 2170,
      "æ£ļ": 2171,
      "]ï¼ī": 2172,
      "æĬļ": 2173,
      "åĩĮ": 2174,
      "å´ĩ": 2175,
      "04": 2176,
      "æĿĨ": 2177,
      "éĻª": 2178,
      "èµł": 2179,
      "ĠåħŃ": 2180,
      "åĵ¥": 2181,
      "åĶ¯": 2182,
      "éĻ¶": 2183,
      "éĶģ": 2184,
      "èĢĹ": 2185,
      "èĥŀ": 2186,
      "èĽĭ": 2187,
      "æĻ¨": 2188,
      "go": 2189,
      "±ä¹Ĳ": 2190,
      "éĶ¡": 2191,
      "èĪĴ": 2192,
      "æ·®": 2193,
      "å¥ī": 2194,
      "æłĭ": 2195,
      "42": 2196,
      "57": 2197,
      "æ¸¡": 2198,
      "58": 2199,
      "æıŃ": 2200,
      "é¸¡": 2201,
      "56": 2202,
      "Ġ9": 2203,
      "è¾ŀ": 2204,
      "åłµ": 2205,
      "59": 2206,
      "æĺ¨": 2207,
      "èĦī": 2208,
      "è¿«": 2209,
      "æĳĺ": 2210,
      "å¿Ĩ": 2211,
      "400": 2212,
      "é¥°": 2213,
      "Ġå¹´": 2214,
      "çīĻ": 2215,
      "æĹ¦": 2216,
      "ç§¦": 2217,
      "æĿĢ": 2218,
      "æ¯«": 2219,
      "æĭ¼": 2220,
      "å²©": 2221,
      "é¹ı": 2222,
      "çºµ": 2223,
      "å»Ĭ": 2224,
      "å°¾": 2225,
      "çĥ§": 2226,
      "--": 2227,
      "æĹ±": 2228,
      "ç³ĸ": 2229,
      "76": 2230,
      "åĪĬ": 2231,
      "88": 2232,
      "çģĮ": 2233,
      "çĺ": 2234,
      "å¡ŀ": 2235,
      "%ãĢģ": 2236,
      "é¡¿": 2237,
      "43": 2238,
      "è·Į": 2239,
      "ç¢į": 2240,
      "èĲ¨": 2241,
      "03": 2242,
      "æĪĴ": 2243,
      "éĤ»": 2244,
      "çķľ": 2245,
      "è¹": 2246,
      "èĪį": 2247,
      "æ¼«": 2248,
      "åİī": 2249,
      "éģŃ": 2250,
      "è¿·": 2251,
      "åı«": 2252,
      "çĽ¯": 2253,
      "gov": 2254,
      "Ġåħ¨": 2255,
      "çĹĽ": 2256,
      "ç¾Ĭ": 2257,
      "åĿĿ": 2258,
      "å¥Ķ": 2259,
      "åłĨ": 2260,
      "41": 2261,
      "åĭĺ": 2262,
      "å¤¯": 2263,
      "è±Ĩ": 2264,
      "æµ©": 2265,
      "ÃĹÃĹ": 2266,
      "é»İ": 2267,
      "èĸª": 2268,
      "2013": 2269,
      "ĠåĽ½": 2270,
      "ç¯®": 2271,
      "Ġç»ı": 2272,
      "æĸĮ": 2273,
      "Ġèĩª": 2274,
      "Ġåįģ": 2275,
      "97": 2276,
      "è´º": 2277,
      "Ġä»İ": 2278,
      "å¯Ĵ": 2279,
      "æĥ¯": 2280,
      "æŁ³": 2281,
      "èĸĦ": 2282,
      "ĊĠĊ": 2283,
      "PP": 2284,
      "æĥ©": 2285,
      "å®«": 2286,
      "è¾Ľ": 2287,
      "èµı": 2288,
      "éĺ´": 2289,
      "åĭĴ": 2290,
      "éķľ": 2291,
      "èĢĲ": 2292,
      "é»ĺ": 2293,
      "ĠãĢĲ": 2294,
      "67": 2295,
      "Ġ11": 2296,
      "é¸Ł": 2297,
      "3000": 2298,
      "æļĳ": 2299,
      "Ġä¸į": 2300,
      "Ġ12": 2301,
      "æįķ": 2302,
      "0000": 2303,
      "å¤º": 2304,
      "çĨĬ": 2305,
      "åĪº": 2306,
      "Ġä¸ĭ": 2307,
      "Ġåħ¶": 2308,
      "èī°": 2309,
      "éĴ¦": 2310,
      "è±ª": 2311,
      "ĠæĹ¥": 2312,
      "èıĮ": 2313,
      "åĩī": 2314,
      "å²³": 2315,
      "è´Ŀ": 2316,
      "çº¯": 2317,
      "æ¬£": 2318,
      "è°±": 2319,
      "ĠæĪĳ": 2320,
      "2012": 2321,
      "æ§": 2322,
      "ä¸ģ": 2323,
      "æĹº": 2324,
      "è·³": 2325,
      "ä¼Ĳ": 2326,
      "åı¥": 2327,
      "02": 2328,
      "æĽ¹": 2329,
      "æµ®": 2330,
      "æĩĤ": 2331,
      "å¿§": 2332,
      "å·§": 2333,
      "86": 2334,
      "ĠæĳĦ": 2335,
      "Ġä»¥": 2336,
      "å¯¨": 2337,
      "è£ķ": 2338,
      "52": 2339,
      "ĠåĲĦ": 2340,
      "åĩ¯": 2341,
      "æĽ¿": 2342,
      "æĲľ": 2343,
      "120": 2344,
      "çĵ¶": 2345,
      "èĪŁ": 2346,
      "æĭĸ": 2347,
      "è¾ĳ": 2348,
      "ç¼ĺ": 2349,
      "éĦ": 2350,
      "Ġçİĭ": 2351,
      "ä¿Ĭ": 2352,
      "è¸ı": 2353,
      "æĥĬ": 2354,
      "èĻ«": 2355,
      "èĻİ": 2356,
      "æ¶Ľ": 2357,
      "èĮĤ": 2358,
      "87": 2359,
      "54": 2360,
      "å°ĸ": 2361,
      "Ġä¸ĩ": 2362,
      "****": 2363,
      "ĠèģĶ": 2364,
      "èĥ¶": 2365,
      "è¢ĭ": 2366,
      "æģĲ": 2367,
      "Ġä¸Ĭ": 2368,
      "èĢ³": 2369,
      "èį·": 2370,
      "è´¤": 2371,
      "çĽĪ": 2372,
      "ï¼Ī[": 2373,
      "5000": 2374,
      "èµ£": 2375,
      "re": 2376,
      "è¿Ł": 2377,
      "ç«£": 2378,
      "77": 2379,
      "è¯¸": 2380,
      "æŀ¢": 2381,
      "åĲĽ": 2382,
      "æĹģ": 2383,
      "èİ±": 2384,
      "åĲĹ": 2385,
      "åł¡": 2386,
      "89": 2387,
      "å¼Ł": 2388,
      "åĨ»": 2389,
      "å£ģ": 2390,
      "Ġä¸ĥ": 2391,
      "åĿª": 2392,
      "åħĳ": 2393,
      "èĬ¯": 2394,
      "ĠéĢļ": 2395,
      "éĺĶ": 2396,
      "600": 2397,
      "53": 2398,
      "an": 2399,
      "åİķ": 2400,
      "ĠåĲĮ": 2401,
      "åĨĴ": 2402,
      "ħåĬĽ": 2403,
      "Ġå¦Ĥ": 2404,
      "Ġä½ľ": 2405,
      "æī°": 2406,
      "Ġè®°": 2407,
      "69": 2408,
      "çĽ¼": 2409,
      "æ¶Į": 2410,
      "èĵĦ": 2411,
      "äº¦": 2412,
      "____": 2413,
      "éªĳ": 2414,
      "ç¡ķ": 2415,
      "ĠæĿİ": 2416,
      "ä¼¯": 2417,
      "2025": 2418,
      "èĬ³": 2419,
      "èĶ¡": 2420,
      "åŃĶ": 2421,
      "Ġå¤§": 2422,
      "éĵ¸": 2423,
      "å³¡": 2424,
      "51": 2425,
      "æ©": 2426,
      "ç½©": 2427,
      "èĦ¸": 2428,
      "çĩķ": 2429,
      "å¾Ĵ": 2430,
      "çĵľ": 2431,
      "çĿ¡": 2432,
      "2011": 2433,
      "73": 2434,
      "CA": 2435,
      "çŃĽ": 2436,
      "èİ«": 2437,
      "Ġæ´»": 2438,
      "150": 2439,
      "79": 2440,
      "å§Ĳ": 2441,
      "èĪĨ": 2442,
      "åĳ¢": 2443,
      "ä¹ı": 2444,
      "éĻ·": 2445,
      "å¦»": 2446,
      "å£¤": 2447,
      "åĲ§": 2448,
      "æŀĿ": 2449,
      "å½Ń": 2450,
      "æĤ¦": 2451,
      "é¸£": 2452,
      "Ġ09": 2453,
      "Ġâĳ": 2454,
      "éĶ»": 2455,
      "éĤ¦": 2456,
      "62": 2457,
      "å··": 2458,
      "72": 2459,
      "æĲŀ": 2460,
      "åĪĢ": 2461,
      "ĠåĬł": 2462,
      "æĻ°": 2463,
      "it": 2464,
      "éĢĥ": 2465,
      "çĻĮ": 2466,
      "æħİ": 2467,
      "æ»©": 2468,
      "ĠçĽ®": 2469,
      "Ġå¼ł": 2470,
      "å¾¡": 2471,
      "å¢¨": 2472,
      "Ġå»º": 2473,
      "çĤ¸": 2474,
      "93": 2475,
      "åĨĢ": 2476,
      "å°Ŀ": 2477,
      "64": 2478,
      "åħģ": 2479,
      ")ãĢĤ": 2480,
      "ĠæĪª": 2481,
      "ç»µ": 2482,
      "å¦¥": 2483,
      "çĮ«": 2484,
      "æĻ¶": 2485,
      "æłª": 2486,
      "82": 2487,
      "æİī": 2488,
      "æĽ¼": 2489,
      "ï½": 2490,
      "æ½Ń": 2491,
      "63": 2492,
      "ç£¨": 2493,
      "ä¹³": 2494,
      "83": 2495,
      "çļĩ": 2496,
      "ä¾¦": 2497,
      "æŁĶ": 2498,
      "æĳĬ": 2499,
      "Ġï¼Į": 2500,
      "æ¡Ĩ": 2501,
      "é»Ķ": 2502,
      "åľ£": 2503,
      "92": 2504,
      "åŃµ": 2505,
      "å¥ı": 2506,
      "ï¼ħ": 2507,
      "71": 2508,
      "Ġé¢Ħ": 2509,
      "84": 2510,
      "èİ²": 2511,
      "ä½©": 2512,
      "è¢Ń": 2513,
      "æĹ¬": 2514,
      "æ¡Į": 2515,
      "äºŃ": 2516,
      "94": 2517,
      "æ²ª": 2518,
      "ç´«": 2519,
      "ç¢ĳ": 2520,
      ")ãĢģ": 2521,
      "èĢĢ": 2522,
      "çĤŃ": 2523,
      "çĭł": 2524,
      "Ġåıĳ": 2525,
      "Ġäºº": 2526,
      "Ġ19": 2527,
      "åįĵ": 2528,
      "æŀª": 2529,
      "ç§Ĵ": 2530,
      "PM": 2531,
      "il": 2532,
      "XX": 2533,
      "è°Ĭ": 2534,
      "èī³": 2535,
      "110": 2536,
      "éĳ": 2537,
      "æŁľ": 2538,
      "æļĹ": 2539,
      "èĨľ": 2540,
      "éĳ«": 2541,
      "AI": 2542,
      "800": 2543,
      "æķ¦": 2544,
      "Ġå¼Ģ": 2545,
      "ĠæĬķ": 2546,
      "æ½ĺ": 2547,
      "æ±ª": 2548,
      "æŁ±": 2549,
      "çĭ±": 2550,
      "æĢķ": 2551,
      "é¢Ĺ": 2552,
      "æĬ±": 2553,
      "ç»ª": 2554,
      "æĭľ": 2555,
      "æ¯ģ": 2556,
      "ĠåĮĹ": 2557,
      "èī¾": 2558,
      "ĠåĲĪ": 2559,
      "åīĳ": 2560,
      "çķª": 2561,
      "åĭĥ": 2562,
      "é¢ľ": 2563,
      "èģĬ": 2564,
      "åī©": 2565,
      "ĠæĹ¶": 2566,
      "ï½ŀ": 2567,
      "74": 2568,
      "è°ĵ": 2569,
      "ma": 2570,
      "éĢ»": 2571,
      "åıī": 2572,
      "æĹĭ": 2573,
      "èµĸ": 2574,
      "ç¢§": 2575,
      "åİ¨": 2576,
      "æĦģ": 2577,
      "éľŀ": 2578,
      "ç¦½": 2579,
      "çº²": 2580,
      "èı²": 2581,
      "åĸ·": 2582,
      "åĤ¬": 2583,
      "æ·Ģ": 2584,
      "ç¿Ķ": 2585,
      "æĻ´": 2586,
      "åŃĿ": 2587,
      "]ãĢĤ": 2588,
      "ä¸²": 2589,
      "å¼Ħ": 2590,
      "ell": 2591,
      "èĭĳ": 2592,
      "ĠâĢĶ": 2593,
      "æ±Ĺ": 2594,
      "ch": 2595,
      "éŃı": 2596,
      "Ġéļı": 2597,
      "çĤī": 2598,
      "èĤ©": 2599,
      "81": 2600,
      "å©´": 2601,
      "61": 2602,
      "æµ¸": 2603,
      "éĽķ": 2604,
      "åī²": 2605,
      "åģ¶": 2606,
      "Ġä¸»": 2607,
      "æıĴ": 2608,
      "æ±¤": 2609,
      "éŃĤ": 2610,
      "æĩĪ": 2611,
      "éĶħ": 2612,
      "æĳĩ": 2613,
      "Ľèµ·": 2614,
      "éĿĸ": 2615,
      "çĽĹ": 2616,
      "è¾Ĳ": 2617,
      "èĪ¶": 2618,
      "é¹¤": 2619,
      "åĮ¹": 2620,
      "èĤĸ": 2621,
      "çħĮ": 2622,
      "åĸĿ": 2623,
      "å¥ł": 2624,
      "ĠãĢĤ": 2625,
      "èįĨ": 2626,
      "åį¢": 2627,
      "123": 2628,
      "Ġåħ«": 2629,
      "ĠæĭĽ": 2630,
      "co": 2631,
      "ĠæľĢ": 2632,
      "åĬ£": 2633,
      "æĴŀ": 2634,
      "Ġèĩ³": 2635,
      "2010": 2636,
      "91": 2637,
      "æ¯ħ": 2638,
      "çĪ¸": 2639,
      "å§¿": 2640,
      "ĠæĹł": 2641,
      "æĭ³": 2642,
      "çĬ¬": 2643,
      "åŃķ": 2644,
      "ç²Ĵ": 2645,
      "éĤĵ": 2646,
      "ä¹ĥ": 2647,
      "é¸¿": 2648,
      "Ġåħ³": 2649,
      "æĶĢ": 2650,
      "),": 2651,
      "å¯º": 2652,
      "æº¯": 2653,
      "ç¢°": 2654,
      "ä»Ļ": 2655,
      "èĳ¡": 2656,
      "æ²§": 2657,
      "çłĸ": 2658,
      "èİŀ": 2659,
      "èĻ¹": 2660,
      "çĲ´": 2661,
      "èķ´": 2662,
      "åĴĸ": 2663,
      "åŁĥ": 2664,
      "åĺ±": 2665,
      "åĨ¯": 2666,
      "Ġæľī": 2667,
      "æ»´": 2668,
      "Ġå¹¿": 2669,
      "ç«Ł": 2670,
      "æ»ĭ": 2671,
      "éĦĤ": 2672,
      "æ²ĥ": 2673,
      "çºº": 2674,
      "æ°¢": 2675,
      "çŁ©": 2676,
      "cell": 2677,
      "Ġéĩį": 2678,
      "çĶľ": 2679,
      "ç¼Ŀ": 2680,
      "æ»ļ": 2681,
      "Ġ15": 2682,
      "åŃŁ": 2683,
      "å³»": 2684,
      "Ġå·¥": 2685,
      "æ£ĭ": 2686,
      "æ³Ĭ": 2687,
      "åĮł": 2688,
      "èĲĦ": 2689,
      "é¥±": 2690,
      "ĠæľĪ": 2691,
      "çłĤ": 2692,
      "Ġè¯¥": 2693,
      "æĤ¬": 2694,
      "å¯ĵ": 2695,
      "çİ²": 2696,
      "åĲĬ": 2697,
      "ä»Ķ": 2698,
      "æŁ´": 2699,
      "åŃ¤": 2700,
      "æ°ı": 2701,
      "èĲį": 2702,
      "åıł": 2703,
      "åĬĿ": 2704,
      "èµ¤": 2705,
      "ĠåĪĺ": 2706,
      "èĵ¬": 2707,
      "APP": 2708,
      "åºĻ": 2709,
      "åĻª": 2710,
      "æ¡ĳ": 2711,
      "èĪ°": 2712,
      "åĲķ": 2713,
      "å§ľ": 2714,
      "é©³": 2715,
      "å§ļ": 2716,
      "éħ¬": 2717,
      "ä»¿": 2718,
      "çĪ·": 2719,
      "å°º": 2720,
      "èĬľ": 2721,
      "æ¾Ħ": 2722,
      "ĠæĬ¥": 2723,
      "è¾Ī": 2724,
      "åŁĭ": 2725,
      "éĢĨ": 2726,
      "é©¿": 2727,
      "è£Ĥ": 2728,
      "çĽ²": 2729,
      "è¢ģ": 2730,
      "æ¶Ĥ": 2731,
      "èįĴ": 2732,
      "åµ": 2733,
      "æķĮ": 2734,
      "Ġçī¹": 2735,
      "æ³¡": 2736,
      "èĴĭ": 2737,
      "ä»°": 2738,
      "çĲ¼": 2739,
      "æ±ķ": 2740,
      "éĹ¹": 2741,
      "å§Ĩ": 2742,
      "ç§ī": 2743,
      "åĿĳ": 2744,
      "éĶĲ": 2745,
      "å¤ķ": 2746,
      "åīª": 2747,
      "åł¤": 2748,
      "è´¿": 2749,
      "æĹŃ": 2750,
      "å±¯": 2751,
      "æł½": 2752,
      "éĹª": 2753,
      "ãĢĭ,": 2754,
      "æº¢": 2755,
      "å®´": 2756,
      "çĽĴ": 2757,
      "çģ°": 2758,
      "çĵ·": 2759,
      "æ·¡": 2760,
      "ĠæĮī": 2761,
      "éĺĲ": 2762,
      "æ·ĺ": 2763,
      "å½¬": 2764,
      "éļ§": 2765,
      "çİ»": 2766,
      "éĤµ": 2767,
      "en": 2768,
      "æĵħ": 2769,
      "è°¨": 2770,
      "åĲ¹": 2771,
      "è¾Ł": 2772,
      "æ³³": 2773,
      "è½´": 2774,
      "åĺ´": 2775,
      "çİĽ": 2776,
      "æĮº": 2777,
      "2009": 2778,
      "æĵ¦": 2779,
      "äºı": 2780,
      "èħ¿": 2781,
      "ĠéĻĪ": 2782,
      "åıĻ": 2783,
      "èį¡": 2784,
      "è¹Ī": 2785,
      "åĨĪ": 2786,
      "æĦĪ": 2787,
      "Ġ14": 2788,
      "ãĢĭ(": 2789,
      "åĲĲ": 2790,
      "é¢ĸ": 2791,
      "cc": 2792,
      "è´¾": 2793,
      "æ´½": 2794,
      "éŀį": 2795,
      "IP": 2796,
      "èĦı": 2797,
      "èħĶ": 2798,
      "ĠåĽ¾": 2799,
      "éĶĤ": 2800,
      "ĠæĽ´": 2801,
      "åĤħ": 2802,
      "èľľ": 2803,
      "ç£Ĭ": 2804,
      "éĺľ": 2805,
      "å§»": 2806,
      "é¥²": 2807,
      "éŁµ": 2808,
      "é¼İ": 2809,
      "éģı": 2810,
      "åķ¡": 2811,
      "2008": 2812,
      "åħ½": 2813,
      "ä¼ª": 2814,
      "éĥģ": 2815,
      "Ġé«ĺ": 2816,
      "ç¥Ń": 2817,
      "Ġçİ°": 2818,
      "ä¸ĺ": 2819,
      "æ¤Ĵ": 2820,
      "Ġæķ°": 2821,
      "ĠåĿļ": 2822,
      "æĭĺ": 2823,
      "ä¾¯": 2824,
      "èĦĤ": 2825,
      "å¢ĵ": 2826,
      "at": 2827,
      "èĿ": 2828,
      "æ³Ħ": 2829,
      "é¡·": 2830,
      "ç¾½": 2831,
      "ç§Ĩ": 2832,
      "èĳ¬": 2833,
      "åŀĴ": 2834,
      "èĤĩ": 2835,
      "æĨ": 2836,
      "çĶ¸": 2837,
      "æĽĿ": 2838,
      "Ġçľģ": 2839,
      "å¯¸": 2840,
      "éĽģ": 2841,
      "mail": 2842,
      "æ»ŀ": 2843,
      "Ġä¸İ": 2844,
      "ç§¸": 2845,
      "1500": 2846,
      "æ®·": 2847,
      "å¼¥": 2848,
      "éĵĿ": 2849,
      "çº¤": 2850,
      "èĤ¿": 2851,
      "åŁł": 2852,
      "å¦Ļ": 2853,
      "å·¾": 2854,
      "Ġæĸĩ": 2855,
      "è¾£": 2856,
      "é©°": 2857,
      "Ġè¡Į": 2858,
      "%ï¼ī": 2859,
      "pp": 2860,
      "³å·ŀ": 2861,
      "è¡·": 2862,
      "ç¼Ĩ": 2863,
      "è¾°": 2864,
      "åŀ«": 2865,
      "å¸ħ": 2866,
      "4000": 2867,
      "ãĢī": 2868,
      "çĴĥ": 2869,
      "ina": 2870,
      "ĠæıĲ": 2871,
      "Ġæ³¨": 2872,
      "é¦¨": 2873,
      "æ¼Ĥ": 2874,
      "é¹¿": 2875,
      "å¨ĺ": 2876,
      "æ¬º": 2877,
      "åĹ": 2878,
      "æ³¸": 2879,
      "Ġå®ŀ": 2880,
      "æĺĤ": 2881,
      "åĴ¸": 2882,
      "é¢Ī": 2883,
      "è±«": 2884,
      "å¨ľ": 2885,
      "éĹ½": 2886,
      "æ¡©": 2887,
      "âī": 2888,
      "å¸Ŀ": 2889,
      "æĲı": 2890,
      "ç¿¼": 2891,
      "çĺ¤": 2892,
      "%,": 2893,
      "èĩŃ": 2894,
      "ĠåĮº": 2895,
      "ç®Ń": 2896,
      "ç¨Ģ": 2897,
      "ãĢĪ": 2898,
      "éģĤ": 2899,
      "al": 2900,
      "æ¡Ĳ": 2901,
      "ĠåĪĨ": 2902,
      "Ġæİ¨": 2903,
      "ar": 2904,
      "çĦķ": 2905,
      "æ¡¶": 2906,
      "æĤł": 2907,
      "èĥģ": 2908,
      "éĵŃ": 2909,
      "Ġæ³ķ": 2910,
      "æīĳ": 2911,
      "æŁı": 2912,
      "çŁ«": 2913,
      "dit": 2914,
      "éĹ¸": 2915,
      "èĥ¸": 2916,
      "cre": 2917,
      "èĥİ": 2918,
      "Ġ20": 2919,
      "æı½": 2920,
      "èĪ±": 2921,
      "Ġè¯ģ": 2922,
      "éĴī": 2923,
      "æ¸Ĺ": 2924,
      "æĥĳ": 2925,
      "æģ°": 2926,
      "èªĵ": 2927,
      "æĸľ": 2928,
      "éĴ»": 2929,
      "æĮ¡": 2930,
      "å½¼": 2931,
      "èħ°": 2932,
      "Ġ-": 2933,
      "çļĸ": 2934,
      "éĽ¾": 2935,
      "Ġä¹Ŀ": 2936,
      "éģ´": 2937,
      "æĵİ": 2938,
      "âĢĿ,": 2939,
      "æ²Ĥ": 2940,
      "æ¬²": 2941,
      "Ġ16": 2942,
      "æ¶Ŀ": 2943,
      "æĥľ": 2944,
      "çľł": 2945,
      "å¦Ĩ": 2946,
      "æµħ": 2947,
      "æŀ«": 2948,
      "Ġæ·±": 2949,
      "æ£Ĵ": 2950,
      "ĠéĻ¤": 2951,
      "èĭ¹": 2952,
      "æĻĴ": 2953,
      "å¦¹": 2954,
      "åħĨ": 2955,
      "å´Ķ": 2956,
      "åĵ²": 2957,
      "ĠåįĹ": 2958,
      "âħ": 2959,
      "ç»£": 2960,
      "Ġåįķ": 2961,
      "Ġ30": 2962,
      "èİī": 2963,
      "é¥¶": 2964,
      "éĢ¢": 2965,
      "åĶ¤": 2966,
      "èľĤ": 2967,
      "Ġä¾Ľ": 2968,
      "mm": 2969,
      "ç»¸": 2970,
      "å¿½": 2971,
      "æŀ£": 2972,
      "Ġå¼º": 2973,
      "éľį": 2974,
      "Ġï¼ī": 2975,
      "çľī": 2976,
      "ä¹Ķ": 2977,
      "+âĢĿ": 2978,
      "éŀĭ": 2979,
      "130": 2980,
      "gp": 2981,
      "ï¼į": 2982,
      "èµĮ": 2983,
      "Ġè¦ģ": 2984,
      "å¸Ĩ": 2985,
      "èµ«": 2986,
      "èŁ": 2987,
      "æĬĸ": 2988,
      "Ġå®ī": 2989,
      "åħĦ": 2990,
      "è¾¨": 2991,
      "ï¼ĭ": 2992,
      "æľ´": 2993,
      "Ġ13": 2994,
      "æ¢¨": 2995,
      "çĮĽ": 2996,
      "ç¿ł": 2997,
      "éĨī": 2998,
      "ĠçĶµ": 2999,
      "èĤ¤": 3000,
      "éĹ¯": 3001,
      "æ£ī": 3002,
      "ç¢İ": 3003,
      "çĤĴ": 3004,
      "åĸĢ": 3005,
      "æ³µ": 3006,
      "åĿ¤": 3007,
      "ç£ģ": 3008,
      "é¢ĩ": 3009,
      "èĲĮ": 3010,
      "æ¼ł": 3011,
      "èĳĽ": 3012,
      "éŁ§": 3013,
      "com": 3014,
      "ä¸§": 3015,
      "åŀĤ": 3016,
      "åł°": 3017,
      "å©Ĩ": 3018,
      "æ¤ħ": 3019,
      "ĠæĪĲ": 3020,
      "2007": 3021,
      "Ġæľį": 3022,
      "Ġå°ı": 3023,
      "è¯ĳ": 3024,
      "çĥ¦": 3025,
      "Ġéķ¿": 3026,
      "Ġä¸ĵ": 3027,
      ")ï¼Į": 3028,
      "Ġæłĩ": 3029,
      "è¯±": 3030,
      "çĥ¤": 3031,
      "é³": 3032,
      "æ½į": 3033,
      "è¯ŀ": 3034,
      "èĤĿ": 3035,
      "çķı": 3036,
      "Ġ17": 3037,
      "¿¥": 3038,
      "ï¿¥": 3039,
      "6000": 3040,
      "èĥĨ": 3041,
      "é£ĺ": 3042,
      "é¸Ń": 3043,
      "éĥİ": 3044,
      "å¨ĥ": 3045,
      "700": 3046,
      "éĴ©": 3047,
      "....": 3048,
      "ĠåİŁ": 3049,
      "ĠåıĤ": 3050,
      "åĭī": 3051,
      "GD": 3052,
      "éĤ¹": 3053,
      "èĵī": 3054,
      "å½¦": 3055,
      "èĮħ": 3056,
      "Ġåħĥ": 3057,
      "Ġç¾İ": 3058,
      "ĠéĻĦ": 3059,
      "çĭĤ": 3060,
      "Ġå¤©": 3061,
      "å¸½": 3062,
      "èĤł": 3063,
      "éª¤": 3064,
      "Ġåħļ": 3065,
      "å¹¢": 3066,
      "çĲ³": 3067,
      "çĮ´": 3068,
      "æĸĳ": 3069,
      "è¥Ħ": 3070,
      "åĲģ": 3071,
      "éĤ±": 3072,
      "è°Ń": 3073,
      "å°¿": 3074,
      "èħ¹": 3075,
      "ccgp": 3076,
      "æİĢ": 3077,
      "èĬĿ": 3078,
      "Ġç½ĳ": 3079,
      "è¡į": 3080,
      "æĬĳ": 3081,
      "åĩ¸": 3082,
      "èīĩ": 3083,
      "éģ¥": 3084,
      "å¸ľ": 3085,
      "ç¡ħ": 3086,
      "æ»¤": 3087,
      "åķĬ": 3088,
      "èĬ¬": 3089,
      "ĠæĿ¥": 3090,
      "Ġè´£": 3091,
      "åį¸": 3092,
      "å§ĳ": 3093,
      "åħľ": 3094,
      "ç½Ĳ": 3095,
      "Ġæĺ¯": 3096,
      "or": 3097,
      "éŁ¦": 3098,
      "2006": 3099,
      "èŀº": 3100,
      "180": 3101,
      "ĠC": 3102,
      "æ´Ĵ": 3103,
      "æ¹Ľ": 3104,
      "åİĺ": 3105,
      "æ±²": 3106,
      "AèĤ¡": 3107,
      "èļĮ": 3108,
      "Ġæµ·": 3109,
      "æľµ": 3110,
      "åĨ¶": 3111,
      "ä»Ĺ": 3112,
      "ĠéĴĪ": 3113,
      "éľ¸": 3114,
      "æµĨ": 3115,
      "æĭ¾": 3116,
      "çªĥ": 3117,
      "åĩ°": 3118,
      "çªĳ": 3119,
      "Ġæĸ¹": 3120,
      "Ġä»ĸ": 3121,
      "åīĸ": 3122,
      "æŀļ": 3123,
      "æŁ¯": 3124,
      "å¼¯": 3125,
      "æģĭ": 3126,
      "çĬ¹": 3127,
      "Ġè¡¨": 3128,
      "ĠåĲį": 3129,
      "æįŀ": 3130,
      "å¨Ł": 3131,
      "çº¾": 3132,
      "éĥĬ": 3133,
      "ç²ª": 3134,
      "èľĢ": 3135,
      "Ġä¹ł": 3136,
      "å¹»": 3137,
      "å°¹": 3138,
      "çī²": 3139,
      "é¼»": 3140,
      "Açº§": 3141,
      "ç°": 3142,
      "åĲ¾": 3143,
      "æĻĸ": 3144,
      "çĦĬ": 3145,
      "æķ²": 3146,
      "ĠçĶ±": 3147,
      "æµĩ": 3148,
      "ç³ķ": 3149,
      "é¹°": 3150,
      "èĲ§": 3151,
      "èīĺ": 3152,
      "çĤ®": 3153,
      "èĸĽ": 3154,
      "]ï¼Į": 3155,
      "å¼¦": 3156,
      "ĠèµĦ": 3157,
      "æ³Ĺ": 3158,
      "ãİ": 3159,
      "ĠæĢ»": 3160,
      "å»·": 3161,
      "ç²Ĺ": 3162,
      "Ġé»Ħ": 3163,
      "åģ·": 3164,
      "è¡°": 3165,
      "æ¸£": 3166,
      "ç£·": 3167,
      "è´ª": 3168,
      "Ġå¤ļ": 3169,
      "ãİ¡": 3170,
      "åŁĶ": 3171,
      "ä¸Ī": 3172,
      "ç¼ħ": 3173,
      "ç»İ": 3174,
      "æ±°": 3175,
      "ĠæĶ¿": 3176,
      "è°£": 3177,
      "çĪ½": 3178,
      "æĺŃ": 3179,
      "160": 3180,
      "1200": 3181,
      "çĽĨ": 3182,
      "ĠåĽł": 3183,
      "çĪ¬": 3184,
      "Ġä¸ª": 3185,
      "ĠåŁº": 3186,
      "èĬ½": 3187,
      "èĴ¸": 3188,
      "ĠãĢģ": 3189,
      "åĦĭ": 3190,
      "æĮ¤": 3191,
      "é¥¼": 3192,
      "st": 3193,
      "ĠA": 3194,
      "ãĢĤ(": 3195,
      "]ï¼Ľ": 3196,
      "å®Ļ": 3197,
      "åĽĬ": 3198,
      "çĿĽ": 3199,
      "ç©Ĩ": 3200,
      "æĴ°": 3201,
      "Ġä¿Ŀ": 3202,
      "éĢ¼": 3203,
      "ç¬¼": 3204,
      "Ġåı¦": 3205,
      "èħĬ": 3206,
      "è¯µ": 3207,
      "æ¼Ĩ": 3208,
      "èĤĮ": 3209,
      "ĠæĮĩ": 3210,
      "æī®": 3211,
      "Ġæ±Ł": 3212,
      "å´ĸ": 3213,
      "ĠèĢĮ": 3214,
      "èµļ": 3215,
      "æµı": 3216,
      "æĢ¡": 3217,
      "ç¥ī": 3218,
      "éĶļ": 3219,
      "102": 3220,
      "éĢ¸": 3221,
      "ç¢Į": 3222,
      "æ°¨": 3223,
      "èĻ¾": 3224,
      "Ġäºĭ": 3225,
      "Ġç§ĳ": 3226,
      "çī¡": 3227,
      "èįĶ": 3228,
      "éŁ¶": 3229,
      "çłº": 3230,
      "8000": 3231,
      "Ġé¦ĸ": 3232,
      "åŀĦ": 3233,
      "Ġåħ·": 3234,
      "CE": 3235,
      "Ġé©¬": 3236,
      "å¸Ĳ": 3237,
      "èĬ¦": 3238,
      "ic": 3239,
      "æĬĽ": 3240,
      "se": 3241,
      "ĠåŃ¦": 3242,
      "Ġç¤¾": 3243,
      "ä¸¢": 3244,
      "åºŀ": 3245,
      "åĿİ": 3246,
      "ç©·": 3247,
      "çĥĺ": 3248,
      "Ġæ¯ı": 3249,
      "éĺģ": 3250,
      "èİĵ": 3251,
      "ç¼Ķ": 3252,
      "ç»³": 3253,
      "çŀ¬": 3254,
      "æĬ¬": 3255,
      "å¤¹": 3256,
      "350": 3257,
      "çĥĤ": 3258,
      "èĥĥ": 3259,
      "èıĬ": 3260,
      "çŀ»": 3261,
      "ĠæĿ¨": 3262,
      "åıĶ": 3263,
      "æ·Ħ": 3264,
      "æłĸ": 3265,
      "éŃĶ": 3266,
      "æ§½": 3267,
      ",ãĢĬ": 3268,
      "Ġè¥¿": 3269,
      "èĬĴ": 3270,
      "å©·": 3271,
      "140": 3272,
      "GDP": 3273,
      "Ġ|": 3274,
      "çļĨ": 3275,
      "çĭ®": 3276,
      "æ¦Ĩ": 3277,
      "é¡½": 3278,
      "èĴĤ": 3279,
      "un": 3280,
      "ä¸Ļ": 3281,
      "çĸ²": 3282,
      "å£³": 3283,
      "ED": 3284,
      "å¿į": 3285,
      "GB": 3286,
      "Ġè¿Ľ": 3287,
      "Ġéĩĳ": 3288,
      "Ġè°ĥ": 3289,
      "æĪĪ": 3290,
      "å¡Į": 3291,
      "ĠåıĹ": 3292,
      "ç½ķ": 3293,
      "ç¢Ĺ": 3294,
      "Ġä»£": 3295,
      "åı¹": 3296,
      "åįī": 3297,
      "Ġ18": 3298,
      "ĠçĶ³": 3299,
      "çŃĭ": 3300,
      "èĸ¯": 3301,
      "Ġæīĵ": 3302,
      "ä¿±": 3303,
      "éĶ¤": 3304,
      "åĸĬ": 3305,
      "æ»¥": 3306,
      "ç²½": 3307,
      "æ¨±": 3308,
      "ç§§": 3309,
      "çīº": 3310,
      "æ¾ľ": 3311,
      "æ§Ľ": 3312,
      "è¿Ń": 3313,
      "æŃ§": 3314,
      "Ġæ°ĳ": 3315,
      "çĨĻ": 3316,
      "Ġåİ¿": 3317,
      "æīŃ": 3318,
      "è½¿": 3319,
      "çĳ¶": 3320,
      "å¥Ī": 3321,
      "åŀ¦": 3322,
      "ç»ĳ": 3323,
      "æīĽ": 3324,
      "è½©": 3325,
      "æ¶¯": 3326,
      "åİ¢": 3327,
      "æĴĴ": 3328,
      "åłª": 3329,
      "Ġè¯¦": 3330,
      "è¡¢": 3331,
      "æºī": 3332,
      "Ġéĥ¨": 3333,
      "æħ¨": 3334,
      "ä½Ĳ": 3335,
      "éĥ´": 3336,
      "è¢ĸ": 3337,
      "ĠS": 3338,
      "Ġä¼ģ": 3339,
      "ä¼ŀ": 3340,
      "çªĦ": 3341,
      "èķ¾": 3342,
      "ĠD": 3343,
      "æµ´": 3344,
      "éĤ¢": 3345,
      "å³ª": 3346,
      "ç¥ģ": 3347,
      "èĶĵ": 3348,
      "éĻĩ": 3349,
      "èĥĢ": 3350,
      "ç¼®": 3351,
      ");": 3352,
      "åı®": 3353,
      "èĭį": 3354,
      "âĪ": 3355,
      "å¼Ĺ": 3356,
      "çº¹": 3357,
      "æĤ²": 3358,
      "):": 3359,
      "Ġç»ĵ": 3360,
      "EC": 3361,
      "èĶļ": 3362,
      "å¼Ĭ": 3363,
      "éĶĪ": 3364,
      "åį§": 3365,
      "----": 3366,
      "Ġæ²³": 3367,
      "Ġç¦ı": 3368,
      "åħ¹": 3369,
      "çģ¿": 3370,
      "éħ¿": 3371,
      "2005": 3372,
      "æ³ª": 3373,
      "250": 3374,
      "Ġå®Į": 3375,
      "è¯ł": 3376,
      "900": 3377,
      "Ġåı·": 3378,
      "ä¿Ń": 3379,
      "çŀĦ": 3380,
      "æ©Ļ": 3381,
      "ro": 3382,
      "ä¸Ľ": 3383,
      "éħ·": 3384,
      "ĠéĿ¢": 3385,
      "ĠæŃ£": 3386,
      "æ£µ": 3387,
      "æ·ĭ": 3388,
      "å§¨": 3389,
      "èĴ²": 3390,
      "Ġä½Ĩ": 3391,
      "éĨĩ": 3392,
      "210": 3393,
      "âĢ¢": 3394,
      "éĿ¶": 3395,
      "çªĿ": 3396,
      "ç«Ń": 3397,
      "èħº": 3398,
      "çł¥": 3399,
      "èŁ¹": 3400,
      "ĠåĨľ": 3401,
      "å·¢": 3402,
      "èģĨ": 3403,
      "çĢ": 3404,
      "ĠB": 3405,
      "ãĢĤ\"": 3406,
      "èĩĤ": 3407,
      "å¢©": 3408,
      "le": 3409,
      "åįľ": 3410,
      "åµĮ": 3411,
      "æĿı": 3412,
      "è½°": 3413,
      "éĽĩ": 3414,
      "æ·¤": 3415,
      "æŃĩ": 3416,
      "125": 3417,
      "2002": 3418,
      "220": 3419,
      "Ġä¿¡": 3420,
      "å»ĸ": 3421,
      "âĳł": 3422,
      "å¸ķ": 3423,
      "æīĩ": 3424,
      "æĮª": 3425,
      "æ¨Ĭ": 3426,
      "æĬĦ": 3427,
      "éĻĢ": 3428,
      "èİİ": 3429,
      "ĠçŃĶ": 3430,
      "å±¡": 3431,
      "Ġä¸ľ": 3432,
      "åŃľ": 3433,
      "æĥķ": 3434,
      "Ġäº¤": 3435,
      "ĠçĽ¸": 3436,
      "2004": 3437,
      "Ġï¼ļ": 3438,
      "101": 3439,
      "èĦĨ": 3440,
      "2003": 3441,
      "ĠçĶŁ": 3442,
      "103": 3443,
      "Ġåĳ¨": 3444,
      "ï¼Ĵ": 3445,
      "âĳ¡": 3446,
      "ĠéĿĴ": 3447,
      "è´©": 3448,
      "èĩ£": 3449,
      "éĵĥ": 3450,
      "ç¢±": 3451,
      "ä¹Ĵ": 3452,
      "112": 3453,
      "Ġå°±": 3454,
      "å¦¨": 3455,
      "çĮľ": 3456,
      "æİ©": 3457,
      "åĭ¾": 3458,
      "è¤": 3459,
      "Ġèģļ": 3460,
      "Ġä¾Ŀ": 3461,
      "ĠåĢ¼": 3462,
      "ç¬ĥ": 3463,
      "Ġæľª": 3464,
      "èĮ¨": 3465,
      "Ġå¹³": 3466,
      "âī¥": 3467,
      "éģ®": 3468,
      "éĤĳ": 3469,
      "Ġ/": 3470,
      "æĮļ": 3471,
      "çģ¶": 3472,
      "æĢĴ": 3473,
      "å®µ": 3474,
      "æ³¾": 3475,
      "ç£ħ": 3476,
      "ĠåĬŀ": 3477,
      "ĠåĪĽ": 3478,
      "å±Ī": 3479,
      "Ġä½ł": 3480,
      "é¹ħ": 3481,
      "è¶Ł": 3482,
      "å£¹": 3483,
      "ET": 3484,
      "Ġæİ¥": 3485,
      "105": 3486,
      "çŀĴ": 3487,
      "çĥ¯": 3488,
      "çĭĹ": 3489,
      "èļĢ": 3490,
      "Ġåĩº": 3491,
      "Ġåħ±": 3492,
      "è´®": 3493,
      "æĢĸ": 3494,
      "æº¶": 3495,
      "gt": 3496,
      "æĺĬ": 3497,
      "æħķ": 3498,
      "ç»·": 3499,
      "åĵ¨": 3500,
      "éĤª": 3501,
      "2030": 3502,
      "km": 3503,
      "106": 3504,
      "å¸·": 3505,
      "æ°¯": 3506,
      "ç¨į": 3507,
      "Ġ100": 3508,
      "Ġå±±": 3509,
      "ç»½": 3510,
      "èİ¹": 3511,
      "ĠåŁİ": 3512,
      "çĹķ": 3513,
      "ĠâĢĿ": 3514,
      "éĿĵ": 3515,
      "æ¶ª": 3516,
      "åķ¦": 3517,
      "ag": 3518,
      "Ġæ£Ģ": 3519,
      "çĤ¬": 3520,
      "Ġæķ´": 3521,
      "æ¥ł": 3522,
      "is": 3523,
      "æĭĲ": 3524,
      "èİĨ": 3525,
      "æ¢§": 3526,
      "æ¸Ń": 3527,
      "éĥĿ": 3528,
      "çĸ¼": 3529,
      "230": 3530,
      "xx": 3531,
      "çŃĴ": 3532,
      "éģ£": 3533,
      "Ġç»Ħ": 3534,
      "ĠåĶ®": 3535,
      "ĠåĲ´": 3536,
      ":\"": 3537,
      "Ġè§Ħ": 3538,
      "æ®¡": 3539,
      "æħĳ": 3540,
      "AP": 3541,
      "ĠæĻ´": 3542,
      "èĹ¤": 3543,
      "èĤ¾": 3544,
      "es": 3545,
      "æĢª": 3546,
      "ç©Ĺ": 3547,
      "çķĶ": 3548,
      "360": 3549,
      "ĠéĹ®": 3550,
      "å¸¼": 3551,
      "å«©": 3552,
      "Ġèµµ": 3553,
      "æĬ¹": 3554,
      "Ġåİ»": 3555,
      "åį¿": 3556,
      "åīĬ": 3557,
      "é¾ļ": 3558,
      "ï¼Ĳ": 3559,
      "æ´¼": 3560,
      "éĵ²": 3561,
      "è¯«": 3562,
      "æĮ½": 3563,
      "åĤ²": 3564,
      "éħ¯": 3565,
      "ç¡«": 3566,
      "éĵħ": 3567,
      "èĪĮ": 3568,
      "å´Ń": 3569,
      "ĠçĽĳ": 3570,
      "ç¿°": 3571,
      "å¨Ħ": 3572,
      "Ġèµ°": 3573,
      "èĿ¶": 3574,
      "æĽĻ": 3575,
      "108": 3576,
      "åºĲ": 3577,
      "MA": 3578,
      "ç¨½": 3579,
      "éĴĻ": 3580,
      "\",": 3581,
      "7000": 3582,
      "Ġä¸ļ": 3583,
      "éĽĢ": 3584,
      "æ¢Ń": 3585,
      "çĮİ": 3586,
      "Ġ23": 3587,
      "å±ł": 3588,
      "ç¬ĭ": 3589,
      "èĸĩ": 3590,
      "104": 3591,
      "å²ļ": 3592,
      "ĠP": 3593,
      "éĴĵ": 3594,
      "BA": 3595,
      "ce": 3596,
      "Ġå¾Ĳ": 3597,
      "èĦĬ": 3598,
      "æĿī": 3599,
      "æ²¥": 3600,
      "æĤĶ": 3601,
      "èĳ±": 3602,
      "åĥļ": 3603,
      "Ġéĺ¿": 3604,
      "æ²ģ": 3605,
      "å®ł": 3606,
      "é¢Ĥ": 3607,
      "CT": 3608,
      "Ġè¢«": 3609,
      "Ġè¯·": 3610,
      "ç¦Ħ": 3611,
      "æ¦´": 3612,
      "èļķ": 3613,
      "as": 3614,
      "åĲŀ": 3615,
      "æĭ¦": 3616,
      "æĤĦ": 3617,
      "çº¬": 3618,
      "é½¿": 3619,
      "èĶ½": 3620,
      "app": 3621,
      "åĴ±": 3622,
      "åĭĭ": 3623,
      "éĢĬ": 3624,
      "Ġåīį": 3625,
      "Ġä¸¥": 3626,
      "Ġç¼ĸ": 3627,
      "åķ¤": 3628,
      "ï¹": 3629,
      "æĳĶ": 3630,
      "åľ©": 3631,
      "éĻĮ": 3632,
      "éĹ«": 3633,
      "æµĳ": 3634,
      "ä¾ł": 3635,
      "æį§": 3636,
      "ç¦¾": 3637,
      "2500": 3638,
      "LED": 3639,
      "Ĭè·ĥ": 3640,
      "åĿł": 3641,
      "115": 3642,
      "119": 3643,
      "é¼ł": 3644,
      "ĠçļĦ": 3645,
      "äºŁ": 3646,
      "æĸ©": 3647,
      "éĺĢ": 3648,
      "æºº": 3649,
      "æ»ĩ": 3650,
      "åĭ¿": 3651,
      ".ãĢĬ": 3652,
      "Ġs": 3653,
      "å®°": 3654,
      "åĳµ": 3655,
      "Ġæ¹ĸ": 3656,
      "è´°": 3657,
      "å¹½": 3658,
      "æ·ĳ": 3659,
      "éħ±": 3660,
      "170": 3661,
      "æ¾İ": 3662,
      "iv": 3663,
      "ĠåºĶ": 3664,
      "è£Ķ": 3665,
      "CP": 3666,
      "qu": 3667,
      "ï¼ļ/": 3668,
      "ç³Ĭ": 3669,
      "ĠåĮħ": 3670,
      "éªĦ": 3671,
      "240": 3672,
      "113": 3673,
      "Ġäº§": 3674,
      "Ġå¤ĩ": 3675,
      "å¤·": 3676,
      "åĢª": 3677,
      "įåį«": 3678,
      "ãĢĩ": 3679,
      "åĸĤ": 3680,
      "èıĩ": 3681,
      "ĠåŃĻ": 3682,
      "çĿĲ": 3683,
      "2001": 3684,
      "æ´±": 3685,
      "å«ģ": 3686,
      "çº±": 3687,
      "Ġ21": 3688,
      "et": 3689,
      "æĿł": 3690,
      "åĴ¬": 3691,
      "æ·³": 3692,
      "åĸ»": 3693,
      "åĦĴ": 3694,
      "am": 3695,
      "æª": 3696,
      "ï¼ĳ": 3697,
      "æ®¿": 3698,
      "XXXX": 3699,
      "Ġåºı": 3700,
      "æ±¾": 3701,
      "Ġ08": 3702,
      "ç¿ģ": 3703,
      "ä¿©": 3704,
      "çĥ¹": 3705,
      "èģª": 3706,
      "Ġæĺ¨": 3707,
      "109": 3708,
      "id": 3709,
      "Ġä¼ĺ": 3710,
      "Ġè´¢": 3711,
      "éĢĽ": 3712,
      "èĤ¢": 3713,
      "ç¯·": 3714,
      "ĠçĶ¨": 3715,
      "Ġå®¡": 3716,
      "èĥĸ": 3717,
      "ç²ĺ": 3718,
      "æ»ģ": 3719,
      "GP": 3720,
      "107": 3721,
      "èĨı": 3722,
      "ĠèĢĥ": 3723,
      "ä¹ĵ": 3724,
      "åĢ©": 3725,
      "è£¸": 3726,
      "Ġâĳł": 3727,
      "ol": 3728,
      "å¸ĸ": 3729,
      "ing": 3730,
      "Ġåı¯": 3731,
      "æĢ¨": 3732,
      "ĠåŁ¹": 3733,
      "æĴ¬": 3734,
      "çĺ¦": 3735,
      "æĨ¾": 3736,
      "ES": 3737,
      "Ġè´Ł": 3738,
      "æĺĶ": 3739,
      "æ°®": 3740,
      "Ġå·²": 3741,
      "ç»Ĵ": 3742,
      "åĵŃ": 3743,
      "Ġâĳ¡": 3744,
      "Ġåı°": 3745,
      "ĠæĤ¨": 3746,
      "Ġä¼ł": 3747,
      "ĊĠ": 3748,
      "Ġç»¼": 3749,
      "æĭ±": 3750,
      "1800": 3751,
      "æ©ĺ": 3752,
      "è£¹": 3753,
      ")ãĢĭ": 3754,
      "2035": 3755,
      "è¾±": 3756,
      "Ġæľº": 3757,
      "å¸ĺ": 3758,
      "çĦļ": 3759,
      "æ¹ĥ": 3760,
      "èĳ«": 3761,
      "æ¦ķ": 3762,
      "Ġ)": 3763,
      "åħĶ": 3764,
      "éĢĿ": 3765,
      "æ¸¤": 3766,
      "çĤľ": 3767,
      "è¶ģ": 3768,
      "ĠæĶ¶": 3769,
      "å·į": 3770,
      "æĮ£": 3771,
      "åĸĩ": 3772,
      "æ©¡": 3773,
      "æŁ¬": 3774,
      "ĠèĤ¡": 3775,
      "Ġèİ·": 3776,
      "æĦī": 3777,
      "åıģ": 3778,
      "æ¸´": 3779,
      "çħ®": 3780,
      "éºŁ": 3781,
      "ion": 3782,
      "ĠåĨħ": 3783,
      "ĠåĽŀ": 3784,
      "ĠåĲ¦": 3785,
      "æĥ§": 3786,
      "åĵº": 3787,
      "çĮķ": 3788,
      "é¬": 3789,
      "å£¶": 3790,
      "Ġæ¯Ķ": 3791,
      "Ġäºĳ": 3792,
      "æĪļ": 3793,
      "ä¿ŀ": 3794,
      "æ£ł": 3795,
      "æħĮ": 3796,
      "ä»ķ": 3797,
      "æ±ģ": 3798,
      "èĤĨ": 3799,
      "é«ĵ": 3800,
      "éªĨ": 3801,
      "éĤ¯": 3802,
      "1300": 3803,
      "Ġè´¨": 3804,
      "å¿»": 3805,
      "éĥ¸": 3806,
      "Ġ22": 3807,
      "èĢ¶": 3808,
      "çĿ¿": 3809,
      "ç¦Ģ": 3810,
      "èºº": 3811,
      "çŀ©": 3812,
      "Ġè®©": 3813,
      "çīŁ": 3814,
      "æĭĮ": 3815,
      "ç¶": 3816,
      "çĳ°": 3817,
      "©¹": 3818,
      "è©¹": 3819,
      "Ġåģļ": 3820,
      "ĠéĤ£": 3821,
      "æ¯¯": 3822,
      "æ³¼": 3823,
      "èĶĹ": 3824,
      "âī¤": 3825,
      "\"ãĢĤ": 3826,
      "çĶĦ": 3827,
      "ç¥¸": 3828,
      "âĪļ": 3829,
      "ç¶¦": 3830,
      "ST": 3831,
      "ip": 3832,
      "ĠæĶ¯": 3833,
      "çłį": 3834,
      "èĨ³": 3835,
      "çĲª": 3836,
      "çĿ¦": 3837,
      "128": 3838,
      "çªŁ": 3839,
      "Ġa": 3840,
      "äº¨": 3841,
      "éĹµ": 3842,
      ">>": 3843,
      "Ġæ¶Ī": 3844,
      "Ġï¿¥": 3845,
      "æį¡": 3846,
      "åķĦ": 3847,
      "260": 3848,
      "ĠæŃ¦": 3849,
      "Ġæľ±": 3850,
      "çĲ¦": 3851,
      "æŁ¿": 3852,
      "èĮ«": 3853,
      "122": 3854,
      "Ġä¸¤": 3855,
      "æ³Į": 3856,
      "116": 3857,
      "Ġå®¶": 3858,
      "ä»ĳ": 3859,
      "éĢ®": 3860,
      "å¥İ": 3861,
      "æŀ¯": 3862,
      "111": 3863,
      "æģ¤": 3864,
      "ç¦¹": 3865,
      "118": 3866,
      "135": 3867,
      "ĠéĤ®": 3868,
      "çĽĶ": 3869,
      "114": 3870,
      "æ¿®": 3871,
      "âĳ¢": 3872,
      "Ġæĺİ": 3873,
      "éĴ¥": 3874,
      "ĠR": 3875,
      "141": 3876,
      "280": 3877,
      "Ġä½ı": 3878,
      "æŁĳ": 3879,
      "éºĵ": 3880,
      "ĠåķĨ": 3881,
      "åĴ³": 3882,
      "æ±Ŀ": 3883,
      "æ¸Ĭ": 3884,
      "Ġå§Ķ": 3885,
      "ç©´": 3886,
      "Ġåįİ": 3887,
      "æĮ¨": 3888,
      "å¥ķ": 3889,
      "è°¦": 3890,
      "è°ľ": 3891,
      "éļ¶": 3892,
      "çŁ¢": 3893,
      "éľľ": 3894,
      "OP": 3895,
      "Ġæ°´": 3896,
      "ä½£": 3897,
      "èħķ": 3898,
      "æķŀ": 3899,
      "éĶ£": 3900,
      "æ»ķ": 3901,
      "quo": 3902,
      "450": 3903,
      "Ġç©º": 3904,
      "æłĹ": 3905,
      "åķ¥": 3906,
      "æ¢ĵ": 3907,
      "Ġ24": 3908,
      "eb": 3909,
      "æķ·": 3910,
      "Ġè¯Ħ": 3911,
      "æĢł": 3912,
      "çİĦ": 3913,
      "æĻ¤": 3914,
      "çĨı": 3915,
      "æ²«": 3916,
      "èģĤ": 3917,
      "ĊĊ": 3918,
      "Ġå®ģ": 3919,
      "å½Ŀ": 3920,
      "åĵĢ": 3921,
      "çĳľ": 3922,
      "lo": 3923,
      "Ġèĥ¡": 3924,
      "å¤¸": 3925,
      "ç¦ħ": 3926,
      "%;": 3927,
      "370": 3928,
      "NG": 3929,
      "å®Ľ": 3930,
      "å¥¢": 3931,
      "åī¥": 3932,
      "çĤ³": 3933,
      "117": 3934,
      "åļ": 3935,
      "Ġä½ķ": 3936,
      "ç±½": 3937,
      "126": 3938,
      "ĠåĽ´": 3939,
      "èµĵ": 3940,
      "è¸©": 3941,
      "ĠM": 3942,
      "ĠåĴĮ": 3943,
      "ĠéŁ©": 3944,
      "ä¹¾": 3945,
      "ç¿ħ": 3946,
      "æłĵ": 3947,
      "åªĽ": 3948,
      "ä½°": 3949,
      "æģ³": 3950,
      "ĠĊĠĊ": 3951,
      "åĮĢ": 3952,
      "å°§": 3953,
      "æĥ¨": 3954,
      "èĦĸ": 3955,
      "320": 3956,
      "DN": 3957,
      "SC": 3958,
      "ĠåĮ»": 3959,
      "æĮ«": 3960,
      "å¢ħ": 3961,
      "éļĻ": 3962,
      "èĳĨ": 3963,
      "of": 3964,
      "Ġè´µ": 3965,
      "åĥµ": 3966,
      "ç°¿": 3967,
      "ĠæīĢ": 3968,
      "æĽ¦": 3969,
      "ETF": 3970,
      "APEC": 3971,
      "ĠèĻ½": 3972,
      "ç»¥": 3973,
      "1600": 3974,
      "é²į": 3975,
      "åĪ®": 3976,
      "ĠæĮģ": 3977,
      "é¢ł": 3978,
      "001": 3979,
      "Ġå¤Ħ": 3980,
      "ĠçĻ¾": 3981,
      "Ġæĺ¥": 3982,
      "èµĥ": 3983,
      "190": 3984,
      "1999": 3985,
      "([": 3986,
      "Ġé¾Ļ": 3987,
      "èĲĿ": 3988,
      "éªı": 3989,
      "çĭŃ": 3990,
      "èĨĢ": 3991,
      "ĠæµĻ": 3992,
      "è±ļ": 3993,
      "IT": 3994,
      "dquo": 3995,
      "å¦®": 3996,
      "156": 3997,
      "he": 3998,
      "åĪł": 3999,
      "æŃī": 4000,
      "éĽ¯": 4001,
      "éħµ": 4002,
      "éħĮ": 4003,
      "é©¼": 4004,
      "PD": 4005,
      "ZC": 4006,
      "ak": 4007,
      "Ġt": 4008,
      "ĠæķĻ": 4009,
      "Ġéĥĳ": 4010,
      "æįĨ": 4011,
      "èĬĻ": 4012,
      "çĢļ": 4013,
      "åĴ½": 4014,
      "åĳĢ": 4015,
      "çļĭ": 4016,
      "åĮ¿": 4017,
      "åĮĻ": 4018,
      "æłĪ": 4019,
      "æ²Ľ": 4020,
      "éľ¾": 4021,
      "éĴĽ": 4022,
      "çıĬ": 4023,
      "ĠçĶ°": 4024,
      "è§ħ": 4025,
      "å½¤": 4026,
      "VR": 4027,
      "us": 4028,
      "ç¥ł": 4029,
      "ç¼ł": 4030,
      "Ġè¯´": 4031,
      "åıŃ": 4032,
      "å°¸": 4033,
      "ç½¢": 4034,
      "124": 4035,
      "èĻŀ": 4036,
      "137": 4037,
      "PC": 4038,
      "Ġè®¡": 4039,
      "ĠæŀĹ": 4040,
      "æ¢Ĺ": 4041,
      "1100": 4042,
      "éŀŃ": 4043,
      "ĠèĢģ": 4044,
      "Ġè¿Ŀ": 4045,
      "æ°Ł": 4046,
      "çİ«": 4047,
      "II": 4048,
      "TC": 4049,
      "Ġc": 4050,
      "Ġæ¸ħ": 4051,
      "ä¸¸": 4052,
      "åĬ«": 4053,
      "æĴ¼": 4054,
      "Ġç»Ł": 4055,
      "Ġåģ¥": 4056,
      "ĠæĦŁ": 4057,
      "Ġåī¯": 4058,
      "ĠçŁ³": 4059,
      "æĮĿ": 4060,
      "Ġ25": 4061,
      "åĤį": 4062,
      "CEP": 4063,
      "gd": 4064,
      "ht": 4065,
      "âĢķ": 4066,
      "æĿŀ": 4067,
      "æĭ£": 4068,
      "è±¹": 4069,
      "æİĸ": 4070,
      "è°ħ": 4071,
      "1400": 4072,
      "è¸¢": 4073,
      "Ġâĳ¢": 4074,
      "sse": 4075,
      "çķ´": 4076,
      "çĥ«": 4077,
      "127": 4078,
      "æ½¼": 4079,
      "èķī": 4080,
      "ĠåĪ°": 4081,
      "èĤª": 4082,
      "AR": 4083,
      "Ġä½į": 4084,
      "åĪĥ": 4085,
      "åĮĨ": 4086,
      "çĽİ": 4087,
      "129": 4088,
      "Ġæ±ķ": 4089,
      "èĭ¯": 4090,
      "èĽĩ": 4091,
      "ĠæĻ®": 4092,
      "è¦ĥ": 4093,
      "èĥº": 4094,
      "306": 4095,
      "ed": 4096,
      "Ġ00": 4097,
      "æĸ¥": 4098,
      "åĨī": 4099,
      "èµİ": 4100,
      "Ġå¤ĸ": 4101,
      "Ġç²¾": 4102,
      "Ġçĸ«": 4103,
      "æ±¶": 4104,
      "æ¡ĵ": 4105,
      "èº²": 4106,
      "155": 4107,
      "3500": 4108,
      "PPP": 4109,
      "é¬¼": 4110,
      "QQ": 4111,
      "ĠåĪ¶": 4112,
      "ä»Ł": 4113,
      "åĮĪ": 4114,
      "æĪİ": 4115,
      "éĺ®": 4116,
      "çĽı": 4117,
      "çĩ¥": 4118,
      "IM": 4119,
      "Ġï¼Ľ": 4120,
      "Ġç§¯": 4121,
      "Ġå¥³": 4122,
      "æīģ": 4123,
      "åİĦ": 4124,
      "èĮĦ": 4125,
      "å¨±": 4126,
      "çĴ§": 4127,
      "ĠçĤ¹": 4128,
      "ĠâĢ¦": 4129,
      "åº¸": 4130,
      "Ġè®¸": 4131,
      "ĠåĲī": 4132,
      "åĩĳ": 4133,
      "205": 4134,
      "ç¡Ŀ": 4135,
      "éĴł": 4136,
      "çĹ¹": 4137,
      "å´©": 4138,
      "do": 4139,
      "Ġä»»": 4140,
      "Ġ50": 4141,
      "åĮª": 4142,
      "kV": 4143,
      "çĶ¬": 4144,
      "é¢Ĳ": 4145,
      "æ¼¯": 4146,
      "365": 4147,
      "ĠG": 4148,
      "çĸ¯": 4149,
      "èĬŃ": 4150,
      "éľĸ": 4151,
      "æ¥·": 4152,
      "è¹²": 4153,
      "9000": 4154,
      ":âĢľ": 4155,
      "RCEP": 4156,
      "Ġåĵģ": 4157,
      "Ġå°Ĩ": 4158,
      "æľĶ": 4159,
      "1989": 4160,
      "134": 4161,
      "åĺİ": 4162,
      "]ãĢģ": 4163,
      "ĠåıĮ": 4164,
      "èĤļ": 4165,
      "185": 4166,
      "Ġçľĭ": 4167,
      "ĠæĽ¾": 4168,
      "çŃĿ": 4169,
      "im": 4170,
      "ra": 4171,
      "Ġåº§": 4172,
      "è¾į": 4173,
      "ç¥Ģ": 4174,
      "App": 4175,
      "if": 4176,
      "ĠçłĶ": 4177,
      "å¿Į": 4178,
      "CG": 4179,
      "Ġäº¿": 4180,
      "ĠæĭŁ": 4181,
      "æĥŁ": 4182,
      "æįī": 4183,
      "èĪľ": 4184,
      "èĨĿ": 4185,
      "Ġåıį": 4186,
      "Ġå¾·": 4187,
      "Ġæ¬¢": 4188,
      "æĺı": 4189,
      "2026": 4190,
      "éĴ§": 4191,
      "é¥ª": 4192,
      "133": 4193,
      "éŃĦ": 4194,
      "âħ¡": 4195,
      "225": 4196,
      "Ġæī§": 4197,
      "Ġèĳ£": 4198,
      "æī¯": 4199,
      "éĻĭ": 4200,
      "%ï¼Ī": 4201,
      "ĠæĶ¹": 4202,
      "çĦ°": 4203,
      "éĴ®": 4204,
      "1998": 4205,
      "215": 4206,
      "æĺķ": 4207,
      "ia": 4208,
      "Ġè¿ĩ": 4209,
      "æİı": 4210,
      "çł¸": 4211,
      "æģª": 4212,
      "ers": 4213,
      "é¹ĥ": 4214,
      "é³Į": 4215,
      "¥å¹¸": 4216,
      "Ġèĭı": 4217,
      "ĠåĿĢ": 4218,
      "çĨ¬": 4219,
      "Ġæĸ½": 4220,
      "Ġçİ¯": 4221,
      "ĠéĿŀ": 4222,
      "çĲħ": 4223,
      "ZB": 4224,
      "ĠçĦ¶": 4225,
      "åİĮ": 4226,
      "æ¼³": 4227,
      "1980": 4228,
      "Ġå®£": 4229,
      "æīĶ": 4230,
      "æ±Ģ": 4231,
      "æ·¹": 4232,
      "145": 4233,
      "139": 4234,
      "å¨ĩ": 4235,
      "Ġçº¢": 4236,
      "Ġè¿ŀ": 4237,
      "1997": 4238,
      "é¥¿": 4239,
      "ESG": 4240,
      "gdp": 4241,
      "Ġb": 4242,
      "è´ŀ": 4243,
      "èĢ¿": 4244,
      "éľī": 4245,
      "é¥º": 4246,
      "èħ»": 4247,
      "AA": 4248,
      "fo": 4249,
      "Ġè®¾": 4250,
      "ĠéĥŃ": 4251,
      "éħī": 4252,
      "Ġè°¢": 4253,
      "138": 4254,
      "èļĬ": 4255,
      "æ²¸": 4256,
      "æĦ§": 4257,
      "èĮ¬": 4258,
      "è£´": 4259,
      "èļģ": 4260,
      "ĠæĬĬ": 4261,
      "ç¤´": 4262,
      "ç«ĸ": 4263,
      "136": 4264,
      "æĶĴ": 4265,
      "èº¬": 4266,
      "AT": 4267,
      "ĠæĻº": 4268,
      "ä¿¯": 4269,
      "è°İ": 4270,
      "éªļ": 4271,
      "æ£ĺ": 4272,
      "çĭ¼": 4273,
      "åª³": 4274,
      "Ġm": 4275,
      "ĠæĬĢ": 4276,
      "ĠèĲ½": 4277,
      "ot": 4278,
      "Ġç½Ĺ": 4279,
      "æĻŁ": 4280,
      "æģ¼": 4281,
      "ou": 4282,
      "å²Ķ": 4283,
      "æ®´": 4284,
      "1700": 4285,
      "éĦ±": 4286,
      ",âĢľ": 4287,
      "Ġå¢ŀ": 4288,
      "ĠåİĨ": 4289,
      "ä»ĩ": 4290,
      "ç´Ĭ": 4291,
      "å²±": 4292,
      "168": 4293,
      "ĠH": 4294,
      "Ġéĺ²": 4295,
      "å·«": 4296,
      "èį«": 4297,
      "è¹Ħ": 4298,
      "OC": 4299,
      "åľĥ": 4300,
      "è¡¬": 4301,
      "ç¥Ī": 4302,
      "çĵ£": 4303,
      "ity": 4304,
      "ap": 4305,
      "kg": 4306,
      "Ġ40": 4307,
      "æĬĴ": 4308,
      "æ²ħ": 4309,
      "æ²Ĳ": 4310,
      "æºľ": 4311,
      "1996": 4312,
      "æ¿Ĵ": 4313,
      "165": 4314,
      "æ¤°": 4315,
      "éªĤ": 4316,
      "å³¨": 4317,
      "270": 4318,
      "çĨĶ": 4319,
      "ÃĹ**": 4320,
      "PR": 4321,
      "Ġçªģ": 4322,
      "ĠçĻ½": 4323,
      "231": 4324,
      "2300": 4325,
      "330": 4326,
      "IS": 4327,
      "aèĤ¡": 4328,
      "åĩ¶": 4329,
      "ç£Ĳ": 4330,
      "ab": 4331,
      "ig": 4332,
      "è¿Ħ": 4333,
      "éĻĤ": 4334,
      "é£Ļ": 4335,
      "æº§": 4336,
      "121": 4337,
      "148": 4338,
      "132": 4339,
      "CEO": 4340,
      "550": 4341,
      "Ġå±ķ": 4342,
      "Ġè°Ī": 4343,
      "çĶ«": 4344,
      "è¡ħ": 4345,
      "æĺ¼": 4346,
      "158": 4347,
      "228": 4348,
      ":[": 4349,
      "ĠL": 4350,
      "PA": 4351,
      "åĲĵ": 4352,
      "é¢į": 4353,
      "ent": 4354,
      "od": 4355,
      "Ġç»¿": 4356,
      "ç¬Ľ": 4357,
      "ai": 4358,
      "cm": 4359,
      "åĩ³": 4360,
      "178": 4361,
      "Ġå¾®": 4362,
      "Ġå°½": 4363,
      "204": 4364,
      "æŃ¼": 4365,
      "ç²¥": 4366,
      "301": 4367,
      "èĳµ": 4368,
      "æ½ĩ": 4369,
      "èı±": 4370,
      "çĴ¨": 4371,
      "æ§Ĳ": 4372,
      "ĠæĬĵ": 4373,
      "âĢĿ)": 4374,
      "å¯¡": 4375,
      "è¾ľ": 4376,
      "Aåº§": 4377,
      "ĠE": 4378,
      "éķĢ": 4379,
      "åīĶ": 4380,
      "æ¡¦": 4381,
      "éĶĮ": 4382,
      "æĩĴ": 4383,
      "Ġäºİ": 4384,
      "ä¸ĳ": 4385,
      "181": 4386,
      "çĨł": 4387,
      "ac": 4388,
      "131": 4389,
      "éŃģ": 4390,
      "çĴĢ": 4391,
      "340": 4392,
      "op": 4393,
      "Ġä½ĵ": 4394,
      "Ġå¸¸": 4395,
      "208": 4396,
      "æ²¾": 4397,
      "æ¡Ķ": 4398,
      "æ¶¡": 4399,
      "èĬĭ": 4400,
      "æ¤İ": 4401,
      "175": 4402,
      "206": 4403,
      "æŃª": 4404,
      "ĠæĿŃ": 4405,
      "èĢį": 4406,
      "æ¯Ĺ": 4407,
      "4500": 4408,
      "âħ¢": 4409,
      "Ġä¹¡": 4410,
      "1992": 4411,
      "144": 4412,
      "PS": 4413,
      "ĠéĽĨ": 4414,
      "Ġå¼ķ": 4415,
      "Ġof": 4416,
      "éĥ¡": 4417,
      "203": 4418,
      "ç²¹": 4419,
      "èĬ¹": 4420,
      "æ¨Ł": 4421,
      "and": 4422,
      "IC": 4423,
      "Ġéĵ¶": 4424,
      "Ġç®Ģ": 4425,
      "å½ª": 4426,
      "çĺŁ": 4427,
      "mg": 4428,
      "pag": 4429,
      "Ġç´§": 4430,
      "ä½ĳ": 4431,
      "ç»ļ": 4432,
      "åįµ": 4433,
      "ç¾ģ": 4434,
      "è£¤": 4435,
      "é»ı": 4436,
      "Ġ26": 4437,
      "Ġ29": 4438,
      "Ġ&": 4439,
      "ĠéľĢ": 4440,
      "éĻ¡": 4441,
      "çİ®": 4442,
      "æĻĥ": 4443,
      "169": 4444,
      "reak": 4445,
      "Ġé£Ł": 4446,
      "Ġå®ĭ": 4447,
      "æŀ¸": 4448,
      "èĲĥ": 4449,
      "ç¦º": 4450,
      "å¨¥": 4451,
      "é²¸": 4452,
      "217": 4453,
      "AS": 4454,
      "MP": 4455,
      "Ġèĭ±": 4456,
      "éĹ·": 4457,
      "åĿŀ": 4458,
      "æĻ¾": 4459,
      "éĶµ": 4460,
      "153": 4461,
      "154": 4462,
      "æĲħ": 4463,
      "147": 4464,
      "çĳķ": 4465,
      "DR": 4466,
      "Ġå£°": 4467,
      "è´¬": 4468,
      "ç¼ī": 4469,
      "Ġåĩ¡": 4470,
      "ĠâĪļ": 4471,
      "æµļ": 4472,
      "éĵ¿": 4473,
      "èįŁ": 4474,
      "çĬģ": 4475,
      "152": 4476,
      "èĨ¨": 4477,
      "!âĢĿ": 4478,
      "Ġ:": 4479,
      "ĠT": 4480,
      "Ġè´§": 4481,
      "åĪ¹": 4482,
      "çĲĲ": 4483,
      "çĤ«": 4484,
      "èıı": 4485,
      "AB": 4486,
      "ĠçĿ£": 4487,
      "ï¼ı": 4488,
      "åĵĦ": 4489,
      "ç¡Ĵ": 4490,
      "èį§": 4491,
      "ç¼ª": 4492,
      "1993": 4493,
      "æ¦Ħ": 4494,
      "èĴľ": 4495,
      "380": 4496,
      "Ġä¿Ħ": 4497,
      "ï¼Į[": 4498,
      "åĨķ": 4499,
      "è·»": 4500,
      "Ġ28": 4501,
      "142": 4502,
      "146": 4503,
      "149": 4504,
      "âĳ£": 4505,
      "ĠI": 4506,
      "æĦ¤": 4507,
      "æ¶§": 4508,
      "302": 4509,
      ")ï¼ļ": 4510,
      "Ġä¸´": 4511,
      "ĠåĶĲ": 4512,
      "è¿¸": 4513,
      "èµ¡": 4514,
      "1994": 4515,
      "åĥ§": 4516,
      "å¬": 4517,
      "ĠåĬ©": 4518,
      "ĠçĶĺ": 4519,
      "æłħ": 4520,
      "143": 4521,
      "å©ī": 4522,
      "DI": 4523,
      "ĠF": 4524,
      "ç¤ģ": 4525,
      "éĽį": 4526,
      "çłĮ": 4527,
      "159": 4528,
      "CN": 4529,
      "ec": 4530,
      "Ġç§°": 4531,
      "Ġç¬¦": 4532,
      "Ġæ²Ī": 4533,
      "207": 4534,
      "ä¾Ĺ": 4535,
      "çĸµ": 4536,
      "ç¿Ł": 4537,
      "åĹ½": 4538,
      "CO": 4539,
      "Ġè¿Ĳ": 4540,
      "Ġè½¬": 4541,
      "âĢ°": 4542,
      "èĩ»": 4543,
      "æºĥ": 4544,
      "157": 4545,
      "188": 4546,
      "211": 4547,
      "]ï¼Ī": 4548,
      "]ï¼ļ": 4549,
      "ĠW": 4550,
      "Ġç®¡": 4551,
      "åį¤": 4552,
      "æĭŃ": 4553,
      "èĥ°": 4554,
      "æ¶¤": 4555,
      "166": 4556,
      "å³¥": 4557,
      "æ§Ł": 4558,
      ")âĢľ": 4559,
      "çļĵ": 4560,
      "åĴı": 4561,
      "éĽ¹": 4562,
      "èį¥": 4563,
      "è±ģ": 4564,
      "Ġ27": 4565,
      "GC": 4566,
      "ad": 4567,
      "qq": 4568,
      "Ġç«ĭ": 4569,
      "Ġæī¿": 4570,
      "ĠæĹ©": 4571,
      "æĭ¢": 4572,
      "æĭ§": 4573,
      "æ¹Ħ": 4574,
      "éĨĭ": 4575,
      "750": 4576,
      "tv": 4577,
      "ĠçľŁ": 4578,
      "Ġä¸ĸ": 4579,
      "æŀķ": 4580,
      "çľ·": 4581,
      "é¹Ń": 4582,
      "ay": 4583,
      "ĠæĿĳ": 4584,
      "ĠèĲ¥": 4585,
      "Ġé£İ": 4586,
      "Ġç«ŀ": 4587,
      "Ġ60": 4588,
      "Ġæ½®": 4589,
      "åºļ": 4590,
      "RO": 4591,
      "ĠåĪ©": 4592,
      "ĠéĻķ": 4593,
      "åĲµ": 4594,
      "æįı": 4595,
      "ç¾Į": 4596,
      "èį¼": 4597,
      "ç¼Ģ": 4598,
      "æ¢µ": 4599,
      "èĻĲ": 4600,
      "âħł": 4601,
      "345": 4602,
      "440": 4603,
      "MO": 4604,
      "Ġp": 4605,
      "Ġæ¡Ī": 4606,
      "Ġç¡®": 4607,
      "Ġä¹Ĳ": 4608,
      "å±¿": 4609,
      "æł¾": 4610,
      "ç³¯": 4611,
      "em": 4612,
      "Ġè§£": 4613,
      "ç³Ł": 4614,
      "éĴĬ": 4615,
      "æĤ¼": 4616,
      "æĴķ": 4617,
      "ĠåĴ¨": 4618,
      "ĩæĿ": 4619,
      "èĢĺ": 4620,
      "èĵŁ": 4621,
      "ĩæĿ·": 4622,
      "Ġé¢Ĩ": 4623,
      "ĠçĻ»": 4624,
      "å»ĵ": 4625,
      "åĸī": 4626,
      "èĹ»": 4627,
      "IPO": 4628,
      "310": 4629,
      "ĠèģĮ": 4630,
      "Ġèĭ¥": 4631,
      "999": 4632,
      "PDF": 4633,
      "Ġä½Ļ": 4634,
      "å·ħ": 4635,
      "èµĤ": 4636,
      "éķģ": 4637,
      "åķ¸": 4638,
      "å¦ĥ": 4639,
      "212": 4640,
      "å¥´": 4641,
      "ç«¿": 4642,
      "èĲİ": 4643,
      "çŁ¶": 4644,
      "162": 4645,
      "Ġ31": 4646,
      "224": 4647,
      "Ġç³»": 4648,
      "Ġè®¤": 4649,
      "ĠæĪ¿": 4650,
      "å¯Ĥ": 4651,
      "1986": 4652,
      "èĶº": 4653,
      "GW": 4654,
      "fc": 4655,
      "èĢ½": 4656,
      "2027": 4657,
      "éľĦ": 4658,
      "196": 4659,
      "1990": 4660,
      "è¸Ķ": 4661,
      ";(": 4662,
      "ba": 4663,
      "ĠåĲİ": 4664,
      "Ġè½¦": 4665,
      "Ġä¸¾": 4666,
      "Ġæ¢ģ": 4667,
      "ĠæĽ¹": 4668,
      "ï¼ĵ": 4669,
      "æ²±": 4670,
      "æ¸ļ": 4671,
      "åĿŁ": 4672,
      "197": 4673,
      "om": 4674,
      "ĠæŁ¥": 4675,
      "ç®Ķ": 4676,
      "æģ¨": 4677,
      "åĸĺ": 4678,
      "167": 4679,
      "183": 4680,
      "Ġw": 4681,
      "Ġè¿ĺ": 4682,
      "ĠåĪĿ": 4683,
      "çł¼": 4684,
      "195": 4685,
      "1995": 4686,
      "161": 4687,
      "âĪ¶": 4688,
      "2200": 4689,
      "èĺ": 4690,
      "Ġä¹Ł": 4691,
      "Ġéķĩ": 4692,
      "ï¼Ľ(": 4693,
      "é¾Ł": 4694,
      "198": 4695,
      "177": 4696,
      "aa": 4697,
      "Ġå¾Ĺ": 4698,
      "ĠçĽ´": 4699,
      "ĠåĨį": 4700,
      "ä¼½": 4701,
      "åĴĶ": 4702,
      "æĮł": 4703,
      "èŀĥ": 4704,
      "151": 4705,
      "1988": 4706,
      "info": 4707,
      "su": 4708,
      "304": 4709,
      "æĳ§": 4710,
      "186": 4711,
      "æ¦Ķ": 4712,
      "US": 4713,
      "åįĴ": 4714,
      "è¯Ģ": 4715,
      "æ¢¢": 4716,
      "199": 4717,
      "AM": 4718,
      "PV": 4719,
      "Ġæīĭ": 4720,
      "Ġè¯Ŀ": 4721,
      "Ġéĺ³": 4722,
      "Ġé¦Ļ": 4723,
      "âĢĿ(": 4724,
      "èĪµ": 4725,
      "èĦ¾": 4726,
      "1984": 4727,
      "Ch": 4728,
      "TO": 4729,
      "çĵ¯": 4730,
      "èľ¡": 4731,
      "ine": 4732,
      "CS": 4733,
      "ĠæŀĦ": 4734,
      "æ³»": 4735,
      "æµĶ": 4736,
      "å§¬": 4737,
      "è°´": 4738,
      "æĻı": 4739,
      "æĻķ": 4740,
      "æ½¢": 4741,
      "163": 4742,
      "187": 4743,
      "éºĴ": 4744,
      "Ġ,": 4745,
      "Ġåı¤": 4746,
      "Ġä½Ľ": 4747,
      "å¦į": 4748,
      "çģ¸": 4749,
      "1983": 4750,
      "171": 4751,
      "2400": 4752,
      "%-": 4753,
      "æ·ĩ": 4754,
      "åŀ£": 4755,
      "1987": 4756,
      "åµ©": 4757,
      "ii": 4758,
      "ĠN": 4759,
      "Ġç±»": 4760,
      "Ġæ¸©": 4761,
      "Ġå¥¹": 4762,
      "æĹ·": 4763,
      "æİº": 4764,
      "éĽı": 4765,
      "çĿ¹": 4766,
      "éĴ´": 4767,
      "æĴĤ": 4768,
      "ç¢ļ": 4769,
      "åµĬ": 4770,
      "Ġå·´": 4771,
      "Ġå¤ı": 4772,
      "æ£ķ": 4773,
      "éħ¶": 4774,
      "éĴ¾": 4775,
      "æļĩ": 4776,
      "182": 4777,
      "176": 4778,
      "***": 4779,
      "å«Ĥ": 4780,
      "çĴŀ": 4781,
      "çĺ«": 4782,
      "226": 4783,
      "650": 4784,
      "ib": 4785,
      "ian": 4786,
      "Ġåįı": 4787,
      "Ġå±ħ": 4788,
      "Ġæ¼Ķ": 4789,
      "ĠçĶ·": 4790,
      "Ġæ¬§": 4791,
      "Ġè¾½": 4792,
      "æ²½": 4793,
      "éħĭ": 4794,
      "é©´": 4795,
      "èºģ": 4796,
      "é»Ľ": 4797,
      "248": 4798,
      "âĨ": 4799,
      "ĠåĲĳ": 4800,
      "ĠçĹħ": 4801,
      "çŃ·": 4802,
      "çĲ¢": 4803,
      "èĬ¸": 4804,
      "1985": 4805,
      "çĭĲ": 4806,
      "189": 4807,
      "çĺ¾": 4808,
      "åµĺ": 4809,
      "%~": 4810,
      "CD": 4811,
      "ME": 4812,
      "Ġæł¸": 4813,
      "ĠåĵĪ": 4814,
      "æģº": 4815,
      "303": 4816,
      "305": 4817,
      "309": 4818,
      "333": 4819,
      "Båº§": 4820,
      "ml": 4821,
      "Â¥": 4822,
      "ĠæľŁ": 4823,
      "ĠåľŁ": 4824,
      "ĠåĲ¯": 4825,
      "209": 4826,
      "164": 4827,
      "348": 4828,
      "213": 4829,
      "Ġä¿ĥ": 4830,
      "ĠèŃ¦": 4831,
      "çºĤ": 4832,
      "æı£": 4833,
      "åķĥ": 4834,
      "æ¼ĵ": 4835,
      "1978": 4836,
      "CR": 4837,
      "Ġd": 4838,
      "Ġè§Ĩ": 4839,
      "Ġç¥¨": 4840,
      "åĽ¤": 4841,
      "æģŃ": 4842,
      "èĬ·": 4843,
      "255": 4844,
      "221": 4845,
      "ç¿ĺ": 4846,
      "èľķ": 4847,
      "AC": 4848,
      "Ġåį³": 4849,
      "å¼Ī": 4850,
      "ä¾£": 4851,
      "å¨ĵ": 4852,
      "æĨ©": 4853,
      "219": 4854,
      "Ġ.": 4855,
      "çĥģ": 4856,
      "çĥĬ": 4857,
      "1982": 4858,
      "173": 4859,
      "Ġ35": 4860,
      "æĵĺ": 4861,
      "éĨĽ": 4862,
      "èĽĻ": 4863,
      "...": 4864,
      "ç°ĩ": 4865,
      "LNG": 4866,
      "ir": 4867,
      "Ġf": 4868,
      "Ġè§Ĥ": 4869,
      "æĪ³": 4870,
      "å°¬": 4871,
      "åĳĨ": 4872,
      "ç¨¼": 4873,
      "çŁ®": 4874,
      "éĵ®": 4875,
      "èĭŁ": 4876,
      "åĭĲ": 4877,
      "238": 4878,
      "2100": 4879,
      "ĠçŃī": 4880,
      "ï¼ķ": 4881,
      "éĢĹ": 4882,
      "éķ¶": 4883,
      "æĳĴ": 4884,
      "179": 4885,
      "237": 4886,
      "çĳĽ": 4887,
      "çĴĲ": 4888,
      ",\"": 4889,
      "420": 4890,
      "720": 4891,
      "Ġæĥħ": 4892,
      "Ġé¼ĵ": 4893,
      "åĮ¾": 4894,
      "æ²Ń": 4895,
      "184": 4896,
      "åªļ": 4897,
      "Ġ07": 4898,
      "èĽ®": 4899,
      "216": 4900,
      "480": 4901,
      "sh": 4902,
      "Ġä¹Į": 4903,
      "Ļåİ¿": 4904,
      "å¥¸": 4905,
      "æ²¼": 4906,
      "éĴ°": 4907,
      "æ½ŀ": 4908,
      "279": 4909,
      "Ġ01": 4910,
      "335": 4911,
      "Ġå¤®": 4912,
      "å°´": 4913,
      "åĩ¿": 4914,
      "007": 4915,
      "ç¥º": 4916,
      "ç¼ķ": 4917,
      "Ġâĳ£": 4918,
      "#ãĢģ": 4919,
      "av": 4920,
      "såºĹ": 4921,
      "Ġéģĵ": 4922,
      "Ġèµ·": 4923,
      "çĶ©": 4924,
      "åĳĲ": 4925,
      "è½§": 4926,
      "è°¯": 4927,
      "éħ®": 4928,
      "å²Ĳ": 4929,
      "1991": 4930,
      "æĲģ": 4931,
      "290": 4932,
      "299": 4933,
      "éŀł": 4934,
      ")ï¼Ľ": 4935,
      "Ġç¨İ": 4936,
      "èİħ": 4937,
      "2800": 4938,
      "Ġèº«": 4939,
      "Ġçº³": 4940,
      "Ġé»ĳ": 4941,
      "ä¹ŀ": 4942,
      "çİĸ": 4943,
      "æŁł": 4944,
      "æĦļ": 4945,
      "æ·¼": 4946,
      "éĶ¯": 4947,
      "174": 4948,
      "222": 4949,
      "çŀ°": 4950,
      "UV": 4951,
      "ul": 4952,
      "ĠéĢī": 4953,
      "Ġæ¿Ģ": 4954,
      "æ³ĵ": 4955,
      "éĽĮ": 4956,
      "æ·«": 4957,
      "å¨´": 4958,
      "ind": 4959,
      "cp": 4960,
      "Ġç»§": 4961,
      "Ġçĭ¬": 4962,
      "Ġæ½ĺ": 4963,
      "åĲŁ": 4964,
      "éĺİ": 4965,
      "çĥ·": 4966,
      "172": 4967,
      "é²²": 4968,
      "æ¾Ī": 4969,
      "éĦŀ": 4970,
      "èĿī": 4971,
      "Gç½ĳ": 4972,
      "LPR": 4973,
      "Ġå¥½": 4974,
      "Ġè¡¥": 4975,
      "ĠCA": 4976,
      "233": 4977,
      "é¸¥": 4978,
      "460": 4979,
      "Ġäº¬": 4980,
      "Ħæ¦Ħ": 4981,
      "ç²±": 4982,
      "232": 4983,
      "236": 4984,
      "èľ¿": 4985,
      "èľĴ": 4986,
      "èļĤ": 4987,
      "èļĿ": 4988,
      "315": 4989,
      "SD": 4990,
      "Ġå®ļ": 4991,
      "Ġåħħ": 4992,
      "æķĽ": 4993,
      "ä¾ĥ": 4994,
      "æ£±": 4995,
      "èĿĩ": 4996,
      "ER": 4997,
      "ge": 4998,
      "Ġåħ¥": 4999,
      "ĠçĿĢ": 5000,
      "å±¹": 5001,
      "192": 5002,
      "é¥¥": 5003,
      "çħİ": 5004,
      "Ġç¾¤": 5005,
      "Ġæİ¢": 5006,
      "łæ±Ł": 5007,
      "åĪģ": 5008,
      "å¼ĵ": 5009,
      "èĢ»": 5010,
      "è¢į": 5011,
      "çĥ¨": 5012,
      "è£Ļ": 5013,
      "åĤ»": 5014,
      "242": 5015,
      "åĺĽ": 5016,
      ".âĢľ": 5017,
      "520": 5018,
      "MW": 5019,
      "ub": 5020,
      "ĠK": 5021,
      "Ġæ²¡": 5022,
      "è®³": 5023,
      "æĹĮ": 5024,
      "èĦĲ": 5025,
      "èıģ": 5026,
      "234": 5027,
      "IN": 5028,
      "ĠçŃ¾": 5029,
      "éħĿ": 5030,
      "èĹķ": 5031,
      "è¤ª": 5032,
      "GPT": 5033,
      "ªçĶŁ": 5034,
      "ĠåĨ³": 5035,
      "Ġæ¸¸": 5036,
      "Ġå¤ª": 5037,
      "ĠæĿľ": 5038,
      "Ġun": 5039,
      "æĸĲ": 5040,
      "æł©": 5041,
      "æ¶ħ": 5042,
      "èĮĹ": 5043,
      "èĭĽ": 5044,
      "åĸ§": 5045,
      "çĥ½": 5046,
      "2600": 5047,
      "èĽŁ": 5048,
      "218": 5049,
      "Bçº§": 5050,
      "Ġæµİ": 5051,
      "Ġç»©": 5052,
      "Ġåģľ": 5053,
      "æĺ±": 5054,
      "çİº": 5055,
      "éķį": 5056,
      "çª¦": 5057,
      "çªĸ": 5058,
      "Â·Â·": 5059,
      "ï¹ŀ": 5060,
      "ne": 5061,
      "te": 5062,
      "ĠçĥŃ": 5063,
      "ãĢĮ": 5064,
      "æ·¬": 5065,
      "æ·ĸ": 5066,
      "çķ²": 5067,
      "307": 5068,
      "308": 5069,
      "å¨ħ": 5070,
      "265": 5071,
      "2700": 5072,
      "3600": 5073,
      "325": 5074,
      "Ġ\"": 5075,
      "Ġçº¿": 5076,
      "ĠèĬĤ": 5077,
      "åħ¢": 5078,
      "æľ½": 5079,
      "ç§¤": 5080,
      "æ¸İ": 5081,
      "ç¼¤": 5082,
      "çĹĺ": 5083,
      "229": 5084,
      "ï¹Ŀ": 5085,
      "TA": 5086,
      "]-": 5087,
      "Ġåĵį": 5088,
      "Ġåı¶": 5089,
      "ãĢį": 5090,
      "éĿ¡": 5091,
      "ä¾Ī": 5092,
      "èĥļ": 5093,
      "æ·Į": 5094,
      "éľĨ": 5095,
      "Ġ36": 5096,
      "235": 5097,
      "227": 5098,
      "328": 5099,
      "850": 5100,
      "913": 5101,
      "VOC": 5102,
      "ĠåĬ¨": 5103,
      "è¯¿": 5104,
      "æµľ": 5105,
      "tp": 5106,
      "ĠçĲĨ": 5107,
      "Ġæ¬¡": 5108,
      "ĠæĦı": 5109,
      "ĠèĮĥ": 5110,
      "Ġå¾Ī": 5111,
      "Ġå¥ĭ": 5112,
      "ĠéĽ·": 5113,
      "Ġä¸ģ": 5114,
      "Ġå½Ń": 5115,
      "å¼Ľ": 5116,
      "ä¿ı": 5117,
      "åģĥ": 5118,
      "å¢Ł": 5119,
      "èĭĶ": 5120,
      "1971": 5121,
      "è¹¦": 5122,
      "è¤Ĵ": 5123,
      "ĠX": 5124,
      "ĠéĢĤ": 5125,
      "ĠåĲ¬": 5126,
      "ï¼Ķ": 5127,
      "ä¸¨": 5128,
      "æ±Ĳ": 5129,
      "è··": 5130,
      "éļĭ": 5131,
      "æ¶¿": 5132,
      "269": 5133,
      "275": 5134,
      "ie": 5135,
      "ĠæĿ¡": 5136,
      "Ġæ»¡": 5137,
      "Ġå¾ģ": 5138,
      "åħ®": 5139,
      "å®ķ": 5140,
      "ä¿ĺ": 5141,
      "åĿ¯": 5142,
      "ç¾¡": 5143,
      "çĿ¢": 5144,
      "256": 5145,
      "361": 5146,
      "çĴĭ": 5147,
      "èĺĳ": 5148,
      "GA": 5149,
      "Ġç¨ĭ": 5150,
      "Ġå·ŀ": 5151,
      "Ġç¬Ķ": 5152,
      "ĠåĪļ": 5153,
      "Ġéī´": 5154,
      "ĠçĽĽ": 5155,
      "Ġçīµ": 5156,
      "Ġæ±ª": 5157,
      "ä¸«": 5158,
      "æİ·": 5159,
      "002": 5160,
      "ç¼¸": 5161,
      "èİĺ": 5162,
      "æ©±": 5163,
      "3200": 5164,
      "ut": 5165,
      "åĴĲ": 5166,
      "æ¶Ł": 5167,
      "çĸ¹": 5168,
      "åŀ®": 5169,
      "çģ¼": 5170,
      "193": 5171,
      "æĵĤ": 5172,
      "276": 5173,
      "445": 5174,
      "Aç±»": 5175,
      "GåŁº": 5176,
      "æĸĭ": 5177,
      "ä¿ĳ": 5178,
      "æĭĤ": 5179,
      "çľº": 5180,
      "æ¸²": 5181,
      "1979": 5182,
      "505": 5183,
      "é¸½": 5184,
      "ç¿©": 5185,
      "çĳŁ": 5186,
      "å´İ": 5187,
      "æªĢ": 5188,
      "pl": 5189,
      "ĠæĶ¾": 5190,
      "Ġå»¶": 5191,
      "Ġåİ¦": 5192,
      "åĲĴ": 5193,
      "å¯ħ": 5194,
      "é¢ħ": 5195,
      "ç¾ļ": 5196,
      "1965": 5197,
      "1972": 5198,
      "1981": 5199,
      "284": 5200,
      "401": 5201,
      "Ġ02": 5202,
      "xxxx": 5203,
      "318": 5204,
      "],": 5205,
      "Ġå±Ģ": 5206,
      "ĠéĻĨ": 5207,
      "åıĽ": 5208,
      "æıª": 5209,
      "è°Ĩ": 5210,
      "èĬ®": 5211,
      "1968": 5212,
      "1949": 5213,
      "506": 5214,
      "çĢĳ": 5215,
      "560": 5216,
      "Ġèĥ½": 5217,
      "Ġ70": 5218,
      "ä»Ĩ": 5219,
      "è®´": 5220,
      "æį£": 5221,
      "çģŀ": 5222,
      "çĪµ": 5223,
      "æ¼ª": 5224,
      "1001": 5225,
      "239": 5226,
      "æªĲ": 5227,
      "ON": 5228,
      "SS": 5229,
      "io": 5230,
      "Ġæ¶ī": 5231,
      "Ġåħį": 5232,
      "Ġåħ°": 5233,
      "Ġçİī": 5234,
      "Ġ90": 5235,
      "è¯¬": 5236,
      "ï¼ļ(": 5237,
      "çĬĢ": 5238,
      "æħ·": 5239,
      "Ġ32": 5240,
      "èĿ´": 5241,
      "316": 5242,
      "Bç±»": 5243,
      "EM": 5244,
      "zy": 5245,
      "Ġåĺī": 5246,
      "åĲ»": 5247,
      "æ²ĵ": 5248,
      "éĺ±": 5249,
      "æ¦¨": 5250,
      "266": 5251,
      "çĳ¾": 5252,
      "pa": 5253,
      "Ġg": 5254,
      "ĠèĵĿ": 5255,
      "åįĳ": 5256,
      "å¼§": 5257,
      "æķĸ": 5258,
      "å¾ĩ": 5259,
      "æ²¦": 5260,
      "èĮ¹": 5261,
      "1970": 5262,
      "247": 5263,
      "398": 5264,
      "æĨ¨": 5265,
      "399": 5266,
      "Ã·": 5267,
      "èł": 5268,
      "Ġh": 5269,
      "Ġå®Ī": 5270,
      "Ġæ°¸": 5271,
      "åºµ": 5272,
      "èĥ¥": 5273,
      "æĥ¹": 5274,
      "éħļ": 5275,
      "601": 5276,
      "295": 5277,
      "375": 5278,
      "ang": 5279,
      "5500": 5280,
      ":(": 5281,
      "CC": 5282,
      "ct": 5283,
      "ok": 5284,
      "ĠçĪ±": 5285,
      "è¡«": 5286,
      "æī³": 5287,
      "èµĪ": 5288,
      "åĳ·": 5289,
      "è½¼": 5290,
      "éļħ": 5291,
      "åĹħ": 5292,
      "VOCs": 5293,
      "SH": 5294,
      "ry": 5295,
      "Ġ+": 5296,
      "Ġç»´": 5297,
      "Ġå¥¥": 5298,
      "Ġç§¦": 5299,
      "é¦ħ": 5300,
      "åĶĩ": 5301,
      "1900": 5302,
      "245": 5303,
      "268": 5304,
      "å©º": 5305,
      "CPI": 5306,
      "TV": 5307,
      "Ġå½ķ": 5308,
      "ĠèĶ¡": 5309,
      "åºĩ": 5310,
      "å¾Ļ": 5311,
      "æĭĩ": 5312,
      "æĻĹ": 5313,
      "èĮ§": 5314,
      "çĹ°": 5315,
      "267": 5316,
      "èĹī": 5317,
      "346": 5318,
      "æĨ¬": 5319,
      "ow": 5320,
      "Ġåį°": 5321,
      "Ġæīİ": 5322,
      "çļĤ": 5323,
      "çļĦS": 5324,
      "èµĲ": 5325,
      "é¢¤": 5326,
      "ï¼ī-": 5327,
      "åĵĹ": 5328,
      "åĿį": 5329,
      "æ¼¾": 5330,
      "405": 5331,
      "å´Ĥ": 5332,
      "âħ£": 5333,
      "é³Ħ": 5334,
      "312": 5335,
      "ĠåħĪ": 5336,
      "Ġåıĺ": 5337,
      "ãĢģ\"": 5338,
      "è®½": 5339,
      "åĮ®": 5340,
      "ä¿Ĳ": 5341,
      "æĭ¯": 5342,
      "æĭİ": 5343,
      "ç¨ł": 5344,
      "æ£į": 5345,
      "å²·": 5346,
      "339": 5347,
      "åļ£": 5348,
      "390": 5349,
      "OS": 5350,
      "PE": 5351,
      "UPS": 5352,
      "eåħ¬": 5353,
      "ĠY": 5354,
      "Ġåĳĺ": 5355,
      "Ġçī©": 5356,
      "Ġç§į": 5357,
      "å¯ĩ": 5358,
      "éķĳ": 5359,
      "æ¸į": 5360,
      "å³Ļ": 5361,
      "244": 5362,
      "285": 5363,
      "ç¯Ĩ": 5364,
      "688": 5365,
      "IF": 5366,
      "TOP": 5367,
      "ĠåıĬ": 5368,
      "Ġ80": 5369,
      "ĠåĲķ": 5370,
      "Ġâī¥": 5371,
      "å¼ĭ": 5372,
      "æįĮ": 5373,
      "çĦĻ": 5374,
      "æĴ¸": 5375,
      "191": 5376,
      "246": 5377,
      "é²¤": 5378,
      "Ġ500": 5379,
      "338": 5380,
      "èŁĴ": 5381,
      "ort": 5382,
      "http": 5383,
      "223": 5384,
      "510": 5385,
      "Ġè®²": 5386,
      "Ġåįļ": 5387,
      "Ġæ¢ħ": 5388,
      "Ġåį¢": 5389,
      "ï¼Ĺ": 5390,
      "ä½Ł": 5391,
      "åį¦": 5392,
      "è·ĭ": 5393,
      "æģķ": 5394,
      "éĵĨ": 5395,
      "çĥĥ": 5396,
      "çĹ´": 5397,
      "éŁ¬": 5398,
      "243": 5399,
      "æ¾¡": 5400,
      "çħľ": 5401,
      "ç¯¡": 5402,
      "å«¦": 5403,
      "aaS": 5404,
      "TB": 5405,
      "gg": 5406,
      "§æĨ¬": 5407,
      "ĠåĪĻ": 5408,
      "Ġåıª": 5409,
      "Ġæ³°": 5410,
      "ĠæħĪ": 5411,
      "å®¸": 5412,
      "åĴª": 5413,
      "åĵ¦": 5414,
      "ç¨ļ": 5415,
      "éĵĤ": 5416,
      "æ¤¿": 5417,
      "å¨¶": 5418,
      "241": 5419,
      "298": 5420,
      "214": 5421,
      "EV": 5422,
      "up": 5423,
      "ĠV": 5424,
      "Ġå¤į": 5425,
      "Ġæī¹": 5426,
      "ĠæĽ²": 5427,
      "æ¶£": 5428,
      "508": 5429,
      "288": 5430,
      "åĹ¨": 5431,
      "å¬ī": 5432,
      "GK": 5433,
      "²æĺ¥": 5434,
      "Ġå¸Į": 5435,
      "Ġçľ¼": 5436,
      "ï¼ĸ": 5437,
      "æ³£": 5438,
      "è¾Ĺ": 5439,
      "èĲ¤": 5440,
      "éĤ¸": 5441,
      "252": 5442,
      "amp": 5443,
      "311": 5444,
      "914": 5445,
      "DS": 5446,
      "na": 5447,
      "¼çĸ¾": 5448,
      "Ġå¿«": 5449,
      "ï¼ĺ": 5450,
      "éĺ¡": 5451,
      "æ¯ĵ": 5452,
      "501": 5453,
      "Ġ39": 5454,
      "254": 5455,
      "4200": 5456,
      "da": 5457,
      "Ġåĩł": 5458,
      "Ġåĳ¼": 5459,
      "æ²£": 5460,
      "å§¥": 5461,
      "éª¸": 5462,
      "åĸĨ": 5463,
      "åĤ£": 5464,
      "249": 5465,
      "258": 5466,
      "603": 5467,
      "606": 5468,
      "Ġ03": 5469,
      "ate": 5470,
      "é³ŀ": 5471,
      "âĨĵ": 5472,
      "410": 5473,
      "])": 5474,
      "Ġ]": 5475,
      "Ġl": 5476,
      "Ġv": 5477,
      "Ġåħ´": 5478,
      "Ġä¸°": 5479,
      "Ġco": 5480,
      "Ġè¢ģ": 5481,
      "åĩ¹": 5482,
      "åİĿ": 5483,
      "èĤ´": 5484,
      "æŁĴ": 5485,
      "åĿ»": 5486,
      "èĮ¸": 5487,
      "è¢¤": 5488,
      "åĭº": 5489,
      "1975": 5490,
      ")(": 5491,
      "321": 5492,
      "430": 5493,
      "618": 5494,
      "6500": 5495,
      "HPV": 5496,
      "¦çīĽ": 5497,
      "Ġè·¯": 5498,
      "Ġä½¿": 5499,
      "ĠæİĴ": 5500,
      "ĠæĹħ": 5501,
      "Ġåħī": 5502,
      "Ġéĵģ": 5503,
      "Łåİ¿": 5504,
      "ç»ŀ": 5505,
      "æĸĽ": 5506,
      "åĳķ": 5507,
      "æĥ¬": 5508,
      "èĮģ": 5509,
      "æ¾§": 5510,
      "377": 5511,
      "fcg": 5512,
      "ri": 5513,
      "ta": 5514,
      "ĠæĪ·": 5515,
      "Ġå¿Ĺ": 5516,
      "Ġè¡Ĺ": 5517,
      "Ġç±³": 5518,
      "ï¼Ļ": 5519,
      "åĮ¡": 5520,
      "éĩľ": 5521,
      "èĤĺ": 5522,
      "è°į": 5523,
      "çķ¸": 5524,
      "å²ĳ": 5525,
      "æ»Ķ": 5526,
      "çĥĽ": 5527,
      "éĴŀ": 5528,
      "éĤº": 5529,
      "286": 5530,
      "é¸¦": 5531,
      "470": 5532,
      "DA": 5533,
      "QI": 5534,
      "zfcg": 5535,
      "Ġä¾ĭ": 5536,
      "Ġæĭī": 5537,
      "Ġè´¦": 5538,
      "ĠåĨ¯": 5539,
      "Ġqq": 5540,
      "äº¥": 5541,
      "åĪ¨": 5542,
      "ä½ĺ": 5543,
      "åľŃ": 5544,
      "è¯¡": 5545,
      "éĿ³": 5546,
      "æ±¹": 5547,
      "éķĮ": 5548,
      "ç¾ŀ": 5549,
      "çłļ": 5550,
      "æĽ°": 5551,
      "èĮľ": 5552,
      "å¦ĸ": 5553,
      "çª¥": 5554,
      "1969": 5555,
      "Ġ210": 5556,
      "èħĮ": 5557,
      "277": 5558,
      "suv": 5559,
      "319": 5560,
      "313": 5561,
      "326": 5562,
      "336": 5563,
      "580": 5564,
      "os": 5565,
      "pd": 5566,
      "Ġæ°Ķ": 5567,
      "ĠåĢº": 5568,
      "Ġèµ£": 5569,
      "ĠèĤĸ": 5570,
      "Ġå§ļ": 5571,
      "ä¿º": 5572,
      "ï¼ī:": 5573,
      "è·¤": 5574,
      "çĦī": 5575,
      "1973": 5576,
      "ç¢¾": 5577,
      "502": 5578,
      "257": 5579,
      "åĺ²": 5580,
      "èĵĵ": 5581,
      "Ġâĳ¤": 5582,
      "led": 5583,
      "SCI": 5584,
      "323": 5585,
      "925": 5586,
      "pv": 5587,
      "ter": 5588,
      "ĠåĽ¢": 5589,
      "ĠæĪĺ": 5590,
      "ĠæİĪ": 5591,
      "Ġçº¸": 5592,
      "ĠæĺĨ": 5593,
      "è®¶": 5594,
      "å¯¥": 5595,
      "æ¶©": 5596,
      "çĸŁ": 5597,
      "ĠĊĠ": 5598,
      "Ġ41": 5599,
      "358": 5600,
      "366": 5601,
      "395": 5602,
      "CTV": 5603,
      "530": 5604,
      "Ġå®¢": 5605,
      "ĠåĦ¿": 5606,
      "Ġåįĥ": 5607,
      "Ġæ²Ļ": 5608,
      "Ġæī¬": 5609,
      "ç»®": 5610,
      "æĥ«": 5611,
      "005": 5612,
      "éĶ²": 5613,
      "çĥĻ": 5614,
      "çªľ": 5615,
      "Ġ33": 5616,
      "297": 5617,
      "âĳ¤": 5618,
      "475": 5619,
      "Cçº§": 5620,
      "GCP": 5621,
      "OF": 5622,
      "cz": 5623,
      "Ġä¹ĭ": 5624,
      "Ġç¦»": 5625,
      "ĠåĨ¬": 5626,
      "ĠæľĿ": 5627,
      "ĠéĿĸ": 5628,
      "åĮ£": 5629,
      "å±ĳ": 5630,
      "æıī": 5631,
      "éĽī": 5632,
      "å¦Ħ": 5633,
      "éĶ¹": 5634,
      "æ¹Ł": 5635,
      "çıĤ": 5636,
      "194": 5637,
      "540": 5638,
      "ZF": 5639,
      "ĠäºĴ": 5640,
      "Ġå®ľ": 5641,
      "ĠçĶ²": 5642,
      "Ġæ¯Ľ": 5643,
      "Ġå°Ĭ": 5644,
      "Ġæ²§": 5645,
      "æĶ¸": 5646,
      "åĴĢ": 5647,
      "èĤĭ": 5648,
      "åĵĳ": 5649,
      "ç¼¨": 5650,
      "çĪª": 5651,
      "Ġ37": 5652,
      "Ġ38": 5653,
      "å©§": 5654,
      "çĺ´": 5655,
      "æª¬": 5656,
      "ev": 5657,
      "ey": 5658,
      "mil": 5659,
      "ĠæĢĢ": 5660,
      "Ġæī«": 5661,
      "Ġéĵľ": 5662,
      "ĠéŃı": 5663,
      "çĲ¶": 5664,
      "éħ¥": 5665,
      "264": 5666,
      "763": 5667,
      "Ġç«Ļ": 5668,
      "Ġæ¸¯": 5669,
      "ĠæĲŃ": 5670,
      "äº¢": 5671,
      "åŃļ": 5672,
      "èĢ¦": 5673,
      "å¢Ĵ": 5674,
      "æ¡¨": 5675,
      "åĢ¦": 5676,
      "èĮµ": 5677,
      "éħª": 5678,
      "1966": 5679,
      "1964": 5680,
      "253": 5681,
      "680": 5682,
      "HS": 5683,
      "ID": 5684,
      "RT": 5685,
      "me": 5686,
      "Ġæµģ": 5687,
      "ĠçŁ¥": 5688,
      "Ġåħ»": 5689,
      "Ġå½±": 5690,
      "ä½¼": 5691,
      "åĲı": 5692,
      "åĮĿ": 5693,
      "åĴĭ": 5694,
      "ï¼ī,": 5695,
      "æŁļ": 5696,
      "éģĽ": 5697,
      "ç²¼": 5698,
      "éĤ¡": 5699,
      "Ġ34": 5700,
      "Ġ300": 5701,
      "602": 5702,
      "Ġ42": 5703,
      "362": 5704,
      "388": 5705,
      "---": 5706,
      "mar": 5707,
      "\"\"": 5708,
      "010": 5709,
      "327": 5710,
      "495": 5711,
      "570": 5712,
      "LL": 5713,
      "og": 5714,
      "ĠåŃĺ": 5715,
      "Ġäºī": 5716,
      "Ġ200": 5717,
      "å¸ļ": 5718,
      "è´¼": 5719,
      "ä¹į": 5720,
      "åĴķ": 5721,
      "æµĬ": 5722,
      "æĽ³": 5723,
      "ç²Ł": 5724,
      "åĶĳ": 5725,
      "Ġ47": 5726,
      "351": 5727,
      "355": 5728,
      "èķĬ": 5729,
      "ard": 5730,
      "NA": 5731,
      "oc": 5732,
      "ĠéĻĲ": 5733,
      "Ġè®º": 5734,
      "Ġèĥ¶": 5735,
      "Ġ>>": 5736,
      "åĵ®": 5737,
      "ç¾²": 5738,
      "é¦į": 5739,
      "ç¼Ļ": 5740,
      "ç¼ļ": 5741,
      "æ»¦": 5742,
      "æ¼ķ": 5743,
      "1963": 5744,
      "éŁŃ": 5745,
      "çĨĦ": 5746,
      "ç¯±": 5747,
      "368": 5748,
      "3800": 5749,
      "ĠPro": 5750,
      "%âĢĿ": 5751,
      "ov": 5752,
      "Ġæĥł": 5753,
      "Ġå·¡": 5754,
      "Ġä¼´": 5755,
      "ĠéĢ¾": 5756,
      "æĸĵ": 5757,
      "ä¼¶": 5758,
      "æ·ħ": 5759,
      "èİº": 5760,
      "éĤķ": 5761,
      "å¡¬": 5762,
      "291": 5763,
      "378": 5764,
      "èĽ³": 5765,
      "425": 5766,
      "In": 5767,
      "bs": 5768,
      "ĠæķĪ": 5769,
      "Ġè§ģ": 5770,
      "Ġåĩı": 5771,
      "Ġéĺľ": 5772,
      "ä¾®": 5773,
      "èº¯": 5774,
      "1960": 5775,
      "1967": 5776,
      "1974": 5777,
      "605": 5778,
      "294": 5779,
      "443": 5780,
      "ggzy": 5781,
      "317": 5782,
      "919": 5783,
      "ly": 5784,
      "Ġå¿ĥ": 5785,
      "Ġä¹¦": 5786,
      "Ġèŀį": 5787,
      "Ġåį«": 5788,
      "Ġäºļ": 5789,
      "Ġè´º": 5790,
      "ĠéĤĵ": 5791,
      "Ġæ¼Ĥ": 5792,
      "èģĭ": 5793,
      "åĢļ": 5794,
      "Ġ45": 5795,
      "çŀª": 5796,
      "art": 5797,
      "Chat": 5798,
      "498": 5799,
      "630": 5800,
      "AG": 5801,
      "ws": 5802,
      "zh": 5803,
      "ĠæĪĸ": 5804,
      "ĠèµĽ": 5805,
      "ĠæĺĮ": 5806,
      "Ġçºł": 5807,
      "ĠéĴŁ": 5808,
      "Ġçĳŀ": 5809,
      "çĿ«": 5810,
      "çª¨": 5811,
      "1976": 5812,
      "259": 5813,
      "263": 5814,
      "701": 5815,
      "857": 5816,
      "ank": 5817,
      "åļ¼": 5818,
      "NF": 5819,
      "Op": 5820,
      "ZX": 5821,
      "çµ": 5822,
      "Ġ%": 5823,
      "Ġè´Ń": 5824,
      "Ġä»·": 5825,
      "Ġåº·": 5826,
      "ĠåĬ³": 5827,
      "ĠæĮĤ": 5828,
      "ĠãĢĳ": 5829,
      "Ġå²³": 5830,
      "Ġè°Ń": 5831,
      "åĽļ": 5832,
      "ä¹ĸ": 5833,
      "åĩĽ": 5834,
      "å§£": 5835,
      "çĤĻ": 5836,
      "1050": 5837,
      "èĭĩ": 5838,
      "æ¥«": 5839,
      "0001": 5840,
      "287": 5841,
      "402": 5842,
      "Ġ05": 5843,
      "802": 5844,
      "3300": 5845,
      "512": 5846,
      "511": 5847,
      "950": 5848,
      "GS": 5849,
      "bo": 5850,
      "ĠJ": 5851,
      "Ġè¶Ĭ": 5852,
      "ĠèĮ¶": 5853,
      "ĠèįĨ": 5854,
      "æĶĺ": 5855,
      "éªĭ": 5856,
      "1977": 5857,
      "çĩİ": 5858,
      "çĨ¹": 5859,
      "çĵ®": 5860,
      "337": 5861,
      "385": 5862,
      "PPT": 5863,
      "XXX": 5864,
      "çµ®": 5865,
      "-âĢľ": 5866,
      "832": 5867,
      ";&": 5868,
      "CB": 5869,
      "Cç½Ĺ": 5870,
      "ex": 5871,
      "Ġåįł": 5872,
      "Ġçł´": 5873,
      "ĠéĤ¹": 5874,
      "æĪĽ": 5875,
      "æĿĸ": 5876,
      "è½¶": 5877,
      "è°Į": 5878,
      "é£ĵ": 5879,
      "éĵ¬": 5880,
      "éĴ³": 5881,
      "283": 5882,
      "271": 5883,
      "272": 5884,
      "274": 5885,
      "356": 5886,
      "359": 5887,
      "Ġ53": 5888,
      "456": 5889,
      "369": 5890,
      "344": 5891,
      "åĹĵ": 5892,
      "Ġthe": 5893,
      "TCL": 5894,
      "ĠIn": 5895,
      "CF": 5896,
      "Dæīĵ": 5897,
      "KW": 5898,
      "ep": 5899,
      "ĠæĿĥ": 5900,
      "Ġé©»": 5901,
      "ĠéļĨ": 5902,
      "åĬĪ": 5903,
      "ä½¤": 5904,
      "éĹº": 5905,
      "åī¿": 5906,
      "éª¼": 5907,
      "éĤĥ": 5908,
      "éĤĽ": 5909,
      "å¨©": 5910,
      "404": 5911,
      "296": 5912,
      "334": 5913,
      "666": 5914,
      "DNA": 5915,
      "7500": 5916,
      "CM": 5917,
      "ĠåĽŃ": 5918,
      "Ġçº¦": 5919,
      "Ġéħį": 5920,
      "Ġè¶ħ": 5921,
      "Ġç¨³": 5922,
      "Ġè®¿": 5923,
      "Ġå¼Ĥ": 5924,
      "ĠçĥŁ": 5925,
      "Ġç§ģ": 5926,
      "Ġé²ģ": 5927,
      "ĠæŁ³": 5928,
      "Ġæ¾Ħ": 5929,
      "æĸ§": 5930,
      "åĨ¤": 5931,
      "æŁĦ": 5932,
      "003": 5933,
      "006": 5934,
      "æļ®": 5935,
      "503": 5936,
      "406": 5937,
      "278": 5938,
      "347": 5939,
      "GDR": 5940,
      "ash": 5941,
      "doc": 5942,
      "pm": 5943,
      "ran": 5944,
      "Ġåı¸": 5945,
      "Ġé¡º": 5946,
      "Ġä»ª": 5947,
      "Ġä¼Ĭ": 5948,
      "æŀŀ": 5949,
      "ä¾Ħ": 5950,
      "æĻĶ": 5951,
      "èĮİ": 5952,
      "éĶ°": 5953,
      "éĶŃ": 5954,
      "é©Ń": 5955,
      "æ½º": 5956,
      "å¨£": 5957,
      "289": 5958,
      "407": 5959,
      "**,": 5960,
      "459": 5961,
      "èĽĽ": 5962,
      "ceo": 5963,
      "324": 5964,
      "HTC": 5965,
      "SZ": 5966,
      "gs": 5967,
      "ĠQ": 5968,
      "ĠåĳĬ": 5969,
      "ĠåĨĽ": 5970,
      "Ġåı¬": 5971,
      "ĠåĩĮ": 5972,
      "ĠçĨĬ": 5973,
      "ï¼ľ": 5974,
      "ï¼Ŀ": 5975,
      "æ°ª": 5976,
      "æ°°": 5977,
      "ç§ĥ": 5978,
      "èĢ¸": 5979,
      "éķī": 5980,
      "åĵ©": 5981,
      "éħ°": 5982,
      "éĴĴ": 5983,
      "èıł": 5984,
      "282": 5985,
      "367": 5986,
      "349": 5987,
      "ibm": 5988,
      "AQI": 5989,
      "li": 5990,
      "we": 5991,
      "Ġ202": 5992,
      "Ġæĺĵ": 5993,
      "ĠæĻ¯": 5994,
      "Ġåį¡": 5995,
      "Ġæ´ª": 5996,
      "çļ±": 5997,
      "ãĢĤ[": 5998,
      "åĴļ": 5999,
      "æŃ¹": 6000,
      "è¾Ļ": 6001,
      "åŀĽ": 6002,
      "æ¼±": 6003,
      "èľĹ": 6004,
      "DIY": 6005,
      "cpi": 6006,
      "620": 6007,
      "DB": 6008,
      "JL": 6009,
      "th": 6010,
      "ud": 6011,
      "Ġä¿®": 6012,
      "ĠçŃĳ": 6013,
      "ĠåĽº": 6014,
      "ĠåĢŁ": 6015,
      "ĠèĴĭ": 6016,
      "Ĭå¨": 6017,
      "æīĴ": 6018,
      "éª¥": 6019,
      "409": 6020,
      "604": 6021,
      "èĴ¿": 6022,
      "åĥ»": 6023,
      "293": 6024,
      "801": 6025,
      "357": 6026,
      "Ġ51": 6027,
      "386": 6028,
      "ure": 6029,
      "488": 6030,
      "465": 6031,
      "ISO": 6032,
      "Ĭå¨ł": 6033,
      "423": 6034,
      "BC": 6035,
      "BåĮº": 6036,
      "ss": 6037,
      "ãĥ": 6038,
      "Ġè¯ķ": 6039,
      "Ġå¯Į": 6040,
      "Ġæ¾³": 6041,
      "Ġèħ¾": 6042,
      "Ġæ¸Ŀ": 6043,
      "è¡Ļ": 6044,
      "çŃĲ": 6045,
      "è¾Ħ": 6046,
      "è¶´": 6047,
      "å²Ĥ": 6048,
      "çĹĴ": 6049,
      "æ¥Ĥ": 6050,
      "Ġ04": 6051,
      "Ġ48": 6052,
      "3700": 6053,
      "Open": 6054,
      "AE": 6055,
      "IV": 6056,
      "SUV": 6057,
      "px": 6058,
      "Ġ=": 6059,
      "Ġ@": 6060,
      "Ġå¯¼": 6061,
      "Ġçī¢": 6062,
      "Ġç§Ł": 6063,
      "Ġæµı": 6064,
      "ãĢĤ)": 6065,
      "çĲĽ": 6066,
      "å¿±": 6067,
      "çľ¶": 6068,
      "æ¡¢": 6069,
      "èį»": 6070,
      "éªħ": 6071,
      "éªĽ": 6072,
      "è¥Ł": 6073,
      "çıº": 6074,
      "å³Ĵ": 6075,
      "262": 6076,
      "3400": 6077,
      "3100": 6078,
      "322": 6079,
      "610": 6080,
      "990": 6081,
      "GMP": 6082,
      "bb": 6083,
      "cl": 6084,
      "çį": 6085,
      "Ġæ¯ķ": 6086,
      "éĢħ": 6087,
      "çĲµ": 6088,
      "éĥ§": 6089,
      "ï¼ī+": 6090,
      "ç¬¨": 6091,
      "éĤĤ": 6092,
      "1950": 6093,
      "æĲĵ": 6094,
      "261": 6095,
      "Ġ44": 6096,
      "è¹Ń": 6097,
      "CAR": 6098,
      "end": 6099,
      "orn": 6100,
      "415": 6101,
      "534": 6102,
      "670": 6103,
      "MV": 6104,
      "cd": 6105,
      "kv": 6106,
      "å¶": 6107,
      "Ġè¾¾": 6108,
      "Ġä»ĺ": 6109,
      "ĠèĪª": 6110,
      "Ġå®Ĺ": 6111,
      "Ġç£ĭ": 6112,
      "Ġæ´Ľ": 6113,
      "Ġä¹Ļ": 6114,
      "ĠéĤµ": 6115,
      "åķ°": 6116,
      "åŀ¢": 6117,
      "1010": 6118,
      "281": 6119,
      "408": 6120,
      "çħ½": 6121,
      "å©ķ": 6122,
      "455": 6123,
      "583": 6124,
      "æ§¿": 6125,
      "ivo": 6126,
      "ãĥ»": 6127,
      "020": 6128,
      "314": 6129,
      "532": 6130,
      "780": 6131,
      "911": 6132,
      "AåĮº": 6133,
      "BN": 6134,
      "Mag": 6135,
      "jian": 6136,
      "Ġé½Ĳ": 6137,
      "ĠåĩĿ": 6138,
      "Ġin": 6139,
      "ĠéĻ¶": 6140,
      "Ġå§ľ": 6141,
      "æĬī": 6142,
      "æĺ§": 6143,
      "å¯Ŀ": 6144,
      "2080": 6145,
      "ä¾į": 6146,
      "ãĢĭ;": 6147,
      "è¢±": 6148,
      "èĪħ": 6149,
      "é©¯": 6150,
      "é¹Ĭ": 6151,
      "458": 6152,
      "363": 6153,
      "çĴĩ": 6154,
      "èŁł": 6155,
      "Ġcal": 6156,
      "SDGP": 6157,
      "023": 6158,
      "660": 6159,
      "Dçº§": 6160,
      "OPP": 6161,
      "](": 6162,
      "cy": 6163,
      "Ġå¸ĥ": 6164,
      "ĠéĻį": 6165,
      "Ġå®Ŀ": 6166,
      "Ġä»Ģ": 6167,
      "Ġè¿Ķ": 6168,
      "è´»": 6169,
      "æĪį": 6170,
      "æİł": 6171,
      "åĵĩ": 6172,
      "çŁ¸": 6173,
      "çŁĹ": 6174,
      "ç²ĳ": 6175,
      "èĮī": 6176,
      "åĶ¿": 6177,
      "éĤ¬": 6178,
      "çıı": 6179,
      "273": 6180,
      "ç¿Ĭ": 6181,
      "Ġ49": 6182,
      "èĹ©": 6183,
      "341": 6184,
      "998": 6185,
      "odel": 6186,
      "438": 6187,
      "Nat": 6188,
      "iP": 6189,
      "Ġè¯¾": 6190,
      "Ġwww": 6191,
      "Ġé»Ķ": 6192,
      "Ġst": 6193,
      "ç¨ŀ": 6194,
      "æ¶ŀ": 6195,
      "ç¥Ľ": 6196,
      "çıŀ": 6197,
      "1956": 6198,
      "1962": 6199,
      "æ¦§": 6200,
      "åĺĺ": 6201,
      "âĢĻ,": 6202,
      "Ġ06": 6203,
      "292": 6204,
      "803": 6205,
      "372": 6206,
      "389": 6207,
      "597": 6208,
      "ï½ľ": 6209,
      "960": 6210,
      "EæĭĽ": 6211,
      "GX": 6212,
      "HB": 6213,
      "QC": 6214,
      "con": 6215,
      "dæīĵ": 6216,
      "our": 6217,
      "Ġä»¶": 6218,
      "ĠæĬ¤": 6219,
      "Ġæł¡": 6220,
      "ĠåĪĩ": 6221,
      "Ġå±ŀ": 6222,
      "Ġèī¯": 6223,
      "Ġç«ł": 6224,
      "Ġæĸ¯": 6225,
      "Ġå±¥": 6226,
      "Ġè¾Ĩ": 6227,
      "Ġç½ļ": 6228,
      "Ġå´Ķ": 6229,
      "æ±ŀ": 6230,
      "è°§": 6231,
      "çĤ½": 6232,
      "çĤĬ": 6233,
      "æ·ŀ": 6234,
      "ç¦§": 6235,
      "éĤĹ": 6236,
      "251": 6237,
      "ç£º": 6238,
      "2900": 6239,
      "353": 6240,
      "374": 6241,
      "342": 6242,
      "è¹´": 6243,
      "ice": 6244,
      "çĢĽ": 6245,
      "è¤ļ": 6246,
      "OPPO": 6247,
      "%âĢĶ": 6248,
      "428": 6249,
      "BIM": 6250,
      "HC": 6251,
      "HN": 6252,
      "nba": 6253,
      "sd": 6254,
      "Ġçº§": 6255,
      "Ġå§ĭ": 6256,
      "Ġæ¥¼": 6257,
      "ĠèĦ±": 6258,
      "Ġåĥı": 6259,
      "Ġéĺħ": 6260,
      "ï¼½": 6261,
      "ï¼ŀ": 6262,
      "ä¼º": 6263,
      "æĮŁ": 6264,
      "ç³Ļ": 6265,
      "æ·Ĩ": 6266,
      "éĵİ": 6267,
      "çıĳ": 6268,
      "å³Ń": 6269,
      "451": 6270,
      "902": 6271,
      "394": 6272,
      "4600": 6273,
      "985": 6274,
      "472": 6275,
      "ç°¸": 6276,
      "%)": 6277,
      "417": 6278,
      "518": 6279,
      "5300": 6280,
      "599": 6281,
      "860": 6282,
      "EPC": 6283,
      "ML": 6284,
      "OL": 6285,
      "açº§": 6286,
      "fu": 6287,
      "kW": 6288,
      "ob": 6289,
      "Â³": 6290,
      "ĠåĮĸ": 6291,
      "Ġå¹¶": 6292,
      "Ġæĥ³": 6293,
      "Ġåħĭ": 6294,
      "Ġæ±ĩ": 6295,
      "Ġè´¾": 6296,
      "ï¼»": 6297,
      "çº¶": 6298,
      "éĿ´": 6299,
      "è°²": 6300,
      "çĤ¯": 6301,
      "çĦ±": 6302,
      "éĴ¨": 6303,
      "çĹª": 6304,
      "504": 6305,
      "507": 6306,
      "ong": 6307,
      "ç¿¡": 6308,
      "è¸µ": 6309,
      "909": 6310,
      "381": 6311,
      "384": 6312,
      "391": 6313,
      "393": 6314,
      "çŀ¿": 6315,
      "èĨº": 6316,
      "und": 6317,
      "011": 6318,
      "070": 6319,
      "448": 6320,
      "575": 6321,
      "CL": 6322,
      "EN": 6323,
      "bp": 6324,
      "ru": 6325,
      "ĠU": 6326,
      "Ġä¼Ĺ": 6327,
      "Ġå¸¦": 6328,
      "ĠæĢĿ": 6329,
      "Ġæĭħ": 6330,
      "ĠæŁĲ": 6331,
      "Ġæ±ī": 6332,
      "Ġå¤ľ": 6333,
      "Ġ75": 6334,
      "ç»Ĭ": 6335,
      "ä¼İ": 6336,
      "ä¿¨": 6337,
      "2050": 6338,
      "ç¨Ķ": 6339,
      "çķĪ": 6340,
      "ç¼Ń": 6341,
      "éªģ": 6342,
      "1955": 6343,
      "1954": 6344,
      "1961": 6345,
      "é²Ł": 6346,
      "å´ĥ": 6347,
      "364": 6348,
      "æĩ¿": 6349,
      "485": 6350,
      "685": 6351,
      "ç°§": 6352,
      "\"ï¼Į": 6353,
      "870": 6354,
      "MI": 6355,
      "VS": 6356,
      "Ġå½¢": 6357,
      "ĠåĬŁ": 6358,
      "Ġè´¯": 6359,
      "ĠèĬ±": 6360,
      "ĠéĢĢ": 6361,
      "ĠåıĪ": 6362,
      "ĠæĹ¢": 6363,
      "Ġå¨ģ": 6364,
      "Ġå°¹": 6365,
      "çº«": 6366,
      "å¾Ĭ": 6367,
      "çĿģ": 6368,
      "2028": 6369,
      "æģ¬": 6370,
      "éĵ£": 6371,
      "éĶĦ": 6372,
      "å£ĳ": 6373,
      "åĶł": 6374,
      "çĭĦ": 6375,
      "352": 6376,
      "376": 6377,
      "4800": 6378,
      "396": 6379,
      "466": 6380,
      "479": 6381,
      "åĹĴ": 6382,
      "ive": 6383,
      "515": 6384,
      "AED": 6385,
      "COP": 6386,
      "HW": 6387,
      "LA": 6388,
      "MC": 6389,
      "RE": 6390,
      "est": 6391,
      "ff": 6392,
      "sa": 6393,
      "¬å¦Ĥ": 6394,
      "ĠæĢ§": 6395,
      "Ġåıĸ": 6396,
      "Ġå¤±": 6397,
      "Ġå²Ĺ": 6398,
      "ĠæĬĹ": 6399,
      "Ġæ»¨": 6400,
      "Ġand": 6401,
      "åĨ¥": 6402,
      "åŃ°": 6403,
      "èĤ½": 6404,
      "ãĢĭ)": 6405,
      "æ¶ĵ": 6406,
      "æºħ": 6407,
      "è¢ħ": 6408,
      "çĮ¿": 6409,
      "çĮĹ": 6410,
      "çĭĻ": 6411,
      "403": 6412,
      "681": 6413,
      "AIGC": 6414,
      "all": 6415,
      "III": 6416,
      "765": 6417,
      ":ãĢĬ": 6418,
      "AD": 6419,
      "ax": 6420,
      "Ġçºª": 6421,
      "Ġåı²": 6422,
      "Ġè·¨": 6423,
      "Ġå°ļ": 6424,
      "ĠæĲº": 6425,
      "ĺå¾Ĭ": 6426,
      "å¸§": 6427,
      "çĽĤ": 6428,
      "æĢľ": 6429,
      "çİ¥": 6430,
      "æĭĻ": 6431,
      "æ¯ĭ": 6432,
      "çĸ®": 6433,
      "éħ£": 6434,
      "æ»ĺ": 6435,
      "è£ĺ": 6436,
      "1938": 6437,
      "ç¿±": 6438,
      "805": 6439,
      "809": 6440,
      "é²ģH": 6441,
      "447": 6442,
      "5600": 6443,
      "777": 6444,
      "cctv": 6445,
      "unt": 6446,
      "czt": 6447,
      ")âĢĿ": 6448,
      "/[": 6449,
      "412": 6450,
      "535": 6451,
      "FJ": 6452,
      "GE": 6453,
      "GO": 6454,
      "TH": 6455,
      "ZH": 6456,
      "de": 6457,
      "eè´·": 6458,
      "mv": 6459,
      "per": 6460,
      "Ġå¹²": 6461,
      "Ġæķĳ": 6462,
      "Ġæ±½": 6463,
      "ĠæĺŁ": 6464,
      "ĠãĢĶ": 6465,
      "Ġåĭĩ": 6466,
      "Ġæ±ł": 6467,
      "Ġå§ĵ": 6468,
      "Ġçıł": 6469,
      "Ġä¾¯": 6470,
      "ä½¬": 6471,
      "âĢĿ;": 6472,
      "å¯°": 6473,
      "é¢Į": 6474,
      "éĥľ": 6475,
      "é£ļ": 6476,
      "çĪ¹": 6477,
      "çªĺ": 6478,
      "æ¥¹": 6479,
      "æ¿ī": 6480,
      "åĻ¬": 6481,
      "608": 6482,
      "806": 6483,
      "çĳļ": 6484,
      "å´Ĩ": 6485,
      "343": 6486,
      "444": 6487,
      "IPv": 6488,
      "pdf": 6489,
      "Bè¯ģ": 6490,
      "Co": 6491,
      "SåºĹ": 6492,
      "ik": 6493,
      "ner": 6494,
      "Ġç»Ĩ": 6495,
      "Ġç´¢": 6496,
      "ĠéĽ¨": 6497,
      "ĠæĻļ": 6498,
      "ĠèĴĻ": 6499,
      "ĠçĪ¶": 6500,
      "å¯ŀ": 6501,
      "åİ¥": 6502,
      "æ±¨": 6503,
      "æŀī": 6504,
      "èį¤": 6505,
      "çıĢ": 6506,
      "ç¢Ł": 6507,
      "æĵŀ": 6508,
      "åĺ¹": 6509,
      "éŃħ": 6510,
      "èĽ¾": 6511,
      "397": 6512,
      "ink": 6513,
      "478": 6514,
      "Ġâĳ¥": 6515,
      "446": 6516,
      "640": 6517,
      "?âĢĿ": 6518,
      "HèĤ¡": 6519,
      "SO": 6520,
      "dna": 6521,
      "lt": 6522,
      "xt": 6523,
      "è¤Ĳ": 6524,
      "Ġk": 6525,
      "Ġæ²»": 6526,
      "Ġæ±Ĥ": 6527,
      "Ġéĥ½": 6528,
      "Ġè¯»": 6529,
      "Ġèį£": 6530,
      "ĠåŃ©": 6531,
      "Ġ95": 6532,
      "ĠæĪ´": 6533,
      "Ġæ¡ĵ": 6534,
      "Ĵå¤´": 6535,
      "âĢ»": 6536,
      "æī¼": 6537,
      "ç§½": 6538,
      "ç½¹": 6539,
      "è¶¸": 6540,
      "éĶ¥": 6541,
      "è¢ľ": 6542,
      "èİĴ": 6543,
      "çªį": 6544,
      "é¥µ": 6545,
      "706": 6546,
      "332": 6547,
      "371": 6548,
      "476": 6549,
      "è¹ļ": 6550,
      "ide": 6551,
      "tvb": 6552,
      "414": 6553,
      "513": 6554,
      "698": 6555,
      "725": 6556,
      "880": 6557,
      "DH": 6558,
      "ĠO": 6559,
      "ĠåĨµ": 6560,
      "ĠçĽĬ": 6561,
      "Ġçģ«": 6562,
      "Ġæłĳ": 6563,
      "Ġæ·®": 6564,
      "Ġæ³¸": 6565,
      "çĲ®": 6566,
      "çĤĸ": 6567,
      "éĽ³": 6568,
      "èĬĹ": 6569,
      "1958": 6570,
      "607": 6571,
      "é¹¦": 6572,
      "703": 6573,
      "457": 6574,
      "907": 6575,
      "481": 6576,
      "486": 6577,
      "éĦ¢": 6578,
      "ipo": 6579,
      "//": 6580,
      "418": 6581,
      "436": 6582,
      "546": 6583,
      "668": 6584,
      "710": 6585,
      "737": 6586,
      "915": 6587,
      "FOF": 6588,
      "GJ": 6589,
      "GZ": 6590,
      "HK": 6591,
      "RI": 6592,
      "TE": 6593,
      "TS": 6594,
      "UçĽĺ": 6595,
      "hone": 6596,
      "iph": 6597,
      "jy": 6598,
      "vivo": 6599,
      "¯èļ": 6600,
      "Ġe": 6601,
      "ĠåºĨ": 6602,
      "Ġæī©": 6603,
      "Ġè¿İ": 6604,
      "ĠéĽĦ": 6605,
      "Ġä¸¹": 6606,
      "Ġ96": 6607,
      "Ġå»ĸ": 6608,
      "çļĦB": 6609,
      "åĲ¼": 6610,
      "çĽ±": 6611,
      "å°ī": 6612,
      "åŃ¢": 6613,
      "åĿ·": 6614,
      "åŀĮ": 6615,
      "èİ½": 6616,
      "çĭ©": 6617,
      "èĹ¿": 6618,
      "é¹ī": 6619,
      "452": 6620,
      "901": 6621,
      "373": 6622,
      "993": 6623,
      "Ġ700": 6624,
      "555": 6625,
      "496": 6626,
      "¯èļĵ": 6627,
      "331": 6628,
      "419": 6629,
      "625": 6630,
      "NO": 6631,
      "WTO": 6632,
      "sp": 6633,
      "vs": 6634,
      "ver": 6635,
      "Ġé¢ĺ": 6636,
      "Ġç¤º": 6637,
      "ĠåĪ«": 6638,
      "Ġèīº": 6639,
      "ĠçīĪ": 6640,
      "ĠçīĽ": 6641,
      "Ġå´ĩ": 6642,
      "Ġéĺ´": 6643,
      "Ġåħģ": 6644,
      "åį¯": 6645,
      "éĺĸ": 6646,
      "ï¼ī/": 6647,
      "å§Ĺ": 6648,
      "åĿ¨": 6649,
      "æ¯Ļ": 6650,
      "004": 6651,
      "é£Ĵ": 6652,
      "æģį": 6653,
      "éľ¹": 6654,
      "åĭł": 6655,
      "æĳ¹": 6656,
      "1945": 6657,
      "Ġ120": 6658,
      "Ġ46": 6659,
      "èĶ¼": 6660,
      "Ġ65": 6661,
      "èĨĬ": 6662,
      "435": 6663,
      "696": 6664,
      "910": 6665,
      "CBA": 6666,
      "DIP": 6667,
      "PH": 6668,
      "TI": 6669,
      "ist": 6670,
      "ys": 6671,
      "Ġy": 6672,
      "Ġè¯¢": 6673,
      "Ġï¼Ł": 6674,
      "ĠçŁŃ": 6675,
      "Ġäº®": 6676,
      "Ġç¦ģ": 6677,
      "ĠæĿ¾": 6678,
      "ĠçĽĺ": 6679,
      "Ġé»ĺ": 6680,
      "Ġé¾ļ": 6681,
      "åĲ¡": 6682,
      "ç»Ľ": 6683,
      "åĨ½": 6684,
      "åŁĤ": 6685,
      "çĲ¨": 6686,
      "çľ¸": 6687,
      "éķ°": 6688,
      "ç½Ħ": 6689,
      "æ¸º": 6690,
      "çŁ£": 6691,
      "èĬį": 6692,
      "ç©¹": 6693,
      "åŀł": 6694,
      "æĤį": 6695,
      "Ġ110": 6696,
      "æ¥ŀ": 6697,
      "é²¨": 6698,
      "387": 6699,
      "556": 6700,
      "679": 6701,
      "logo": 6702,
      ")/": 6703,
      "4300": 6704,
      "578": 6705,
      "699": 6706,
      "648": 6707,
      "665": 6708,
      "980": 6709,
      "HY": 6710,
      "].": 6711,
      "iz": 6712,
      "la": 6713,
      "to": 6714,
      "Ġå¿ħ": 6715,
      "Ġå¯Ĩ": 6716,
      "Ġè¿ľ": 6717,
      "Ġé£ŀ": 6718,
      "Ġå¸ģ": 6719,
      "Ġè·Ł": 6720,
      "ĠéĴ±": 6721,
      "Ġre": 6722,
      "åįŀ": 6723,
      "çŃ±": 6724,
      "åŁĩ": 6725,
      "ï¼ī(": 6726,
      "èĲ¦": 6727,
      "æįĤ": 6728,
      "1937": 6729,
      "1957": 6730,
      "1952": 6731,
      "å©µ": 6732,
      "è¸ŀ": 6733,
      "382": 6734,
      "çŀ§": 6735,
      "667": 6736,
      "çĴŁ": 6737,
      "ĊĠĠĊ": 6738,
      "imf": 6739,
      "ight": 6740,
      "KWP": 6741,
      "4100": 6742,
      "426": 6743,
      "499": 6744,
      "432": 6745,
      "598": 6746,
      "GæĻº": 6747,
      "JS": 6748,
      "MS": 6749,
      "NC": 6750,
      "ck": 6751,
      "Ġj": 6752,
      "ĠéĢģ": 6753,
      "Ġå¥ĸ": 6754,
      "Ġè¿½": 6755,
      "ĠèĪŀ": 6756,
      "Ġç²¤": 6757,
      "Ġå¤¯": 6758,
      "ĠåŃŁ": 6759,
      "ãĢģ[": 6760,
      "ç»°": 6761,
      "æĸ¡": 6762,
      "çĶ¥": 6763,
      "è§ĳ": 6764,
      "0010": 6765,
      "æįħ": 6766,
      "éľģ": 6767,
      "è¢Ĥ": 6768,
      "ç¼ľ": 6769,
      "éĴľ": 6770,
      "1953": 6771,
      "é²«": 6772,
      "èĵ¥": 6773,
      "709": 6774,
      "Ġ57": 6775,
      "èľĩ": 6776,
      "392": 6777,
      "468": 6778,
      "Ġ85": 6779,
      "477": 6780,
      "494": 6781,
      "ĊĠĠ": 6782,
      "012": 6783,
      "427": 6784,
      "8500": 6785,
      "LO": 6786,
      "PN": 6787,
      "Wind": 6788,
      "ci": 6789,
      "gw": 6790,
      "Ġä¹ī": 6791,
      "Ġèĩ´": 6792,
      "ĠåºŁ": 6793,
      "Ġç§ĭ": 6794,
      "ĠéĿĻ": 6795,
      "Ġæµ¦": 6796,
      "Ġæ¡Ĥ": 6797,
      "ĠéĤ±": 6798,
      "ä¸ºA": 6799,
      "ç«º": 6800,
      "æĭ½": 6801,
      "æŁĺ": 6802,
      "éļ½": 6803,
      "ç¾Ķ": 6804,
      "1948": 6805,
      "1947": 6806,
      "ç£ķ": 6807,
      "Ġ43": 6808,
      "483": 6809,
      "463": 6810,
      "988": 6811,
      "491": 6812,
      "573": 6813,
      "589": 6814,
      "5100": 6815,
      "655": 6816,
      "678": 6817,
      "760": 6818,
      "BP": 6819,
      "FW": 6820,
      "IRO": 6821,
      "OA": 6822,
      "ace": 6823,
      "fii": 6824,
      "lan": 6825,
      "qfii": 6826,
      "Â±": 6827,
      "Ġåľº": 6828,
      "Ġåİĭ": 6829,
      "Ġç«¯": 6830,
      "Ġæĭ¥": 6831,
      "Ġ99": 6832,
      "Ġæ¹ĺ": 6833,
      "Ġæ½į": 6834,
      "äºµ": 6835,
      "åı©": 6836,
      "å¹Į": 6837,
      "éĩī": 6838,
      "èµī": 6839,
      "æİĲ": 6840,
      "èĩ§": 6841,
      "æ´®": 6842,
      "åĿĤ": 6843,
      "ç²ķ": 6844,
      "èĳ©": 6845,
      "379": 6846,
      "383": 6847,
      "687": 6848,
      "471": 6849,
      "493": 6850,
      "579": 6851,
      "è¹Ĭ": 6852,
      "eta": 6853,
      "Ġac": 6854,
      "ICU": 6855,
      "030": 6856,
      "411": 6857,
      "413": 6858,
      "416": 6859,
      "490": 6860,
      "525": 6861,
      "526": 6862,
      "711": 6863,
      "955": 6864,
      "SK": 6865,
      "ee": 6866,
      "±å¤´": 6867,
      "ĠåĬ¡": 6868,
      "Ġæł¼": 6869,
      "ĠåĩĨ": 6870,
      "ĠåįĬ": 6871,
      "Ġæľ¨": 6872,
      "Ġå²ģ": 6873,
      "Ġé¡¾": 6874,
      "ĠèµĶ": 6875,
      "Ġå·©": 6876,
      "Ġé»İ": 6877,
      "Ġæ²ª": 6878,
      "Ġèī¾": 6879,
      "ĠéĤ¢": 6880,
      "ĢåŃĲ": 6881,
      "æīī": 6882,
      "åĴ¯": 6883,
      "æ³ŀ": 6884,
      "çĲ¥": 6885,
      "åĿ³": 6886,
      "éĴµ": 6887,
      "0007": 6888,
      "å³¦": 6889,
      "808": 6890,
      "Ġ58": 6891,
      "Ġ66": 6892,
      "484": 6893,
      "487": 6894,
      "462": 6895,
      "467": 6896,
      "683": 6897,
      "474": 6898,
      "1101": 6899,
      "ens": 6900,
      "åĹ£": 6901,
      "è¤¶": 6902,
      "âĨĳ": 6903,
      "424": 6904,
      "519": 6905,
      "528": 6906,
      "730": 6907,
      "AN": 6908,
      "KTV": 6909,
      "Pro": 6910,
      "XJ": 6911,
      "ha": 6912,
      "min": 6913,
      "top": 6914,
      "Ġç»Ļ": 6915,
      "ĠæĬ¢": 6916,
      "ĠçĽĲ": 6917,
      "ĠèĲ§": 6918,
      "ĠéĥĿ": 6919,
      "è¯²": 6920,
      "è¯ı": 6921,
      "éĢį": 6922,
      "æİ°": 6923,
      "éĻ²": 6924,
      "ç¨·": 6925,
      "éļĺ": 6926,
      "ç²³": 6927,
      "åĢĺ": 6928,
      "ç¥¯": 6929,
      "éľĵ": 6930,
      "åŀŃ": 6931,
      "çĮ¥": 6932,
      "509": 6933,
      "1002": 6934,
      "609": 6935,
      "éĨ´": 6936,
      "705": 6937,
      "çĳĻ": 6938,
      "454": 6939,
      "indo": 6940,
      "ily": 6941,
      "1102": 6942,
      "é³ħ": 6943,
      "+âĢľ": 6944,
      "/ï¼ī": 6945,
      "536": 6946,
      "820": 6947,
      "818": 6948,
      "912": 6949,
      "AH": 6950,
      "An": 6951,
      "HO": 6952,
      "the": 6953,
      "ĠZ": 6954,
      "ĠéĹ¨": 6955,
      "ĠçĦ¦": 6956,
      "Ġåĵª": 6957,
      "ĠåĩŃ": 6958,
      "ĠéĽħ": 6959,
      "ĠæĻĭ": 6960,
      "Ġå®ª": 6961,
      "Ġçºµ": 6962,
      "ĠèļĮ": 6963,
      "Ĩä¸Ń": 6964,
      "çļĦC": 6965,
      "å¤Ļ": 6966,
      "æłī": 6967,
      "å°ķ": 6968,
      "çŃł": 6969,
      "éľı": 6970,
      "æĳŀ": 6971,
      "1959": 6972,
      "åłĥ": 6973,
      "1370": 6974,
      "èħ¥": 6975,
      "èĴĹ": 6976,
      "442": 6977,
      "4400": 6978,
      "577": 6979,
      "Ġsan": 6980,
      "mile": 6981,
      "\")": 6982,
      "%(": 6983,
      "516": 6984,
      "590": 6985,
      "Cåº§": 6986,
      "]/[": 6987,
      "oh": 6988,
      "vr": 6989,
      "ĠæŃ¥": 6990,
      "Ġåģĩ": 6991,
      "Ġåį±": 6992,
      "Ġåĸľ": 6993,
      "Ġæ²¿": 6994,
      "ĠåĨ°": 6995,
      "Ġéģµ": 6996,
      "Ġå¡«": 6997,
      "ĠæģĴ": 6998,
      "Ġç»ĺ": 6999,
      "Ġæľµ": 7000,
      "ĠåĦĭ": 7001,
      "ĩè±Ĩ": 7002,
      "åħĸ": 7003,
      "ä½ĥ": 7004,
      "æĹ»": 7005,
      "èĥ³": 7006,
      "èĲ±": 7007,
      "ç¡¼": 7008,
      "çĸ¡": 7009,
      "èĬ¥": 7010,
      "éĵµ": 7011,
      "éĶĶ": 7012,
      "1250": 7013,
      "1234": 7014,
      "1921": 7015,
      "1935": 7016,
      "åĺŁ": 7017,
      "708": 7018,
      "469": 7019,
      "552": 7020,
      "ark": 7021,
      "ĠCh": 7022,
      "Ġcol": 7023,
      "CBD": 7024,
      "422": 7025,
      "715": 7026,
      "830": 7027,
      "GL": 7028,
      "OR": 7029,
      "SF": 7030,
      "TF": 7031,
      "bank": 7032,
      "sçļĦ": 7033,
      "½è°": 7034,
      "Ġr": 7035,
      "ĠãĢĭ": 7036,
      "Ġæŀľ": 7037,
      "Ġåŀĭ": 7038,
      "Ġç¥ŀ": 7039,
      "ĠåŃĹ": 7040,
      "Ġéĵ¾": 7041,
      "ĠéĢĲ": 7042,
      "ĠçĥĪ": 7043,
      "Ġæĭį": 7044,
      "Ġå¼ĺ": 7045,
      "Ġéº¦": 7046,
      "Ġ150": 7047,
      "ĠAI": 7048,
      "Īåĥ": 7049,
      "è¿¥": 7050,
      "åº¶": 7051,
      "æĢ¯": 7052,
      "éĥ«": 7053,
      "æĭ´": 7054,
      "è¾ķ": 7055,
      "æ££": 7056,
      "åŀ¸": 7057,
      "èŀĤ": 7058,
      "æĤĸ": 7059,
      "çªĴ": 7060,
      "é¥½": 7061,
      "1008": 7062,
      "Ġ55": 7063,
      "âĳ¥": 7064,
      "482": 7065,
      "757": 7066,
      "473": 7067,
      "664": 7068,
      "789": 7069,
      "973": 7070,
      "Ġsh": 7071,
      "out": 7072,
      "ect": 7073,
      "GWh": 7074,
      "½è°¤": 7075,
      "Īåĥ³": 7076,
      ")ãĢĬ": 7077,
      "019": 7078,
      "433": 7079,
      "437": 7080,
      "645": 7081,
      "637": 7082,
      "790": 7083,
      "899": 7084,
      "839": 7085,
      ";ï¼Į": 7086,
      "AL": 7087,
      "Al": 7088,
      "ABA": 7089,
      "GæĬĢ": 7090,
      "MSCI": 7091,
      "SaaS": 7092,
      "ding": 7093,
      "man": 7094,
      "Â²": 7095,
      "Ġx": 7096,
      "Ġè®®": 7097,
      "Ġå¢ĥ": 7098,
      "Ġä½İ": 7099,
      "Ġå·Ŀ": 7100,
      "Ġä¸½": 7101,
      "Ġç²®": 7102,
      "Ġå·¦": 7103,
      "Ġåı³": 7104,
      "ĠæĬ½": 7105,
      "Ġç¥Ŀ": 7106,
      "Ġè°ģ": 7107,
      "ĺèĽĽ": 7108,
      "æĺĢ": 7109,
      "ç®ķ": 7110,
      "éĺª": 7111,
      "çĶ¨A": 7112,
      "æĭ·": 7113,
      "çľ¯": 7114,
      "é«¦": 7115,
      "åĵŁ": 7116,
      "è·Ĩ": 7117,
      "çĤķ": 7118,
      "æ¶ķ": 7119,
      "çĸ¤": 7120,
      "çģı": 7121,
      "çıĪ": 7122,
      "1940": 7123,
      "èħĳ": 7124,
      "é²Ī": 7125,
      "å©¿": 7126,
      "Ġ[],": 7127,
      "581": 7128,
      "1103": 7129,
      "èŁĳ": 7130,
      "ETC": 7131,
      "DRG": 7132,
      "035": 7133,
      "329": 7134,
      "613": 7135,
      "690": 7136,
      "965": 7137,
      "BB": 7138,
      "XY": 7139,
      "YC": 7140,
      "Zä¸ĸ": 7141,
      "ez": 7142,
      "her": 7143,
      "pc": 7144,
      "qd": 7145,
      "sk": 7146,
      "ue": 7147,
      "Î¼": 7148,
      "ĠéĺŁ": 7149,
      "Ġèįī": 7150,
      "Ġæĭĵ": 7151,
      "Ġæ£®": 7152,
      "Ġå®ĥ": 7153,
      "Ġå¹¸": 7154,
      "Ġçģµ": 7155,
      "Ġç¯ĩ": 7156,
      "ĠæĲľ": 7157,
      "Ġï¼ħ": 7158,
      "ĬæĦĪ": 7159,
      "ıæĤĶ": 7160,
      "ľå¾": 7161,
      "âĢ²": 7162,
      "åĴĴ": 7163,
      "ä¸ºC": 7164,
      "æµĴ": 7165,
      "æ²®": 7166,
      "ï¼ī.": 7167,
      "è·ª": 7168,
      "æ¡ģ": 7169,
      "éĵĽ": 7170,
      "èħ®": 7171,
      "çĵ´": 7172,
      "3900": 7173,
      "464": 7174,
      "858": 7175,
      "æ§Ń": 7176,
      "893": 7177,
      "ï¼į[": 7178,
      "Ġsz": 7179,
      "htc": 7180,
      "AAA": 7181,
      "ATA": 7182,
      "ATM": 7183,
      "TBM": 7184,
      "ľå¾ī": 7185,
      "014": 7186,
      "055": 7187,
      "517": 7188,
      "524": 7189,
      "531": 7190,
      "533": 7191,
      "596": 7192,
      "728": 7193,
      "770": 7194,
      "930": 7195,
      "BO": 7196,
      "HD": 7197,
      "JC": 7198,
      "RNA": 7199,
      "SN": 7200,
      "ca": 7201,
      "ea": 7202,
      "ls": 7203,
      "ment": 7204,
      "son": 7205,
      "Ġ201": 7206,
      "Ġæİ§": 7207,
      "Ġå°ĳ": 7208,
      "Ġå¥Ĺ": 7209,
      "ĠåĬª": 7210,
      "ĠåŃĶ": 7211,
      "ĠèĸĽ": 7212,
      "Ġæ³Ĺ": 7213,
      "ĭæ¯ģ": 7214,
      "Ŀçģ«": 7215,
      "ï¼Ĭ": 7216,
      "åĲĨ": 7217,
      "ç»ħ": 7218,
      "åĽ½A": 7219,
      "ç®į": 7220,
      "éģĲ": 7221,
      "1012": 7222,
      "1024": 7223,
      "èĭ´": 7224,
      "1946": 7225,
      "ç¢ĺ": 7226,
      "æ¿¡": 7227,
      "æ¦Ī": 7228,
      "åĺĢ": 7229,
      "354": 7230,
      "Ġ52": 7231,
      "903": 7232,
      "751": 7233,
      "441": 7234,
      "int": 7235,
      "497": 7236,
      "888": 7237,
      "çĺł": 7238,
      "é³ĸ": 7239,
      "514": 7240,
      "545": 7241,
      "920": 7242,
      "GåºĶ": 7243,
      "Ni": 7244,
      "RA": 7245,
      "WE": 7246,
      "Ġä»½": 7247,
      "Ġåºĵ": 7248,
      "Ġè¯Ń": 7249,
      "ĠæļĤ": 7250,
      "Ġå¡Ķ": 7251,
      "Ġå°¤": 7252,
      "ĠæĬļ": 7253,
      "ĠèĬľ": 7254,
      "Ġçļĸ": 7255,
      "ãĢĤ#": 7256,
      "è®·": 7257,
      "åº¹": 7258,
      "åĨĹ": 7259,
      "æĮİ": 7260,
      "çĲī": 7261,
      "æ±Ĭ": 7262,
      "å§Ĭ": 7263,
      "è°ı": 7264,
      "è°Ľ": 7265,
      "008": 7266,
      "009": 7267,
      "æ¡ī": 7268,
      "çĸĻ": 7269,
      "1080": 7270,
      "éĴĿ": 7271,
      "è£±": 7272,
      "1951": 7273,
      "1850": 7274,
      "èĴĮ": 7275,
      "çħ¦": 7276,
      "Ġ54": 7277,
      "787": 7278,
      "572": 7279,
      "767": 7280,
      "æĨĭ": 7281,
      "åĹľ": 7282,
      "ĠSt": 7283,
      "USB": 7284,
      "èł¡": 7285,
      "013": 7286,
      "022": 7287,
      "027": 7288,
      "439": 7289,
      "565": 7290,
      "616": 7291,
      "632": 7292,
      "740": 7293,
      "??": 7294,
      "Cç±»": 7295,
      "XC": 7296,
      "hpv": 7297,
      "mp": 7298,
      "ĠçŃĸ": 7299,
      "ĠåĸĦ": 7300,
      "Ġæķħ": 7301,
      "Ġæ¯į": 7302,
      "Ġæ½ľ": 7303,
      "Ġè¡¡": 7304,
      "Ġæıı": 7305,
      "Ġèİ«": 7306,
      "Ġèı²": 7307,
      "Ġï¹": 7308,
      "æ²Ķ": 7309,
      "éķĵ": 7310,
      "æįº": 7311,
      "èĬª": 7312,
      "æ¿Ĥ": 7313,
      "èıĸ": 7314,
      "Ġ63": 7315,
      "686": 7316,
      "Ġ88": 7317,
      "571": 7318,
      "564": 7319,
      "çĺ©": 7320,
      "ence": 7321,
      "GPS": 7322,
      "ign": 7323,
      "PAH": 7324,
      ")-": 7325,
      ").": 7326,
      "523": 7327,
      "549": 7328,
      "628": 7329,
      "627": 7330,
      "718": 7331,
      "736": 7332,
      "810": 7333,
      "811": 7334,
      "875": 7335,
      "9500": 7336,
      "Aç»Ħ": 7337,
      "TP": 7338,
      "XM": 7339,
      "ZL": 7340,
      "fer": 7341,
      "ix": 7342,
      "ng": 7343,
      "ni": 7344,
      "uan": 7345,
      "Ġè´¹": 7346,
      "Ġæīĺ": 7347,
      "Ġæī¶": 7348,
      "Ġæ²¹": 7349,
      "ĠåĲĥ": 7350,
      "Ġä¹ĺ": 7351,
      "ĠåĿĲ": 7352,
      "Ġma": 7353,
      "ĠâĢ»": 7354,
      "Ģå±±": 7355,
      "ç§Ń": 7356,
      "çĲ°": 7357,
      "å¾ķ": 7358,
      "æĥ¦": 7359,
      "æº¥": 7360,
      "ç¼İ": 7361,
      "èİ¨": 7362,
      "è£³": 7363,
      "1920": 7364,
      "1927": 7365,
      "æ¿¯": 7366,
      "é¹«": 7367,
      "996": 7368,
      "çŀŃ": 7369,
      "461": 7370,
      "786": 7371,
      "åļı": 7372,
      "IMG": 7373,
      "MEGA": 7374,
      "ZFCG": 7375,
      "Ġï¹¨": 7376,
      "%/": 7377,
      ")ï¼ī": 7378,
      "*.": 7379,
      "040": 7380,
      "021": 7381,
      "429": 7382,
      "522": 7383,
      "527": 7384,
      "626": 7385,
      "622": 7386,
      "CMA": 7387,
      "DF": 7388,
      "PG": 7389,
      "UN": 7390,
      "eg": 7391,
      "ei": 7392,
      "mo": 7393,
      "po": 7394,
      "yn": 7395,
      "zcy": 7396,
      "éı": 7397,
      "ĠäºĨ": 7398,
      "ĠåĬĽ": 7399,
      "ĠéĢł": 7400,
      "Ġç»Ń": 7401,
      "Ġåı£": 7402,
      "Ġå®¹": 7403,
      "Ġæ¼": 7404,
      "Ġæµĭ": 7405,
      "ĠåºŃ": 7406,
      "ĠçķĻ": 7407,
      "Ġç¼©": 7408,
      "ĠæĢİ": 7409,
      "ä¸ŀ": 7410,
      "è¿¦": 7411,
      "åĵ½": 7412,
      "åĿŃ": 7413,
      "åľºB": 7414,
      "çĸļ": 7415,
      "éĵł": 7416,
      "çĻ«": 7417,
      "çĻĸ": 7418,
      "æĴ®": 7419,
      "æĴĩ": 7420,
      "çĭ¸": 7421,
      "åĻ©": 7422,
      "0005": 7423,
      "æĵĴ": 7424,
      "å´½": 7425,
      "Ġ61": 7426,
      "991": 7427,
      "995": 7428,
      "755": 7429,
      "554": 7430,
      "981": 7431,
      "982": 7432,
      "989": 7433,
      "689": 7434,
      "851": 7435,
      "587": 7436,
      "887": 7437,
      "alk": 7438,
      "lege": 7439,
      "IMT": 7440,
      "apec": 7441,
      "plap": 7442,
      "624": 7443,
      "796": 7444,
      "825": 7445,
      "840": 7446,
      "835": 7447,
      "890": 7448,
      "966": 7449,
      "EF": 7450,
      "GT": 7451,
      "IA": 7452,
      "JT": 7453,
      "MB": 7454,
      "SP": 7455,
      "Sh": 7456,
      "]âĢĿ": 7457,
      "oy": 7458,
      "ras": 7459,
      "ust": 7460,
      "Ġæŀģ": 7461,
      "Ġä¹°": 7462,
      "ĠéħĴ": 7463,
      "Ġå»ī": 7464,
      "ĠèĳĹ": 7465,
      "Ġæłı": 7466,
      "ĠéĶ¦": 7467,
      "Ġæ®·": 7468,
      "ĠèĳĽ": 7469,
      "Ļè°Ĳ": 7470,
      "łéĤĳ": 7471,
      "äºĺ": 7472,
      "åı¨": 7473,
      "åĩĩ": 7474,
      "èµŁ": 7475,
      "çĲĬ": 7476,
      "çľĻ": 7477,
      "çł¾": 7478,
      "å£ķ": 7479,
      "æ¢Ĩ": 7480,
      "1150": 7481,
      "çĬĬ": 7482,
      "çĮĿ": 7483,
      "1930": 7484,
      "åĻ¶": 7485,
      "1310": 7486,
      "804": 7487,
      "èľ±": 7488,
      "489": 7489,
      "553": 7490,
      "çĴľ": 7491,
      "576": 7492,
      "884": 7493,
      "æ§ĥ": 7494,
      "ill": 7495,
      "ï½ŀ-": 7496,
      "col": 7497,
      "ata": 7498,
      "ical": 7499,
      "CPU": 7500,
      "PAC": 7501,
      "ods": 7502,
      "èł¢": 7503,
      "026": 7504,
      "045": 7505,
      "431": 7506,
      "434": 7507,
      "5200": 7508,
      "623": 7509,
      "768": 7510,
      "AU": 7511,
      "HU": 7512,
      "NBA": 7513,
      "cba": 7514,
      "²ç¾İ": 7515,
      "ĠåŃĲ": 7516,
      "ĠåĪĴ": 7517,
      "Ġå¾ĭ": 7518,
      "Ġç§»": 7519,
      "Ġå®ĺ": 7520,
      "ĠåªĴ": 7521,
      "ĠåĨĻ": 7522,
      "Ġæ³¢": 7523,
      "Ġçķħ": 7524,
      "ĠèĤĩ": 7525,
      "ĠéĹ«": 7526,
      "åĳĽ": 7527,
      "æ³±": 7528,
      "æ¯Ĥ": 7529,
      "ç¬Ĩ": 7530,
      "èĮı": 7531,
      "éªķ": 7532,
      "é©¹": 7533,
      "èĭĵ": 7534,
      "1280": 7535,
      "èĳĳ": 7536,
      "ç¢£": 7537,
      "Ġ220": 7538,
      "Ġ212": 7539,
      "1350": 7540,
      "éĨļ": 7541,
      "707": 7542,
      "551": 7543,
      "656": 7544,
      "659": 7545,
      "684": 7546,
      "4900": 7547,
      "5800": 7548,
      "672": 7549,
      "677": 7550,
      "ren": 7551,
      "792": 7552,
      "ppp": 7553,
      "arch": 7554,
      "ess": 7555,
      "lob": 7556,
      "log": 7557,
      "ime": 7558,
      "ifi": 7559,
      "CNAS": 7560,
      "\";": 7561,
      "-[": 7562,
      "018": 7563,
      "050": 7564,
      "0102": 7565,
      "421": 7566,
      "521": 7567,
      "629": 7568,
      "676": 7569,
      "641": 7570,
      "798": 7571,
      "747": 7572,
      "916": 7573,
      "917": 7574,
      "923": 7575,
      "CCTV": 7576,
      "DC": 7577,
      "Dç±»": 7578,
      "GçļĦ": 7579,
      "GéĢļ": 7580,
      "IE": 7581,
      "ZY": 7582,
      "awe": 7583,
      "cs": 7584,
      "gb": 7585,
      "ld": 7586,
      "nm": 7587,
      "wh": 7588,
      "ĠåĪĹ": 7589,
      "Ġæĺ¾": 7590,
      "Ġå¸®": 7591,
      "Ġçģ¾": 7592,
      "ĠåŃ£": 7593,
      "ĠâĢĺ": 7594,
      "Ġåŀĥ": 7595,
      "Ġ98": 7596,
      "ĠæįĲ": 7597,
      "Ġå¥ī": 7598,
      "Ġis": 7599,
      "çļĦM": 7600,
      "åĲ±": 7601,
      "åľª": 7602,
      "åĽ§": 7603,
      "å±ģ": 7604,
      "åĨ¼": 7605,
      "æ°¦": 7606,
      "éĹ±": 7607,
      "éĥ¢": 7608,
      "éĥ¯": 7609,
      "å¥Ĥ": 7610,
      "éķĤ": 7611,
      "åĵĶ": 7612,
      "èĪ¸": 7613,
      "éªĩ": 7614,
      "é©¸": 7615,
      "èĳº": 7616,
      "1688": 7617,
      "æ¦Ń": 7618,
      "Ġ400": 7619,
      "è¸Ŀ": 7620,
      "Ġ59": 7621,
      "Ġ62": 7622,
      "âĳ´": 7623,
      "756": 7624,
      "èĨ¦": 7625,
      "653": 7626,
      "682": 7627,
      "éĦ¯": 7628,
      "ite": 7629,
      "att": 7630,
      "arm": 7631,
      "cep": 7632,
      "old": 7633,
      "PCR": 7634,
      "act": 7635,
      "CRM": 7636,
      "paes": 7637,
      "gsxt": 7638,
      "015": 7639,
      "025": 7640,
      "566": 7641,
      "542": 7642,
      "615": 7643,
      "775": 7644,
      "816": 7645,
      "837": 7646,
      "898": 7647,
      "Ar": 7648,
      "Bè¶ħ": 7649,
      "FG": 7650,
      "Gäº§": 7651,
      "Hz": 7652,
      "LD": 7653,
      "MT": 7654,
      "PET": 7655,
      "TJ": 7656,
      "ï¸": 7657,
      "Ġ*": 7658,
      "Ġå¸Ī": 7659,
      "Ġè¶³": 7660,
      "Ġæ¥ļ": 7661,
      "Ġæ±¤": 7662,
      "ĠèģĤ": 7663,
      "æľ¦": 7664,
      "ç»¢": 7665,
      "åŃ³": 7666,
      "çŃı": 7667,
      "èĤĽ": 7668,
      "ç³ľ": 7669,
      "éĶŁ": 7670,
      "æ¨µ": 7671,
      "èĦĵ": 7672,
      "1929": 7673,
      "ç¢Ľ": 7674,
      "èı©": 7675,
      "æ¦»": 7676,
      "é¸ł": 7677,
      "åĺ»": 7678,
      "åĺ¿": 7679,
      "2250": 7680,
      "ç£¬": 7681,
      "ç¿İ": 7682,
      "702": 7683,
      "557": 7684,
      "657": 7685,
      "951": 7686,
      "567": 7687,
      "ord": 7688,
      "CNN": 7689,
      "CRS": 7690,
      "ideo": 7691,
      "017": 7692,
      "621": 7693,
      "726": 7694,
      "846": 7695,
      "KV": 7696,
      "PL": 7697,
      "RF": 7698,
      "RS": 7699,
      "SY": 7700,
      "bm": 7701,
      "eéĩĩ": 7702,
      "hm": 7703,
      "ti": 7704,
      "Ġç®Ĺ": 7705,
      "Ġäº²": 7706,
      "Ġå¯»": 7707,
      "Ġåĩ¤": 7708,
      "ĠæıŃ": 7709,
      "Ġè¾Ľ": 7710,
      "Ġè¸ı": 7711,
      "Ġèµ«": 7712,
      "Ġæ¨Ĭ": 7713,
      "ãĢģ-": 7714,
      "è¿¤": 7715,
      "å¼©": 7716,
      "å¯®": 7717,
      "åĩĦ": 7718,
      "éĺĻ": 7719,
      "èĥ§": 7720,
      "ç½¡": 7721,
      "å§Ŀ": 7722,
      "å²ĸ": 7723,
      "èĭŀ": 7724,
      "éĴİ": 7725,
      "æļ§": 7726,
      "1939": 7727,
      "èĻ¢": 7728,
      "é¸¾": 7729,
      "704": 7730,
      "èľ»": 7731,
      "èľĵ": 7732,
      "558": 7733,
      "492": 7734,
      "éŀĺ": 7735,
      "è¤¥": 7736,
      "ĠRe": 7737,
      "ack": 7738,
      "avid": 7739,
      "éıĸ": 7740,
      "ï¸°": 7741,
      "%+": 7742,
      "%âĢ¦": 7743,
      ",(": 7744,
      "016": 7745,
      "060": 7746,
      "544": 7747,
      "543": 7748,
      "612": 7749,
      "619": 7750,
      "635": 7751,
      "834": 7752,
      "DK": 7753,
      "FP": 7754,
      "Ne": 7755,
      "PQC": 7756,
      "The": 7757,
      "];": 7758,
      "di": 7759,
      "wan": 7760,
      "Ġåįĩ": 7761,
      "Ġèį¯": 7762,
      "Ġç»Ī": 7763,
      "Ġè·µ": 7764,
      "Ġä»ħ": 7765,
      "Ġåħ¸": 7766,
      "Ġé¤Ĳ": 7767,
      "Ġåī§": 7768,
      "ĠæŃĮ": 7769,
      "Ġç©¿": 7770,
      "Ġæ³ī": 7771,
      "Ġç¾Ĭ": 7772,
      "Ġçĩķ": 7773,
      "Ġç»µ": 7774,
      "ĠåŃĿ": 7775,
      "ĠåĤħ": 7776,
      "Ġæ·Ħ": 7777,
      "Ġéĥ´": 7778,
      "ĠåĮ¿": 7779,
      "ï¼Ĥ": 7780,
      "çļĦT": 7781,
      "åĬ¾": 7782,
      "ãĢģ(": 7783,
      "ç»¯": 7784,
      "è¿©": 7785,
      "åºĸ": 7786,
      "æİ£": 7787,
      "æ³®": 7788,
      "ç®Ĳ": 7789,
      "æ±©": 7790,
      "æ±´": 7791,
      "ç½Ķ": 7792,
      "æ£º": 7793,
      "ç¥ļ": 7794,
      "èĪ·": 7795,
      "èĭľ": 7796,
      "çĥľ": 7797,
      "1120": 7798,
      "1110": 7799,
      "1934": 7800,
      "1932": 7801,
      "1941": 7802,
      "æĲĢ": 7803,
      "0003": 7804,
      "1450": 7805,
      "å³ģ": 7806,
      "Ġ310": 7807,
      "é¸³": 7808,
      "erv": 7809,
      "éºĭ": 7810,
      "Ġ56": 7811,
      "ãĢĳ:": 7812,
      "æĩµ": 7813,
      "652": 7814,
      "658": 7815,
      "051": 7816,
      "662": 7817,
      "967": 7818,
      "5900": 7819,
      "972": 7820,
      "reme": 7821,
      "Ġâĳ¦": 7822,
      "mmun": 7823,
      ");(": 7824,
      "COD": 7825,
      "/ãİ¡": 7826,
      "037": 7827,
      "538": 7828,
      "548": 7829,
      "636": 7830,
      "714": 7831,
      "716": 7832,
      "766": 7833,
      "AçļĦ": 7834,
      "EL": 7835,
      "FF": 7836,
      "LE": 7837,
      "PI": 7838,
      "VIP": 7839,
      "ZJ": 7840,
      "ZZ": 7841,
      "eat": 7842,
      "gç½ĳ": 7843,
      "hk": 7844,
      "ore": 7845,
      "ron": 7846,
      "ÏĨ": 7847,
      "Ġåº¦": 7848,
      "ĠæºĲ": 7849,
      "Ġå¤´": 7850,
      "Ġä¾¿": 7851,
      "Ġè´·": 7852,
      "ĠéŁ³": 7853,
      "ĠéĢĴ": 7854,
      "Ġæ´¥": 7855,
      "ĠæĹĹ": 7856,
      "Ġåİļ": 7857,
      "Ġæī£": 7858,
      "ĠåĢ¡": 7859,
      "Ġæ¼«": 7860,
      "Ġch": 7861,
      "Ġç©Ĩ": 7862,
      "ĠæĬĦ": 7863,
      "ĠåĢª": 7864,
      "įä¸º": 7865,
      "å¤Ķ": 7866,
      "åĽ±": 7867,
      "æĹ¸": 7868,
      "æĹĸ": 7869,
      "è¯£": 7870,
      "èµĬ": 7871,
      "æİĩ": 7872,
      "æµĪ": 7873,
      "éķĲ": 7874,
      "åĵ¼": 7875,
      "åĵī": 7876,
      "è°ļ": 7877,
      "ç¬Ļ": 7878,
      "åķ¶": 7879,
      "ç¥·": 7880,
      "èįļ": 7881,
      "1020": 7882,
      "å²«": 7883,
      "æ¹į": 7884,
      "æ¢ĥ": 7885,
      "é¾ĺ": 7886,
      "1944": 7887,
      "1942": 7888,
      "1943": 7889,
      "ç¢ī": 7890,
      "æ¿ł": 7891,
      "1320": 7892,
      "èı¡": 7893,
      "é²¢": 7894,
      "çħ¨": 7895,
      "ç¯ĵ": 7896,
      "807": 7897,
      "908": 7898,
      "754": 7899,
      "958": 7900,
      "4700": 7901,
      "661": 7902,
      "856": 7903,
      "782": 7904,
      "582": 7905,
      "588": 7906,
      "591": 7907,
      "761": 7908,
      "7600": 7909,
      "886": 7910,
      "673": 7911,
      "869": 7912,
      "gps": 7913,
      "ECMO": 7914,
      "ish": 7915,
      ">>>": 7916,
      "Ġfor": 7917,
      "ube": 7918,
      "EMS": 7919,
      "cont": 7920,
      ")\"": 7921,
      "568": 7922,
      "634": 7923,
      "647": 7924,
      "7200": 7925,
      "721": 7926,
      "836": 7927,
      "976": 7928,
      "DU": 7929,
      "GF": 7930,
      "GN": 7931,
      "HJ": 7932,
      "KM": 7933,
      "RM": 7934,
      "SJ": 7935,
      "SV": 7936,
      "UP": 7937,
      "ast": 7938,
      "cr": 7939,
      "dr": 7940,
      "ft": 7941,
      "ich": 7942,
      "js": 7943,
      "lus": 7944,
      "nat": 7945,
      "net": 7946,
      "port": 7947,
      "uc": 7948,
      "yst": 7949,
      "ĠæĴŃ": 7950,
      "Ġè¯ļ": 7951,
      "Ġå¦ĩ": 7952,
      "ĠæĭĨ": 7953,
      "Ġæķ¬": 7954,
      "ĠåľĨ": 7955,
      "Ġéº»": 7956,
      "Ġåįĵ": 7957,
      "Ġåºŀ": 7958,
      "çļĦF": 7959,
      "ä½Ĺ": 7960,
      "å¼¼": 7961,
      "è¯Ł": 7962,
      "åĨ¢": 7963,
      "åĳ¦": 7964,
      "éĹ¾": 7965,
      "å»¿": 7966,
      "æĥ°": 7967,
      "æ¯¡": 7968,
      "0017": 7969,
      "è¶¾": 7970,
      "éģĵS": 7971,
      "éĵ¨": 7972,
      "1210": 7973,
      "1230": 7974,
      "çĹ«": 7975,
      "1130": 7976,
      "é¥¹": 7977,
      "0009": 7978,
      "æľĽU": 7979,
      "905": 7980,
      "753": 7981,
      "759": 7982,
      "9800": 7983,
      "953": 7984,
      "957": 7985,
      "ins": 7986,
      "7800": 7987,
      "5700": 7988,
      "593": 7989,
      "1208": 7990,
      "793": 7991,
      "èĿĹ": 7992,
      "çļĸC": 7993,
      "âħ¤": 7994,
      "docx": 7995,
      "\"(": 7996,
      "024": 7997,
      "038": 7998,
      "5400": 7999,
      "633": 8000,
      "6300": 8001,
      "867": 8002,
      "BL": 8003,
      "BU": 8004,
      "DO": 8005,
      "DZ": 8006,
      "GçŃī": 8007,
      "KB": 8008,
      "MBA": 8009,
      "NK": 8010,
      "OD": 8011,
      "OTA": 8012,
      "SOP": 8013,
      "Sup": 8014,
      "YY": 8015,
      "ail": 8016,
      "bc": 8017,
      "bur": 8018,
      "pH": 8019,
      "rcep": 8020,
      "so": 8021,
      "°åİ¿": 8022,
      "Ġè£ħ": 8023,
      "ĠæĿĲ": 8024,
      "Ġä¼į": 8025,
      "ĠéĽª": 8026,
      "ĠåĩĢ": 8027,
      "Ġå®¿": 8028,
      "Ġæħ°": 8029,
      "Ġal": 8030,
      "Ġse": 8031,
      "Ġè¡¢": 8032,
      "Ġç¥ģ": 8033,
      "çļĦA": 8034,
      "âĢĵ": 8035,
      "ç»«": 8036,
      "ä¼«": 8037,
      "è´±": 8038,
      "æĹİ": 8039,
      "å±ī": 8040,
      "æĺ¶": 8041,
      "æĢĤ": 8042,
      "åİ®": 8043,
      "å¥ļ": 8044,
      "éĺĤ": 8045,
      "çľ©": 8046,
      "è°¬": 8047,
      "éģģ": 8048,
      "èįŀ": 8049,
      "çĦĺ": 8050,
      "é»¯": 8051,
      "0002": 8052,
      "1650": 8053,
      "1004": 8054,
      "1006": 8055,
      "ond": 8056,
      "èĹĵ": 8057,
      "906": 8058,
      "å«£": 8059,
      "å«ĸ": 8060,
      "959": 8061,
      "ini": 8062,
      "9600": 8063,
      "Ġ91": 8064,
      "769": 8065,
      "è¹¬": 8066,
      "ork": 8067,
      "ç°ĭ": 8068,
      "ung": 8069,
      "rom": 8070,
      "esg": 8071,
      "olog": 8072,
      "MPV": 8073,
      "pace": 8074,
      "pvc": 8075,
      "bbc": 8076,
      "bps": 8077,
      "NCCA": 8078,
      "!\"": 8079,
      "%ï½ŀ": 8080,
      "036": 8081,
      "547": 8082,
      "724": 8083,
      "731": 8084,
      "739": 8085,
      "797": 8086,
      "842": 8087,
      "://": 8088,
      "HR": 8089,
      "JY": 8090,
      "MD": 8091,
      "OT": 8092,
      "PK": 8093,
      "XR": 8094,
      "au": 8095,
      "fi": 8096,
      "gr": 8097,
      "hy": 8098,
      "key": 8099,
      "nov": 8100,
      "qing": 8101,
      "si": 8102,
      "tt": 8103,
      "wifi": 8104,
      "zf": 8105,
      "¤æ°": 8106,
      "Ġç»ĩ": 8107,
      "Ġè¾ĥ": 8108,
      "Ġå¾Ģ": 8109,
      "Ġæ´¾": 8110,
      "ĠéĽ¶": 8111,
      "Ġç´¯": 8112,
      "Ġä¼Ł": 8113,
      "Ġæī¾": 8114,
      "Ġæļĸ": 8115,
      "Ġç¿»": 8116,
      "Ġåĭĺ": 8117,
      "Ġç´«": 8118,
      "ĠåŁĥ": 8119,
      "ĠèĴ²": 8120,
      "æĪĬ": 8121,
      "âĢľ+": 8122,
      "é¢Ĭ": 8123,
      "éĥı": 8124,
      "éĺĳ": 8125,
      "èĩĢ": 8126,
      "ç½Ĥ": 8127,
      "è½«": 8128,
      "åĵİ": 8129,
      "ç¾¹": 8130,
      "æĻ¦": 8131,
      "éĵĦ": 8132,
      "çº¿K": 8133,
      "1016": 8134,
      "1026": 8135,
      "å²Ļ": 8136,
      "èĭ·": 8137,
      "éĴ¼": 8138,
      "1260": 8139,
      "1936": 8140,
      "èĻĶ": 8141,
      "åłķ": 8142,
      "åĻ»": 8143,
      "1480": 8144,
      "1750": 8145,
      "2210": 8146,
      "2130": 8147,
      "å©¶": 8148,
      "9999": 8149,
      "956": 8150,
      "449": 8151,
      "669": 8152,
      "788": 8153,
      "563": 8154,
      "762": 8155,
      "864": 8156,
      "892": 8157,
      "CASS": 8158,
      "eng": 8159,
      "MLF": 8160,
      "qdda": 8161,
      "¤æ°²": 8162,
      ")ÃĹ": 8163,
      ",,": 8164,
      "529": 8165,
      "585": 8166,
      "611": 8167,
      "675": 8168,
      "785": 8169,
      "885": 8170,
      "940": 8171,
      "934": 8172,
      "FM": 8173,
      "JH": 8174,
      "Ro": 8175,
      "Yç±»": 8176,
      "eé¾Ļ": 8177,
      "ga": 8178,
      "td": 8179,
      "¨æ¸¸": 8180,
      "Ġæ¨¡": 8181,
      "Ġéļ¾": 8182,
      "Ġæ®µ": 8183,
      "Ġç¼´": 8184,
      "ĠèĪ¹": 8185,
      "Ġå°¼": 8186,
      "Ġåĩ½": 8187,
      "Ġæ¨ª": 8188,
      "ĠçĲ¼": 8189,
      "Ġãİ¡": 8190,
      "ĠéĶļ": 8191,
      "ĭæĥľ": 8192,
      "âĢ³": 8193,
      "çĶº": 8194,
      "éĻī": 8195,
      "é¢ĵ": 8196,
      "åŁķ": 8197,
      "å¿¡": 8198,
      "èĢĨ": 8199,
      "æŀŃ": 8200,
      "è½²": 8201,
      "è¾Ĭ": 8202,
      "ï¼ļ-": 8203,
      "åīĥ": 8204,
      "æĦ£": 8205,
      "ç³ł": 8206,
      "ç¥İ": 8207,
      "é¦ı": 8208,
      "æ®ī": 8209,
      "åĶĨ": 8210,
      "1270": 8211,
      "1112": 8212,
      "æ¼ī": 8213,
      "çĮĸ": 8214,
      "1903": 8215,
      "å¡į": 8216,
      "èĵ¿": 8217,
      "èĶĳ": 8218,
      "Ġ68": 8219,
      "âĳ¦": 8220,
      "èĽ°": 8221,
      "Ġ79": 8222,
      "654": 8223,
      "594": 8224,
      "779": 8225,
      "PMI": 8226,
      "org": 8227,
      "ĠSJ": 8228,
      "ITU": 8229,
      "OCR": 8230,
      "aby": 8231,
      "COL": 8232,
      "ERP": 8233,
      "ltra": 8234,
      "537": 8235,
      "6400": 8236,
      "722": 8237,
      "821": 8238,
      "924": 8239,
      "926": 8240,
      "948": 8241,
      "?\"": 8242,
      "BJ": 8243,
      "Con": 8244,
      "DL": 8245,
      "HI": 8246,
      "NT": 8247,
      "QF": 8248,
      "Xå°Ħ": 8249,
      "YH": 8250,
      "are": 8251,
      "cç½Ĺ": 8252,
      "ms": 8253,
      "ning": 8254,
      "Ġ;": 8255,
      "Ġéĩı": 8256,
      "Ġå¯Ł": 8257,
      "Ġå®¤": 8258,
      "Ġäº«": 8259,
      "ĠæĤ£": 8260,
      "ĠåĲ¸": 8261,
      "Ġå³°": 8262,
      "Ġå°ģ": 8263,
      "ĠçªĹ": 8264,
      "ĠèĻļ": 8265,
      "Ġæ¦Ĥ": 8266,
      "ĠåĨ·": 8267,
      "Ġè¯¯": 8268,
      "ĠæĿ°": 8269,
      "Ġä»ģ": 8270,
      "Ġä¹³": 8271,
      "ĠåıĻ": 8272,
      "ĠâĢ¢": 8273,
      "ĠèİĨ": 8274,
      "ĠèĢ¿": 8275,
      "Ŀçłģ": 8276,
      "ä¸ķ": 8277,
      "çļĦV": 8278,
      "æĬł": 8279,
      "æĺµ": 8280,
      "æ°ĵ": 8281,
      "æĮĽ": 8282,
      "æĭ®": 8283,
      "æĥ¶": 8284,
      "é«Į": 8285,
      "æ¸¥": 8286,
      "è°Ł": 8287,
      "çł·": 8288,
      "ç¡ļ": 8289,
      "åķ§": 8290,
      "è¢Ĵ": 8291,
      "é¦ĩ": 8292,
      "åŀħ": 8293,
      "1060": 8294,
      "çĥ©": 8295,
      "æĤ¸": 8296,
      "ç´łE": 8297,
      "1402": 8298,
      "æħľ": 8299,
      "æĵĢ": 8300,
      "é¸¯": 8301,
      "2950": 8302,
      "çħŀ": 8303,
      "453": 8304,
      "752": 8305,
      "053": 8306,
      "854": 8307,
      "784": 8308,
      "569": 8309,
      "PPI": 8310,
      "8600": 8311,
      "891": 8312,
      "791": 8313,
      "794": 8314,
      "åĹª": 8315,
      "ara": 8316,
      "MAX": 8317,
      "ass": 8318,
      "ions": 8319,
      "lov": 8320,
      "oul": 8321,
      "028": 8322,
      "638": 8323,
      "733": 8324,
      "799": 8325,
      "746": 8326,
      "814": 8327,
      "838": 8328,
      "868": 8329,
      "970": 8330,
      "938": 8331,
      "968": 8332,
      "CåĮº": 8333,
      "EB": 8334,
      "GMV": 8335,
      "Içº§": 8336,
      "MG": 8337,
      "Meta": 8338,
      "PO": 8339,
      "St": 8340,
      "SPAC": 8341,
      "VE": 8342,
      "ew": 8343,
      "kw": 8344,
      "lin": 8345,
      "ton": 8346,
      "tpp": 8347,
      "ĠåĤ¨": 8348,
      "Ġon": 8349,
      "Ġï¼İ": 8350,
      "Ġé¢ģ": 8351,
      "ĠèĪĴ": 8352,
      "Ġçķľ": 8353,
      "ĠèĮĤ": 8354,
      "ĠéĦĤ": 8355,
      "Ġéľį": 8356,
      "ĠéŁ¶": 8357,
      "Ġæ¾İ": 8358,
      "äº³": 8359,
      "æĶ¥": 8360,
      "éĢŀ": 8361,
      "ä¿³": 8362,
      "æİ¬": 8363,
      "åĳĹ": 8364,
      "åĳľ": 8365,
      "æµ£": 8366,
      "2060": 8367,
      "ï¼ī;": 8368,
      "ä¾¬": 8369,
      "æŁŀ": 8370,
      "éļį": 8371,
      "ç¡Ĳ": 8372,
      "æ¶®": 8373,
      "æ¶İ": 8374,
      "æĽĪ": 8375,
      "æģĻ": 8376,
      "åĢŃ": 8377,
      "éªĬ": 8378,
      "çĦ¯": 8379,
      "èŀŁ": 8380,
      "çªł": 8381,
      "1199": 8382,
      "æ¼©": 8383,
      "èĦį": 8384,
      "é¾Ľ": 8385,
      "1401": 8386,
      "çĵ¢": 8387,
      "çħ²": 8388,
      "é¹®": 8389,
      "é¹³": 8390,
      "Ġ69": 8391,
      "758": 8392,
      "559": 8393,
      "574": 8394,
      "8800": 8395,
      "974": 8396,
      "871": 8397,
      "8700": 8398,
      "693": 8399,
      "Ġâĳµ": 8400,
      "cos": 8401,
      "åĹ¡": 8402,
      "âī§": 8403,
      "ics": 8404,
      "Ġtag": 8405,
      "html": 8406,
      "IMF": 8407,
      "å¬Ĺ": 8408,
      "PVC": 8409,
      "ĠNO": 8410,
      "REIT": 8411,
      "mvp": 8412,
      "%ÃĹ": 8413,
      "039": 8414,
      "032": 8415,
      "044": 8416,
      "646": 8417,
      "815": 8418,
      "848": 8419,
      "936": 8420,
      "943": 8421,
      "AK": 8422,
      "Air": 8423,
      "BI": 8424,
      "Båŀĭ": 8425,
      "CZ": 8426,
      "Dåº§": 8427,
      "Eç±»": 8428,
      "FDA": 8429,
      "LCD": 8430,
      "NI": 8431,
      "NV": 8432,
      "SX": 8433,
      "WH": 8434,
      "YL": 8435,
      "bid": 8436,
      "no": 8437,
      "ox": 8438,
      "pe": 8439,
      "pr": 8440,
      "ts": 8441,
      "ug": 8442,
      "vip": 8443,
      "za": 8444,
      "ĠèĤ²": 8445,
      "ĠéĻ¢": 8446,
      "ĠçıŃ": 8447,
      "Ġæ±¡": 8448,
      "ĠæľĽ": 8449,
      "Ġæ¤į": 8450,
      "Ġä»¤": 8451,
      "ĠèĭĹ": 8452,
      "Ġçĩĥ": 8453,
      "Ġè°ĭ": 8454,
      "ĠèĢķ": 8455,
      "Ġæ¢¦": 8456,
      "Ġå©ļ": 8457,
      "Ġæĳ©": 8458,
      "Ġæ¯«": 8459,
      "Ġè´Ŀ": 8460,
      "Ġåĩ¯": 8461,
      "Ġèİ±": 8462,
      "Ġçĭł": 8463,
      "Ġç¢§": 8464,
      "Ġæĵ¦": 8465,
      "Ġçī¡": 8466,
      "Ġâī¤": 8467,
      "įéĵĦ": 8468,
      "ĳæ±ł": 8469,
      "äºĵ": 8470,
      "çļĻ": 8471,
      "çļĦD": 8472,
      "æķķ": 8473,
      "åĴ§": 8474,
      "åĩ¼": 8475,
      "åĩĭ": 8476,
      "æİ¼": 8477,
      "çŃļ": 8478,
      "èĢĴ": 8479,
      "ç½ĺ": 8480,
      "ç¬º": 8481,
      "æį»": 8482,
      "éģĵG": 8483,
      "æº´": 8484,
      "éĵĢ": 8485,
      "é¦Ĺ": 8486,
      "éħĲ": 8487,
      "1019": 8488,
      "1017": 8489,
      "çĹī": 8490,
      "çĬ·": 8491,
      "é¾ĭ": 8492,
      "1928": 8493,
      "1926": 8494,
      "é¥ķ": 8495,
      "0006": 8496,
      "Ġ67": 8497,
      "Ġ82": 8498,
      "Ġ800": 8499,
      "663": 8500,
      "éŀ£": 8501,
      "781": 8502,
      "961": 8503,
      "674": 8504,
      "6700": 8505,
      "æ§Į": 8506,
      "æ©ĩ": 8507,
      "ater": 8508,
      "ory": 8509,
      "icro": 8510,
      "BANK": 8511,
      "é¬ĥ": 8512,
      "DNO": 8513,
      "omp": 8514,
      "èĺ¸": 8515,
      "mlf": 8516,
      "ONE": 8517,
      "TEU": 8518,
      "%=": 8519,
      "031": 8520,
      "639": 8521,
      "723": 8522,
      "813": 8523,
      "829": 8524,
      "865": 8525,
      "847": 8526,
      "866": 8527,
      "929": 8528,
      "Bç»Ħ": 8529,
      "CX": 8530,
      "Cæłĭ": 8531,
      "Gä¿¡": 8532,
      "HT": 8533,
      "KE": 8534,
      "ae": 8535,
      "cdo": 8536,
      "ech": 8537,
      "for": 8538,
      "hu": 8539,
      "ima": 8540,
      "ward": 8541,
      "¢åĳĲ": 8542,
      "Ġçħ§": 8543,
      "ĠåįĪ": 8544,
      "Ġå½Ĵ": 8545,
      "ĠæŃ»": 8546,
      "Ġæļ´": 8547,
      "Ġåľ£": 8548,
      "Ġæķ¦": 8549,
      "ĠèģĬ": 8550,
      "ĠçİĽ": 8551,
      "Ġä¹Ķ": 8552,
      "ĠåĸĢ": 8553,
      "ĠéĻĩ": 8554,
      "Ġä¿ŀ": 8555,
      "ï¼ĥ": 8556,
      "çļ¿": 8557,
      "åĮķ": 8558,
      "åĽ¿": 8559,
      "åŃº": 8560,
      "ä¸ºG": 8561,
      "æµĲ": 8562,
      "å½Ĺ": 8563,
      "æĭĪ": 8564,
      "æĥ®": 8565,
      "ç³į": 8566,
      "ç¡ĸ": 8567,
      "éĶı": 8568,
      "çĻ£": 8569,
      "é¦¥": 8570,
      "èįª": 8571,
      "1021": 8572,
      "åĶı": 8573,
      "1212": 8574,
      "æĴ©": 8575,
      "çıħ": 8576,
      "çıĲ": 8577,
      "æļĦ": 8578,
      "1922": 8579,
      "1931": 8580,
      "1440": 8581,
      "èıħ": 8582,
      "1003": 8583,
      "1007": 8584,
      "åĺĪ": 8585,
      "ç£´": 8586,
      "ern": 8587,
      "ony": 8588,
      "å©ª": 8589,
      "bert": 8590,
      "9900": 8591,
      "âĳµ": 8592,
      "Ġ71": 8593,
      "651": 8594,
      "6800": 8595,
      "ingt": 8596,
      "964": 8597,
      "969": 8598,
      "042": 8599,
      "562": 8600,
      "971": 8601,
      "863": 8602,
      "874": 8603,
      "771": 8604,
      "772": 8605,
      "Ġâĳ¶": 8606,
      "åĹ²": 8607,
      "ĠCo": 8608,
      "1122": 8609,
      "xxx": 8610,
      "ART": 8611,
      "ABCG": 8612,
      "AEO": 8613,
      "MCU": 8614,
      "%),": 8615,
      "',": 8616,
      "033": 8617,
      "595": 8618,
      "614": 8619,
      "631": 8620,
      "729": 8621,
      "819": 8622,
      "8200": 8623,
      "878": 8624,
      ";âĢľ": 8625,
      "At": 8626,
      "BS": 8627,
      "FA": 8628,
      "GG": 8629,
      "JM": 8630,
      "LY": 8631,
      "MR": 8632,
      "Sem": 8633,
      "TR": 8634,
      "Th": 8635,
      "Tæģ¤": 8636,
      "WT": 8637,
      "bl": 8638,
      "br": 8639,
      "face": 8640,
      "gçļĦ": 8641,
      "içļĦ": 8642,
      "ka": 8643,
      "ns": 8644,
      "pro": 8645,
      "tf": 8646,
      "ucc": 8647,
      "¾åŁİ": 8648,
      "ĠéªĮ": 8649,
      "ĠéĶĢ": 8650,
      "ĠçĲĥ": 8651,
      "Ġåİħ": 8652,
      "Ġå¾ħ": 8653,
      "Ġç»į": 8654,
      "Ġè´´": 8655,
      "Ġåĭ¤": 8656,
      "ĠåĭŁ": 8657,
      "Ġè·Ŀ": 8658,
      "Ġé¡¶": 8659,
      "ĠåĶ±": 8660,
      "Ġå¡ĳ": 8661,
      "ĠçĮª": 8662,
      "Ġæģ©": 8663,
      "ĠçĽĪ": 8664,
      "Ġæĭľ": 8665,
      "ĠæŁ´": 8666,
      "Ġç§ī": 8667,
      "Ġï¼į": 8668,
      "Ġro": 8669,
      "Ġle": 8670,
      "ĠèĻŀ": 8671,
      "ĠâĨĳ": 8672,
      "çļĦR": 8673,
      "ä½ļ": 8674,
      "åĲĿ": 8675,
      "æĸŁ": 8676,
      "éĻ¨": 8677,
      "éĺĪ": 8678,
      "èĩĨ": 8679,
      "èĥ±": 8680,
      "æĥº": 8681,
      "åģķ": 8682,
      "æ¯½": 8683,
      "èī®": 8684,
      "åķª": 8685,
      "æ·Ŀ": 8686,
      "æº±": 8687,
      "çķ¿": 8688,
      "ç¼«": 8689,
      "1092": 8690,
      "æ»¢": 8691,
      "1507": 8692,
      "Ġ180": 8693,
      "çĭ¡": 8694,
      "Ġ216": 8695,
      "1430": 8696,
      "ç£²": 8697,
      "ç¿Į": 8698,
      "ural": 8699,
      "æĩĭ": 8700,
      "çŀİ": 8701,
      "6600": 8702,
      "859": 8703,
      "041": 8704,
      "881": 8705,
      "882": 8706,
      "861": 8707,
      "773": 8708,
      "774": 8709,
      "ance": 8710,
      "åĹ¯": 8711,
      "é³į": 8712,
      "é³Ļ": 8713,
      "ç°ª": 8714,
      "è¤Ĥ": 8715,
      "iss": 8716,
      "API": 8717,
      "MART": 8718,
      "SCF": 8719,
      "oto": 8720,
      "TAs": 8721,
      "mart": 8722,
      "book": 8723,
      "çįĲ": 8724,
      "LOGO": 8725,
      "\"ãĢģ": 8726,
      "\"([": 8727,
      "/ï¼Ī": 8728,
      "029": 8729,
      "539": 8730,
      "719": 8731,
      "713": 8732,
      "735": 8733,
      "738": 8734,
      "732": 8735,
      "826": 8736,
      "833": 8737,
      "876": 8738,
      "9200": 8739,
      "937": 8740,
      ";ãĢĬ": 8741,
      "Bç«Ļ": 8742,
      "Cç«¯": 8743,
      "DM": 8744,
      "Gåħ¨": 8745,
      "HA": 8746,
      "JX": 8747,
      "PaaS": 8748,
      "QY": 8749,
      "SAP": 8750,
      "Tç»Ĩ": 8751,
      "TPP": 8752,
      "Web": 8753,
      "XB": 8754,
      "ben": 8755,
      "dd": 8756,
      "hèĤ¡": 8757,
      "ke": 8758,
      "oo": 8759,
      "pg": 8760,
      "rs": 8761,
      "tra": 8762,
      "Ġç©¶": 8763,
      "ĠæĢ¥": 8764,
      "Ġåıĭ": 8765,
      "Ġå·®": 8766,
      "Ġå£®": 8767,
      "Ġå®ı": 8768,
      "Ġå¡ŀ": 8769,
      "Ġåĩī": 8770,
      "Ġèį·": 8771,
      "Ġé¹¿": 8772,
      "Ġå½¼": 8773,
      "ĠæŁ¯": 8774,
      "Ġæ¢§": 8775,
      "Ġå¨Ħ": 8776,
      "ĠéªĨ": 8777,
      "Ġè©¹": 8778,
      "ĠéĹµ": 8779,
      "ģåŁİ": 8780,
      "Įå¹³": 8781,
      "ľæĿİ": 8782,
      "łä¸į": 8783,
      "çļĳ": 8784,
      "åı½": 8785,
      "æľĲ": 8786,
      "ä»¡": 8787,
      "è¿¢": 8788,
      "å±İ": 8789,
      "æĪ®": 8790,
      "æĪŁ": 8791,
      "åĴ«": 8792,
      "èµĺ": 8793,
      "çĲı": 8794,
      "2040": 8795,
      "æ²ļ": 8796,
      "éĺĬ": 8797,
      "æ´µ": 8798,
      "ï¼ļ$": 8799,
      "0024": 8800,
      "æ¡ħ": 8801,
      "ä¸ĩm": 8802,
      "çĸ±": 8803,
      "ç±ģ": 8804,
      "é¦ĭ": 8805,
      "é¦ķ": 8806,
      "ç¼°": 8807,
      "éª¡": 8808,
      "éªŀ": 8809,
      "æĤ¯": 8810,
      "1220": 8811,
      "1113": 8812,
      "çı²": 8813,
      "1933": 8814,
      "Ġ136": 8815,
      "Ġ221": 8816,
      "ï¼Ł(": 8817,
      "1360": 8818,
      "èĸ°": 8819,
      "å´§": 8820,
      "904": 8821,
      "Ġ64": 8822,
      "èľ¥": 8823,
      "âĳ§": 8824,
      "Ġ72": 8825,
      "çŀħ": 8826,
      "986": 8827,
      "853": 8828,
      "043": 8829,
      "592": 8830,
      "977": 8831,
      "979": 8832,
      "872": 8833,
      "reg": 8834,
      "real": 8835,
      "691": 8836,
      "692": 8837,
      "694": 8838,
      "ith": 8839,
      "è±«A": 8840,
      "arb": 8841,
      "9001": 8842,
      "DRT": 8843,
      "å¬Ľ": 8844,
      "AGV": 8845,
      "GSK": 8846,
      "rans": 8847,
      "cln": 8848,
      "çįĹ": 8849,
      "FPGA": 8850,
      "'s": 8851,
      ")âĢĶ": 8852,
      "+âĢĻ": 8853,
      "099": 8854,
      "048": 8855,
      "047": 8856,
      "695": 8857,
      "717": 8858,
      "745": 8859,
      "795": 8860,
      "823": 8861,
      "827": 8862,
      "855": 8863,
      "849": 8864,
      "843": 8865,
      "841": 8866,
      "918": 8867,
      "932": 8868,
      ";ï¼Ī": 8869,
      "AF": 8870,
      "BE": 8871,
      "CçļĦ": 8872,
      "DE": 8873,
      "Dç»ı": 8874,
      "LC": 8875,
      "RC": 8876,
      "Re": 8877,
      "TZ": 8878,
      "Xçº¿": 8879,
      "ach": 8880,
      "bt": 8881,
      "cg": 8882,
      "ean": 8883,
      "line": 8884,
      "mi": 8885,
      "mçļĦ": 8886,
      "nä¸º": 8887,
      "pre": 8888,
      "pol": 8889,
      "ric": 8890,
      "tæģ¤": 8891,
      "ya": 8892,
      "Â¤": 8893,
      "ãĪ": 8894,
      "ĠæŃ¢": 8895,
      "Ġèģĺ": 8896,
      "ĠéģĹ": 8897,
      "Ġæį¢": 8898,
      "Ġè£ģ": 8899,
      "Ġäº©": 8900,
      "Ġè¾ĸ": 8901,
      "Ġç¼º": 8902,
      "ĠåºĦ": 8903,
      "Ġç¤¼": 8904,
      "Ġç®±": 8905,
      "Ġç¹ģ": 8906,
      "Ġçº½": 8907,
      "Ġè¿Ī": 8908,
      "ĠåĪ·": 8909,
      "Ġå¯Ĵ": 8910,
      "Ġè±ª": 8911,
      "ĠéŁ¦": 8912,
      "ĠçŀĦ": 8913,
      "ĠæĢĴ": 8914,
      "Ġæ¶ª": 8915,
      "Ġï¼ĳ": 8916,
      "Ġè¦ĥ": 8917,
      "Įå¤§": 8918,
      "Ĳå¿": 8919,
      "ĹéħĴ": 8920,
      "Ĺç£²": 8921,
      "ä¸Ĳ": 8922,
      "ï¼Į*": 8923,
      "çļĦf": 8924,
      "çļĦm": 8925,
      "æľŃ": 8926,
      "è¿Ĥ": 8927,
      "è´²": 8928,
      "æłİ": 8929,
      "å¤§V": 8930,
      "é¢Ģ": 8931,
      "é¢ī": 8932,
      "éĹ°": 8933,
      "å¾Ĥ": 8934,
      "æµł": 8935,
      "æŀ·": 8936,
      "åīģ": 8937,
      "è°Ļ": 8938,
      "0023": 8939,
      "0028": 8940,
      "0026": 8941,
      "çł°": 8942,
      "æ¶¸": 8943,
      "æ¶ł": 8944,
      "æĽľ": 8945,
      "æģ¿": 8946,
      "éĵ¢": 8947,
      "èįĥ": 8948,
      "èĪ«": 8949,
      "1070": 8950,
      "1065": 8951,
      "1047": 8952,
      "1058": 8953,
      "1073": 8954,
      "æ»¹": 8955,
      "åĶ¾": 8956,
      "1223": 8957,
      "æļ¹": 8958,
      "é¾Ī": 8959,
      "1919": 8960,
      "1408": 8961,
      "1805": 8962,
      "çĨµ": 8963,
      "ç¿Ģ": 8964,
      "âĳ¶": 8965,
      "çŀ³": 8966,
      "983": 8967,
      "Ġ86": 8968,
      "067": 8969,
      "Ġ92": 8970,
      "çĺĢ": 8971,
      "çĺģ": 8972,
      "877": 8973,
      "894": 8974,
      "ano": 8975,
      "ant": 8976,
      "1104": 8977,
      "ĠDA": 8978,
      "ley": 8979,
      "ï¹¢": 8980,
      "ARJ": 8981,
      "ĠEn": 8982,
      "âĢ°,": 8983,
      "plus": 8984,
      "bmw": 8985,
      "ailo": 8986,
      "Ĳå¿ĳ": 8987,
      "#-": 8988,
      "(âĢľ": 8989,
      "0104": 8990,
      "1123": 8991,
      "649": 8992,
      "7300": 8993,
      "8100": 8994,
      "828": 8995,
      "895": 8996,
      "8400": 8997,
      "945": 8998,
      "975": 8999,
      "939": 9000,
      "944": 9001,
      "978": 9002,
      "BM": 9003,
      "Bæłĭ": 9004,
      "Cl": 9005,
      "Cä½į": 9006,
      "Fi": 9007,
      "Fl": 9008,
      "GY": 9009,
      "IEC": 9010,
      "LH": 9011,
      "Li": 9012,
      "Lè£ħ": 9013,
      "Man": 9014,
      "MDRT": 9015,
      "Nä¸ª": 9016,
      "PB": 9017,
      "PT": 9018,
      "SI": 9019,
      "Soul": 9020,
      "Top": 9021,
      "UE": 9022,
      "Uåŀĭ": 9023,
      "bet": 9024,
      "mé«ĺ": 9025,
      "nal": 9026,
      "sz": 9027,
      "xls": 9028,
      "¤®": 9029,
      "¼èħ": 9030,
      "é¤®": 9031,
      "ĠçŃ¹": 9032,
      "Ġå½©": 9033,
      "ĠéĩĬ": 9034,
      "Ġé²ľ": 9035,
      "Ġå·¨": 9036,
      "Ġå¼ĥ": 9037,
      "Ġé±¼": 9038,
      "Ġè°·": 9039,
      "ĠèĤº": 9040,
      "Ġä»ĵ": 9041,
      "Ġç¥¥": 9042,
      "Ġæ¡ĥ": 9043,
      "ĠéĶģ": 9044,
      "Ġæļĳ": 9045,
      "ĠåĲĲ": 9046,
      "ĠéĹ½": 9047,
      "Ġå´ĸ": 9048,
      "ĠèįĶ": 9049,
      "Ġç¿ģ": 9050,
      "Ġéŀł": 9051,
      "ĠãĪ": 9052,
      "ŃåľĨ": 9053,
      "ŃèĦĤ": 9054,
      "åħĢ": 9055,
      "çļĦK": 9056,
      "åĪį": 9057,
      "èĩ¼": 9058,
      "éķķ": 9059,
      "æ´Ħ": 9060,
      "åķ¼": 9061,
      "æģ£": 9062,
      "èĬĥ": 9063,
      "ç¥Ł": 9064,
      "éľŃ": 9065,
      "èįı": 9066,
      "åŀļ": 9067,
      "1011": 9068,
      "éĴĹ": 9069,
      "1216": 9070,
      "é»Ŀ": 9071,
      "åĮħA": 9072,
      "1160": 9073,
      "1137": 9074,
      "çı©": 9075,
      "1520": 9076,
      "1503": 9077,
      "æĲª": 9078,
      "Ġ293": 9079,
      "ï¼Ł[": 9080,
      "1420": 9081,
      "1314": 9082,
      "1680": 9083,
      "ÃĹ(": 9084,
      "èĽĢ": 9085,
      "Ġ76": 9086,
      "952": 9087,
      "è²Ĥ": 9088,
      "057": 9089,
      "584": 9090,
      "7900": 9091,
      "Ġâĳ§": 9092,
      "1108": 9093,
      "chez": 9094,
      "eno": 9095,
      "ppi": 9096,
      "âī¦": 9097,
      "Ġ208": 9098,
      "1301": 9099,
      "orld": 9100,
      "ĠCO": 9101,
      "ï¹Ĵ": 9102,
      "ESI": 9103,
      "ITED": 9104,
      "ote": 9105,
      "abb": 9106,
      "PADN": 9107,
      "play": 9108,
      "udio": 9109,
      "Î¼g": 9110,
      "Â¤Â¤": 9111,
      "¼èħĨ": 9112,
      "0111": 9113,
      "1201": 9114,
      "6200": 9115,
      "644": 9116,
      "778": 9117,
      "743": 9118,
      "BH": 9119,
      "DD": 9120,
      "EX": 9121,
      "Gä¸İ": 9122,
      "KUS": 9123,
      "LP": 9124,
      "LT": 9125,
      "No": 9126,
      "OK": 9127,
      "OLED": 9128,
      "UNG": 9129,
      "ZR": 9130,
      "_[": 9131,
      "aw": 9132,
      "ase": 9133,
      "eam": 9134,
      "hi": 9135,
      "kn": 9136,
      "ktv": 9137,
      "nbs": 9138,
      "ost": 9139,
      "qi": 9140,
      "vie": 9141,
      "yu": 9142,
      "yout": 9143,
      "zj": 9144,
      "©éªĤ": 9145,
      "Î¦": 9146,
      "éĬ": 9147,
      "Ġé¢Ŀ": 9148,
      "ĠåĿĩ": 9149,
      "Ġè¾¹": 9150,
      "Ġçīĩ": 9151,
      "ĠæĮ¯": 9152,
      "Ġé¢ĳ": 9153,
      "ĠèĹı": 9154,
      "ĠéĴ¢": 9155,
      "ĠéĤĢ": 9156,
      "ĠæĮĸ": 9157,
      "Ġåģı": 9158,
      "Ġèµŀ": 9159,
      "ĠéĴ¦": 9160,
      "Ġèµ¤": 9161,
      "ĠåĴ¸": 9162,
      "Ġçľī": 9163,
      "Ġåħ¹": 9164,
      "Ġæ¸Ń": 9165,
      "ĠçīŁ": 9166,
      "Ġæ»ķ": 9167,
      "ĠâĨĵ": 9168,
      "ï¼Į(": 9169,
      "çļĦP": 9170,
      "çļĦg": 9171,
      "è¯§": 9172,
      "åŁŃ": 9173,
      "ç®´": 9174,
      "éķĸ": 9175,
      "è°ķ": 9176,
      "çĤĶ": 9177,
      "0027": 9178,
      "æį¶": 9179,
      "æĻģ": 9180,
      "æ·¦": 9181,
      "æ·ł": 9182,
      "åĪĽA": 9183,
      "æºĨ": 9184,
      "ç±¼": 9185,
      "éĵŁ": 9186,
      "èĪĢ": 9187,
      "é©®": 9188,
      "1090": 9189,
      "èĭ«": 9190,
      "èĭĴ": 9191,
      "èĭķ": 9192,
      "æ®Ĩ": 9193,
      "åĸµ": 9194,
      "èİ´": 9195,
      "éĴº": 9196,
      "1175": 9197,
      "1588": 9198,
      "1924": 9199,
      "1906": 9200,
      "æĲĤ": 9201,
      "1620": 9202,
      "1801": 9203,
      "1708": 9204,
      "1005": 9205,
      "1009": 9206,
      "é¸®": 9207,
      "elab": 9208,
      "çĳĦ": 9209,
      "5001": 9210,
      "èľ·": 9211,
      "___": 9212,
      "Ġ78": 9213,
      "987": 9214,
      "Ġ83": 9215,
      "056": 9216,
      "852": 9217,
      "è¿ªQ": 9218,
      "963": 9219,
      "èķĻ": 9220,
      "AITO": 9221,
      "cho": 9222,
      "atch": 9223,
      "1302": 9224,
      "é³Ŀ": 9225,
      "ife": 9226,
      "TOD": 9227,
      "neo": 9228,
      "dao": 9229,
      "lyn": 9230,
      "å¶Ĥ": 9231,
      "Semi": 9232,
      "nbsp": 9233,
      "éĬ®": 9234,
      "##": 9235,
      "617": 9236,
      "741": 9237,
      "812": 9238,
      "935": 9239,
      "Beat": 9240,
      "CJ": 9241,
      "EE": 9242,
      "EK": 9243,
      "Go": 9244,
      "HL": 9245,
      "JPG": 9246,
      "LJ": 9247,
      "LME": 9248,
      "Max": 9249,
      "Nåŀĭ": 9250,
      "NNF": 9251,
      "WS": 9252,
      "WTH": 9253,
      "WHO": 9254,
      "YE": 9255,
      "ama": 9256,
      "fl": 9257,
      "gy": 9258,
      "ial": 9259,
      "ken": 9260,
      "mer": 9261,
      "oph": 9262,
      "oled": 9263,
      "oice": 9264,
      "qe": 9265,
      "ui": 9266,
      "zx": 9267,
      "¨åĩ»": 9268,
      "Ġq": 9269,
      "Ġæ¬¾": 9270,
      "Ġæīį": 9271,
      "Ġè´«": 9272,
      "ĠåĲ«": 9273,
      "Ġæ¡¥": 9274,
      "ĠæįŁ": 9275,
      "Ġè½»": 9276,
      "Ġph": 9277,
      "ĠçŁ¿": 9278,
      "Ġå¹¼": 9279,
      "Ġèµĭ": 9280,
      "Ġè½¯": 9281,
      "ĠèĶ¬": 9282,
      "Ġä¼¦": 9283,
      "Ġä»²": 9284,
      "Ġè¿ª": 9285,
      "ĠèĻİ": 9286,
      "Ġè¯¸": 9287,
      "ĠåĨĢ": 9288,
      "Ġé¢ľ": 9289,
      "Ġèµĸ": 9290,
      "Ġåĸ·": 9291,
      "ĠéģĤ": 9292,
      "Ġæ¡Ĳ": 9293,
      "ĠæĤł": 9294,
      "Ġmm": 9295,
      "Ġam": 9296,
      "ĠQQ": 9297,
      "ľé±¼": 9298,
      "ï¼Į-": 9299,
      "å¹¡": 9300,
      "è´ĩ": 9301,
      "å¯Ĳ": 9302,
      "ä¿ª": 9303,
      "ä¿¸": 9304,
      "ä¸ºK": 9305,
      "ç®«": 9306,
      "èĩ¾": 9307,
      "çĶ¨W": 9308,
      "ï¼ī[": 9309,
      "ä¾ı": 9310,
      "èĥ¤": 9311,
      "èĥ«": 9312,
      "åĵĴ": 9313,
      "çĤħ": 9314,
      "ç¬ł": 9315,
      "å¿ĥA": 9316,
      "0013": 9317,
      "çŁ¾": 9318,
      "ç¥Ĳ": 9319,
      "å¦ĵ": 9320,
      "é¦ģ": 9321,
      "åŀ©": 9322,
      "åı·A": 9323,
      "1030": 9324,
      "1022": 9325,
      "1045": 9326,
      "å²¢": 9327,
      "åĸĥ": 9328,
      "åĶ§": 9329,
      "1225": 9330,
      "1255": 9331,
      "1180": 9332,
      "1170": 9333,
      "1512": 9334,
      "1560": 9335,
      "1912": 9336,
      "1905": 9337,
      "1901": 9338,
      "Ġ185": 9339,
      "æ½¦": 9340,
      "è¶Ĭl": 9341,
      "ç´łB": 9342,
      "èħ±": 9343,
      "1702": 9344,
      "2110": 9345,
      "çħĬ": 9346,
      "èĶ»": 9347,
      "Ġ533": 9348,
      "992": 9349,
      "urt": 9350,
      "æĩĬ": 9351,
      "èĽİ": 9352,
      "Ġ89": 9353,
      "èļľ": 9354,
      "èķĥ": 9355,
      "586": 9356,
      "è¹¿": 9357,
      "671": 9358,
      "879": 9359,
      "8900": 9360,
      "any": 9361,
      "ile": 9362,
      "ene": 9363,
      "åĹĳ": 9364,
      "EDA": 9365,
      "2305": 9366,
      "Ġto": 9367,
      "ĠGRO": 9368,
      "ICS": 9369,
      "MPa": 9370,
      "fcs": 9371,
      "ave": 9372,
      "SDG": 9373,
      "IFI": 9374,
      "zhou": 9375,
      "cds": 9376,
      "obol": 9377,
      "And": 9378,
      "080": 9379,
      "046": 9380,
      "065": 9381,
      "541": 9382,
      "712": 9383,
      "734": 9384,
      "744": 9385,
      "749": 9386,
      "824": 9387,
      "831": 9388,
      "8300": 9389,
      "897": 9390,
      "933": 9391,
      "DåĮº": 9392,
      "Ex": 9393,
      "Hg": 9394,
      "IAE": 9395,
      "Me": 9396,
      "SA": 9397,
      "Un": 9398,
      "WZ": 9399,
      "YJ": 9400,
      "[(": 9401,
      "ah": 9402,
      "ll": 9403,
      "mb": 9404,
      "mä¿Ŀ": 9405,
      "oung": 9406,
      "sour": 9407,
      "tc": 9408,
      "ty": 9409,
      "Ġæ¿": 9410,
      "Ġè¨Ģ": 9411,
      "ĠçĶ»": 9412,
      "ĠèĥĮ": 9413,
      "Ġçħ¤": 9414,
      "Ġæµª": 9415,
      "Ġæħ¢": 9416,
      "Ġæķ¢": 9417,
      "Ġè¯į": 9418,
      "Ġæĳĺ": 9419,
      "ĠèĲ¨": 9420,
      "Ġèĸª": 9421,
      "Ġéªĳ": 9422,
      "Ġéĵ¸": 9423,
      "ĠåĲĬ": 9424,
      "Ġå³ª": 9425,
      "Ġï¼Ĵ": 9426,
      "ĠLED": 9427,
      "Ġè£´": 9428,
      "ĦçĿĢ": 9429,
      "Ĵè·": 9430,
      "ç»¶": 9431,
      "âĢĿ-": 9432,
      "èµľ": 9433,
      "åľ¨S": 9434,
      "æµ¯": 9435,
      "2041": 9436,
      "æ²Į": 9437,
      "ï¼Ī-": 9438,
      "çľ¨": 9439,
      "æ´Ļ": 9440,
      "éģĴ": 9441,
      "éĽĴ": 9442,
      "0025": 9443,
      "0029": 9444,
      "çĸĥ": 9445,
      "åķī": 9446,
      "åĢĶ": 9447,
      "éĵĸ": 9448,
      "éĶĳ": 9449,
      "èĩ³K": 9450,
      "1068": 9451,
      "çĦĸ": 9452,
      "éĤĿ": 9453,
      "1115": 9454,
      "1136": 9455,
      "1133": 9456,
      "1155": 9457,
      "1550": 9458,
      "1918": 9459,
      "0004": 9460,
      "0008": 9461,
      "1340": 9462,
      "1375": 9463,
      "1740": 9464,
      "è§ĴG": 9465,
      "é¸¢": 9466,
      "åĺ¶": 9467,
      "åĺĮ": 9468,
      "ãĢĳ,": 9469,
      "997": 9470,
      "Ġ73": 9471,
      "èĨĺ": 9472,
      "052": 9473,
      "561": 9474,
      "Ġ93": 9475,
      "8890": 9476,
      "1207": 9477,
      "éĦĻ": 9478,
      "åĨĢE": 9479,
      "èŁ¾": 9480,
      "lear": 9481,
      "age": 9482,
      "ĠPRO": 9483,
      "etf": 9484,
      "æªĿ": 9485,
      "PCB": 9486,
      "kVA": 9487,
      "ĠLIM": 9488,
      "Ġpro": 9489,
      "å¶Ŀ": 9490,
      "GEF": 9491,
      "SKU": 9492,
      "QFII": 9493,
      "Ĵè·ļ": 9494,
      "(%": 9495,
      "(Â¥": 9496,
      ")+": 9497,
      "6398": 9498,
      "742": 9499,
      "776": 9500,
      "817": 9501,
      "822": 9502,
      "896": 9503,
      "927": 9504,
      "BBC": 9505,
      "Cç»Ħ": 9506,
      "City": 9507,
      "EO": 9508,
      "FC": 9509,
      "FS": 9510,
      "Gæīĭ": 9511,
      "GIS": 9512,
      "Lo": 9513,
      "SG": 9514,
      "TæĹ¥": 9515,
      "Tok": 9516,
      "Treg": 9517,
      "VA": 9518,
      "Vç³»": 9519,
      "Vç±»": 9520,
      "WIFI": 9521,
      "You": 9522,
      "ZE": 9523,
      "aåįķ": 9524,
      "aåº§": 9525,
      "cel": 9526,
      "fund": 9527,
      "gx": 9528,
      "gåŁº": 9529,
      "gen": 9530,
      "iu": 9531,
      "ook": 9532,
      "pk": 9533,
      "ux": 9534,
      "zw": 9535,
      "¦çĦ¶": 9536,
      "Ġ~": 9537,
      "Ġå±Ĭ": 9538,
      "Ġè´¸": 9539,
      "ĠéļĲ": 9540,
      "Ġä¼ĳ": 9541,
      "Ġè´¡": 9542,
      "Ġåħµ": 9543,
      "Ġæĵį": 9544,
      "Ġèĥľ": 9545,
      "Ġç¢³": 9546,
      "ĠãĢķ": 9547,
      "Ġæ´ĭ": 9548,
      "Ġæ¶¦": 9549,
      "ĠåĨ²": 9550,
      "Ġä½³": 9551,
      "Ġæĭ¿": 9552,
      "Ġéĩİ": 9553,
      "Ġå®¾": 9554,
      "ĠæĬµ": 9555,
      "Ġæ²ī": 9556,
      "Ġæ´Ĺ": 9557,
      "Ġä¿Ĺ": 9558,
      "Ġå¯¿": 9559,
      "Ġé¹ı": 9560,
      "Ġå®«": 9561,
      "Ġéŀį": 9562,
      "ĠèĬĴ": 9563,
      "Ġé²į": 9564,
      "ĠâĪ¶": 9565,
      "ï¼Ĩ": 9566,
      "ï¼Į\"": 9567,
      "ãĢĹ": 9568,
      "çļİ": 9569,
      "è¿³": 9570,
      "å¹Ĥ": 9571,
      "å¸Ľ": 9572,
      "éĢ¯": 9573,
      "âĢľ(": 9574,
      "âĢĿ?": 9575,
      "åĴİ": 9576,
      "åĴĮC": 9577,
      "åĴĮG": 9578,
      "åĴĮS": 9579,
      "åĮºB": 9580,
      "éĥĵ": 9581,
      "éĺļ": 9582,
      "ç½į": 9583,
      "åī½": 9584,
      "èĲĺ": 9585,
      "0030": 9586,
      "æ¡¡": 9587,
      "çłŃ": 9588,
      "ç¥ľ": 9589,
      "éĵ¤": 9590,
      "è¢Ħ": 9591,
      "åŀ¡": 9592,
      "1040": 9593,
      "1083": 9594,
      "æ®ĥ": 9595,
      "åĸ³": 9596,
      "è£¨": 9597,
      "æĤļ": 9598,
      "åĶģ": 9599,
      "éĤ¨": 9600,
      "1211": 9601,
      "1233": 9602,
      "1114": 9603,
      "3010": 9604,
      "1526": 9605,
      "çĮ©": 9606,
      "1910": 9607,
      "1916": 9608,
      "1902": 9609,
      "ç¢¶": 9610,
      "ç´łC": 9611,
      "ç´łD": 9612,
      "1325": 9613,
      "1344": 9614,
      "1602": 9615,
      "1810": 9616,
      "1895": 9617,
      "2450": 9618,
      "2404": 9619,
      "åĺ§": 9620,
      "çĨ¨": 9621,
      "Ġ475": 9622,
      "Ġ476": 9623,
      "uman": 9624,
      "ä½³a": 9625,
      "994": 9626,
      "Ġ77": 9627,
      "084": 9628,
      "cnn": 9629,
      "Ġ87": 9630,
      "873": 9631,
      "1109": 9632,
      "enn": 9633,
      "ĠRS": 9634,
      "ATP": 9635,
      "igh": 9636,
      "ĠThe": 9637,
      "ABC": 9638,
      "ABS": 9639,
      "ull": 9640,
      "IDC": 9641,
      "mark": 9642,
      "Î¼m": 9643,
      ")ï¼Ī": 9644,
      "0116": 9645,
      "0803": 9646,
      "3150": 9647,
      "642": 9648,
      "727": 9649,
      "7284": 9650,
      "922": 9651,
      "921": 9652,
      "941": 9653,
      "AW": 9654,
      "Aæłĩ": 9655,
      "AæĻ¯": 9656,
      "ADI": 9657,
      "Bæľ¬": 9658,
      "BæĺŁ": 9659,
      "DP": 9660,
      "Dr": 9661,
      "ENG": 9662,
      "Ever": 9663,
      "Elan": 9664,
      "FR": 9665,
      "FT": 9666,
      "HX": 9667,
      "HZ": 9668,
      "Mon": 9669,
      "Mar": 9670,
      "Mate": 9671,
      "NN": 9672,
      "OX": 9673,
      "SQ": 9674,
      "VTO": 9675,
      "XT": 9676,
      "YS": 9677,
      "ZW": 9678,
      "cul": 9679,
      "dl": 9680,
      "dv": 9681,
      "eVTO": 9682,
      "heb": 9683,
      "ies": 9684,
      "jing": 9685,
      "jpg": 9686,
      "mRNA": 9687,
      "sm": 9688,
      "wto": 9689,
      "you": 9690,
      "ÏĢ": 9691,
      "éİ": 9692,
      "Ġ{": 9693,
      "ĠÂ": 9694,
      "ĠåºĹ": 9695,
      "Ġéģĩ": 9696,
      "Ġçĸ¾": 9697,
      "Ġæ®ĭ": 9698,
      "Ġæ¡£": 9699,
      "Ġè¯º": 9700,
      "ĠåĲ¨": 9701,
      "Ġéģ¿": 9702,
      "Ġä¹ħ": 9703,
      "Ġæ³½": 9704,
      "Ġè¯Ĺ": 9705,
      "ĠæĭĴ": 9706,
      "Ġgo": 9707,
      "Ġé¸¡": 9708,
      "Ġæĭ¼": 9709,
      "ĠèĪį": 9710,
      "Ġå·§": 9711,
      "Ġèĳ¡": 9712,
      "Ġè¡·": 9713,
      "Ġèĭ¹": 9714,
      "Ġæ¹Ľ": 9715,
      "Ġæ»ģ": 9716,
      "Ġç¶¦": 9717,
      "Ġå·«": 9718,
      "Ġibm": 9719,
      "ĦåŁİ": 9720,
      "Ĩåĵ®": 9721,
      "Ńæ¯": 9722,
      "ï¼Į/": 9723,
      "ãĢĸ": 9724,
      "çļĦG": 9725,
      "æĶ«": 9726,
      "éĩĨ": 9727,
      "æĺĻ": 9728,
      "åĴĮM": 9729,
      "åľ¨G": 9730,
      "åĳ¤": 9731,
      "åĳ±": 9732,
      "ä¸ºI": 9733,
      "æ³ł": 9734,
      "ï¼Ī.": 9735,
      "æĥļ": 9736,
      "è¾«": 9737,
      "æ¶Ķ": 9738,
      "ç²²": 9739,
      "èĬ¾": 9740,
      "èĬĬ": 9741,
      "èĮ±": 9742,
      "éĵī": 9743,
      "éĶĹ": 9744,
      "çķ¦": 9745,
      "ç¼¥": 9746,
      "1035": 9747,
      "1036": 9748,
      "1038": 9749,
      "1049": 9750,
      "æ¨¨": 9751,
      "1226": 9752,
      "1111": 9753,
      "1147": 9754,
      "1163": 9755,
      "çıĻ": 9756,
      "èĻ¬": 9757,
      "Ġ146": 9758,
      "Ġ141": 9759,
      "æ¥¸": 9760,
      "æĲĲ": 9761,
      "Ġ229": 9762,
      "1468": 9763,
      "1403": 9764,
      "1312": 9765,
      "2405": 9766,
      "Ġ365": 9767,
      "æ¦·": 9768,
      "æ¦Ľ": 9769,
      "2350": 9770,
      "2810": 9771,
      "era": 9772,
      "ç¯ª": 9773,
      "é¹¬": 9774,
      "è¸¹": 9775,
      "ÃĹ,": 9776,
      "èĽĬ": 9777,
      "Ġ74": 9778,
      "094": 9779,
      "097": 9780,
      "Ġ81": 9781,
      "064": 9782,
      "è²Ķ": 9783,
      "054": 9784,
      "0112": 9785,
      "783": 9786,
      "è¹ĩ": 9787,
      "ree": 9788,
      "1106": 9789,
      "enp": 9790,
      "ora": 9791,
      "ismo": 9792,
      "esp": 9793,
      "MAC": 9794,
      "Ġai": 9795,
      "OPO": 9796,
      "åļ·": 9797,
      "fox": 9798,
      "able": 9799,
      "PAN": 9800,
      "ĠEx": 9801,
      "MPO": 9802,
      "ACL": 9803,
      "avis": 9804,
      "],[": 9805,
      "IFA": 9806,
      "RTS": 9807,
      "ADC": 9808,
      "THE": 9809,
      "KEY": 9810,
      "echn": 9811,
      "IAEA": 9812,
      "éİı": 9813,
      "Ńæ¯ĳ": 9814,
      ".ï¼Ī": 9815,
      "034": 9816,
      "0103": 9817,
      "0114": 9818,
      "2150": 9819,
      "9144": 9820,
      "Aåľ°": 9821,
      "Bt": 9822,
      "Bç«¯": 9823,
      "Bå¹¢": 9824,
      "CU": 9825,
      "Cä¸ī": 9826,
      "DX": 9827,
      "GåĴĮ": 9828,
      "Gåıĳ": 9829,
      "HF": 9830,
      "JK": 9831,
      "JZ": 9832,
      "MM": 9833,
      "NM": 9834,
      "NAT": 9835,
      "QS": 9836,
      "SL": 9837,
      "SU": 9838,
      "Wi": 9839,
      "YN": 9840,
      "[ï¼Ī": 9841,
      "af": 9842,
      "ael": 9843,
      "ain": 9844,
      "bç«¯": 9845,
      "fa": 9846,
      "gl": 9847,
      "kell": 9848,
      "lish": 9849,
      "md": 9850,
      "men": 9851,
      "ram": 9852,
      "vol": 9853,
      "wind": 9854,
      "yt": 9855,
      "Ġ#": 9856,
      "Ġäº": 9857,
      "ĠéĩĮ": 9858,
      "Ġç½®": 9859,
      "Ġå¨": 9860,
      "ĠçĮ®": 9861,
      "Ġç«¥": 9862,
      "Ġé¥®": 9863,
      "ĠæĹ§": 9864,
      "Ġæģ¢": 9865,
      "ĠçĨŁ": 9866,
      "ĠéĹŃ": 9867,
      "Ġå½°": 9868,
      "Ġé¡µ": 9869,
      "Ġæķı": 9870,
      "Ġçĵ¦": 9871,
      "ĠæĻ¨": 9872,
      "Ġå¥Ķ": 9873,
      "Ġè±Ĩ": 9874,
      "ĠæĹº": 9875,
      "Ġå¯¨": 9876,
      "Ġä»°": 9877,
      "ĠæĪĪ": 9878,
      "ĠæŁ¬": 9879,
      "Ġ...": 9880,
      "ĠãĢĮ": 9881,
      "Ġend": 9882,
      "Ħé¥": 9883,
      "İæ¢": 9884,
      "ï¼Į#": 9885,
      "å¤Ń": 9886,
      "æĪĮ": 9887,
      "åĴĻ": 9888,
      "è§Ĳ": 9889,
      "æİĤ": 9890,
      "çİĳ": 9891,
      "çİŁ": 9892,
      "æ³·": 9893,
      "ç§£": 9894,
      "çĲ¬": 9895,
      "åĮºA": 9896,
      "éĥ¦": 9897,
      "éĥħ": 9898,
      "èĢĻ": 9899,
      "2048": 9900,
      "çīį": 9901,
      "å¥Ħ": 9902,
      "ï¼ī*": 9903,
      "ï¼ī=": 9904,
      "é«»": 9905,
      "ï¼ļ\"": 9906,
      "ï¼ļ@": 9907,
      "æįİ": 9908,
      "çł»": 9909,
      "çłŁ": 9910,
      "çĿ¬": 9911,
      "çĸ½": 9912,
      "æ·Ļ": 9913,
      "2029": 9914,
      "èĮ¯": 9915,
      "å¦¤": 9916,
      "éĵ°": 9917,
      "éª§": 9918,
      "1015": 9919,
      "1014": 9920,
      "1027": 9921,
      "1066": 9922,
      "1088": 9923,
      "1097": 9924,
      "1082": 9925,
      "éĴ£": 9926,
      "éĴ¿": 9927,
      "1219": 9928,
      "1214": 9929,
      "1218": 9930,
      "1240": 9931,
      "1246": 9932,
      "1249": 9933,
      "1176": 9934,
      "è±Į": 9935,
      "3060": 9936,
      "èĦ²": 9937,
      "çĬĩ": 9938,
      "1540": 9939,
      "1580": 9940,
      "1501": 9941,
      "1925": 9942,
      "1923": 9943,
      "èĻ±": 9944,
      "èĻı": 9945,
      "Ġ130": 9946,
      "æ¥Ķ": 9947,
      "æ¿ĳ": 9948,
      "åĻľ": 9949,
      "Ġ213": 9950,
      "1460": 9951,
      "1328": 9952,
      "1322": 9953,
      "1321": 9954,
      "1398": 9955,
      "1660": 9956,
      "èıĺ": 9957,
      "èħŃ": 9958,
      "1730": 9959,
      "1707": 9960,
      "åĤ©": 9961,
      "2550": 9962,
      "2360": 9963,
      "4050": 9964,
      "2708": 9965,
      "eld": 9966,
      "é¹Ħ": 9967,
      "Ġnot": 9968,
      "3001": 9969,
      "èľļ": 9970,
      "èĽ¤": 9971,
      "èĽ¹": 9972,
      "èĨĽ": 9973,
      "095": 9974,
      "Ġ84": 9975,
      "062": 9976,
      "889": 9977,
      "5223": 9978,
      "1204": 9979,
      "arp": 9980,
      "Ġ301": 9981,
      "ĠSh": 9982,
      "ĠSHI": 9983,
      "roid": 9984,
      "eter": 9985,
      "GPU": 9986,
      "ipad": 9987,
      "OPS": 9988,
      "off": 9989,
      "PDP": 9990,
      "è§ħS": 9991,
      "ifa": 9992,
      "iao": 9993,
      "anda": 9994,
      "ASKB": 9995,
      "iii": 9996,
      "TBT": 9997,
      "ogle": 9998,
      "kWh": 9999,
      "CLDN": 10000,
      "TION": 10001,
      "ucci": 10002,
      "YEAH": 10003,
      "Ħé¥¨": 10004,
      "İæ¢ı": 10005,
      "''": 10006,
      ".,": 10007,
      "0303": 10008,
      "1202": 10009,
      "4221": 10010,
      "697": 10011,
      "845": 10012,
      "946": 10013,
      "947": 10014,
      "949": 10015,
      "=ï¼Ī": 10016,
      "Ak": 10017,
      "Apol": 10018,
      "BX": 10019,
      "Béĵħ": 10020,
      "CI": 10021,
      "CV": 10022,
      "Cåŀĭ": 10023,
      "CCS": 10024,
      "Gå»º": 10025,
      "HER": 10026,
      "IL": 10027,
      "IR": 10028,
      "ION": 10029,
      "Pop": 10030,
      "SW": 10031,
      "Sp": 10032,
      "Vè°·": 10033,
      "VID": 10034,
      "YX": 10035,
      "ZS": 10036,
      "bi": 10037,
      "bit": 10038,
      "cal": 10039,
      "dB": 10040,
      "ek": 10041,
      "gh": 10042,
      "iSDG": 10043,
      "ji": 10044,
      "oma": 10045,
      "ole": 10046,
      "oec": 10047,
      "ps": 10048,
      "san": 10049,
      "sys": 10050,
      "uber": 10051,
      "wn": 10052,
      "wit": 10053,
      "wen": 10054,
      "yd": 10055,
      "yle": 10056,
      "¸çĦ¶": 10057,
      "Ã©": 10058,
      "è¬": 10059,
      "Ġz": 10060,
      "ĠéĹ´": 10061,
      "Ġè®Ń": 10062,
      "Ġè±¡": 10063,
      "ĠåĪ¤": 10064,
      "Ġ000": 10065,
      "ĠæĿ¿": 10066,
      "ĠéĹ»": 10067,
      "Ġ**": 10068,
      "ĠéĿł": 10069,
      "Ġè·ĳ": 10070,
      "ĠéļĶ": 10071,
      "Ġå¾ª": 10072,
      "Ġå¥ĩ": 10073,
      "Ġæĳ¸": 10074,
      "Ġæ¸Ķ": 10075,
      "ĠæĲ¬": 10076,
      "ĠæľĹ": 10077,
      "Ġå»Ĭ": 10078,
      "Ġéķľ": 10079,
      "Ġèİ²": 10080,
      "ĠæļĹ": 10081,
      "ĠæĶĢ": 10082,
      "Ġæ´½": 10083,
      "Ġéĥİ": 10084,
      "Ġå§ĳ": 10085,
      "ĠèĬ¦": 10086,
      "Ġå¼Ĺ": 10087,
      "ĠETF": 10088,
      "Ġéĺ®": 10089,
      "Ġdo": 10090,
      "Ġç²²": 10091,
      "ģèĵī": 10092,
      "ĦèĢ": 10093,
      "īè·": 10094,
      "įæ²³": 10095,
      "çļĦa": 10096,
      "çļĦn": 10097,
      "è¯ĺ": 10098,
      "æī¦": 10099,
      "åĴĮP": 10100,
      "èµ¦": 10101,
      "é¢¢": 10102,
      "æŃĨ": 10103,
      "æŀĭ": 10104,
      "ï¼ī)": 10105,
      "èģ©": 10106,
      "æĸ¹C": 10107,
      "è¾ĺ": 10108,
      "åģİ": 10109,
      "è·º": 10110,
      "ç¬¤": 10111,
      "ç¬Ī": 10112,
      "æįĭ": 10113,
      "ç¾Ł": 10114,
      "çĿ¾": 10115,
      "çĿĳ": 10116,
      "èĬ©": 10117,
      "èĬĪ": 10118,
      "æºŁ": 10119,
      "éªĲ": 10120,
      "1018": 10121,
      "1023": 10122,
      "1028": 10123,
      "1048": 10124,
      "1078": 10125,
      "1087": 10126,
      "å²¿": 10127,
      "æ®ĩ": 10128,
      "éĤ°": 10129,
      "1228": 10130,
      "1244": 10131,
      "1247": 10132,
      "1296": 10133,
      "1269": 10134,
      "1264": 10135,
      "ç¥ŀL": 10136,
      "1132": 10137,
      "1530": 10138,
      "1528": 10139,
      "1502": 10140,
      "1908": 10141,
      "1907": 10142,
      "åĦĨ": 10143,
      "Ġ140": 10144,
      "åłł": 10145,
      "ç´łc": 10146,
      "Ġ246": 10147,
      "1407": 10148,
      "1317": 10149,
      "1356": 10150,
      "1371": 10151,
      "1843": 10152,
      "1720": 10153,
      "1701": 10154,
      "Ġ370": 10155,
      "é²µ": 10156,
      "2312": 10157,
      "2699": 10158,
      "6030": 10159,
      "2758": 10160,
      "çħħ": 10161,
      "èĹľ": 10162,
      "éºĿ": 10163,
      "Ġ550": 10164,
      "3342": 10165,
      "Ġ600": 10166,
      "091": 10167,
      "076": 10168,
      "Ġ823": 10169,
      "è²ħ": 10170,
      "059": 10171,
      "962": 10172,
      "èķ¨": 10173,
      "Ġ97": 10174,
      "1205": 10175,
      "athy": 10176,
      "èĿł": 10177,
      "ari": 10178,
      "1307": 10179,
      "orp": 10180,
      "ick": 10181,
      "icu": 10182,
      "icat": 10183,
      "ĠDU": 10184,
      "1128": 10185,
      "2303": 10186,
      "ĠPC": 10187,
      "Ġsu": 10188,
      "åļĵ": 10189,
      "DNS": 10190,
      "Ġth": 10191,
      "Ġcon": 10192,
      "edu": 10193,
      "img": 10194,
      "CNBC": 10195,
      "***,": 10196,
      "ult": 10197,
      "ower": 10198,
      "Ins": 10199,
      "GEP": 10200,
      "ohn": 10201,
      "NiCo": 10202,
      "WEI": 10203,
      "NICE": 10204,
      "ZERO": 10205,
      "oecd": 10206,
      "ĦèĢĭ": 10207,
      "049": 10208,
      "0105": 10209,
      "0602": 10210,
      "2202": 10211,
      "2160": 10212,
      "2260": 10213,
      "3103": 10214,
      "9100": 10215,
      "9300": 10216,
      "AåħĪ": 10217,
      "BRT": 10218,
      "Cy": 10219,
      "EP": 10220,
      "Fun": 10221,
      "Gbps": 10222,
      "Harm": 10223,
      "IAM": 10224,
      "KèĬ±": 10225,
      "Must": 10226,
      "NB": 10227,
      "NS": 10228,
      "Pä¸º": 10229,
      "RZ": 10230,
      "RAS": 10231,
      "TL": 10232,
      "Wh": 10233,
      "Xåħī": 10234,
      "cçº§": 10235,
      "cis": 10236,
      "data": 10237,
      "fw": 10238,
      "jin": 10239
    },
    "merges": [
      [
        "ï",
        "¼"
      ],
      [
        "ä",
        "¸"
      ],
      [
        "ï¼",
        "Į"
      ],
      [
        "ã",
        "Ģ"
      ],
      [
        "ä",
        "º"
      ],
      [
        "å",
        "ħ"
      ],
      [
        "ç",
        "ļ"
      ],
      [
        "å",
        "ı"
      ],
      [
        "çļ",
        "Ħ"
      ],
      [
        "æ",
        "ľ"
      ],
      [
        "å",
        "®"
      ],
      [
        "ãĢ",
        "Ĥ"
      ],
      [
        "å",
        "Ĭ"
      ],
      [
        "ãĢ",
        "ģ"
      ],
      [
        "ä",
        "»"
      ],
      [
        "å",
        "Ī"
      ],
      [
        "â",
        "Ģ"
      ],
      [
        "å",
        "¤"
      ],
      [
        "ä",
        "½"
      ],
      [
        "å",
        "Ĳ"
      ],
      [
        "ç",
        "»"
      ],
      [
        "è",
        "¿"
      ],
      [
        "æ",
        "ĸ"
      ],
      [
        "å",
        "ľ"
      ],
      [
        "è",
        "®"
      ],
      [
        "ä",
        "¼"
      ],
      [
        "å",
        "¹"
      ],
      [
        "ç",
        "Ķ"
      ],
      [
        "å",
        "Į"
      ],
      [
        "å",
        "Ľ"
      ],
      [
        "å",
        "¸"
      ],
      [
        "è",
        "´"
      ],
      [
        "å",
        "į"
      ],
      [
        "å",
        "·"
      ],
      [
        "æ",
        "Ĺ"
      ],
      [
        "å",
        "±"
      ],
      [
        "æ",
        "Ķ"
      ],
      [
        "å",
        "¼"
      ],
      [
        "æ",
        "Ī"
      ],
      [
        "è",
        "¯"
      ],
      [
        "é",
        "ĩ"
      ],
      [
        "å",
        "º"
      ],
      [
        "è",
        "¡"
      ],
      [
        "äº",
        "º"
      ],
      [
        "ç",
        "Ľ"
      ],
      [
        "æ",
        "Ŀ"
      ],
      [
        "ä",
        "¹"
      ],
      [
        "æ",
        "Ĭ"
      ],
      [
        "å",
        "Ĩ"
      ],
      [
        "æ",
        "ĺ"
      ],
      [
        "ä¸",
        "Ģ"
      ],
      [
        "æ",
        "ī"
      ],
      [
        "ä¸",
        "ļ"
      ],
      [
        "æ",
        "ł"
      ],
      [
        "é",
        "Ģ"
      ],
      [
        "âĢ",
        "ľ"
      ],
      [
        "ä¸",
        "Ń"
      ],
      [
        "âĢ",
        "Ŀ"
      ],
      [
        "å",
        "¯"
      ],
      [
        "æ",
        "ķ"
      ],
      [
        "å",
        "Ĵ"
      ],
      [
        "å",
        "°"
      ],
      [
        "å",
        "ĩ"
      ],
      [
        "å",
        "Ń"
      ],
      [
        "æ",
        "°"
      ],
      [
        "å·",
        "¥"
      ],
      [
        "åĴ",
        "Į"
      ],
      [
        "ä",
        "¿"
      ],
      [
        "è",
        "µ"
      ],
      [
        "å¸",
        "Ĥ"
      ],
      [
        "åľ",
        "¨"
      ],
      [
        "è",
        "§"
      ],
      [
        "æ",
        "İ"
      ],
      [
        "é",
        "Ļ"
      ],
      [
        "ä½",
        "ľ"
      ],
      [
        "å¹",
        "´"
      ],
      [
        "è¡",
        "Į"
      ],
      [
        "å",
        "ĳ"
      ],
      [
        "ç",
        "Ń"
      ],
      [
        "åı",
        "ĳ"
      ],
      [
        "ä¸",
        "º"
      ],
      [
        "ç",
        "º"
      ],
      [
        "æ",
        "Ģ"
      ],
      [
        "æľ",
        "ī"
      ],
      [
        "ç",
        "İ"
      ],
      [
        "æ",
        "³"
      ],
      [
        "å¤",
        "§"
      ],
      [
        "æ",
        "Į"
      ],
      [
        "ç",
        "§"
      ],
      [
        "åĽ",
        "½"
      ],
      [
        "åħ",
        "¬"
      ],
      [
        "é",
        "¢"
      ],
      [
        "åħ",
        "¨"
      ],
      [
        "é",
        "Ĺ"
      ],
      [
        "å",
        "Ł"
      ],
      [
        "ä¼",
        "ļ"
      ],
      [
        "å",
        "»"
      ],
      [
        "å",
        "İ"
      ],
      [
        "ç",
        "Ĳ"
      ],
      [
        "åĮ",
        "º"
      ],
      [
        "å®",
        "ŀ"
      ],
      [
        "è",
        "¦"
      ],
      [
        "äº",
        "Ĩ"
[...]
