{
  "version": "1.0",
  "truncation": null,
  "padding": null,
  "added_tokens": [
    {
      "id": 0,
      "content": "<|endoftext|>",
      "single_word": false,
      "lstrip": false,
      "rstrip": false,
      "normalized": true,
      "special": true
    },
    {
      "id": 1,
      "content": "<s>",
      "single_word": false,
      "lstrip": false,
      "rstrip": false,
      "normalized": false,
      "special": true
    },
    {
      "id": 2,
      "content": "</s>",
      "single_word": false,
      "lstrip": false,
      "rstrip": false,
      "normalized": false,
      "special": true
    },
    {
      "id": 3,
      "content": "<unk>",
      "single_word": false,
      "lstrip": false,
      "rstrip": false,
      "normalized": false,
      "special": true
    },
    {
      "id": 4,
      "content": "<pad>",
      "single_word": false,
      "lstrip": false,
      "rstrip": false,
      "normalized": false,
      "special": true
    }
  ],
  "normalizer": null,
  "pre_tokenizer": {
    "type": "ByteLevel",
    "add_prefix_space": false,
    "trim_offsets": true,
    "use_regex": true
  },
  "post_processor": {
    "type": "ByteLevel",
    "add_prefix_space": true,
    "trim_offsets": false,
    "use_regex": true
  },
  "decoder": {
    "type": "ByteLevel",
    "add_prefix_space": true,
    "trim_offsets": true,
    "use_regex": true
  },
  "model": {
    "type": "BPE",
    "dropout": null,
    "unk_token": null,
    "continuing_subword_prefix": "",
    "end_of_word_suffix": "",
    "fuse_unk": false,
    "byte_fallback": false,
    "ignore_merges": false,
    "vocab": {
      "<|endoftext|>": 0,
      "<s>": 1,
      "</s>": 2,
      "<unk>": 3,
      "<pad>": 4,
      "!": 5,
      "\"": 6,
      "#": 7,
      "$": 8,
      "%": 9,
      "&": 10,
      "'": 11,
      "(": 12,
      ")": 13,
      "*": 14,
      "+": 15,
      ",": 16,
      "-": 17,
      ".": 18,
      "/": 19,
      "0": 20,
      "1": 21,
      "2": 22,
      "3": 23,
      "4": 24,
      "5": 25,
      "6": 26,
      "7": 27,
      "8": 28,
      "9": 29,
      ":": 30,
      ";": 31,
      "<": 32,
      "=": 33,
      ">": 34,
      "?": 35,
      "@": 36,
      "A": 37,
      "B": 38,
      "C": 39,
      "D": 40,
      "E": 41,
      "F": 42,
      "G": 43,
      "H": 44,
      "I": 45,
      "J": 46,
      "K": 47,
      "L": 48,
      "M": 49,
      "N": 50,
      "O": 51,
      "P": 52,
      "Q": 53,
      "R": 54,
      "S": 55,
      "T": 56,
      "U": 57,
      "V": 58,
      "W": 59,
      "X": 60,
      "Y": 61,
      "Z": 62,
      "[": 63,
      "\\": 64,
      "]": 65,
      "^": 66,
      "_": 67,
      "`": 68,
      "a": 69,
      "b": 70,
      "c": 71,
      "d": 72,
      "e": 73,
      "f": 74,
      "g": 75,
      "h": 76,
      "i": 77,
      "j": 78,
      "k": 79,
      "l": 80,
      "m": 81,
      "n": 82,
      "o": 83,
      "p": 84,
      "q": 85,
      "r": 86,
      "s": 87,
      "t": 88,
      "u": 89,
      "v": 90,
      "w": 91,
      "x": 92,
      "y": 93,
      "z": 94,
      "{": 95,
      "|": 96,
      "}": 97,
      "~": 98,
      "¡": 99,
      "¢": 100,
      "£": 101,
      "¤": 102,
      "¥": 103,
      "¦": 104,
      "§": 105,
      "¨": 106,
      "©": 107,
      "ª": 108,
      "«": 109,
      "¬": 110,
      "®": 111,
      "¯": 112,
      "°": 113,
      "±": 114,
      "²": 115,
      "³": 116,
      "´": 117,
      "µ": 118,
      "¶": 119,
      "·": 120,
      "¸": 121,
      "¹": 122,
      "º": 123,
      "»": 124,
      "¼": 125,
      "½": 126,
      "¾": 127,
      "¿": 128,
      "À": 129,
      "Á": 130,
      "Â": 131,
      "Ã": 132,
      "Ä": 133,
      "Å": 134,
      "Æ": 135,
      "Ç": 136,
      "È": 137,
      "É": 138,
      "Ê": 139,
      "Ë": 140,
      "Ì": 141,
      "Í": 142,
      "Î": 143,
      "Ï": 144,
      "Ð": 145,
      "Ñ": 146,
      "Ò": 147,
      "Ó": 148,
      "Ô": 149,
      "Õ": 150,
      "Ö": 151,
      "×": 152,
      "Ø": 153,
      "Ù": 154,
      "Ú": 155,
      "Û": 156,
      "Ü": 157,
      "Ý": 158,
      "Þ": 159,
      "ß": 160,
      "à": 161,
      "á": 162,
      "â": 163,
      "ã": 164,
      "ä": 165,
      "å": 166,
      "æ": 167,
      "ç": 168,
      "è": 169,
      "é": 170,
      "ê": 171,
      "ë": 172,
      "ì": 173,
      "í": 174,
      "î": 175,
      "ï": 176,
      "ð": 177,
      "ñ": 178,
      "ò": 179,
      "ó": 180,
      "ô": 181,
      "õ": 182,
      "ö": 183,
      "÷": 184,
      "ø": 185,
      "ù": 186,
      "ú": 187,
      "û": 188,
      "ü": 189,
      "ý": 190,
      "þ": 191,
      "ÿ": 192,
      "Ā": 193,
      "ā": 194,
      "Ă": 195,
      "ă": 196,
      "Ą": 197,
      "ą": 198,
      "Ć": 199,
      "ć": 200,
      "Ĉ": 201,
      "ĉ": 202,
      "Ċ": 203,
      "ċ": 204,
      "Č": 205,
      "č": 206,
      "Ď": 207,
      "ď": 208,
      "Đ": 209,
      "đ": 210,
      "Ē": 211,
      "ē": 212,
      "Ĕ": 213,
      "ĕ": 214,
      "Ė": 215,
      "ė": 216,
      "Ę": 217,
      "ę": 218,
      "Ě": 219,
      "ě": 220,
      "Ĝ": 221,
      "ĝ": 222,
      "Ğ": 223,
      "ğ": 224,
      "Ġ": 225,
      "ġ": 226,
      "Ģ": 227,
      "ģ": 228,
      "Ĥ": 229,
      "ĥ": 230,
      "Ħ": 231,
      "ħ": 232,
      "Ĩ": 233,
      "ĩ": 234,
      "Ī": 235,
      "ī": 236,
      "Ĭ": 237,
      "ĭ": 238,
      "Į": 239,
      "į": 240,
      "İ": 241,
      "ı": 242,
      "Ĳ": 243,
      "ĳ": 244,
      "Ĵ": 245,
      "ĵ": 246,
      "Ķ": 247,
      "ķ": 248,
      "ĸ": 249,
      "Ĺ": 250,
      "ĺ": 251,
      "Ļ": 252,
      "ļ": 253,
      "Ľ": 254,
      "ľ": 255,
      "Ŀ": 256,
      "ŀ": 257,
      "Ł": 258,
      "ł": 259,
      "Ń": 260,
      "ï¼": 261,
      "ä¸": 262,
      "ï¼Į": 263,
      "ãĢ": 264,
      "äº": 265,
      "åħ": 266,
      "çļ": 267,
      "çļĦ": 268,
      "åı": 269,
      "æľ": 270,
      "ãĢĤ": 271,
      "å®": 272,
      "ä»": 273,
      "åĬ": 274,
      "ãĢģ": 275,
      "âĢ": 276,
      "å¤": 277,
      "åĪ": 278,
      "è¿": 279,
      "ä½": 280,
      "åĲ": 281,
      "åľ": 282,
      "ç»": 283,
      "æĸ": 284,
      "è®": 285,
      "å¹": 286,
      "çĶ": 287,
      "åĽ": 288,
      "ä¼": 289,
      "åĮ": 290,
      "æĹ": 291,
      "å¸": 292,
      "åį": 293,
      "æĪ": 294,
      "å·": 295,
      "æĺ": 296,
      "è´": 297,
      "è¯": 298,
      "å¼": 299,
      "å±": 300,
      "ä¹": 301,
      "éĩ": 302,
      "æĶ": 303,
      "ä¸Ģ": 304,
      "åº": 305,
      "æĿ": 306,
      "è¡": 307,
      "äºº": 308,
      "åĨ": 309,
      "çĽ": 310,
      "æĬ": 311,
      "æī": 312,
      "å°": 313,
      "âĢľ": 314,
      "âĢĿ": 315,
      "ä¸Ń": 316,
      "åľ¨": 317,
      "éĢ": 318,
      "åŃ": 319,
      "å¯": 320,
      "åĩ": 321,
      "åĴ": 322,
      "æł": 323,
      "ä¸ļ": 324,
      "æķ": 325,
      "èµ": 326,
      "åĴĮ": 327,
      "æ°": 328,
      "è§": 329,
      "å¹´": 330,
      "æľī": 331,
      "ä¿": 332,
      "æİ": 333,
      "åĽ½": 334,
      "éĻ": 335,
      "å¤§": 336,
      "ä¸º": 337,
      "å·¥": 338,
      "åıĳ": 339,
      "å¸Ĥ": 340,
      "çİ": 341,
      "æĢ": 342,
      "æĺ¯": 343,
      "äºĨ": 344,
      "ä½ľ": 345,
      "ç§": 346,
      "è¡Į": 347,
      "çŃ": 348,
      "Ġt": 349,
      "çº": 350,
      "åĳ": 351,
      "åħ¬": 352,
      "ä¼ļ": 353,
      "éĹ": 354,
      "å¾": 355,
      "æĮ": 356,
      "èĢ": 357,
      "ä¸į": 358,
      "æ³": 359,
      "é¢": 360,
      "åŁ": 361,
      "åİ": 362,
      "å¿": 363,
      "éĥ": 364,
      "åħ¨": 365,
      "æµ": 366,
      "¦ģ": 367,
      "å¥": 368,
      "Ġa": 369,
      "çĲ": 370,
      "éĿ": 371,
      "å½": 372,
      "ä¸Ĭ": 373,
      "çĶŁ": 374,
      "è¦ģ": 375,
      "çī": 376,
      "å»": 377,
      "æŃ": 378,
      "å®ŀ": 379,
      "åĬ¨": 380,
      "æ²": 381,
      "åĮº": 382,
      "è¿Ľ": 383,
      "æĸ°": 384,
      "20": 385,
      "in": 386,
      "ä»¥": 387,
      "èĩ": 388,
      "æĹ¶": 389,
      "å±ķ": 390,
      "æŀ": 391,
      "åĩº": 392,
      "å»º": 393,
      "èĥ": 394,
      "é¡": 395,
      "æĪĲ": 396,
      "åľ°": 397,
      "çĲĨ": 398,
      "å¯¹": 399,
      "ç®": 400,
      "he": 401,
      "åĬ¡": 402,
      "éĺ": 403,
      "æ±": 404,
      "åĮĸ": 405,
      "äº§": 406,
      "æĶ¿": 407,
      "å¼Ģ": 408,
      "ä¸ª": 409,
      "åŃ¦": 410,
      "çľ": 411,
      "æĭ": 412,
      "æĹ¥": 413,
      "çĶ¨": 414,
      "æı": 415,
      "èĤ": 416,
      "æ³ķ": 417,
      "çŃī": 418,
      "ç¤": 419,
      "ç«": 420,
      "å®¶": 421,
      "è½": 422,
      "æĥ": 423,
      "éĥ¨": 424,
      "åī": 425,
      "è¾": 426,
      "ç½": 427,
      "éķ": 428,
      "åĬĽ": 429,
      "åĲĪ": 430,
      "åħ³": 431,
      "åĵ": 432,
      "èµĦ": 433,
      "ä¾": 434,
      "æ°ĳ": 435,
      "åĪ°": 436,
      "æĸ¹": 437,
      "ï¼ī": 438,
      "èĥ½": 439,
      "æ¬": 440,
      "ï¼Ī": 441,
      "é«": 442,
      "æ´": 443,
      "é«ĺ": 444,
      "ç»ı": 445,
      "ä½ĵ": 446,
      "ï¼ļ": 447,
      "èģ": 448,
      "å·¥ä½ľ": 449,
      "è®¾": 450,
      "çİ°": 451,
      "ä¿Ŀ": 452,
      "æıĲ": 453,
      "re": 454,
      "ä¸»": 455,
      "é¡¹": 456,
      "æ¸": 457,
      "æĿ¥": 458,
      "çĽ®": 459,
      "å®ļ": 460,
      "åĪĨ": 461,
      "åĬł": 462,
      "éĩį": 463,
      "ç¨": 464,
      "æľĪ": 465,
      "åģ": 466,
      "æ¯": 467,
      "æĦ": 468,
      "å§": 469,
      "on": 470,
      "äºĭ": 471,
      "å¢": 472,
      "åĲĮ": 473,
      "éĢļ": 474,
      "äºİ": 475,
      "ç®¡": 476,
      "æľ¬": 477,
      "æľº": 478,
      "è·": 479,
      "er": 480,
      "éģ": 481,
      "åĳĺ": 482,
      "æŁ": 483,
      "ä¸ĭ": 484,
      "è°": 485,
      "å®ī": 486,
      "æĸĩ": 487,
      "çĤ": 488,
      "æĪĳ": 489,
      "åĪ¶": 490,
      "èĲ": 491,
      "éĿ¢": 492,
      "åĿ": 493,
      "èĩª": 494,
      "è¿ĩ": 495,
      "éķ¿": 496,
      "Ġthe": 497,
      "ä¸İ": 498,
      "åľº": 499,
      "åº¦": 500,
      "è¿Ļ": 501,
      "åı¸": 502,
      "éĽ": 503,
      "å¤ļ": 504,
      "Ġs": 505,
      "åıĬ": 506,
      "ç¬": 507,
      "ç¾": 508,
      "æłĩ": 509,
      "å¿ĥ": 510,
      "éĩĳ": 511,
      "åıĳå±ķ": 512,
      "åĲİ": 513,
      "åĵģ": 514,
      "æį": 515,
      "åħ¥": 516,
      "æĻ": 517,
      "åħĥ": 518,
      "éļ": 519,
      "å¹³": 520,
      "åīį": 521,
      "åħ¬åı¸": 522,
      "æĥħ": 523,
      "ä½į": 524,
      "å¼º": 525,
      "å¥½": 526,
      "Ġw": 527,
      "çĤ¹": 528,
      "æľį": 529,
      "è§Ħ": 530,
      "00": 531,
      "Ġo": 532,
      "at": 533,
      "ãĢĬ": 534,
      "ãĢĭ": 535,
      "åºĶ": 536,
      "åĨħ": 537,
      "æ¡": 538,
      "æĽ": 539,
      "æĮģ": 540,
      "åı¯": 541,
      "æİ¨": 542,
      "ï¼Ľ": 543,
      "é£": 544,
      "æľŁ": 545,
      "ä¼ģ": 546,
      "èī": 547,
      "ä¿¡": 548,
      "nd": 549,
      "å°Ĩ": 550,
      "çĿ": 551,
      "æ°´": 552,
      "Ġc": 553,
      "ä»¬": 554,
      "åħ¶": 555,
      "èĢħ": 556,
      "ä¸ī": 557,
      "éĩı": 558,
      "åħļ": 559,
      "æ¶": 560,
      "æ¬¡": 561,
      "ç¤¾": 562,
      "å§Ķ": 563,
      "å°ı": 564,
      "çł": 565,
      "æĢ§": 566,
      "åŁº": 567,
      "ç³": 568,
      "æľįåĬ¡": 569,
      "äº¤": 570,
      "å°±": 571,
      "ä»ĸ": 572,
      "å±Ģ": 573,
      "it": 574,
      "æ´»": 575,
      "çŁ": 576,
      "åĲĦ": 577,
      "è¡¨": 578,
      "éĹ´": 579,
      "æĬ¥": 580,
      "ç¬¬": 581,
      "ou": 582,
      "ç»Ħ": 583,
      "åħ±": 584,
      "ç¨ĭ": 585,
      "çĶµ": 586,
      "é¡¹çĽ®": 587,
      "ç¡": 588,
      "ä¼ģä¸ļ": 589,
      "è¶": 590,
      "å»ºè®¾": 591,
      "çĸ": 592,
      "å¦": 593,
      "åĬŀ": 594,
      "è®¡": 595,
      "çľģ": 596,
      "ä¸ĩ": 597,
      "åĢ": 598,
      "or": 599,
      "ç³»": 600,
      "es": 601,
      "ä»£": 602,
      "æ²»": 603,
      "æ·": 604,
      "ä¸ŃåĽ½": 605,
      "æĺİ": 606,
      "ä»»": 607,
      "ä»¶": 608,
      "æĬĢ": 609,
      "æĿĳ": 610,
      "is": 611,
      "èĬ": 612,
      "åķ": 613,
      "çĽ¸": 614,
      "ä¹Ł": 615,
      "Ġf": 616,
      "ç§ĳ": 617,
      "ç²": 618,
      "en": 619,
      "ä¹ĭ": 620,
      "æķĻ": 621,
      "è®®": 622,
      "æĸ½": 623,
      "æĶ¯": 624,
      "åĪĽ": 625,
      "å¯¼": 626,
      "æĬķ": 627,
      "ing": 628,
      "Ġb": 629,
      "å¾Ĺ": 630,
      "å¼ı": 631,
      "éģĵ": 632,
      "Ġp": 633,
      "æķ°": 634,
      "é¢ĺ": 635,
      "ç½ĳ": 636,
      "åįķ": 637,
      "æģ": 638,
      "åŃĲ": 639,
      "åĲį": 640,
      "æīĢ": 641,
      "æŁ¥": 642,
      "ç¥": 643,
      "å½ĵ": 644,
      "è½¦": 645,
      "åķĨ": 646,
      "éĹ¨": 647,
      "è®°": 648,
      "è´¨": 649,
      "å¢ŀ": 650,
      "å¹¶": 651,
      "æĶ¶": 652,
      "åĪ©": 653,
      "åŁİ": 654,
      "éľ": 655,
      "æ±Ĥ": 656,
      "è´£": 657,
      "çķ": 658,
      "è·¯": 659,
      "æĦı": 660,
      "æį®": 661,
      "ç«ĭ": 662,
      "çº§": 663,
      "ç¤º": 664,
      "ç±": 665,
      "å¤©": 666,
      "an": 667,
      "äºĮ": 668,
      "æº": 669,
      "å¤ĸ": 670,
      "èģĶ": 671,
      "åĨľ": 672,
      "è´¹": 673,
      "æĢ»": 674,
      "æĽ´": 675,
      "ä¸ĵ": 676,
      "èĤ²": 677,
      "éĵ": 678,
      "ç®¡çĲĨ": 679,
      "è°ĥ": 680,
      "éĶ": 681,
      "ç©": 682,
      "202": 683,
      "è¯ģ": 684,
      "ç»Ł": 685,
      "ed": 686,
      "al": 687,
      "è§£": 688,
      "çĽĳ": 689,
      "åĲĳ": 690,
      "éĺ²": 691,
      "Ġto": 692,
      "æµ·": 693,
      "éĻ¢": 694,
      "çī©": 695,
      "æĶ¹": 696,
      "é¢Ĩ": 697,
      "éĹ®": 698,
      "Ġm": 699,
      "é¦": 700,
      "æľĢ": 701,
      "ç´": 702,
      "çī¹": 703,
      "éĢł": 704,
      "æ¡Ī": 705,
      "åı°": 706,
      "çĻ": 707,
      "éĽĨ": 708,
      "ç»ĵ": 709,
      "èĮ": 710,
      "ä»İ": 711,
      "æ£": 712,
      "æķĪ": 713,
      "ä¹¦": 714,
      "ä¼ł": 715,
      "è¿Ĳ": 716,
      "ä¸ľ": 717,
      "è¯´": 718,
      "æĮĩ": 719,
      "ar": 720,
      "åİ¿": 721,
      "Ġand": 722,
      "èĤ¡": 723,
      "ä¾Ľ": 724,
      "èĪ": 725,
      "èį": 726,
      "æ·±": 727,
      "åĳĬ": 728,
      "çİ¯": 729,
      "ç¾İ": 730,
      "èµ·": 731,
      "Ġin": 732,
      "æºĲ": 733,
      "å¤Ħ": 734,
      "æł¼": 735,
      "åĨ³": 736,
      "æŃ£": 737,
      "èĲ¥": 738,
      "è¿ĺ": 739,
      "æ¯Ķ": 740,
      "åºľ": 741,
      "åįģ": 742,
      "æľ¯": 743,
      "å¦Ĥ": 744,
      "Ġof": 745,
      "çłĶ": 746,
      "è¿Ľè¡Į": 747,
      "è¿ĳ": 748,
      "åĩĨ": 749,
      "éĥ½": 750,
      "éħ": 751,
      "è¢": 752,
      "æİ¥": 753,
      "åįĹ": 754,
      "å®īåħ¨": 755,
      "ç§į": 756,
      "çĿĢ": 757,
      "æķ´": 758,
      "èĢĮ": 759,
      "çº¿": 760,
      "åģļ": 761,
      "åĨµ": 762,
      "çĦ": 763,
      "ç¼": 764,
      "å¹¿": 765,
      "æĶ¿åºľ": 766,
      "Ġd": 767,
      "åŀ": 768,
      "le": 769,
      "å·²": 770,
      "ä»·": 771,
      "å®Į": 772,
      "åĮ»": 773,
      "æŃ¥": 774,
      "æµİ": 775,
      "å±±": 776,
      "å¸¸": 777,
      "ç¡®": 778,
      "æµģ": 779,
      "èĭ": 780,
      "éĩĩ": 781,
      "å·ŀ": 782,
      "é©": 783,
      "201": 784,
      "èĩ³": 785,
      "çģ": 786,
      "ic": 787,
      "åıĤ": 788,
      "ç²¾": 789,
      "éĻĲ": 790,
      "é£İ": 791,
      "ç¤¾ä¼ļ": 792,
      "åİŁ": 793,
      "ä¼ĺ": 794,
      "æĬ¤": 795,
      "èĲ½": 796,
      "æģ¯": 797,
      "åĮĹ": 798,
      "é¢Ħ": 799,
      "ç»Ń": 800,
      "éª": 801,
      "åĽĽ": 802,
      "çĥ": 803,
      "æŀĦ": 804,
      "åįĩ": 805,
      "æŃ¤": 806,
      "ä¼Ĺ": 807,
      "ä¹ł": 808,
      "éĩĮ": 809,
      "æīĵ": 810,
      "æĿ¡": 811,
      "è´Ń": 812,
      "è¥": 813,
      "åĽł": 814,
      "ä¸¤": 815,
      "è®¤": 816,
      "å¢ĥ": 817,
      "äº§ä¸ļ": 818,
      "å¼Ģå±ķ": 819,
      "ç»ıæµİ": 820,
      "è¢«": 821,
      "æ´»åĬ¨": 822,
      "æĿĥ": 823,
      "åıĸ": 824,
      "å²": 825,
      "äººæ°ĳ": 826,
      "æŀľ": 827,
      "èĮĥ": 828,
      "æĢģ": 829,
      "è¥¿": 830,
      "æĥħåĨµ": 831,
      "æ£Ģ": 832,
      "åıĹ": 833,
      "om": 834,
      "æīĭ": 835,
      "å®¡": 836,
      "æĹł": 837,
      "éľĢ": 838,
      "éĺŁ": 839,
      "å£": 840,
      "10": 841,
      "ç¾¤": 842,
      "èī²": 843,
      "æĪĸ": 844,
      "èĢģ": 845,
      "è¾¾": 846,
      "åĸ": 847,
      "ion": 848,
      "as": 849,
      "Ġh": 850,
      "æ®": 851,
      "åı£": 852,
      "éĹ®é¢ĺ": 853,
      "æ»": 854,
      "åĿļ": 855,
      "èģĮ": 856,
      "ħ§": 857,
      "äººåĳĺ": 858,
      "åĽ½å®¶": 859,
      "éĢļè¿ĩ": 860,
      "åįı": 861,
      "æĶ¾": 862,
      "çŁ¥": 863,
      "å¤ĩ": 864,
      "åħ·": 865,
      "æĪ·": 866,
      "ãĢĤâĢĿ": 867,
      "åĪĴ": 868,
      "éĴ": 869,
      "çĶ±": 870,
      "èĬĤ": 871,
      "åįķä½į": 872,
      "âĢĿï¼Į": 873,
      "æķĻèĤ²": 874,
      "å¸Ĥåľº": 875,
      "éĤ": 876,
      "æĪĺ": 877,
      "å¼ķ": 878,
      "ç»ĩ": 879,
      "åĽ¢": 880,
      "èİ": 881,
      "åı·": 882,
      "ç¦": 883,
      "çŃĸ": 884,
      "åįİ": 885,
      "ç±»": 886,
      "Ġth": 887,
      "è½¬": 888,
      "çľĭ": 889,
      "åħĪ": 890,
      "åĬ©": 891,
      "å½¢": 892,
      "ç§¯": 893,
      "ä½¿": 894,
      "æİ§": 895,
      "æł¡": 896,
      "èº": 897,
      "æ¸¸": 898,
      "èŀ": 899,
      "éĥ¨éĹ¨": 900,
      "åŀĭ": 901,
      "å¸ĥ": 902,
      "æ±Ł": 903,
      "éĻħ": 904,
      "è®©": 905,
      "çĹ": 906,
      "çĦ¶": 907,
      "èĢĥ": 908,
      "å¸¦": 909,
      "æĦŁ": 910,
      "æĪĳä»¬": 911,
      "ç»Ħç»ĩ": 912,
      "æ¶Ī": 913,
      "çĪ": 914,
      "åŁŁ": 915,
      "æĬĢæľ¯": 916,
      "ä»Ĭ": 917,
      "å¹²": 918,
      "èº«": 919,
      "ä¸Ģä¸ª": 920,
      "è£": 921,
      "è¦ģæ±Ĥ": 922,
      "ä¹¡": 923,
      "èŀį": 924,
      "æ°Ķ": 925,
      "å¤į": 926,
      "æĸĩåĮĸ": 927,
      "åĶ": 928,
      "çĽ¸åħ³": 929,
      "ç®Ĺ": 930,
      "ll": 931,
      "ä¸Ńå¿ĥ": 932,
      "é»": 933,
      "æľª": 934,
      "åĽŀ": 935,
      "è¯Ħ": 936,
      "æł¸": 937,
      "æĪ¿": 938,
      "å½±": 939,
      "éĻ©": 940,
      "ä½Ĩ": 941,
      "ä¿¡æģ¯": 942,
      "è§ģ": 943,
      "æ¹": 944,
      "æ¸ħ": 945,
      "Ġn": 946,
      "äºĶ": 947,
      "æİ¨è¿Ľ": 948,
      "æ¼": 949,
      "å¿«": 950,
      "æĺĵ": 951,
      "Ġy": 952,
      "æ¨": 953,
      "çħ§": 954,
      "åĽŃ": 955,
      "è§Ĩ": 956,
      "ä¸ĩåħĥ": 957,
      "æĤ": 958,
      "éĢī": 959,
      "Ġl": 960,
      "æī§": 961,
      "åģ¥": 962,
      "éķĩ": 963,
      "å¸Ī": 964,
      "è¯·": 965,
      "æĬĬ": 966,
      "æİĴ": 967,
      "æĮī": 968,
      "æĹ¶éĹ´": 969,
      "åıĺ": 970,
      "å¤´": 971,
      "è´Ł": 972,
      "æ¬¾": 973,
      "æĥ³": 974,
      "çİ¯å¢ĥ": 975,
      "åİ»": 976,
      "ent": 977,
      "è´¢": 978,
      "è¯¥": 979,
      "æŀģ": 980,
      "ä¸¥": 981,
      "ä»½": 982,
      "st": 983,
      "è¯Ĩ": 984,
      "Ġ1": 985,
      "ve": 986,
      "ç¥ŀ": 987,
      "å°ĳ": 988,
      "å®£": 989,
      "ro": 990,
      "Ġe": 991,
      "éªĮ": 992,
      "æ¯ı": 993,
      "æ³¨": 994,
      "åĨĽ": 995,
      "åĪĽæĸ°": 996,
      "åħ»": 997,
      "èĲ½å®ŀ": 998,
      "Ġre": 999,
      "ç«Ļ": 1000,
      "æĹħ": 1001,
      "ä¸¾": 1002,
      "ä¼ļè®®": 1003,
      "çĶŁäº§": 1004,
      "å®¹": 1005,
      "æī¹": 1006,
      "æĬķèµĦ": 1007,
      "æıĲä¾Ľ": 1008,
      "çĽ´": 1009,
      "äº¬": 1010,
      "éĿŀ": 1011,
      "âĢĶ": 1012,
      "éļľ": 1013,
      "å·¥ç¨ĭ": 1014,
      "ä¾Ŀ": 1015,
      "äº§åĵģ": 1016,
      "åĪ«": 1017,
      "åĮħ": 1018,
      "èĦ": 1019,
      "äº¿": 1020,
      "æıĲåįĩ": 1021,
      "å¾Ī": 1022,
      "éĩįè¦ģ": 1023,
      "Ġyou": 1024,
      "ç§°": 1025,
      "è§Ĥ": 1026,
      "æ¨¡": 1027,
      "æ²¡": 1028,
      "æīį": 1029,
      "è±": 1030,
      "æł¹": 1031,
      "åĬłå¼º": 1032,
      "çª": 1033,
      "äºĽ": 1034,
      "ç»Ļ": 1035,
      "ä¹ī": 1036,
      "æ²³": 1037,
      "çľŁ": 1038,
      "åŁ¹": 1039,
      "çĿ£": 1040,
      "æŀĹ": 1041,
      "è´¨éĩı": 1042,
      "çİĩ": 1043,
      "æ¢": 1044,
      "çº¦": 1045,
      "æł·": 1046,
      "æĸĻ": 1047,
      "é¦ĸ": 1048,
      "æĴ": 1049,
      "ç©¶": 1050,
      "æĭĽ": 1051,
      "ct": 1052,
      "æĶ¿çŃĸ": 1053,
      "é£Ł": 1054,
      "åĽ´": 1055,
      "å®ŀæĸ½": 1056,
      "èµĽ": 1057,
      "èİ·": 1058,
      "ç½®": 1059,
      "æİ¨åĬ¨": 1060,
      "çĽĬ": 1061,
      "âĢĿãĢĤ": 1062,
      "éħį": 1063,
      "12": 1064,
      "ä¸ĢæŃ¥": 1065,
      "éĿĴ": 1066,
      "åıį": 1067,
      "åº·": 1068,
      "et": 1069,
      "å¾ĭ": 1070,
      "è´£ä»»": 1071,
      "å¿Ĺ": 1072,
      "åĬ¿": 1073,
      "Ġg": 1074,
      "åĳ¨": 1075,
      "åĢ¼": 1076,
      "æī¿": 1077,
      "çĸ«": 1078,
      "ly": 1079,
      "ä½ı": 1080,
      "çĬ": 1081,
      "æĸŃ": 1082,
      "éļ¾": 1083,
      "çı": 1084,
      "å±ħ": 1085,
      "çĲĥ": 1086,
      "ç¾¤ä¼Ĺ": 1087,
      "æĢĿ": 1088,
      "å®ŀçİ°": 1089,
      "å¼ł": 1090,
      "ä¿Ŀéļľ": 1091,
      "éĩįçĤ¹": 1092,
      "ä¸ĸ": 1093,
      "ĠI": 1094,
      "æľīéĻĲ": 1095,
      "èĳ": 1096,
      "Ġï¼Ī": 1097,
      "åŃĺ": 1098,
      "è®º": 1099,
      "èµĦæºĲ": 1100,
      "å®¢": 1101,
      "èµ°": 1102,
      "çķĮ": 1103,
      "çĹħ": 1104,
      "æľºæŀĦ": 1105,
      "è¶ħ": 1106,
      "è§Ħå®ļ": 1107,
      "åĵį": 1108,
      "åĭ": 1109,
      "å¥³": 1110,
      "åĸĦ": 1111,
      "éĿ©": 1112,
      "åħ´": 1113,
      "ç§ĳæĬĢ": 1114,
      "åŃ¦ä¹ł": 1115,
      "å±Ĥ": 1116,
      "çłĶç©¶": 1117,
      "è¯Ŀ": 1118,
      "éĶĢ": 1119,
      "ç©º": 1120,
      "éĢŁ": 1121,
      "æĸ¹éĿ¢": 1122,
      "ĠâĢľ": 1123,
      "å¹³åı°": 1124,
      "è¯ķ": 1125,
      "æĻº": 1126,
      "çº¢": 1127,
      "ç»´": 1128,
      "åŁİå¸Ĥ": 1129,
      "æĸ¹å¼ı": 1130,
      "Ġis": 1131,
      "æĳ": 1132,
      "ä¸»è¦ģ": 1133,
      "åħ¨éĿ¢": 1134,
      "æµĭ": 1135,
      "åī¯": 1136,
      "åı¯ä»¥": 1137,
      "åĲĮæĹ¶": 1138,
      "èĻ": 1139,
      "åĪĻ": 1140,
      "30": 1141,
      "è´Łè´£": 1142,
      "èµĦéĩĳ": 1143,
      "ĠT": 1144,
      "åħħ": 1145,
      "çĶ³": 1146,
      "é¢Ŀ": 1147,
      "åŃĹ": 1148,
      "åİĨ": 1149,
      "ä¾ĭ": 1150,
      "âĢĻ": 1151,
      "èŃ": 1152,
      "11": 1153,
      "ä¿ĥ": 1154,
      "æļ": 1155,
      "èŃ¦": 1156,
      "ur": 1157,
      "åħī": 1158,
      "Ġbe": 1159,
      "è£ħ": 1160,
      "Ġfor": 1161,
      "æ®µ": 1162,
      "ut": 1163,
      "ä½İ": 1164,
      "åĪĹ": 1165,
      "ç²¾ç¥ŀ": 1166,
      "é¾": 1167,
      "ot": 1168,
      "éĩĩè´Ń": 1169,
      "è¶³": 1170,
      "è¡¨ç¤º": 1171,
      "çĭ": 1172,
      "è¾ĥ": 1173,
      "åĦ": 1174,
      "ç§¯æŀģ": 1175,
      "æ»¡": 1176,
      "åĨį": 1177,
      "èį¯": 1178,
      "çĶŁæĢģ": 1179,
      "æľīéĻĲåħ¬åı¸": 1180,
      "æĺ¾": 1181,
      "è¡¥": 1182,
      "çĶŁæ´»": 1183,
      "Ġon": 1184,
      "æĻ¯": 1185,
      "æĭħ": 1186,
      "çĻ¾": 1187,
      "å¯Ł": 1188,
      "è®Ń": 1189,
      "çİĭ": 1190,
      "è®²": 1191,
      "è¿Ľä¸ĢæŃ¥": 1192,
      "åĲĪä½ľ": 1193,
      "ç³»ç»Ł": 1194,
      "éĺ³": 1195,
      "å®ĮæĪĲ": 1196,
      "åĬŁ": 1197,
      "çĥŃ": 1198,
      "åĪĩ": 1199,
      "id": 1200,
      "åĶ®": 1201,
      "ĠS": 1202,
      "åħ³äºİ": 1203,
      "ä½ľä¸º": 1204,
      "ï¼Ł": 1205,
      "å·±": 1206,
      "ce": 1207,
      "ä¹¦è®°": 1208,
      "ow": 1209,
      "å®¤": 1210,
      "åĦ¿": 1211,
      "æİª": 1212,
      "æłĩåĩĨ": 1213,
      "ç¥¨": 1214,
      "è±¡": 1215,
      "åıª": 1216,
      "æ¼Ķ": 1217,
      "åı²": 1218,
      "å®£ä¼ł": 1219,
      "åį«": 1220,
      "äºī": 1221,
      "ay": 1222,
      "çĮ": 1223,
      "ç¬¬ä¸Ģ": 1224,
      "åľŁ": 1225,
      "çºª": 1226,
      "äºĴ": 1227,
      "æĻ®": 1228,
      "æĬĵ": 1229,
      "åħ¨åĽ½": 1230,
      "ä¹Ĳ": 1231,
      "éĵ¶": 1232,
      "ä½Ļ": 1233,
      "éĻ¤": 1234,
      "çĸĹ": 1235,
      "èĩªå·±": 1236,
      "é©¬": 1237,
      "çīĮ": 1238,
      "åıĮ": 1239,
      "é¢Ĩå¯¼": 1240,
      "è¡ĮæĶ¿": 1241,
      "us": 1242,
      "é¥": 1243,
      "çīĩ": 1244,
      "èĩ´": 1245,
      "æĮģç»Ń": 1246,
      "æ²¡æľī": 1247,
      "èĥ½åĬĽ": 1248,
      "åĩı": 1249,
      "åĽ½éĻħ": 1250,
      "19": 1251,
      "èĬ±": 1252,
      "ç±³": 1253,
      "ä¿ĿæĬ¤": 1254,
      "æıĲé«ĺ": 1255,
      "ä¹Ī": 1256,
      "éŁ": 1257,
      "ä»£è¡¨": 1258,
      "im": 1259,
      "å¢ŀéķ¿": 1260,
      "ra": 1261,
      "å§ĭ": 1262,
      "çĪ±": 1263,
      "è¯ī": 1264,
      "æĶ¯æĮģ": 1265,
      "æķ°æį®": 1266,
      "åĳ½": 1267,
      "åĿĩ": 1268,
      "ĠC": 1269,
      "ig": 1270,
      "åħ¶ä»ĸ": 1271,
      "ä½¿çĶ¨": 1272,
      "ç¨³": 1273,
      "ĠA": 1274,
      "å¾·": 1275,
      "çĽ®åīį": 1276,
      "æĲ": 1277,
      "æĿĲ": 1278,
      "è¡Įä¸ļ": 1279,
      "ch": 1280,
      "ï¼ĮâĢľ": 1281,
      "ç»¿": 1282,
      "åĽ¾": 1283,
      "ä¿®": 1284,
      "æľīåħ³": 1285,
      "éļı": 1286,
      "ç»¼": 1287,
      "è¿Ŀ": 1288,
      "æĹı": 1289,
      "äº¿åħĥ": 1290,
      "æł¹æį®": 1291,
      "æĮ¥": 1292,
      "åĮĹäº¬": 1293,
      "æĢ¥": 1294,
      "ç¡Ģ": 1295,
      "çªģ": 1296,
      "åŁºç¡Ģ": 1297,
      "è¾¹": 1298,
      "åģ¥åº·": 1299,
      "éĻį": 1300,
      "ç»Ĩ": 1301,
      "æĸĩä»¶": 1302,
      "èīº": 1303,
      "å±ŀ": 1304,
      "åĨħå®¹": 1305,
      "èģļ": 1306,
      "å£«": 1307,
      "ç¦ı": 1308,
      "ä½ł": 1309,
      "15": 1310,
      "il": 1311,
      "åĿļæĮģ": 1312,
      "ç»ıèĲ¥": 1313,
      "æĸ¯": 1314,
      "ä¸įæĸŃ": 1315,
      "ä»Ĭå¹´": 1316,
      "ver": 1317,
      "è¶Ĭ": 1318,
      "åħ¶ä¸Ń": 1319,
      "æĿİ": 1320,
      "ith": 1321,
      "è¡Ĺ": 1322,
      "å¥¹": 1323,
      "æĶ¯åĩº": 1324,
      "è®°èĢħ": 1325,
      "Â·": 1326,
      "æĶ¹éĿ©": 1327,
      "åĪ¶åº¦": 1328,
      "æĹħæ¸¸": 1329,
      "å¿ħ": 1330,
      "äº¤æĺĵ": 1331,
      "ä»¥åıĬ": 1332,
      "å±Ĭ": 1333,
      "ç¢": 1334,
      "ation": 1335,
      "åĻ": 1336,
      "ä½ķ": 1337,
      "çİ°åľº": 1338,
      "å¹²éĥ¨": 1339,
      "âĢ¦": 1340,
      "è¿ŀ": 1341,
      "éĢģ": 1342,
      "Ġst": 1343,
      "åħĭ": 1344,
      "æĪĲä¸º": 1345,
      "å¤®": 1346,
      "Ġthat": 1347,
      "çıŃ": 1348,
      "ol": 1349,
      "ç¨İ": 1350,
      "æ¹ĸ": 1351,
      "æŁĲ": 1352,
      "é¾Ļ": 1353,
      "2023": 1354,
      "å½±åĵį": 1355,
      "å¯Į": 1356,
      "ç»Ī": 1357,
      "é»Ħ": 1358,
      "åħŃ": 1359,
      "éĤ£": 1360,
      "å¡": 1361,
      "æĺ¥": 1362,
      "2022": 1363,
      "ç´§": 1364,
      "æķħ": 1365,
      "åĪĿ": 1366,
      "æ¶Īè´¹": 1367,
      "åį³": 1368,
      "è´«": 1369,
      "ä»ĸä»¬": 1370,
      "ç»¼åĲĪ": 1371,
      "å¨": 1372,
      "åŃ¦çĶŁ": 1373,
      "äºĳ": 1374,
      "è¡ĮåĬ¨": 1375,
      "ä¸ļåĬ¡": 1376,
      "Ġ2": 1377,
      "æĬ¥åĳĬ": 1378,
      "æĮīçħ§": 1379,
      "èı": 1380,
      "äºļ": 1381,
      "çģ«": 1382,
      "Ġwith": 1383,
      "èħ": 1384,
      "åºķ": 1385,
      "çĽĳçĿ£": 1386,
      "åºı": 1387,
      "å½ķ": 1388,
      "am": 1389,
      "çĽĳç®¡": 1390,
      "è®¡åĪĴ": 1391,
      "ad": 1392,
      "é¢Ħç®Ĺ": 1393,
      "åģļå¥½": 1394,
      "æķĳ": 1395,
      "æľºåĪ¶": 1396,
      "åįł": 1397,
      "åł": 1398,
      "æ¿": 1399,
      "ä»ĭ": 1400,
      "æ·±åħ¥": 1401,
      "çĸ«æĥħ": 1402,
      "åħ¬åħ±": 1403,
      "ç¤¾åĮº": 1404,
      "ä¾¿": 1405,
      "ä»¥ä¸Ĭ": 1406,
      "æ¥": 1407,
      "æ¸¯": 1408,
      "çĻ»": 1409,
      "çĻ½": 1410,
      "åıĤåĬł": 1411,
      "åıĳå¸ĥ": 1412,
      "å¸Ń": 1413,
      "å¯Ĩ": 1414,
      "éľĢè¦ģ": 1415,
      "ç¦»": 1416,
      "æĬķæłĩ": 1417,
      "åıĭ": 1418,
      "è®¸": 1419,
      "åĻ¨": 1420,
      "ç´ł": 1421,
      "åŃ¦æł¡": 1422,
      "ä¸ĸçķĮ": 1423,
      "åľ°åĮº": 1424,
      "ç¼ĸ": 1425,
      "äº¤éĢļ": 1426,
      "200": 1427,
      "å¤±": 1428,
      "æľĽ": 1429,
      "å»ºç«ĭ": 1430,
      "ä»ħ": 1431,
      "è´¯": 1432,
      "èī¯": 1433,
      "åĽ°": 1434,
      "æĭī": 1435,
      "åŁºæľ¬": 1436,
      "å°Ķ": 1437,
      "æľīæķĪ": 1438,
      "ç»ľ": 1439,
      "éĥ¨åĪĨ": 1440,
      "se": 1441,
      "å¸®": 1442,
      "å¾®": 1443,
      "æİªæĸ½": 1444,
      "ir": 1445,
      "è®¿": 1446,
      "ä¸ĵä¸ļ": 1447,
      "å·²ç»ı": 1448,
      "å¾Ģ": 1449,
      "æ¿Ģ": 1450,
      "ä½ĵç³»": 1451,
      "åıĤä¸İ": 1452,
      "èĪª": 1453,
      "éĩįå¤§": 1454,
      "æīĺ": 1455,
      "æ£ĢæŁ¥": 1456,
      "æ³ķå¾ĭ": 1457,
      "åĨľä¸ļ": 1458,
      "åĪ¸": 1459,
      "è´¢æĶ¿": 1460,
      "æ½": 1461,
      "æĶ¶åħ¥": 1462,
      "é¢ĨåŁŁ": 1463,
      "æ¸©": 1464,
      "éĩĳèŀį": 1465,
      "åŁ¹è®Ń": 1466,
      "å°±æĺ¯": 1467,
      "å¹´åº¦": 1468,
      "åį°": 1469,
      "000": 1470,
      "è§ĦåĪĴ": 1471,
      "Ġwe": 1472,
      "åıĪ": 1473,
      "é£İéĻ©": 1474,
      "æŃ¢": 1475,
      "ç«ł": 1476,
      "æıĲåĩº": 1477,
      "å¿µ": 1478,
      "äººæīį": 1479,
      "Ġit": 1480,
      "ä»ĺ": 1481,
      "æľºåħ³": 1482,
      "æĴŃ": 1483,
      "åĬ±": 1484,
      "è§£åĨ³": 1485,
      "çł´": 1486,
      "æ°´å¹³": 1487,
      "çº³": 1488,
      "åįļ": 1489,
      "äºĪ": 1490,
      "æĹ¶ä»£": 1491,
      "åĩł": 1492,
      "%ï¼Į": 1493,
      "ç»§": 1494,
      "æ²¹": 1495,
      "æīĵéĢł": 1496,
      "æĦ¿": 1497,
      "2021": 1498,
      "åºŃ": 1499,
      "çķ¥": 1500,
      "èĳ£": 1501,
      "è¨": 1502,
      "åħ¨å¸Ĥ": 1503,
      "ï¼ģ": 1504,
      "åĨľæĿĳ": 1505,
      "è¨Ģ": 1506,
      "ä¸´": 1507,
      "ä¸Ńå¤®": 1508,
      "åŃ£": 1509,
      "åı¬": 1510,
      "å½»": 1511,
      "çĶ³è¯·": 1512,
      "ç§ĳåŃ¦": 1513,
      "æ¤": 1514,
      "ç¬¬äºĮ": 1515,
      "å¥ĸ": 1516,
      "çŁ³": 1517,
      "ç¾İåĽ½": 1518,
      "ç¡®ä¿Ŀ": 1519,
      "äº«": 1520,
      "å§Ķåĳĺ": 1521,
      "æ¶ī": 1522,
      "åºĨ": 1523,
      "åĮ»çĸĹ": 1524,
      "è´§": 1525,
      "çĬ¶": 1526,
      "å¾ģ": 1527,
      "åı¤": 1528,
      "ç»ĵåĲĪ": 1529,
      "çī¹èī²": 1530,
      "æ²»çĲĨ": 1531,
      "çĽ®æłĩ": 1532,
      "ĠM": 1533,
      "ä¿ĥè¿Ľ": 1534,
      "è¯¾": 1535,
      "è¿°": 1536,
      "å¼Ģåıĳ": 1537,
      "ç½ĳç»ľ": 1538,
      "å®³": 1539,
      "éĢĤ": 1540,
      "%ãĢĤ": 1541,
      "è®¾æĸ½": 1542,
      "æī§è¡Į": 1543,
      "Ġan": 1544,
      "åıĳçİ°": 1545,
      "å®ģ": 1546,
      "æĶ¿æ²»": 1547,
      "éĵģ": 1548,
      "å®ĮåĸĦ": 1549,
      "æĸ¹æ¡Ī": 1550,
      "çŃ¾": 1551,
      "ç½²": 1552,
      "æĮĩå¯¼": 1553,
      "æĦıè§ģ": 1554,
      "ä¹¡æĿĳ": 1555,
      "å®ŀéĻħ": 1556,
      "éĽĨåĽ¢": 1557,
      "ill": 1558,
      "50": 1559,
      "åª": 1560,
      "è¿ľ": 1561,
      "éĵ¶è¡Į": 1562,
      "ä»»åĬ¡": 1563,
      "æħ": 1564,
      "å®Ī": 1565,
      "äºĨè§£": 1566,
      "åħ¬åĳĬ": 1567,
      "èģĶåĲĪ": 1568,
      "ä¸Ķ": 1569,
      "éľĢæ±Ĥ": 1570,
      "è§ĦèĮĥ": 1571,
      "è¡Įä¸º": 1572,
      "æľ¬æ¬¡": 1573,
      "å£°": 1574,
      "äº²": 1575,
      "Ġpro": 1576,
      "çļĦä¸Ģ": 1577,
      "å¼ºåĮĸ": 1578,
      "åİħ": 1579,
      "çĭ¬": 1580,
      "ä¸Ĭæµ·": 1581,
      "åı¯èĥ½": 1582,
      "è¿ĳå¹³": 1583,
      "é¡»": 1584,
      "ä¹łè¿ĳå¹³": 1585,
      "Ġas": 1586,
      "ï¼ļâĢľ": 1587,
      "ĠP": 1588,
      "um": 1589,
      "è¿Ļä¸ª": 1590,
      "ç»©": 1591,
      "åĬłå¿«": 1592,
      "Ġhe": 1593,
      "é¦Ĩ": 1594,
      "åħ«": 1595,
      "åºĹ": 1596,
      "ä½ľçĶ¨": 1597,
      "åİĭ": 1598,
      "éĻĪ": 1599,
      "çŃĳ": 1600,
      "åŃ©": 1601,
      "æŃ¦": 1602,
      "å®ĺ": 1603,
      "14": 1604,
      "åıĳçĶŁ": 1605,
      "ers": 1606,
      "å¾ħ": 1607,
      "16": 1608,
      "Ġare": 1609,
      "æĭ¬": 1610,
      "èĭ±": 1611,
      "13": 1612,
      "åıĳæĮ¥": 1613,
      "18": 1614,
      "ç´¢": 1615,
      "if": 1616,
      "è¾ĵ": 1617,
      "æĿ¿": 1618,
      "èĭı": 1619,
      "æī¶": 1620,
      "un": 1621,
      "åıĬæĹ¶": 1622,
      "æŁĵ": 1623,
      "åħ±åĲĮ": 1624,
      "çķĻ": 1625,
      "çģ¾": 1626,
      "å½¢æĪĲ": 1627,
      "ç«ŀ": 1628,
      "èĳ£äºĭ": 1629,
      "é«ĺè´¨éĩı": 1630,
      "åİĨåı²": 1631,
      "Ġwh": 1632,
      "å·¥ä¸ļ": 1633,
      "äººçļĦ": 1634,
      "æĢĿæĥ³": 1635,
      "ä»¥æĿ¥": 1636,
      "è¯¢": 1637,
      "Ġ3": 1638,
      "åįĪ": 1639,
      "åħħåĪĨ": 1640,
      "åģľ": 1641,
      "åŁºéĩĳ": 1642,
      "åįĬ": 1643,
      "è®¾è®¡": 1644,
      "åŃĺåľ¨": 1645,
      "è´¯å½»": 1646,
      "åªĴ": 1647,
      "åĮħæĭ¬": 1648,
      "å³": 1649,
      "åĪ¤": 1650,
      "æĺŁ": 1651,
      "éĵ¾": 1652,
      "éĺ²æİ§": 1653,
      "åĩ»": 1654,
      "ĠB": 1655,
      "å¢ŀåĬł": 1656,
      "ke": 1657,
      "ä»·æł¼": 1658,
      "åĤ": 1659,
      "å¤ª": 1660,
      "åī§": 1661,
      "åĢĻ": 1662,
      "ç»į": 1663,
      "æĤ£": 1664,
      "éĢĢ": 1665,
      "ä¹°": 1666,
      "ge": 1667,
      "åĲ¯": 1668,
      "èĤ¡ä»½": 1669,
      "ä¸°": 1670,
      "å¤ĦçĲĨ": 1671,
      "è¿ĩç¨ĭ": 1672,
      "é²": 1673,
      "2020": 1674,
      "ç®Ģ": 1675,
      "å¤§åŃ¦": 1676,
      "è°Ī": 1677,
      "æ¥¼": 1678,
      "pp": 1679,
      "æĪª": 1680,
      "æ±¡": 1681,
      "ãĢĤâĢľ": 1682,
      "Ġha": 1683,
      "oo": 1684,
      "æī§æ³ķ": 1685,
      "æİĪ": 1686,
      "åħ·æľī": 1687,
      "åģĩ": 1688,
      "æĿ¡ä»¶": 1689,
      "ter": 1690,
      "çİ°ä»£": 1691,
      "ä¸ĥ": 1692,
      "åĵģçīĮ": 1693,
      "åį«çĶŁ": 1694,
      "è´¸": 1695,
      "äºĭä¸ļ": 1696,
      "åĮºåŁŁ": 1697,
      "æľŁéĹ´": 1698,
      "æĹ©": 1699,
      "æĻºèĥ½": 1700,
      "åħ¬å¼Ģ": 1701,
      "å°½": 1702,
      "åĲ¬": 1703,
      "ç§»": 1704,
      "åħļçļĦ": 1705,
      "æĸĩæĺİ": 1706,
      "èĤ¡ä¸ľ": 1707,
      "æĿĲæĸĻ": 1708,
      "âĢĿâĢľ": 1709,
      "ess": 1710,
      "åħį": 1711,
      "é¢ĳ": 1712,
      "ul": 1713,
      "å·Ŀ": 1714,
      "åı¬å¼Ģ": 1715,
      "è·µ": 1716,
      "åĬ³": 1717,
      "åºĶæĢ¥": 1718,
      "Ġcon": 1719,
      "åĪ©çĶ¨": 1720,
      "åĪ°äºĨ": 1721,
      "17": 1722,
      "ĠW": 1723,
      "çĽĸ": 1724,
      "æİ¢": 1725,
      "è½½": 1726,
      "å°±ä¸ļ": 1727,
      "å¥Ĺ": 1728,
      "æ±½": 1729,
      "åĪĺ": 1730,
      "è§ī": 1731,
      "æĵ": 1732,
      "ç«¯": 1733,
      "è®¾å¤ĩ": 1734,
      "Ġor": 1735,
      "æķ°åŃĹ": 1736,
      "çĮ®": 1737,
      "è®¤ä¸º": 1738,
      "ä¸Ńåįİ": 1739,
      "Ġåľ¨": 1740,
      "Ġ(": 1741,
      "ä¸»ä¹ī": 1742,
      "é¼": 1743,
      "è´Łè´£äºº": 1744,
      "èģĶç³»": 1745,
      "åĥ": 1746,
      "te": 1747,
      "åįĥ": 1748,
      "æĭĽæłĩ": 1749,
      "ä¸ŃçļĦ": 1750,
      "ä»ĭç»į": 1751,
      "å¼Ģå§ĭ": 1752,
      "ä¾ĽåºĶ": 1753,
      "ä¾Ŀæ³ķ": 1754,
      "24": 1755,
      "100": 1756,
      "åºĵ": 1757,
      "åĬŀçĲĨ": 1758,
      "ä¹Ŀ": 1759,
      "ä¸ªäºº": 1760,
      "åº§": 1761,
      "è¯»": 1762,
      "æłĳ": 1763,
      "ab": 1764,
      "ãĢĭï¼Į": 1765,
      "é¦Ļ": 1766,
      "æĪĺçķ¥": 1767,
      "ä¸»é¢ĺ": 1768,
      "å¤§ä¼ļ": 1769,
      "é£Łåĵģ": 1770,
      "éĴĪ": 1771,
      "âĢĶâĢĶ": 1772,
      "éģĩ": 1773,
      "æ¤į": 1774,
      "å·´": 1775,
      "è´·": 1776,
      "çļĦéĩįè¦ģ": 1777,
      "è§Ĵ": 1778,
      "æĮ¯": 1779,
      "å®Ŀ": 1780,
      "æ¦": 1781,
      "æ±ĩ": 1782,
      "æ¨¡å¼ı": 1783,
      "é¸": 1784,
      "ld": 1785,
      "åħ·ä½ĵ": 1786,
      "åĽº": 1787,
      "äºĨä¸Ģ": 1788,
      "åħ³ç³»": 1789,
      "Ġcom": 1790,
      "çŁ¥è¯Ĩ": 1791,
      "åį¡": 1792,
      "å±ħæ°ĳ": 1793,
      "éŁ³": 1794,
      "è¾Ĩ": 1795,
      "ç¬¦": 1796,
      "å¤§çļĦ": 1797,
      "ate": 1798,
      "åħ¨çĲĥ": 1799,
      "å·ŀå¸Ĥ": 1800,
      "her": 1801,
      "æĽ´å¤ļ": 1802,
      "æ°ĳæĹı": 1803,
      "çĶ°": 1804,
      "ä¸ĵé¡¹": 1805,
      "åĬŀåħ¬": 1806,
      "ç¤ºèĮĥ": 1807,
      "æĪĸèĢħ": 1808,
      "èįī": 1809,
      "è¯ģåĪ¸": 1810,
      "25": 1811,
      "ä¹Łæĺ¯": 1812,
      "è®¢": 1813,
      "ï¼īï¼Į": 1814,
      "çĶµåŃĲ": 1815,
      "éĹ»": 1816,
      "è½»": 1817,
      "äº¤æµģ": 1818,
      "åħļåĳĺ": 1819,
      "ç§Ģ": 1820,
      "Ġyour": 1821,
      "ç»§ç»Ń": 1822,
      "åĲ¦": 1823,
      "å²Ĺ": 1824,
      "éĥ¨ç½²": 1825,
      "è°ĥæŁ¥": 1826,
      "å¹´æĿ¥": 1827,
      "è¿ĻäºĽ": 1828,
      "æī©": 1829,
      "ac": 1830,
      "éĶĢåĶ®": 1831,
      "ä¸¥æł¼": 1832,
      "åĮ»éĻ¢": 1833,
      "çİ°åľ¨": 1834,
      "ĠThe": 1835,
      "åĪ»": 1836,
      "å¯¹äºİ": 1837,
      "å¤§å®¶": 1838,
      "éľ²": 1839,
      "æľªæĿ¥": 1840,
      "est": 1841,
      "æĥł": 1842,
      "ä»Ģ": 1843,
      "æ¯Ĵ": 1844,
      "ĠH": 1845,
      "åŃ©åŃĲ": 1846,
      "å¸Į": 1847,
      "è¯Ń": 1848,
      "ä¼łç»Ł": 1849,
      "çŁŃ": 1850,
      "æĶ»": 1851,
      "åĢº": 1852,
      "å¸Ĥå§Ķ": 1853,
      "éħĴ": 1854,
      "ä¿ĿéĻ©": 1855,
      "å¤Ł": 1856,
      "Ġde": 1857,
      "æ´¾": 1858,
      "Ġex": 1859,
      "åŁºå±Ĥ": 1860,
      "éĢĲ": 1861,
      "çĶ»": 1862,
      "èĩªçĦ¶": 1863,
      "èµĦäº§": 1864,
      "ç»ķ": 1865,
      "ç½Ĺ": 1866,
      "ä¼ĺåĬ¿": 1867,
      "éĢļçŁ¥": 1868,
      "è§Ħæ¨¡": 1869,
      "å½©": 1870,
      "Ġat": 1871,
      "ore": 1872,
      "è´µ": 1873,
      "è¿Ľåħ¥": 1874,
      "çŃ¹": 1875,
      "èİ·å¾Ĺ": 1876,
      "Ġse": 1877,
      "å±¥": 1878,
      "åĥı": 1879,
      "ĠD": 1880,
      "æ¡¥": 1881,
      "å®īæİĴ": 1882,
      "çļĦæĺ¯": 1883,
      "2019": 1884,
      "é¡º": 1885,
      "ä¸»ä½ĵ": 1886,
      "æŀĲ": 1887,
      "ä»¥ä¸ĭ": 1888,
      "èĮĥåĽ´": 1889,
      "åıĸå¾Ĺ": 1890,
      "ri": 1891,
      "æį¢": 1892,
      "åĽłä¸º": 1893,
      "é£ŀ": 1894,
      "å²ģ": 1895,
      "åıĳå±ķçļĦ": 1896,
      "åİĤ": 1897,
      "åħ°": 1898,
      "æĽ¾": 1899,
      "éĽĨä¸Ń": 1900,
      "åĨĻ": 1901,
      "åĲĪåĲĮ": 1902,
      "å©": 1903,
      "Ġne": 1904,
      "æĸĹ": 1905,
      "æ²Ļ": 1906,
      "igh": 1907,
      "æ±½è½¦": 1908,
      "ment": 1909,
      "åĨł": 1910,
      "åĪĩå®ŀ": 1911,
      "å»ºçŃĳ": 1912,
      "å®ĥ": 1913,
      "ä¸»ä»»": 1914,
      "ç»ĵæŀľ": 1915,
      "åĲ«": 1916,
      "ç¬¬ä¸ī": 1917,
      "çīĪ": 1918,
      "ä¸½": 1919,
      "åħ¬å®ī": 1920,
      "çĨ": 1921,
      "å»ºè®®": 1922,
      "èĥ½æºĲ": 1923,
      "åĲ¸": 1924,
      "ä¸ĵå®¶": 1925,
      "æ±ī": 1926,
      "ç»¿èī²": 1927,
      "qu": 1928,
      "ä¸įåĲĮ": 1929,
      "pe": 1930,
      "èıľ": 1931,
      "ç½ª": 1932,
      "çº·": 1933,
      "å»¶": 1934,
      "è¿Ŀæ³ķ": 1935,
      "åŁºåľ°": 1936,
      "éģĹ": 1937,
      "æįŁ": 1938,
      "å®¶åºŃ": 1939,
      "æĺİç¡®": 1940,
      "èĦ±": 1941,
      "æĪĲæŀľ": 1942,
      "åį±": 1943,
      "åľ°æĸ¹": 1944,
      "å·¡": 1945,
      "åĺ": 1946,
      "ç¬¦åĲĪ": 1947,
      "é»ĳ": 1948,
      "åªĴä½ĵ": 1949,
      "çľ¼": 1950,
      "rom": 1951,
      "çĵ": 1952,
      "äºĭé¡¹": 1953,
      "å¼Ĥ": 1954,
      "çĶ·": 1955,
      "è¶ħè¿ĩ": 1956,
      "å¹´çļĦ": 1957,
      "å¥½çļĦ": 1958,
      "è¯Ĭ": 1959,
      "åĬĽéĩı": 1960,
      "ä¸Ĭå¸Ĥ": 1961,
      "ä¼ĺåĮĸ": 1962,
      "è¿Ĳè¡Į": 1963,
      "ĠF": 1964,
      "å¦Ĥæŀľ": 1965,
      "éĺ¶": 1966,
      "åºĶçĶ¨": 1967,
      "åĩºçİ°": 1968,
      "ure": 1969,
      "åĪ¶å®ļ": 1970,
      "è´´": 1971,
      "ist": 1972,
      "one": 1973,
      "çĬ¯": 1974,
      "ç»ĥ": 1975,
      "æĻļ": 1976,
      "th": 1977,
      "ä»Ģä¹Ī": 1978,
      "ç½ļ": 1979,
      "è¡Ĺéģĵ": 1980,
      "å¢ŀå¼º": 1981,
      "åĨ³å®ļ": 1982,
      "èĴ": 1983,
      "éĺ¿": 1984,
      "æĦıè¯Ĩ": 1985,
      "23": 1986,
      "ç¨³å®ļ": 1987,
      "çĻ»è®°": 1988,
      "æķ´æĶ¹": 1989,
      "èµĦæł¼": 1990,
      "ç¿": 1991,
      "èĹ": 1992,
      "èĪ¬": 1993,
      "éĻĦ": 1994,
      "åĽ½åĨħ": 1995,
      "æı´": 1996,
      "40": 1997,
      "âĢĺ": 1998,
      "éĿŀå¸¸": 1999,
      "åĲĦé¡¹": 2000,
      "å§Ķåĳĺä¼ļ": 2001,
      "60": 2002,
      "æĪĲç«ĭ": 2003,
      "¤Ĳ": 2004,
      "çłģ": 2005,
      "ç´¯": 2006,
      "ç§Ł": 2007,
      "åĽ´ç»ķ": 2008,
      "å¥ĭ": 2009,
      "å®ľ": 2010,
      "è´¦": 2011,
      "ä»¤": 2012,
      "åħ¸": 2013,
      "éĶ®": 2014,
      "åĬŀæ³ķ": 2015,
      "èį£": 2016,
      "æ¹¾": 2017,
      "ä½ĵèĤ²": 2018,
      "çĸĳ": 2019,
      "å·¥ä½ľçļĦ": 2020,
      "ĠR": 2021,
      "æ³¢": 2022,
      "ç«¥": 2023,
      "è¿Ļä¸Ģ": 2024,
      "åĬª": 2025,
      "é¤Ĳ": 2026,
      "æĺ¯ä¸Ģ": 2027,
      "ity": 2028,
      "è°ĥæķ´": 2029,
      "éĽ¨": 2030,
      "å¹ħ": 2031,
      "æĪĳåĽ½": 2032,
      "è¾¾åĪ°": 2033,
      "Ġä¸Ģ": 2034,
      "Ġv": 2035,
      "å¼ĢæĶ¾": 2036,
      "å¾Īå¤ļ": 2037,
      "åħ³æ³¨": 2038,
      "æķ´æ²»": 2039,
      "æ³ķéĻ¢": 2040,
      "å®ŀè·µ": 2041,
      "åĪĨæŀĲ": 2042,
      "çĦ¦": 2043,
      "âĢ¦âĢ¦": 2044,
      "éĽ¶": 2045,
      "å½¢å¼ı": 2046,
      "ç»´æĬ¤": 2047,
      "è®¤çľŁ": 2048,
      "æīĢæľī": 2049,
      "æī¾": 2050,
      "æ¬§": 2051,
      "ant": 2052,
      "è¿İ": 2053,
      "æĭ©": 2054,
      "å·®": 2055,
      "28": 2056,
      "æł¸å¿ĥ": 2057,
      "è¿Ļæł·": 2058,
      "ç»Łä¸Ģ": 2059,
      "åĸľ": 2060,
      "æĸ°æĹ¶ä»£": 2061,
      "ber": 2062,
      "æ¬¢": 2063,
      "çļĦäºº": 2064,
      "æĶ¿åºľéĩĩè´Ń": 2065,
      "åĬŁèĥ½": 2066,
      "å§Ķä¼ļ": 2067,
      "åĪĨåĪ«": 2068,
      "åĬªåĬĽ": 2069,
      "åı¦": 2070,
      "åĤ¨": 2071,
      "åĬłå¤§": 2072,
      "è¿½": 2073,
      "éĴĪå¯¹": 2074,
      "å¸ĮæľĽ": 2075,
      "æĪĲåĳĺ": 2076,
      "åĪ¶éĢł": 2077,
      "åĢŁ": 2078,
      "åĨĮ": 2079,
      "ç²®": 2080,
      "æĬĹ": 2081,
      "åĪļ": 2082,
      "çī¢": 2083,
      "å¸ģ": 2084,
      "äº®": 2085,
      "çī¹åĪ«": 2086,
      "Ġhave": 2087,
      "æī¬": 2088,
      "é«ĺè´¨éĩıåıĳå±ķ": 2089,
      "ä¼į": 2090,
      "Ġwas": 2091,
      "æĳĦ": 2092,
      "èĵ": 2093,
      "æĸ°éĹ»": 2094,
      "æ°¸": 2095,
      "å¿ħé¡»": 2096,
      "26": 2097,
      "æĪĳå¸Ĥ": 2098,
      "ive": 2099,
      "Ġcan": 2100,
      "å³°": 2101,
      "ç³»åĪĹ": 2102,
      "art": 2103,
      "çŃĶ": 2104,
      "åħ¨çľģ": 2105,
      "ĠG": 2106,
      "ä¸įèĥ½": 2107,
      "å¼ķå¯¼": 2108,
      "2024": 2109,
      "éĴ±": 2110,
      "æĸ½å·¥": 2111,
      "è¡Ģ": 2112,
      "åĿĹ": 2113,
      "æĶ¹éĢł": 2114,
      "ä»į": 2115,
      "æĿ¨": 2116,
      "æ´²": 2117,
      "åºĶå½ĵ": 2118,
      "Ġthis": 2119,
      "ä¸įä»ħ": 2120,
      "æ¡Īä»¶": 2121,
      "èīºæľ¯": 2122,
      "Ġ4": 2123,
      "é¼ĵ": 2124,
      "æĮĩåĩº": 2125,
      "éļĲ": 2126,
      "æ¾": 2127,
      "ï¼īãĢĤ": 2128,
      "è½®": 2129,
      "ä¼ĳ": 2130,
      "op": 2131,
      "æĪı": 2132,
      "ç£": 2133,
      "ort": 2134,
      "ust": 2135,
      "ĠL": 2136,
      "ä¼°": 2137,
      "çĩ": 2138,
      "åĪĽä¸ļ": 2139,
      "ç¼´": 2140,
      "éĽª": 2141,
      "æĢ»ä¹¦è®°": 2142,
      "å¿ĹæĦ¿": 2143,
      "æ¯į": 2144,
      "æĽ´åĬł": 2145,
      "Ġr": 2146,
      "èŀįåĲĪ": 2147,
      "æĺ¾ç¤º": 2148,
      "Ġus": 2149,
      "çĸ«æĥħéĺ²æİ§": 2150,
      "ä¸ĢäºĽ": 2151,
      "oc": 2152,
      "ä¼¤": 2153,
      "æľ¨": 2154,
      "éĻĨ": 2155,
      "åĬĽåº¦": 2156,
      "çĸ¾": 2157,
      "çĳ": 2158,
      "å¼ºè°ĥ": 2159,
      "em": 2160,
      "åħµ": 2161,
      "åĲĥ": 2162,
      "æİ§åĪ¶": 2163,
      "Ġfrom": 2164,
      "å¸®åĬ©": 2165,
      "22": 2166,
      "ĠE": 2167,
      "æŃ£åľ¨": 2168,
      "åĳ³": 2169,
      "è·Ł": 2170,
      "å²Ľ": 2171,
      "ain": 2172,
      "ä¿ĿæĮģ": 2173,
      "Ġal": 2174,
      "åħ³éĶ®": 2175,
      "èĹı": 2176,
      "os": 2177,
      "æİ¥åıĹ": 2178,
      "è¿Ĳè¾ĵ": 2179,
      "éĿ¢ç§¯": 2180,
      "èģĶç½ĳ": 2181,
      "æĸ°çļĦ": 2182,
      "ä¸ºäºĨ": 2183,
      "è¯¦": 2184,
      "èĩªå·±çļĦ": 2185,
      "èģĮä¸ļ": 2186,
      "èĥľ": 2187,
      "é½": 2188,
      "é¹": 2189,
      "èģĺ": 2190,
      "2018": 2191,
      "æĺł": 2192,
      "åį´": 2193,
      "ä¸įæĺ¯": 2194,
      "åįıè°ĥ": 2195,
      "ç¦ģ": 2196,
      "ä¸Ńå°ı": 2197,
      "æŃĮ": 2198,
      "æ·±åĮĸ": 2199,
      "éĩĩåıĸ": 2200,
      "éĢīæĭ©": 2201,
      "å¥¥": 2202,
      "ä»·åĢ¼": 2203,
      "æĪĲåĬŁ": 2204,
      "el": 2205,
      "ä¸»åĬ¨": 2206,
      "ä¿Ŀè¯ģ": 2207,
      "é¥®": 2208,
      "æĮ¯åħ´": 2209,
      "åĩĢ": 2210,
      "ä¸¤ä¸ª": 2211,
      "è°¢": 2212,
      "è·¨": 2213,
      "åĲĮæ¯Ķ": 2214,
      "Ġsh": 2215,
      "åĬ³åĬ¨": 2216,
      "æħ§": 2217,
      "è¿ĺæĺ¯": 2218,
      "Ġwill": 2219,
      "Ġby": 2220,
      "åĲĦç±»": 2221,
      "é©»": 2222,
      "ä¸ĢèĪ¬": 2223,
      "ç»ĵæŀĦ": 2224,
      "èĶ": 2225,
      "çĶµè¯Ŀ": 2226,
      "Ġ0": 2227,
      "æĿ¾": 2228,
      "ä¸ĬçļĦ": 2229,
      "è¿Ļæĺ¯": 2230,
      "åłĤ": 2231,
      "æĵį": 2232,
      "æĭ¨": 2233,
      "ight": 2234,
      "ĠN": 2235,
      "Ġnot": 2236,
      "æŃ¤æ¬¡": 2237,
      "éº": 2238,
      "åįĸ": 2239,
      "æĭį": 2240,
      "ä¸Ģæ¬¡": 2241,
      "80": 2242,
      "æ£Ģæµĭ": 2243,
      "è¦": 2244,
      "çħ": 2245,
      "æĭŁ": 2246,
      "27": 2247,
      "æ³ķæ²»": 2248,
      "ä¼Ł": 2249,
      "éĺŁä¼į": 2250,
      "è´¡": 2251,
      "ä¸¾åĬŀ": 2252,
      "åľŁåľ°": 2253,
      "Ġsu": 2254,
      "èĸ": 2255,
      "and": 2256,
      "å½ĵåľ°": 2257,
      "ç©ºéĹ´": 2258,
      "éģĵè·¯": 2259,
      "Ġch": 2260,
      "ies": 2261,
      "21": 2262,
      "å¦Ĥä½ķ": 2263,
      "åİŁåĽł": 2264,
      "çĽĺ": 2265,
      "èĥ½å¤Ł": 2266,
      "èĮ¶": 2267,
      "ãĢĭï¼Ī": 2268,
      "æ¯ķ": 2269,
      "å¤«": 2270,
      "åħļå§Ķ": 2271,
      "ç²ī": 2272,
      "è¿Ľè¡ĮäºĨ": 2273,
      "æķĻå¸Ī": 2274,
      "è°ĥçłĶ": 2275,
      "å®¡è®¡": 2276,
      "åıĳè¡Į": 2277,
      "ä¿¡çĶ¨": 2278,
      "all": 2279,
      "29": 2280,
      "äººå¤§": 2281,
      "èĥĮ": 2282,
      "è¦Ĩ": 2283,
      "èĩªæ²»": 2284,
      "éĿĴå¹´": 2285,
      "èµ·æĿ¥": 2286,
      "æŃ»": 2287,
      "é½Ĳ": 2288,
      "æīİ": 2289,
      "ç¡®å®ļ": 2290,
      "å°ļ": 2291,
      "å¹¿å¤§": 2292,
      "Ġu": 2293,
      "ome": 2294,
      "æĹ¶åĢĻ": 2295,
      "éĺ¶æ®µ": 2296,
      "äºĭæķħ": 2297,
      "âĢĿãĢģ": 2298,
      "å¸Ĥæ°ĳ": 2299,
      "æĭĵ": 2300,
      "èģĮå·¥": 2301,
      "nt": 2302,
      "ç¼º": 2303,
      "å¤ľ": 2304,
      "è¿ĲåĬ¨": 2305,
      "ç¯": 2306,
      "æı¡": 2307,
      "éĥ½æĺ¯": 2308,
      "è¯ģæĺİ": 2309,
      "çĽŁ": 2310,
      "è¿ĺæľī": 2311,
      "çĥĪ": 2312,
      "åħ»èĢģ": 2313,
      "ç»ıéªĮ": 2314,
      "äº©": 2315,
      "æ³ķè§Ħ": 2316,
      "è¯º": 2317,
      "ä¸Ģå®ļ": 2318,
      "å¨ģ": 2319,
      "éļıçĿĢ": 2320,
      "æ´¥": 2321,
      "æ®ĭ": 2322,
      "æ¶¨": 2323,
      "æĮĩæłĩ": 2324,
      "å½Ĵ": 2325,
      "ä¸įå¾Ĺ": 2326,
      "è¯´æĺİ": 2327,
      "é²ľ": 2328,
      "å·¦": 2329,
      "Ġle": 2330,
      "æ±¡æŁĵ": 2331,
      "ç»Ŀ": 2332,
      "èĪŀ": 2333,
      "åįĩçº§": 2334,
      "é©¾": 2335,
      "åĲĮå¿Ĺ": 2336,
      "é¡¾": 2337,
      "çªģåĩº": 2338,
      "ç¢³": 2339,
      "Ġæį®": 2340,
      "åĨ²": 2341,
      "åĲī": 2342,
      "æĹ¢": 2343,
      "åģ¿": 2344,
      "æĪªèĩ³": 2345,
      "çĽ´æİ¥": 2346,
      "ç«ŀäºī": 2347,
      "åĩıå°ĳ": 2348,
      "ä¹łè¿ĳå¹³æĢ»ä¹¦è®°": 2349,
      "å´": 2350,
      "è¿ĳæĹ¥": 2351,
      "åĦ¿ç«¥": 2352,
      "æĶ¯ä»ĺ": 2353,
      "Ġ5": 2354,
      "æĹĹ": 2355,
      "ä½ıæĪ¿": 2356,
      "ie": 2357,
      "æĤī": 2358,
      "ç¨ĭåºı": 2359,
      "æĭ¥": 2360,
      "ä¸¾è¡Į": 2361,
      "æİ¢ç´¢": 2362,
      "res": 2363,
      "ç¤¾ä¼ļä¸»ä¹ī": 2364,
      "çļĦéĹ®é¢ĺ": 2365,
      "ĠäºĮ": 2366,
      "éĨ": 2367,
      "åĽ°éļ¾": 2368,
      "å·¥ä½ľäººåĳĺ": 2369,
      "çĽĳæµĭ": 2370,
      "ard": 2371,
      "od": 2372,
      "ä¹ĭä¸Ģ": 2373,
      "éĩįåºĨ": 2374,
      "è§Ĩé¢ĳ": 2375,
      "å®īåħ¨çĶŁäº§": 2376,
      "æ¶¦": 2377,
      "æ´ĭ": 2378,
      "ç»Łè®¡": 2379,
      "å¸¦æĿ¥": 2380,
      "åı³": 2381,
      "çłĶåıĳ": 2382,
      "Ġwor": 2383,
      "åħ¨åĬĽ": 2384,
      "åħ¨éĥ¨": 2385,
      "åľĪ": 2386,
      "äºĴèģĶç½ĳ": 2387,
      "æĭ¿": 2388,
      "å±¥è¡Į": 2389,
      "è¯Ħä»·": 2390,
      "ä»ª": 2391,
      "ä¾ĽåºĶåķĨ": 2392,
      "åıĺåĮĸ": 2393,
      "ĠO": 2394,
      "èĭĹ": 2395,
      "å¤ı": 2396,
      "èĪ¹": 2397,
      "è¿ĲèĲ¥": 2398,
      "çĶ±äºİ": 2399,
      "æĬķåħ¥": 2400,
      "Ġab": 2401,
      "éĴŁ": 2402,
      "åģļåĪ°": 2403,
      "ould": 2404,
      "out": 2405,
      "åİŁåĪĻ": 2406,
      "éĢĴ": 2407,
      "iv": 2408,
      "æĺ¯åĲ¦": 2409,
      "å®¡æī¹": 2410,
      "æ¡£": 2411,
      "ä½ľåĩº": 2412,
      "å¹¸": 2413,
      "æ´ģ": 2414,
      "çĬ¯ç½ª": 2415,
      "è´¡çĮ®": 2416,
      "è®¨": 2417,
      "çŁ¿": 2418,
      "è´·æ¬¾": 2419,
      "ph": 2420,
      "çĥŁ": 2421,
      "ä¸°å¯Į": 2422,
      "ç»ŁçŃ¹": 2423,
      "ial": 2424,
      "åĿĢ": 2425,
      "äººæ°ĳæĶ¿åºľ": 2426,
      "è¸": 2427,
      "å²¸": 2428,
      "èĢĥæł¸": 2429,
      "æŀ¶": 2430,
      "éĩĬ": 2431,
      "ä¸ĢçĽ´": 2432,
      "ost": 2433,
      "per": 2434,
      "æľĢé«ĺ": 2435,
      "åŃ¦éĻ¢": 2436,
      "ä¸Ģèµ·": 2437,
      "æŀĦå»º": 2438,
      "è£ģ": 2439,
      "è½¦è¾Ĩ": 2440,
      "ç»ıè´¹": 2441,
      "æ»¡è¶³": 2442,
      "èĤ¡ç¥¨": 2443,
      "åĴĮåĽ½": 2444,
      "è¦ĨçĽĸ": 2445,
      "çĶŁæĢģçİ¯å¢ĥ": 2446,
      "æ²Ł": 2447,
      "èĤ¡ä»½æľīéĻĲåħ¬åı¸": 2448,
      "ide": 2449,
      "çĲĨå¿µ": 2450,
      "èµĦæĸĻ": 2451,
      "æĹ¥èµ·": 2452,
      "æĻºæħ§": 2453,
      "çļĦæĸ°": 2454,
      "æī¿æĭħ": 2455,
      "éŃ": 2456,
      "è¯ļ": 2457,
      "Ġall": 2458,
      "ç½ĳç«Ļ": 2459,
      "æĺĮ": 2460,
      "æĬ¥éģĵ": 2461,
      "å«": 2462,
      "ä½ĵéªĮ": 2463,
      "å·¨": 2464,
      "ä¼ĺç§Ģ": 2465,
      "åĴ¨": 2466,
      "ï¼īãĢģ": 2467,
      "è¯Ħä¼°": 2468,
      "åĨľæ°ĳ": 2469,
      "åĨ°": 2470,
      "çİ°ä»£åĮĸ": 2471,
      "èĳĹ": 2472,
      "é«ĺåº¦": 2473,
      "ä¸»å¸Ń": 2474,
      "our": 2475,
      "Ġpl": 2476,
      "è´¹çĶ¨": 2477,
      "ä¸¥éĩį": 2478,
      "ud": 2479,
      "åķĨä¸ļ": 2480,
      "æ¸ł": 2481,
      "å¤§åĬĽ": 2482,
      "çİī": 2483,
      "åĴ¨è¯¢": 2484,
      "èĻ½": 2485,
      "ç²¾åĩĨ": 2486,
      "æļĸ": 2487,
      "red": 2488,
      "å°ıæĹ¶": 2489,
      "åĽŃåĮº": 2490,
      "èģļçĦ¦": 2491,
      "åĪĽå»º": 2492,
      "ä½Ĩæĺ¯": 2493,
      "rou": 2494,
      "ãĢĭãĢĬ": 2495,
      "éĩĳé¢Ŀ": 2496,
      "å¯¹è±¡": 2497,
      "æķ°éĩı": 2498,
      "éĢı": 2499,
      "ä¸ªæľĪ": 2500,
      "çĶ¨æĪ·": 2501,
      "éĿł": 2502,
      "gh": 2503,
      "æ¯ĶèµĽ": 2504,
      "å±ĭ": 2505,
      "æĽ²": 2506,
      "è®°å½ķ": 2507,
      "åĲ¯åĬ¨": 2508,
      "çĽĽ": 2509,
      "çĶµå½±": 2510,
      "æŃ£å¼ı": 2511,
      "çīĽ": 2512,
      "Ġdo": 2513,
      "ç¬Ķ": 2514,
      "70": 2515,
      "å¹ķ": 2516,
      "åĽ¢éĺŁ": 2517,
      "ä¹ħ": 2518,
      "æĶ»åĿļ": 2519,
      "è¿ĩç¨ĭä¸Ń": 2520,
      "æ¢¦": 2521,
      "æĸ°åĮº": 2522,
      "å°Ħ": 2523,
      "å¼ķé¢Ĩ": 2524,
      "æ½®": 2525,
      "çľĭåĪ°": 2526,
      "æ²¿": 2527,
      "Ġ201": 2528,
      "åİ»å¹´": 2529,
      "ä¹ĭåĲİ": 2530,
      "ä¸Ģä½ĵ": 2531,
      "Ġä¸ī": 2532,
      "ag": 2533,
      "å°ıåĮº": 2534,
      "åħĪçĶŁ": 2535,
      "ä¹ĭéĹ´": 2536,
      "æ³¨åĨĮ": 2537,
      "31": 2538,
      "æĿĤ": 2539,
      "å¦ĩ": 2540,
      "ĠÂ·": 2541,
      "å®¢æĪ·": 2542,
      "35": 2543,
      "æĪĲæľ¬": 2544,
      "æ¶Īè´¹èĢħ": 2545,
      "æĿ¥èĩª": 2546,
      "ç¬¬åįģ": 2547,
      "æµĻ": 2548,
      "ç´¯è®¡": 2549,
      "æ¿ĢåĬ±": 2550,
      "çļĦåıĳå±ķ": 2551,
      "è¢«åĳĬ": 2552,
      "æĢĢ": 2553,
      "æľĿ": 2554,
      "åĲĦçº§": 2555,
      "çĪ¶": 2556,
      "ç¤¼": 2557,
      "åįıè®®": 2558,
      "å¥ĩ": 2559,
      "age": 2560,
      "ä¸ĭéĻį": 2561,
      "å»ºæĪĲ": 2562,
      "çŃīæĸ¹éĿ¢": 2563,
      "åħ±åĴĮåĽ½": 2564,
      "èĽ": 2565,
      "æ£®": 2566,
      "åĲįç§°": 2567,
      "ĥåľ": 2568,
      "è°ĭ": 2569,
      "åı¸æ³ķ": 2570,
      "åŀĥåľ": 2571,
      "åŀĥåľ¾": 2572,
      "ä¼Ļ": 2573,
      "å°ģ": 2574,
      "çĹĩ": 2575,
      "åĵĪ": 2576,
      "åĨ·": 2577,
      "è·ĳ": 2578,
      "æ£Ģå¯Ł": 2579,
      "çļĦå·¥ä½ľ": 2580,
      "å½ĵåīį": 2581,
      "åĭĩ": 2582,
      "å¯¼èĩ´": 2583,
      "è¿ĳå¹´æĿ¥": 2584,
      "æ³°": 2585,
      "éģ¿": 2586,
      "ä½ľåĵģ": 2587,
      "åĨ¬": 2588,
      "èµĦæľ¬": 2589,
      "ice": 2590,
      "90": 2591,
      "å²Ĺä½į": 2592,
      "çĭ¬ç«ĭ": 2593,
      "å¸ĤæĶ¿åºľ": 2594,
      "åħ¬è·¯": 2595,
      "åĩºå¸Ń": 2596,
      "ä¹¡æĿĳæĮ¯åħ´": 2597,
      "æĸ¹åĲĳ": 2598,
      "äº§çĶŁ": 2599,
      "è¿Ļç§į": 2600,
      "åĽłæŃ¤": 2601,
      "èĦ±è´«": 2602,
      "æī©å¤§": 2603,
      "éķ¿æľŁ": 2604,
      "åĭŁ": 2605,
      "åĬŀåħ¬å®¤": 2606,
      "å¦Ī": 2607,
      "å»ī": 2608,
      "ine": 2609,
      "åŁ¹åħ»": 2610,
      "çļĦå¤§": 2611,
      "éĢłæĪĲ": 2612,
      "é©¶": 2613,
      "éĴ¢": 2614,
      "éħ¸": 2615,
      "æķĻåŃ¦": 2616,
      "èģĮè´£": 2617,
      "æ±ł": 2618,
      "èº«ä»½": 2619,
      "éĩĩçĶ¨": 2620,
      "king": 2621,
      "åĲ´": 2622,
      "åºŁ": 2623,
      "çĶ¨äºİ": 2624,
      "åİļ": 2625,
      "fe": 2626,
      "æĿŁ": 2627,
      "è®²è¯Ŀ": 2628,
      "è¾ĸ": 2629,
      "åıĹåĪ°": 2630,
      "ä¸Ŀ": 2631,
      "åĺī": 2632,
      "åħ¬éĩĮ": 2633,
      "éĤ®": 2634,
      "æİ¨å¹¿": 2635,
      "ä¸įå°ĳ": 2636,
      "ç§įæ¤į": 2637,
      "æĮĤ": 2638,
      "ä¸Ĭè¿°": 2639,
      "çİ¯èĬĤ": 2640,
      "å°¼": 2641,
      "æīĢä»¥": 2642,
      "åºĦ": 2643,
      "åĬ©åĬĽ": 2644,
      "è®¯": 2645,
      "éļĲæĤ£": 2646,
      "æĿĳæ°ĳ": 2647,
      "å¹¿ä¸ľ": 2648,
      "ç©¿": 2649,
      "çĲĨè®º": 2650,
      "æ¶īåıĬ": 2651,
      "æķ£": 2652,
      "ä¸Ńåįİäººæ°ĳ": 2653,
      "çĩĥ": 2654,
      "ast": 2655,
      "å®¡è®®": 2656,
      "è½¯": 2657,
      "éĶĻ": 2658,
      "æĶ¿åįı": 2659,
      "ä¸Ńåįİäººæ°ĳåħ±åĴĮåĽ½": 2660,
      "åŁ¹èĤ²": 2661,
      "çº¿ä¸Ĭ": 2662,
      "æĸ¹æ³ķ": 2663,
      "éŁ©": 2664,
      "é¼ĵåĬ±": 2665,
      "éĽ·": 2666,
      "å±ķç¤º": 2667,
      "å¾Ĳ": 2668,
      "åıįæĺł": 2669,
      "æĹ§": 2670,
      "è´¯å½»èĲ½å®ŀ": 2671,
      "åģ¥åħ¨": 2672,
      "pt": 2673,
      "æ¢ģ": 2674,
      "æıĲäº¤": 2675,
      "æĬ¢": 2676,
      "ind": 2677,
      "éĢĶ": 2678,
      "åĲ¨": 2679,
      "åĩĨå¤ĩ": 2680,
      "èŀįèµĦ": 2681,
      "Ġj": 2682,
      "ä½³": 2683,
      "Ġk": 2684,
      "ç»ıè¿ĩ": 2685,
      "åŁİä¹¡": 2686,
      "åĨ³çŃĸ": 2687,
      "çĶļ": 2688,
      "å¤Ħç½ļ": 2689,
      "èĳ£äºĭä¼ļ": 2690,
      "åķĨåĵģ": 2691,
      "æľĭ": 2692,
      "ä»£çĲĨ": 2693,
      "åĳ¼": 2694,
      "éľĩ": 2695,
      "å¾Ħ": 2696,
      "æ°ĳçĶŁ": 2697,
      "æĶ¿åĬ¡": 2698,
      "èª": 2699,
      "ä¸ĬåįĪ": 2700,
      "ä¿Ħ": 2701,
      "æķ´ä½ĵ": 2702,
      "è´Ńä¹°": 2703,
      "åĲĪçĲĨ": 2704,
      "çªģçł´": 2705,
      "äº§æĿĥ": 2706,
      "og": 2707,
      "ä¼ļä¸Ĭ": 2708,
      "åħ¬åĬ¡": 2709,
      "è´¸æĺĵ": 2710,
      "Ġad": 2711,
      "çĶŁåĳ½": 2712,
      "Ġcomp": 2713,
      "æĴĳ": 2714,
      "æ¶Īéĺ²": 2715,
      "çĨŁ": 2716,
      "æīĭæľº": 2717,
      "æĲŃ": 2718,
      "å¾ĹåĪ°": 2719,
      "æķħäºĭ": 2720,
      "åĪĳ": 2721,
      "å°ıç»Ħ": 2722,
      "æľīçļĦ": 2723,
      "ç®Ģç§°": 2724,
      "èĭ¥": 2725,
      "ction": 2726,
      "å§Ķæīĺ": 2727,
      "äºĭä»¶": 2728,
      "åħĪè¿Ľ": 2729,
      "çºł": 2730,
      "åľ³": 2731,
      "æİĴæŁ¥": 2732,
      "å¤Ħç½®": 2733,
      "æĺİæĺ¾": 2734,
      "æĹ¥æľ¬": 2735,
      "ãĢĤï¼Ī": 2736,
      "ä»Ĭå¤©": 2737,
      "å¹³æĸ¹": 2738,
      "æ·±åľ³": 2739,
      "è·Ŀ": 2740,
      "éĩİ": 2741,
      "å±±ä¸ľ": 2742,
      "Ġhas": 2743,
      "ä¸ĭåįĪ": 2744,
      "ç¡¬": 2745,
      "ally": 2746,
      "æĪĲç»©": 2747,
      "åŁİåĮº": 2748,
      "åŃ£åº¦": 2749,
      "ç¾İåħĥ": 2750,
      "æĹ¥å¸¸": 2751,
      "å®¡æŁ¥": 2752,
      "Ġnum": 2753,
      "æ¯Ķè¾ĥ": 2754,
      "è½¬åŀĭ": 2755,
      "èĤ¥": 2756,
      "%ï¼Ľ": 2757,
      "æ³Ľ": 2758,
      "å®Ĺ": 2759,
      "èĤī": 2760,
      "çĶ³æĬ¥": 2761,
      "æĬķæłĩäºº": 2762,
      "äººä»¬": 2763,
      "èĦĳ": 2764,
      "ä¸įä¼ļ": 2765,
      "åľ°çĤ¹": 2766,
      "è¿Ķ": 2767,
      "äºĭåĬ¡": 2768,
      "ip": 2769,
      "çľģå§Ķ": 2770,
      "ä¹Į": 2771,
      "çĶµè§Ĩ": 2772,
      "ks": 2773,
      "æ´ª": 2774,
      "æ´Ĺ": 2775,
      "åħ¨ä½ĵ": 2776,
      "ä»»ä½ķ": 2777,
      "Ġma": 2778,
      "åħļç»Ħ": 2779,
      "ear": 2780,
      "åĲĦåľ°": 2781,
      "åįıä¼ļ": 2782,
      "æľĢåĲİ": 2783,
      "The": 2784,
      "able": 2785,
      "éĺµ": 2786,
      "ç¬ĳ": 2787,
      "ä¼¼": 2788,
      "æĬ¥åĲį": 2789,
      "æĬĢèĥ½": 2790,
      "æ¸łéģĵ": 2791,
      "æ½ľ": 2792,
      "åĿļåĨ³": 2793,
      "æ¸¸å®¢": 2794,
      "æĵįä½ľ": 2795,
      "æ¾³": 2796,
      "åĽĽå·Ŀ": 2797,
      "çĶŁçī©": 2798,
      "åħ¬ç¤º": 2799,
      "æĬ«": 2800,
      "å§ĭç»Ī": 2801,
      "Ġ6": 2802,
      "ãĢģãĢĬ": 2803,
      "æľĢç»Ī": 2804,
      "çĿĢåĬĽ": 2805,
      "ç½ĳä¸Ĭ": 2806,
      "å©ļ": 2807,
      "æĭ¨æ¬¾": 2808,
      "ç»ıçĲĨ": 2809,
      "å®ŀè¡Į": 2810,
      "çļ®": 2811,
      "æ¦Ĥ": 2812,
      "æŃ¤å¤ĸ": 2813,
      "Ġwhe": 2814,
      "çªĹ": 2815,
      "è®¸åı¯": 2816,
      "æµĻæ±Ł": 2817,
      "èĻļ": 2818,
      "45": 2819,
      "cc": 2820,
      "ite": 2821,
      "ther": 2822,
      "å¿«éĢŁ": 2823,
      "è¯ķçĤ¹": 2824,
      "å¦Ĥä¸ĭ": 2825,
      "èī¯å¥½": 2826,
      "çİ¯ä¿Ŀ": 2827,
      "ç»ĻäºĪ": 2828,
      "æĬĵå¥½": 2829,
      "è´«åĽ°": 2830,
      "æĶ¯æĴĳ": 2831,
      "Ġbut": 2832,
      "ĠĊ": 2833,
      "å¹¼": 2834,
      "æī£": 2835,
      "è¡¥è´´": 2836,
      "è®¤è¯Ĩ": 2837,
      "çĶļèĩ³": 2838,
      "Ġme": 2839,
      "äºĮåįģ": 2840,
      "èĢģå¸Ī": 2841,
      "ç¼ĸåĪ¶": 2842,
      "åĵª": 2843,
      "èĩªæ²»åĮº": 2844,
      "çļĦæĥħåĨµ": 2845,
      "åıĮæĸ¹": 2846,
      "äººåı£": 2847,
      "è®¡ç®Ĺ": 2848,
      "Ġour": 2849,
      "éļĶ": 2850,
      "éĽĦ": 2851,
      "åĲĦç§į": 2852,
      "é«ĺæķĪ": 2853,
      "æĦıä¹ī": 2854,
      "ich": 2855,
      "å®½": 2856,
      "é¡¶": 2857,
      "è®¾ç½®": 2858,
      "ç§ģ": 2859,
      "å¼¹": 2860,
      "æĮĩæĮ¥": 2861,
      "çģµ": 2862,
      "å±Ģéķ¿": 2863,
      "åĪĽéĢł": 2864,
      "éī": 2865,
      "èĩªèº«": 2866,
      "äººæ°ĳå¸ģ": 2867,
      "ç§ĺ": 2868,
      "2017": 2869,
      "ãĢĶ": 2870,
      "æĶ¹åĸĦ": 2871,
      "ä¼ĺè´¨": 2872,
      "ãĢķ": 2873,
      "Ġout": 2874,
      "çĳŀ": 2875,
      "åħ±äº«": 2876,
      "åħļå»º": 2877,
      "ww": 2878,
      "æŃ£å¸¸": 2879,
      "éĽĨä½ĵ": 2880,
      "åĪĨç±»": 2881,
      "ä¼´": 2882,
      "æĿĥçĽĬ": 2883,
      "èĻ½çĦ¶": 2884,
      "æľĭåıĭ": 2885,
      "Ġnumber": 2886,
      "éī´": 2887,
      "åķĨåĬ¡": 2888,
      "æĪĲæķĪ": 2889,
      "æİ¨åĩº": 2890,
      "èµµ": 2891,
      "è®¼": 2892,
      "æİĮ": 2893,
      "éĿ¢å¯¹": 2894,
      "æĢİ": 2895,
      "Ġen": 2896,
      "è´¢åĬ¡": 2897,
      "æĿ¡ä¾ĭ": 2898,
      "æľ«": 2899,
      "èĴĻ": 2900,
      "Ġso": 2901,
      "ĠJ": 2902,
      "æĬķèµĦèĢħ": 2903,
      "ä¹ĺ": 2904,
      "å¸¦åĬ¨": 2905,
      "ä¸Ģæī¹": 2906,
      "çĪĨ": 2907,
      "åįĹçľģ": 2908,
      "çħ¤": 2909,
      "æµģç¨ĭ": 2910,
      "è¯īè®¼": 2911,
      "åĽ½æľī": 2912,
      "æľĢå¤§": 2913,
      "99": 2914,
      "æĹłæ³ķ": 2915,
      "æī¶è´«": 2916,
      "éĩįè§Ĩ": 2917,
      "æĢ»ä½ĵ": 2918,
      "åĿļå®ļ": 2919,
      "çĸĨ": 2920,
      "åı¶": 2921,
      "äºĮæĺ¯": 2922,
      "èĲ¥ä¸ļ": 2923,
      "æģ¢": 2924,
      "åĪ©çĽĬ": 2925,
      "¹ģ": 2926,
      "åŁºç¡Ģè®¾æĸ½": 2927,
      "æļ´": 2928,
      "ç¹ģ": 2929,
      "é¢Ħè®¡": 2930,
      "æĻĵ": 2931,
      "åıĳæĶ¾": 2932,
      "åĲĮæĦı": 2933,
      "å®¿": 2934,
      "æĬ½": 2935,
      "åĲ¸å¼ķ": 2936,
      "åĮ»èį¯": 2937,
      "èĢĮä¸Ķ": 2938,
      "æ¯Ķä¾ĭ": 2939,
      "åĬłå·¥": 2940,
      "åľºæīĢ": 2941,
      "åŃĻ": 2942,
      "åįıåĲĮ": 2943,
      "pl": 2944,
      "ä¸»æĮģ": 2945,
      "åĶ±": 2946,
      "are": 2947,
      "ong": 2948,
      "è¿ģ": 2949,
      "æī«": 2950,
      "è¿ĻéĩĮ": 2951,
      "åĭ¤": 2952,
      "æ±Łèĭı": 2953,
      "éªĹ": 2954,
      "ry": 2955,
      "åºĶè¯¥": 2956,
      "ime": 2957,
      "ä¸¾æİª": 2958,
      "ç¼ĵ": 2959,
      "åĩºåı£": 2960,
      "è¿ħ": 2961,
      "èĻĳ": 2962,
      "Ġæľ¬": 2963,
      "æ®Ĭ": 2964,
      "å¹¸ç¦ı": 2965,
      "èĲ¥éĢł": 2966,
      "æĮĳ": 2967,
      "ood": 2968,
      "æĬ«éľ²": 2969,
      "èµ¢": 2970,
      "ack": 2971,
      "åĳĪ": 2972,
      "ä¹±": 2973,
      "è§Ī": 2974,
      "éĿ©åĳ½": 2975,
      "èĭ¦": 2976,
      "ç®±": 2977,
      "ä¸ĵé¢ĺ": 2978,
      "å·¦åı³": 2979,
      "åĬ¨åĬĽ": 2980,
      "æģ¢å¤į": 2981,
      "iz": 2982,
      "æĻ®éĢļ": 2983,
      "æ°Ľ": 2984,
      "å¸ĥå±Ģ": 2985,
      "éħįåĲĪ": 2986,
      "Ġtheir": 2987,
      "åħ¬åĽŃ": 2988,
      "é¦Ļæ¸¯": 2989,
      "very": 2990,
      "é±": 2991,
      "reat": 2992,
      "ĠU": 2993,
      "çº¸": 2994,
      "é¦ĸæ¬¡": 2995,
      "æļĤ": 2996,
      "ä¸Ģæĺ¯": 2997,
      "çī©æµģ": 2998,
      "åħ±äº§": 2999,
      "Ġte": 3000,
      "æľŁéĻĲ": 3001,
      "çĤİ": 3002,
      "Ġup": 3003,
      "500": 3004,
      "æ³¨æĦı": 3005,
      "æ³ķå®ļ": 3006,
      "å§ĵ": 3007,
      "é±¼": 3008,
      "çº³åħ¥": 3009,
      "éħįå¥Ĺ": 3010,
      "åħ¬å¸ĥ": 3011,
      "æĤ£èĢħ": 3012,
      "éĺħ": 3013,
      "36": 3014,
      "èĲ½åľ°": 3015,
      "æī¿è¯º": 3016,
      "åħ¬ä¼Ĺ": 3017,
      "è¯¯": 3018,
      "éĥĳ": 3019,
      "åĲįåįķ": 3020,
      "è¾ħ": 3021,
      "æ³ī": 3022,
      "æ¯ķä¸ļ": 3023,
      "ä¸įè¿ĩ": 3024,
      "çīµ": 3025,
      "Ġmore": 3026,
      "å°¤": 3027,
      "éĨĴ": 3028,
      "å¼ĥ": 3029,
      "å¯¹æİ¥": 3030,
      "Ġcl": 3031,
      "é¡¹çĽ®çļĦ": 3032,
      "å¹¿æ³Ľ": 3033,
      "æĿ¥çļĦ": 3034,
      "è®®æ¡Ī": 3035,
      "ä¹İ": 3036,
      "çķħ": 3037,
      "æĶ¯éĥ¨": 3038,
      "åĳĬè¯ī": 3039,
      "ãĢĲ": 3040,
      "å¹´äºº": 3041,
      "çľŁæŃ£": 3042,
      "ä¾Ŀæį®": 3043,
      "åĳĺå·¥": 3044,
      "ç§ĭ": 3045,
      "æĽ´å¥½": 3046,
      "è¯ģä¹¦": 3047,
      "æ¢°": 3048,
      "æ¯Ľ": 3049,
      "éĻįä½İ": 3050,
      "éĻ¤äºĨ": 3051,
      "æĤ¨": 3052,
      "åĿĲ": 3053,
      "ãĢĳ": 3054,
      "ĠTh": 3055,
      "å½ĵæĹ¶": 3056,
      "åİŁåĳĬ": 3057,
      "è®¾ç«ĭ": 3058,
      "é«ĺéĢŁ": 3059,
      "éĹŃ": 3060,
      "æĭħå½ĵ": 3061,
      "åıªæľī": 3062,
      "å¥¶": 3063,
      "åħĪåĲİ": 3064,
      "å«Į": 3065,
      "ç¬¬åĽĽ": 3066,
      "èįĲ": 3067,
      "ä¸Ĭå¸Ĥåħ¬åı¸": 3068,
      "è¿ĩåİ»": 3069,
      "æ®ĸ": 3070,
      "èªī": 3071,
      "æĸ°å¢ŀ": 3072,
      "Ġim": 3073,
      "çİ©": 3074,
      "ç²®é£Ł": 3075,
      "æ¸Ĳ": 3076,
      "'s": 3077,
      "çĶ²": 3078,
      "åĲİçļĦ": 3079,
      "è§¦": 3080,
      "å±ŀäºİ": 3081,
      "éĤĢ": 3082,
      "ä½įäºİ": 3083,
      "äºĭä¸ļåįķä½į": 3084,
      "æĢ§çļĦ": 3085,
      "åĩĿ": 3086,
      "èĢķ": 3087,
      "Ġthey": 3088,
      "å½¢åĬ¿": 3089,
      "èĥ¡": 3090,
      "äººå£«": 3091,
      "ĠIn": 3092,
      "åĿĽ": 3093,
      "èĵĿ": 3094,
      "33": 3095,
      "å¹³æĸ¹ç±³": 3096,
      "çģ¯": 3097,
      "è¯Ĺ": 3098,
      "èĢĥè¯ķ": 3099,
      "æ¯ıå¤©": 3100,
      "é«ĺæł¡": 3101,
      "phone": 3102,
      "orm": 3103,
      "ous": 3104,
      "èİ·åıĸ": 3105,
      "éĶĭ": 3106,
      "ä¼łæī¿": 3107,
      "so": 3108,
      "è¡¨çİ°": 3109,
      "åıĬåħ¶": 3110,
      "ans": 3111,
      "çī¹æ®Ĭ": 3112,
      "çŀ": 3113,
      "åħ¬çĽĬ": 3114,
      "æľīåĬĽ": 3115,
      "åı°æ¹¾": 3116,
      "Ġmy": 3117,
      "æķĪæŀľ": 3118,
      "åĽ½åĬ¡": 3119,
      "å®ŀéªĮ": 3120,
      "æ¸ħåįķ": 3121,
      "éª¨": 3122,
      "é¾Ħ": 3123,
      "ä¸»ç®¡": 3124,
      "è¯į": 3125,
      "è¡¡": 3126,
      "åĢį": 3127,
      "æĻ¯åĮº": 3128,
      "å¹´è½»": 3129,
      "du": 3130,
      "å¸®æī¶": 3131,
      "ace": 3132,
      "è¶ĬæĿ¥": 3133,
      "å¯»": 3134,
      "çľģçº§": 3135,
      "å¾ª": 3136,
      "åĪ¶ä½ľ": 3137,
      "åĢĴ": 3138,
      "åĵįåºĶ": 3139,
      "æĬµ": 3140,
      "è¶ĬæĿ¥è¶Ĭ": 3141,
      "å£®": 3142,
      "å®¡æł¸": 3143,
      "çº¢èī²": 3144,
      "å¼±": 3145,
      "å¹³åĿĩ": 3146,
      "å®ı": 3147,
      "ä¹¡éķĩ": 3148,
      "èĤ¡ä¸ľå¤§ä¼ļ": 3149,
      "ç»ıæµİç¤¾ä¼ļ": 3150,
      "ä¸ĩäºº": 3151,
      "äº§ä¸ļéĵ¾": 3152,
      "åĲĮæ¯Ķå¢ŀéķ¿": 3153,
      "æ²ī": 3154,
      "çļĦæĸ¹å¼ı": 3155,
      "æľįåĬ¡ä¸Ńå¿ĥ": 3156,
      "æ¢ħ": 3157,
      "çıł": 3158,
      "ä»ĸçļĦ": 3159,
      "ike": 3160,
      "åĨħçļĦ": 3161,
      "åħ·å¤ĩ": 3162,
      "è¿ŀç»Ń": 3163,
      "æĭĽåķĨ": 3164,
      "è´¢æĶ¿æĭ¨æ¬¾": 3165,
      "é²ģ": 3166,
      "æĭ¥æľī": 3167,
      "åĶĲ": 3168,
      "ç§ĳçłĶ": 3169,
      "åĵ¥": 3170,
      "æ·±åĪ»": 3171,
      "ä¹īåĬ¡": 3172,
      "Ġ10": 3173,
      "ance": 3174,
      "äº§ä¸ļåıĳå±ķ": 3175,
      "--": 3176,
      "å¡«": 3177,
      "ä¾§": 3178,
      "æ»¨": 3179,
      "æĩ": 3180,
      "å®ĩ": 3181,
      "ä½¿åĳ½": 3182,
      "çĽ¸åºĶ": 3183,
      "æīİå®ŀ": 3184,
      "å°ĳå¹´": 3185,
      "éģµ": 3186,
      "è¶ĭ": 3187,
      "éĵģè·¯": 3188,
      "éģį": 3189,
      "èµ´": 3190,
      "ç»ĵæĿŁ": 3191,
      "ov": 3192,
      "éĹ²": 3193,
      "ä¸ŃåĽ½çī¹èī²": 3194,
      "åĲĪæł¼": 3195,
      "åħħåĪĨåıĳæĮ¥": 3196,
      "åĩºåı°": 3197,
      "çľŁå®ŀ": 3198,
      "Ġone": 3199,
      "çļĦæĹ¶åĢĻ": 3200,
      "è§Ĥä¼Ĺ": 3201,
      "ail": 3202,
      "çŃ¾è®¢": 3203,
      "å¡Ķ": 3204,
      "ä¸Ģå¹´": 3205,
      "æĸ°åĨł": 3206,
      "ä¸Ģæł·": 3207,
      "åĪ©æ¶¦": 3208,
      "çŁ¥éģĵ": 3209,
      "åºĶå¯¹": 3210,
      "æķĪçİĩ": 3211,
      "ç¯ĩ": 3212,
      "ç¨ĭåº¦": 3213,
      "éĻĲåĪ¶": 3214,
      "æĹ¥èĩ³": 3215,
      "æľīåºı": 3216,
      "è¾ĸåĮº": 3217,
      "±ä¹Ĳ": 3218,
      "ign": 3219,
      "æĦŁæŁĵ": 3220,
      "éĺ²èĮĥ": 3221,
      "åį·": 3222,
      "2016": 3223,
      "åĩºäºĨ": 3224,
      "è°·": 3225,
      "å¤ļä¸ª": 3226,
      "ä¼łæĴŃ": 3227,
      "çĽ´æĴŃ": 3228,
      "äºĭå®ŀ": 3229,
      "ç±į": 3230,
      "**": 3231,
      "åĽ½åĬ¡éĻ¢": 3232,
      "ated": 3233,
      "æ¯ıå¹´": 3234,
      "Ġman": 3235,
      "é©¾é©¶": 3236,
      "å¿ł": 3237,
      "æħ¢": 3238,
      "å¿ĹæĦ¿èĢħ": 3239,
      "éĤ£ä¹Ī": 3240,
      "æ²»çĸĹ": 3241,
      "ions": 3242,
      "ia": 3243,
      "åīĤ": 3244,
      "Ġcont": 3245,
      "è®¤å®ļ": 3246,
      "Ġ7": 3247,
      "æĪĲéķ¿": 3248,
      "åĨ³ç®Ĺ": 3249,
      "å¾½": 3250,
      "ib": 3251,
      "èĨ": 3252,
      "åĩĨç¡®": 3253,
      "æµª": 3254,
      "è½¬åĮĸ": 3255,
      "Ġabout": 3256,
      "æ¶µ": 3257,
      "ãĢĭãĢĤ": 3258,
      "çĶĺ": 3259,
      "æĹ¥åīį": 3260,
      "éĺ²æ²»": 3261,
      "æĿĢ": 3262,
      "åį°åıĳ": 3263,
      "èº«ä½ĵ": 3264,
      "å½¹": 3265,
      "ç¼©": 3266,
      "è¾ī": 3267,
      "æĿ¥è¯´": 3268,
      "å®¾": 3269,
      "æĪĲéĥ½": 3270,
      "èĲ¥åķĨ": 3271,
      "è¡¨åĨ³": 3272,
      "èµĭ": 3273,
      "ire": 3274,
      "Ġfe": 3275,
      "éĿĻ": 3276,
      "ç»ĦæĪĲ": 3277,
      "æľ±": 3278,
      "äºĪä»¥": 3279,
      "åºĬ": 3280,
      "æ°ĳä¸»": 3281,
      "åĽłç´ł": 3282,
      "åħ¼": 3283,
      "èĦļ": 3284,
      "æºª": 3285,
      "å¦Ĥä»Ĭ": 3286,
      "ĠåĽĽ": 3287,
      "èĽĭ": 3288,
      "æķĳæı´": 3289,
      "æĹ¶æľŁ": 3290,
      "æ»ĳ": 3291,
      "å±ı": 3292,
      "act": 3293,
      "åĵģè´¨": 3294,
      "ä¾µ": 3295,
      "æ°ĽåĽ´": 3296,
      "åıĹçĲĨ": 3297,
      "äººæ°ĳç¾¤ä¼Ĺ": 3298,
      "è¯¦ç»Ĩ": 3299,
      "ru": 3300,
      "ï¼ģâĢĿ": 3301,
      "æ£®æŀĹ": 3302,
      "æ°´åĪ©": 3303,
      "åĮĸçļĦ": 3304,
      "Ġun": 3305,
      "Ġinc": 3306,
      "èħĲ": 3307,
      "èĤĥ": 3308,
      "ä¹ĭæĹ¥èµ·": 3309,
      "æĸ°åŀĭ": 3310,
      "çĽĳçĿ£ç®¡çĲĨ": 3311,
      "å¾®ä¿¡": 3312,
      "çļĦéĢļçŁ¥": 3313,
      "æ·±åº¦": 3314,
      "ä¹ĭåīį": 3315,
      "ä¼Ĭ": 3316,
      "å¹¿å·ŀ": 3317,
      "éĺ³å¸Ĥ": 3318,
      "æ··": 3319,
      "åħ¨åĮº": 3320,
      "åįĬå¹´": 3321,
      "è¡¥åĬ©": 3322,
      "åĩŃ": 3323,
      "äºĴåĬ¨": 3324,
      "çĬ¶æĢģ": 3325,
      "ä»¥ä¸ĭç®Ģç§°": 3326,
      "æĸ°èĥ½æºĲ": 3327,
      "èģĶåĬ¨": 3328,
      "å§Ĳ": 3329,
      "èį¯åĵģ": 3330,
      "Ġwhich": 3331,
      "èĲ¥åķĨçİ¯å¢ĥ": 3332,
      "åĪĨéĴŁ": 3333,
      "èľ": 3334,
      "äº¡": 3335,
      "æľĪä»½": 3336,
      "æ¶²": 3337,
      "Ġqu": 3338,
      "åĲĪæ³ķ": 3339,
      "Ġres": 3340,
      "æĮĸ": 3341,
      "çĽ®çļĦ": 3342,
      "ç¥ĸ": 3343,
      "éŁ³ä¹Ĳ": 3344,
      "Ġä¸º": 3345,
      "åľĨ": 3346,
      "çĬ¶åĨµ": 3347,
      "é¡¹çĽ®å»ºè®¾": 3348,
      "è¯Ī": 3349,
      "ase": 3350,
      "å·¥èµĦ": 3351,
      "Ġapp": 3352,
      "æĭĽæłĩæĸĩä»¶": 3353,
      "èµĶ": 3354,
      "37": 3355,
      "åĿı": 3356,
      "æ²ŁéĢļ": 3357,
      "æĭĵå±ķ": 3358,
      "çĽ¾": 3359,
      "ä¾Ŀæīĺ": 3360,
      "æĺ¯åľ¨": 3361,
      "ç»©æķĪ": 3362,
      "æİĪæĿĥ": 3363,
      "æĿ¥æºĲ": 3364,
      "æĿ¥åĪ°": 3365,
      "300": 3366,
      "ĠY": 3367,
      "åĳ¨è¾¹": 3368,
      "æīįèĥ½": 3369,
      "çĽĳäºĭ": 3370,
      "åĪ°ä½į": 3371,
      "çĶµåķĨ": 3372,
      "èĤº": 3373,
      "åľ°äº§": 3374,
      "åģı": 3375,
      "ĠK": 3376,
      "ä½ľä¸ļ": 3377,
      "ãĢĭãĢģãĢĬ": 3378,
      "34": 3379,
      "å®ļæľŁ": 3380,
      "è¿ħéĢŁ": 3381,
      "èħ¾": 3382,
      "åŁºç¡Ģä¸Ĭ": 3383,
      "ç½ĳåıĭ": 3384,
      "æ¶Īæģ¯": 3385,
      "ä¸īä¸ª": 3386,
      "ä¸ĭä¸ĢæŃ¥": 3387,
      "æľºä¼ļ": 3388,
      "ĠãĢĬ": 3389,
      "ne": 3390,
      "ä»ªå¼ı": 3391,
      "éĢļéģĵ": 3392,
      "erv": 3393,
      "æĿŃ": 3394,
      "ä¸įè¶³": 3395,
      "çĶ¨åľ°": 3396,
      "ä¿¡æģ¯åĮĸ": 3397,
      "åİĭåĬĽ": 3398,
      "..": 3399,
      "è¿ĲçĶ¨": 3400,
      "åĴĮç¤¾ä¼ļ": 3401,
      "Ġ8": 3402,
      "ass": 3403,
      "æ®ĭçĸ¾": 3404,
      "æĪ¿å±ĭ": 3405,
      "èĤ¯": 3406,
      "ä¸ŃåĽ½çī¹èī²ç¤¾ä¼ļä¸»ä¹ī": 3407,
      "è®¸å¤ļ": 3408,
      "æĪªæŃ¢": 3409,
      "éĢĲæŃ¥": 3410,
      "æĸĩæĹħ": 3411,
      "ä¼ģä¸ļçļĦ": 3412,
      "å®«": 3413,
      "åľºæĻ¯": 3414,
      "è£ħå¤ĩ": 3415,
      "è¿¹": 3416,
      "æµĵ": 3417,
      "ult": 3418,
      "æ³½": 3419,
      "äººæ°ĳæ³ķéĻ¢": 3420,
      "ap": 3421,
      "ä¸Ģè·¯": 3422,
      "æ°Ķè±¡": 3423,
      "è¡£": 3424,
      "éĿ¢ä¸´": 3425,
      "Ġtime": 3426,
      "èĩªåĬ¨": 3427,
      "98": 3428,
      "èĩªä¸»": 3429,
      "ame": 3430,
      "é¥°": 3431,
      "ep": 3432,
      "èĢĥèĻĳ": 3433,
      "æĬĺ": 3434,
      "ä¸īå¹´": 3435,
      "è¿Ļæł·çļĦ": 3436,
      "åĮĹäº¬å¸Ĥ": 3437,
      "åįģåĽĽ": 3438,
      "æķ¬": 3439,
      "38": 3440,
      "Ġalso": 3441,
      "æĢ§åĴĮ": 3442,
      "æĸ¤": 3443,
      "ä¸ºä¸»": 3444,
      "åŁİéķĩ": 3445,
      "ä¼ļè®¡": 3446,
      "æ¸¸æĪı": 3447,
      "æĭĽèģĺ": 3448,
      "èµ¶": 3449,
      "Ġper": 3450,
      "å¥ĭæĸĹ": 3451,
      "åĨįæ¬¡": 3452,
      "å¸¸å§Ķä¼ļ": 3453,
      "è¶£": 3454,
      "ãĢģâĢľ": 3455,
      "è´¥": 3456,
      "åĽ¢ç»ĵ": 3457,
      "æıĲä¾ĽäºĨ": 3458,
      "ä¸Ĭä¸ĭ": 3459,
      "å¸¸æĢģ": 3460,
      "ree": 3461,
      "æĿ°": 3462,
      "æ¯Ķå¦Ĥ": 3463,
      "ä½ĵçİ°": 3464,
      "æĿ¥çľĭ": 3465,
      "ä¸īæĺ¯": 3466,
      "ations": 3467,
      "æŃ¦æ±ī": 3468,
      "Ġä¼ļè®®": 3469,
      "ä¸Ģå®¶": 3470,
      "ç¥Ŀ": 3471,
      "åĭŁéĽĨ": 3472,
      "vel": 3473,
      "æķ°åŃĹåĮĸ": 3474,
      "åĬŀäºĭ": 3475,
      "å¹¿è¥¿": 3476,
      "Ġoff": 3477,
      "ook": 3478,
      "Ġany": 3479,
      "è·Į": 3480,
      "æł¼å±Ģ": 3481,
      "Ġother": 3482,
      "å¾ĭå¸Ī": 3483,
      "æĲº": 3484,
      "æıĲåīį": 3485,
      "ç»ıæµİåıĳå±ķ": 3486,
      "å¯¹å¤ĸ": 3487,
      "åħ¶å®ŀ": 3488,
      "å°¤åħ¶": 3489,
      "Ġwho": 3490,
      "æģ¶": 3491,
      "åįģäºĮ": 3492,
      "èµŀ": 3493,
      "çģ¾å®³": 3494,
      "æĢİä¹Ī": 3495,
      "åĨħéĥ¨": 3496,
      "æĶ¶çĽĬ": 3497,
      "ä¹Łæľī": 3498,
      "æĪĳä»¬çļĦ": 3499,
      "äººå·¥": 3500,
      "æģ©": 3501,
      "åħ¬åı¸çļĦ": 3502,
      "å¤§éĩı": 3503,
      "é«ĺçº§": 3504,
      "è´µå·ŀ": 3505,
      "æīĵåĩ»": 3506,
      "æľĹ": 3507,
      "è®Ńç»ĥ": 3508,
      "95": 3509,
      "çī§": 3510,
      "å°ıåŃ¦": 3511,
      "é¥Ń": 3512,
      "è°ģ": 3513,
      "å¤©æ´¥": 3514,
      "çī¹çĤ¹": 3515,
      "è¿ĳæľŁ": 3516,
      "æ¼ı": 3517,
      "Ġgo": 3518,
      "è¿Ŀè§Ħ": 3519,
      "æ¦ľ": 3520,
      "çºªå¾ĭ": 3521,
      "è¿ª": 3522,
      "ical": 3523,
      "æķ¢": 3524,
      "äºķ": 3525,
      "æī¹åĩĨ": 3526,
      "ä»ĵ": 3527,
      "åľ¨çº¿": 3528,
      "å¡ĳ": 3529,
      "åĨľäº§åĵģ": 3530,
      "æİ¥å¾ħ": 3531,
      "æĿ¯": 3532,
      "èĩªè§ī": 3533,
      "å¸ĤåľºçĽĳç®¡": 3534,
      "æ´»åĬĽ": 3535,
      "å¤©æ°Ķ": 3536,
      "form": 3537,
      "æį·": 3538,
      "ach": 3539,
      "ä½Ľ": 3540,
      "å¹¶ä¸į": 3541,
      "æĭĨ": 3542,
      "æł¡åĽŃ": 3543,
      "çºłçº·": 3544,
      "å½ĵäºĭ": 3545,
      "av": 3546,
      "å·©": 3547,
      "åħ»æ®ĸ": 3548,
      "ff": 3549,
      "èĩªè¡Į": 3550,
      "Ġget": 3551,
      "ä¸Ģçº¿": 3552,
      "ç¡®è®¤": 3553,
      "åĬ¨çī©": 3554,
      "åıĳè¡¨": 3555,
      "å¼ķè¿Ľ": 3556,
      "çĿ£ä¿ĥ": 3557,
      "æĹ¥ä¸ĬåįĪ": 3558,
      "2015": 3559,
      "ä¸ĢåĲį": 3560,
      "æµģåĬ¨": 3561,
      "é¡ºåĪ©": 3562,
      "éģŃ": 3563,
      "ç®¡æİ§": 3564,
      "èĢģäºº": 3565,
      "ä¸¹": 3566,
      "ç¾İä¸½": 3567,
      "æīĢåľ¨": 3568,
      "åĪĨäº«": 3569,
      "æĬĬæı¡": 3570,
      "ays": 3571,
      "åĽĽä¸ª": 3572,
      "èĬĤçĽ®": 3573,
      "Ġlike": 3574,
      "ç¾¤ä½ĵ": 3575,
      "çī¹åĪ«æĺ¯": 3576,
      "2000": 3577,
      "å¹¼åĦ¿": 3578,
      "çŁ¥è¯Ĩäº§æĿĥ": 3579,
      "åĿ¡": 3580,
      "åı«": 3581,
      "èĢĥå¯Ł": 3582,
      "åħ±äº§åħļ": 3583,
      "æĸ°çĸĨ": 3584,
      "to": 3585,
      "éĢļæĬ¥": 3586,
      "æİ§èĤ¡": 3587,
      "èģĮèĥ½": 3588,
      "æ¼«": 3589,
      "own": 3590,
      "lephone": 3591,
      "48": 3592,
      "è¿·": 3593,
      "åĲĹ": 3594,
      "ä¿Ĺ": 3595,
      "è§ĦåĪĻ": 3596,
      "æ£ĢéªĮ": 3597,
      "ä¿®å¤į": 3598,
      "å¢Ļ": 3599,
      "åĿ¦": 3600,
      "çī©ä¸ļ": 3601,
      "çĹħæ¯Ĵ": 3602,
      "æķĳåĬ©": 3603,
      "Ġpart": 3604,
      "çŁĽ": 3605,
      "ick": 3606,
      "ä¸ĭçļĦ": 3607,
      "ĠIt": 3608,
      "çĵ¦": 3609,
      "ile": 3610,
      "æł¹æľ¬": 3611,
      "å®īå¾½": 3612,
      "çļĦè§Ħå®ļ": 3613,
      "æķ´åĲĪ": 3614,
      "è®ºåĿĽ": 3615,
      "äº«åıĹ": 3616,
      "éĤĢè¯·": 3617,
      "äººç±»": 3618,
      "éĽħ": 3619,
      "å¿ĥçĲĨ": 3620,
      "Ġsp": 3621,
      "çĴ": 3622,
      "ä¸Ģç§į": 3623,
      "ä¸Ĭå¹´": 3624,
      "telephone": 3625,
      "å®¶éķ¿": 3626,
      "Ġsome": 3627,
      "é¸¡": 3628,
      "Ġev": 3629,
      "é£Łåĵģå®īåħ¨": 3630,
      "åįĹäº¬": 3631,
      "åħ¸åŀĭ": 3632,
      "çī©èµĦ": 3633,
      "ç¨İåĬ¡": 3634,
      "ition": 3635,
      "çļĦåĲĮæĹ¶": 3636,
      "ä½ľé£İ": 3637,
      "æłĩå¿Ĺ": 3638,
      "ä¼ĺåħĪ": 3639,
      "com": 3640,
      "éº¦": 3641,
      "å®īè£ħ": 3642,
      "ä¸´æĹ¶": 3643,
      "Ġ-": 3644,
      "æĶ¶è´¹": 3645,
      "åľ°åĿĢ": 3646,
      "ak": 3647,
      "75": 3648,
      "ï¼ĮãĢĬ": 3649,
      "èĤ¡æĿĥ": 3650,
      "åĩ½": 3651,
      "å±ķçİ°": 3652,
      "ç¼ĸåı·": 3653,
      "ä¿¡å¿ĥ": 3654,
      "åįģåĪĨ": 3655,
      "åħļä¸Ńå¤®": 3656,
      "æĶ¹åıĺ": 3657,
      "æĢ»ç»ĵ": 3658,
      "ä¸ĵéĹ¨": 3659,
      "åĮ»ä¿Ŀ": 3660,
      "å¤ļæ¬¡": 3661,
      "ue": 3662,
      "äº¤éĢļè¿Ĳè¾ĵ": 3663,
      "èļ": 3664,
      "ĠV": 3665,
      "æĬķç¥¨": 3666,
      "æ°ĳèŃ¦": 3667,
      "46": 3668,
      "åĩ¡": 3669,
      "ord": 3670,
      "ä¸Ńåħ±": 3671,
      "éĻķ": 3672,
      "äººæķ°": 3673,
      "æ»¡æĦı": 3674,
      "çĹĽ": 3675,
      "ç§ĳæĬĢåĪĽæĸ°": 3676,
      "åĮ»çĶŁ": 3677,
      "çĶ¨è½¦": 3678,
      "åĨĽäºº": 3679,
      "çļĦé«ĺ": 3680,
      "ç»ĺ": 3681,
      "ä¼¦": 3682,
      "Ġnew": 3683,
      "çŁĽçĽ¾": 3684,
      "ary": 3685,
      "æļ¨": 3686,
      "èıĮ": 3687,
      "å°Ĩåľ¨": 3688,
      "å¼ĢåıĳåĮº": 3689,
      "å¼Ł": 3690,
      "æĪĳçļĦ": 3691,
      "æ²³åĮĹ": 3692,
      "Ġneed": 3693,
      "å¿Ļ": 3694,
      "æłı": 3695,
      "éĶ¦": 3696,
      "åħ¬åħ±èµĦæºĲ": 3697,
      "å¸Ĥéķ¿": 3698,
      "è·ĥ": 3699,
      "æ³ķå¾ĭæ³ķè§Ħ": 3700,
      "èĭ±åĽ½": 3701,
      "ä¸ĢèĪ¬åħ¬åħ±": 3702,
      "æĮĳæĪĺ": 3703,
      "çĻ¾åĪĨ": 3704,
      "Ġdis": 3705,
      "Ġhis": 3706,
      "å°Ĭ": 3707,
      "æĳĨ": 3708,
      "ub": 3709,
      "åĬ²": 3710,
      "åħļåĳĺå¹²éĥ¨": 3711,
      "æ¬¡ä¼ļè®®": 3712,
      "å¤§åŀĭ": 3713,
      "æķ´ä¸ª": 3714,
      "çĽĲ": 3715,
      "é¤Ĳé¥®": 3716,
      "ove": 3717,
      "æĪ´": 3718,
      "ents": 3719,
      "éĽ¶åĶ®": 3720,
      "æĪĲäºĨ": 3721,
      "å¤ļç§į": 3722,
      "Ġthem": 3723,
      "æľīåħ³éĥ¨éĹ¨": 3724,
      "ç¿»": 3725,
      "55": 3726,
      "æķĻæİĪ": 3727,
      "å®Įåħ¨": 3728,
      "è½¬ç§»": 3729,
      "è§Ħå®ļçļĦ": 3730,
      "å¤ļåħĥ": 3731,
      "åī¯ä¹¦è®°": 3732,
      "å·©åĽº": 3733,
      "ç½Ĺæĸ¯": 3734,
      "æįŁå¤±": 3735,
      "ä¸Ģæĸ¹éĿ¢": 3736,
      "Ġyear": 3737,
      "Ġtra": 3738,
      "ount": 3739,
      "éĵľ": 3740,
      "__": 3741,
      "åĢ¡": 3742,
      "ä½įç½®": 3743,
      "åĪĽä½ľ": 3744,
      "çĸ«èĭĹ": 3745,
      "ence": 3746,
      "æ´ŀ": 3747,
      "å®Įæķ´": 3748,
      "ä¸»ç®¡éĥ¨éĹ¨": 3749,
      "ä¹Łä¸į": 3750,
      "éĿ¢åĲĳ": 3751,
      "åº§è°Ī": 3752,
      "æµ¦": 3753,
      "èĶ¬": 3754,
      "ä»İäºĭ": 3755,
      "æ¹¿": 3756,
      "çº½": 3757,
      "éķľ": 3758,
      "æĢ»é¢Ŀ": 3759,
      "çĽ¸æ¯Ķ": 3760,
      "çºªå§Ķ": 3761,
      "ç´łè´¨": 3762,
      "æ¬¢è¿İ": 3763,
      "éº»": 3764,
      "ä¸ļç»©": 3765,
      "éĻµ": 3766,
      "éĺ»": 3767,
      "å¼ĺ": 3768,
      "åĲĦéĥ¨éĹ¨": 3769,
      "éĵº": 3770,
      "åİ¦": 3771,
      "åĩºçļĦ": 3772,
      "æ¡Īä¾ĭ": 3773,
      "éļĨ": 3774,
      "æĬķè¯ī": 3775,
      "éĩĩè®¿": 3776,
      "åħ±å»º": 3777,
      "æİĮæı¡": 3778,
      "æĺ¯ä¸Ģä¸ª": 3779,
      "Ġspe": 3780,
      "åī¯ä¸»ä»»": 3781,
      "ĠWe": 3782,
      "å½¢è±¡": 3783,
      "æĿľ": 3784,
      "æīĭæ®µ": 3785,
      "è¿Ļæ¬¡": 3786,
      "é¢Ħéĺ²": 3787,
      "1000": 3788,
      "å¤§æķ°æį®": 3789,
      "é¡¿": 3790,
      "è¾½": 3791,
      "éĥ¨éķ¿": 3792,
      "åħļç»Ħç»ĩ": 3793,
      "å¿ĺ": 3794,
      "ress": 3795,
      "æľĢå¤§çļĦ": 3796,
      "æĺ¨": 3797,
      "èĥŀ": 3798,
      "å¯¼åĲĳ": 3799,
      "æĺ¥èĬĤ": 3800,
      "å¹´åĪĿ": 3801,
      "æĶ¶è´Ń": 3802,
      "åĩºè¡Į": 3803,
      "æįĲ": 3804,
      "çĽ¸åħ³éĥ¨éĹ¨": 3805,
      "åĪ¶éĢłä¸ļ": 3806,
      "åıĳè¨Ģ": 3807,
      "èĦ±è´«æĶ»åĿļ": 3808,
      "æĬ¼": 3809,
      "Ġsc": 3810,
      "çĶµåĬĽ": 3811,
      "å¸Ĥçº§": 3812,
      "æģĴ": 3813,
      "ä¸ŃåŃ¦": 3814,
      "æķĪçĽĬ": 3815,
      "æŁ¥è¯¢": 3816,
      "ä¸įåı¯": 3817,
      "åħ³å¿ĥ": 3818,
      "ç«ĭåį³": 3819,
      "æİ¨èįĲ": 3820,
      "æłĳç«ĭ": 3821,
      "æ°ĳèĲ¥": 3822,
      "âĢĿãĢģâĢľ": 3823,
      "çĥ§": 3824,
      "åģľè½¦": 3825,
      "é¢ĦèŃ¦": 3826,
      "æ¨ª": 3827,
      "åĳĪçİ°": 3828,
      "æ³¨éĩį": 3829,
      "é¦Ī": 3830,
      "çīĻ": 3831,
      "æľ¬é¡¹çĽ®": 3832,
      "è°Ĳ": 3833,
      "åĢ¾": 3834,
      "ä½ĵåĪ¶": 3835,
      "é©±": 3836,
      "39": 3837,
      "éĩĮçļĦ": 3838,
      "æ¯ıä¸ª": 3839,
      "å·¥èīº": 3840,
      "æĥĬ": 3841,
      "æĽ´æĸ°": 3842,
      "æİĴæĶ¾": 3843,
      "ä¿Ħç½Ĺæĸ¯": 3844,
      "æĹ¥æĬ¥": 3845,
      "ä¼ı": 3846,
      "åħįè´¹": 3847,
      "å¿ħè¦ģ": 3848,
      "è½¯ä»¶": 3849,
      "ings": 3850,
      "èŀįåħ¥": 3851,
      "èĪªç©º": 3852,
      "ç¬¬äºĶ": 3853,
      "èµ°è¿Ľ": 3854,
      "å¨±ä¹Ĳ": 3855,
      "ä¸Ĭæ¶¨": 3856,
      "å½ĵäºĭäºº": 3857,
      "èĢĥçĶŁ": 3858,
      "æľīäºº": 3859,
      "ors": 3860,
      "ose": 3861,
      "ä¸ĭæĿ¥": 3862,
      "æĭħä¿Ŀ": 3863,
      "ens": 3864,
      "Ġä¸ŃåĽ½": 3865,
      "æİĺ": 3866,
      "ç³ĸ": 3867,
      "åħ¬åħ±èµĦæºĲäº¤æĺĵ": 3868,
      "è¯¾ç¨ĭ": 3869,
      "è¶ĭåĬ¿": 3870,
      "åįļçī©": 3871,
      "æ±Ľ": 3872,
      "èµ°è®¿": 3873,
      "è¿Ľå±ķ": 3874,
      "è½¨": 3875,
      "ĠCh": 3876,
      "å²ģçļĦ": 3877,
      "ï¼ļ[": 3878,
      "ä¸įè¦ģ": 3879,
      "éĥŃ": 3880,
      "åŃ¦ä¹łè´¯å½»": 3881,
      "çļĦè¦ģæ±Ĥ": 3882,
      "æ´Ľ": 3883,
      "æľºåľº": 3884,
      "æīĭç»Ń": 3885,
      "å®£å¸ĥ": 3886,
      "åĳ¢": 3887,
      "çĮª": 3888,
      "åĪ·": 3889,
      "é¦ĸåħĪ": 3890,
      "32": 3891,
      "è§īå¾Ĺ": 3892,
      "Ġar": 3893,
      "åĬłåħ¥": 3894,
      "åĲ¬åıĸ": 3895,
      "èº«ä»½è¯ģ": 3896,
      "è²": 3897,
      "æľºéģĩ": 3898,
      "çĶµåĬ¨": 3899,
      "éļıåĲİ": 3900,
      "åĢºåĪ¸": 3901,
      "ä¸Ģä½į": 3902,
      "çĽ¸å¯¹": 3903,
      "å±±åĮº": 3904,
      "æľºæ¢°": 3905,
      "åį±éĻ©": 3906,
      "æµ·å¤ĸ": 3907,
      "Ġif": 3908,
      "æĸĩç«ł": 3909,
      "æĮĩæķ°": 3910,
      "å¥ĸåĬ±": 3911,
      "è·Ŀç¦»": 3912,
      "çĻ¾å§ĵ": 3913,
      "åĮĸè§£": 3914,
      "è¾Ľ": 3915,
      "åĸľæ¬¢": 3916,
      "éĩįè¦ģçļĦ": 3917,
      "ĠSt": 3918,
      "ä¸Ģä½ĵåĮĸ": 3919,
      "è¡¥åħħ": 3920,
      "è¯¦è§ģ": 3921,
      "åĭŁéĽĨèµĦéĩĳ": 3922,
      "æĢ»ç»ıçĲĨ": 3923,
      "éĿĴå²Ľ": 3924,
      "åħļæĶ¯éĥ¨": 3925,
      "æĳ©": 3926,
      "è´¦æĪ·": 3927,
      "ä¸Ģèĩ´": 3928,
      "äºĮåįģå¤§": 3929,
      "çĤ¼": 3930,
      "ç¥¥": 3931,
      "æĹ¦": 3932,
      "è¯ķéªĮ": 3933,
      "åħ³èģĶ": 3934,
      "æľīæīĢ": 3935,
      "èĸª": 3936,
      "å¹³å®ī": 3937,
      "éģ¿åħį": 3938,
      "åħ¬å®īå±Ģ": 3939,
      "çŃīæĸ¹å¼ı": 3940,
      "é«ĺç«¯": 3941,
      "åĵģç§į": 3942,
      "çĺ": 3943,
      "å¹¿åľº": 3944,
      "å½°": 3945,
      "çĲĨè§£": 3946,
      "ä¸ĸçºª": 3947,
      "æ¢¯": 3948,
      "åı¥": 3949,
      "æķı": 3950,
      "ä¸ģ": 3951,
      "å¹¿åĳĬ": 3952,
      "65": 3953,
      "åĬ¨æĢģ": 3954,
      "æ¯«": 3955,
      "å®ĭ": 3956,
      "ark": 3957,
      "08": 3958,
      "å½ĵå¤©": 3959,
      "ä¸Ģå¸¦": 3960,
      "Ġwhat": 3961,
      "éķ¿æ±Ł": 3962,
      "æĺĨ": 3963,
      "Ġbeen": 3964,
      "åĪĬ": 3965,
      "Ġwhen": 3966,
      "æĲľ": 3967,
      "çĹħä¾ĭ": 3968,
      "åĶ¯": 3969,
      "æĢ»ç»Ł": 3970,
      "åĪĨéħį": 3971,
      "å»ºè®¾çļĦ": 3972,
      "è½¬åıĺ": 3973,
      "mm": 3974,
      "ä»ģ": 3975,
      "ond": 3976,
      "æİī": 3977,
      "çº¿ä¸ĭ": 3978,
      "å¤ĩæ¡Ī": 3979,
      "éĺ´": 3980,
      "å¼Ģæłĩ": 3981,
      "æµ·åįĹ": 3982,
      "åħ¨å¹´": 3983,
      "åĲ§": 3984,
      "å¼Ģå·¥": 3985,
      "çīµå¤´": 3986,
      "èĩªçĶ±": 3987,
      "ä¸ĢèĪ¬åħ¬åħ±é¢Ħç®Ĺ": 3988,
      "æĻ¨": 3989,
      "çĶľ": 3990,
      "å¸¦é¢Ĩ": 3991,
      "æĭħä»»": 3992,
      "æįķ": 3993,
      "ough": 3994,
      "æĸ°åįİ": 3995,
      "çŃīå·¥ä½ľ": 3996,
      "çĿ£å¯¼": 3997,
      "è²Į": 3998,
      "ĠäºĶ": 3999,
      "åħļåı²": 4000,
      "å±±å¸Ĥ": 4001,
      "æĪ¿åľ°äº§": 4002,
      "è¿«": 4003,
      "æ¸Ķ": 4004,
      "éªĮæĶ¶": 4005,
      "è®¨è®º": 4006,
      "å®ŀçİ°äºĨ": 4007,
      "ç¨İæĶ¶": 4008,
      "05": 4009,
      "å»ºè®¾é¡¹çĽ®": 4010,
      "åĨľä¸ļåĨľæĿĳ": 4011,
      "é»ĺ": 4012,
      "èī¯å¥½çļĦ": 4013,
      "äº¤æĺĵæīĢ": 4014,
      "Ġover": 4015,
      "èĲ¨": 4016,
      "Ġwould": 4017,
      "æ±ĩæĬ¥": 4018,
      "çĸ¾çĹħ": 4019,
      "æĸĩçī©": 4020,
      "æĦŁè°¢": 4021,
      "éħįç½®": 4022,
      "æ±¡æ°´": 4023,
      "äººåĬĽ": 4024,
      "æ²Ī": 4025,
      "ç»ıåİĨ": 4026,
      "å¥³å£«": 4027,
      "é¡µ": 4028,
      "ç«¹": 4029,
      "ç¦ıå»º": 4030,
      "ä¸¾æĬ¥": 4031,
      "æ±Łè¥¿": 4032,
      "æĦŁåıĹ": 4033,
      "ä¸ĢæĿ¡": 4034,
      "æĹ¥ä¸ĭåįĪ": 4035,
      "æł¸éħ¸": 4036,
      "æ¹ĸåĮĹ": 4037,
      "æ®ĭçĸ¾äºº": 4038,
      "åĤ¨å¤ĩ": 4039,
      "æľĢè¿ĳ": 4040,
      "è¾ĳ": 4041,
      "Ġwork": 4042,
      "Ġro": 4043,
      "æ¿Ģåıĳ": 4044,
      "èĤ¯å®ļ": 4045,
      "çİ°è±¡": 4046,
      "çļĦä¼ģä¸ļ": 4047,
      "éĿŀæ³ķ": 4048,
      "çıŃåŃĲ": 4049,
      "ç§©": 4050,
      "å®ŀåľ°": 4051,
      "åĮºå§Ķ": 4052,
      "Ġkn": 4053,
      "âĢĵ": 4054,
      "Ġthere": 4055,
      "è°ĭåĪĴ": 4056,
      "æ¬§æ´²": 4057,
      "æĽ´æĺ¯": 4058,
      "æĳ¸": 4059,
      "æ¥ļ": 4060,
      "ç§©åºı": 4061,
      "ç®¡çĲĨåĬŀæ³ķ": 4062,
      "çļĦå°ı": 4063,
      "çº¯": 4064,
      "éĥ½æľī": 4065,
      "cn": 4066,
      "ä¸ŃåĽ½åħ±äº§åħļ": 4067,
      "ä¸Ńå°ıä¼ģä¸ļ": 4068,
      "åıįé¦Ī": 4069,
      "ç¼´çº³": 4070,
      "å®ħ": 4071,
      "æĸ°å»º": 4072,
      "åĴĮè°Ĳ": 4073,
      "å¼ĢåĲ¯": 4074,
      "è¯Ħå®¡": 4075,
      "88": 4076,
      "å·¥ä½ľæĹ¥": 4077,
      "æ¸Ŀ": 4078,
      "æĶ¶åĪ°": 4079,
      "å¤įæĿĤ": 4080,
      "çİ°å®ŀ": 4081,
      "Ġpe": 4082,
      "å¡ŀ": 4083,
      "ç§»åĬ¨": 4084,
      "44": 4085,
      "å·¥åħ·": 4086,
      "ç§ĳæĻ®": 4087,
      "éĢŁåº¦": 4088,
      "ake": 4089,
      "66": 4090,
      "æ·»": 4091,
      "åĲĦåİ¿": 4092,
      "æĭĴ": 4093,
      "int": 4094,
      "æĹ¨": 4095,
      "å°¾": 4096,
      "å®¹æĺĵ": 4097,
      "ï¼īï¼Ľ": 4098,
      "æĬķæłĩæĸĩä»¶": 4099,
      "èĩªæĪĳ": 4100,
      "è¡Ķ": 4101,
      "Ġimp": 4102,
      "ob": 4103,
      "2014": 4104,
      "æŃ£ç¡®": 4105,
      "èĤºçĤİ": 4106,
      "èµģ": 4107,
      "å¯¹æŃ¤": 4108,
      "nder": 4109,
      "ck": 4110,
      "åĩºæĿ¥": 4111,
      "ç§Łèµģ": 4112,
      "èµĦè´¨": 4113,
      "éĩįåºĨå¸Ĥ": 4114,
      "è¿Ī": 4115,
      "åĽºå®ļ": 4116,
      "ish": 4117,
      "å¤Ħäºİ": 4118,
      "åĬĽçļĦ": 4119,
      "åĢ¼å¾Ĺ": 4120,
      "åıĺæĽ´": 4121,
      "è¯ĪéªĹ": 4122,
      "è¿ĽæŃ¥": 4123,
      "æ´¾åĩº": 4124,
      "èĶ¬èıľ": 4125,
      "æĢĿè·¯": 4126,
      "æħ°": 4127,
      "èĢĹ": 4128,
      "ang": 4129,
      "æĿĨ": 4130,
      "é¢ĦæľŁ": 4131,
      "åħ¨ä¼ļ": 4132,
      "æĮĩç¤º": 4133,
      "åıªæĺ¯": 4134,
      "æł·çļĦ": 4135,
      "Ġacc": 4136,
      "æĸ¹ä¾¿": 4137,
      "æľºåĻ¨": 4138,
      "é»İ": 4139,
      "å·¥ä¼ļ": 4140,
      "è·³": 4141,
      "åĪº": 4142,
      "èĪĴ": 4143,
      "é¢Ĩå¯¼å°ıç»Ħ": 4144,
      "çī©è´¨": 4145,
      "å¦ĤæŃ¤": 4146,
      "è¿Ľåı£": 4147,
      "å¿ĹæĦ¿æľįåĬ¡": 4148,
      "Ġthan": 4149,
      "éļĶç¦»": 4150,
      "Ġ\"": 4151,
      "æ³¥": 4152,
      "09": 4153,
      "ç¾Ĭ": 4154,
      "å¸¸å§Ķ": 4155,
      "äº¿ç¾İåħĥ": 4156,
      "å¸¸æĢģåĮĸ": 4157,
      "å¥ĳ": 4158,
      "èĻİ": 4159,
      "ç»ıå¸¸": 4160,
      "çŁ¥åĲį": 4161,
      "è·µè¡Į": 4162,
      "Ġpre": 4163,
      "æĹłäºº": 4164,
      "wn": 4165,
      "éĿĴå°ĳå¹´": 4166,
      "Ġdes": 4167,
      "ä¼ĺæĥł": 4168,
      "æĻĭ": 4169,
      "Ġ9": 4170,
      "çĪ¶æ¯į": 4171,
      "åĩºåħ·": 4172,
      "åįıä½ľ": 4173,
      "çĽĳå¯Ł": 4174,
      "çº·çº·": 4175,
      "å¹´åºķ": 4176,
      "ç»´ä¿®": 4177,
      "æĭĶ": 4178,
      "ä¸įåĪ°": 4179,
      "åįģä¹Ŀ": 4180,
      "Ġag": 4181,
      "å®£è®²": 4182,
      "åĲĦé¡¹å·¥ä½ľ": 4183,
      "èĪį": 4184,
      "æıĲéĨĴ": 4185,
      "éħĴåºĹ": 4186,
      "è¯ģæį®": 4187,
      "Ġsa": 4188,
      "çºªå¿µ": 4189,
      "ä¸įåĬ¨": 4190,
      "çİ°éĩĳ": 4191,
      "å·¥åķĨ": 4192,
      "éĢĢå½¹": 4193,
      "æ¡ĥ": 4194,
      "æ¸ħçĲĨ": 4195,
      "ä¿¡è®¿": 4196,
      "æĶ¶éĽĨ": 4197,
      "Ġwere": 4198,
      "æĺ¾èĳĹ": 4199,
      "çĶ³è¯·äºº": 4200,
      "æĿ¡ä»¶çļĦ": 4201,
      "èĦ¸": 4202,
      "éĩįæĸ°": 4203,
      "çĻ¾åĪĨçĤ¹": 4204,
      "06": 4205,
      "é¸Ł": 4206,
      "æĥ¯": 4207,
      "çıį": 4208,
      "äººå¤§å¸¸å§Ķä¼ļ": 4209,
      "07": 4210,
      "åĪ¤åĨ³": 4211,
      "åħ¬å¹³": 4212,
      "æ¹ĸåįĹ": 4213,
      "åħļçļĦäºĮåįģå¤§": 4214,
      "ä¸Ńåįİæ°ĳæĹı": 4215,
      "çļĦä¸»è¦ģ": 4216,
      "æĥħå½¢": 4217,
      "Ġhad": 4218,
      "Ġæł¹æį®": 4219,
      "éĻª": 4220,
      "è§£éĩĬ": 4221,
      "æŀª": 4222,
      "ç¨¿": 4223,
      "è±Ĩ": 4224,
      "åįļçī©é¦Ĩ": 4225,
      "47": 4226,
      "åħ¨åİ¿": 4227,
      "è°ĥè§£": 4228,
      "ild": 4229,
      "çĹĩçĬ¶": 4230,
      "ä¸ªçĻ¾åĪĨçĤ¹": 4231,
      "lp": 4232,
      "å°±ä¼ļ": 4233,
      "æİ¥ç§į": 4234,
      "è±ª": 4235,
      "éĢĲæ¸Ĳ": 4236,
      "æľīäºĨ": 4237,
      "åģ¥èº«": 4238,
      "çļĦçĽ¸åħ³": 4239,
      "åı¦å¤ĸ": 4240,
      "è´Ŀ": 4241,
      "å²Ń": 4242,
      "è¸ª": 4243,
      "åĨ»": 4244,
      "åĴĮå¹³": 4245,
      "Ġam": 4246,
      "49": 4247,
      "Ġco": 4248,
      "åħ±æľī": 4249,
      "å¿Ĩ": 4250,
      "å®ļä½į": 4251,
      "çłĶç©¶éĻ¢": 4252,
      "ç²¾å½©": 4253,
      "æĳĺ": 4254,
      "æĲŃå»º": 4255,
      "åıįå¯¹": 4256,
      "æ³ķäºº": 4257,
      "æ¡Ĥ": 4258,
      "Ġjust": 4259,
      "å¯¿": 4260,
      "rough": 4261,
      "éĢĢä¼ĳ": 4262,
      "Ġhow": 4263,
      "éĻķè¥¿": 4264,
      "ä¸ŃåĽ½çļĦ": 4265,
      "ä»¥åĲİ": 4266,
      "ç§ĺä¹¦": 4267,
      "åĩ¤": 4268,
      "ç¾İå¥½": 4269,
      "èĬĤèĥ½": 4270,
      "æıı": 4271,
      "ç»Ħç»ĩå¼Ģå±ķ": 4272,
      "æĪĳçľģ": 4273,
      "å¼ķåıĳ": 4274,
      "ä¼Łå¤§": 4275,
      "éĶģ": 4276,
      "åĳ¨å¹´": 4277,
      "ound": 4278,
      "æī¶æĮģ": 4279,
      "ory": 4280,
      "Ġä»İ": 4281,
      "å¥ī": 4282,
      "æĽ¿": 4283,
      "ç»¿åĮĸ": 4284,
      "æľīåĪ©": 4285,
      "æĲ¬": 4286,
      "è¡ĮæĶ¿æī§æ³ķ": 4287,
      "éļ¾é¢ĺ": 4288,
      "èĥĮæĻ¯": 4289,
      "å¤§å¹ħ": 4290,
      "å¤ļçļĦ": 4291,
      "åĪĹåħ¥": 4292,
      "çħ§çīĩ": 4293,
      "è¿Ŀåıį": 4294,
      "è¹": 4295,
      "èİ«": 4296,
      "ç¨»": 4297,
      "åįıåķĨ": 4298,
      "é¢ģ": 4299,
      "èģĶçĽŁ": 4300,
      "åĬ¨åĳĺ": 4301,
      "äºĭæĥħ": 4302,
      "çģŃ": 4303,
      "èĩªçĦ¶èµĦæºĲ": 4304,
      "å²©": 4305,
      "åĬłå¼ºå¯¹": 4306,
      "ï¼İ": 4307,
      "äººæ¬¡": 4308,
      "åįģä¸ī": 4309,
      "ä¸»åĬŀ": 4310,
      "é«ĺçļĦ": 4311,
      "æ¼Ķåĩº": 4312,
      "çªĹåı£": 4313,
      "æ§": 4314,
      "è¾ŀ": 4315,
      "å¤§èµĽ": 4316,
      "åħ¨æ°ĳ": 4317,
      "å¾ªçİ¯": 4318,
      "å¯Ĵ": 4319,
      "ä½łä»¬": 4320,
      "),": 4321,
      "éŀ": 4322,
      "å®ŀäºĭ": 4323,
      "å¤įåį°": 4324,
      "å¤º": 4325,
      "ç§¦": 4326,
      "åİ¿å§Ķ": 4327,
      "èĮĥåĽ´åĨħ": 4328,
      "ĠThis": 4329,
      "å¦»": 4330,
      "01": 4331,
      "ä¾¿åĪ©": 4332,
      "èĴĻåı¤": 4333,
      "èĢ³": 4334,
      "âĳ": 4335,
      "å¹´åīį": 4336,
      "oy": 4337,
      "Ġ200": 4338,
      "å¸Ŀ": 4339,
      "è¦ģç´ł": 4340,
      "ç«ĭè¶³": 4341,
      "é«ĺåº¦éĩįè§Ĩ": 4342,
      "èķ": 4343,
      "ç²īä¸Ŀ": 4344,
      "æ¡£æ¡Ī": 4345,
      "è°ĥåº¦": 4346,
      "ä»¥åīį": 4347,
      "ä¹¦éĿ¢": 4348,
      "ä¾Ľç»Ļ": 4349,
      "ç»ĨåĮĸ": 4350,
      "56": 4351,
      "çļĦå½±åĵį": 4352,
      "å´ĩ": 4353,
      "Ġrec": 4354,
      "æľįåĬ¡ä¸ļ": 4355,
      "ç®¡çĲĨå±Ģ": 4356,
      "äºīåıĸ": 4357,
      "é¢Ħæ¡Ī": 4358,
      "èĦī": 4359,
      "å¯ĨåĪĩ": 4360,
      "ç«Ł": 4361,
      "ä¸ĩåĲ¨": 4362,
      "å±ħä½ı": 4363,
      "Ġé¡¹çĽ®": 4364,
      "èµı": 4365,
      "å¹¶åľ¨": 4366,
      "åĪ©çİĩ": 4367,
      "ä¿®è®¢": 4368,
      "ater": 4369,
      "ä¼¸": 4370,
      "äººåľ¨": 4371,
      "åĮĹäº¬æĹ¶éĹ´": 4372,
      "åĩĮ": 4373,
      "æĸ°æĹ¶ä»£ä¸ŃåĽ½çī¹èī²ç¤¾ä¼ļä¸»ä¹ī": 4374,
      "çĦ¶èĢĮ": 4375,
      "å¤±ä¿¡": 4376,
      "æľīåħ³è§Ħå®ļ": 4377,
      "åĬłéĢŁ": 4378,
      "çĸı": 4379,
      "Ġhelp": 4380,
      "éĥ¨éĺŁ": 4381,
      "ä»ĸä»¬çļĦ": 4382,
      "æĪĲäº¤": 4383,
      "è´¢äº§": 4384,
      "ä¸ĭè½½": 4385,
      "å±Ĥæ¬¡": 4386,
      "Ġprov": 4387,
      "å¦ĩå¥³": 4388,
      "åĩºçīĪ": 4389,
      "æĹ¥åľ¨": 4390,
      "éĢ¾": 4391,
      "èĢĲ": 4392,
      "ä¸ªå·¥ä½ľæĹ¥": 4393,
      "çĽ¸ç»ĵåĲĪ": 4394,
      "èĢĮæĺ¯": 4395,
      "å¼ĺæī¬": 4396,
      "97": 4397,
      "è¥¿éĥ¨": 4398,
      "ä½İäºİ": 4399,
      "åĩĿèģļ": 4400,
      "Ġä»Ĭå¹´": 4401,
      "æĿŃå·ŀ": 4402,
      "æıŃ": 4403,
      "è´Ńç½®": 4404,
      "æĹłè®º": 4405,
      "çŃ¾çº¦": 4406,
      "æĽ´å¤ļçļĦ": 4407,
      "58": 4408,
      "use": 4409,
      "æĸ°æĬĢæľ¯": 4410,
      "åĽ½å®¶çº§": 4411,
      "é¢ĨåŁŁçļĦ": 4412,
      "æŃ»äº¡": 4413,
      "ä¸Ģå¸¦ä¸Ģè·¯": 4414,
      "anc": 4415,
      "éĺ²æĬ¤": 4416,
      "Ġmake": 4417,
      "éĺħè¯»": 4418,
      "çģĮ": 4419,
      "ç½ĳæł¼": 4420,
      "åıĤè§Ĥ": 4421,
      "åį«çĶŁåģ¥åº·": 4422,
      "èĶ¡": 4423,
      "å®¡è®®éĢļè¿ĩ": 4424,
      "åħ¬ç§¯": 4425,
      "å®ŀæĸ½æĸ¹æ¡Ī": 4426,
      "æģĲ": 4427,
      "éĥ½ä¼ļ": 4428,
      "éĻĦä»¶": 4429,
      "åĲĮåŃ¦": 4430,
      "ning": 4431,
      "ä»İèĢĮ": 4432,
      "æĭįæĳĦ": 4433,
      "ä¾¨": 4434,
      "ç²¤": 4435,
      "æŃ¤åīį": 4436,
      "åŃ©åŃĲä»¬": 4437,
      "æĸ¹ä½į": 4438,
      "ä»İä¸¥": 4439,
      "å®ĺæĸ¹": 4440,
      "èĸĦ": 4441,
      "Ġtr": 4442,
      "åŁºäºİ": 4443,
      "çľģæĶ¿åºľ": 4444,
      "åĳĬè¯īè®°èĢħ": 4445,
      "åŃ¦ä¹łæķĻèĤ²": 4446,
      "åĲĪä½ľç¤¾": 4447,
      "åĲĮæľŁ": 4448,
      "å¤©çĦ¶": 4449,
      "è°ĵ": 4450,
      "å¹¶ä¸Ķ": 4451,
      "æŀĦæĪĲ": 4452,
      "èĢģå¹´äºº": 4453,
      "å¸ĤåľºçļĦ": 4454,
      "èĳ£äºĭéķ¿": 4455,
      "å¦¹": 4456,
      "42": 4457,
      "æ¸¡": 4458,
      "åĭĴ": 4459,
      "ç¦ıåĪ©": 4460,
      "çº¦å®ļ": 4461,
      "Ġserv": 4462,
      "æĲŀ": 4463,
      "è¿Ļä¹Ī": 4464,
      "ä¹ĭè·¯": 4465,
      "èī°": 4466,
      "çĽ¸äºĴ": 4467,
      "www": 4468,
      "Ġinto": 4469,
      "æĴ¤": 4470,
      "åĪĿå¿ĥ": 4471,
      "åĮºçļĦ": 4472,
      "ç¬¬ä¸Ģæ¬¡": 4473,
      "çº¿è·¯": 4474,
      "ç»ıæµİç¤¾ä¼ļåıĳå±ķ": 4475,
      "lic": 4476,
      "çĭĹ": 4477,
      "ÃĹ": 4478,
      "çºµ": 4479,
      "åīįå¾Ģ": 4480,
      "æ°§": 4481,
      "Ġcomm": 4482,
      "åľ°éľĩ": 4483,
      "43": 4484,
      "ä¸Ĭåįĩ": 4485,
      "æľīæľº": 4486,
      "åĿĬ": 4487,
      "2013": 4488,
      "å«Įçĸĳ": 4489,
      "çĽ¸ä¿¡": 4490,
      "Ġph": 4491,
      "Ġmay": 4492,
      "åĮ»åŃ¦": 4493,
      "éģĩåĪ°": 4494,
      "åľ°ä½į": 4495,
      "è®²è§£": 4496,
      "è¯¢éĹ®": 4497,
      "å¦Īå¦Ī": 4498,
      "æ©": 4499,
      "åı¯æĮģç»Ń": 4500,
      "ople": 4501,
      "å¤įåį°ä»¶": 4502,
      "æŁ³": 4503,
      "æ¯ķä¸ļçĶŁ": 4504,
      "æłĩåĩĨåĮĸ": 4505,
      "éĢĤçĶ¨": 4506,
      "çĨĬ": 4507,
      "å¹¼åĦ¿åĽŃ": 4508,
      "ual": 4509,
      "å¥¹çļĦ": 4510,
      "å±ķå¼Ģ": 4511,
      "ä¸Ģå¤©": 4512,
      "æĭ¼": 4513,
      "Ġher": 4514,
      "çĽĪ": 4515,
      "irst": 4516,
      "éĺ²æŃ¢": 4517,
      "78": 4518,
      "è¡¨è¾¾": 4519,
      "å¥Ķ": 4520,
      "Ġno": 4521,
      "lud": 4522,
      "çļĦè®®æ¡Ī": 4523,
      "è§Ĥå¯Ł": 4524,
      "åĨľæĪ·": 4525,
      "ä¹ı": 4526,
      "Ġ11": 4527,
      "è¾ĥå¤§": 4528,
      "96": 4529,
      "æĸ°æĹ¶ä»£ä¸ŃåĽ½çī¹èī²ç¤¾ä¼ļä¸»ä¹īæĢĿæĥ³": 4530,
      "Ġä¸Ń": 4531,
      "è¡¨æ¼Ķ": 4532,
      "èĲ¥éĶĢ": 4533,
      "Ġits": 4534,
      "çŃīéĹ®é¢ĺ": 4535,
      "ç»Ħå»º": 4536,
      "å½ĵå¹´": 4537,
      "åĲĮæŃ¥": 4538,
      "éĢīä¸¾": 4539,
      "è®¤è¯ģ": 4540,
      "è¯ļä¿¡": 4541,
      "é¢Ĩå¯¼å¹²éĥ¨": 4542,
      "æ¬£": 4543,
      "ç¼ĺ": 4544,
      "fter": 4545,
      "je": 4546,
      "old": 4547,
      "è¡Ķæİ¥": 4548,
      "ä¹ĭéĹ´çļĦ": 4549,
      "è¥¿å®ī": 4550,
      "çĶµæ±ł": 4551,
      "èº«è¾¹": 4552,
      "çļĩ": 4553,
      "åıªè¦ģ": 4554,
      "èĻ«": 4555,
      "Ġadd": 4556,
      "ren": 4557,
      "èĢħçļĦ": 4558,
      "å°½ç®¡": 4559,
      "ä¹³": 4560,
      "åłµ": 4561,
      "ĠâĢĵ": 4562,
      "å®ª": 4563,
      "åŃĶ": 4564,
      "ç±»åŀĭ": 4565,
      "Ġuse": 4566,
      "é«ĺæĸ°åĮº": 4567,
      "ä»£è¡¨äºº": 4568,
      "åĢºåĬ¡": 4569,
      "äººç¾¤": 4570,
      "ices": 4571,
      "ä¹łè¿ĳå¹³æĸ°æĹ¶ä»£ä¸ŃåĽ½çī¹èī²ç¤¾ä¼ļä¸»ä¹īæĢĿæĥ³": 4572,
      "èĤĸ": 4573,
      "æĦŁè§ī": 4574,
      "è¿Ľåº¦": 4575,
      "æĽ¼": 4576,
      "éĤ»": 4577,
      "ä¸Ģè¡Į": 4578,
      "400": 4579,
      "èĥ¶": 4580,
      "æµ©": 4581,
      "éģĹäº§": 4582,
      "æ£Ģå¯ŁéĻ¢": 4583,
      "å¼ķèµ·": 4584,
      "çĿ£æŁ¥": 4585,
      "éĻ¶": 4586,
      "æľĪåºķ": 4587,
      "Ġbl": 4588,
      "åħ¬åħ±æľįåĬ¡": 4589,
      "çĽĳä¼ļ": 4590,
      "åİ¿çº§": 4591,
      "åľ£": 4592,
      "æľŁåĨħ": 4593,
      "èŃ¦æĸ¹": 4594,
      "åĪ©äºļ": 4595,
      "åħ¬å®īæľºåħ³": 4596,
      "åįģåħ«": 4597,
      "äº§ä¸ļåĽŃ": 4598,
      "å±¥èģĮ": 4599,
      "é¹ı": 4600,
      "æķ°æį®æĺ¾ç¤º": 4601,
      ").": 4602,
      "é¢ľ": 4603,
      "å®īç½®": 4604,
      "å¢ŀéĢŁ": 4605,
      "æľīäºĽ": 4606,
      "è¡¥åģ¿": 4607,
      "itt": 4608,
      "åĪĢ": 4609,
      "ä¸ĩäº©": 4610,
      "éŁ©åĽ½": 4611,
      "åħ¬ç§¯éĩĳ": 4612,
      "çĪ¶äº²": 4613,
      "ç©ºæ°Ķ": 4614,
      "æĢķ": 4615,
      "ä¸ĬäºĨ": 4616,
      "rent": 4617,
      "è¯ģåĪ¸äº¤æĺĵæīĢ": 4618,
      "æ¹ĺ": 4619,
      "æ²³åįĹ": 4620,
      "åĪĿæŃ¥": 4621,
      "Ġmost": 4622,
      "æĢģåº¦": 4623,
      "éĢĤåºĶ": 4624,
      "ä¸¥æł¼èĲ½å®ŀ": 4625,
      "æĸĩèīº": 4626,
      "æµ·æ´ĭ": 4627,
      "æĿĥåĪ©": 4628,
      "å·§": 4629,
      "æĢĿç»´": 4630,
      "æĮģæľī": 4631,
      "åĲĽ": 4632,
      "ç¬¬åħŃ": 4633,
      "èµĽäºĭ": 4634,
      "çĮ«": 4635,
      "é»Ħéĩĳ": 4636,
      "èµł": 4637,
      "åĴĮæľįåĬ¡": 4638,
      "ä¸įåĨį": 4639,
      "æŁ¥å¤Ħ": 4640,
      "åĿĿ": 4641,
      "æłĭ": 4642,
      "æĸĩåŃ¦": 4643,
      "ull": 4644,
      "æ°ĳæĶ¿": 4645,
      "æľ¬äºº": 4646,
      "2012": 4647,
      "æĩĤ": 4648,
      "éĺ²çĸ«": 4649,
      "èĩ³ä»Ĭ": 4650,
      "æľĢæĸ°": 4651,
      "Ġind": 4652,
      "å±±è¥¿": 4653,
      "68": 4654,
      "åıªèĥ½": 4655,
      "è¿Ĳä¼ļ": 4656,
      "äººåĬĽèµĦæºĲ": 4657,
      "æĸ°åħ´": 4658,
      "èµĶåģ¿": 4659,
      "æľªæĪĲ": 4660,
      "æŀĹä¸ļ": 4661,
      "æİĪäºĪ": 4662,
      "æĮĩå®ļ": 4663,
      "æĥħåĨµè¯´æĺİ": 4664,
      "å£°æĺİ": 4665,
      "åĨ³çŃĸéĥ¨ç½²": 4666,
      "åĪĨå±Ģ": 4667,
      "è¯Ħè®º": 4668,
      "æĬļ": 4669,
      "çĽĳæİ§": 4670,
      "vers": 4671,
      "çļĦåīį": 4672,
      "æıĲç¤º": 4673,
      "çī¹å®ļ": 4674,
      "ĠãĢĲ": 4675,
      "ä¼¯": 4676,
      "ram": 4677,
      "åĩºçĶŁ": 4678,
      "çŃīåľ°": 4679,
      "ä¾ĿçĦ¶": 4680,
      "è´§çī©": 4681,
      "ç¼´è´¹": 4682,
      "æł¸æŁ¥": 4683,
      "æĹ¥æľŁ": 4684,
      "è¯¸": 4685,
      "å·¥å§Ķ": 4686,
      "ä»ĸè¯´": 4687,
      "we": 4688,
      "Ġ[": 4689,
      "å¿§": 4690,
      "ç¢į": 4691,
      "åįłæ¯Ķ": 4692,
      "Ġå¸Ĥ": 4693,
      "éĻ·": 4694,
      "èĪĨ": 4695,
      "æĪªèĩ³çĽ®åīį": 4696,
      "å¯Ħ": 4697,
      "äºĭå®ľ": 4698,
      "åĩ¯": 4699,
      "åħ¨æĸ¹ä½į": 4700,
      "éĻ¢éķ¿": 4701,
      "ä¼ĳéĹ²": 4702,
      "Ġonly": 4703,
      "ä¹ĭå¤ĸ": 4704,
      "Ġpr": 4705,
      "æĶ¿åĬ¡æľįåĬ¡": 4706,
      "äººå·¥æĻºèĥ½": 4707,
      "ft": 4708,
      "å¢¨": 4709,
      "éļ¾ä»¥": 4710,
      "æļĹ": 4711,
      "å¹¿ä¸ľçľģ": 4712,
      "åĲĮæł·": 4713,
      "æ·®": 4714,
      "å°¤åħ¶æĺ¯": 4715,
      "æİ¨è¡Į": 4716,
      "å¸¦çĿĢ": 4717,
      "å£ģ": 4718,
      "åĬłå¿«æİ¨è¿Ľ": 4719,
      "æĬ¥ä»·": 4720,
      "æµĭè¯ķ": 4721,
      "è¸ı": 4722,
      "ious": 4723,
      "çļĦåŁºç¡Ģä¸Ĭ": 4724,
      "åĽŀæĶ¶": 4725,
      "å°ĺ": 4726,
      "æİĴåĲį": 4727,
      "å¤ļæķ°": 4728,
      "åĿļæĮģä»¥": 4729,
      "æıĲåĩºäºĨ": 4730,
      "03": 4731,
      "åĳ¨æľŁ": 4732,
      "è®¸åı¯è¯ģ": 4733,
      "çļĦæĹ¶éĹ´": 4734,
      "æĹ¶åĪ»": 4735,
      "Ġbec": 4736,
      "ä¼Ĺå¤ļ": 4737,
      "æĸ¹éĿ¢çļĦ": 4738,
      "å·¡æŁ¥": 4739,
      "ä¸Ĭçº§": 4740,
      "ĠHe": 4741,
      "04": 4742,
      "å¡ĺ": 4743,
      "åıĳåĩº": 4744,
      "Ġpeople": 4745,
      "èİ±": 4746,
      "Ġknow": 4747,
      "çĿ¡": 4748,
      "æ´»åĬ¨çļĦ": 4749,
      "è¡ĮæĶ¿å¤Ħç½ļ": 4750,
      "é¢Ĺ": 4751,
      "è¿Ŀæ³ķè¡Įä¸º": 4752,
      "æĶ¿æ³ķ": 4753,
      "é¾Ļå¤´": 4754,
      "çİ°æľī": 4755,
      "åĽŀåºĶ": 4756,
      "åħ±è®¡": 4757,
      "å»ºè®¾åĴĮ": 4758,
      "å®ŀåĬĽ": 4759,
      "åľ¨ä¸ŃåĽ½": 4760,
      "åĩºåıĳ": 4761,
      "å¥³æĢ§": 4762,
      "ç®Ģåįķ": 4763,
      "åĨĽäºĭ": 4764,
      "çĻ¾å¹´": 4765,
      "éĻĦè¿ĳ": 4766,
      "Ġthrough": 4767,
      "cts": 4768,
      "äº¦": 4769,
      "ise": 4770,
      "å¹¿æĴŃ": 4771,
      "å·¥ä½ľä¸Ń": 4772,
      "ä¸ľè¥¿": 4773,
      "å²³": 4774,
      "çªģåıĳ": 4775,
      "85": 4776,
      "Ġfl": 4777,
      "æ¤įçī©": 4778,
      "çļĦåİĨåı²": 4779,
      "url": 4780,
      "éĹ®é¢ĺçļĦ": 4781,
      "æĻ®éģį": 4782,
      "PP": 4783,
      "è¯¾åłĤ": 4784,
      "ä¸ĬåįĬå¹´": 4785,
      "ä¹łæĥ¯": 4786,
      "çł´åĿı": 4787,
      "ä¸ĵåĪ©": 4788,
      "çŃ¾ç½²": 4789,
      "ç¦ģæŃ¢": 4790,
      "èį·": 4791,
      "è¯Ńè¨Ģ": 4792,
      "æĸ°ä¸Ģ": 4793,
      "å¸¸åĬ¡": 4794,
      "ons": 4795,
      "å¾·åĽ½": 4796,
      "Ġ2022": 4797,
      "éĤ¦": 4798,
      "ates": 4799,
      "å¾®ä¼ģä¸ļ": 4800,
      "è¿ĺè¦ģ": 4801,
      "å°Ĩç»§ç»Ń": 4802,
      "æĪªæŃ¢æĹ¶éĹ´": 4803,
      "åħħçĶµ": 4804,
      "âĢĿï¼ī": 4805,
      "åħ¬äº¤": 4806,
      "æ³ķå®ļä»£è¡¨äºº": 4807,
      "èįīåİŁ": 4808,
      "Ġbu": 4809,
      "æŃ£æĺ¯": 4810,
      "æµ®": 4811,
      "æĪĺæĸĹ": 4812,
      "ç¾¤ä¼ĹçļĦ": 4813,
      "ink": 4814,
      "ä¸Ģä¸ĭ": 4815,
      "åĮĸåŃ¦": 4816,
      "åĽ¾çīĩ": 4817,
      "ian": 4818,
      "å¤§éĺŁ": 4819,
      "äº§éĩı": 4820,
      "ç¤ºèĮĥåĮº": 4821,
      "çĥŃæĥħ": 4822,
      "Ðł": 4823,
      "åĭĺ": 4824,
      "æĻ®åıĬ": 4825,
      "å»īæĶ¿": 4826,
      "les": 4827,
      "æ£ļ": 4828,
      "åįıåĬ©": 4829,
      "ä¿Ĭ": 4830,
      "Ġwell": 4831,
      "Ġcons": 4832,
      "éĽķ": 4833,
      "æľŁå¾ħ": 4834,
      "çīĩåĮº": 4835,
      "Ġwant": 4836,
      "Ġè®°èĢħ": 4837,
      "è°±": 4838,
      "ç»ª": 4839,
      "åħ¨è¦ĨçĽĸ": 4840,
      "tern": 4841,
      "æĭĽçĶŁ": 4842,
      "åģļæ³ķ": 4843,
      "Ġ2021": 4844,
      "æ¢³": 4845,
      "æĮĸæİĺ": 4846,
      "å¹´ä»£": 4847,
      "æ°ĳäºĭ": 4848,
      "æ°ĶåĢĻ": 4849,
      "ä¿®æĶ¹": 4850,
      "æĹģ": 4851,
      "åĳĬçŁ¥": 4852,
      "41": 4853,
      "æĪĲå°±": 4854,
      "åĲĪåĬĽ": 4855,
      "Ġem": 4856,
      "è´§å¸ģ": 4857,
      "åĲĪè®¡": 4858,
      "æī°": 4859,
      "å°ĸ": 4860,
      "Ġinclud": 4861,
      "çļĦä¸į": 4862,
      "éĺŁåĳĺ": 4863,
      "ool": 4864,
      "æľ¬éĻ¢": 4865,
      "round": 4866,
      "åıĸæ¶Ī": 4867,
      "åĩºå¸Ńä¼ļè®®": 4868,
      "æľĢä½İ": 4869,
      "äºĳåįĹ": 4870,
      "åħ¬åĬ¡çĶ¨è½¦": 4871,
      "å¢ŀæĶ¶": 4872,
      "èĪ°": 4873,
      "æ¸ħæ´ģ": 4874,
      "Ġ12": 4875,
      "æŁ¥çľĭ": 4876,
      "çķľ": 4877,
      "ä»ĬåĲİ": 4878,
      "äººç¤¾": 4879,
      "åİī": 4880,
      "èµĦæł¼è¦ģæ±Ĥ": 4881,
      "æĶ¯éĺŁ": 4882,
      "æĪĳå±Ģ": 4883,
      "å®ŀä½ĵ": 4884,
      "åĨłåĨĽ": 4885,
      "02": 4886,
      "57": 4887,
      "ä¸¤åĽ½": 4888,
      "éĢīæīĭ": 4889,
      "Ġunder": 4890,
      "67": 4891,
      "Ġprodu": 4892,
      "æ¾³å¤§": 4893,
      "ï¼ŁâĢĿ": 4894,
      "éĢļä¿¡": 4895,
      "å°Ŀ": 4896,
      "æ±¤": 4897,
      "èĥľåĪ©": 4898,
      "å®ŀéªĮå®¤": 4899,
      "Ġtw": 4900,
      "åŃ¦ç§ĳ": 4901,
      "èĩ³å°ĳ": 4902,
      "æĤŁ": 4903,
      "éĤĵ": 4904,
      "æī¾åĪ°": 4905,
      "ä»įçĦ¶": 4906,
      "åıĬä»¥ä¸Ĭ": 4907,
      "åħħæ»¡": 4908,
      "å¿«éĢĴ": 4909,
      "åīįæľŁ": 4910,
      "è§£è¯»": 4911,
      "éĢĢå½¹åĨĽäºº": 4912,
      "éĺĶ": 4913,
      "Ġbet": 4914,
      "èİ²": 4915,
      "ä¸įæĸŃæıĲåįĩ": 4916,
      "å¤ļæł·": 4917,
      "éĺ³åħī": 4918,
      "çĶ·åŃĲ": 4919,
      "åĨĴ": 4920,
      "æĽ¹": 4921,
      "è®©äºº": 4922,
      "çºªæ£Ģ": 4923,
      "éĢģè¾¾": 4924,
      "åį³å°Ĩ": 4925,
      "ä¸ºä»Ģä¹Ī": 4926,
      "å±ķè§Ī": 4927,
      "ä¸¤å¹´": 4928,
      "ily": 4929,
      "èµĭèĥ½": 4930,
      "ä¸¤å²¸": 4931,
      "amp": 4932,
      "æİ¥è§¦": 4933,
      "Ġthese": 4934,
      "ä¹Ļ": 4935,
      "äººçī©": 4936,
      "ä¹Łåľ¨": 4937,
      "åĩłä¹İ": 4938,
      "åĪĳäºĭ": 4939,
      "hen": 4940,
      "æįŁå®³": 4941,
      "å«Įçĸĳäºº": 4942,
      "hed": 4943,
      "ç¯®": 4944,
      "æľīçĿĢ": 4945,
      "æ³ķåĽ½": 4946,
      "éªĳ": 4947,
      "è¿İæĿ¥": 4948,
      "52": 4949,
      "ä¸Ńæłĩ": 4950,
      "çĦ¶åĲİ": 4951,
      "äºĨè§£åĪ°": 4952,
      "çĽĳäºĭä¼ļ": 4953,
      "ä¸Ģç³»åĪĹ": 4954,
      "æĭľ": 4955,
      "çĻĮ": 4956,
      "æħĪ": 4957,
      "çĭ¬çī¹": 4958,
      "Ġ2023": 4959,
      "Ġæľ¬æ¬¡": 4960,
      "åĮħè£ħ": 4961,
      "èĪ¹èĪ": 4962,
      "éĢĥ": 4963,
      "å¼Ģå¹ķ": 4964,
      "èģĶåĲĪä½ĵ": 4965,
      "åįģåĽĽäºĶ": 4966,
      "æĹħå®¢": 4967,
      "ĠåħŃ": 4968,
      "è§Ĵåº¦": 4969,
      "éĦ": 4970,
      "çŃīçº§": 4971,
      "å®¶çļĦ": 4972,
      "æł¸éħ¸æ£Ģæµĭ": 4973,
      "end": 4974,
      "ä¸Ĭæµ·å¸Ĥ": 4975,
      "çĩĥæ°Ķ": 4976,
      "äºĭåĬ¡æīĢ": 4977,
      "çļĦåİŁåĪĻ": 4978,
      "ç¡®è¯Ĭ": 4979,
      "åĲĦæĸ¹": 4980,
      "éĿŀéģĹ": 4981,
      "ä¼Ļä¼´": 4982,
      "çĲĨæĥ³": 4983,
      "æµģåŁŁ": 4984,
      "åĲĦä¸ª": 4985,
      "æŁĲæŁĲ": 4986,
      "èĪªå¤©": 4987,
      "æĬ±": 4988,
      "ç½©": 4989,
      "çĵ¶": 4990,
      "ä½©": 4991,
      "çĶ¨æ°´": 4992,
      "Ġback": 4993,
      "ç£ĭ": 4994,
      "ä»²": 4995,
      "çĤ¸": 4996,
      "çĽ¸åħ³è´Łè´£äºº": 4997,
      "ä¸»é¢ĺæķĻèĤ²": 4998,
      "èĪ¹èĪ¶": 4999,
      "é¾Ļæ±Ł": 5000,
      "ments": 5001,
      "åĩī": 5002,
      "å¹´é¾Ħ": 5003,
      "çº¿ç´¢": 5004,
      "ause": 5005,
      "åĪĨä¸º": 5006,
      "æĶ¾åľ¨": 5007,
      "çŁŃæĿ¿": 5008,
      "åĲĮä¸Ģ": 5009,
      "èĬ¯": 5010,
      "çĵľ": 5011,
      "cess": 5012,
      "åıĤèĢĥ": 5013,
      "59": 5014,
      "éħįå¤ĩ": 5015,
      "ä¸īå¤§": 5016,
      "Ġdif": 5017,
      "è¢ĭ": 5018,
      "çĪ·": 5019,
      "æĸ°åĨłèĤºçĤİ": 5020,
      "éĿ¢çļĦ": 5021,
      "éĶ¡": 5022,
      "æĽ´å¥½åľ°": 5023,
      "li": 5024,
      "èĬ³": 5025,
      "æĻºèĥ½åĮĸ": 5026,
      "å°½å¿«": 5027,
      "ific": 5028,
      "èĻļåģĩ": 5029,
      "Ġsee": 5030,
      "äº§åĵģçļĦ": 5031,
      "ç¤¾ä¼ļä¿Ŀéļľ": 5032,
      "æ¶Ľ": 5033,
      "Ġfirst": 5034,
      "ä¸»ä½ĵè´£ä»»": 5035,
      "bs": 5036,
      "ä¸įè¶ħè¿ĩ": 5037,
      "åīĳ": 5038,
      "åĮ»çĸĹæľºæŀĦ": 5039,
      "ä¸įåŃĺåľ¨": 5040,
      "ä¸»è¦ģæĺ¯": 5041,
      "çķħéĢļ": 5042,
      "å¤§éģĵ": 5043,
      "ï¼īï¼ļ": 5044,
      "åĦ¿åŃĲ": 5045,
      "è¿½æ±Ĥ": 5046,
      "ä¸ľåĮĹ": 5047,
      "åį±æľº": 5048,
      "æĢ§èĥ½": 5049,
      "iew": 5050,
      "åıĳåĬĽ": 5051,
      "æĽ´å¤§": 5052,
      "åĨħèĴĻåı¤": 5053,
      "æĶ¯åĩºåĨ³ç®Ĺ": 5054,
      "æ¢³çĲĨ": 5055,
      "èī¾": 5056,
      "5000": 5057,
      "æħ°éĹ®": 5058,
      "ä¸ŃåĮ»èį¯": 5059,
      "Ġevery": 5060,
      "ä¸Ģåľº": 5061,
      "å¤§å±Ģ": 5062,
      "ating": 5063,
      "èĬĤæĹ¥": 5064,
      "iness": 5065,
      "æĹ¥æĻļ": 5066,
      "Ġra": 5067,
      "åĩºç§Ł": 5068,
      "ä¿Ŀè¯ģéĩĳ": 5069,
      "æµģéĩı": 5070,
      "å°ĳæķ°": 5071,
      "åłĨ": 5072,
      "ç´«": 5073,
      "è¾¾æĪĲ": 5074,
      "äºĨä¸Ģä¸ª": 5075,
      "çĶŁåĬ¨": 5076,
      "æľºåĬ¨": 5077,
      "å¼ºçļĦ": 5078,
      "éĽĨç¾¤": 5079,
      "æ´»åĬ¨ä¸Ń": 5080,
      "èħ¹": 5081,
      "å¹¶å¯¹": 5082,
      "åħģ": 5083,
      "Ġvery": 5084,
      "éĿĴæĺ¥": 5085,
      "æ¯įäº²": 5086,
      "æ·Ģ": 5087,
      "éĤ£äºĽ": 5088,
      "åį°åº¦": 5089,
      "å·¥åİĤ": 5090,
      "å¾®åįļ": 5091,
      "å»Ĭ": 5092,
      "åĽ¾ä¹¦": 5093,
      "Ġreg": 5094,
      "ä¼łç»ŁæĸĩåĮĸ": 5095,
      "æ¬ł": 5096,
      "ä¾¦": 5097,
      "é«ĺæłĩåĩĨ": 5098,
      "èĢĮè¨Ģ": 5099,
      "å¸¦å¤´": 5100,
      "æĪĴ": 5101,
      "å¯º": 5102,
      "æ°ĳéĹ´": 5103,
      "æ°´åºĵ": 5104,
      "äººåĳĺçļĦ": 5105,
      "é¦¨": 5106,
      "ç«łç¨ĭ": 5107,
      "æĹ±": 5108,
      "ç´§å¯Ĩ": 5109,
      "åĶ¯ä¸Ģ": 5110,
      "è´º": 5111,
      "çĪ¸": 5112,
      "åºķçº¿": 5113,
      "çŃīéĩįçĤ¹": 5114,
      "å·¥ä½ľä¼ļè®®": 5115,
      "çļĦç²¾ç¥ŀ": 5116,
      "è°ĪåĪ¤": 5117,
      "ä¹Łä¼ļ": 5118,
      "èµ°åĩº": 5119,
      "ç£ĭåķĨ": 5120,
      "å¼Ĥè®®": 5121,
      "å¤ļå¹´": 5122,
      "ful": 5123,
      "Ġ2020": 5124,
      "Th": 5125,
      "ä¸ľæĸ¹": 5126,
      "å¤ĸäº¤": 5127,
      "ä»£çłģ": 5128,
      "åľ¨äºİ": 5129,
      "æīĵå¼Ģ": 5130,
      "åıĳåĬ¨": 5131,
      "ç£¨": 5132,
      "å°Ĩäºİ": 5133,
      "è¯ĦéĢī": 5134,
      "è®²è¿°": 5135,
      "åħ¨ç¨ĭ": 5136,
      "ç»Ħéķ¿": 5137,
      "ĠYou": 5138,
      "ä½ĵæ£Ģ": 5139,
      "ä¿Ŀåģ¥": 5140,
      "ä»İä¸ļ": 5141,
      "Ġç¬¬äºĮ": 5142,
      "çĪ±å¿ĥ": 5143,
      "æľ¬åľ°": 5144,
      "Ġsy": 5145,
      "Ġinv": 5146,
      "æļĳ": 5147,
      "å¾ģæĶ¶": 5148,
      "åĮºæĶ¿åºľ": 5149,
      "åĲīæŀĹ": 5150,
      "76": 5151,
      "ert": 5152,
      "row": 5153,
      "æĶ¹è¿Ľ": 5154,
      "æ¼Ķåĳĺ": 5155,
      "ict": 5156,
      "cial": 5157,
      "ife": 5158,
      "Ġexper": 5159,
      "51": 5160,
      "xt": 5161,
      "é£İæł¼": 5162,
      "ä¸ºåĩĨ": 5163,
      "å¯ĨéĽĨ": 5164,
      "æĮĩæĮ¥éĥ¨": 5165,
      "è®¤åı¯": 5166,
      "çĶĺèĤĥ": 5167,
      "è£ķ": 5168,
      "ä½İç¢³": 5169,
      "æľįåĬ¡çļĦ": 5170,
      "çŃīçĽ¸åħ³": 5171,
      "Ġgood": 5172,
      "å¾Ĵ": 5173,
      "è·¯çº¿": 5174,
      "æĮĩå¼ķ": 5175,
      "çļĦè¯Ŀ": 5176,
      "èģĬ": 5177,
      "ade": 5178,
      "æı´åĬ©": 5179,
      "çļĦçĶŁæ´»": 5180,
      "ç»ıåħ¸": 5181,
      "ç»ĵç®Ĺ": 5182,
      "ible": 5183,
      "æľīåĪ©äºİ": 5184,
      "æĥ©": 5185,
      "æ¶Ĥ": 5186,
      "è§£æĶ¾": 5187,
      "æĪĺäºī": 5188,
      "éģĵå¾·": 5189,
      "æĹ¥åĨħ": 5190,
      "æĢ»æĬķèµĦ": 5191,
      "è½½ä½ĵ": 5192,
      "åģļåĩº": 5193,
      "èµĸ": 5194,
      "åĸ·": 5195,
      "ç®¡éģĵ": 5196,
      "ç§ĺä¹¦éķ¿": 5197,
      "éĶ»": 5198,
      "lect": 5199,
      "æŁľ": 5200,
      "éĺ²æ±Ľ": 5201,
      "éĥ½åľ¨": 5202,
      "æħİ": 5203,
      "Ġcol": 5204,
      "äºĮçº§": 5205,
      "Ġact": 5206,
      "çĻ»å½ķ": 5207,
      "é«ĺæ°´å¹³": 5208,
      "èī³": 5209,
      "åī¯å±Ģéķ¿": 5210,
      "3000": 5211,
      "Ġå¹´": 5212,
      "ities": 5213,
      "éĩĳèŀįæľºæŀĦ": 5214,
      "è¦ģåĬłå¼º": 5215,
      "èı²": 5216,
      "åĽĽå·Ŀçľģ": 5217,
      "åī²": 5218,
      "Ġæį®äºĨè§£": 5219,
      "ä»£çĲĨæľºæŀĦ": 5220,
      "sel": 5221,
      "è¯ģçĽĳä¼ļ": 5222,
      "ĠæĿİ": 5223,
      "çİĩåħĪ": 5224,
      "çĶŁæĢģæĸĩæĺİ": 5225,
      "çĩķ": 5226,
      "åıĳå¸ĥçļĦ": 5227,
      "å·¡å¯Ł": 5228,
      "Ġbus": 5229,
      "çķª": 5230,
      "æĢ»éĩı": 5231,
      "ä»Ļ": 5232,
      "ä¸ºæł¸å¿ĥ": 5233,
      "åĲİæĿ¥": 5234,
      "ä¸īè§Ĵ": 5235,
      "èŃ¦ç¤º": 5236,
      "è¡ĮçļĦ": 5237,
      "è¾©": 5238,
      "åĸĿ": 5239,
      "æıĲåĩºçļĦ": 5240,
      "æĿ¿åĿĹ": 5241,
      "èĩªä¿¡": 5242,
      "æĸĹäºī": 5243,
      "%ãĢģ": 5244,
      "å®īåħ¨éļĲæĤ£": 5245,
      "å¾Ģå¾Ģ": 5246,
      "600": 5247,
      "æķĪåºĶ": 5248,
      "æ´¾åĩºæīĢ": 5249,
      "åįģäºĶ": 5250,
      "è´Łè´£åĲĮå¿Ĺ": 5251,
      "æ¸©æļĸ": 5252,
      "èĬĤçº¦": 5253,
      "è½¬è®©": 5254,
      "ç´§æĢ¥": 5255,
      "å¤§åŃ¦çĶŁ": 5256,
      "ä¸ºä¸»é¢ĺ": 5257,
      "ä¸ĵçĶ¨": 5258,
      "å®¡çĲĨ": 5259,
      "æ¢¦æĥ³": 5260,
      "é©±åĬ¨": 5261,
      "èĪŀåı°": 5262,
      "éģµå®Ī": 5263,
      "åķĬ": 5264,
      "è·¯å¾Ħ": 5265,
      "æľīæķĪçļĦ": 5266,
      "æıĲæ¡Ī": 5267,
      "éī´å®ļ": 5268,
      "Ġmany": 5269,
      "77": 5270,
      "ä¸Ģçº§": 5271,
      "ä¼ļåľ¨": 5272,
      "çĭ¬ç«ĭèĳ£äºĭ": 5273,
      "ange": 5274,
      "æĻ®æ³ķ": 5275,
      "çļĦå¥½": 5276,
      "54": 5277,
      "åī©": 5278,
      "éĢłåŀĭ": 5279,
      "è½¬æį¢": 5280,
      "ç¤¾ä¿Ŀ": 5281,
      "å¢ĥå¤ĸ": 5282,
      "oth": 5283,
      "é«ĺéĵģ": 5284,
      "éĽĨèģļ": 5285,
      "çĽ¯": 5286,
      "å¥ı": 5287,
      "æĢ§èĤ¡ç¥¨": 5288,
      "æī§çħ§": 5289,
      "å¯¨": 5290,
      "é¸£": 5291,
      "aw": 5292,
      "å·¡è§Ĩ": 5293,
      "ç§Ĵ": 5294,
      "è¶ħå¸Ĥ": 5295,
      "éĩĳå±ŀ": 5296,
      "åŃĲåħ¬åı¸": 5297,
      "æĸĩåĮĸåĴĮ": 5298,
      "Ġrep": 5299,
      "çĶŁäº§ç»ıèĲ¥": 5300,
      "ä¸´åºĬ": 5301,
      "å»¶ä¼¸": 5302,
      "åıĳçĶµ": 5303,
      "çĽ¸å½ĵ": 5304,
      "çłĶè®¨": 5305,
      "æĬ¤çĲĨ": 5306,
      "åİķ": 5307,
      "æŁ±": 5308,
      "æĹº": 5309,
      "åŁºåĽł": 5310,
      "ä¸įåĲĮçļĦ": 5311,
      "æıĲä¾ĽçļĦ": 5312,
      "åŃ¦æľ¯": 5313,
      "æĦıåĳ³": 5314,
      "æĢģåĬ¿": 5315,
      "èģĶç³»æĸ¹å¼ı": 5316,
      "Ġsupp": 5317,
      "åħ¨è¿ĩç¨ĭ": 5318,
      "Ġshe": 5319,
      "æłĩçļĦ": 5320,
      "day": 5321,
      "å·¥ä½ľèĢħ": 5322,
      "å¹³ç¨³": 5323,
      "èĢģå¹´": 5324,
      "æľīéĻĲè´£ä»»": 5325,
      "å·¥äºº": 5326,
      "èį£èªī": 5327,
      "Ġway": 5328,
      "ä¸ĩä½Ļ": 5329,
      "enc": 5330,
      "è¯¥åħ¬åı¸": 5331,
      "oss": 5332,
      "åıĳæĶ¹": 5333,
      "åį±å®³": 5334,
      "æ¡Ĩ": 5335,
      "è§Ĥçľĭ": 5336,
      "çļĦæĥħåĨµä¸ĭ": 5337,
      "åģ¶": 5338,
      "æŁĶ": 5339,
      "æĻ¶": 5340,
      "è´¨çĸĳ": 5341,
      "Ġdown": 5342,
      "äºļæ´²": 5343,
      "mer": 5344,
      "åľ°ä¸ĭ": 5345,
      "ä½ıå®ħ": 5346,
      "ä»Ĭå¹´ä»¥æĿ¥": 5347,
      "ãĢĤãĢĬ": 5348,
      "è¥¿èĹı": 5349,
      "Ġçİĭ": 5350,
      "å¸ĤåĮº": 5351,
      "å¾¡": 5352,
      "Ġcould": 5353,
      "ç«ĭæ³ķ": 5354,
      "å±ĢéĿ¢": 5355,
      "Ġgreat": 5356,
      "ç«ŀäºīåĬĽ": 5357,
      "èĢķåľ°": 5358,
      "æĸĮ": 5359,
      "å¤§éĻĨ": 5360,
      "åĮĸå·¥": 5361,
      "é¢ĨåħĪ": 5362,
      "ä¸ĢçĤ¹": 5363,
      "åł¡": 5364,
      "åĵªäºĽ": 5365,
      "ys": 5366,
      "çļĦä¸Ģä¸ª": 5367,
      "æŀ¢": 5368,
      "ä¼łè¾¾": 5369,
      "æĤ¦": 5370,
      "'t": 5371,
      "Ġinst": 5372,
      "86": 5373,
      "æ¡Į": 5374,
      "çĲĨè´¢": 5375,
      "åĽ½éĺ²": 5376,
      "ç¤¾äº¤": 5377,
      "å±Ģåħļç»Ħ": 5378,
      "ç¢ĳ": 5379,
      "è¿Ł": 5380,
      "åĨħæ¶µ": 5381,
      "ics": 5382,
      "å¥³åĦ¿": 5383,
      "çŃĽ": 5384,
      "ç»Ĩèĥŀ": 5385,
      "èģļéĽĨ": 5386,
      "èĭıå·ŀ": 5387,
      "æ»´": 5388,
      "53": 5389,
      "è¾½å®ģ": 5390,
      "ç¬¬ä¸Ģä¸ª": 5391,
      "åįģä¸Ģ": 5392,
      "æĽ¾ç»ı": 5393,
      "æľªæĪĲå¹´äºº": 5394,
      "æĪĲçĨŁ": 5395,
      "æ°ĳä¼Ĺ": 5396,
      "èĪŁ": 5397,
      "èĲ¥åħ»": 5398,
      "æİ¥åĪ°": 5399,
      "åıĤèµĽ": 5400,
      "å®ŀæķĪ": 5401,
      "æłĩé¢ĺ": 5402,
      "fore": 5403,
      "åıįåºĶ": 5404,
      "çŃīæĥħåĨµ": 5405,
      "åı¸æľº": 5406,
      "åĩłä¸ª": 5407,
      "è¢Ń": 5408,
      "ç¬¬ä¸ĢæĹ¶éĹ´": 5409,
      "æĸ°åįİç¤¾": 5410,
      "æľīéĻĲè´£ä»»åħ¬åı¸": 5411,
      "è¦ģåĿļæĮģ": 5412,
      "çĪ±åĽ½": 5413,
      "ç«ŀèµĽ": 5414,
      "å¤įåħ´": 5415,
      "æ¶īå«Į": 5416,
      "uch": 5417,
      "æıĴ": 5418,
      "2011": 5419,
      "åĪĨç®¡": 5420,
      "å¤ļå®¶": 5421,
      "å½Ń": 5422,
      "å¼Ģå±ķäºĨ": 5423,
      "éĻĲåĪ¶æĢ§èĤ¡ç¥¨": 5424,
      "åĨħå¤ĸ": 5425,
      "ility": 5426,
      "ç²¾å¿ĥ": 5427,
      "æ¶ĪéĻ¤": 5428,
      "åľ°è´¨": 5429,
      "æıĲè´¨": 5430,
      "èģĮåĬ¡": 5431,
      "æī¿åĬŀ": 5432,
      "éĩįè¦ģè®²è¯Ŀ": 5433,
      "å·¨å¤§": 5434,
      "å¤§ä¼Ĺ": 5435,
      "Ġown": 5436,
      "æĮīè§Ħå®ļ": 5437,
      "å¼ĢéĢļ": 5438,
      "å¼ºåĪ¶": 5439,
      "åĪ©æģ¯": 5440,
      "åĵĪå°Ķ": 5441,
      "åĽ½æ°ĳ": 5442,
      "å½¢æĢģ": 5443,
      "éĢĴäº¤": 5444,
      "éķ¿æ²Ļ": 5445,
      "åĬ©æİ¨": 5446,
      "åģĩæĹ¥": 5447,
      "å·²æľī": 5448,
      "ç¬¬ä¸ĥ": 5449,
      "åŁºæľ¬æĥħåĨµ": 5450,
      "Ġshould": 5451,
      "fect": 5452,
      "å±±ä¸ľçľģ": 5453,
      "Ġsm": 5454,
      "Ġtwo": 5455,
      "éĶħ": 5456,
      "æ±¡æŁĵéĺ²æ²»": 5457,
      "çļĦä¸»": 5458,
      "åĮ¹": 5459,
      "æ±Ĺ": 5460,
      "äºŃ": 5461,
      "72": 5462,
      "In": 5463,
      "Ġthen": 5464,
      "èĭ¹": 5465,
      "åĬĽäºī": 5466,
      "çİ°å°Ĩ": 5467,
      "å°±èĥ½": 5468,
      "ç¥ĸåĽ½": 5469,
      "æĬĵæīĭ": 5470,
      "åįļå£«": 5471,
      "Ġass": 5472,
      "å½¢æĪĲäºĨ": 5473,
      "éĢıéľ²": 5474,
      "åĪĨåħ¬åı¸": 5475,
      "å©´": 5476,
      "åħļå§Ķä¹¦è®°": 5477,
      "Ġå¼ł": 5478,
      "ç»ĦåĲĪ": 5479,
      "ç²¾åĵģ": 5480,
      "Ġstart": 5481,
      "è¶³çĲĥ": 5482,
      "ä¸įèī¯": 5483,
      "æī¿åĮħ": 5484,
      "äººå¤§ä»£è¡¨": 5485,
      "Ġke": 5486,
      "æµģéĢļ": 5487,
      "æĺ¯ä¸Ģç§į": 5488,
      "æ¸©åº¦": 5489,
      "å§Ĩ": 5490,
      "ä¸ĵé¡¹è¡ĮåĬ¨": 5491,
      "å¾Īå¤§": 5492,
      "åº·å¤į": 5493,
      "å®¶äºº": 5494,
      "Ġeven": 5495,
      "iss": 5496,
      "éĹ¨åı£": 5497,
      "çī¹å¾ģ": 5498,
      "è¿ĺå°Ĩ": 5499,
      "formation": 5500,
      "ç®¡çĲĨçļĦ": 5501,
      "åİŁä»¶": 5502,
      "èĨľ": 5503,
      "get": 5504,
      "ä¸ĢåĪĩ": 5505,
      "çľĭæĿ¥": 5506,
      "ä¾ĽåºĶéĵ¾": 5507,
      "çİĽ": 5508,
      "Ġ19": 5509,
      "ç§ĳæĬĢæľīéĻĲåħ¬åı¸": 5510,
      "å°ļæľª": 5511,
      "æ¹¿åľ°": 5512,
      "Ġ20": 5513,
      "çĤī": 5514,
      "å½ĵçĦ¶": 5515,
      "åİĭå®ŀ": 5516,
      "èĲ¥ä¸ļæī§çħ§": 5517,
      "oll": 5518,
      "ï¼ħ": 5519,
      "çļĦæľįåĬ¡": 5520,
      "æĢĿèĢĥ": 5521,
      "åİŁåĽłæĺ¯": 5522,
      "æĢ»æķ°": 5523,
      "å¾ģç¨ĭ": 5524,
      "çļĦåľ°æĸ¹": 5525,
      "å¯¹æĸ¹": 5526,
      "åŁĥ": 5527,
      "éĢĶå¾Ħ": 5528,
      "çļĦåħ³éĶ®": 5529,
      "åħ¬æ°ĳ": 5530,
      "éĺ²çģ«": 5531,
      "åľºåľ°": 5532,
      "urn": 5533,
      "ĠæŃ¤å¤ĸ": 5534,
      "éĢ»": 5535,
      "ä½ľèĢħ": 5536,
      "çļĦä¸ŃåĽ½": 5537,
      "æŀĿ": 5538,
      "èİ·æĤī": 5539,
      "ased": 5540,
      "å·®å¼Ĥ": 5541,
      "å®ªæ³ķ": 5542,
      "èĭ¹æŀľ": 5543,
      "ä¸ļæĢģ": 5544,
      "ä¿¡æģ¯åħ¬å¼Ģ": 5545,
      "2010": 5546,
      "æ¯ģ": 5547,
      "æĢ»å±Ģ": 5548,
      "åįģå¹´": 5549,
      "ä¼ļåĳĺ": 5550,
      "äº§åĢ¼": 5551,
      "ä¸ļä¸»": 5552,
      "åĪĨå·¥": 5553,
      "any": 5554,
      "åĲĪæ³ķæĿĥçĽĬ": 5555,
      "åĨľçĶ°": 5556,
      "éĩĬæĶ¾": 5557,
      "è¦ģåľ¨": 5558,
      "æ¶Į": 5559,
      "æ·±åħ¥å¼Ģå±ķ": 5560,
      "ä¸ºæ°ĳ": 5561,
      "ä¸Ģä»½": 5562,
      "æľ¬åħ¬åĳĬ": 5563,
      "ç½ļæ¬¾": 5564,
      "64": 5565,
      "rit": 5566,
      "å¥ĳæľº": 5567,
      "åĲĦåĽ½": 5568,
      "èĬĤçĤ¹": 5569,
      "åĭĥ": 5570,
      "å¾ģæ±Ĥ": 5571,
      "ular": 5572,
      "åıĸå¾ĹäºĨ": 5573,
      "æĭĸ": 5574,
      "é«ĺä¸Ń": 5575,
      "AI": 5576,
      "æĸ°åıĳå±ķ": 5577,
      "Ġbest": 5578,
      "åĽ½å®¶åĴĮ": 5579,
      "å¼ķèµĦ": 5580,
      "å¸ĪçĶŁ": 5581,
      "Ġyears": 5582,
      "erson": 5583,
      "è·Łè¸ª": 5584,
      "äº§èĥ½": 5585,
      "åĿª": 5586,
      "åħļåĴĮ": 5587,
      "å¹³è¡¡": 5588,
      "çŁ³æ²¹": 5589,
      "ures": 5590,
      "æĹĭ": 5591,
      "å¸Ĥåľºä¸»ä½ĵ": 5592,
      "åħĪè¡Į": 5593,
      "ç§ĳå®¤": 5594,
      "æºĲå¤´": 5595,
      "åħĳ": 5596,
      "Ġrem": 5597,
      "è®¢åįķ": 5598,
      "èĭ±éĽĦ": 5599,
      "92": 5600,
      "åĪĨåŃĲ": 5601,
      "æ»ļ": 5602,
      "âĢĿï¼ĮâĢľ": 5603,
      "å¤§éĥ¨åĪĨ": 5604,
      "ĠRe": 5605,
      "éŃĤ": 5606,
      "æ°ı": 5607,
      "è¦ģæĬĬ": 5608,
      "åĲİç»Ń": 5609,
      "èĳĹåĲį": 5610,
      "Ġï¼Į": 5611,
      "Ġafter": 5612,
      "è¿Ľç¨ĭ": 5613,
      "ä¸īçº§": 5614,
      "æĻ°": 5615,
      "éĩĩè´Ńé¡¹çĽ®": 5616,
      "stem": 5617,
      "å¸¦æĿ¥çļĦ": 5618,
      "åľ¨åħ¨åĽ½": 5619,
      "å¤§æ°Ķ": 5620,
      "åį¢": 5621,
      "åĢŁæ¬¾": 5622,
      "ont": 5623,
      "åŃĲå¥³": 5624,
      "æĹħè¡Į": 5625,
      "ä½ĵç³»å»ºè®¾": 5626,
      "120": 5627,
      "åīª": 5628,
      "åħ±åĲĮä½ĵ": 5629,
      "è¯īæ±Ĥ": 5630,
      "olog": 5631,
      "å»ºç«ĭåģ¥åħ¨": 5632,
      "æ¼Ķç»ĥ": 5633,
      "è´¢å¯Į": 5634,
      "93": 5635,
      "æĦŁåĪ°": 5636,
      "æ°Ķæ¸©": 5637,
      "èħĲè´¥": 5638,
      "å°Ĭéĩį": 5639,
      "ss": 5640,
      "æķĮ": 5641,
      "å¼ºå¤§": 5642,
      "æ·±åħ¥æİ¨è¿Ľ": 5643,
      "åıĳå¸ĥä¼ļ": 5644,
      "æ¿ĢåĬ±è®¡åĪĴ": 5645,
      "ä¾¿æį·": 5646,
      "èŀįåĲĪåıĳå±ķ": 5647,
      "Ġwhere": 5648,
      "åĪĽæĦı": 5649,
      "Ġdec": 5650,
      "Ġfin": 5651,
      "åĲķ": 5652,
      "è¿ĺåľ¨": 5653,
      "å¤¯": 5654,
      "ä¹ĥ": 5655,
      "åĨ³è®®": 5656,
      "æĳĩ": 5657,
      "velop": 5658,
      "åİ¦éĹ¨": 5659,
      "ew": 5660,
      "äººåĿĩ": 5661,
      "å£®å¤§": 5662,
      "ting": 5663,
      "å¹´ä»¥æĿ¥": 5664,
      "æ²ª": 5665,
      "è¯·æ±Ĥ": 5666,
      "åįĵ": 5667,
      "äºİæĺ¯": 5668,
      "å¤įå·¥": 5669,
      "èĵĦ": 5670,
      "ä¸°å¯ĮçļĦ": 5671,
      "æľºåĻ¨äºº": 5672,
      "èµ·äºĨ": 5673,
      "æ»©": 5674,
      "è§ĦèĮĥåĮĸ": 5675,
      "æľĢä½³": 5676,
      "è£Ĥ": 5677,
      "åľ¨æŃ¤": 5678,
      "150": 5679,
      "çļĦé¡¹çĽ®": 5680,
      "åĪĨå¸ĥ": 5681,
      "ä¼Ĳ": 5682,
      "æĸĩåĮĸéģĹäº§": 5683,
      "ä»¿": 5684,
      "Ġfind": 5685,
      "åľ°åĮºçļĦ": 5686,
      "als": 5687,
      "æĶ¹éĿ©å¼ĢæĶ¾": 5688,
      "åı¦ä¸Ģæĸ¹éĿ¢": 5689,
      "é«ĺèĢĥ": 5690,
      "ä¸Ģæµģ": 5691,
      "åĩºåĽ½": 5692,
      "åĲĪä¼Ļ": 5693,
      "åĪ¶åĵģ": 5694,
      "é»ĳé¾Ļæ±Ł": 5695,
      "äºı": 5696,
      "Ġcar": 5697,
      "åĩĢåĪ©æ¶¦": 5698,
      "è·¨å¢ĥ": 5699,
      "åħļåı²åŃ¦ä¹łæķĻèĤ²": 5700,
      "ble": 5701,
      "èĦı": 5702,
      "åĢ¼çıŃ": 5703,
      "Ġplay": 5704,
      "äººå¿ĥ": 5705,
      "èĮĤ": 5706,
      "åĩłå¹´": 5707,
      "æĹ¶æĬ¥": 5708,
      "èħĶ": 5709,
      "æĴŀ": 5710,
      "å¾ħéģĩ": 5711,
      "87": 5712,
      "çļĦèī¯å¥½": 5713,
      "éķ¿æķĪ": 5714,
      "éĻ¢æł¡": 5715,
      "çļĦæĶ¿æ²»": 5716,
      "æĶ¶èİ·": 5717,
      "éĽĨæĪĲ": 5718,
      "å£¤": 5719,
      "ç®¡çĲĨäººåĳĺ": 5720,
      "åı¯èĥ½ä¼ļ": 5721,
      "Ġä¸Ģæĺ¯": 5722,
      "æĦıåĳ³çĿĢ": 5723,
      "åĽ½åľŁ": 5724,
      "æİ¨ä»ĭ": 5725,
      "åĮħåĲ«": 5726,
      "oint": 5727,
      "èĤ©": 5728,
      "Ġhome": 5729,
      "å½±è§Ĩ": 5730,
      "hing": 5731,
      "çĲ´": 5732,
      "åı£ç½©": 5733,
      "åŃ¤": 5734,
      "æĤ¬": 5735,
      "ä¸ĭäºĨ": 5736,
      "åĽ½å®¶å®īåħ¨": 5737,
      "å¤ĸçļĦ": 5738,
      "ä¸ĢæĹ¦": 5739,
      "äººçĶŁ": 5740,
      "åĲĦèĩª": 5741,
      "è¯ĨåĪ«": 5742,
      "æĭ³": 5743,
      "èģĶç³»çĶµè¯Ŀ": 5744,
      "æķ¦": 5745,
      "åħ»èĢģæľįåĬ¡": 5746,
      "æĹ¥çļĦ": 5747,
      "ç®¡çĲĨå·¥ä½ľ": 5748,
      "ä¸ľåįĹ": 5749,
      "Ġnow": 5750,
      "Ġrel": 5751,
      "ower": 5752,
      "æĹ¶å°ļ": 5753,
      "åĪ°åºķ": 5754,
      "é«ĺäºİ": 5755,
      "å°±åľ¨": 5756,
      "ä»¥ä¸ĬçļĦ": 5757,
      "Ġsuch": 5758,
      "âĢĿï¼Ľ": 5759,
      "æ¯ħ": 5760,
      "æĶ¾å¼ĥ": 5761,
      "ract": 5762,
      "ä¸Ģè¾¹": 5763,
      "åħ¬æŃ£": 5764,
      "çĤŃ": 5765,
      "ä¼ģä¸ļåĴĮ": 5766,
      "åĿļå®Ī": 5767,
      "ç¬¬ä¸īæĸ¹": 5768,
      "æĥħç»ª": 5769,
      "å¦¥": 5770,
      "ç«ĭæ¡Ī": 5771,
      "èµ°åĲĳ": 5772,
      "ä¸ŃåĮ»": 5773,
      "ience": 5774,
      "ç´§ç´§": 5775,
      "çģ«çģ¾": 5776,
      "æĭĽåķĨå¼ķèµĦ": 5777,
      "ject": 5778,
      "æĸĩåĮĸæĹħæ¸¸": 5779,
      "å®ĪæĬ¤": 5780,
      "æľīä¸Ģ": 5781,
      "çĭĤ": 5782,
      "è¿Ľä¸ĢæŃ¥åĬłå¼º": 5783,
      "æ½ľåľ¨": 5784,
      "åĬłæ²¹": 5785,
      "åĪ¤æĸŃ": 5786,
      "Ġloc": 5787,
      "è¿ŀæİ¥": 5788,
      "çī¢è®°": 5789,
      "é«ĺéĢŁåħ¬è·¯": 5790,
      "Ġset": 5791,
      "åĽŀå®¶": 5792,
      "Ġstud": 5793,
      "éĻĨç»Ń": 5794,
      "åŀĥåľ¾åĪĨç±»": 5795,
      "ï½": 5796,
      "åħ³çĪ±": 5797,
      "ç®¡å§Ķä¼ļ": 5798,
      "æ¨¡åŀĭ": 5799,
      "é»Ħæ²³": 5800,
      "é£ŀæľº": 5801,
      "ç¡ķ": 5802,
      "åĨ¯": 5803,
      "63": 5804,
      "è´¤": 5805,
      "éŃħ": 5806,
      "ä»¬çļĦ": 5807,
      "åĽ¢ä½ĵ": 5808,
      "çļĦéĩįå¤§": 5809,
      "éħ¬": 5810,
      "åħĪéĶĭ": 5811,
      "ational": 5812,
      "ä¹łè¿ĳå¹³æĢ»ä¹¦è®°åħ³äºİ": 5813,
      "æµĻæ±Łçľģ": 5814,
      "çĹħäºº": 5815,
      "ï¹": 5816,
      "æĹ¶çļĦ": 5817,
      "åħļæĶ¿": 5818,
      "89": 5819,
      "åŃ¦åİĨ": 5820,
      "çŃīéĥ¨éĹ¨": 5821,
      "çĽ¼": 5822,
      "Ġac": 5823,
      "æĶĢ": 5824,
      "åĨ³èµĽ": 5825,
      "çĽ¸åºĶçļĦ": 5826,
      "ä»İä¸¥æ²»": 5827,
      "up": 5828,
      "æł¡éķ¿": 5829,
      "åĨĽéĺŁ": 5830,
      "Ġins": 5831,
      "å»īæ´ģ": 5832,
      "Ġright": 5833,
      "ä»£çĲĨäºº": 5834,
      "éĢ¾æľŁ": 5835,
      "çĽĹ": 5836,
      "69": 5837,
      "é¢Ħæµĭ": 5838,
      "èį¯çī©": 5839,
      "è§Ĵèī²": 5840,
      "æŀ¢çº½": 5841,
      "å®¶éĩĮ": 5842,
      "erm": 5843,
      "éĵ¸": 5844,
      "ç»ĨåĪĻ": 5845,
      "Ġè¿Ļ": 5846,
      "Ġent": 5847,
      "arch": 5848,
      "è¾ħå¯¼": 5849,
      "åıĳå±ķåĴĮ": 5850,
      "Ġhigh": 5851,
      "åİ¨": 5852,
      "åİ¿åŁŁ": 5853,
      "ä¸ŃåĽ½äººæ°ĳ": 5854,
      "79": 5855,
      "åĬłçĽĸ": 5856,
      "éĿ¢è¯ķ": 5857,
      "Ġdiffe": 5858,
      "å¤¯å®ŀ": 5859,
      "éĢļè®¯": 5860,
      "åĴĮåħ¶ä»ĸ": 5861,
      "èµ¤": 5862,
      "åĬ¨èĥ½": 5863,
      "Ġ15": 5864,
      "è¾ħåĬ©": 5865,
      "åĲĦçķĮ": 5866,
      "çĽĳå§Ķ": 5867,
      "çĶ¨çĶµ": 5868,
      "èĪĨè®º": 5869,
      "ä¼łéĢĴ": 5870,
      "ç¾İæľ¯": 5871,
      "èģĶç³»äºº": 5872,
      "çļĦè¡Įä¸º": 5873,
      "åĲĲ": 5874,
      "è½¦éĹ´": 5875,
      "éĽĨåĽ¢æľīéĻĲåħ¬åı¸": 5876,
      "ä¸įåĬ¨äº§": 5877,
      "å¢ĵ": 5878,
      "åį³åı¯": 5879,
      "çŃĳçī¢": 5880,
      "âĢĿ,": 5881,
      "åĽ½å®¶çļĦ": 5882,
      "æ¨¡èĮĥ": 5883,
      "ç¼ºä¹ı": 5884,
      "CA": 5885,
      "ä»Ķ": 5886,
      "æķĻèĤ²å±Ģ": 5887,
      "éĩİçĶŁ": 5888,
      "éª¨å¹²": 5889,
      "ward": 5890,
      "æĺ¯æĮĩ": 5891,
      "æĮĩåįĹ": 5892,
      "ç»Ħç»ĩå®ŀæĸ½": 5893,
      "air": 5894,
      "æľ¬åħ¬åı¸": 5895,
      "ç±»ä¼¼": 5896,
      "åŃ¦èĢħ": 5897,
      "ath": 5898,
      "ĠçĽ®åīį": 5899,
      "å®ŀæĹ¶": 5900,
      "åħ±è¯Ĩ": 5901,
      "Ľèµ·": 5902,
      "æĸ¯åĿ¦": 5903,
      "åģĩæľŁ": 5904,
      "å©Ĩ": 5905,
      "æĺİæĺŁ": 5906,
      "è§Ĥå¿µ": 5907,
      "è§£éĻ¤": 5908,
      "è´Łæĭħ": 5909,
      "æĳĬ": 5910,
      "çº³ç¨İ": 5911,
      "73": 5912,
      "800": 5913,
      "ç§įåŃĲ": 5914,
      "é¹¤": 5915,
      "çĲĨçĶ±": 5916,
      "å¼ºçĥĪ": 5917,
      "ä¸īåħ¬": 5918,
      "ä½¿å¾Ĺ": 5919,
      "çĽ¸åħ³çļĦ": 5920,
      "ä»¤äºº": 5921,
      "æ±Łèĭıçľģ": 5922,
      "ç¡®è¯ĬçĹħä¾ĭ": 5923,
      "Ġbusiness": 5924,
      "Ġmuch": 5925,
      "ä¸¤äºº": 5926,
      "ä¸»å¯¼": 5927,
      "å¾ĹåĪ°äºĨ": 5928,
      "åĽĽæĺ¯": 5929,
      "è§Ĩä¸º": 5930,
      "æĦŁæŁĵèĢħ": 5931,
      "æīĭæľ¯": 5932,
      "ty": 5933,
      "åħĦ": 5934,
      "åŃķ": 5935,
      "æ²ĥ": 5936,
      "Ġday": 5937,
      "ç«Ļä½į": 5938,
      "è½¦åŀĭ": 5939,
      "æķĳçģ¾": 5940,
      "ç¦»å¼Ģ": 5941,
      "ç§ĳåĪĽ": 5942,
      "æ¶Īæ¯Ĵ": 5943,
      "çłĶç©¶æīĢ": 5944,
      "åº§è°Īä¼ļ": 5945,
      "å·¥ç¨ĭå»ºè®¾": 5946,
      "æĦĪ": 5947,
      "åĽŀçŃĶ": 5948,
      "ĠæĳĦ": 5949,
      "uring": 5950,
      "æĹ¬": 5951,
      "èįĴ": 5952,
      "éļľç¢į": 5953,
      "ç»´æĮģ": 5954,
      "èĩ´å¯Į": 5955,
      "ts": 5956,
      "é«ĺå³°": 5957,
      "å§ľ": 5958,
      "Ġlong": 5959,
      "éĢĤåĲĪ": 5960,
      "çŃīå¤ļ": 5961,
      "æµİåįĹ": 5962,
      "æł¸å®ŀ": 5963,
      "äºĶå¹´": 5964,
      "Ġè¿ĳå¹´æĿ¥": 5965,
      "æ¸ħæ¥ļ": 5966,
      "ç¼ĵè§£": 5967,
      "ä¹Ķ": 5968,
      "ç²Ĵ": 5969,
      "å¯¼æ¼Ķ": 5970,
      "Ġinte": 5971,
      "æĦ¿æĦı": 5972,
      "çĽĳçĿ£æ£ĢæŁ¥": 5973,
      "åįķåħĥ": 5974,
      "ä¿¡æģ¯æĬ«éľ²": 5975,
      "åį«æĺŁ": 5976,
      "éĺµåľ°": 5977,
      "èĿ": 5978,
      "çº²": 5979,
      "æĺİçļĦ": 5980,
      "é¦ĸä¸ª": 5981,
      "çĲĥéĺŁ": 5982,
      "å¨ĺ": 5983,
      "ä¸ĩäººæ¬¡": 5984,
      "çļĦåħ·ä½ĵ": 5985,
      "ç¾İé£Ł": 5986,
      "å¸ĤåľºçĽĳç®¡å±Ģ": 5987,
      "è¯ŀ": 5988,
      "æıĲèµ·": 5989,
      "éĶĢéĩı": 5990,
      "ç¨³æŃ¥": 5991,
      "ç»ĵæĿŁåĲİ": 5992,
      "å¤ļå°ĳ": 5993,
      "çłĤ": 5994,
      "its": 5995,
      "æīĢè°ĵ": 5996,
      "Ġrequ": 5997,
      "é©¬åħĭ": 5998,
      "éĺŁä¼įå»ºè®¾": 5999,
      "æľºåĬ¨è½¦": 6000,
      "æ¬§çĽŁ": 6001,
      "ä¸įå¤Ł": 6002,
      "è¯»ä¹¦": 6003,
      "ĠIf": 6004,
      "åħ¬ä¼Ĺåı·": 6005,
      "Ġæĸ°": 6006,
      "åģļäºĨ": 6007,
      "è¿Ľä¸ĢæŃ¥æıĲåįĩ": 6008,
      "å¥īçĮ®": 6009,
      "åħ¬ç«ł": 6010,
      "åĽŀåĪ°": 6011,
      "çļĦä¸Ń": 6012,
      "åŃ¦ä¼ļ": 6013,
      "åĬŀäºĭå¤Ħ": 6014,
      "Ġdesign": 6015,
      "æ¦Ĥå¿µ": 6016,
      "åıĳå±ķæĶ¹éĿ©": 6017,
      "æķĳæ²»": 6018,
      "è´¢æĶ¿å±Ģ": 6019,
      "å··": 6020,
      "å¤§åİħ": 6021,
      "å¸Ĥäººæ°ĳæĶ¿åºľ": 6022,
      "æ³¡": 6023,
      "æ¯ıæľĪ": 6024,
      "ows": 6025,
      "ock": 6026,
      "62": 6027,
      "ä¸²": 6028,
      "ä»½é¢Ŀ": 6029,
      "çģµæ´»": 6030,
      "åĮł": 6031,
      "ĠãĢĤ": 6032,
      "ä¸įäºĪ": 6033,
      "æĽĿ": 6034,
      "é¸¿": 6035,
      "å¹¶æ²¡æľī": 6036,
      "Ġtake": 6037,
      "æĸĩåŃĹ": 6038,
      "æ·¡": 6039,
      "å³¡": 6040,
      "æĹ¨åľ¨": 6041,
      "å®ļçĤ¹": 6042,
      "ä¸¥èĤĥ": 6043,
      "åģľæŃ¢": 6044,
      "âĢĻï¼Į": 6045,
      "ä¸įæĸŃæıĲé«ĺ": 6046,
      "Ġä¸ĥ": 6047,
      "å½±çīĩ": 6048,
      "çºªæ£ĢçĽĳå¯Ł": 6049,
      "hes": 6050,
      "æµ·åħ³": 6051,
      "é¢Ħçº¦": 6052,
      "å±ĤéĿ¢": 6053,
      "åĪĨåĪ«ä¸º": 6054,
      "åħļçļĦäºĮåįģå¤§ç²¾ç¥ŀ": 6055,
      "ä»°": 6056,
      "ä¸ĬéĹ¨": 6057,
      "è¡¨æĺİ": 6058,
      "æĢ»çĲĨ": 6059,
      "çºªå½ķ": 6060,
      "åĵįåºĶæĸĩä»¶": 6061,
      "æĸ°åŁİ": 6062,
      "çĭł": 6063,
      ")ãĢĤ": 6064,
      "Ġ30": 6065,
      "æ¡ĳ": 6066,
      "åĬŀåħ¬åİħ": 6067,
      "2025": 6068,
      "ä¸Ģå®ļè¦ģ": 6069,
      "åĵĪå°Ķæ»¨": 6070,
      "å¹´è½»äºº": 6071,
      "æĭĴç»Ŀ": 6072,
      "çĽ®å½ķ": 6073,
      "çļĦå®īåħ¨": 6074,
      "çļĦèĥ½åĬĽ": 6075,
      "è¾Ī": 6076,
      "èĬĿ": 6077,
      "çĥŃçº¿": 6078,
      "____": 6079,
      "éĹ¹": 6080,
      "éļıæĹ¶": 6081,
      "çļĦå¿ĥ": 6082,
      "åĪĨè¡Į": 6083,
      "éĩįçĤ¹å·¥ä½ľ": 6084,
      "ç»Īäºİ": 6085,
      "åŁİä¹¡å»ºè®¾": 6086,
      "è½¬åŀĭåįĩçº§": 6087,
      "84": 6088,
      "è®°è½½": 6089,
      "çģ°": 6090,
      "ç§°ä¸º": 6091,
      "åĶ®ä»·": 6092,
      "çŃĶå¤į": 6093,
      "We": 6094,
      "ç»µ": 6095,
      "âĢĿï¼Ī": 6096,
      "ä¸Ńæľī": 6097,
      "äº¤èŃ¦": 6098,
      "2008": 6099,
      "é¢Ī": 6100,
      "æķĪèĥ½": 6101,
      "æĹ¥çĽĬ": 6102,
      "èµĦè®¯": 6103,
      "ä¿¡è´·": 6104,
      "ä¹Łåı¯ä»¥": 6105,
      "Ġinformation": 6106,
      "è¥¿åįĹ": 6107,
      "å½±åĵįåĬĽ": 6108,
      "ä¾¿æ°ĳ": 6109,
      "çĨŁæĤī": 6110,
      "Ġ&": 6111,
      "è´Ńçī©": 6112,
      "è´£ä»»åįķä½į": 6113,
      "èĻ¹": 6114,
      "æĮģèĤ¡": 6115,
      "ä¹Łè¦ģ": 6116,
      "Ġdon": 6117,
      "èĩ´åĬĽ": 6118,
      "åħģè®¸": 6119,
      "ä¸İæŃ¤": 6120,
      "åĲĦåįķä½į": 6121,
      "çĶµä¿¡": 6122,
      "ç¡®å®ŀ": 6123,
      "å®¡åĪ¤": 6124,
      "çļĦçĽ®æłĩ": 6125,
      "æ°¢": 6126,
      "é£Łçī©": 6127,
      "åĬ¨ä½ľ": 6128,
      "ä¾Ľæ°´": 6129,
      "çłĶåĪ¤": 6130,
      "æ½Ń": 6131,
      "çİīç±³": 6132,
      "éĩĩè´Ńæĸĩä»¶": 6133,
      "èģĶåĲĪåĽ½": 6134,
      "Ġdevelop": 6135,
      "82": 6136,
      "çĲĥåĳĺ": 6137,
      "å±Ĭèĳ£äºĭä¼ļ": 6138,
      "åĪĹè½¦": 6139,
      "åĹ": 6140,
      "Ġ2018": 6141,
      "æĺ¯ä¸ŃåĽ½": 6142,
      "æĻ¯è§Ĥ": 6143,
      "çĵ·": 6144,
      "åĩŃåĢŁ": 6145,
      "åŃĿ": 6146,
      "è¥¿æĸ¹": 6147,
      "è½¨éģĵ": 6148,
      "ä¼ļéķ¿": 6149,
      "94": 6150,
      "gan": 6151,
      "Ġç¬¬ä¸ī": 6152,
      "åıĳçĶŁçļĦ": 6153,
      "æĲºæīĭ": 6154,
      "ä¸ĢèĪ¬åħ¬åħ±é¢Ħç®Ĺè´¢æĶ¿æĭ¨æ¬¾": 6155,
      "Ġ2019": 6156,
      "ï¼īãĢĭ": 6157,
      "å·¥ä½ľæľºåĪ¶": 6158,
      "æĻĴ": 6159,
      "ç¢°": 6160,
      "åĨ°éĽª": 6161,
      "è¡Įä¸ļçļĦ": 6162,
      "å¤©çĦ¶æ°Ķ": 6163,
      "åħ¥éĢī": 6164,
      "ä¸ĵé¡¹æķ´æ²»": 6165,
      "å½¼": 6166,
      "0000": 6167,
      "æĶ¶æĶ¯": 6168,
      "åŁİç®¡": 6169,
      "å¥³åŃĲ": 6170,
      "æĵ¦": 6171,
      "und": 6172,
      "ative": 6173,
      "åħ¬åĬ¡åĳĺ": 6174,
      "èĢĢ": 6175,
      "å¤©çļĦ": 6176,
      "åĪļåĪļ": 6177,
      "line": 6178,
      "ä¸įç¬¦åĲĪ": 6179,
      "ç»ıå¼Ģ": 6180,
      "Ġmin": 6181,
      "äºīè®®": 6182,
      "ä¸Ńå°ıåŃ¦": 6183,
      "åľ°çĲĨ": 6184,
      "æĥ³åĪ°": 6185,
      "å®ģæ³¢": 6186,
      "æĽ´ä¸º": 6187,
      "æľ¬åľŁ": 6188,
      "å°Ĩä¼ļ": 6189,
      "chn": 6190,
      "æī§è¡Įäºº": 6191,
      "å¹»": 6192,
      "æłª": 6193,
      "åıĤä¿Ŀ": 6194,
      "é»Ķ": 6195,
      "æ³¨åħ¥": 6196,
      "æŃ¦è£ħ": 6197,
      "io": 6198,
      "å°º": 6199,
      "åĽŀå½Ĵ": 6200,
      "å³»": 6201,
      "åĲĦä½į": 6202,
      "å¤įè®®": 6203,
      "å®£ä¼łéĥ¨": 6204,
      "83": 6205,
      "æīĢå¾Ĺ": 6206,
      "ç®¡çĲĨåĴĮ": 6207,
      "åī¯å¸Ĥéķ¿": 6208,
      "å¼Ģè®¾": 6209,
      "è¾Ĳ": 6210,
      "æĬ¥è®°èĢħ": 6211,
      "åħ´è¶£": 6212,
      "ĠPro": 6213,
      "çłĸ": 6214,
      "åıĳçļĦ": 6215,
      "åŃ¦åĳĺ": 6216,
      "ä¸ĭåĪĹ": 6217,
      "åºĨç¥Ŀ": 6218,
      "æĮº": 6219,
      "çŁ©": 6220,
      "æ²»å®ī": 6221,
      "ä¾ĽçĶµ": 6222,
      "ç«Ļåľ¨": 6223,
      "ç´§å¼ł": 6224,
      "éĻĪè¿°": 6225,
      "ä¸ĢæľŁ": 6226,
      "åŃŁ": 6227,
      "å§ļ": 6228,
      "éĢĨ": 6229,
      "åĬŀåŃ¦": 6230,
      "æĢ»è£ģ": 6231,
      "Ġtoo": 6232,
      "éĿĴæµ·": 6233,
      "çĶŁæ´»çļĦ": 6234,
      "èĴĭ": 6235,
      "Ġæį®æĤī": 6236,
      "å§ĳ": 6237,
      "å£°éŁ³": 6238,
      "èį¡": 6239,
      "åľŁå£¤": 6240,
      "æ¶īæ¡Ī": 6241,
      "éĢļè¡Į": 6242,
      "ä¼ģä¸ļå®¶": 6243,
      "è¯ĬæĸŃ": 6244,
      "ix": 6245,
      "ä¸ĩå¹³æĸ¹ç±³": 6246,
      "æ·±åħ¥åŃ¦ä¹łè´¯å½»": 6247,
      "çļĦä½ľçĶ¨": 6248,
      "æģĭ": 6249,
      "æīĢéľĢ": 6250,
      "çĿ£å¯Ł": 6251,
      "ä¸ĵä¸ļæĬĢæľ¯": 6252,
      "éŃħåĬĽ": 6253,
      "åĨĢ": 6254,
      "åħĥç´ł": 6255,
      "oun": 6256,
      "åĴĮåıĳå±ķ": 6257,
      "ä¸ºä¸Ńå¿ĥ": 6258,
      "ä½ľæĪĺ": 6259,
      "å¤ĸåĽ½": 6260,
      "å®ĺåħµ": 6261,
      "æ½ľåĬĽ": 6262,
      "Ġav": 6263,
      "æ·ĺ": 6264,
      "Ġgu": 6265,
      "åįģäºĮæĿ¡": 6266,
      "ä¸Ģæ®µ": 6267,
      "ĠWh": 6268,
      "çļĦäº§åĵģ": 6269,
      "åıł": 6270,
      "Ġmod": 6271,
      "è®¤çŁ¥": 6272,
      "åĿļå®ŀ": 6273,
      "çŃĸçķ¥": 6274,
      "Ġbecause": 6275,
      "ä»ĸåľ¨": 6276,
      "ec": 6277,
      "çļĦåĨħå®¹": 6278,
      "ited": 6279,
      "Ġsec": 6280,
      "ä¼ļè®¡å¸Ī": 6281,
      "åľ°è¯´": 6282,
      "éĢīäºº": 6283,
      "çļĦæ°´": 6284,
      "ä¸Ģå¼ł": 6285,
      "å¯¸": 6286,
      "åħ¬æĸ¤": 6287,
      "åħ¨éĿ¢ä»İä¸¥æ²»": 6288,
      "å®£ä¼łæķĻèĤ²": 6289,
      "éĻĦå±ŀ": 6290,
      "ĠUn": 6291,
      "åıĻ": 6292,
      "èĥģ": 6293,
      "è´«åĽ°æĪ·": 6294,
      "èĩªè¡Įè½¦": 6295,
      "è½¬åĮĸä¸º": 6296,
      "åĿļå¼º": 6297,
      "ä¹Łå°Ĩ": 6298,
      "ä¸¥æł¼æĮīçħ§": 6299,
      "pect": 6300,
      "oad": 6301,
      "ä¸Ģé¡¹": 6302,
      "ina": 6303,
      "ä¼ĺèī¯": 6304,
      "åľ°éĵģ": 6305,
      "åķĨå®¶": 6306,
      "çĥ¤": 6307,
      "è·¨è¶Ĭ": 6308,
      "è°¨": 6309,
      "éĩįçĤ¹é¡¹çĽ®": 6310,
      "åį°è±¡": 6311,
      "æĮĤçīĮ": 6312,
      "åħ¬çĶ¨": 6313,
      "å¢ĥåĨħ": 6314,
      "èĬĤåģĩæĹ¥": 6315,
      "ä½ıæĪ¿åħ¬ç§¯éĩĳ": 6316,
      "åŁĭ": 6317,
      "é¢Ŀåº¦": 6318,
      "å®īå¾½çľģ": 6319,
      "hip": 6320,
      "çļĦæĸĩåĮĸ": 6321,
      "çĤĴ": 6322,
      "å¯»æī¾": 6323,
      "æ¡¥æ¢ģ": 6324,
      "åħ»èĢģä¿ĿéĻ©": 6325,
      "åĬ£": 6326,
      "å½°æĺ¾": 6327,
      "çļĦç¤¾ä¼ļ": 6328,
      "è¿ĲåĬ¨åĳĺ": 6329,
      "Ġdoes": 6330,
      "å¹¶å°Ĩ": 6331,
      "Ġgen": 6332,
      "åħ¨ç¤¾ä¼ļ": 6333,
      "æľ¬çº§": 6334,
      "Ġread": 6335,
      "é¦ĸæī¹": 6336,
      "èĭ¥å¹²": 6337,
      "é¢Ĩåıĸ": 6338,
      "éĳ": 6339,
      "çİ¯æ¯Ķ": 6340,
      "åĮĹéĥ¨": 6341,
      "å¾Īå¤ļäºº": 6342,
      "ä¸ĬæĬ¥": 6343,
      "èŀº": 6344,
      "éĳ«": 6345,
      "Ġå¯¹": 6346,
      "åĽŀè´Ń": 6347,
      "åŁºæľ¬æĶ¯åĩº": 6348,
      "åĨľæ°ĳå·¥": 6349,
      "åºĻ": 6350,
      "Ġbr": 6351,
      "è§ĤçĤ¹": 6352,
      "ä¸Ĭçº¿": 6353,
      "è°Ĭ": 6354,
      "åľ¨è¿Ļ": 6355,
      "ä¿¡åı·": 6356,
      "ç®¡çĲĨåĪ¶åº¦": 6357,
      "æ»ĭ": 6358,
      "çİ¯å¢ĥä¿ĿæĬ¤": 6359,
      "éĤ£ä¸ª": 6360,
      "é«ĺè´¨éĩıåıĳå±ķçļĦ": 6361,
      "ven": 6362,
      "æ¯ıä¸Ģä¸ª": 6363,
      "mber": 6364,
      "å®ĮæĪĲäºĨ": 6365,
      "gov": 6366,
      "å¼Ģæĭĵ": 6367,
      "ä»ĸäºº": 6368,
      "å·²æĪĲä¸º": 6369,
      "omet": 6370,
      "ä½Ļé¢Ŀ": 6371,
      "å¾ģéĽĨ": 6372,
      "å®ģå¸Ĥ": 6373,
      "é¦ĸéĥ½": 6374,
      "çĥŃçĤ¹": 6375,
      "Ġä½ľä¸º": 6376,
      "åľ°çļĦ": 6377,
      "æĬ¥éĢģ": 6378,
      "ident": 6379,
      "éĥ½è¦ģ": 6380,
      "èĳ¡": 6381,
      "èįīæ¡Ī": 6382,
      "æĳĦå½±": 6383,
      "ient": 6384,
      "åľ°åĿĹ": 6385,
      "æľ¬å±Ĭ": 6386,
      "æĭħå¿ĥ": 6387,
      "åĲ¹": 6388,
      "ç¬¬åħ«": 6389,
      "Ġpres": 6390,
      "æ¸ħæĻ°": 6391,
      "éĹª": 6392,
      "Ġsim": 6393,
      "åĬŀæ¡Ī": 6394,
      "æī¹è¯Ħ": 6395,
      "æ¡¶": 6396,
      "çĶµæ¢¯": 6397,
      "å»ºè®¾å·¥ç¨ĭ": 6398,
      "æ¼Ĥ": 6399,
      "ä¸įå¥½": 6400,
      "Ġperson": 6401,
      "èĢģçĻ¾å§ĵ": 6402,
      "æ»¡æĦıåº¦": 6403,
      "Ġmon": 6404,
      "å®¢è§Ĥ": 6405,
      "Ġhere": 6406,
      "åĨ³å¿ĥ": 6407,
      "çĶ·äºº": 6408,
      "éŃı": 6409,
      "ä¸İæŃ¤åĲĮæĹ¶": 6410,
      "81": 6411,
      "çļĦè´£ä»»": 6412,
      "ä¸ºä¼ģä¸ļ": 6413,
      "å¸ĤæĶ¿": 6414,
      "çŃīå¥ĸ": 6415,
      "åĬłä¸Ĭ": 6416,
      "å¢ŀæķĪ": 6417,
      "é£ŁçĶ¨": 6418,
      "ç¿Ķ": 6419,
      "å·®è·Ŀ": 6420,
      "æ²³åįĹçľģ": 6421,
      "åıĸå¾ĹçļĦ": 6422,
      "è§Ħç«ł": 6423,
      "ork": 6424,
      "è¿Ĳä½ľ": 6425,
      "ĠäºĮæĺ¯": 6426,
      "æľ¬èº«": 6427,
      "å¤ļåĲį": 6428,
      "æĦıå¤ĸ": 6429,
      "è¯¥é¡¹çĽ®": 6430,
      "åĨ²åĩ»": 6431,
      "Ġsystem": 6432,
      "çĶŁæĢģçİ¯å¢ĥä¿ĿæĬ¤": 6433,
      "è¾Ĳå°Ħ": 6434,
      "led": 6435,
      "åŃµ": 6436,
      "å·ŀåĮº": 6437,
      "ç¼ĸè¾ĳ": 6438,
      "å¼ºåĽ½": 6439,
      "è¢ģ": 6440,
      "æĦŁåıĹåĪ°": 6441,
      "Ġlife": 6442,
      "åĳ½è¿Ĳ": 6443,
      "ç«£": 6444,
      "éĻ¤å¤ĸ": 6445,
      "åħ¬å¼Ģåıĳ": 6446,
      "æº¯": 6447,
      "ality": 6448,
      "çī©åĵģ": 6449,
      "é¢Ħç®Ĺæķ°": 6450,
      ")ãĢģ": 6451,
      "çĸ«æĥħéĺ²æİ§å·¥ä½ľ": 6452,
      "å¡«åĨĻ": 6453,
      "åĢ¡è®®": 6454,
      "åıĬçĽ¸åħ³": 6455,
      "ata": 6456,
      "åĬłå¤§å¯¹": 6457,
      "æĭĨéĻ¤": 6458,
      "æĢª": 6459,
      "ä¸İä¼ļ": 6460,
      "Ġfam": 6461,
      "æī¹å¤į": 6462,
      "æĬĵä½ı": 6463,
      "äº¤éĢļå®īåħ¨": 6464,
      "åī¯ä¸»å¸Ń": 6465,
      "74": 6466,
      "ä»£è¡¨å¤§ä¼ļ": 6467,
      "èħ¿": 6468,
      "éĶ»çĤ¼": 6469,
      "ç¥Ń": 6470,
      "Ġ14": 6471,
      "çĭ±": 6472,
      "åĬ¡å®ŀ": 6473,
      "Ġsur": 6474,
      "æĸĩåĮĸçļĦ": 6475,
      "åĬŁå¤«": 6476,
      "èİ·å¾ĹæĦŁ": 6477,
      "Ġused": 6478,
      "æ¦ĤåĨµ": 6479,
      "çªģçĦ¶": 6480,
      "åĳ¼åĲ¸": 6481,
      "arket": 6482,
      "åİŁæłĩé¢ĺ": 6483,
      "åħĭåħ°": 6484,
      "åł¤": 6485,
      "Ġtrans": 6486,
      "Ġä»¥": 6487,
      "çļĦæĬĢæľ¯": 6488,
      "å®¶åĽŃ": 6489,
      "çİ°çĬ¶": 6490,
      "æĪĳåĮº": 6491,
      "è¯¾é¢ĺ": 6492,
      "èµ£": 6493,
      "åĩºè®©": 6494,
      "Ġbel": 6495,
      "è´¢æĶ¿éĥ¨": 6496,
      "è´¾": 6497,
      "é¢ĸ": 6498,
      "æŁı": 6499,
      "æĽ´æľī": 6500,
      "ä¸Ĭæµ·è¯ģåĪ¸äº¤æĺĵæīĢ": 6501,
      "ä¼ĺåĮĸèĲ¥åķĨçİ¯å¢ĥ": 6502,
      "ç£ģ": 6503,
      "ä¸Ńèį¯": 6504,
      "å¼Ĥå¸¸": 6505,
      "ç¾İçļĦ": 6506,
      "åįļä¼ļ": 6507,
      "æĬĵå®ŀ": 6508,
      "ik": 6509,
      "æī¹æ¬¡": 6510,
      "éķ¿çļĦ": 6511,
      "æ¬²": 6512,
      "æ°´çĶµ": 6513,
      "Ġdid": 6514,
      "é£ŀè¡Į": 6515,
      "Ġ09": 6516,
      "çĬ¯ç½ªå«Įçĸĳäºº": 6517,
      "Ġexp": 6518,
      "ä¹īåĬ¡æķĻèĤ²": 6519,
      "ä»²è£ģ": 6520,
      "è§Ħå¾ĭ": 6521,
      "å¹¶éĿŀ": 6522,
      "å¹²éĥ¨èģĮå·¥": 6523,
      "Ġhand": 6524,
      "æ·±åľ³å¸Ĥ": 6525,
      "äººäºĭ": 6526,
      "é«ĺæĸ°æĬĢæľ¯": 6527,
      "äººæīįåŁ¹åħ»": 6528,
      "ä»ĭç»įäºĨ": 6529,
      "çĶ¨åĵģ": 6530,
      "ä¸ĭä¸Ģ": 6531,
      "å°ıåº·": 6532,
      "è·¯æ®µ": 6533,
      "çĽĴ": 6534,
      "è£ħç½®": 6535,
      "Ġvis": 6536,
      "æĸ°æĿĲæĸĻ": 6537,
      "æĺ¨å¤©": 6538,
      "æ°´è´¨": 6539,
      "æĿĥåĬĽ": 6540,
      "æ··åĲĪ": 6541,
      "å®´": 6542,
      "çĶŁèĤ²": 6543,
      "åħīä¼ı": 6544,
      "è¾ĥä¸º": 6545,
      "è§£åĨ³æĸ¹æ¡Ī": 6546,
      "å®¶ä¼ģä¸ļ": 6547,
      "ä¾Ŀçħ§": 6548,
      "å®¶ä¹¡": 6549,
      "æĪ¿äº§": 6550,
      "æķ°åŃĹç»ıæµİ": 6551,
      "åıĳèµ·": 6552,
      "å¥ĭè¿Ľ": 6553,
      "è¿½ç©¶": 6554,
      "ä¸Ģæ¬¡æĢ§": 6555,
      "æĩĪ": 6556,
      "ner": 6557,
      "å¼Ħ": 6558,
      "ä¿¡å¿µ": 6559,
      "Ġche": 6560,
      "çĤ¹åĩ»": 6561,
      "çľģå¸Ĥ": 6562,
      "å½»åºķ": 6563,
      "æ¶µçĽĸ": 6564,
      "ied": 6565,
      "è¦ģä»¥": 6566,
      "æĿ¥äºĨ": 6567,
      "æ¹¾åĮº": 6568,
      "ç»Ŀå¯¹": 6569,
      "ç¨Ģ": 6570,
      "åĩıçģ¾": 6571,
      "éĹ¨è¯Ĭ": 6572,
      "ç¦½": 6573,
      "æĻ®æĥł": 6574,
      "å¨ģèĥģ": 6575,
      "ps": 6576,
      "è´£ä»¤": 6577,
      "ĠAnd": 6578,
      "ç¢İ": 6579,
      "ng": 6580,
      "çļĦå½¢å¼ı": 6581,
      "åĽ½å¤ĸ": 6582,
      "æĢ»éĥ¨": 6583,
      "éĢĤå½ĵ": 6584,
      "91": 6585,
      "äººä¸º": 6586,
      "çŃīé¢ĨåŁŁ": 6587,
      "èĦĤ": 6588,
      "ç»£": 6589,
      "æĹ¶éĻĲ": 6590,
      "è¿ĺä¼ļ": 6591,
      "éĥ½èĥ½": 6592,
      "ç§°åı·": 6593,
      "éĶĲ": 6594,
      "èĵ¬": 6595,
      "èµĦåĬ©": 6596,
      "æıĲé«ĺäºĨ": 6597,
      "å¤±ä¸ļ": 6598,
      "åĴĮä¿¡æģ¯åĮĸ": 6599,
      "æĪĳä»¬å°Ĩ": 6600,
      "ĠCom": 6601,
      "è§ĦèĮĥæĢ§": 6602,
      "ä¸įä¹ħ": 6603,
      "åºĶåľ¨": 6604,
      "alth": 6605,
      "åŃĺåľ¨çļĦ": 6606,
      "å¸ĤåľºçĽĳçĿ£ç®¡çĲĨ": 6607,
      "èµ·è¯ī": 6608,
      "ç§¯ç´¯": 6609,
      "Ġbefore": 6610,
      "èĤĿ": 6611,
      "ä¼łåªĴ": 6612,
      "ç§»æ°ĳ": 6613,
      "çĥĪå£«": 6614,
      "è®©æĪĳ": 6615,
      "ä¿ĿçķĻ": 6616,
      "åıĺæĪĲ": 6617,
      "å±ħå®¶": 6618,
      "Ġèĩª": 6619,
      "Ġthose": 6620,
      "æĬ½æŁ¥": 6621,
      "ç«£å·¥": 6622,
      "èĥİ": 6623,
      "ç§¯æŀģåıĤä¸İ": 6624,
      "å¥ĭåĬĽ": 6625,
      "ä¸ªæĢ§": 6626,
      "ç»ıå¼ĢåĮº": 6627,
      "%,": 6628,
      "ä¸įå¼Ģ": 6629,
      "éĩįç»Ħ": 6630,
      "Ġbeing": 6631,
      "é¥±": 6632,
      "æ¸¯åı£": 6633,
      "ä¹Įåħĭåħ°": 6634,
      "çļĦæĦıè§ģ": 6635,
      "åĴĸ": 6636,
      "æ°ĳå®¿": 6637,
      "åīįåĪĹ": 6638,
      "æ¯Ķä¸Ĭå¹´": 6639,
      "æĻ®æŁ¥": 6640,
      "å¤ªéĺ³": 6641,
      "æµĵåİļ": 6642,
      "åĬĿ": 6643,
      "å¸ħ": 6644,
      "å¿ĥçļĦ": 6645,
      "å¦Ĩ": 6646,
      "ç§ĳåŃ¦éĻ¢": 6647,
      "æŃ¦åĻ¨": 6648,
      "åħ¨ä¼ļç²¾ç¥ŀ": 6649,
      "æĸĩåĮĸåĴĮæĹħæ¸¸": 6650,
      "äººæĸĩ": 6651,
      "ç¥ŀç»ı": 6652,
      "ä¸ļåĨħ": 6653,
      "é«ĺçŃī": 6654,
      "æŁ´": 6655,
      "äºĶä¸ª": 6656,
      "åľ¨åĮĹäº¬": 6657,
      "å¿½": 6658,
      "éĵŃ": 6659,
      "åıĺå¾Ĺ": 6660,
      "è®¿éĹ®": 6661,
      "ages": 6662,
      "çļĦåħ¶ä»ĸ": 6663,
      "ç»ĨèĬĤ": 6664,
      "åħ¬åĬ¡æİ¥å¾ħ": 6665,
      "ell": 6666,
      "ä½ıå»º": 6667,
      "å¤§å¤ļæķ°": 6668,
      "å§¿": 6669,
      "æĦıåĲĳ": 6670,
      "å¹¿å·ŀå¸Ĥ": 6671,
      "åħ¨éĿ¢èĲ½å®ŀ": 6672,
      "å®ŀéĻħä¸Ĭ": 6673,
      "æµ¸": 6674,
      "å¯¹åħ¶": 6675,
      "å°ıå¾®ä¼ģä¸ļ": 6676,
      "æĢ§è´¨": 6677,
      "éĥ½ä¸į": 6678,
      "å¨ľ": 6679,
      "rib": 6680,
      "æ³Ĭ": 6681,
      "æĥħåĨµçļĦ": 6682,
      "åħļçļĦåįģä¹Ŀ": 6683,
      "åħįçĸ«": 6684,
      "åŃµåĮĸ": 6685,
      "61": 6686,
      "æĦģ": 6687,
      "å®īå¸Ĥ": 6688,
      "çĤ®": 6689,
      "äº®çĤ¹": 6690,
      "åĿ¤": 6691,
      "æľįåĬ¡å¹³åı°": 6692,
      "éļ¾çĤ¹": 6693,
      "åħ¨éĿ¢æİ¨è¿Ľ": 6694,
      "Ġsaid": 6695,
      "å»ºç«ĭäºĨ": 6696,
      "iet": 6697,
      "ä¼ª": 6698,
      "Ġsol": 6699,
      "éĻ¢å£«": 6700,
      "åıĤåĬłä¼ļè®®": 6701,
      "IP": 6702,
      "Ġmade": 6703,
      "èİ·å¾ĹäºĨ": 6704,
      "æ°ĳèĲ¥ä¼ģä¸ļ": 6705,
      "æ³³": 6706,
      "å®ŀè´¨": 6707,
      "å»¶éķ¿": 6708,
      "èĥĮåĲİ": 6709,
      "å¿łè¯ļ": 6710,
      "äººäºº": 6711,
      "å½ĵæĹ¥": 6712,
      "åıĺåĬ¨": 6713,
      "110": 6714,
      "èĲĦ": 6715,
      "åİŁæĸĻ": 6716,
      "æ²³éģĵ": 6717,
      "ä¸Ĭä¼ł": 6718,
      "å¯¹è¯Ŀ": 6719,
      "ä¸¥æł¼æī§è¡Į": 6720,
      "ç¹ģèį£": 6721,
      "Ġdifferent": 6722,
      "å¥ł": 6723,
      "å®¶ä¸Ń": 6724,
      "åĤ¬": 6725,
      "æ¡Ĩæŀ¶": 6726,
      "å°±åĥı": 6727,
      "Ġdet": 6728,
      "æĶ¿åºľéĩĩè´Ńç½ĳ": 6729,
      "é¡¾éĹ®": 6730,
      "Ġåħ¬åı¸": 6731,
      "æľ´": 6732,
      "åı¯åľ¨": 6733,
      "ï¼Ľï¼Ī": 6734,
      "çĲĨäºĭ": 6735,
      "åīįçļĦ": 6736,
      "å¾Īå¿«": 6737,
      "åıĤåĬłäºĨ": 6738,
      "Ġcall": 6739,
      "æīĵå¥½": 6740,
      "Ġprog": 6741,
      "æħĪåĸĦ": 6742,
      "èĳ¡èĲĦ": 6743,
      "pen": 6744,
      "ç¦ģæ¯Ĵ": 6745,
      "åĴĮç¤¾ä¼ļä¿Ŀéļľ": 6746,
      "ï½ŀ": 6747,
      "ä½Ļäºº": 6748,
      "å®ĺåĳĺ": 6749,
      "æ°§åĮĸ": 6750,
      "ä¸ĢåŃ£åº¦": 6751,
      "å°±æľī": 6752,
      "åŃĺæ¬¾": 6753,
      "åıĭå¥½": 6754,
      "åħĦå¼Ł": 6755,
      "äºĴéĢļ": 6756,
      "æĬĵèİ·": 6757,
      "äº§çĶŁçļĦ": 6758,
      "èµĮ": 6759,
      "èĥ½éĩı": 6760,
      "åıĳè¡Įäºº": 6761,
      "éģµå¾ª": 6762,
      "åħ¥åı£": 6763,
      "çĽ¸åĲĮ": 6764,
      "é¦ĸå¸Ń": 6765,
      "other": 6766,
      "åıī": 6767,
      "éľŀ": 6768,
      "åı°è´¦": 6769,
      "æĹłçĹĩçĬ¶": 6770,
      "ç´łåħ»": 6771,
      "çľŁçļĦ": 6772,
      "å·¥ç¨ĭå¸Ī": 6773,
      "å¥³äºº": 6774,
      "åĻ¨æ¢°": 6775,
      "å®ļåĪ¶": 6776,
      "Ġend": 6777,
      "æĹ¥åŃĲ": 6778,
      "åħļé£İ": 6779,
      "Ġeach": 6780,
      "ä½łçļĦ": 6781,
      "å®ĥä»¬": 6782,
      "éľį": 6783,
      "èŃ¦å¯Ł": 6784,
      "èĲ¥ä¸ļæĶ¶åħ¥": 6785,
      "çŃīçŃī": 6786,
      "æĿĳåºĦ": 6787,
      "ä¸ľéĥ¨": 6788,
      "åħ¨å±Ģ": 6789,
      "ç½ĳçº¢": 6790,
      "ç´§çĽ¯": 6791,
      "èĢĮåľ¨": 6792,
      "2009": 6793,
      "æ²¿çº¿": 6794,
      "ä¼¼ä¹İ": 6795,
      "ä¸Ģä»¶": 6796,
      "æĥħæĦŁ": 6797,
      "åįģåħŃ": 6798,
      "Ġdisc": 6799,
      "åľ¨ä¸Ģèµ·": 6800,
      "æĢĴ": 6801,
      "éĵĿ": 6802,
      "éĦĤ": 6803,
      "71": 6804,
      "Ġsk": 6805,
      "æ½ĺ": 6806,
      "ins": 6807,
      "çľł": 6808,
      "ä¸ĵçıŃ": 6809,
      "æĶ¿åºľæĢ§": 6810,
      "Ġsub": 6811,
      "åĨ¬åŃ£": 6812,
      "ms": 6813,
      "æĶ¿çŃĸçļĦ": 6814,
      "ä¼ĳæģ¯": 6815,
      "ä¸Ńåħ±ä¸Ńå¤®": 6816,
      "å¹´åĨħ": 6817,
      "å¯¹çħ§": 6818,
      "çĶ¨å¥½": 6819,
      "This": 6820,
      "çĶ¨äºº": 6821,
      "æīĵéĢļ": 6822,
      "å»¶ç»Ń": 6823,
      "åĢŁåĬ©": 6824,
      "åħ¥å¢ĥ": 6825,
      "ç³ķ": 6826,
      "ank": 6827,
      "çĥ¦": 6828,
      "æĪĳä»¬è¦ģ": 6829,
      "ç»Īç«¯": 6830,
      "è´¦åı·": 6831,
      "åĲĪå¹¶": 6832,
      "é«ĺè¾¾": 6833,
      "ç¬¬ä¹Ŀ": 6834,
      "æĸ¹éĴĪ": 6835,
      "æģ°": 6836,
      "ç¼Ŀ": 6837,
      "äº§ä¸ļéĽĨç¾¤": 6838,
      "éĩĳèŀįæľįåĬ¡": 6839,
      "åĤħ": 6840,
      "åĺ´": 6841,
      "æĲ¬è¿ģ": 6842,
      "åıĳå±ķæĶ¹éĿ©å§Ķ": 6843,
      "åľ¨è¿ĻéĩĮ": 6844,
      "è¿Ľåĩºåı£": 6845,
      "é¢Ĩå¯¼çıŃåŃĲ": 6846,
      "èħ°": 6847,
      "æħķ": 6848,
      "Ġworld": 6849,
      "èµ¢å¾Ĺ": 6850,
      "ĠæŃ¤æ¬¡": 6851,
      "çĶŁæĢģä¿ĿæĬ¤": 6852,
      "è¡ĮæĶ¿å®¡æī¹": 6853,
      "å¦Ļ": 6854,
      "Ġmet": 6855,
      "åįĥä¸ĩ": 6856,
      "åħ½": 6857,
      "çĽ²": 6858,
      "ä¸Ńæĸ¹": 6859,
      "æľįè£ħ": 6860,
      "æĶ¶åıĸ": 6861,
      "å°¿": 6862,
      "å±ħçİ¯å¢ĥ": 6863,
      "ä¾ĭå¦Ĥ": 6864,
      "è¢«åĳĬäºº": 6865,
      "ize": 6866,
      "ç¯ĩç«ł": 6867,
      "çļĦæķħäºĭ": 6868,
      "ä¸ªä½ĵ": 6869,
      "éŃĶ": 6870,
      "åĻª": 6871,
      "å®ŀéĻħæĥħåĨµ": 6872,
      "åŁºç¡Ģè®¾æĸ½å»ºè®¾": 6873,
      "å¹¸ç¦ıæĦŁ": 6874,
      "ces": 6875,
      "æłĩæ®µ": 6876,
      "æķ´çĲĨ": 6877,
      "è®©æĪĳä»¬": 6878,
      "çĽ®æłĩä»»åĬ¡": 6879,
      "åħ¨åŁŁ": 6880,
      "Ġlast": 6881,
      "å¤©æ´¥å¸Ĥ": 6882,
      "èĤ¿": 6883,
      "ä½ľçī©": 6884,
      "äºĳåįĹçľģ": 6885,
      "åħ¶å®ĥ": 6886,
      "Ġatt": 6887,
      ")ï¼Į": 6888,
      "è¡¨å½°": 6889,
      "èĪ±": 6890,
      "ç¢§": 6891,
      "æ¹ĸåįĹçľģ": 6892,
      "è¯ĬçĸĹ": 6893,
      "ä¸įå¿ĺ": 6894,
      "çĦĬ": 6895,
      "Ġart": 6896,
      "å¦»åŃĲ": 6897,
      "ually": 6898,
      "åīįæĿ¥": 6899,
      "å°±è¦ģ": 6900,
      "ä¹Łå°±æĺ¯": 6901,
      "Ġcomple": 6902,
      "æĸ°èĥ½æºĲæ±½è½¦": 6903,
      "èĩ´åĬĽäºİ": 6904,
      "æ³ķå®ĺ": 6905,
      "è¯Ħæłĩ": 6906,
      "åĽ½åĨħå¤ĸ": 6907,
      "Ġä¸īæĺ¯": 6908,
      "æīİå®ŀæİ¨è¿Ľ": 6909,
      "ĠâĢĶâĢĶ": 6910,
      "èµļ": 6911,
      "å¼ķåħ¥": 6912,
      "çĽĳçĲĨ": 6913,
      "å·²å®ĮæĪĲ": 6914,
      "æĨ": 6915,
      "ä¸įæİ¥åıĹ": 6916,
      "äº¤æīĢ": 6917,
      "è®°å¿Ĩ": 6918,
      "èĤ¡æľ¬": 6919,
      "å¹²åĩĢ": 6920,
      "åľĨæ»¡": 6921,
      "çļĦå¸Ĥåľº": 6922,
      "çĶµèĦĳ": 6923,
      "è¢«æī§è¡Įäºº": 6924,
      "è¾ĵåħ¥": 6925,
      "æĭĵå®½": 6926,
      "ax": 6927,
      "az": 6928,
      "çŃīå¤ļç§į": 6929,
      "å¦Ĥæľī": 6930,
      "å¸ĤæĶ¿åįı": 6931,
      "rest": 6932,
      "åħ±èµ¢": 6933,
      "åįķä½įçļĦ": 6934,
      "åįķä½įåĴĮ": 6935,
      "æĽ´é«ĺ": 6936,
      "cell": 6937,
      "çĶŁçļĦ": 6938,
      "å¤§åľ°": 6939,
      "é«ĺæ¸©": 6940,
      "éħįéĢģ": 6941,
      "ä¸Ńä»ĭ": 6942,
      "åĲįä¸º": 6943,
      "çī¹ç§į": 6944,
      "åĢ¡å¯¼": 6945,
      "çļĦé£İéĻ©": 6946,
      "çİ»": 6947,
      "éĽ¾": 6948,
      "è®¡éĩı": 6949,
      "Ġfree": 6950,
      "åıĺéĿ©": 6951,
      "éĴĪå¯¹æĢ§": 6952,
      "è§ģè¯ģ": 6953,
      "å¾Īéļ¾": 6954,
      "çľī": 6955,
      "åĲĪè§Ħ": 6956,
      "éķ¿ä¸īè§Ĵ": 6957,
      "æĮģç»Ńæİ¨è¿Ľ": 6958,
      "Ġprocess": 6959,
      "å¸Ĥåħ¬å®īå±Ģ": 6960,
      "åº¦åģĩ": 6961,
      "Ġeas": 6962,
      "é£ŁåłĤ": 6963,
      "æ¶Īéĺ²å®īåħ¨": 6964,
      "æĸ°å¾ģç¨ĭ": 6965,
      "å¹¶äºİ": 6966,
      "è®¤è´Ń": 6967,
      "cept": 6968,
      "æĲºå¸¦": 6969,
      "å®ŀéĻħè¡ĮåĬ¨": 6970,
      "æĹłçĹĩçĬ¶æĦŁæŁĵèĢħ": 6971,
      "ĠåĪĺ": 6972,
      "Ġlook": 6973,
      "çłĶç©¶ä¸Ńå¿ĥ": 6974,
      "ĊĠĊ": 6975,
      "çĶ¨çļĦ": 6976,
      "æĻļä¸Ĭ": 6977,
      "åħ¬åħ±èµĦæºĲäº¤æĺĵä¸Ńå¿ĥ": 6978,
      "self": 6979,
      "åĵ²": 6980,
      "æĿĳçļĦ": 6981,
      "è¯ĳ": 6982,
      "å½ĵä¸Ń": 6983,
      "æ£Ĵ": 6984,
      "è´µå·ŀçľģ": 6985,
      "å®£ä¼łæ´»åĬ¨": 6986,
      "çļĦéľĢæ±Ĥ": 6987,
      "é¢ĩ": 6988,
      "åľ°çĲĥ": 6989,
      "ash": 6990,
      "å®¢è¿Ĳ": 6991,
      "å¤§å¤§": 6992,
      "çĶ±æŃ¤": 6993,
      "æ¤Ĵ": 6994,
      "è¹Ī": 6995,
      "å¯ĵ": 6996,
      "éĹ²ç½®": 6997,
      "éŀĭ": 6998,
      "land": 6999,
      "å»·": 7000,
      "çī¢åĽº": 7001,
      "è¡·": 7002,
      "ale": 7003,
      "éĥ½å¸Ĥ": 7004,
      "åĮ»çĸĹåį«çĶŁ": 7005,
      "åĽ½èµĦ": 7006,
      "å»ºè®¾å·¥ä½ľ": 7007,
      "Ġinter": 7008,
      "ric": 7009,
      "åĬłæĭ¿": 7010,
      "èĥ½åĬĽåĴĮ": 7011,
      "çģ«è½¦": 7012,
      "åħħåĪĨåĪ©çĶ¨": 7013,
      "ustom": 7014,
      "çĲ¼": 7015,
      "ä¸Ĭè¯ī": 7016,
      "ä¸ĭåİ»": 7017,
      "åīįæĻ¯": 7018,
      "ouse": 7019,
      "åİ¿åŁİ": 7020,
      "æİĴæ°´": 7021,
      "Ġcle": 7022,
      "è¯ķè¡Į": 7023,
      "æ±¡æ°´å¤ĦçĲĨ": 7024,
      "Ġagain": 7025,
      "ä¸ºå¥ĳæľº": 7026,
      "éĥģ": 7027,
      "éģ¥": 7028,
      "å¼ºåº¦": 7029,
      "Ġwee": 7030,
      "åħ¨éĿ¢ä»İä¸¥æ²»åħļ": 7031,
      "åįģå¤§": 7032,
      "ç®Ń": 7033,
      "å¤ĸåĩº": 7034,
      "æľīæľĽ": 7035,
      "æ°´æŀľ": 7036,
      "äº¤ä»ĺ": 7037,
      "ä¼ļçļĦ": 7038,
      "å¤ĦåĪĨ": 7039,
      "çĺ¤": 7040,
      "Ġprovid": 7041,
      "æĺ¯å¯¹": 7042,
      "èĥĨ": 7043,
      "å¹¶è®²è¯Ŀ": 7044,
      "éĩįè¦ģæĮĩç¤º": 7045,
      "åıįå¤į": 7046,
      "ä½¿çĶ¨çļĦ": 7047,
      "ines": 7048,
      "åĬ³åĬ¨èĢħ": 7049,
      "è¯±": 7050,
      "åĪ°è¾¾": 7051,
      "éĩįå»º": 7052,
      "å¹³çŃī": 7053,
      "éĹ®è´£": 7054,
      "éĩĩè´Ńäºº": 7055,
      "è¿ľç¨ĭ": 7056,
      "å¿į": 7057,
      "çĶ¨éĢĶ": 7058,
      "ä¹ĭä¸Ń": 7059,
      "æ»ŀ": 7060,
      "çħĮ": 7061,
      "åĨ²çªģ": 7062,
      "æĺĨæĺİ": 7063,
      "æĺĤ": 7064,
      "èĳ¬": 7065,
      "ave": 7066,
      "å¸ĤçĽ´": 7067,
      "çĽĪåĪ©": 7068,
      "åį³ä½¿": 7069,
      "æĬķæĶ¾": 7070,
      "Ġteam": 7071,
      "å®ıè§Ĥ": 7072,
      "pr": 7073,
      "ä¸Ńçº§": 7074,
      "ä¸»å¼ł": 7075,
      "Ġfun": 7076,
      "ution": 7077,
      "ç³»ç»ŁçļĦ": 7078,
      "Ġ|": 7079,
      "ç©Ĩ": 7080,
      "Ġmed": 7081,
      "ä¸¥å³»": 7082,
      "æ³¨éĶĢ": 7083,
      "æĥłæ°ĳ": 7084,
      "ä½ĵçİ°äºĨ": 7085,
      "ä¼ļåĲĮ": 7086,
      "åħ¨æĸ°": 7087,
      "æ±ª": 7088,
      "æ¼Ĩ": 7089,
      "æ¯ıæĹ¥": 7090,
      "éĺ¿éĩĮ": 7091,
      "æĽĿåħī": 7092,
      "ä¿ĿèįĲ": 7093,
      "çĬ¬": 7094,
      "ç§ĳæĬĢæĪĲæŀľ": 7095,
      "åįļè§Ī": 7096,
      "èĤĮ": 7097,
      "å·¥ä½ľæĬ¥åĳĬ": 7098,
      "æľ¬æ¡Ī": 7099,
      "æĶ¯è¡Į": 7100,
      "å¤ĸèµĦ": 7101,
      "åĽĽå¤§": 7102,
      "ving": 7103,
      "å®ŀåľ¨": 7104,
      "èįĨ": 7105,
      "åıĹä¼¤": 7106,
      "å¢ŀåĬłäºĨ": 7107,
      "]ï¼ī": 7108,
      "èĤ¤": 7109,
      "åĲĮäºĭ": 7110,
      "æīĢå±ŀ": 7111,
      "æ¤ħ": 7112,
      "çī¹æľĹ": 7113,
      "æİ¥è¿ĳ": 7114,
      "å¸¦æĿ¥äºĨ": 7115,
      "å¼ĥæĿĥ": 7116,
      "æįĲèµł": 7117,
      "ef": 7118,
      "çŃīæ´»åĬ¨": 7119,
      "æĬķäº§": 7120,
      "ç»ĵè½¬": 7121,
      "ä¾ĿéĿł": 7122,
      "æī§æ³ķäººåĳĺ": 7123,
      "ä¾¯": 7124,
      "å°±åı¯ä»¥": 7125,
      "åĨľæľº": 7126,
      "é¥²": 7127,
      "åĩıæĮģ": 7128,
      "å°Ŀè¯ķ": 7129,
      "èĬ¯çīĩ": 7130,
      "Ġç¬¬åįģ": 7131,
      "æĸĩæĺİå®ŀè·µ": 7132,
      "èį£èİ·": 7133,
      "çļĦæĶ¿çŃĸ": 7134,
      "æķĻç»ĥ": 7135,
      "åĺ±": 7136,
      "è¾£": 7137,
      "å¹³æĹ¶": 7138,
      "æŃ¥ä¼Ĳ": 7139,
      "å¥³åŃ©": 7140,
      "ple": 7141,
      "å¤§åİ¦": 7142,
      "æ£ĭ": 7143,
      "çħ¤çĤŃ": 7144,
      "Ġ16": 7145,
      "Ġgl": 7146,
      "Ġstr": 7147,
      "æĶ¿åºľæĢ§åŁºéĩĳ": 7148,
      "çº¤": 7149,
      "æĥľ": 7150,
      "æīĵçł´": 7151,
      "æĬĢæľ¯çļĦ": 7152,
      "æ°¸è¿ľ": 7153,
      "çªģåĩºéĹ®é¢ĺ": 7154,
      "ather": 7155,
      "çĮİ": 7156,
      "éĥĳå·ŀ": 7157,
      "gg": 7158,
      "way": 7159,
      "åıĳå°Ħ": 7160,
      "ä¸ŃåĽ½è¯ģçĽĳä¼ļ": 7161,
      "æľĢå¤ļ": 7162,
      "æ¯ıæ¬¡": 7163,
      "éĿĴå±±": 7164,
      "ç»ıè´¸": 7165,
      "ä¹Łèĥ½": 7166,
      "è¡ĮæĶ¿å¤įè®®": 7167,
      "é²ľæĺİ": 7168,
      "åİŁæĿ¥": 7169,
      "Ġwhile": 7170,
      "ï¼į": 7171,
      "çĶŁæķĪ": 7172,
      "éĩĮéĿ¢": 7173,
      "åıĹçĽĬ": 7174,
      "åĽ½ä¼ģ": 7175,
      "æ°´ä¸Ĭ": 7176,
      "æĹłäººæľº": 7177,
      "ĠæĪĳ": 7178,
      "éĴ»": 7179,
      "é¼İ": 7180,
      "è§ĦèĮĥæĢ§æĸĩä»¶": 7181,
      "éķ¿æĺ¥": 7182,
      "åŀ«": 7183,
      "åŃ¦çĶŁçļĦ": 7184,
      "åĬłå¿«å»ºè®¾": 7185,
      "ä¸įåĲĪæł¼": 7186,
      "å·¥ä½ľæĸ¹æ¡Ī": 7187,
      "ç»ŁæĪĺ": 7188,
      "å¥¹ä»¬": 7189,
      "éģŃéģĩ": 7190,
      "æł¸åĩĨ": 7191,
      "çī¹æľĹæĻ®": 7192,
      "æĬĳ": 7193,
      "çĶŁéķ¿": 7194,
      "é¹¿": 7195,
      "åı¯è§ģ": 7196,
      "å¤ĸè´¸": 7197,
      "arn": 7198,
      "åįĹéĥ¨": 7199,
      "äº²èĩª": 7200,
      "ues": 7201,
      "çļĦçľŁå®ŀ": 7202,
      "åķĨè´¸": 7203,
      "éĶĤ": 7204,
      "çºªå§ĶçĽĳå§Ķ": 7205,
      "å·¥ä¿¡": 7206,
      "éĩĩéĽĨ": 7207,
      "æĿĥå¨ģ": 7208,
      "èķ´": 7209,
      "åħ¬å¼Ģåıĳè¡Į": 7210,
      "éĹ´çļĦ": 7211,
      "æµģè¡Į": 7212,
      "æ±ĩèģļ": 7213,
      "ä¸ºè¿Ľä¸ĢæŃ¥": 7214,
      "Ġaround": 7215,
      "åĬŀå®ŀäºĭ": 7216,
      "ç»Ħç»ĩçļĦ": 7217,
      "ä¸ĸçķĮæĿ¯": 7218,
      "ä¸ºæŃ¤": 7219,
      "éĢļå¸¸": 7220,
      "ä¹ĭéĻħ": 7221,
      "chool": 7222,
      "ç¿¼": 7223,
      "ä½ľäºĨ": 7224,
      "æłĩè¯Ĩ": 7225,
      "åħ³äºİåį°åıĳ": 7226,
      "åºĶæĢ¥å¤Ħç½®": 7227,
      "é©¬åħĭæĢĿ": 7228,
      "Ġ.": 7229,
      "lease": 7230,
      "å¸¸è§ģ": 7231,
      "é¼ł": 7232,
      "çļĦåŁºæľ¬": 7233,
      "çºº": 7234,
      "æ´»è·ĥ": 7235,
      "æľĢç¾İ": 7236,
      "ä½ıéĻ¢": 7237,
      "èĥ¸": 7238,
      "éĥ¨ä»¶": 7239,
      "æıĲåĪ°": 7240,
      "arm": 7241,
      "ç»ıæµİå¢ŀéķ¿": 7242,
      "æ²³åĮĹçľģ": 7243,
      "èµ«": 7244,
      "å·¥ä½ľè¦ģæ±Ĥ": 7245,
      "åĩıè½»": 7246,
      "éĶĻè¯¯": 7247,
      "æĹłè®ºæĺ¯": 7248,
      "Ġsupport": 7249,
      "è¾¨": 7250,
      "ä¼ļåľº": 7251,
      "åĽŀæĬ¥": 7252,
      "æľ¬æ¬¡åıĳè¡Į": 7253,
      "çĶŁæĢģçİ¯å¢ĥå±Ģ": 7254,
      "ä¸¤ä¼ļ": 7255,
      "æĹ¶éĹ´åĨħ": 7256,
      "æıĲåįĩäºĨ": 7257,
      "Ġtechn": 7258,
      "æĬµæĬ¼": 7259,
      "å¡«æĬ¥": 7260,
      "åĪĽæĸ°åıĳå±ķ": 7261,
      "çĴĥ": 7262,
      "åıĳæĶ¹å§Ķ": 7263,
      "Ġ$": 7264,
      "ĠéĻĪ": 7265,
      "çļĦäºĭ": 7266,
      "æĮ¡": 7267,
      "Ġ2017": 7268,
      "çİ²": 7269,
      "æ³Ħ": 7270,
      "å®¶å±ŀ": 7271,
      "èĢĥåı¤": 7272,
      "Ġgra": 7273,
      "imes": 7274,
      "ç«ĭæĸ¹": 7275,
      "Ġret": 7276,
      "Ġprof": 7277,
      "éĢĢåĩº": 7278,
      "çĶľé¦¨": 7279,
      "çŃīå½¢å¼ı": 7280,
      "é¡¹çĽ®æĶ¯åĩº": 7281,
      "æį®æĤī": 7282,
      "æº¢": 7283,
      "Ġå¯¹äºİ": 7284,
      "åĽ½åºĨ": 7285,
      "ç§ĳçĽ®": 7286,
      "å¤©ä¸ĭ": 7287,
      "å¿«ä¹Ĳ": 7288,
      "äºĴèģĶ": 7289,
      "å¤±åİ»": 7290,
      "Ġlead": 7291,
      "èĪŀè¹Ī": 7292,
      "åĩºåħ·çļĦ": 7293,
      "äººå±ħçİ¯å¢ĥ": 7294,
      "å¯¹æīĭ": 7295,
      "åĳ¨åĽ´": 7296,
      "æĹŃ": 7297,
      "ä»¥ä¸º": 7298,
      "åħĥçļĦ": 7299,
      "æĢ»æĺ¯": 7300,
      "Ġmem": 7301,
      "å¤ķ": 7302,
      "Ġpost": 7303,
      "ç®¡çĲĨæľīéĻĲåħ¬åı¸": 7304,
      "å¼¯": 7305,
      "ä¸ºç¾¤ä¼Ĺ": 7306,
      "è¿ĺèĥ½": 7307,
      "åĩĨåĪĻ": 7308,
      "Ġhim": 7309,
      "å¸ĪèĮĥ": 7310,
      "çĥŃçĥĪ": 7311,
      "çĶµåŃĲåķĨåĬ¡": 7312,
      "é¾Ļå¤´ä¼ģä¸ļ": 7313,
      "åĲĳç¤¾ä¼ļ": 7314,
      "æĶ¿åºľçļĦ": 7315,
      "è®²åº§": 7316,
      "ä¹ĺå®¢": 7317,
      "åĲ¸å¼ķäºĨ": 7318,
      "ä¸Ī": 7319,
      "åĬ¡å·¥": 7320,
      "èĤł": 7321,
      "æį®äºĨè§£": 7322,
      "åįĹæĸ¹": 7323,
      "ç¦ıå»ºçľģ": 7324,
      "æĿĳéĩĮ": 7325,
      "èĢģæĹ§": 7326,
      "Ġlar": 7327,
      "äº¬ä¸ľ": 7328,
      "ives": 7329,
      "è½¦çļĦ": 7330,
      "æľĢåĲİä¸Ģ": 7331,
      "åı¯æĮģç»Ńåıĳå±ķ": 7332,
      "å½ĵä»£": 7333,
      "æĶ¾å¿ĥ": 7334,
      "æĦŁæĥħ": 7335,
      "åĲ¦åĪĻ": 7336,
      "åĵªéĩĮ": 7337,
      "åıĳè¾¾": 7338,
      "æľĪèĩ³": 7339,
      "å¢ŀåĢ¼": 7340,
      "ä¸¥åİī": 7341,
      "åģ¥åº·åıĳå±ķ": 7342,
      "Ġusing": 7343,
      "é¥®é£Ł": 7344,
      "de": 7345,
      "ä¸ºéĩįçĤ¹": 7346,
      "æ¶¨å¹ħ": 7347,
      "der": 7348,
      "å¤§æī¹": 7349,
      "æĭĺ": 7350,
      "Ġloo": 7351,
      "å°Ĩä»¥": 7352,
      "é£İæĻ¯": 7353,
      "app": 7354,
      "ç©·": 7355,
      "æĪ·ç±į": 7356,
      "Ġreally": 7357,
      "åİĨç¨ĭ": 7358,
      "åºŁçī©": 7359,
      "æĲľç´¢": 7360,
      "æ¾³å¤§åĪ©äºļ": 7361,
      "ced": 7362,
      "æ²§": 7363,
      "éĺĲ": 7364,
      "Ġsign": 7365,
      "ç§ī": 7366,
      "ä¹Łæ²¡æľī": 7367,
      "äºĶå¤§": 7368,
      "ä¸»è¦ģè´Łè´£äºº": 7369,
      "æĸ°æ¨¡å¼ı": 7370,
      "æµ·åı£": 7371,
      "æİ¥ä¸ĭæĿ¥": 7372,
      "è´ŃæĪ¿": 7373,
      "åĬłæĭ¿å¤§": 7374,
      "çļĦå»ºè®¾": 7375,
      "ä¸įä½İäºİ": 7376,
      "å°±åĮ»": 7377,
      "æĿ¡æ¬¾": 7378,
      "äººæ°ĳåĮ»éĻ¢": 7379,
      "åĪĨçº§": 7380,
      "éĹ¨åºĹ": 7381,
      "èģĮç§°": 7382,
      "ç½ĳç»ľå®īåħ¨": 7383,
      "ä¿±ä¹Ĳ": 7384,
      "Ġthough": 7385,
      "çī¹èī²çļĦ": 7386,
      "æ¾³éĹ¨": 7387,
      "ways": 7388,
      "èģĶç»ľ": 7389,
      "æ°´æºĲ": 7390,
      "çī¹æŃ¤": 7391,
      "åĽŀå¤į": 7392,
      "å®ģå¤ı": 7393,
      "èİŀ": 7394,
      "è´ŁåĢº": 7395,
      "åĪĽæĸ°åĪĽä¸ļ": 7396,
      "ç¨İåĬ¡å±Ģ": 7397,
      "Ġåħ«": 7398,
      "åķ¡": 7399,
      "èº«ä¸Ĭ": 7400,
      "ç§ĳåŃ¦æĬĢæľ¯": 7401,
      "é¢ĳéģĵ": 7402,
      "åĪ¶å®ļäºĨ": 7403,
      "Ġadv": 7404,
      "APP": 7405,
      "ĠéĢļè¿ĩ": 7406,
      "æīĳ": 7407,
      "ä¸¤æ¬¡": 7408,
      "çħ§é¡¾": 7409,
      "è´¨éĩıå®īåħ¨": 7410,
      "ute": 7411,
      "irect": 7412,
      "èĥĢ": 7413,
      "æĬ¥èĢĥ": 7414,
      "ç½ĳçĤ¹": 7415,
      "ĠAs": 7416,
      "èħ¾è®¯": 7417,
      "Ġä¸ĩåħĥ": 7418,
      "æ¯Ķéĩį": 7419,
      "ä»ĬæĹ¥": 7420,
      "ç§¯æŀģå¼Ģå±ķ": 7421,
      "ç£Ĭ": 7422,
      "é¢Ĩä¼ļ": 7423,
      "é¢Ĩå¯¼äºº": 7424,
      "èĬ±åĽŃ": 7425,
      "å®ĹæķĻ": 7426,
      "å¾ģæ±ĤæĦıè§ģ": 7427,
      "ç»ĵå©ļ": 7428,
      "è´¢ç»ı": 7429,
      "åĬ³åĬ¡": 7430,
      "ä½Ĩåľ¨": 7431,
      "ä»·åĢ¼è§Ĥ": 7432,
      "view": 7433,
      "å¯¹åºĶ": 7434,
      "ä¸ĭè¾¾": 7435,
      "æĥħæĢĢ": 7436,
      "äº§ä¸ļåĮĸ": 7437,
      "Ġ/": 7438,
      "Ġpol": 7439,
      "åĲįçļĦ": 7440,
      "èĭĳ": 7441,
      "atch": 7442,
      "åĨħåľ°": 7443,
      "ä»»èģĮ": 7444,
      "è°ĥæİ§": 7445,
      "çİĩä¸º": 7446,
      "åŁİå¸ĤçļĦ": 7447,
      "çĮĽ": 7448,
      "éļıæľº": 7449,
      "äºĭä¸ļåıĳå±ķ": 7450,
      "èľľ": 7451,
      "çĨĬçĮ«": 7452,
      "Ġ100": 7453,
      "æĹıèĩªæ²»": 7454,
      "çīĪæĿĥ": 7455,
      "çĶµè§Ĩåı°": 7456,
      "è¾Ł": 7457,
      "éĩĳå±±": 7458,
      "ä½ĻåĲį": 7459,
      "æ¿ĢåĬ±å¯¹è±¡": 7460,
      "éĺľ": 7461,
      "èĩªè´¸": 7462,
      "åħ¬åı¸ç«łç¨ĭ": 7463,
      "å°ıçļĦ": 7464,
      "Ġmarket": 7465,
      "åĢĻéĢīäºº": 7466,
      "çłģå¤´": 7467,
      "åĲİæŀľ": 7468,
      "ä¼ģä¸ļåıĳå±ķ": 7469,
      "åħ¨éĿ¢æıĲåįĩ": 7470,
      "å±ŀåľ°": 7471,
      "åĩłå¤©": 7472,
      "çĽĳçĭ±": 7473,
      "ason": 7474,
      "åı£å²¸": 7475,
      "éĵ¾æĿ¡": 7476,
      "å°ģéĹŃ": 7477,
      "ever": 7478,
      "æĺ¯ä»Ģä¹Ī": 7479,
      "è½´": 7480,
      "åģ·": 7481,
      "ä¸ĭè·Į": 7482,
      "Ġser": 7483,
      "åģļå¼º": 7484,
      "ä¿¡æģ¯æĬĢæľ¯": 7485,
      "è®ºè¿°": 7486,
      "åºĶæĢ¥é¢Ħæ¡Ī": 7487,
      "é¹°": 7488,
      "ween": 7489,
      "å±Ģå±Ģéķ¿": 7490,
      "å¼ıçİ°ä»£åĮĸ": 7491,
      "ç¡®ç«ĭ": 7492,
      "ä¸Ģä¸ªæľĪ": 7493,
      "æī£éĻ¤": 7494,
      "è¦ģå¼ºåĮĸ": 7495,
      "æīĵåį°": 7496,
      "ç»ıæµİçļĦ": 7497,
      "æĪ·å¤ĸ": 7498,
      "æĵİ": 7499,
      "å®ĥçļĦ": 7500,
      "ç»¿èī²åıĳå±ķ": 7501,
      "å¤§è§Ħæ¨¡": 7502,
      "è·¯ä¸Ĭ": 7503,
      "åŀĴ": 7504,
      "æ£Ģçĸ«": 7505,
      "æľªèĥ½": 7506,
      "ç»¼åĲĪæ²»çĲĨ": 7507,
      "****": 7508,
      "åħļé£İå»īæĶ¿": 7509,
      "è¿Ļä½į": 7510,
      "ç»ĵä½Ļ": 7511,
      "åĬ©äºİ": 7512,
      "å®īæİĴéĥ¨ç½²": 7513,
      "çŁ¿å±±": 7514,
      "åĨ¬å¥¥": 7515,
      "ä¿±ä¹Ĳéĥ¨": 7516,
      "ten": 7517,
      "çļĦäººåĳĺ": 7518,
      "åįĹæĺĮ": 7519,
      "ç»ıèĲ¥èĢħ": 7520,
      "å½ķåıĸ": 7521,
      "å´Ķ": 7522,
      "æĺ¯ä¸ª": 7523,
      "ç®¡çĲĨéĥ¨éĹ¨": 7524,
      "é¢Ĩå¯¼ä¸ĭ": 7525,
      "åĮ»çĸĹåĻ¨æ¢°": 7526,
      "æĺİç¡®äºĨ": 7527,
      "Ġsame": 7528,
      "åīįä¸ī": 7529,
      "ĠAn": 7530,
      "Ġstill": 7531,
      "ä¸Ģçīĩ": 7532,
      "åľ¨åĨħçļĦ": 7533,
      "Ġcare": 7534,
      "å¯¼å¼¹": 7535,
      "æķ´é¡¿": 7536,
      "åºĶæĢ¥æķĳæı´": 7537,
      "æĪĲç«ĭäºĨ": 7538,
      "ä»İä¸ļäººåĳĺ": 7539,
      "å°ıéķĩ": 7540,
      "æĿĥçļĦ": 7541,
      "ç»Ħç»ĩéĥ¨": 7542,
      "Ġlist": 7543,
      "ç´§ç´§åĽ´ç»ķ": 7544,
      "ah": 7545,
      "è¡Įé©¶": 7546,
      "åħ¨å·ŀ": 7547,
      "çĽ´åĪ°": 7548,
      "Ġfeel": 7549,
      "å®¡è®®éĢļè¿ĩäºĨ": 7550,
      "æĸ°çĶŁ": 7551,
      "é¡·": 7552,
      "æ¬º": 7553,
      "äºĮæ¬¡": 7554,
      "çĦķ": 7555,
      "ional": 7556,
      "åĴĸåķ¡": 7557,
      "å¤§æ¡¥": 7558,
      "ä¸įç®¡": 7559,
      "åľ°éĿ¢": 7560,
      "èĥĮæĻ¯ä¸ĭ": 7561,
      "éģı": 7562,
      "è§£åĨ³äºĨ": 7563,
      "Ġéĩĩè´Ń": 7564,
      "å¼¥": 7565,
      "Ġsomet": 7566,
      "æĬ¤èĪª": 7567,
      "ç±»åĪ«": 7568,
      "å¤ľéĹ´": 7569,
      "Ġgoing": 7570,
      "éĿĸ": 7571,
      "é©°": 7572,
      "æĥħåĨµè¿Ľè¡Į": 7573,
      "ä¸»è¦ģçĶ¨äºİ": 7574,
      "Ġext": 7575,
      "Ġplan": 7576,
      "è®¡ç®Ĺæľº": 7577,
      "Ġimport": 7578,
      "æĬ¥èŃ¦": 7579,
      "éļ¾åº¦": 7580,
      "çļĦåĽ½éĻħ": 7581,
      "ä¸įäºĨ": 7582,
      "ature": 7583,
      "éĿŀæ´²": 7584,
      "éĩĩè®¿æĹ¶": 7585,
      "iqu": 7586,
      "ince": 7587,
      "æĺİçĻ½": 7588,
      "Ġpur": 7589,
      "åĽ¢ä¼Ļ": 7590,
      "å¾®ä¿¡åħ¬ä¼Ĺåı·": 7591,
      "è¡°": 7592,
      "çĬ¹": 7593,
      "çłĶç©¶çĶŁ": 7594,
      "ĠAr": 7595,
      "æ±Łè¥¿çľģ": 7596,
      "æĺİå¹´": 7597,
      "è¾¾æłĩ": 7598,
      "èªĵ": 7599,
      "èĬ¬": 7600,
      "è¿Ĳè½¬": 7601,
      "å¸ĤåľºåĮĸ": 7602,
      "Ġ13": 7603,
      "Ġvar": 7604,
      "å¥łå®ļ": 7605,
      "Ġç¬¬ä¸Ģ": 7606,
      "çŃĸåĪĴ": 7607,
      "æľªç»ı": 7608,
      "å¢ŀåĬłåĢ¼": 7609,
      "åĲĬ": 7610,
      "ä¿Ŀå¯Ĩ": 7611,
      "è¿Ļä¹Łæĺ¯": 7612,
      "æĻ´": 7613,
      "äº®çĽ¸": 7614,
      "IT": 7615,
      "Ġï¼ī": 7616,
      "ä¸įçĶ¨": 7617,
      "Ġcount": 7618,
      "ç¤¾ä¼ļç»Ħç»ĩ": 7619,
      "åĽŀå¿Ĩ": 7620,
      "è§Ĩè§ī": 7621,
      "æľīä¸Ģä¸ª": 7622,
      "çĶŁåŃĺ": 7623,
      "æŀļ": 7624,
      "åĲĦåĮº": 7625,
      "ç¤¾ä¼ļæ²»çĲĨ": 7626,
      "çļĦç¬¬ä¸Ģ": 7627,
      "çļĦæĶ¯æĮģ": 7628,
      "ized": 7629,
      "åİķæīĢ": 7630,
      "Ġavail": 7631,
      "âī": 7632,
      "æĮ¤": 7633,
      "è¦ģè¿Ľä¸ĢæŃ¥": 7634,
      "ä¸ªåĪ«": 7635,
      "è´¯ç©¿": 7636,
      "ä¸Ģå®ļçļĦ": 7637,
      "åĽºå®ļèµĦäº§": 7638,
      "åıĬåħ¶ä»ĸ": 7639,
      "éĩıçļĦ": 7640,
      "äº¬æ´¥": 7641,
      "åĺīå®¾": 7642,
      "èĥ½åĲ¦": 7643,
      "ï¼Ī[": 7644,
      "éķ¿åĪ¶": 7645,
      "å°Ĩåħ¶": 7646,
      "æĦıæĦ¿": 7647,
      "éħ·": 7648,
      "åı¯ä»¥åľ¨": 7649,
      "riend": 7650,
      "å»ºçŃĳéĿ¢ç§¯": 7651,
      "Ġed": 7652,
      "ç§¯æŀģæĢ§": 7653,
      "åĿĩä¸º": 7654,
      "æīĭåĨĮ": 7655,
      "éĢļçŁ¥ä¹¦": 7656,
      ".,": 7657,
      "èµ·çĤ¹": 7658,
      "èĩ´è¾ŀ": 7659,
      "æ¿ĢçĥĪ": 7660,
      "çł´è§£": 7661,
      "ĠFor": 7662,
      "è®¤çľŁèĲ½å®ŀ": 7663,
      "æı½": 7664,
      "å·¥ä½ľé¢Ĩå¯¼å°ıç»Ħ": 7665,
      "ä¼ļè®®ç²¾ç¥ŀ": 7666,
      "éĤ®æĶ¿": 7667,
      "è¯¯å¯¼": 7668,
      "æİ¢è®¨": 7669,
      "Ġshow": 7670,
      "åĬ¨çĶ»": 7671,
      "ä¸ĩåħĥçļĦ": 7672,
      "ä»ĺæ¬¾": 7673,
      "ctions": 7674,
      "å¯¹æ¯Ķ": 7675,
      "éĢļçĶ¨": 7676,
      "åħ¬åı¸åľ¨": 7677,
      "Ġboth": 7678,
      "æĶ¿åºľéĩĩè´Ńæ³ķ": 7679,
      "Ġ2016": 7680,
      "åĨľä¸ļåĨľæĿĳå±Ģ": 7681,
      "åıĳæī¬": 7682,
      "Ġcustom": 7683,
      "éĢĬ": 7684,
      "read": 7685,
      "è§Ħæł¼": 7686,
      "åħ¶æ¬¡": 7687,
      "éĺ²çº¿": 7688,
      "åĬ³åĬ¨åĬĽ": 7689,
      "çļĦåŁİå¸Ĥ": 7690,
      "åĿĳ": 7691,
      "Ġopt": 7692,
      "çĿĽ": 7693,
      "æľĢå¥½çļĦ": 7694,
      "æĪĸè®¸": 7695,
      "è¿İæİ¥": 7696,
      "ets": 7697,
      "å¤§åĬĽåıĳå±ķ": 7698,
      "ç¡¬ä»¶": 7699,
      "è¾ĸåĮºåĨħ": 7700,
      "èĽĭçĻ½": 7701,
      "Ġbetween": 7702,
      "çī²": 7703,
      "ä»¥å¾Ģ": 7704,
      "Ġthink": 7705,
      "ç»§æī¿": 7706,
      "æ²Īéĺ³": 7707,
      "ollow": 7708,
      "less": 7709,
      "æµ·åįĹçľģ": 7710,
      "åĽłåħ¬": 7711,
      "æķĻèĤ²éĥ¨": 7712,
      "å¤įèĭı": 7713,
      "ä¿ĿæĬ¤åĮº": 7714,
      "Ġaut": 7715,
      "Ġcur": 7716,
      "èī²å½©": 7717,
      "ä¸ªäººä¿¡æģ¯": 7718,
      "å¸Ĥå§Ķä¹¦è®°": 7719,
      "ness": 7720,
      "éľ¸": 7721,
      "ĠAl": 7722,
      "éĢģåĪ°": 7723,
      "çİ»çĴĥ": 7724,
      "ä¸įç§»": 7725,
      "åľºé¦Ĩ": 7726,
      "é©»æĿĳ": 7727,
      "Ġservices": 7728,
      "äººæ°ĳçļĦ": 7729,
      "æĶ¿æ²»ç«Ļä½į": 7730,
      "çļĦèĢģ": 7731,
      "æ³ķåĪ¶": 7732,
      "ä¼ģä¸ļåľ¨": 7733,
      "æİ¥æĶ¶": 7734,
      "Ġ18": 7735,
      "å´Ľèµ·": 7736,
      "éĻªåĲĮ": 7737,
      "éĩİçĶŁåĬ¨çī©": 7738,
      "åĩºèµĦ": 7739,
      "è´£ä»»äºº": 7740,
      "è¿Ŀçº¦": 7741,
      "æĸ°åįİç¤¾è®°èĢħ": 7742,
      "å¸½": 7743,
      "å®ļä»·": 7744,
      "æĥħåĨµä¸ĭ": 7745,
      "åħ³ç³»çļĦ": 7746,
      "ä¼¤å®³": 7747,
      "æĭįåįĸ": 7748,
      "ä¸įåľ¨": 7749,
      "ining": 7750,
      "æĽ´æį¢": 7751,
      "éĿŀçī©è´¨": 7752,
      "ç§ĳæĬĢèĤ¡ä»½æľīéĻĲåħ¬åı¸": 7753,
      "åıĳè¨Ģäºº": 7754,
      "ars": 7755,
      "ä¸¤ç§į": 7756,
      "Ġlot": 7757,
      "æł½": 7758,
      "æ¸Ĺ": 7759,
      "æ±ŁåįĹ": 7760,
      "è£ħä¿®": 7761,
      "âĢ¦âĢ¦âĢĿ": 7762,
      "ä¸ºæł¸å¿ĥçļĦ": 7763,
      "au": 7764,
      "Ġç»ı": 7765,
      "æıĲåıĸ": 7766,
      "è¿ĩæĿ¥": 7767,
      "ital": 7768,
      "æĽ´å¥½çļĦ": 7769,
      "Ġtop": 7770,
      "123": 7771,
      "éŁ¦": 7772,
      "é¢Ħç®Ĺéĩĳé¢Ŀ": 7773,
      "å°ĳæķ°æ°ĳæĹı": 7774,
      "åµ": 7775,
      "åīįæ²¿": 7776,
      "æĲħ": 7777,
      "æ·±åº¦èŀįåĲĪ": 7778,
      "è¿Ļåľº": 7779,
      "è¾ĥé«ĺ": 7780,
      "ä¹ĥèĩ³": 7781,
      "çļĦä¿¡æģ¯": 7782,
      "çŃīåĨħå®¹": 7783,
      "æ°´ç¨»": 7784,
      "ä¸ľèİŀ": 7785,
      "æĶ¿åįıå§Ķåĳĺ": 7786,
      "âĢĿï¼ļ": 7787,
      "æľ¬ç§ĳ": 7788,
      "è¿ĩçļĦ": 7789,
      "å¹¶ä¸¾": 7790,
      "Ġlove": 7791,
      "]ãĢĤ": 7792,
      "âĢķ": 7793,
      "ä¸įè§ģ": 7794,
      "ä¸ĩäº¿åħĥ": 7795,
      "åķĨæłĩ": 7796,
      "å·²è¢«": 7797,
      "çī¢çī¢": 7798,
      "æļ´éĽ¨": 7799,
      "4000": 7800,
      "åĩºåĶ®": 7801,
      "Ġdata": 7802,
      "å¿ħçĦ¶": 7803,
      "æĺ¨æĹ¥": 7804,
      "å±¯": 7805,
      "éĢ¼": 7806,
      "æĥĳ": 7807,
      "çĶµç½ĳ": 7808,
      "åĲįåŃĹ": 7809,
      "æĥ³è±¡": 7810,
      "æĥħèĬĤ": 7811,
      "Ġcour": 7812,
      "æĹłæķĪ": 7813,
      "æĤł": 7814,
      "åħ»æĬ¤": 7815,
      "æ¢¨": 7816,
      "éĩįå¤§é¡¹çĽ®": 7817,
      "èĥĥ": 7818,
      "Ġposs": 7819,
      "åıĤçħ§": 7820,
      "Ġhapp": 7821,
      "å°½éĩı": 7822,
      "å°½è´£": 7823,
      "æĵħ": 7824,
      "è´¿": 7825,
      "ä¸¤åľ°": 7826,
      "æī¹åıĳ": 7827,
      "Wh": 7828,
      "ox": 7829,
      "åŁ¹è®ŃçıŃ": 7830,
      "Ġplace": 7831,
      "äºĨä¸ŃåĽ½": 7832,
      "è·¯éĿ¢": 7833,
      "èĲ½æĪ·": 7834,
      "çĪ±å¥½": 7835,
      "è®°èĢħä»İ": 7836,
      "å·¨å¤§çļĦ": 7837,
      "Ġphot": 7838,
      "æĸ°åªĴä½ĵ": 7839,
      "ç«ĭåľº": 7840,
      "æĪ¿ä»·": 7841,
      "èµ°åľ¨": 7842,
      "å»ºéĢł": 7843,
      "å¿ĥéĩĮ": 7844,
      "äº§ä¸ļçļĦ": 7845,
      "éŁµ": 7846,
      "Ġrun": 7847,
      "ä¸ªæľĪåĨħ": 7848,
      "Ġè¿ĳæĹ¥": 7849,
      "åķĨä¼ļ": 7850,
      "æĪ¿åŃĲ": 7851,
      "æĽ¿ä»£": 7852,
      "åĽ¾ä¹¦é¦Ĩ": 7853,
      "ED": 7854,
      "åĬŀå¥½": 7855,
      "Ġpub": 7856,
      "åİ¿æĶ¿åºľ": 7857,
      "æ°ĳæĹıåĽ¢ç»ĵ": 7858,
      "éĻķè¥¿çľģ": 7859,
      "éģıåĪ¶": 7860,
      "å§»": 7861,
      "åĽĬ": 7862,
      "å¤ļå¹´æĿ¥": 7863,
      "åĲĦå¤§": 7864,
      "è½¬åĢº": 7865,
      "çĻ¾ä¸ĩ": 7866,
      "åĿļå®ļä¸įç§»": 7867,
      "èµĭäºĪ": 7868,
      "ired": 7869,
      "æıĲä¸ĭ": 7870,
      "å¤įäº§": 7871,
      "æī§ä¸ļ": 7872,
      "----": 7873,
      "åĩŃè¯ģ": 7874,
      "é©¬åħĭæĢĿä¸»ä¹ī": 7875,
      "ern": 7876,
      "æ¡©": 7877,
      "æµ·æ·Ģ": 7878,
      "åıĤä¼ļ": 7879,
      "åĢŁéī´": 7880,
      "è¯¸å¤ļ": 7881,
      "èŁ": 7882,
      "ä¸Ģéĥ¨": 7883,
      "ä½ľå®¶": 7884,
      "æĭĮ": 7885,
      "ç¾½": 7886,
      "å°ıåŀĭ": 7887,
      "æ´»åĬ¨çİ°åľº": 7888,
      "2006": 7889,
      "ology": 7890,
      "ST": 7891,
      "ä¼ļæľī": 7892,
      "åı¯éĿł": 7893,
      "ç«ĭä½ĵ": 7894,
      "è¯ģä»¶": 7895,
      "åħļç»Ħä¹¦è®°": 7896,
      "åħ¬é¡·": 7897,
      "å¼ĢåĪĽ": 7898,
      "Ġsl": 7899,
      "æĹĹä¸ĭ": 7900,
      "ware": 7901,
      "ä¼łæŁĵ": 7902,
      "äººæ°ĳæ£Ģå¯ŁéĻ¢": 7903,
      "åįłçĶ¨": 7904,
      "æĬĹçĸ«": 7905,
      "æĬĸ": 7906,
      "éģĤ": 7907,
      "åĪ¶çº¦": 7908,
      "æµ·ä¸Ĭ": 7909,
      "åįģä¸ĥ": 7910,
      "è¾¾åĪ°äºĨ": 7911,
      "åĽ¾ä¸º": 7912,
      "åŁºåĩĨ": 7913,
      "æīĵèµ¢": 7914,
      "é¡¹çĽ®åĲįç§°": 7915,
      "çĥŃçĪ±": 7916,
      "è¿Ŀæ³ķçĬ¯ç½ª": 7917,
      "ä¸»æĮģäºº": 7918,
      "åĮ¹éħį": 7919,
      "ä¸įéĶĻ": 7920,
      "åĲĪèĤ¥": 7921,
      "è¡¨éĿ¢": 7922,
      "å¹¶ä¸įæĺ¯": 7923,
      "æīįæĺ¯": 7924,
      "åĩºçİ°äºĨ": 7925,
      "çī¢åĽºæłĳç«ĭ": 7926,
      "gy": 7927,
      "æ°ĳä¿Ĺ": 7928,
      "æľ¬åįķä½į": 7929,
      "éļ§": 7930,
      "ä¹ĭä¸ĭ": 7931,
      "ä¾ĽåĽ¾": 7932,
      "åıĳå¸ĥäºĨ": 7933,
      "å®ľå±ħ": 7934,
      "å¥¥è¿Ĳä¼ļ": 7935,
      "Ġoffer": 7936,
      "çļĦåİŁåĽł": 7937,
      "ä¸Ģä»£": 7938,
      "å¤§è¿ŀ": 7939,
      "ä¸»æµģ": 7940,
      "æī¹ç¤º": 7941,
      "ĠCl": 7942,
      "æļĤè¡Į": 7943,
      "Ġæľī": 7944,
      "çļĦåĽ½å®¶": 7945,
      "åĴ¸": 7946,
      "å¤§åĪ©": 7947,
      "ä¿¡ä»»": 7948,
      "ä½ıå®¿": 7949,
      "Ġval": 7950,
      "èĪĴéĢĤ": 7951,
      "éĿŀçī©è´¨æĸĩåĮĸéģĹäº§": 7952,
      "Ġè¯¥": 7953,
      "å·¥åľ°": 7954,
      "çº¹": 7955,
      "éĺģ": 7956,
      "æ±°": 7957,
      "åĸĬ": 7958,
      "åĪĻæĺ¯": 7959,
      "æĸľ": 7960,
      "ï¼ļï¼Ī": 7961,
      "Ġ17": 7962,
      "çģŃçģ«": 7963,
      "å·¾": 7964,
      "æľŁçļĦ": 7965,
      "éĺ²å¾¡": 7966,
      "ç»¿èī²ä½İç¢³": 7967,
      "æĸ°åĨłçĹħæ¯Ĵ": 7968,
      "å¸ĤåľºçĽĳçĿ£ç®¡çĲĨå±Ģ": 7969,
      "æıĲéĹ®": 7970,
      "è¿Ļéĥ¨": 7971,
      "åŃĺåĤ¨": 7972,
      "å®¤åĨħ": 7973,
      "æĬĵç´§": 7974,
      "è°¢è°¢": 7975,
      "çŀ¬": 7976,
      "éĩįå¤į": 7977,
      "æ£ī": 7978,
      "è®¤åĲĮ": 7979,
      "æĦıè§ģå»ºè®®": 7980,
      "çİ°ä»£åĨľä¸ļ": 7981,
      "ä¸ĢæĬĬ": 7982,
      "é¥¼": 7983,
      "æ¾Ħ": 7984,
      "å¼Ģå¹ķå¼ı": 7985,
      "ä¸Ģåº¦": 7986,
      "åĪ°æĿ¥": 7987,
      "Ġcreat": 7988,
      "äº¤åıī": 7989,
      "åŀĤ": 7990,
      "å¸Ĥå§Ķå¸¸å§Ķ": 7991,
      "æĶ¿åºľéĩĩè´ŃæĶ¿çŃĸ": 7992,
      "åįķçĭ¬": 7993,
      "æĬĢæľ¯åĪĽæĸ°": 7994,
      "è¿Ŀæ³ķè¿Ŀè§Ħ": 7995,
      "åħ¥é©»": 7996,
      "ä¸ºæĮĩå¯¼": 7997,
      "å¯¹æłĩ": 7998,
      "Ġob": 7999,
      "å¹²äºĭ": 8000,
      "Ġform": 8001,
      "ç»ıèĲ¥ä¸»ä½ĵ": 8002,
      "Ġwebs": 8003,
      "èģĺçĶ¨": 8004,
      "ĠNew": 8005,
      "ittle": 8006,
      "é«ĺåľ°": 8007,
      "èĲĮ": 8008,
      "èī²çļĦ": 8009,
      "çº¦æĿŁ": 8010,
      "è´£ä»»åĪ¶": 8011,
      "ĠPl": 8012,
      "çļĦéĩįè¦ģè®²è¯Ŀ": 8013,
      "æ³°åĽ½": 8014,
      "Ġcommun": 8015,
      "co": 8016,
      "Ġide": 8017,
      "çļĦåŃ¦çĶŁ": 8018,
      "è½°": 8019,
      "èĩªå¾ĭ": 8020,
      "éģĹåĿĢ": 8021,
      "çĭłæĬĵ": 8022,
      "ä¸Ĭæ¼Ķ": 8023,
      "åı°éĺ¶": 8024,
      "ç§¯æŀģæİ¢ç´¢": 8025,
      "æ£Ģå¯Łæľºåħ³": 8026,
      "èĸªéħ¬": 8027,
      "æľĪåĪĿ": 8028,
      "æĿĳçº§": 8029,
      "è°ĥåĬ¨": 8030,
      "æĦŁåĴĮ": 8031,
      "æ¯ıåĳ¨": 8032,
      "è¿Ŀçºª": 8033,
      "ç»ĵåĲĪèµ·æĿ¥": 8034,
      "çļĦä¸Ģç§į": 8035,
      "åĲ¸æĶ¶": 8036,
      "æ³¢åĬ¨": 8037,
      "æĭ¿åĩº": 8038,
      "åİŁæľ¬": 8039,
      "éĻįéĽ¨": 8040,
      "çĶ»éĿ¢": 8041,
      "è¡ĹéģĵåĬŀäºĭå¤Ħ": 8042,
      "ä¸»æĮģä¼ļè®®": 8043,
      "å·¥ä½ľæĥħåĨµ": 8044,
      "åīįè¿Ľ": 8045,
      "å¦ĩèģĶ": 8046,
      "æī«æıı": 8047,
      "Ġpartic": 8048,
      "çŁĽçĽ¾çºłçº·": 8049,
      "åħ¥æĪ·": 8050,
      "ãĢĭ,": 8051,
      "æľįåĬ¡ä¿Ŀéļľ": 8052,
      "éĺ³åİ¿": 8053,
      "ield": 8054,
      "oot": 8055,
      "å®ł": 8056,
      "çĲ³": 8057,
      "æıĲåĲį": 8058,
      "å±±æ°´": 8059,
      "æĶ¿çŃĸæİªæĸ½": 8060,
      "åŃĺéĩı": 8061,
      "åĩıæİĴ": 8062,
      "ĠThey": 8063,
      "Ġservice": 8064,
      "çī©çĲĨ": 8065,
      "å¸¸è§Ħ": 8066,
      "ody": 8067,
      "Ġmain": 8068,
      "èĢĮä¸į": 8069,
      "æ±Łå¸Ĥ": 8070,
      "æ¸¯æ¾³": 8071,
      "åĮ»çĸĹä¿ĿéĻ©": 8072,
      "Ġavailable": 8073,
      "AR": 8074,
      "Ġi": 8075,
      "Ġfil": 8076,
      "æĦŁåĬ¨": 8077,
      "è±«": 8078,
      "èµĽåŃ£": 8079,
      "èģļåĬĽ": 8080,
      "åħĭæľį": 8081,
      "åıĳå¸ĥä¹ĭæĹ¥èµ·": 8082,
      "ç«ŀäºīæĢ§": 8083,
      "ä¹łè¿ĳå¹³æĢ»ä¹¦è®°åľ¨": 8084,
      "ç¤¾ä¼ļä¸»ä¹īçİ°ä»£åĮĸ": 8085,
      "è¯ķéªĮåĮº": 8086,
      "ĠåĲĮæĹ¶": 8087,
      "Ġä¸ºäºĨ": 8088,
      "çļĦåŁºç¡Ģ": 8089,
      "å®ŀæĸ½æĦıè§ģ": 8090,
      "è¶ħçº§": 8091,
      "è¶³å¤Ł": 8092,
      "é©¬æĭī": 8093,
      "æ³ķåºŃ": 8094,
      "å°ıéº¦": 8095,
      "Ġfound": 8096,
      "Ġpoint": 8097,
      "åĢ¼å®Ī": 8098,
      "ç§¯æŀģæİ¨è¿Ľ": 8099,
      "ä¸ĵä¸ļåĮĸ": 8100,
      "é«ĺæł¡æ¯ķä¸ļçĶŁ": 8101,
      "é«ĺçº§ç®¡çĲĨäººåĳĺ": 8102,
      "åħ³èģĶäº¤æĺĵ": 8103,
      "æ¹ĸåĮĹçľģ": 8104,
      "Ġkeep": 8105,
      "ä¸ŃéĹ´": 8106,
      "Ġfull": 8107,
      "åĿĩè¡¡": 8108,
      "ä¸įæĸŃå¢ŀå¼º": 8109,
      "roup": 8110,
      "åİĺ": 8111,
      "å°ĨæĮģç»Ń": 8112,
      "æ±ŁåĮº": 8113,
      "å®ŀæĸ½ç»ĨåĪĻ": 8114,
      "Ġcompany": 8115,
      "èģĶåĲĪä½ĵæĬķæłĩ": 8116,
      "çŃĽæŁ¥": 8117,
      "ä¸įåĩº": 8118,
      "å¿ĥä¸Ń": 8119,
      "ãĢĭ(": 8120,
      "ä¸»è¦ģåİŁåĽłæĺ¯": 8121,
      "åĽ½äº§": 8122,
      "èİī": 8123,
      "æľºæŀĦçļĦ": 8124,
      "è¿ĶåĽŀ": 8125,
      "åĲģ": 8126,
      "åı¯éĢļè¿ĩ": 8127,
      "è¿ĺåı¯ä»¥": 8128,
      "éĺŁçļĦ": 8129,
      "éĨī": 8130,
      "è¡Įä½¿": 8131,
      "çĶ¨å·¥": 8132,
      "ç®¡ç½ĳ": 8133,
      "è¯Ħä¸º": 8134,
      "æ·±åħ¥è´¯å½»èĲ½å®ŀ": 8135,
      "Ġchar": 8136,
      "æµħ": 8137,
      "çŃīå¾ħ": 8138,
      "ĠBut": 8139,
      "Ġalways": 8140,
      "æĿĤå¿Ĺ": 8141,
      "è¯¦ç»ĨäºĨè§£": 8142,
      "Ġsmall": 8143,
      "ĠæľĪ": 8144,
      "èĲį": 8145,
      "ç²Ĺ": 8146,
      "å¹¶æľª": 8147,
      "åģļå¤§": 8148,
      "è¥¿åĮĹ": 8149,
      "æ¼ł": 8150,
      "åħħè¶³": 8151,
      "èĴĤ": 8152,
      "ä¾µæĿĥ": 8153,
      "å§Ĳå¦¹": 8154,
      "con": 8155,
      "éĹ¸": 8156,
      "Ġcor": 8157,
      "æĹłçĸĳ": 8158,
      "æ¸ħæ´Ĺ": 8159,
      "å·¥ç¨ĭé¡¹çĽ®": 8160,
      "çĽ¸ç»§": 8161,
      "âĢ¢": 8162,
      "å¼ķæĵİ": 8163,
      "åįİä¸º": 8164,
      "æī¿è½½": 8165,
      "è¾ĥä¸Ĭå¹´": 8166,
      "ĠSh": 8167,
      "æĲı": 8168,
      "å¹´å¹´åº¦": 8169,
      "å½¦": 8170,
      "ä¸ŃåĽ½å¼ıçİ°ä»£åĮĸ": 8171,
      "è¿Ĳæ²³": 8172,
      "çĿ£åĬŀ": 8173,
      "è£ħé¥°": 8174,
      "å¸Ńä¼ļè®®": 8175,
      "å§ĵåĲį": 8176,
      "çıłæµ·": 8177,
      "éĻĲåº¦": 8178,
      "åŁºå±Ĥåħļç»Ħç»ĩ": 8179,
      "Ġappro": 8180,
      "åĲįä¹ī": 8181,
      "è¯´æ³ķ": 8182,
      "åħ¬å®īéĥ¨": 8183,
      "ä¸Ģå¤Ħ": 8184,
      "å·¥ä½ľå®¤": 8185,
      "èĩªæŁ¥": 8186,
      "éĤµ": 8187,
      "çłĶç©¶åĳĺ": 8188,
      "åıĮåĲĳ": 8189,
      "çĪ±æĥħ": 8190,
      "çĻ»éĻĨ": 8191,
      "æ¿Ģåħī": 8192,
      "Ġchild": 8193,
      "ä¸Ńåįİäººæ°ĳåħ±åĴĮåĽ½æĶ¿åºľéĩĩè´Ńæ³ķ": 8194,
      "çº¿ä¸Ĭçº¿ä¸ĭ": 8195,
      "åħļå»ºå¼ķé¢Ĩ": 8196,
      "èĸĦå¼±": 8197,
      "æĢ»å·¥ä¼ļ": 8198,
      "è¦ģæ±ĤçļĦ": 8199,
      "çĶŁäº§åĬĽ": 8200,
      "åºŀ": 8201,
      "ä¸ĬæĿ¥": 8202,
      "åĩĨåħ¥": 8203,
      "å®Įæ¯ķ": 8204,
      "ç«ĭæĸ¹ç±³": 8205,
      "Ġ2024": 8206,
      "åĩ¸": 8207,
      "æĪĳæĺ¯": 8208,
      "çĻ¾åº¦": 8209,
      "åħ¬åĳĬç¼ĸåı·": 8210,
      "å¾ĭå¸ĪäºĭåĬ¡æīĢ": 8211,
      "åĩĮæĻ¨": 8212,
      "Ġmonth": 8213,
      "ĠæĽ´å¤ļ": 8214,
      "äººä½ĵ": 8215,
      "å¤ĸéĥ¨": 8216,
      "åŀĭä¼ģä¸ļ": 8217,
      "ç»Ĩèĩ´": 8218,
      "å¯Ĩåº¦": 8219,
      "æĹ¢æľī": 8220,
      "Ġgener": 8221,
      "Ġty": 8222,
      "æ¸¤": 8223,
      "2007": 8224,
      "ger": 8225,
      "ä¸¢": 8226,
      "åıĳéĢģ": 8227,
      "ç§ĳéĻ¢": 8228,
      "è¥Ħ": 8229,
      "1500": 8230,
      "èľĤ": 8231,
      "aking": 8232,
      "ä¹¦æ³ķ": 8233,
      "èĮ¶åı¶": 8234,
      "åħļç»ĦæĪĲåĳĺ": 8235,
      "ç¥Ŀç¦ı": 8236,
      "åħĨ": 8237,
      "çļĦæķĻèĤ²": 8238,
      "éĿ¢åīį": 8239,
      "éķ¿è¿ľ": 8240,
      "åĪĽå§ĭ": 8241,
      "Ġmust": 8242,
      "è§Ĩå¯Ł": 8243,
      "ç»ĪæŃ¢": 8244,
      "è¿Ĳè¡Įç»´æĬ¤": 8245,
      "åħļå»ºå·¥ä½ľ": 8246,
      "åħ¬åĬ¡çĶ¨è½¦è´Ńç½®": 8247,
      "å¸Ĥäººå¤§å¸¸å§Ķä¼ļ": 8248,
      "æĥ³è¦ģ": 8249,
      "uss": 8250,
      "åı¥è¯Ŀ": 8251,
      "stand": 8252,
      "Ġreal": 8253,
      "åĪ«äºº": 8254,
      "ç»´æĿĥ": 8255,
      "æĪĺçķ¥æĢ§": 8256,
      "è¯ģæĺİæĿĲæĸĻ": 8257,
      "æļĤæĹ¶": 8258,
      "å·¥ä¼¤": 8259,
      "æ³µ": 8260,
      "åŃ¦ä½į": 8261,
      "æĶ¯æı´": 8262,
      "å¾ĹåĪĨ": 8263,
      "ä¸¤ä½į": 8264,
      "äºĶä¸Ģ": 8265,
      "ç»ĻäºĨ": 8266,
      "è¶ĬæĿ¥è¶Ĭå¤ļ": 8267,
      "éķľå¤´": 8268,
      "åįģæĿ¡": 8269,
      "åĲ¬åĪ°": 8270,
      "Ġable": 8271,
      "ved": 8272,
      "çļĦä»·æł¼": 8273,
      "æľīåĬ©äºİ": 8274,
      "æŀģç«¯": 8275,
      "é¦ĸå±Ĭ": 8276,
      "è®ºæĸĩ": 8277,
      "Ġdef": 8278,
      "èĴ¸": 8279,
      "æĶ¿åĬ¡åħ¬å¼Ģ": 8280,
      "åĽ½æľīèµĦäº§": 8281,
      "çļĨ": 8282,
      "Ġsure": 8283,
      "æĹłéľĢ": 8284,
      "å¤§ä½¿": 8285,
      "ä¸¥ç¦ģ": 8286,
      "æŃĮæĽ²": 8287,
      "Ġprovide": 8288,
      "åįģåħ«å¤§": 8289,
      "åľ¨è¿Ļä¸ª": 8290,
      "æĬĢèīº": 8291,
      "æĦıå¤§åĪ©": 8292,
      "åĪĴåĪĨ": 8293,
      "æ¼Ķè®²": 8294,
      "æ±ĩæĢ»": 8295,
      "äºĭå®ŀä¸Ĭ": 8296,
      "çļĦäºĭæĥħ": 8297,
      "åħļåĨħ": 8298,
      "çĪ¬": 8299,
      "æĸ°éĹ»åıĳå¸ĥä¼ļ": 8300,
      "ç³»åĪĹæ´»åĬ¨": 8301,
      "åĽ½æľīèµĦæľ¬": 8302,
      "æ¯«ç±³": 8303,
      "ä¹Łä¸º": 8304,
      "ä¹ĭæĹħ": 8305,
      "åŃĲçļĦ": 8306,
      "ä¸¤å¤§": 8307,
      "çº¢åĪ©": 8308,
      "éĽĨä½ĵç»ıæµİ": 8309,
      "Ġfew": 8310,
      "éĹ½": 8311,
      "é«ĺåİŁ": 8312,
      "æ°´èµĦæºĲ": 8313,
      "ider": 8314,
      "éģĹæ¼ı": 8315,
      "æĶ¿åºľæĢ§åŁºéĩĳé¢Ħç®Ĺ": 8316,
      "çļĦæł¸å¿ĥ": 8317,
      "æ´½": 8318,
      "å®ļçļĦ": 8319,
      "éĺ³åĮº": 8320,
      "ç¦»ä¸įå¼Ģ": 8321,
      "éĴ¢éĵģ": 8322,
      "çĶµè§Ĩåī§": 8323,
      "å¤ļåħĥåĮĸ": 8324,
      "Ġopen": 8325,
      "èīĩ": 8326,
      "åį«åģ¥": 8327,
      "ä»£è¡¨åĽ¢": 8328,
      "æīĺç®¡": 8329,
      "ç§ĳåŃ¦å®¶": 8330,
      "æµªè´¹": 8331,
      "çļĦæĥħå½¢": 8332,
      "çĶ³è´Ń": 8333,
      "ural": 8334,
      "åı¯çĪ±": 8335,
      "åħīèį£": 8336,
      "æĪĲåĳĺåįķä½į": 8337,
      "iving": 8338,
      "æĺŃ": 8339,
      "éĺ²çģ¾": 8340,
      "çº¢åĨĽ": 8341,
      "å¤«å¦»": 8342,
      "ffect": 8343,
      "æ±ķ": 8344,
      "Ġcre": 8345,
      "åĽŃæŀĹ": 8346,
      "Ġresult": 8347,
      "å¸Ĥåİ¿": 8348,
      "èĪħ": 8349,
      "çĶŁäº§çļĦ": 8350,
      "å¤§è¡Ĺ": 8351,
      "ä¸ºåŁºç¡Ģ": 8352,
      "æľĢå¥½": 8353,
      "Ġrest": 8354,
      "ĠPh": 8355,
      "åħ¨åĬĽä»¥": 8356,
      "æĬ¥éģĵç§°": 8357,
      "ä»Ķç»Ĩ": 8358,
      "åĲ¾": 8359,
      "å¼Ĥåľ°": 8360,
      "ä¹ĺåĿĲ": 8361,
      "æļĤåģľ": 8362,
      "ivers": 8363,
      "åıĳå±ķè§ĦåĪĴ": 8364,
      "äºĮæīĭ": 8365,
      "åĽłåľ°": 8366,
      "å¾Īå¥½": 8367,
      "åĨįçĶŁ": 8368,
      "äºıæįŁ": 8369,
      "åħ¨åĬĽä»¥èµ´": 8370,
      "ä¸Ńç¾İ": 8371,
      "åħ³æĢĢ": 8372,
      "ç¤¾ä¼ļä¿ĿéĻ©": 8373,
      "æĹ¶éĹ´ä¸º": 8374,
      "èħº": 8375,
      "èģĮä¸ļæĬĢèĥ½": 8376,
      "Ġfollow": 8377,
      "åı·çłģ": 8378,
      "å¯Įè£ķ": 8379,
      "åħ¬åħ±åį«çĶŁ": 8380,
      "å©ļå§»": 8381,
      "æīŃ": 8382,
      "åĴĮæĶ¯æĮģ": 8383,
      "åıĳå±ķæĸ°": 8384,
      "èĬĴ": 8385,
      "ç¢Ĺ": 8386,
      "èģĮä¸ļæķĻèĤ²": 8387,
      "åħ¬å¸ĥçļĦ": 8388,
      "è¡£æľį": 8389,
      "ä¸įçŁ¥éģĵ": 8390,
      "åĪ¶å®ľ": 8391,
      "æĬ¥è¡¨": 8392,
      "å»ºè®¾çĶ¨åľ°": 8393,
      "èµĽéģĵ": 8394,
      "åĲ«éĩı": 8395,
      "ãĢĭãĢģ": 8396,
      "å³°ä¼ļ": 8397,
      "åģľè½¦åľº": 8398,
      "åĮºåĨħ": 8399,
      "å½ĵä¸ĭ": 8400,
      "å¢ŀè¿Ľ": 8401,
      "ä¸¤çº§": 8402,
      "ç©ºè°ĥ": 8403,
      "ç¬¬äºĮåįģäºĮæĿ¡": 8404,
      "çİ°åľ¨çļĦ": 8405,
      "å®¢æĪ·ç«¯": 8406,
      "æİ§èĤ¡èĤ¡ä¸ľ": 8407,
      "é«ĺåħ´": 8408,
      "åĮ»çĸĹä¿Ŀéļľ": 8409,
      "æĸ°åħ´äº§ä¸ļ": 8410,
      "Ġç¬¬åĽĽ": 8411,
      "å¤ļäºº": 8412,
      "å¾ĹçŁ¥": 8413,
      "å¹¿çĶµ": 8414,
      "äººæ°ĳä»£è¡¨å¤§ä¼ļ": 8415,
      "éĢ¢": 8416,
      "æµĨ": 8417,
      "äºĮæľŁ": 8418,
      "éĹ®é¢ĺæķ´æĶ¹": 8419,
      "çĽ¸åħ³è§Ħå®ļ": 8420,
      "els": 8421,
      "æ±¡æŁĵçī©": 8422,
      "å¤ļé¡¹": 8423,
      "Ġpass": 8424,
      "çķı": 8425,
      "éħ±": 8426,
      "éĢīæĭĶ": 8427,
      "ĠAd": 8428,
      "Ġwithout": 8429,
      "å¤ªå¹³": 8430,
      "çĶµåĬ¨è½¦": 8431,
      "æĸ°ä¸Ģè½®": 8432,
      "aut": 8433,
      "åĨĪ": 8434,
      "çĶµç«Ļ": 8435,
      "åĬŀç»ĵ": 8436,
      "åįķä¸Ģ": 8437,
      "è½¬èĤ¡": 8438,
      "çľĭåĪ°äºĨ": 8439,
      "æĬķèµĦé¡¹çĽ®": 8440,
      "èİ·å¥ĸ": 8441,
      "ç¬¬äºĮæ¬¡": 8442,
      "åŃ©åŃĲçļĦ": 8443,
      "Ġexperience": 8444,
      "å¯¹è¯¥": 8445,
      "åħļçºª": 8446,
      "çİĩè¾¾": 8447,
      "Ġorgan": 8448,
      "åĽ½æľīä¼ģä¸ļ": 8449,
      "Ġä¸ĭä¸ĢæŃ¥": 8450,
      "çļĦåĨ³å®ļ": 8451,
      "åĪĨçº¢": 8452,
      "çĸ²": 8453,
      "æĤ²": 8454,
      "æĴŃæĶ¾": 8455,
      "æµģè½¬": 8456,
      "è®ºè¯ģ": 8457,
      "Ġcome": 8458,
      "å½ĵåľ°æĹ¶éĹ´": 8459,
      "ä¸įåĬ¨äº§çĻ»è®°": 8460,
      "CE": 8461,
      "ãĢĤ(": 8462,
      "åľ¨å»º": 8463,
      "ä¸ºæĬĵæīĭ": 8464,
      "ä¸ĬåŃ¦": 8465,
      "ä½ĵä¼ļ": 8466,
      "Ġlittle": 8467,
      "è¿Ľä¸ĢæŃ¥å®ĮåĸĦ": 8468,
      "å¨ĥ": 8469,
      "ä¾Ŀæ³ķæ²»": 8470,
      "æĶ»åĿļæĪĺ": 8471,
      "Ġbuild": 8472,
      "ä¸Ģç«Ļ": 8473,
      "ä¸ªé¡¹çĽ®": 8474,
      "è°ĥèĬĤ": 8475,
      "åı·åı¬": 8476,
      "é¼»": 8477,
      "å®¶åħ·": 8478,
      "Ġwr": 8479,
      "æ¯Ķäºļ": 8480,
      "ross": 8481,
      "è´¯éĢļ": 8482,
      "è¿Ļé¡¹": 8483,
      "Ġsoc": 8484,
      "ä¸ĵé¡¹èµĦéĩĳ": 8485,
      "oor": 8486,
      "uc": 8487,
      "Ġä¼ļä¸Ĭ": 8488,
      "æ³ª": 8489,
      "éĥİ": 8490,
      "æľ¬å¸Ĥ": 8491,
      "åĲĦæĹı": 8492,
      "å±±åİ¿": 8493,
      "éĤ®ä»¶": 8494,
      "Ġå¤§": 8495,
      "å¼Ĺ": 8496,
      "ç¬¼": 8497,
      "è´§è¿Ĳ": 8498,
      "æľĿé²ľ": 8499,
      "ĠèĢĮ": 8500,
      "å®Ļ": 8501,
      "äººéĺ²": 8502,
      "æĦıæĢĿ": 8503,
      "æī©å»º": 8504,
      "ves": 8505,
      "æľīçĤ¹": 8506,
      "Ġpay": 8507,
      "è®°å¾Ĺ": 8508,
      "ç»Ħç»ĩé¢Ĩå¯¼": 8509,
      "ĠThere": 8510,
      "åı¸æ³ķå±Ģ": 8511,
      "å¯¹å¤ĸå¼ĢæĶ¾": 8512,
      "åħļæł¡": 8513,
      "Ġpat": 8514,
      "ann": 8515,
      "åĽŀé¡¾": 8516,
      "ç¦ıå·ŀ": 8517,
      "ä¸Ĭä¸Ģ": 8518,
      "æłĩæĿĨ": 8519,
      "åĲįå½ķ": 8520,
      "é¦ĸä½į": 8521,
      "éĶĢåķĨ": 8522,
      "å¡ĳæĸĻ": 8523,
      "ÐłÑ": 8524,
      "é»ĳé¾Ļæ±Łçľģ": 8525,
      "Ġimportant": 8526,
      "bers": 8527,
      "åĮºéķ¿": 8528,
      "åħ¥åŃ¦": 8529,
      "æ¯Ĵåĵģ": 8530,
      "æ·±åĮĸæĶ¹éĿ©": 8531,
      "ä¸įå°ĳäºİ": 8532,
      "æłĩå¿ĹçĿĢ": 8533,
      "æ³¸": 8534,
      "reen": 8535,
      "åı°é£İ": 8536,
      "çİ¯åį«": 8537,
      "å®Ŀè´µ": 8538,
      "çľ¼çĿĽ": 8539,
      "éĺ¿æĭī": 8540,
      "æ·»åĬł": 8541,
      "äº¬æ´¥åĨĢ": 8542,
      "ä¸§": 8543,
      "ä¸ĩæĪ·": 8544,
      "æĴĴ": 8545,
      "åī¯æĢ»ç»ıçĲĨ": 8546,
      "åħ¬åĳĬæľŁéĻĲ": 8547,
      "åĲĮæ¯Ķä¸ĭéĻį": 8548,
      "è¯ŀçĶŁ": 8549,
      "çļĦæľīæķĪ": 8550,
      "åĮ»å¸Ī": 8551,
      "ç²¾ç»ĨåĮĸ": 8552,
      "å¤®è¡Į": 8553,
      "åįłåľ°": 8554,
      "æĭĽæłĩäºº": 8555,
      "åĪºæ¿Ģ": 8556,
      "Ġbetter": 8557,
      "å¹´æľ«": 8558,
      "ä¸įåıĺ": 8559,
      "Ġref": 8560,
      "ç§ĺå¯Ĩ": 8561,
      "å¿ħè¦ģçļĦ": 8562,
      "ä¼ļè®¡å¸ĪäºĭåĬ¡æīĢ": 8563,
      "ä¸Ģäºº": 8564,
      "æĹ¶æ®µ": 8565,
      "æĶ¾æĿ¾": 8566,
      "éĩįçĤ¹é¢ĨåŁŁ": 8567,
      "æĶ»åĩ»": 8568,
      "thing": 8569,
      "è¦ģæľī": 8570,
      "ä¸ĭæ»ĳ": 8571,
      "å£³": 8572,
      "Ġ2015": 8573,
      "æĬ¢éĻ©": 8574,
      "åĳ¼åĲģ": 8575,
      "ç»©æķĪçĽ®æłĩ": 8576,
      "å¤įå·¥å¤įäº§": 8577,
      "åĽłåħ¬åĩºåĽ½": 8578,
      "åĬłå¼ºä¸İ": 8579,
      "å·¥ä¸ļåĴĮä¿¡æģ¯åĮĸ": 8580,
      "GB": 8581,
      "ä¸ĢæĶ¯": 8582,
      "æĪĲçļĦ": 8583,
      "æīĵåį¡": 8584,
      "æĬķèµĦåŁºéĩĳ": 8585,
      "èµ°çº¢": 8586,
      "æıĲé«ĺæĶ¿æ²»ç«Ļä½į": 8587,
      "è½»æĿ¾": 8588,
      "æ³ķæ²»æĶ¿åºľ": 8589,
      "éĢ»è¾ĳ": 8590,
      "ãĥ": 8591,
      "æľµ": 8592,
      "ä¼ļå±ķ": 8593,
      "ä¸įåģľ": 8594,
      "å°ıè¯´": 8595,
      "æĹłéĶ¡": 8596,
      "éĻĦåĬł": 8597,
      "ç§Łéĩĳ": 8598,
      "æīĢæľīçļĦ": 8599,
      "çĩĥæĸĻ": 8600,
      "Ġincluding": 8601,
      "å®ŀä½ĵç»ıæµİ": 8602,
      "æĬĽ": 8603,
      "ä»¥æŃ¤": 8604,
      "ä¸ĩç¾İåħĥ": 8605,
      "ç§įç±»": 8606,
      "çŁŃæľŁ": 8607,
      "æ¯ķç«Ł": 8608,
      "å¤¹": 8609,
      "åıĤå±ķ": 8610,
      "è¯ģåĪ¸æĹ¶æĬ¥": 8611,
      "ç¿ł": 8612,
      "ç»Łè®¡å±Ģ": 8613,
      "çĲĨè®ºåŃ¦ä¹ł": 8614,
      "æľĢå¤§éĻĲåº¦": 8615,
      "éĹŃçİ¯": 8616,
      "ä¸įå¿ĺåĪĿå¿ĥ": 8617,
      "NA": 8618,
      "å¼ºå¤§çļĦ": 8619,
      "alk": 8620,
      "èĮħ": 8621,
      "è¡ĮæĶ¿è®¸åı¯": 8622,
      "çĪĨçĤ¸": 8623,
      "load": 8624,
      "ä¸ĺ": 8625,
      "å·¥ä½ľçļĦéĩįè¦ģ": 8626,
      "æľĪçļĦ": 8627,
      "åķĨæĪ·": 8628,
      "å¾Īæľī": 8629,
      "Ġåħ³äºİ": 8630,
      "çĽĨ": 8631,
      "åĩºæĿ¥çļĦ": 8632,
      "æĿĳå§Ķä¼ļ": 8633,
      "åĨľçī§": 8634,
      "åĽ½éĻħåĮĸ": 8635,
      "é¸Ń": 8636,
      "ä¸ºä¾ĭ": 8637,
      "Ġduring": 8638,
      "äº¤éĢļäºĭæķħ": 8639,
      "åĪĩå®ŀæĬĬ": 8640,
      "ç»ŁçŃ¹æİ¨è¿Ľ": 8641,
      "å®ĹæĹ¨": 8642,
      "6000": 8643,
      "çļĦç®¡çĲĨ": 8644,
      "çļĦç»ıæµİ": 8645,
      "èĲ½åĪ°": 8646,
      "è¡ĮåĬ¨è®¡åĪĴ": 8647,
      "åı¬éĽĨ": 8648,
      "æĴ¤éĶĢ": 8649,
      "Ð¡": 8650,
      "çļĦæĢģåº¦": 8651,
      "åħ³éĹŃ": 8652,
      "èĩªæĦ¿": 8653,
      "å¤ļå½©": 8654,
      "åīįè¡Į": 8655,
      "ä¸ĩèĤ¡": 8656,
      "åĨľåľº": 8657,
      "çĥĤ": 8658,
      "æ¸ħåįİ": 8659,
      "åħ¸åŀĭæ¡Īä¾ĭ": 8660,
      "ĠåĽ½å®¶": 8661,
      "åĬĽåĴĮ": 8662,
      "å¤ļäºĨ": 8663,
      "å¹¿éĺĶ": 8664,
      "Ġear": 8665,
      "è´§è½¦": 8666,
      "ants": 8667,
      "ä½ĵåĪ¶æľºåĪ¶": 8668,
      "çļĦæĮĩå¯¼": 8669,
      "é£ĺ": 8670,
      "Ġlight": 8671,
      "çĶŁäº§çº¿": 8672,
      "åıįå¼¹": 8673,
      "è¾¹å¢ĥ": 8674,
      "Ġinterest": 8675,
      "èĤ¿çĺ¤": 8676,
      "éļ§éģĵ": 8677,
      "çĶ¸": 8678,
      "åħļå·¥å§Ķ": 8679,
      "Ġinf": 8680,
      "å¤Ħå¤Ħ": 8681,
      "é©¾é©¶åĳĺ": 8682,
      "Ġfamily": 8683,
      "æľ¬é¡¹çĽ®çļĦ": 8684,
      "åı¯ä»¥è¯´": 8685,
      "èĻļæĭŁ": 8686,
      "Ġinvest": 8687,
      "å¤§å¸Ī": 8688,
      "éķ¿å¾ģ": 8689,
      "èģĶéĤ¦": 8690,
      "è¯»èĢħ": 8691,
      "å¥¥è¿Ĳ": 8692,
      "åĽłåľ°åĪ¶å®ľ": 8693,
      "åħ¹": 8694,
      "çļĦæĢĿæĥ³": 8695,
      "è¿Ļä¹Ł": 8696,
      "att": 8697,
      "Ġthings": 8698,
      "ists": 8699,
      "å®ŀè·µæ´»åĬ¨": 8700,
      "è¡¨åĨ³ç»ĵæŀľ": 8701,
      "éĩįè¦ģè®²è¯Ŀç²¾ç¥ŀ": 8702,
      "åľ¨å¤ĸ": 8703,
      "ç®¡çĲĨä¸Ńå¿ĥ": 8704,
      "éĻĲäºİ": 8705,
      "éª¤": 8706,
      "ç»ĦæĪĲéĥ¨åĪĨ": 8707,
      "äººåĬĽèµĦæºĲåĴĮç¤¾ä¼ļä¿Ŀéļľ": 8708,
      "åľ¨å®¶": 8709,
      "åĴĮæĬĢæľ¯": 8710,
      "åĲĪä¸Ģ": 8711,
      "éķ¿åŁİ": 8712,
      "æĹłéĻĲ": 8713,
      "Ġconc": 8714,
      "Ġresp": 8715,
      "å¹½": 8716,
      "åŃ¦å®¶": 8717,
      "èĲ½å®ŀæĥħåĨµ": 8718,
      "ä¹¡æĿĳæĹħæ¸¸": 8719,
      "å·´è¥¿": 8720,
      "ä¸»æĮģåı¬å¼Ģ": 8721,
      "æľįåĬ¡ä½ĵç³»": 8722,
      "å¹¶éĢļè¿ĩ": 8723,
      "Ġproper": 8724,
      "ç»ĳ": 8725,
      "åĴĮç®¡çĲĨ": 8726,
      "ä¸ºæľŁ": 8727,
      "åıĳç¥¨": 8728,
      "è¦ģè®¤çľŁ": 8729,
      "æŃ§": 8730,
      "æĢ»çĽĳ": 8731,
      "ä¹¦åĨĻ": 8732,
      "æī¿æİ¥": 8733,
      "ç»¼åĲĪè¡ĮæĶ¿æī§æ³ķ": 8734,
      "Ġproble": 8735,
      "åºĵåŃĺ": 8736,
      "ĠéļıçĿĢ": 8737,
      "èģª": 8738,
      "åĨľèį¯": 8739,
      "åįĹæµ·": 8740,
      "åİŁæĿĲæĸĻ": 8741,
      "éªĮè¯ģ": 8742,
      "é©¬ä¸Ĭ": 8743,
      "å·¥ä¸ļä¼ģä¸ļ": 8744,
      "å¤ļæĸ¹": 8745,
      "çĽ¸åħ³å·¥ä½ľ": 8746,
      "åĮºåŁŁåĨħ": 8747,
      "Ġä¼ļè®®å¼ºè°ĥ": 8748,
      "çº½çº¦": 8749,
      "ä¼ĺæĥłæĶ¿çŃĸ": 8750,
      "çļĦåħ¬åĳĬ": 8751,
      "æĸĳ": 8752,
      "æĸ°ä¸ŃåĽ½": 8753,
      "å¯¹åħ¬åı¸": 8754,
      "æľ¬è´¨": 8755,
      "ites": 8756,
      "åıĹçģ¾": 8757,
      "è§Ĩéĩİ": 8758,
      "é¦ĸè¦ģ": 8759,
      "æĸ°åĨłèĤºçĤİçĸ«æĥħ": 8760,
      "çŃīå¤ļä¸ª": 8761,
      "æįŀ": 8762,
      "æĢ»åĢ¼": 8763,
      "é¢ĦæĬ¥": 8764,
      "è¯Ŀé¢ĺ": 8765,
      "æµĭéĩı": 8766,
      "ĠDe": 8767,
      "ai": 8768,
      "æĬ¹": 8769,
      "å¥Ī": 8770,
      "å§¨": 8771,
      "éĴ¦": 8772,
      "åı·çº¿": 8773,
      "Ġhealth": 8774,
      "åİĤæĪ¿": 8775,
      "æľīåĬĽçļĦ": 8776,
      "ES": 8777,
      "ä¸ļæľīéĻĲåħ¬åı¸": 8778,
      "çķĻä¸ĭ": 8779,
      "over": 8780,
      "Ġèĩ³": 8781,
      "ined": 8782,
      "èĥ½åĬĽçļĦ": 8783,
      "åıĳçĶŁäºĨ": 8784,
      "éĵ¾æİ¥": 8785,
      "ç¬¦åĲĪæĿ¡ä»¶çļĦ": 8786,
      "è´¢æĶ¿æĭ¨æ¬¾æĶ¶åħ¥": 8787,
      "è¯µ": 8788,
      "Ġä¸į": 8789,
      "çĶ¨æĪ¿": 8790,
      "ä¸ªå·¥ä½ľæĹ¥åĨħ": 8791,
      "ç°": 8792,
      "åŁł": 8793,
      "æŁ¯": 8794,
      "èĤ¡ä»·": 8795,
      "æĮīæĹ¶": 8796,
      "æłĩåĩĨçļĦ": 8797,
      "è¾°": 8798,
      "çĸ¼": 8799,
      "æĶ¿åºľä¿¡æģ¯åħ¬å¼Ģ": 8800,
      "ä½İä¿Ŀ": 8801,
      "çĶŁæ´»ä¸Ń": 8802,
      "åºĶæĢ¥ç®¡çĲĨ": 8803,
      "éĢıæĺİ": 8804,
      "æĢİæł·": 8805,
      "æ§½": 8806,
      "æ©Ļ": 8807,
      "çªģåıĳäºĭä»¶": 8808,
      "çļĦçĲĨå¿µ": 8809,
      "èĤ¡å¸Ĥ": 8810,
      "è¡Įä¸ļåįıä¼ļ": 8811,
      "åĻ¨æĿĲ": 8812,
      "çĶ¨å¿ĥ": 8813,
      "ä¸ļåĬ¡çļĦ": 8814,
      "ogra": 8815,
      "å¤§åĽ½": 8816,
      "æµ·åĨĽ": 8817,
      "çİ¯çĲĥ": 8818,
      "é£İè²Į": 8819,
      "Ġgive": 8820,
      "ä¸»è¦ģåĮħæĭ¬": 8821,
      "æĹ©åľ¨": 8822,
      "Ġprogram": 8823,
      "ier": 8824,
      "å¸Ĩ": 8825,
      "æķ²": 8826,
      "åıĳå±ķæĪĺçķ¥": 8827,
      "Ġcost": 8828,
      "ä»ĸè¡¨ç¤º": 8829,
      "çľģä»½": 8830,
      "ç²ª": 8831,
      "é©¿": 8832,
      "éĻĲä»·": 8833,
      "åĪ¶åº¦æĶ¹éĿ©": 8834,
      "å¤§åĬĽæİ¨è¿Ľ": 8835,
      "æī®": 8836,
      "å±ķä¼ļ": 8837,
      "ç¨į": 8838,
      "åħ¬åı¸èĳ£äºĭä¼ļ": 8839,
      "å¼ºåĬ²": 8840,
      "æľĢä¸º": 8841,
      "åįİäºº": 8842,
      "è¿Ŀæ³ķå¤±ä¿¡": 8843,
      "çļĦæķ°æį®": 8844,
      "å·¥ä½ľç»Ħ": 8845,
      "ç³Ĭ": 8846,
      "çľģéķ¿": 8847,
      "ä¸ĵæ³¨": 8848,
      "æŃ£å½ĵ": 8849,
      "åı¬å¼ĢçļĦ": 8850,
      "æĦıè¯ĨåĴĮ": 8851,
      "çº·çº·è¡¨ç¤º": 8852,
      "If": 8853,
      "ä¸ĭåįĬå¹´": 8854,
      "è°£": 8855,
      "æĮģå¹³": 8856,
      "ically": 8857,
      "èĢģæĿ¿": 8858,
      "ç©ºä¸Ń": 8859,
      "åį°åĪ·": 8860,
      "æĹ©æľŁ": 8861,
      "orts": 8862,
      "ç®¡æĬ¤": 8863,
      "çº§åĪ«": 8864,
      "äº¤æĺĵå¹³åı°": 8865,
      "å®ŀéĻħæİ§åĪ¶": 8866,
      "èĤĸæĪĺ": 8867,
      "åħ¬åĬ¡æİ¥å¾ħè´¹": 8868,
      "It": 8869,
      "æĬ¬": 8870,
      "æĪĲåĵģ": 8871,
      "ä¸İä¸ŃåĽ½": 8872,
      "éĽģ": 8873,
      "Ġfact": 8874,
      "ç¤¾ä¼ļåĲĦçķĮ": 8875,
      "åı·æ¥¼": 8876,
      "ä¸¤ä¸ªç»´æĬ¤": 8877,
      "Ġclass": 8878,
      "èģĮèĥ½éĥ¨éĹ¨": 8879,
      "åħļæĶ¯éĥ¨ä¹¦è®°": 8880,
      "130": 8881,
      "åı¹": 8882,
      "ä¸Ģéģĵ": 8883,
      "åľ¨å¤§": 8884,
      "å¯¹ä¸ŃåĽ½": 8885,
      "ç½Ĳ": 8886,
      "ä»£ä¼ļ": 8887,
      "Ġmus": 8888,
      "700": 8889,
      "ior": 8890,
      "ton": 8891,
      "å®ŀçĶ¨": 8892,
      "èĩŃ": 8893,
      "æľįåĬ¡æľºæŀĦ": 8894,
      "ç¡ħ": 8895,
      "èĪªçıŃ": 8896,
      "èĩªåĬ¨åĮĸ": 8897,
      "çŀ¬éĹ´": 8898,
      "ä¸ºä½ķ": 8899,
      "ä¸Ĭæľī": 8900,
      "å®ŀå¤Ħ": 8901,
      "å·¥ä½ľä»»åĬ¡": 8902,
      "åĩıèĤ¥": 8903,
      "éĤ®ç®±": 8904,
      "ĠâĢĶ": 8905,
      "Ġfriend": 8906,
      "åĭĩäºİ": 8907,
      "æĢ¡": 8908,
      "åĶ¤": 8909,
      "åĽ°å¢ĥ": 8910,
      "ump": 8911,
      "ä¼łç»ŁçļĦ": 8912,
      "ä¸¾è¡ĮçļĦ": 8913,
      "çĪĨåıĳ": 8914,
      "æ¸Ķä¸ļ": 8915,
      "éķ¿æķĪæľºåĪ¶": 8916,
      "man": 8917,
      "ä¸ĭåıĳ": 8918,
      "ä¸īåįģ": 8919,
      "ç§¯åĪĨ": 8920,
      "Ġhead": 8921,
      "é¹ħ": 8922,
      "ä¸Ģåº§": 8923,
      "ä¸įæĩĪ": 8924,
      "Ġsay": 8925,
      "æľŁè´§": 8926,
      "æºī": 8927,
      "èģĶèµĽ": 8928,
      "åİ¿éķ¿": 8929,
      "2005": 8930,
      "ç£·": 8931,
      "ç¨ĭåº¦ä¸Ĭ": 8932,
      "çģĮæºī": 8933,
      "åĪĽå§ĭäºº": 8934,
      "be": 8935,
      "Ġtri": 8936,
      "æĪĳä»¬åľ¨": 8937,
      "åº·åħ»": 8938,
      "çŃ¾åŃĹ": 8939,
      "éĵ¶è¡ĮèĤ¡ä»½æľīéĻĲåħ¬åı¸": 8940,
      "èīºæľ¯å®¶": 8941,
      "å¯»æ±Ĥ": 8942,
      "èī°èĭ¦": 8943,
      "itch": 8944,
      "åİ¿åĮº": 8945,
      "çªĿ": 8946,
      "Ġstate": 8947,
      "æī§æ³ķæ£ĢæŁ¥": 8948,
      "åįĥçĵ¦": 8949,
      "ä¸Ģä½ĵçļĦ": 8950,
      "åĨ·éĵ¾": 8951,
      "tt": 8952,
      "æĢ»æķ°çļĦ": 8953,
      "åıĶ": 8954,
      "è§£çŃĶ": 8955,
      "æł¼å¼ı": 8956,
      "oney": 8957,
      "çĴĲ": 8958,
      "ä¸Īå¤«": 8959,
      "éĹ¯": 8960,
      "çļĦä¸Ģé¡¹": 8961,
      "ä¹°åįĸ": 8962,
      "çĥŁåı°": 8963,
      "Ġspecial": 8964,
      "ER": 8965,
      "ä¸Ĭåİ»": 8966,
      "æ´Ĵ": 8967,
      "Ġrese": 8968,
      "æľªæĿ¥çļĦ": 8969,
      "Ġcontin": 8970,
      "Ġperform": 8971,
      "meric": 8972,
      "ä¸Ńæĸĩ": 8973,
      "ç§Ĩ": 8974,
      "å¯¹å¾ħ": 8975,
      "ä¹ĭå¹´": 8976,
      "ention": 8977,
      "åłª": 8978,
      "Ġlevel": 8979,
      "ï¹Ĳ": 8980,
      "åĩºåİ»": 8981,
      "æ°´æ³¥": 8982,
      "åĪĿä¸Ń": 8983,
      "çļĦä¸ĢäºĽ": 8984,
      "ä¹łè¿ĳå¹³åĲĮå¿Ĺ": 8985,
      "å¸ľ": 8986,
      "æľīæĿĥ": 8987,
      "æĸ°é²ľ": 8988,
      "é«ĺåİĭ": 8989,
      "ç»ĵè®º": 8990,
      "çłĶåŃ¦": 8991,
      "å®Įå·¥": 8992,
      "éĩĮç¨ĭ": 8993,
      "å¹ħåº¦": 8994,
      "èŃ¦ç¤ºæķĻèĤ²": 8995,
      "ĠæĪªèĩ³": 8996,
      "ä»ĩ": 8997,
      "åħ¶ä½Ļ": 8998,
      "ä¸°æĶ¶": 8999,
      "Ġconf": 9000,
      "åı¦ä¸Ģ": 9001,
      "ä½ıæĪ¿åĴĮ": 9002,
      "dition": 9003,
      "çļĦçłĶç©¶": 9004,
      "åĴĮå·¥ä½ľ": 9005,
      "å¹´å¼Ģå§ĭ": 9006,
      "ä¸įåĪ©": 9007,
      "å±Ĥå±Ĥ": 9008,
      "ä»Ĭå¹´çļĦ": 9009,
      "ç¢±": 9010,
      "åŃĺåľ¨çļĦéĹ®é¢ĺ": 9011,
      "pend": 9012,
      "å±ķçİ°äºĨ": 9013,
      "MA": 9014,
      "çļĦçĶŁäº§": 9015,
      "æĪ·åı£": 9016,
      "Ġiss": 9017,
      "ç¢³æİĴæĶ¾": 9018,
      "æ¯ĶèµĽä¸Ń": 9019,
      "åĲĦçº§åĲĦéĥ¨éĹ¨": 9020,
      "è¡¨åĨ³æĿĥ": 9021,
      "Ġve": 9022,
      "æĸĩåĪĽ": 9023,
      "Ġbig": 9024,
      "æľĢæĹ©": 9025,
      "è¢ĸ": 9026,
      "åıįèĢĮ": 9027,
      "å·¥ä½ľçļĦéĢļçŁ¥": 9028,
      "å¤ıåŃ£": 9029,
      "ä½ĵåĪ¶æĶ¹éĿ©": 9030,
      "ä¿©": 9031,
      "è§ĦçŁ©": 9032,
      "rol": 9033,
      "æĻ¯çĤ¹": 9034,
      "èĭ±è¯Ń": 9035,
      "å¸Ĥå§Ķåī¯ä¹¦è®°": 9036,
      "çĳ¶": 9037,
      "çĥŁèĬ±": 9038,
      "éĿ¢ä¸´çļĦ": 9039,
      "Ġroom": 9040,
      "æ°ĶåĢĻåıĺåĮĸ": 9041,
      "ug": 9042,
      "å¤§äºĭ": 9043,
      "Ġtreat": 9044,
      "å®īåħ¨ç®¡çĲĨ": 9045,
      "èĬĤå¥ı": 9046,
      "å¸¦éĺŁ": 9047,
      "ential": 9048,
      "æķħéļľ": 9049,
      "ä¸ĸçķĮä¸Ĭ": 9050,
      "æ±īæĹı": 9051,
      "è¿Ķä¹¡": 9052,
      "éĿ¢è²Į": 9053,
      "èĬľ": 9054,
      "Ġthree": 9055,
      "çº¢çº¿": 9056,
      "åĢºæĿĥ": 9057,
      "çīĪæľ¬": 9058,
      "æĪıåī§": 9059,
      "åĩĢåĮĸ": 9060,
      "å°¼äºļ": 9061,
      "æĬ¢æĬĵ": 9062,
      "æ¶Īéĺ²æķĳæı´": 9063,
      "äººä¸İ": 9064,
      "å¥¢": 9065,
      "åħ¬åı¸åĢºåĪ¸": 9066,
      "ç¼Ĩ": 9067,
      "åĽŀåįĩ": 9068,
      "æŀģå¤§": 9069,
      "çĮ´": 9070,
      "ä½¿çĶ¨æĿĥ": 9071,
      "æĿİå°ı": 9072,
      "æĭīåĬ¨": 9073,
      "åı¤åŁİ": 9074,
      "åĲĮåŃ¦ä»¬": 9075,
      "åī©ä½Ļ": 9076,
      "ex": 9077,
      "çŃīåĽłç´ł": 9078,
      "ä¿ĿåŃĺ": 9079,
      "æľįåĬ¡ç«Ļ": 9080,
      "éĩĩæĳĺ": 9081,
      "åľ°æĸ¹æĶ¿åºľ": 9082,
      "ä¸¥éĩįçļĦ": 9083,
      "ä¸Ĭæ¸¸": 9084,
      "æ°´åľŁ": 9085,
      "ä¸ĵèģĮ": 9086,
      "æ¶Īè´¹åĵģ": 9087,
      "æĸ°æĹ¶ä»£æĸĩæĺİå®ŀè·µ": 9088,
      "éĽķåĪ»": 9089,
      "âħ": 9090,
      "å®¶æĹı": 9091,
      "åīĸ": 9092,
      "æłĩçŃ¾": 9093,
      "åģļå®ŀ": 9094,
      "èĳĽ": 9095,
      "æĶ»åħ³": 9096,
      "æĿľç»Ŀ": 9097,
      "Ġåħĥ": 9098,
      "ä¸Ģå¯¹": 9099,
      "Ġtry": 9100,
      "ä¸ľäº¬": 9101,
      "æĥ³æ³ķ": 9102,
      "éĺ¶æ®µæĢ§": 9103,
      "æ²¿æµ·": 9104,
      "å®ĩå®Ļ": 9105,
      "æīĢåľ¨åľ°": 9106,
      "Ġspec": 9107,
      "è¡į": 9108,
      "å¤§çº¦": 9109,
      "åĪ°æľŁ": 9110,
      "å¢ŀå¹ħ": 9111,
      "è¥¿çıŃ": 9112,
      "åŁİå¸Ĥå»ºè®¾": 9113,
      "ç¬Ķè¯ķ": 9114,
      "éļĲæĤ£æİĴæŁ¥": 9115,
      "DP": 9116,
      "Ġåľ°çĤ¹": 9117,
      "ç»³": 9118,
      "æŃĩ": 9119,
      "å°Ĩä¸º": 9120,
      "ä¾Ŀè§Ħ": 9121,
      "çŃīæĸ¹éĿ¢çļĦ": 9122,
      "è¥¿çıŃçīĻ": 9123,
      "Ġrece": 9124,
      "ä½ĵèĤ²å±Ģ": 9125,
      "Ġç¾İåĽ½": 9126,
      "ï¼Ĳ": 9127,
      "åľ°åŁŁ": 9128,
      "åĬłåĿ¡": 9129,
      "å¥½äºĨ": 9130,
      "Ġopp": 9131,
      "ä¸īäºļ": 9132,
      "æ·±åİļ": 9133,
      "Ġdirect": 9134,
      "éĥ¨éĹ¨é¢Ħç®Ĺ": 9135,
      "éŁ§": 9136,
      "èĸĽ": 9137,
      "çī©ä¸ļç®¡çĲĨ": 9138,
      "åĳĪçİ°åĩº": 9139,
      "Ġaccess": 9140,
      "èį·åħ°": 9141,
      "Ġsomething": 9142,
      "ling": 9143,
      "æĽ°": 9144,
      "Ġcent": 9145,
      "ä¸ľçĽŁ": 9146,
      "è®©ä»ĸ": 9147,
      "ç´§æī£": 9148,
      "è°Īè¯Ŀ": 9149,
      "éĶĢåĶ®é¢Ŀ": 9150,
      "éĽ·éĶĭ": 9151,
      "å±ķç¤ºäºĨ": 9152,
      "åĴĮä¼ģä¸ļ": 9153,
      "æĸĩä¹¦": 9154,
      "ished": 9155,
      "æīĢæĮģ": 9156,
      "æ¸¸æ³³": 9157,
      "ames": 9158,
      "æĭīå¼Ģ": 9159,
      "çŁŃä¿¡": 9160,
      "æķ¢äºİ": 9161,
      "æııè¿°": 9162,
      "çļĦèµĦéĩĳ": 9163,
      "ç»İ": 9164,
      "çīº": 9165,
      "å¯¹æľ¬æ¬¡": 9166,
      "å°±è¿ĳ": 9167,
      "æķĻçłĶ": 9168,
      "çľĭèµ·æĿ¥": 9169,
      "çİ¯å¢ĥå½±åĵį": 9170,
      "å¼łå®¶": 9171,
      "ĠSp": 9172,
      "é¤Ĳåİħ": 9173,
      "çĳŀæĭī": 9174,
      "Ġquest": 9175,
      "ium": 9176,
      "å¹´èĩ³": 9177,
      "Ġsite": 9178,
      "äº¤å¾Ģ": 9179,
      "å¯¼ä½ĵ": 9180,
      "é¢ĦçķĻ": 9181,
      "å¤®è§Ĩ": 9182,
      "ä½ĵç³»åĴĮ": 9183,
      "åŁºéĩĳä¼ļ": 9184,
      "çļĦåīįæıĲä¸ĭ": 9185,
      "Ġå°ı": 9186,
      "ĠåĮĹäº¬": 9187,
      "ä¸ĬçıŃ": 9188,
      "ä¸ĭæ¸¸": 9189,
      "ote": 9190,
      "å·²ç»ıæĪĲä¸º": 9191,
      "æ³ķå¾ĭè´£ä»»": 9192,
      "çŁŃè§Ĩé¢ĳ": 9193,
      "oh": 9194,
      "éĢļè½¦": 9195,
      "Ġwater": 9196,
      "è´ŁéĿ¢": 9197,
      "ä¾ĿæĹ§": 9198,
      "æ²³æ¹ĸ": 9199,
      "çĽ®åīįå·²": 9200,
      "ĠBe": 9201,
      "çŃ¹å¤ĩ": 9202,
      "æļ´åĬĽ": 9203,
      "ä¼Łå¤§å¤įåħ´": 9204,
      "åį«çĶŁåģ¥åº·å§Ķ": 9205,
      "ä¸Ńåıĳçİ°": 9206,
      "é«ĺåĵģè´¨": 9207,
      "ç»ıåĬŀ": 9208,
      "åĲĮå¿ĥ": 9209,
      "çĸ¯": 9210,
      "åĽŀæĿ¥": 9211,
      "åĲĪä½ľçļĦ": 9212,
      "ç´§è¿«": 9213,
      "æ·±åħ¥åŃ¦ä¹ł": 9214,
      "åī§éĻ¢": 9215,
      "èĢĲå¿ĥ": 9216,
      "ä¸ĭæ²ī": 9217,
      "åĲĳå¥½": 9218,
      "ä¸¤åĲį": 9219,
      "è¥¿äºļ": 9220,
      "åİĭç¼©": 9221,
      "æ»ĳéĽª": 9222,
      "çĪ¸çĪ¸": 9223,
      "çīºçī²": 9224,
      "åİ¢": 9225,
      "èĲ¥æĶ¶": 9226,
      "æŃ¤æĹ¶": 9227,
      "äºĴçĽ¸": 9228,
      "ç²®é£Łå®īåħ¨": 9229,
      "åĲ¬åıĸäºĨ": 9230,
      "çļĦæ¯Ķä¾ĭ": 9231,
      "æ°ĳè¿Ľ": 9232,
      "åĲİæľŁ": 9233,
      "ç¥¨æĪ¿": 9234,
      "è§£åĨ³éĹ®é¢ĺ": 9235,
      "åİĨåı²æĸĩåĮĸ": 9236,
      "å®¶å±ħ": 9237,
      "ç½ķ": 9238,
      "æĪĺåľº": 9239,
      "èĽĭç³ķ": 9240,
      "æĺ¯çĶ±": 9241,
      "å½¬": 9242,
      "è¦ģåĪĩå®ŀ": 9243,
      "æİ¨éĢģ": 9244,
      "Ġdri": 9245,
      "æī¿è®¤": 9246,
      "è¿Ľä¸ĢæŃ¥å¢ŀå¼º": 9247,
      "è§ĦåĪĴåĴĮ": 9248,
      "çĭ¬çī¹çļĦ": 9249,
      "aper": 9250,
      "åħ¨æµģç¨ĭ": 9251,
      "Ġdist": 9252,
      "Ġanother": 9253,
      "æĹ©ä¸Ĭ": 9254,
      "Ġnext": 9255,
      "è¡Ģç®¡": 9256,
      "æ³ķå®ļèĬĤåģĩæĹ¥": 9257,
      "Ġincre": 9258,
      "æİĪæĿĥå§Ķæīĺ": 9259,
      "ä¸Ģè¾Ĩ": 9260,
      "ä¸įçŁ¥": 9261,
      "Ġcert": 9262,
      "è·¯åı£": 9263,
      "å¤ĸæ±ĩ": 9264,
      "åıĹå®³": 9265,
      "å½±åĥı": 9266,
      "ä¸įæĸŃå®ĮåĸĦ": 9267,
      "ĠHow": 9268,
      "the": 9269,
      "æĪĪ": 9270,
      "æľ¬é¢Ĩ": 9271,
      "åĲĦæĸ¹éĿ¢": 9272,
      "éĤ±": 9273,
      "å¤´éĥ¨": 9274,
      "æ¹ĸåĮº": 9275,
      "æĺŁæľŁ": 9276,
      "çŃĶæ¡Ī": 9277,
      "ä¼ĺç§Ģä¼łç»ŁæĸĩåĮĸ": 9278,
      "Ġaddition": 9279,
      "çī¹æŃ¤åħ¬åĳĬ": 9280,
      "IN": 9281,
      "çľģåĨħ": 9282,
      "è´¨éĩıåĴĮ": 9283,
      "çİĩè¾¾åĪ°": 9284,
      "æĭĽæĬķæłĩ": 9285,
      "ĠSo": 9286,
      "me": 9287,
      "å¤§å¤ļ": 9288,
      "ä¾Ŀèµĸ": 9289,
      "æ¨¡æĭŁ": 9290,
      "èŃ¦åĳĬ": 9291,
      "èĪªçº¿": 9292,
      "æĬ½æ£Ģ": 9293,
      "ä¾¦æŁ¥": 9294,
      "è¯¯å¯¼æĢ§": 9295,
      "åĨ¶": 9296,
      "å·¥åĮł": 9297,
      "åĩºçİ°åľ¨": 9298,
      "å»ºæ¡£": 9299,
      "å¯¹æĪĳ": 9300,
      "çŃīæľįåĬ¡": 9301,
      "å·¥ä½ľå¼Ģå±ķ": 9302,
      "ç©ºåĨĽ": 9303,
      "åĲĮæĹ¶ä¹Ł": 9304,
      "åĩłåįģ": 9305,
      "Ġnever": 9306,
      "å¨±ä¹ĲåľĪ": 9307,
      "çºªå¿µé¦Ĩ": 9308,
      "èĻļåģĩè®°è½½": 9309,
      "åİŁåĪĽ": 9310,
      "Ġhard": 9311,
      "æł¸ç®Ĺ": 9312,
      "è¿Ľä¸ĢæŃ¥æıĲé«ĺ": 9313,
      "Ġarea": 9314,
      "æĹ¢æĺ¯": 9315,
      "å¡ĳéĢł": 9316,
      "ä¼łè¾¾åŃ¦ä¹ł": 9317,
      "ä¸įæľį": 9318,
      "Ġold": 9319,
      "Ġoper": 9320,
      "éħ¿": 9321,
      "ç»¿åľ°": 9322,
      "ä¸įä»ħæĺ¯": 9323,
      "æĭ¿åĪ°": 9324,
      "åĩ¸æĺ¾": 9325,
      "å®¶çĶµ": 9326,
      "çİ°å·²": 9327,
      "å¯¼èĪª": 9328,
      "æ¼Ķèīº": 9329,
      "è¡ĮæĶ¿éĥ¨éĹ¨": 9330,
      "2004": 9331,
      "åİĨåı²ä¸Ĭ": 9332,
      "ĠæĹ¥": 9333,
      "Ġä¹Ŀ": 9334,
      "åľ¨ç¾İåĽ½": 9335,
      "äº¤åĬŀ": 9336,
      "æķ°åŃ¦": 9337,
      "æ®·": 9338,
      "æķ°åŃĹåĮĸè½¬åŀĭ": 9339,
      "çļĦæĪĺçķ¥": 9340,
      "åıĳçĥŃ": 9341,
      "èµ·èįī": 9342,
      "åĮĹåĮº": 9343,
      "äººæ°ĳä¸ºä¸Ńå¿ĥ": 9344,
      "éĴ©": 9345,
      "çľĭçĿĢ": 9346,
      "éĩįå¤§éģĹæ¼ı": 9347,
      "åįĬå¯¼ä½ĵ": 9348,
      "å§ĭç»ĪåĿļæĮģ": 9349,
      "äº¤éĢļè¿Ĳè¾ĵå±Ģ": 9350,
      "çļĦéĤ£": 9351,
[...]
