{
  "version": "1.0",
  "truncation": null,
  "padding": null,
  "added_tokens": [
    {
      "id": 0,
      "content": "<|endoftext|>",
      "single_word": false,
      "lstrip": false,
      "rstrip": false,
      "normalized": true,
      "special": true
    },
    {
      "id": 1,
      "content": "<s>",
      "single_word": false,
      "lstrip": false,
      "rstrip": false,
      "normalized": false,
      "special": true
    },
    {
      "id": 2,
      "content": "</s>",
      "single_word": false,
      "lstrip": false,
      "rstrip": false,
      "normalized": false,
      "special": true
    },
    {
      "id": 3,
      "content": "<unk>",
      "single_word": false,
      "lstrip": false,
      "rstrip": false,
      "normalized": false,
      "special": true
    },
    {
      "id": 4,
      "content": "<pad>",
      "single_word": false,
      "lstrip": false,
      "rstrip": false,
      "normalized": false,
      "special": true
    }
  ],
  "normalizer": null,
  "pre_tokenizer": {
    "type": "ByteLevel",
    "add_prefix_space": false,
    "trim_offsets": true,
    "use_regex": true
  },
  "post_processor": {
    "type": "ByteLevel",
    "add_prefix_space": true,
    "trim_offsets": false,
    "use_regex": true
  },
  "decoder": {
    "type": "ByteLevel",
    "add_prefix_space": true,
    "trim_offsets": true,
    "use_regex": true
  },
  "model": {
    "type": "BPE",
    "dropout": null,
    "unk_token": null,
    "continuing_subword_prefix": "",
    "end_of_word_suffix": "",
    "fuse_unk": false,
    "byte_fallback": false,
    "ignore_merges": false,
    "vocab": {
      "<|endoftext|>": 0,
      "<s>": 1,
      "</s>": 2,
      "<unk>": 3,
      "<pad>": 4,
      "!": 5,
      "\"": 6,
      "#": 7,
      "$": 8,
      "%": 9,
      "&": 10,
      "'": 11,
      "(": 12,
      ")": 13,
      "*": 14,
      "+": 15,
      ",": 16,
      "-": 17,
      ".": 18,
      "/": 19,
      "0": 20,
      "1": 21,
      "2": 22,
      "3": 23,
      "4": 24,
      "5": 25,
      "6": 26,
      "7": 27,
      "8": 28,
      "9": 29,
      ":": 30,
      ";": 31,
      "<": 32,
      "=": 33,
      ">": 34,
      "?": 35,
      "@": 36,
      "A": 37,
      "B": 38,
      "C": 39,
      "D": 40,
      "E": 41,
      "F": 42,
      "G": 43,
      "H": 44,
      "I": 45,
      "J": 46,
      "K": 47,
      "L": 48,
      "M": 49,
      "N": 50,
      "O": 51,
      "P": 52,
      "Q": 53,
      "R": 54,
      "S": 55,
      "T": 56,
      "U": 57,
      "V": 58,
      "W": 59,
      "X": 60,
      "Y": 61,
      "Z": 62,
      "[": 63,
      "\\": 64,
      "]": 65,
      "^": 66,
      "_": 67,
      "`": 68,
      "a": 69,
      "b": 70,
      "c": 71,
      "d": 72,
      "e": 73,
      "f": 74,
      "g": 75,
      "h": 76,
      "i": 77,
      "j": 78,
      "k": 79,
      "l": 80,
      "m": 81,
      "n": 82,
      "o": 83,
      "p": 84,
      "q": 85,
      "r": 86,
      "s": 87,
      "t": 88,
      "u": 89,
      "v": 90,
      "w": 91,
      "x": 92,
      "y": 93,
      "z": 94,
      "{": 95,
      "|": 96,
      "}": 97,
      "~": 98,
      "¡": 99,
      "¢": 100,
      "£": 101,
      "¤": 102,
      "¥": 103,
      "¦": 104,
      "§": 105,
      "¨": 106,
      "©": 107,
      "ª": 108,
      "«": 109,
      "¬": 110,
      "®": 111,
      "¯": 112,
      "°": 113,
      "±": 114,
      "²": 115,
      "³": 116,
      "´": 117,
      "µ": 118,
      "¶": 119,
      "·": 120,
      "¸": 121,
      "¹": 122,
      "º": 123,
      "»": 124,
      "¼": 125,
      "½": 126,
      "¾": 127,
      "¿": 128,
      "À": 129,
      "Á": 130,
      "Â": 131,
      "Ã": 132,
      "Ä": 133,
      "Å": 134,
      "Æ": 135,
      "Ç": 136,
      "È": 137,
      "É": 138,
      "Ê": 139,
      "Ë": 140,
      "Ì": 141,
      "Í": 142,
      "Î": 143,
      "Ï": 144,
      "Ð": 145,
      "Ñ": 146,
      "Ò": 147,
      "Ó": 148,
      "Ô": 149,
      "Õ": 150,
      "Ö": 151,
      "×": 152,
      "Ø": 153,
      "Ù": 154,
      "Ú": 155,
      "Û": 156,
      "Ü": 157,
      "Ý": 158,
      "Þ": 159,
      "ß": 160,
      "à": 161,
      "á": 162,
      "â": 163,
      "ã": 164,
      "ä": 165,
      "å": 166,
      "æ": 167,
      "ç": 168,
      "è": 169,
      "é": 170,
      "ê": 171,
      "ë": 172,
      "ì": 173,
      "í": 174,
      "î": 175,
      "ï": 176,
      "ð": 177,
      "ñ": 178,
      "ò": 179,
      "ó": 180,
      "ô": 181,
      "õ": 182,
      "ö": 183,
      "÷": 184,
      "ø": 185,
      "ù": 186,
      "ú": 187,
      "û": 188,
      "ü": 189,
      "ý": 190,
      "þ": 191,
      "ÿ": 192,
      "Ā": 193,
      "ā": 194,
      "Ă": 195,
      "ă": 196,
      "Ą": 197,
      "ą": 198,
      "Ć": 199,
      "ć": 200,
      "Ĉ": 201,
      "ĉ": 202,
      "Ċ": 203,
      "ċ": 204,
      "Č": 205,
      "č": 206,
      "Ď": 207,
      "ď": 208,
      "Đ": 209,
      "đ": 210,
      "Ē": 211,
      "ē": 212,
      "Ĕ": 213,
      "ĕ": 214,
      "Ė": 215,
      "ė": 216,
      "Ę": 217,
      "ę": 218,
      "Ě": 219,
      "ě": 220,
      "Ĝ": 221,
      "ĝ": 222,
      "Ğ": 223,
      "ğ": 224,
      "Ġ": 225,
      "ġ": 226,
      "Ģ": 227,
      "ģ": 228,
      "Ĥ": 229,
      "ĥ": 230,
      "Ħ": 231,
      "ħ": 232,
      "Ĩ": 233,
      "ĩ": 234,
      "Ī": 235,
      "ī": 236,
      "Ĭ": 237,
      "ĭ": 238,
      "Į": 239,
      "į": 240,
      "İ": 241,
      "ı": 242,
      "Ĳ": 243,
      "ĳ": 244,
      "Ĵ": 245,
      "ĵ": 246,
      "Ķ": 247,
      "ķ": 248,
      "ĸ": 249,
      "Ĺ": 250,
      "ĺ": 251,
      "Ļ": 252,
      "ļ": 253,
      "Ľ": 254,
      "ľ": 255,
      "Ŀ": 256,
      "ŀ": 257,
      "Ł": 258,
      "ł": 259,
      "Ń": 260,
      "ï¼": 261,
      "ä¸": 262,
      "ï¼Į": 263,
      "ãĢ": 264,
      "äº": 265,
      "çļ": 266,
      "çļĦ": 267,
      "åħ": 268,
      "åı": 269,
      "æľ": 270,
      "ãĢĤ": 271,
      "ä»": 272,
      "å®": 273,
      "å¤": 274,
      "âĢ": 275,
      "åĪ": 276,
      "è¿": 277,
      "åĬ": 278,
      "åľ": 279,
      "åĲ": 280,
      "ä½": 281,
      "ç»": 282,
      "åĽ": 283,
      "æĸ": 284,
      "å¹": 285,
      "çĶ": 286,
      "æĺ": 287,
      "è®": 288,
      "ä¼": 289,
      "æĹ": 290,
      "æĪ": 291,
      "åį": 292,
      "ä¸Ģ": 293,
      "è¯": 294,
      "ä¹": 295,
      "å¸": 296,
      "åĮ": 297,
      "æĿ": 298,
      "å°": 299,
      "éĩ": 300,
      "å·": 301,
      "åľ¨": 302,
      "å¼": 303,
      "è¡": 304,
      "äºº": 305,
      "è´": 306,
      "åĨ": 307,
      "åº": 308,
      "æī": 309,
      "ä¸Ń": 310,
      "âĢľ": 311,
      "âĢĿ": 312,
      "å±": 313,
      "æĶ": 314,
      "çĽ": 315,
      "æĬ": 316,
      "åŃ": 317,
      "åĽ½": 318,
      "åĩ": 319,
      "æĺ¯": 320,
      "ãĢģ": 321,
      "æľī": 322,
      "éĢ": 323,
      "å¯": 324,
      "èµ": 325,
      "äºĨ": 326,
      "å¹´": 327,
      "éĻ": 328,
      "åĴ": 329,
      "ä¸į": 330,
      "å¤§": 331,
      "ä¸º": 332,
      "èĢ": 333,
      "æķ": 334,
      "è§": 335,
      "æł": 336,
      "åĴĮ": 337,
      "ä¸ļ": 338,
      "å¾": 339,
      "æ°": 340,
      "çİ": 341,
      "ç§": 342,
      "åıĳ": 343,
      "åĳ": 344,
      "ä¿": 345,
      "æĢ": 346,
      "è¡Į": 347,
      "æİ": 348,
      "éĹ": 349,
      "ä¸Ĭ": 350,
      "Ġt": 351,
      "çº": 352,
      "ĥ½": 353,
      "ä¼ļ": 354,
      "æµ": 355,
      "åİ": 356,
      "æŃ": 357,
      "æ³": 358,
      "çŃ": 359,
      "å¥": 360,
      "åħ¬": 361,
      "å½": 362,
      "éĿ": 363,
      "çī": 364,
      "å¸Ĥ": 365,
      "å¿": 366,
      "ä½ľ": 367,
      "é¢": 368,
      "æĮ": 369,
      "Ġa": 370,
      "èĩ": 371,
      "çĶŁ": 372,
      "¦ģ": 373,
      "åŁ": 374,
      "æĹ¶": 375,
      "å·¥": 376,
      "çĲ": 377,
      "åĩº": 378,
      "è¦ģ": 379,
      "æ²": 380,
      "ä»¥": 381,
      "å¯¹": 382,
      "ä¸ª": 383,
      "æŀ": 384,
      "20": 385,
      "æĸ°": 386,
      "æĪĲ": 387,
      "in": 388,
      "åľ°": 389,
      "è½": 390,
      "æĹ¥": 391,
      "åħ¨": 392,
      "åĪ°": 393,
      "åī": 394,
      "å®¶": 395,
      "åĬ¨": 396,
      "æĭ": 397,
      "he": 398,
      "æĿ¥": 399,
      "è¿Ľ": 400,
      "æ±": 401,
      "åĵ": 402,
      "å®ŀ": 403,
      "éĺ": 404,
      "è¾": 405,
      "çľ": 406,
      "èĥ½": 407,
      "æ¬": 408,
      "äº§": 409,
      "è¿Ļ": 410,
      "éĥ": 411,
      "èĤ": 412,
      "å»": 413,
      "æĸ¹": 414,
      "ç½": 415,
      "ç»ı": 416,
      "åŃ¦": 417,
      "æ¯": 418,
      "ç¤": 419,
      "çĲĨ": 420,
      "çĶ¨": 421,
      "ç«": 422,
      "æĥ": 423,
      "éķ": 424,
      "å±ķ": 425,
      "çİ°": 426,
      "åĮº": 427,
      "åĮĸ": 428,
      "ä¾": 429,
      "å¼Ģ": 430,
      "äºİ": 431,
      "ç®": 432,
      "æľĪ": 433,
      "æ³ķ": 434,
      "çŃī": 435,
      "éĥ¨": 436,
      "èµĦ": 437,
      "æı": 438,
      "é«": 439,
      "æ°ĳ": 440,
      "åĲĪ": 441,
      "é«ĺ": 442,
      "å»º": 443,
      "å¤ļ": 444,
      "åĬĽ": 445,
      "é¡": 446,
      "æ´": 447,
      "åĬ¡": 448,
      "æ¸": 449,
      "åĪĨ": 450,
      "åħ³": 451,
      "æĪĳ": 452,
      "ä½ĵ": 453,
      "re": 454,
      "æĦ": 455,
      "ä¸ĭ": 456,
      "åĲĮ": 457,
      "è¿ĩ": 458,
      "ï¼ļ": 459,
      "éģ": 460,
      "æľ¬": 461,
      "æĶ¿": 462,
      "å®ļ": 463,
      "åĲİ": 464,
      "ä¸»": 465,
      "åģ": 466,
      "èģ": 467,
      "on": 468,
      "äºĭ": 469,
      "åľº": 470,
      "ç¨": 471,
      "å¢": 472,
      "èĩª": 473,
      "ä¸İ": 474,
      "è·": 475,
      "éķ¿": 476,
      "éĩį": 477,
      "è°": 478,
      "æľº": 479,
      "åīį": 480,
      "åĬł": 481,
      "æıĲ": 482,
      "åı¸": 483,
      "ä¿Ŀ": 484,
      "æį": 485,
      "ç¾": 486,
      "éĢļ": 487,
      "æŁ": 488,
      "éĿ¢": 489,
      "çĤ": 490,
      "er": 491,
      "ä»ĸ": 492,
      "åı¯": 493,
      "èĢħ": 494,
      "éĽ": 495,
      "çĽ®": 496,
      "åĵģ": 497,
      "æĻ": 498,
      "å§": 499,
      "éĩĳ": 500,
      "æĽ": 501,
      "ä»¬": 502,
      "ä¹Ł": 503,
      "åĿ": 504,
      "Ġthe": 505,
      "åħĥ": 506,
      "ï¼ī": 507,
      "å°Ĩ": 508,
      "ï¼Ī": 509,
      "ç¬": 510,
      "åĳĺ": 511,
      "å°±": 512,
      "Ġs": 513,
      "åº¦": 514,
      "åħ¬åı¸": 515,
      "æĸĩ": 516,
      "è®¾": 517,
      "ä¸ŃåĽ½": 518,
      "åĪ¶": 519,
      "æ¶": 520,
      "å¿ĥ": 521,
      "åĨħ": 522,
      "éļ": 523,
      "åħ¶": 524,
      "å¦": 525,
      "è¶": 526,
      "ç®¡": 527,
      "æľŁ": 528,
      "åħ¥": 529,
      "é£": 530,
      "åĢ": 531,
      "å®ī": 532,
      "èĲ": 533,
      "åıĬ": 534,
      "Ġw": 535,
      "è¡¨": 536,
      "å·¥ä½ľ": 537,
      "at": 538,
      "å¹³": 539,
      "é¡¹": 540,
      "Ġo": 541,
      "çĤ¹": 542,
      "æ¬¡": 543,
      "ãĢĭ": 544,
      "å°ı": 545,
      "ãĢĬ": 546,
      "çĿ": 547,
      "00": 548,
      "æ¡": 549,
      "ä¹ĭ": 550,
      "å¾Ĺ": 551,
      "è½¦": 552,
      "å¥½": 553,
      "æĥħ": 554,
      "åŃĲ": 555,
      "Ġc": 556,
      "åıĳå±ķ": 557,
      "åºĶ": 558,
      "éĹ´": 559,
      "nd": 560,
      "èī": 561,
      "çŁ": 562,
      "çĶµ": 563,
      "æĢ§": 564,
      "æĬ¥": 565,
      "çł": 566,
      "éĩı": 567,
      "ä¿¡": 568,
      "å½ĵ": 569,
      "è¯´": 570,
      "å¤©": 571,
      "ä½į": 572,
      "äº¤": 573,
      "æĮģ": 574,
      "ç³": 575,
      "ç¬¬": 576,
      "it": 577,
      "åĪ©": 578,
      "å¤ĸ": 579,
      "æīĢ": 580,
      "ç½ĳ": 581,
      "ou": 582,
      "ä¸ī": 583,
      "åŁº": 584,
      "è§Ħ": 585,
      "çĽ¸": 586,
      "æľĢ": 587,
      "è¿ĺ": 588,
      "çķ": 589,
      "æĺİ": 590,
      "è¢": 591,
      "å¼º": 592,
      "es": 593,
      "or": 594,
      "éľ": 595,
      "èĬ": 596,
      "æ°´": 597,
      "æģ": 598,
      "ä¼ģ": 599,
      "ï¼Ľ": 600,
      "æį®": 601,
      "ä¸ĩ": 602,
      "èĢĮ": 603,
      "æłĩ": 604,
      "çĸ": 605,
      "éģĵ": 606,
      "éĥ½": 607,
      "è®¡": 608,
      "åĲį": 609,
      "æķ°": 610,
      "å¹¶": 611,
      "ç©": 612,
      "ç¤¾": 613,
      "ç¾İ": 614,
      "ä»£": 615,
      "ç¡": 616,
      "æĽ´": 617,
      "en": 618,
      "æľį": 619,
      "åķ": 620,
      "is": 621,
      "Ġf": 622,
      "ä»İ": 623,
      "ç³»": 624,
      "ç¤º": 625,
      "æ¯Ķ": 626,
      "å¢ŀ": 627,
      "éĵ": 628,
      "ing": 629,
      "Ġb": 630,
      "Ġp": 631,
      "ç¨ĭ": 632,
      "æµ·": 633,
      "éĻ¢": 634,
      "æĦı": 635,
      "éĶ": 636,
      "æ´»": 637,
      "è®°": 638,
      "é¦": 639,
      "é¢ĺ": 640,
      "å¦Ĥ": 641,
      "åĳĬ": 642,
      "æİ¨": 643,
      "ç§ĳ": 644,
      "ä»»": 645,
      "è¢«": 646,
      "æĬķ": 647,
      "å¼ı": 648,
      "æĶ¶": 649,
      "ç¥": 650,
      "æ·": 651,
      "æŃ¤": 652,
      "ä¼ģä¸ļ": 653,
      "åħ±": 654,
      "201": 655,
      "è´¹": 656,
      "åĪĽ": 657,
      "å·²": 658,
      "åķĨ": 659,
      "ç±": 660,
      "çĻ": 661,
      "èµ·": 662,
      "an": 663,
      "æĬĢ": 664,
      "åĲĦ": 665,
      "çī©": 666,
      "åĲĳ": 667,
      "çľģ": 668,
      "ä»·": 669,
      "ç»Ħ": 670,
      "çĦ": 671,
      "è®®": 672,
      "è°ĥ": 673,
      "èĤ¡": 674,
      "è¯ģ": 675,
      "ç«ĭ": 676,
      "èģĶ": 677,
      "çĿĢ": 678,
      "éĹ¨": 679,
      "æķĻ": 680,
      "çī¹": 681,
      "æĢ»": 682,
      "å±Ģ": 683,
      "al": 684,
      "ed": 685,
      "éĹ®": 686,
      "ç²": 687,
      "è§£": 688,
      "åı°": 689,
      "é©": 690,
      "åĽł": 691,
      "ä»¶": 692,
      "Ġm": 693,
      "æŃ£": 694,
      "Ġto": 695,
      "æľįåĬ¡": 696,
      "åŁİ": 697,
      "ä¸ľ": 698,
      "è·¯": 699,
      "å§Ķ": 700,
      "åĬŀ": 701,
      "æº": 702,
      "å¯¼": 703,
      "èĪ": 704,
      "ç´": 705,
      "æ±Ĥ": 706,
      "éĩĮ": 707,
      "äºĮ": 708,
      "ar": 709,
      "ç§į": 710,
      "åĮĹ": 711,
      "ä½Ĩ": 712,
      "æŁ¥": 713,
      "æĿĳ": 714,
      "èĩ³": 715,
      "æĶ¯": 716,
      "èĭ": 717,
      "ãĢĤâĢĿ": 718,
      "èį": 719,
      "æ¡Ī": 720,
      "åİŁ": 721,
      "è¿Ĳ": 722,
      "ç»ĵ": 723,
      "ä¸¤": 724,
      "éĽĨ": 725,
      "ä¸ĵ": 726,
      "è´¨": 727,
      "Ġand": 728,
      "æ£": 729,
      "ç»Ł": 730,
      "è¿ĳ": 731,
      "åħļ": 732,
      "æĸ½": 733,
      "å£": 734,
      "æĶ¹": 735,
      "æľ¯": 736,
      "çľĭ": 737,
      "åįĹ": 738,
      "æīĭ": 739,
      "æµİ": 740,
      "åįķ": 741,
      "çº§": 742,
      "éħ": 743,
      "ç¼": 744,
      "Ġin": 745,
      "æ²»": 746,
      "è¥": 747,
      "åıĹ": 748,
      "å¤Ħ": 749,
      "åĨľ": 750,
      "æİ¥": 751,
      "å»ºè®¾": 752,
      "ä¼ł": 753,
      "è¥¿": 754,
      "éĢł": 755,
      "æł¼": 756,
      "çĥ": 757,
      "è®¤": 758,
      "ä¸Ģä¸ª": 759,
      "ä¹¦": 760,
      "é¢Ĩ": 761,
      "Ġof": 762,
      "æĹł": 763,
      "çĦ¶": 764,
      "èĮ": 765,
      "å¹¿": 766,
      "åĨ³": 767,
      "æŀľ": 768,
      "é¡¹çĽ®": 769,
      "åįģ": 770,
      "æºĲ": 771,
      "ä¾Ľ": 772,
      "çłĶ": 773,
      "èĤ²": 774,
      "ç»ıæµİ": 775,
      "å¸Ĥåľº": 776,
      "çº¿": 777,
      "æĮĩ": 778,
      "çĶ±": 779,
      "Ġd": 780,
      "éĴ": 781,
      "è´£": 782,
      "æĿĥ": 783,
      "åŀ": 784,
      "æµģ": 785,
      "éª": 786,
      "èĢģ": 787,
      "èĲ¥": 788,
      "éĤ": 789,
      "è¿Ľè¡Į": 790,
      "ç®¡çĲĨ": 791,
      "å²": 792,
      "çģ": 793,
      "è¾¾": 794,
      "éĺŁ": 795,
      "å¸¸": 796,
      "çĽĳ": 797,
      "æķĪ": 798,
      "éľĢ": 799,
      "æģ¯": 800,
      "âĢĿï¼Į": 801,
      "æĪĳä»¬": 802,
      "åĮ»": 803,
      "le": 804,
      "åĩĨ": 805,
      "åģļ": 806,
      "åİ»": 807,
      "é£İ": 808,
      "æ²¡": 809,
      "ic": 810,
      "æīĵ": 811,
      "ä»Ĭ": 812,
      "å±±": 813,
      "ç»Ń": 814,
      "10": 815,
      "æ·±": 816,
      "åĽ½å®¶": 817,
      "çĪ": 818,
      "éĺ²": 819,
      "å¾Ī": 820,
      "çİ¯": 821,
      "äºĽ": 822,
      "åįİ": 823,
      "åı£": 824,
      "æŃ¥": 825,
      "æ¶Ī": 826,
      "æķ´": 827,
      "åıĤ": 828,
      "éĻħ": 829,
      "èº": 830,
      "èİ": 831,
      "æŀĦ": 832,
      "åĽŀ": 833,
      "è¯¥": 834,
      "ç¡®": 835,
      "å·ŀ": 836,
      "éĻĲ": 837,
      "å¸ĥ": 838,
      "èĥ": 839,
      "åĸ": 840,
      "å®Į": 841,
      "æĪ¿": 842,
      "æĪĸ": 843,
      "æĪĺ": 844,
      "è®©": 845,
      "æ»": 846,
      "äº¬": 847,
      "ç¦": 848,
      "æĪ·": 849,
      "åıĸ": 850,
      "éĹ®é¢ĺ": 851,
      "as": 852,
      "æĶ¾": 853,
      "om": 854,
      "ä½¿": 855,
      "åĽ¢": 856,
      "åįĩ": 857,
      "èº«": 858,
      "æľª": 859,
      "åħĪ": 860,
      "æ®": 861,
      "æĿ¡": 862,
      "Ġh": 863,
      "åĶ": 864,
      "åºľ": 865,
      "çĹ": 866,
      "å½±": 867,
      "ç¤¾ä¼ļ": 868,
      "ä¼Ĺ": 869,
      "ion": 870,
      "äººæ°ĳ": 871,
      "è£": 872,
      "èŀ": 873,
      "åĽĽ": 874,
      "åĨµ": 875,
      "è½¬": 876,
      "èĬĤ": 877,
      "ä¼ĺ": 878,
      "åİ¿": 879,
      "çŁ¥": 880,
      "æ°Ķ": 881,
      "é»": 882,
      "æł·": 883,
      "æ¸¸": 884,
      "éĢļè¿ĩ": 885,
      "çħ": 886,
      "å¸¦": 887,
      "æĶ¿åºľ": 888,
      "å°ĳ": 889,
      "æ¼": 890,
      "èŀį": 891,
      "èī²": 892,
      "æĦŁ": 893,
      "æ£Ģ": 894,
      "æĬ¤": 895,
      "Ġth": 896,
      "åıĺ": 897,
      "ç²¾": 898,
      "åŀĭ": 899,
      "è§Ĩ": 900,
      "æ¬¾": 901,
      "åħ·": 902,
      "éĻ©": 903,
      "é¢Ħ": 904,
      "éĢī": 905,
      "è´Ń": 906,
      "æĢģ": 907,
      "èµĽ": 908,
      "å¢ĥ": 909,
      "å®¡": 910,
      "ç»Ļ": 911,
      "éĩĩ": 912,
      "å®īåħ¨": 913,
      "äº¿": 914,
      "åįı": 915,
      "å½¢": 916,
      "ä¸ĸ": 917,
      "èĢĥ": 918,
      "çĲĥ": 919,
      "æ±Ł": 920,
      "å¤ĩ": 921,
      "æĺĵ": 922,
      "æĤ": 923,
      "ï¼Ł": 924,
      "æ¯ı": 925,
      "ç§°": 926,
      "å¼ķ": 927,
      "å¸Ī": 928,
      "æĥ³": 929,
      "ä»½": 930,
      "åĬ©": 931,
      "äº§ä¸ļ": 932,
      "202": 933,
      "åı·": 934,
      "çŃĸ": 935,
      "ç±»": 936,
      "é¦ĸ": 937,
      "åĪ«": 938,
      "èĮĥ": 939,
      "è§Ĥ": 940,
      "æ¨": 941,
      "æİ§": 942,
      "æł¡": 943,
      "æ¹": 944,
      "åĨĽ": 945,
      "åıª": 946,
      "il": 947,
      "çº¦": 948,
      "æĸĩåĮĸ": 949,
      "å¼ł": 950,
      "çķĮ": 951,
      "äººåĳĺ": 952,
      "çĽ´": 953,
      "éĿŀ": 954,
      "æĥħåĨµ": 955,
      "æĬķèµĦ": 956,
      "Ġy": 957,
      "å¿«": 958,
      "è¡¨ç¤º": 959,
      "èģĮ": 960,
      "çİĩ": 961,
      "âĢĿãĢĤ": 962,
      "ç¾¤": 963,
      "åĪĴ": 964,
      "æĬĬ": 965,
      "æĬĢæľ¯": 966,
      "ĠâĢľ": 967,
      "è±": 968,
      "èĲ½": 969,
      "æ³¨": 970,
      "èĻ": 971,
      "âĢĶ": 972,
      "å®¢": 973,
      "Â·": 974,
      "ç§¯": 975,
      "æ²¡æľī": 976,
      "å¥³": 977,
      "åŁŁ": 978,
      "å¤´": 979,
      "èĦ": 980,
      "æĹ¶éĹ´": 981,
      "äº§åĵģ": 982,
      "æ´»åĬ¨": 983,
      "Ġl": 984,
      "è¶ħ": 985,
      "åı¯ä»¥": 986,
      "ro": 987,
      "è§ģ": 988,
      "åĮħ": 989,
      "ve": 990,
      "ç©¶": 991,
      "æ¸ħ": 992,
      "Ġn": 993,
      "å·±": 994,
      "ent": 995,
      "è®º": 996,
      "åĳ¨": 997,
      "å¤į": 998,
      "è¯Ħ": 999,
      "å®¹": 1000,
      "ä¸¾": 1001,
      "æīį": 1002,
      "çĽ¸åħ³": 1003,
      "æķĻèĤ²": 1004,
      "Ġe": 1005,
      "å¹²": 1006,
      "éļ¾": 1007,
      "st": 1008,
      "éªĮ": 1009,
      "ä¹Ī": 1010,
      "èĩªå·±": 1011,
      "åıį": 1012,
      "æ¨¡": 1013,
      "æĺ¾": 1014,
      "æĴ": 1015,
      "Ġre": 1016,
      "çĬ": 1017,
      "åĢ¼": 1018,
      "çħ§": 1019,
      "ç©º": 1020,
      "12": 1021,
      "ä¹ł": 1022,
      "äºĶ": 1023,
      "è®°èĢħ": 1024,
      "ä¿¡æģ¯": 1025,
      "ç«Ļ": 1026,
      "æł¸": 1027,
      "çĽĬ": 1028,
      "æŀģ": 1029,
      "é£Ł": 1030,
      "éĢŁ": 1031,
      "èİ·": 1032,
      "ï¼ĮâĢľ": 1033,
      "åĬ¿": 1034,
      "æĹħ": 1035,
      "è¯·": 1036,
      "çª": 1037,
      "åŃĺ": 1038,
      "åĿļ": 1039,
      "Ġyou": 1040,
      "éĥ¨éĹ¨": 1041,
      "ç»ĩ": 1042,
      "æİĴ": 1043,
      "è´¢": 1044,
      "çľŁ": 1045,
      "è¾ĥ": 1046,
      "19": 1047,
      "éĵ¶": 1048,
      "èµ°": 1049,
      "æł¹": 1050,
      "è¯ī": 1051,
      "åħ»": 1052,
      "è´Ł": 1053,
      "èŃ": 1054,
      "åĨį": 1055,
      "æĸ¹éĿ¢": 1056,
      "éĶĢ": 1057,
      "èŃ¦": 1058,
      "åĽ½éĻħ": 1059,
      "æĸ¯": 1060,
      "ä¾Ŀ": 1061,
      "çİĭ": 1062,
      "æĳ": 1063,
      "èĳ": 1064,
      "çłĶç©¶": 1065,
      "åĵį": 1066,
      "ä¸Ńå¿ĥ": 1067,
      "åĽŃ": 1068,
      "ä½ı": 1069,
      "11": 1070,
      "è¯Ĩ": 1071,
      "è¦ģæ±Ĥ": 1072,
      "æ¢": 1073,
      "é©¬": 1074,
      "åĮĹäº¬": 1075,
      "è¯Ŀ": 1076,
      "ä¹ī": 1077,
      "ä½İ": 1078,
      "éĿĴ": 1079,
      "et": 1080,
      "æıĲä¾Ľ": 1081,
      "çĹħ": 1082,
      "å¼Ģå±ķ": 1083,
      "åģ¥": 1084,
      "Ġg": 1085,
      "ct": 1086,
      "ç»Ħç»ĩ": 1087,
      "åĭ": 1088,
      "ç®Ĺ": 1089,
      "æī§": 1090,
      "æ²³": 1091,
      "å¾ĭ": 1092,
      "æī¿": 1093,
      "æĮī": 1094,
      "çĽ®åīį": 1095,
      "åĪĻ": 1096,
      "ä¸¥": 1097,
      "éĩįè¦ģ": 1098,
      "æŁĲ": 1099,
      "çĻ¾": 1100,
      "ä¹¡": 1101,
      "éŁ": 1102,
      "åİĨ": 1103,
      "æŀĹ": 1104,
      "ĠI": 1105,
      "çı": 1106,
      "æ¼Ķ": 1107,
      "åĲĮæĹ¶": 1108,
      "éĤ£": 1109,
      "åĪĽæĸ°": 1110,
      "æĸŃ": 1111,
      "åħī": 1112,
      "æĶ¿çŃĸ": 1113,
      "æļ": 1114,
      "ç¥¨": 1115,
      "ä½ķ": 1116,
      "ly": 1117,
      "éħį": 1118,
      "å¾·": 1119,
      "åĦ": 1120,
      "çĥŃ": 1121,
      "çº¢": 1122,
      "åĶ®": 1123,
      "å¥¹": 1124,
      "å®ŀçİ°": 1125,
      "å£«": 1126,
      "æĸĻ": 1127,
      "ä»ĸä»¬": 1128,
      "å§ĭ": 1129,
      "æī¹": 1130,
      "âĢĻ": 1131,
      "é¾": 1132,
      "ä¾ĭ": 1133,
      "è¯ķ": 1134,
      "éķĩ": 1135,
      "åĿĩ": 1136,
      "è¶³": 1137,
      "ä¸ĩåħĥ": 1138,
      "ä½ł": 1139,
      "è¶Ĭ": 1140,
      "éĿ©": 1141,
      "å±ħ": 1142,
      "çĭ": 1143,
      "æ®µ": 1144,
      "åĦ¿": 1145,
      "æĭħ": 1146,
      "Ġis": 1147,
      "åŁİå¸Ĥ": 1148,
      "çĶŁäº§": 1149,
      "éĻį": 1150,
      "å·²ç»ı": 1151,
      "èį¯": 1152,
      "é¢Ŀ": 1153,
      "ç¥ŀ": 1154,
      "èĩ´": 1155,
      "åĬŁ": 1156,
      "è£ħ": 1157,
      "ç¾İåĽ½": 1158,
      "åĽ´": 1159,
      "200": 1160,
      "éļı": 1161,
      "ç½®": 1162,
      "æľīéĻĲ": 1163,
      "Ġbe": 1164,
      "é¥": 1165,
      "çĮ": 1166,
      "åŃĹ": 1167,
      "çīĮ": 1168,
      "äºĴ": 1169,
      "ä¹Ĳ": 1170,
      "äºļ": 1171,
      "ĠT": 1172,
      "å¢ŀéķ¿": 1173,
      "ä»Ĭå¹´": 1174,
      "åįķä½į": 1175,
      "åĽ¾": 1176,
      "ç»´": 1177,
      "å®£": 1178,
      "æĻ¯": 1179,
      "Ġfor": 1180,
      "æľºæŀĦ": 1181,
      "ç±³": 1182,
      "ç¬¬ä¸Ģ": 1183,
      "ut": 1184,
      "30": 1185,
      "çİ¯å¢ĥ": 1186,
      "åĲĪä½ľ": 1187,
      "ot": 1188,
      "åħĭ": 1189,
      "éĻ¤": 1190,
      "å±Ĥ": 1191,
      "è±¡": 1192,
      "æĢĿ": 1193,
      "æĻº": 1194,
      "æĻ®": 1195,
      "åĩł": 1196,
      "çīĩ": 1197,
      "ä»ħ": 1198,
      "æĿİ": 1199,
      "ä¸ĸçķĮ": 1200,
      "å¿Ĺ": 1201,
      "ä½ľä¸º": 1202,
      "åĪĹ": 1203,
      "æĪĲä¸º": 1204,
      "åħ´": 1205,
      "çĶŁæ´»": 1206,
      "å°Ķ": 1207,
      "Ġon": 1208,
      "åħ¨åĽ½": 1209,
      "åº·": 1210,
      "éļľ": 1211,
      "åŁ¹": 1212,
      "èµĦéĩĳ": 1213,
      "æµĭ": 1214,
      "æħ": 1215,
      "äºī": 1216,
      "åıĮ": 1217,
      "æ¶Īè´¹": 1218,
      "èĬ±": 1219,
      "åĸĦ": 1220,
      "å·¥ç¨ĭ": 1221,
      "åıĭ": 1222,
      "id": 1223,
      "ä¸»è¦ģ": 1224,
      "ä¸ĢæŃ¥": 1225,
      "ur": 1226,
      "äº¿åħĥ": 1227,
      "ce": 1228,
      "åıĪ": 1229,
      "æľĽ": 1230,
      "çĪ±": 1231,
      "è¿ŀ": 1232,
      "æ»¡": 1233,
      "çĸ«": 1234,
      "åī¯": 1235,
      "ç§ĳæĬĢ": 1236,
      "éĵ¶è¡Į": 1237,
      "å°±æĺ¯": 1238,
      "éľĢè¦ģ": 1239,
      "ĠS": 1240,
      "åħħ": 1241,
      "æĸ¹å¼ı": 1242,
      "ay": 1243,
      "å½±åĵį": 1244,
      "15": 1245,
      "è§Ħå®ļ": 1246,
      "ow": 1247,
      "åį³": 1248,
      "æİ¨è¿Ľ": 1249,
      "å¯Ł": 1250,
      "æĲ": 1251,
      "æĭī": 1252,
      "æıĲåįĩ": 1253,
      "us": 1254,
      "åĩı": 1255,
      "è´£ä»»": 1256,
      "ä»ĺ": 1257,
      "å¨": 1258,
      "è¾¹": 1259,
      "åı¯èĥ½": 1260,
      "åı²": 1261,
      "æ²¹": 1262,
      "éĺ³": 1263,
      "å¹³åı°": 1264,
      "è´¨éĩı": 1265,
      "èīº": 1266,
      "æķ°æį®": 1267,
      "è¡¥": 1268,
      "å¿ħ": 1269,
      "å±ŀ": 1270,
      "ç»Ī": 1271,
      "ra": 1272,
      "æľīéĻĲåħ¬åı¸": 1273,
      "æ¸¯": 1274,
      "ch": 1275,
      "im": 1276,
      "é»Ħ": 1277,
      "å®ŀæĸ½": 1278,
      "ig": 1279,
      "ï¼ļâĢľ": 1280,
      "ä¼ļè®®": 1281,
      "ä½Ļ": 1282,
      "çĸĹ": 1283,
      "åľŁ": 1284,
      "è¡Įä¸ļ": 1285,
      "ol": 1286,
      "âĢ¦": 1287,
      "åħ¶ä¸Ń": 1288,
      "æ¥": 1289,
      "ç¦»": 1290,
      "èµĦæºĲ": 1291,
      "ä¾¿": 1292,
      "æİ¨åĬ¨": 1293,
      "åĬłå¼º": 1294,
      "å¤±": 1295,
      "åŃ¦çĶŁ": 1296,
      "è®¸": 1297,
      "å¾Ģ": 1298,
      "åį«": 1299,
      "ä½¿çĶ¨": 1300,
      "çģ«": 1301,
      "è®¤ä¸º": 1302,
      "ç¦ı": 1303,
      "è¨": 1304,
      "è¨Ģ": 1305,
      "ä»¥åıĬ": 1306,
      "è¿Ļä¸ª": 1307,
      "çºª": 1308,
      "ĠC": 1309,
      "èħ": 1310,
      "çĻ½": 1311,
      "éĩĳèŀį": 1312,
      "el": 1313,
      "éĥ¨åĪĨ": 1314,
      "ä»£è¡¨": 1315,
      "å¡": 1316,
      "ç³»ç»Ł": 1317,
      "ĠA": 1318,
      "ç¨İ": 1319,
      "èĥ½åĬĽ": 1320,
      "ç¨³": 1321,
      "å¤®": 1322,
      "åĳ½": 1323,
      "èĪª": 1324,
      "å¾®": 1325,
      "å¯Į": 1326,
      "%ï¼Į": 1327,
      "ä¿Ŀéļľ": 1328,
      "å®ĺ": 1329,
      "æłĩåĩĨ": 1330,
      "èı": 1331,
      "é¾Ļ": 1332,
      "ver": 1333,
      "åįļ": 1334,
      "åľ°åĮº": 1335,
      "ith": 1336,
      "çªģ": 1337,
      "ä»ĭ": 1338,
      "åĪĩ": 1339,
      "çĿ£": 1340,
      "åĪ¸": 1341,
      "å¤ª": 1342,
      "è®Ń": 1343,
      "ä¿ĥ": 1344,
      "æĺ¥": 1345,
      "åĻ": 1346,
      "æķħ": 1347,
      "çĶ³": 1348,
      "è´§": 1349,
      "åª": 1350,
      "åħ¶ä»ĸ": 1351,
      "åĪĿ": 1352,
      "æĶ¹éĿ©": 1353,
      "æĭĽ": 1354,
      "ç¢": 1355,
      "åºķ": 1356,
      "æĶ¯æĮģ": 1357,
      "åŃ©": 1358,
      "ä¹°": 1359,
      "éĩįçĤ¹": 1360,
      "æł¹æį®": 1361,
      "éĻĪ": 1362,
      "åŃ£": 1363,
      "è¿Ľä¸ĢæŃ¥": 1364,
      "ç¡Ģ": 1365,
      "å£°": 1366,
      "ç§¯æŀģ": 1367,
      "èĭ±": 1368,
      "çļĦä¸Ģ": 1369,
      "åŁºç¡Ģ": 1370,
      "è´Łè´£": 1371,
      "åĪ¤": 1372,
      "åıĳå¸ĥ": 1373,
      "æĮģç»Ń": 1374,
      "æİª": 1375,
      "äº¤æĺĵ": 1376,
      "è®²": 1377,
      "ĠÂ·": 1378,
      "Ġthat": 1379,
      "åĨħå®¹": 1380,
      "ç¾¤ä¼Ĺ": 1381,
      "ç´ł": 1382,
      "è¿Ŀ": 1383,
      "éĢģ": 1384,
      "Ġst": 1385,
      "ation": 1386,
      "åıĳçİ°": 1387,
      "åįł": 1388,
      "åºĹ": 1389,
      "ä¸ļåĬ¡": 1390,
      "ä¸Ĭæµ·": 1391,
      "åħ¨éĿ¢": 1392,
      "éĵģ": 1393,
      "ç»ľ": 1394,
      "ä¸Ķ": 1395,
      "çŁ³": 1396,
      "ä¿ĿæĬ¤": 1397,
      "åįĬ": 1398,
      "ä»·æł¼": 1399,
      "çıŃ": 1400,
      "æ¹ĸ": 1401,
      "åĻ¨": 1402,
      "å®¤": 1403,
      "æıĲé«ĺ": 1404,
      "Ġwith": 1405,
      "å®ĮæĪĲ": 1406,
      "å¼Ģå§ĭ": 1407,
      "è¿ľ": 1408,
      "ä¿®": 1409,
      "åī§": 1410,
      "è®¿": 1411,
      "åł": 1412,
      "åªĴ": 1413,
      "æĹħæ¸¸": 1414,
      "ad": 1415,
      "ãĢĤâĢľ": 1416,
      "ç»§": 1417,
      "å¤§åŃ¦": 1418,
      "æ¸©": 1419,
      "åĢĻ": 1420,
      "äºĳ": 1421,
      "am": 1422,
      "ï¼ģ": 1423,
      "äº²": 1424,
      "ç»ıèĲ¥": 1425,
      "Ġ1": 1426,
      "èĲ½å®ŀ": 1427,
      "ä¸įæĸŃ": 1428,
      "éĽĨåĽ¢": 1429,
      "å±Ĭ": 1430,
      "åħ³äºİ": 1431,
      "å¯¹äºİ": 1432,
      "çİ°åľ¨": 1433,
      "000": 1434,
      "æĴŃ": 1435,
      "ç»Ĩ": 1436,
      "å¸Ń": 1437,
      "æĹı": 1438,
      "æ½": 1439,
      "è¿ĻäºĽ": 1440,
      "åºŃ": 1441,
      "ç´§": 1442,
      "éĹ»": 1443,
      "çĶŁæĢģ": 1444,
      "çķ¥": 1445,
      "å¦Ĥæŀľ": 1446,
      "çł´": 1447,
      "åĪ¶åº¦": 1448,
      "å½ķ": 1449,
      "çĬ¶": 1450,
      "éĢĤ": 1451,
      "äººçļĦ": 1452,
      "åĪ°äºĨ": 1453,
      "æľīåħ³": 1454,
      "æķĳ": 1455,
      "æ±½": 1456,
      "ç½ĳç»ľ": 1457,
      "ä¸´": 1458,
      "å¸®": 1459,
      "åĥ": 1460,
      "åĽ°": 1461,
      "æĿĲ": 1462,
      "æ¿": 1463,
      "è´«": 1464,
      "åĽłä¸º": 1465,
      "çİ°åľº": 1466,
      "æĮ¥": 1467,
      "æĬ¥åĳĬ": 1468,
      "å¿µ": 1469,
      "åıĳçĶŁ": 1470,
      "ä»Ģ": 1471,
      "åı¤": 1472,
      "ir": 1473,
      "æĹ©": 1474,
      "å·´": 1475,
      "é£İéĻ©": 1476,
      "çŃ¾": 1477,
      "æĺŁ": 1478,
      "ç»¿": 1479,
      "é¢ĨåŁŁ": 1480,
      "äºĨè§£": 1481,
      "é²": 1482,
      "åĩ»": 1483,
      "åħŃ": 1484,
      "çĶ·": 1485,
      "çķĻ": 1486,
      "åģľ": 1487,
      "Ġï¼Ī": 1488,
      "çīĪ": 1489,
      "%ãĢĤ": 1490,
      "Ġit": 1491,
      "è®¡åĪĴ": 1492,
      "Ġåľ¨": 1493,
      "å¤§çļĦ": 1494,
      "æĭ¬": 1495,
      "ä¹¦è®°": 1496,
      "åį¡": 1497,
      "é¢Ĩå¯¼": 1498,
      "åıĤä¸İ": 1499,
      "æīĺ": 1500,
      "åŃ¦ä¹ł": 1501,
      "ç»¼": 1502,
      "çĭ¬": 1503,
      "æĢ¥": 1504,
      "è¿°": 1505,
      "åģ¥åº·": 1506,
      "å©": 1507,
      "æĿ¿": 1508,
      "ç²¾ç¥ŀ": 1509,
      "æ³ķå¾ĭ": 1510,
      "èĭı": 1511,
      "è§ī": 1512,
      "ç½Ĺ": 1513,
      "å¸Į": 1514,
      "çĻ»": 1515,
      "æŃ¢": 1516,
      "å®ĥ": 1517,
      "äº«": 1518,
      "åİĭ": 1519,
      "ç¬¬äºĮ": 1520,
      "å²ģ": 1521,
      "ç»į": 1522,
      "æĽ¾": 1523,
      "æ¥¼": 1524,
      "åĮħæĭ¬": 1525,
      "ä¸ĢäºĽ": 1526,
      "æĦ¿": 1527,
      "æıĲåĩº": 1528,
      "50": 1529,
      "åį°": 1530,
      "å¸ģ": 1531,
      "çļĦæĺ¯": 1532,
      "åĩºçİ°": 1533,
      "æ¿Ģ": 1534,
      "åĤ": 1535,
      "ä¸ĵä¸ļ": 1536,
      "ç¼ĸ": 1537,
      "é¦Ļ": 1538,
      "çº³": 1539,
      "æĶ¶åħ¥": 1540,
      "è¡Įä¸º": 1541,
      "å¥ĸ": 1542,
      "ç§ĳåŃ¦": 1543,
      "èģļ": 1544,
      "èĳ£": 1545,
      "å°½": 1546,
      "æ¶ī": 1547,
      "å¯Ĩ": 1548,
      "æĽ´å¤ļ": 1549,
      "æŃ¦": 1550,
      "åĪĺ": 1551,
      "åŃ©åŃĲ": 1552,
      "è§£åĨ³": 1553,
      "åĥı": 1554,
      "å®³": 1555,
      "è´·": 1556,
      "ä¹Łæĺ¯": 1557,
      "18": 1558,
      "å³": 1559,
      "é¢ĳ": 1560,
      "ä»Ģä¹Ī": 1561,
      "é£ŀ": 1562,
      "èī¯": 1563,
      "pp": 1564,
      "Ġal": 1565,
      "åŃĺåľ¨": 1566,
      "åºĨ": 1567,
      "å®ģ": 1568,
      "åįĪ": 1569,
      "éĴ±": 1570,
      "å¾ħ": 1571,
      "åŁºéĩĳ": 1572,
      "åºı": 1573,
      "è¿Ļæł·": 1574,
      "ä»¥æĿ¥": 1575,
      "é¦Ĩ": 1576,
      "ä¸įæĺ¯": 1577,
      "ul": 1578,
      "Ġan": 1579,
      "ç«ŀ": 1580,
      "å»ºç«ĭ": 1581,
      "çĽĳç®¡": 1582,
      "è¡Ĺ": 1583,
      "âĢĶâĢĶ": 1584,
      "Ġ201": 1585,
      "åİĨåı²": 1586,
      "ĠM": 1587,
      "æĬĵ": 1588,
      "16": 1589,
      "åı¦": 1590,
      "äºĪ": 1591,
      "éľĢæ±Ĥ": 1592,
      "åħ¨çĲĥ": 1593,
      "Ġpro": 1594,
      "åĲ¦": 1595,
      "å¤Ł": 1596,
      "se": 1597,
      "å¼Ģåıĳ": 1598,
      "éħĴ": 1599,
      "ill": 1600,
      "æ°´å¹³": 1601,
      "çļĦäºº": 1602,
      "ä½ĵç³»": 1603,
      "å¢ŀåĬł": 1604,
      "åŁºæľ¬": 1605,
      "çĸ«æĥħ": 1606,
      "ç®Ģ": 1607,
      "è¿ĩç¨ĭ": 1608,
      "æĮīçħ§": 1609,
      "ä»ĭç»į": 1610,
      "å¹ħ": 1611,
      "å¥¥": 1612,
      "åŃ¦æł¡": 1613,
      "ç«ł": 1614,
      "è½»": 1615,
      "åħ³ç³»": 1616,
      "æľºåĪ¶": 1617,
      "æľīæķĪ": 1618,
      "14": 1619,
      "æ¤": 1620,
      "è§Ĵ": 1621,
      "un": 1622,
      "Ġ2": 1623,
      "åħį": 1624,
      "Ġas": 1625,
      "å®£ä¼ł": 1626,
      "åıĤåĬł": 1627,
      "äº¤éĢļ": 1628,
      "è¡ĮæĶ¿": 1629,
      "Ġhe": 1630,
      "åªĴä½ĵ": 1631,
      "åģĩ": 1632,
      "æ¬§": 1633,
      "åį´": 1634,
      "Ġare": 1635,
      "è°Ī": 1636,
      "æľªæĿ¥": 1637,
      "ä»į": 1638,
      "ä»¥ä¸Ĭ": 1639,
      "æī§è¡Į": 1640,
      "è¿Ļä¸Ģ": 1641,
      "è¿Ľåħ¥": 1642,
      "ers": 1643,
      "å¾ģ": 1644,
      "13": 1645,
      "ç§»": 1646,
      "æĸ°éĹ»": 1647,
      "éŁ³": 1648,
      "çĶ»": 1649,
      "ä¸ªäºº": 1650,
      "if": 1651,
      "åĿļæĮģ": 1652,
      "æİªæĸ½": 1653,
      "åĢº": 1654,
      "æĻļ": 1655,
      "ä¸Ńå¤®": 1656,
      "åįĥ": 1657,
      "çŁŃ": 1658,
      "è¢«åĳĬ": 1659,
      "ĠP": 1660,
      "èĤ¡ä»½": 1661,
      "åĵģçīĮ": 1662,
      "éĶĢåĶ®": 1663,
      "é¸": 1664,
      "è¿ĺæĺ¯": 1665,
      "ç´¢": 1666,
      "åħ°": 1667,
      "è´¸": 1668,
      "äºĨä¸Ģ": 1669,
      "ç»¼åĲĪ": 1670,
      "éĢĢ": 1671,
      "å¹²éĥ¨": 1672,
      "Ġwh": 1673,
      "å¾Īå¤ļ": 1674,
      "oo": 1675,
      "éľ²": 1676,
      "æİĪ": 1677,
      "åħ±åĲĮ": 1678,
      "åĲ¯": 1679,
      "ä¸ŃçļĦ": 1680,
      "ç»©": 1681,
      "è°ĥæŁ¥": 1682,
      "æ±½è½¦": 1683,
      "ĠB": 1684,
      "è¯¾": 1685,
      "æĪĳåĽ½": 1686,
      "è½½": 1687,
      "é¡»": 1688,
      "èģĶåĲĪ": 1689,
      "è¯ģåĪ¸": 1690,
      "æľŁéĹ´": 1691,
      "ke": 1692,
      "å®ŀéĻħ": 1693,
      "è¯»": 1694,
      "çĨ": 1695,
      "ãĢĭï¼Į": 1696,
      "å§Ķåĳĺ": 1697,
      "åĽ½åĨħ": 1698,
      "åħ«": 1699,
      "æĺ¾ç¤º": 1700,
      "æī¾": 1701,
      "çľ¼": 1702,
      "Ġha": 1703,
      "æŁĵ": 1704,
      "åĲ¬": 1705,
      "æ¶¨": 1706,
      "å¥Ĺ": 1707,
      "ä¸°": 1708,
      "ä¿ĿéĻ©": 1709,
      "ä¸įèĥ½": 1710,
      "éĺ¿": 1711,
      "Ġwe": 1712,
      "å®Ŀ": 1713,
      "ä¼¤": 1714,
      "å½¢æĪĲ": 1715,
      "è¾Ĩ": 1716,
      "ä½ľçĶ¨": 1717,
      "ge": 1718,
      "åĮ»çĸĹ": 1719,
      "ç«¯": 1720,
      "éģĩ": 1721,
      "ç¿": 1722,
      "è¯Ń": 1723,
      "æĵ": 1724,
      "æľ¬æ¬¡": 1725,
      "çĽĳçĿ£": 1726,
      "ä¸įåĲĮ": 1727,
      "åĬ³": 1728,
      "ter": 1729,
      "è¶ħè¿ĩ": 1730,
      "åĨľä¸ļ": 1731,
      "çĽ®æłĩ": 1732,
      "èĳ£äºĭ": 1733,
      "å¹´çļĦ": 1734,
      "Ġor": 1735,
      "æĹ¶ä»£": 1736,
      "è®¾è®¡": 1737,
      "æĤ£": 1738,
      "Ġcon": 1739,
      "17": 1740,
      "ç¤¾åĮº": 1741,
      "ç½ª": 1742,
      "åĢŁ": 1743,
      "æįŁ": 1744,
      "æ´²": 1745,
      "æ£ĢæŁ¥": 1746,
      "ç»§ç»Ń": 1747,
      "éĩįå¤§": 1748,
      "è¡ĮåĬ¨": 1749,
      "æ¦": 1750,
      "èµĦäº§": 1751,
      "èĴ": 1752,
      "Ġæį®": 1753,
      "æİ¢": 1754,
      "ä¿ĥè¿Ľ": 1755,
      "åĨĻ": 1756,
      "åĪļ": 1757,
      "ess": 1758,
      "è§Ħæ¨¡": 1759,
      "å®Ī": 1760,
      "åĮ»éĻ¢": 1761,
      "åľ°æĸ¹": 1762,
      "é£Łåĵģ": 1763,
      "å·®": 1764,
      "è§ĦåĪĴ": 1765,
      "2020": 1766,
      "çĸĳ": 1767,
      "æĪĺçķ¥": 1768,
      "çĵ": 1769,
      "èİ·å¾Ĺ": 1770,
      "éĢīæĭ": 1771,
      "ï¼īï¼Į": 1772,
      "è¾ĵ": 1773,
      "åºĵ": 1774,
      "æĪª": 1775,
      "ä¸Ĭå¸Ĥ": 1776,
      "èĩªå·±çļĦ": 1777,
      "è¿Ļæĺ¯": 1778,
      "å¸ĮæľĽ": 1779,
      "éĢĲ": 1780,
      "éĩĩè´Ń": 1781,
      "æ³¢": 1782,
      "æ¨¡å¼ı": 1783,
      "æĻºèĥ½": 1784,
      "åº§": 1785,
      "åı¬": 1786,
      "æ³ķéĻ¢": 1787,
      "åĬ±": 1788,
      "å¹´æĿ¥": 1789,
      "åįĸ": 1790,
      "æ±ī": 1791,
      "åĪ©çĶ¨": 1792,
      "åħ·æľī": 1793,
      "åĨł": 1794,
      "åħ³æ³¨": 1795,
      "æĦıè§ģ": 1796,
      "25": 1797,
      "æŀĲ": 1798,
      "ä¼łç»Ł": 1799,
      "æĸ¹æ¡Ī": 1800,
      "æ¯Ĵ": 1801,
      "um": 1802,
      "Ġcom": 1803,
      "æ±ĩ": 1804,
      "æī©": 1805,
      "åĨľæĿĳ": 1806,
      "åİħ": 1807,
      "her": 1808,
      "åĲĥ": 1809,
      "åŁ¹è®Ń": 1810,
      "ä»¤": 1811,
      "ĠW": 1812,
      "ä¸ĵå®¶": 1813,
      "âĢĺ": 1814,
      "24": 1815,
      "éĴĪ": 1816,
      "è´µ": 1817,
      "æį¢": 1818,
      "æīĵéĢł": 1819,
      "é¼": 1820,
      "å¤ĦçĲĨ": 1821,
      "å·¥ä¸ļ": 1822,
      "æĿ¡ä»¶": 1823,
      "åĸľ": 1824,
      "èĹ": 1825,
      "éĥ½æĺ¯": 1826,
      "çĶ³è¯·": 1827,
      "ç§Ģ": 1828,
      "ç»ĥ": 1829,
      "ab": 1830,
      "çĶ±äºİ": 1831,
      "éĿŀå¸¸": 1832,
      "åİĤ": 1833,
      "äººæīį": 1834,
      "è®¢": 1835,
      "åĲĪåĲĮ": 1836,
      "ate": 1837,
      "æī¶": 1838,
      "å·Ŀ": 1839,
      "Ġyour": 1840,
      "éĵ¾": 1841,
      "æ¯į": 1842,
      "ä½Ĩæĺ¯": 1843,
      "çŃĳ": 1844,
      "æĬ¥éģĵ": 1845,
      "çĶ°": 1846,
      "ç§Ł": 1847,
      "åĲ¸": 1848,
      "ä¸ĥ": 1849,
      "è¾¾åĪ°": 1850,
      "åİŁåĳĬ": 1851,
      "è´¢æĶ¿": 1852,
      "åħ¬åħ±": 1853,
      "å¥½çļĦ": 1854,
      "est": 1855,
      "å®ĮåĸĦ": 1856,
      "æĪĸèĢħ": 1857,
      "åĳ³": 1858,
      "ç»ĵåĲĪ": 1859,
      "2022": 1860,
      "åıĳæĮ¥": 1861,
      "æ²Ļ": 1862,
      "åĮºåŁŁ": 1863,
      "çº·": 1864,
      "æ´¾": 1865,
      "æĳĦ": 1866,
      "ç½²": 1867,
      "æ¹¾": 1868,
      "èĥ½æºĲ": 1869,
      "ç»ĵæŀľ": 1870,
      "å¤§å®¶": 1871,
      "æķ°åŃĹ": 1872,
      "æīĢæľī": 1873,
      "å»¶": 1874,
      "èĻ½": 1875,
      "çĽĸ": 1876,
      "ore": 1877,
      "ä¹Ŀ": 1878,
      "æŃ»": 1879,
      "ä¸įä»ħ": 1880,
      "çī¹åĪ«": 1881,
      "èīºæľ¯": 1882,
      "çĬ¯": 1883,
      "åģļå¥½": 1884,
      "ç¬¬ä¸ī": 1885,
      "æĹ¶åĢĻ": 1886,
      "èĤ¡ä¸ľ": 1887,
      "å¤«": 1888,
      "éĢīæĭ©": 1889,
      "åħ¬åĳĬ": 1890,
      "æĸĩä»¶": 1891,
      "è·Ł": 1892,
      "è¿ĺæľī": 1893,
      "100": 1894,
      "ac": 1895,
      "åĿĹ": 1896,
      "éģĹ": 1897,
      "ä¸ĬçļĦ": 1898,
      "æĭį": 1899,
      "è°ĥæķ´": 1900,
      "æĶ¿æ²»": 1901,
      "ä¸Ģå®ļ": 1902,
      "å½©": 1903,
      "ri": 1904,
      "åį±": 1905,
      "è¿½": 1906,
      "æ¾": 1907,
      "éĽ¨": 1908,
      "æľºåħ³": 1909,
      "é»ĳ": 1910,
      "ä¸Ńåįİ": 1911,
      "æĿ¨": 1912,
      "è½®": 1913,
      "ĠThe": 1914,
      "ä¸ºäºĨ": 1915,
      "çī¹èī²": 1916,
      "æ·±åħ¥": 1917,
      "igh": 1918,
      "åĪĨæŀĲ": 1919,
      "æŃ£åľ¨": 1920,
      "Ġat": 1921,
      "æĭ¿": 1922,
      "æĥł": 1923,
      "çĽĺ": 1924,
      "Ġne": 1925,
      "éĺ¶": 1926,
      "çģ¾": 1927,
      "2023": 1928,
      "å·¦": 1929,
      "è®¾æĸ½": 1930,
      "æĶ¯ä»ĺ": 1931,
      "å¼Ĥ": 1932,
      "åĬłå¿«": 1933,
      "è¯¢": 1934,
      "åĺ": 1935,
      "Ġ3": 1936,
      "ä¸ĢçĽ´": 1937,
      "æłĳ": 1938,
      "æ¤į": 1939,
      "åħħåĪĨ": 1940,
      "ld": 1941,
      "2021": 1942,
      "¤Ĳ": 1943,
      "Ġex": 1944,
      "äº¤æµģ": 1945,
      "è¡Ģ": 1946,
      "éĻĨ": 1947,
      "æ¬¢": 1948,
      "ç¼º": 1949,
      "æĪı": 1950,
      "è´Łè´£äºº": 1951,
      "ä»»åĬ¡": 1952,
      "é¡º": 1953,
      "åĪ»": 1954,
      "åıĳå±ķçļĦ": 1955,
      "è¿Ļç§į": 1956,
      "å±ħæ°ĳ": 1957,
      "pe": 1958,
      "è§ĦèĮĥ": 1959,
      "æĬĹ": 1960,
      "çĮ®": 1961,
      "èįī": 1962,
      "äº®": 1963,
      "ĠF": 1964,
      "ä¼ĺåĬ¿": 1965,
      "æ±¡": 1966,
      "ç½ļ": 1967,
      "èĮĥåĽ´": 1968,
      "é¤Ĳ": 1969,
      "åĲ«": 1970,
      "èĥ½å¤Ł": 1971,
      "ment": 1972,
      "ä»·åĢ¼": 1973,
      "åıĬæĹ¶": 1974,
      "ĠH": 1975,
      "åħ¬å¼Ģ": 1976,
      "èĵ": 1977,
      "ĠD": 1978,
      "2019": 1979,
      "60": 1980,
      "th": 1981,
      "å½ĵåľ°": 1982,
      "å¦Ĥä½ķ": 1983,
      "40": 1984,
      "çİ°ä»£": 1985,
      "23": 1986,
      "te": 1987,
      "æĶ»": 1988,
      "å»ºè®®": 1989,
      "å³°": 1990,
      "ç´¯": 1991,
      "ç¡®ä¿Ŀ": 1992,
      "åı³": 1993,
      "åĪĨåĪ«": 1994,
      "åĽłæŃ¤": 1995,
      "åħ·ä½ĵ": 1996,
      "èıľ": 1997,
      "å°±ä¸ļ": 1998,
      "Ġde": 1999,
      "28": 2000,
      "æĸ°çļĦ": 2001,
      "æĿ¥çļĦ": 2002,
      "éĽª": 2003,
      "qu": 2004,
      "âĢ¦âĢ¦": 2005,
      "èĥľ": 2006,
      "éļıçĿĢ": 2007,
      "åĨ³å®ļ": 2008,
      "ä¸»ä¹ī": 2009,
      "åħµ": 2010,
      "åıĸå¾Ĺ": 2011,
      "éĽ¶": 2012,
      "æĺİç¡®": 2013,
      "ç¬¦": 2014,
      "èĥĮ": 2015,
      "æİ¥åıĹ": 2016,
      "å¹´åº¦": 2017,
      "åĲĮæ¯Ķ": 2018,
      "èĹı": 2019,
      "éº": 2020,
      "Ġ(": 2021,
      "å¿ħé¡»": 2022,
      "èģĶç½ĳ": 2023,
      "æīĢä»¥": 2024,
      "ç»Ŀ": 2025,
      "åį«çĶŁ": 2026,
      "ç¾İåħĥ": 2027,
      "rom": 2028,
      "å·¨": 2029,
      "âĢĿâĢľ": 2030,
      "ure": 2031,
      "é©¾": 2032,
      "æĮĩå¯¼": 2033,
      "éĶ®": 2034,
      "åħ¸": 2035,
      "å²Ľ": 2036,
      "æĹ¥æľ¬": 2037,
      "è´¦": 2038,
      "æĮĩåĩº": 2039,
      "åİ»å¹´": 2040,
      "æĿ¾": 2041,
      "åĤ¨": 2042,
      "å®¶åºŃ": 2043,
      "æ°¸": 2044,
      "ä¹ĭåĲİ": 2045,
      "è·µ": 2046,
      "æŃĮ": 2047,
      "è¿İ": 2048,
      "åģ¿": 2049,
      "åĬŁèĥ½": 2050,
      "å©ļ": 2051,
      "åºĶçĶ¨": 2052,
      "çŁ¥è¯Ĩ": 2053,
      "èĸ": 2054,
      "Ġse": 2055,
      "å¤ľ": 2056,
      "æ¯ĶèµĽ": 2057,
      "æ²»çĲĨ": 2058,
      "èĦ±": 2059,
      "ist": 2060,
      "ä¾Ŀæ³ķ": 2061,
      "Ġv": 2062,
      "å·ŀå¸Ĥ": 2063,
      "åĩĢ": 2064,
      "æĪĲåĬŁ": 2065,
      "ç¨³å®ļ": 2066,
      "çĽŁ": 2067,
      "çĳ": 2068,
      "çĶ¨æĪ·": 2069,
      "è´¯": 2070,
      "çĶļ": 2071,
      "çĩ": 2072,
      "ä¸»ä»»": 2073,
      "ç¯": 2074,
      "op": 2075,
      "åĽº": 2076,
      "ä¸½": 2077,
      "çĶµåŃĲ": 2078,
      "å«": 2079,
      "è´´": 2080,
      "ä»¥ä¸ĭ": 2081,
      "éĻĦ": 2082,
      "ä¼°": 2083,
      "ĠR": 2084,
      "ä¸ªæľĪ": 2085,
      "æĪĲç«ĭ": 2086,
      "éŁ©": 2087,
      "Ġhave": 2088,
      "æİ§åĪ¶": 2089,
      "æ¶Īè´¹èĢħ": 2090,
      "å°ļ": 2091,
      "æĺ¯ä¸Ģ": 2092,
      "å¤§ä¼ļ": 2093,
      "å¨ģ": 2094,
      "22": 2095,
      "ive": 2096,
      "æł¸å¿ĥ": 2097,
      "ity": 2098,
      "èģĶç³»": 2099,
      "å¸®åĬ©": 2100,
      "èĩªçĦ¶": 2101,
      "åĨ²": 2102,
      "ä½ľåĵģ": 2103,
      "è®¾å¤ĩ": 2104,
      "æ¯ķ": 2105,
      "å°¼": 2106,
      "èį£": 2107,
      "ant": 2108,
      "åħĪçĶŁ": 2109,
      "æĽ´åĬł": 2110,
      "æ¶¦": 2111,
      "äºĭä¸ļ": 2112,
      "å¼ĢæĶ¾": 2113,
      "èĻ½çĦ¶": 2114,
      "ä¼ĳ": 2115,
      "ç«¥": 2116,
      "çļĦéĩįè¦ģ": 2117,
      "ä½ĵèĤ²": 2118,
      "å½»": 2119,
      "çłģ": 2120,
      "ä¹¡æĿĳ": 2121,
      "åĪĽä¸ļ": 2122,
      "ç»ĵæŀĦ": 2123,
      "æĤī": 2124,
      "æ´ĭ": 2125,
      "åĬª": 2126,
      "æĸĹ": 2127,
      "åı¬å¼Ģ": 2128,
      "Ġcan": 2129,
      "å²Ĺ": 2130,
      "éĴĪå¯¹": 2131,
      "ç³»åĪĹ": 2132,
      "æ¡¥": 2133,
      "æ¡Īä»¶": 2134,
      "27": 2135,
      "è¿ĲåĬ¨": 2136,
      "ä¸įä¼ļ": 2137,
      "åºĶè¯¥": 2138,
      "Ġwas": 2139,
      "art": 2140,
      "éĴŁ": 2141,
      "éĨ": 2142,
      "ä¿ĿæĮģ": 2143,
      "ä¸»é¢ĺ": 2144,
      "ä¼Ł": 2145,
      "æĿĲæĸĻ": 2146,
      "å»ºçŃĳ": 2147,
      "åĪ¶éĢł": 2148,
      "åİŁåĽł": 2149,
      "ust": 2150,
      "ä¿Ħ": 2151,
      "èĮ¶": 2152,
      "os": 2153,
      "ç©ºéĹ´": 2154,
      "ç²®": 2155,
      "ä¸¾è¡Į": 2156,
      "çĽ´æİ¥": 2157,
      "æĭ¥": 2158,
      "çĪ¶": 2159,
      "è£ģ": 2160,
      "ä¸Ģæ¬¡": 2161,
      "éĺ²æİ§": 2162,
      "çľĭåĪ°": 2163,
      "æŃ¤æ¬¡": 2164,
      "80": 2165,
      "çĦ¦": 2166,
      "éĽĨä¸Ń": 2167,
      "è·¨": 2168,
      "å¼ºåĮĸ": 2169,
      "å´": 2170,
      "åħ³éĶ®": 2171,
      "è¯Ĭ": 2172,
      "åĬĽéĩı": 2173,
      "21": 2174,
      "26": 2175,
      "ä¸Ģèµ·": 2176,
      "çŃ¹": 2177,
      "Ġ0": 2178,
      "æı´": 2179,
      "æĵį": 2180,
      "ĠL": 2181,
      "ä¹ħ": 2182,
      "ä¾ĽåºĶ": 2183,
      "éĢı": 2184,
      "ç«ŀäºī": 2185,
      "éĿł": 2186,
      "oc": 2187,
      "é¡¾": 2188,
      "è®¼": 2189,
      "æĢĿæĥ³": 2190,
      "èĪ¬": 2191,
      "Ġch": 2192,
      "æĺ¯åĲ¦": 2193,
      "ä¸įå°ĳ": 2194,
      "èĶ": 2195,
      "å±¥": 2196,
      "éĢłæĪĲ": 2197,
      "åĬŀåħ¬": 2198,
      "è´·æ¬¾": 2199,
      "å½Ĵ": 2200,
      "è¯īè®¼": 2201,
      "å§Ķåĳĺä¼ļ": 2202,
      "èĪŀ": 2203,
      "ä¹ĭä¸Ģ": 2204,
      "ç»¿èī²": 2205,
      "ç¬¦åĲĪ": 2206,
      "é¦Ļæ¸¯": 2207,
      "åĬªåĬĽ": 2208,
      "çĥĪ": 2209,
      "ort": 2210,
      "å¹ķ": 2211,
      "çĶļèĩ³": 2212,
      "åĬŀçĲĨ": 2213,
      "Ġus": 2214,
      "æ°ĳæĹı": 2215,
      "Ġsh": 2216,
      "é²ľ": 2217,
      "åįıè®®": 2218,
      "å¤ı": 2219,
      "è¿ĳå¹³": 2220,
      "åħ¬å®ī": 2221,
      "éĿĴå¹´": 2222,
      "é¹": 2223,
      "äºĴèģĶç½ĳ": 2224,
      "Ġthis": 2225,
      "ä¹łè¿ĳå¹³": 2226,
      "æĶ¯åĩº": 2227,
      "æ¯Ķè¾ĥ": 2228,
      "æľĭ": 2229,
      "ĠG": 2230,
      "ain": 2231,
      "å¯¼èĩ´": 2232,
      "æĸĩæĺİ": 2233,
      "çļĦå¤§": 2234,
      "ä¸įè¿ĩ": 2235,
      "æ´¥": 2236,
      "æĺł": 2237,
      "ä¼¼": 2238,
      "æĮ¯": 2239,
      "æĦıè¯Ĩ": 2240,
      "é½": 2241,
      "åŁºåľ°": 2242,
      "éĩĩåıĸ": 2243,
      "Ġwill": 2244,
      "åĨ°": 2245,
      "åıĺåĮĸ": 2246,
      "é¥®": 2247,
      "éĺ¶æ®µ": 2248,
      "æĹ¢": 2249,
      "ä¹ĭéĹ´": 2250,
      "one": 2251,
      "æīĭæľº": 2252,
      "éŃ": 2253,
      "éĢļçŁ¥": 2254,
      "è¯º": 2255,
      "ies": 2256,
      "çĶµå½±": 2257,
      "èĳĹ": 2258,
      "å²¸": 2259,
      "èµĦæľ¬": 2260,
      "æĪĲæľ¬": 2261,
      "em": 2262,
      "ä¸¥éĩį": 2263,
      "å·¡": 2264,
      "å¥ĩ": 2265,
      "è°¢": 2266,
      "éĩĬ": 2267,
      "æľ¨": 2268,
      "åĩºäºĨ": 2269,
      "ĠE": 2270,
      "æľĢé«ĺ": 2271,
      "æŀ¶": 2272,
      "æĿ¥èĩª": 2273,
      "Ġnot": 2274,
      "é¼ĵ": 2275,
      "éĶĻ": 2276,
      "åıĳè¡Į": 2277,
      "Ġr": 2278,
      "æĪĲæŀľ": 2279,
      "å°ıæĹ¶": 2280,
      "äººæ°ĳå¸ģ": 2281,
      "çŃĶ": 2282,
      "åķĨä¸ļ": 2283,
      "å®¢æĪ·": 2284,
      "åıĹåĪ°": 2285,
      "åĵĪ": 2286,
      "çļĦæĸ°": 2287,
      "Ġfrom": 2288,
      "æľĿ": 2289,
      "åħ¨éĥ¨": 2290,
      "å®ľ": 2291,
      "åĬ³åĬ¨": 2292,
      "nt": 2293,
      "ä»»ä½ķ": 2294,
      "ä¸¤ä¸ª": 2295,
      "up": 2296,
      "å½¢å¼ı": 2297,
      "åıĮæĸ¹": 2298,
      "æĢİ": 2299,
      "and": 2300,
      "åºĶå½ĵ": 2301,
      "æŃ¤å¤ĸ": 2302,
      "çĶµè¯Ŀ": 2303,
      "è·ĳ": 2304,
      "åĪĳ": 2305,
      "æŃ£å¼ı": 2306,
      "å®īæİĴ": 2307,
      "åŁºå±Ĥ": 2308,
      "ight": 2309,
      "ä¸»ä½ĵ": 2310,
      "èĽ": 2311,
      "æľīçļĦ": 2312,
      "åłĤ": 2313,
      "æ¾³": 2314,
      "ä¸ĭéĻį": 2315,
      "é½Ĳ": 2316,
      "é©¶": 2317,
      "çļĦéĹ®é¢ĺ": 2318,
      "åĲī": 2319,
      "åıªæľī": 2320,
      "èĻĳ": 2321,
      "æī§æ³ķ": 2322,
      "ä¿Ŀè¯ģ": 2323,
      "è¿Ľè¡ĮäºĨ": 2324,
      "åĪ¶å®ļ": 2325,
      "åĬŀæ³ķ": 2326,
      "29": 2327,
      "ç¬Ķ": 2328,
      "ä¸¥æł¼": 2329,
      "æĪªèĩ³": 2330,
      "æī¿æĭħ": 2331,
      "ome": 2332,
      "åħ¨å¸Ĥ": 2333,
      "åĩıå°ĳ": 2334,
      "ç»ıè¿ĩ": 2335,
      "åĲ´": 2336,
      "æľĭåıĭ": 2337,
      "åĨ¬": 2338,
      "èµ·æĿ¥": 2339,
      "å®ŀè·µ": 2340,
      "ä¹İ": 2341,
      "æĺİæĺ¾": 2342,
      "çĽĽ": 2343,
      "åĨĮ": 2344,
      "ip": 2345,
      "äº§çĶŁ": 2346,
      "è¿ĳæĹ¥": 2347,
      "è®¨": 2348,
      "éģ¿": 2349,
      "çİī": 2350,
      "ç»ķ": 2351,
      "ä¸¾åĬŀ": 2352,
      "è¿Ŀæ³ķ": 2353,
      "æĿŁ": 2354,
      "ä¸įå¾Ĺ": 2355,
      "åħļçļĦ": 2356,
      "ç»Łä¸Ģ": 2357,
      "Ġby": 2358,
      "æĬķæłĩ": 2359,
      "é¢Ħç®Ĺ": 2360,
      "é©»": 2361,
      "æĢĢ": 2362,
      "æ³°": 2363,
      "ç¡®å®ļ": 2364,
      "äººä»¬": 2365,
      "æĺ¨": 2366,
      "æĽ²": 2367,
      "ard": 2368,
      "åĳĬè¯ī": 2369,
      "çļ®": 2370,
      "ç£": 2371,
      "çĻ»è®°": 2372,
      "åŃ¦éĻ¢": 2373,
      "è¿Ĳè¡Į": 2374,
      "ä¼Ļ": 2375,
      "çĸ¾": 2376,
      "èĤī": 2377,
      "è®¯": 2378,
      "åĬłå¤§": 2379,
      "ç»ıéªĮ": 2380,
      "äºĭä»¶": 2381,
      "éķ¿æľŁ": 2382,
      "éĿ¢ç§¯": 2383,
      "ç¦ģ": 2384,
      "åĭŁ": 2385,
      "å¾ĹåĪ°": 2386,
      "è´Ńä¹°": 2387,
      "é«ĺè´¨éĩı": 2388,
      "ä¼Ĭ": 2389,
      "all": 2390,
      "æī¬": 2391,
      "åĵª": 2392,
      "èģĮä¸ļ": 2393,
      "çļĦåıĳå±ķ": 2394,
      "od": 2395,
      "è¿ĩç¨ĭä¸Ń": 2396,
      "æĭŁ": 2397,
      "Ġ4": 2398,
      "ĠN": 2399,
      "æľĢåĲİ": 2400,
      "éĽ·": 2401,
      "æļ´": 2402,
      "è¸": 2403,
      "70": 2404,
      "æı¡": 2405,
      "å·¦åı³": 2406,
      "Ġwor": 2407,
      "è´¹çĶ¨": 2408,
      "æľĢç»Ī": 2409,
      "è§Ĩé¢ĳ": 2410,
      "ç¤¼": 2411,
      "Ġsu": 2412,
      "--": 2413,
      "è¿ĲèĲ¥": 2414,
      "åĩĨå¤ĩ": 2415,
      "ä¸ĵé¡¹": 2416,
      "æĹłæ³ķ": 2417,
      "éĩįåºĨ": 2418,
      "2018": 2419,
      "åľŁåľ°": 2420,
      "å§Ķä¼ļ": 2421,
      "æĬķåħ¥": 2422,
      "éĢĴ": 2423,
      "çīĽ": 2424,
      "åħļåĳĺ": 2425,
      "æµĻ": 2426,
      "æĿ¥è¯´": 2427,
      "ä»ĸçļĦ": 2428,
      "åįĩçº§": 2429,
      "ä¸Ĭè¿°": 2430,
      "ï¼īãĢĤ": 2431,
      "æĿĤ": 2432,
      "æĪĲåĳĺ": 2433,
      "èŀįåĲĪ": 2434,
      "è½¦è¾Ĩ": 2435,
      "å¢ŀå¼º": 2436,
      "èĤ¡ç¥¨": 2437,
      "åŃ£åº¦": 2438,
      "éļĲ": 2439,
      "éĥĳ": 2440,
      "ä¼ĺåĮĸ": 2441,
      "çĪĨ": 2442,
      "å¸Ĥæ°ĳ": 2443,
      "äººå£«": 2444,
      "ä½³": 2445,
      "æ£Ģå¯Ł": 2446,
      "Ġä¸Ģ": 2447,
      "Ġle": 2448,
      "è·Į": 2449,
      "è¡¨çİ°": 2450,
      "åĨľæ°ĳ": 2451,
      "éī": 2452,
      "ç¤ºèĮĥ": 2453,
      "èĪ¹": 2454,
      "æķĻå¸Ī": 2455,
      "åĳ¼": 2456,
      "çĶµè§Ĩ": 2457,
      "åľ°äº§": 2458,
      "éī´": 2459,
      "å¹¸": 2460,
      "å¥ĭ": 2461,
      "ä»Ĭå¤©": 2462,
      "å±ĭ": 2463,
      "ç½ĳç«Ļ": 2464,
      "ä¸Ńå°ı": 2465,
      "æķ°éĩı": 2466,
      "èĢĮä¸Ķ": 2467,
      "ä½ĵéªĮ": 2468,
      "åħ¬éĩĮ": 2469,
      "éĻ¤äºĨ": 2470,
      "æĬķèµĦèĢħ": 2471,
      "çłĶåıĳ": 2472,
      "åķĨåĵģ": 2473,
      "our": 2474,
      "ä¹ĺ": 2475,
      "è´¸æĺĵ": 2476,
      "ä¼į": 2477,
      "å¼ºè°ĥ": 2478,
      "åĢį": 2479,
      "å½ĵæĹ¶": 2480,
      "ç§ģ": 2481,
      "çĥŁ": 2482,
      "è¦": 2483,
      "æĹĹ": 2484,
      "90": 2485,
      "äºĭå®ŀ": 2486,
      "æħ§": 2487,
      "å°Ħ": 2488,
      "æ¡£": 2489,
      "æĻĵ": 2490,
      "ä»ª": 2491,
      "æ¶Īæģ¯": 2492,
      "çĬ¯ç½ª": 2493,
      "out": 2494,
      "å¸¦æĿ¥": 2495,
      "ç©¿": 2496,
      "è¯ģæĺİ": 2497,
      "æľĹ": 2498,
      "çļĦæĥħåĨµ": 2499,
      "Ġpl": 2500,
      "èµµ": 2501,
      "ost": 2502,
      "ä¼´": 2503,
      "res": 2504,
      "æ¢¦": 2505,
      "ä¸»åĬ¨": 2506,
      "ould": 2507,
      "çĹĩ": 2508,
      "å¹¶ä¸į": 2509,
      "å·¥ä½ľçļĦ": 2510,
      "çĨŁ": 2511,
      "è·Ŀ": 2512,
      "ä¸ĢèĪ¬": 2513,
      "æķ£": 2514,
      "å¼¹": 2515,
      "ud": 2516,
      "æĮĳ": 2517,
      "åºĶæĢ¥": 2518,
      "åľĪ": 2519,
      "ine": 2520,
      "æ½®": 2521,
      "iv": 2522,
      "åı°æ¹¾": 2523,
      "ally": 2524,
      "é¢Ħè®¡": 2525,
      "è¦Ĩ": 2526,
      "è´¡": 2527,
      "å·¥ä½ľäººåĳĺ": 2528,
      "åľ³": 2529,
      "è´¯å½»": 2530,
      "ç»Łè®¡": 2531,
      "æ¸ł": 2532,
      "31": 2533,
      "åĿĽ": 2534,
      "æĭĵ": 2535,
      "èĭ¥": 2536,
      "åĨ·": 2537,
      "çŁ¥éģĵ": 2538,
      "è¿ĩåİ»": 2539,
      "æ·±åľ³": 2540,
      "å¦Ī": 2541,
      "è½¯": 2542,
      "åĲ¯åĬ¨": 2543,
      "gh": 2544,
      "ä¸»å¸Ń": 2545,
      "Ġab": 2546,
      "äºĭé¡¹": 2547,
      "éľĩ": 2548,
      "æĸ½å·¥": 2549,
      "red": 2550,
      "æ£®": 2551,
      "ç»´æĬ¤": 2552,
      "é±": 2553,
      "ç»ıçĲĨ": 2554,
      "ä¸°å¯Į": 2555,
      "å¹¿ä¸ľ": 2556,
      "éĴ¢": 2557,
      "æĿ¥çľĭ": 2558,
      "å½ĵåīį": 2559,
      "å¼ķå¯¼": 2560,
      "æ£Ģæµĭ": 2561,
      "æķ´ä½ĵ": 2562,
      "è¯¯": 2563,
      "é±¼": 2564,
      "åĬĽåº¦": 2565,
      "èŀįèµĦ": 2566,
      "åĩºçļĦ": 2567,
      "éĥ¨ç½²": 2568,
      "ç¼ĵ": 2569,
      "æľĢå¤§": 2570,
      "ĠO": 2571,
      "æĬ¢": 2572,
      "ç¨ĭåºı": 2573,
      "æī©å¤§": 2574,
      "35": 2575,
      "æ¸Ĳ": 2576,
      "è¿ĻéĩĮ": 2577,
      "åĽ¢éĺŁ": 2578,
      "è®¡ç®Ĺ": 2579,
      "çĭ¬ç«ĭ": 2580,
      "åĶ±": 2581,
      "Ġall": 2582,
      "ie": 2583,
      "rou": 2584,
      "æ²Ł": 2585,
      "ide": 2586,
      "åĲ¨": 2587,
      "éĤ£ä¹Ī": 2588,
      "æĹ§": 2589,
      "king": 2590,
      "æİ¢ç´¢": 2591,
      "è¿Ĳè¾ĵ": 2592,
      "çļĦæĹ¶åĢĻ": 2593,
      "åĲĦç§į": 2594,
      "åĪ©çĽĬ": 2595,
      "éĿ¢å¯¹": 2596,
      "æ¸¸å®¢": 2597,
      "åĽ°éļ¾": 2598,
      "ä¸Ģæł·": 2599,
      "äºĭæķħ": 2600,
      "å¯»": 2601,
      "éģĵè·¯": 2602,
      "èĦĳ": 2603,
      "åĭĩ": 2604,
      "å«Į": 2605,
      "åĢĴ": 2606,
      "ä¸ĭåįĪ": 2607,
      "å±¥è¡Į": 2608,
      "ç¼´": 2609,
      "æ®ĭ": 2610,
      "å°ģ": 2611,
      "æĹ¥èµ·": 2612,
      "åħ»èĢģ": 2613,
      "æ²¿": 2614,
      "è¯ļ": 2615,
      "æĸ¹åĲĳ": 2616,
      "éģŃ": 2617,
      "æľºä¼ļ": 2618,
      "æľ«": 2619,
      "å®½": 2620,
      "èº«ä»½": 2621,
      "èĭ¦": 2622,
      "èĭĹ": 2623,
      "æĿ¥è¶Ĭ": 2624,
      "å¾Ĳ": 2625,
      "è¶ĬæĿ¥è¶Ĭ": 2626,
      "éĺµ": 2627,
      "å®ı": 2628,
      "æĢ§çļĦ": 2629,
      "èĤ¡ä»½æľīéĻĲåħ¬åı¸": 2630,
      "è¶ĭ": 2631,
      "æ´ģ": 2632,
      "åĦ¿ç«¥": 2633,
      "æ³¨æĦı": 2634,
      "èĥ¡": 2635,
      "ag": 2636,
      "æµĻæ±Ł": 2637,
      "æĿĳæ°ĳ": 2638,
      "åľ¨çº¿": 2639,
      "ber": 2640,
      "èģĺ": 2641,
      "æ±¡æŁĵ": 2642,
      "ä¹ĭåīį": 2643,
      "åĽ´ç»ķ": 2644,
      "æĺĮ": 2645,
      "fe": 2646,
      "åºĦ": 2647,
      "æļĸ": 2648,
      "èĻļ": 2649,
      "å¿ĹæĦ¿": 2650,
      "Ġ5": 2651,
      "åħ¨çľģ": 2652,
      "çģµ": 2653,
      "åįıè°ĥ": 2654,
      "åįıä¼ļ": 2655,
      "åĿĲ": 2656,
      "Ġdo": 2657,
      "åĪ©æ¶¦": 2658,
      "ä¿¡çĶ¨": 2659,
      "åħ±åĴĮ": 2660,
      "è¿Ļæł·çļĦ": 2661,
      "åŃĻ": 2662,
      "å°¤": 2663,
      "åĪĩå®ŀ": 2664,
      "è¿Ķ": 2665,
      "æĿ¥æºĲ": 2666,
      "æ»¡è¶³": 2667,
      "Ġk": 2668,
      "ä¹Łæľī": 2669,
      "å¦ĩ": 2670,
      "æĤ£èĢħ": 2671,
      "èĴĻ": 2672,
      "éĢĶ": 2673,
      "èµĶ": 2674,
      "è¿ĳå¹´æĿ¥": 2675,
      "çŁ¿": 2676,
      "æĲŃ": 2677,
      "Ġj": 2678,
      "æľĪä»½": 2679,
      "æĸ¹ç±³": 2680,
      "ç§ĺ": 2681,
      "åĲĪçĲĨ": 2682,
      "ast": 2683,
      "2017": 2684,
      "éĩİ": 2685,
      "çħ¤": 2686,
      "é¡¶": 2687,
      "å¿«éĢŁ": 2688,
      "æħ¢": 2689,
      "æĬ«": 2690,
      "ç´¯è®¡": 2691,
      "è½¬åŀĭ": 2692,
      "æĶ¹éĢł": 2693,
      "çļĦé«ĺ": 2694,
      "æĮĤ": 2695,
      "Ġcomp": 2696,
      "å§ĵ": 2697,
      "å¹³åĿĩ": 2698,
      "æ´ª": 2699,
      "åİĭåĬĽ": 2700,
      "åŁ¹åħ»": 2701,
      "åħ¶å®ŀ": 2702,
      "åĲİçļĦ": 2703,
      "ä¼ļä¸Ĭ": 2704,
      "åĪĽéĢł": 2705,
      "age": 2706,
      "å®¡è®¡": 2707,
      "ä¸Ŀ": 2708,
      "ell": 2709,
      "è§¦": 2710,
      "per": 2711,
      "åĲĦé¡¹": 2712,
      "è¡Ĺéģĵ": 2713,
      "ĠãĢĬ": 2714,
      "é¦ĸæ¬¡": 2715,
      "æĺ¯åľ¨": 2716,
      "èµĦæĸĻ": 2717,
      "èĭ±åĽ½": 2718,
      "çĳŀ": 2719,
      "æīįèĥ½": 2720,
      "ice": 2721,
      "äº©": 2722,
      "éģį": 2723,
      "åĲĦåľ°": 2724,
      "ç¢³": 2725,
      "æ¯Ķå¦Ĥ": 2726,
      "æ¦Ĥ": 2727,
      "åİŁåĪĻ": 2728,
      "é²ģ": 2729,
      "åĲĦç±»": 2730,
      "äººåı£": 2731,
      "åħ¬å¸ĥ": 2732,
      "æ½ľ": 2733,
      "æķħäºĭ": 2734,
      "æĭ¥æľī": 2735,
      "èĢĥèĻĳ": 2736,
      "çľŁæŃ£": 2737,
      "å±ŀäºİ": 2738,
      "500": 2739,
      "2016": 2740,
      "å¹´è½»": 2741,
      "æ·±åĮĸ": 2742,
      "å¼ĥ": 2743,
      "äº¡": 2744,
      "åı¸æ³ķ": 2745,
      "æĦıä¹ī": 2746,
      "ç®Ģç§°": 2747,
      "èµĦæł¼": 2748,
      "å±±ä¸ľ": 2749,
      "å¡Ķ": 2750,
      "ç¨ĭåº¦": 2751,
      "The": 2752,
      "çĲĨå¿µ": 2753,
      "æīİ": 2754,
      "éĩĩçĶ¨": 2755,
      "199": 2756,
      "ä¼ĺç§Ģ": 2757,
      "åİļ": 2758,
      "çĶŁåĳ½": 2759,
      "å¹¿å¤§": 2760,
      "ind": 2761,
      "è´¡çĮ®": 2762,
      "éĽĦ": 2763,
      "Ġä¸ŃåĽ½": 2764,
      "è¦ĨçĽĸ": 2765,
      "ks": 2766,
      "åı¦ä¸Ģ": 2767,
      "çºł": 2768,
      "åı¶": 2769,
      "åĩºåı£": 2770,
      "åĽłç´ł": 2771,
      "æ¯Ľ": 2772,
      "æī£": 2773,
      "è¯Ħä»·": 2774,
      "æ¶īåıĬ": 2775,
      "éĩĳé¢Ŀ": 2776,
      "èĢģå¸Ī": 2777,
      "è¯Ħä¼°": 2778,
      "çİ©": 2779,
      "è§Ĥä¼Ĺ": 2780,
      "çĩĥ": 2781,
      "ç¼©": 2782,
      "åĪ¤åĨ³": 2783,
      "æĵįä½ľ": 2784,
      "ear": 2785,
      "ä¸ĬåįĪ": 2786,
      "æĬĺ": 2787,
      "æ»ĳ": 2788,
      "æĢİä¹Ī": 2789,
      "2015": 2790,
      "çªģçł´": 2791,
      "æŀĦå»º": 2792,
      "æ¯Ķä¾ĭ": 2793,
      "æĻ®éĢļ": 2794,
      "Ġma": 2795,
      "åıįæĺł": 2796,
      "è¿ŀç»Ń": 2797,
      "ç¡¬": 2798,
      "ĠJ": 2799,
      "æ¢ħ": 2800,
      "æ¸łéģĵ": 2801,
      "éĺŁä¼į": 2802,
      "éĵģè·¯": 2803,
      "æļĤ": 2804,
      "åĺī": 2805,
      "çĶ²": 2806,
      "Ġad": 2807,
      "åŀĥ": 2808,
      "åľ¾": 2809,
      "è¯´æĺİ": 2810,
      "äººå¤§": 2811,
      "åŀĥåľ¾": 2812,
      "å¾Ħ": 2813,
      "éħ¸": 2814,
      "ial": 2815,
      "æ¯ķä¸ļ": 2816,
      "å®Ĺ": 2817,
      "èĩªæ²»": 2818,
      "Ġwhe": 2819,
      "è§īå¾Ĺ": 2820,
      "ç¬ĳ": 2821,
      "è®¤çľŁ": 2822,
      "å±ķç¤º": 2823,
      "æĬ½": 2824,
      "æĸ¹æ³ķ": 2825,
      "éĩĩè®¿": 2826,
      "ä¹Į": 2827,
      "æĪĲç»©": 2828,
      "å¼±": 2829,
      "éĨĴ": 2830,
      "ç²ī": 2831,
      "ions": 2832,
      "è¯¦": 2833,
      "åĳĪ": 2834,
      "æ¢ģ": 2835,
      "æ³¨åĨĮ": 2836,
      "æĿ°": 2837,
      "Ġme": 2838,
      "èµ¢": 2839,
      "éļĶ": 2840,
      "çľŁå®ŀ": 2841,
      "åįĹçľģ": 2842,
      "ä¹±": 2843,
      "ç»ĵæĿŁ": 2844,
      "ä½ıæĪ¿": 2845,
      "çĸ«æĥħéĺ²æİ§": 2846,
      "è¿ª": 2847,
      "æ²»çĸĹ": 2848,
      "åĪĨéĴŁ": 2849,
      "æİĮ": 2850,
      "æ³Ľ": 2851,
      "åįĬå¹´": 2852,
      "ãĢĭï¼Ī": 2853,
      "è¡¡": 2854,
      "ä¸Ĭæ¶¨": 2855,
      "é¥Ń": 2856,
      "33": 2857,
      "è®¸å¤ļ": 2858,
      "ç½Ĺæĸ¯": 2859,
      "é¾Ħ": 2860,
      "è¿ħ": 2861,
      "Ġhas": 2862,
      "åĲ¸å¼ķ": 2863,
      "ä¸Ģå®¶": 2864,
      "æķ´æĶ¹": 2865,
      "èª": 2866,
      "åħ¬åı¸çļĦ": 2867,
      "çģ¯": 2868,
      "åĮĸçļĦ": 2869,
      "æ³ķè§Ħ": 2870,
      "æĬ«éľ²": 2871,
      "ä¸įåĪ°": 2872,
      "æ¯ıå¤©": 2873,
      "éĻįä½İ": 2874,
      "èĩªèº«": 2875,
      "are": 2876,
      "åĽĽå·Ŀ": 2877,
      "çĸĨ": 2878,
      "æĪĲäºĨ": 2879,
      "éĤ®": 2880,
      "è´«åĽ°": 2881,
      "ä¼¦": 2882,
      "é©¾é©¶": 2883,
      "äºĴåĬ¨": 2884,
      "æĢ»ä¹¦è®°": 2885,
      "able": 2886,
      "åħ±åĴĮåĽ½": 2887,
      "èĵĿ": 2888,
      "åĬ¨åĬĽ": 2889,
      "ç½ĳåıĭ": 2890,
      "éªĹ": 2891,
      "æĹ¥åīį": 2892,
      "çĶ¨äºİ": 2893,
      "çŀ": 2894,
      "åĳ¢": 2895,
      "éĿĻ": 2896,
      "ç¹": 2897,
      "æŃ£å¸¸": 2898,
      "æ±Łèĭı": 2899,
      "ç¹ģ": 2900,
      "æµª": 2901,
      "pt": 2902,
      "Ġen": 2903,
      "çī¢": 2904,
      "å¤ļä¸ª": 2905,
      "ä»£çĲĨ": 2906,
      "å¤§éĩı": 2907,
      "çªģåĩº": 2908,
      "ther": 2909,
      "è¡£": 2910,
      "èµ¶": 2911,
      "Ġso": 2912,
      "æĶ¹åĸĦ": 2913,
      "æĻºæħ§": 2914,
      "æĪĳçļĦ": 2915,
      "åħļå§Ķ": 2916,
      "è®°å½ķ": 2917,
      "æİ¨å¹¿": 2918,
      "çŃīæĸ¹éĿ¢": 2919,
      "éĿ¢ä¸´": 2920,
      "åĽ½åĬ¡": 2921,
      "éª¨": 2922,
      "å¾®ä¿¡": 2923,
      "åħ¬ä¼Ĺ": 2924,
      "ä½įäºİ": 2925,
      "åĨħçļĦ": 2926,
      "Ġup": 2927,
      "ç§įæ¤į": 2928,
      "æĴĳ": 2929,
      "è¿·": 2930,
      "Ġbut": 2931,
      "æĿĢ": 2932,
      "çĶŁçī©": 2933,
      "è¯Ĺ": 2934,
      "åı«": 2935,
      "åĲĹ": 2936,
      "é¼ĵåĬ±": 2937,
      "åĲĮæ¯Ķå¢ŀéķ¿": 2938,
      "åıĳè¡¨": 2939,
      "èĨ": 2940,
      "æĭĽæłĩ": 2941,
      "èľ": 2942,
      "é«ĺéĢŁ": 2943,
      "å¹¿å·ŀ": 2944,
      "æ±ł": 2945,
      "èĤ¯": 2946,
      "çİ¯ä¿Ŀ": 2947,
      "ä¸Ģç§į": 2948,
      "ç§ĭ": 2949,
      "çĽĳæµĭ": 2950,
      "åģı": 2951,
      "å§Ķæīĺ": 2952,
      "å®Įåħ¨": 2953,
      "æľ±": 2954,
      "ä¸Ģå¹´": 2955,
      "åĩºå¸Ń": 2956,
      "ãĢĲ": 2957,
      "åĵ¥": 2958,
      "ä¿Ħç½Ĺæĸ¯": 2959,
      "å¯¹è±¡": 2960,
      "çİ¯èĬĤ": 2961,
      "æĿŃ": 2962,
      "ä¹Łä¸į": 2963,
      "ä¸ĩäºº": 2964,
      "éŁ³ä¹Ĳ": 2965,
      "og": 2966,
      "è°ĭ": 2967,
      "Ġmy": 2968,
      "æĮĩæłĩ": 2969,
      "å¸Ĥå§Ķ": 2970,
      "è¯ķçĤ¹": 2971,
      "å¤Ħç½ļ": 2972,
      "ãĢĳ": 2973,
      "é¸¡": 2974,
      "cc": 2975,
      "åıªæĺ¯": 2976,
      "å¥¶": 2977,
      "ãĢĭãĢĬ": 2978,
      "ite": 2979,
      "æ¯ıå¹´": 2980,
      "Ġout": 2981,
      "æİ¨åĩº": 2982,
      "ä¸Ģä½ĵ": 2983,
      "èµŀ": 2984,
      "æ°ĳèŃ¦": 2985,
      "å°ıåĮº": 2986,
      "æĻ¨": 2987,
      "è°ĥçłĶ": 2988,
      "ï¼ģâĢĿ": 2989,
      "çĤİ": 2990,
      "æķĪæŀľ": 2991,
      "å®¾": 2992,
      "æľ¬éĻ¢": 2993,
      "ich": 2994,
      "éĺħ": 2995,
      "çĹĽ": 2996,
      "è´¥": 2997,
      "æĥĬ": 2998,
      "èĦļ": 2999,
      "ç¤¾ä¼ļä¸»ä¹ī": 3000,
      "Ġour": 3001,
      "èĳ£äºĭä¼ļ": 3002,
      "ä¸Ńåįİäººæ°ĳ": 3003,
      "è¿Ļæ¬¡": 3004,
      "èĽĭ": 3005,
      "æĬµ": 3006,
      "æķ´ä¸ª": 3007,
      "æĿĥçĽĬ": 3008,
      "æ²ī": 3009,
      "ç±į": 3010,
      "ä¸ĢåĲį": 3011,
      "èĤ¥": 3012,
      "ry": 3013,
      "ä¸Ńåįİäººæ°ĳåħ±åĴĮåĽ½": 3014,
      "ated": 3015,
      "45": 3016,
      "Ġmore": 3017,
      "è®ºåĿĽ": 3018,
      "ä¸ĭçļĦ": 3019,
      "è¿ģ": 3020,
      "è§Ī": 3021,
      "å¦Ĥä»Ĭ": 3022,
      "very": 3023,
      "ä¾§": 3024,
      "åĲĮæĦı": 3025,
      "æĶ¹åıĺ": 3026,
      "æĪ¿åľ°äº§": 3027,
      "è¯į": 3028,
      "çĬ¶æĢģ": 3029,
      "åĳĺå·¥": 3030,
      "ime": 3031,
      "ç®±": 3032,
      "æ´Ĺ": 3033,
      "éĩįè§Ĩ": 3034,
      "èģĮå·¥": 3035,
      "ä½ľåĩº": 3036,
      "åīĤ": 3037,
      "âĢĿï¼ĮâĢľ": 3038,
      "åĩºåı°": 3039,
      "ÃĹ": 3040,
      "åĬĽçļĦ": 3041,
      "%ï¼Ľ": 3042,
      "èĢģäºº": 3043,
      "äººæ°ĳæ³ķéĻ¢": 3044,
      "æķĻåŃ¦": 3045,
      "æ®Ĭ": 3046,
      "åĪ©çİĩ": 3047,
      "æİĪæĿĥ": 3048,
      "36": 3049,
      "çº¸": 3050,
      "ç¬¬åįģ": 3051,
      "å®¶éķ¿": 3052,
      "åºĬ": 3053,
      "å®ŀè¡Į": 3054,
      "åºŁ": 3055,
      "çĶ·åŃĲ": 3056,
      "æĪĲéķ¿": 3057,
      "åĴ¨": 3058,
      "çļĦå·¥ä½ľ": 3059,
      "æģ¢": 3060,
      "å¾ĭå¸Ī": 3061,
      "æĸ°æĹ¶ä»£": 3062,
      "æī¶è´«": 3063,
      "pl": 3064,
      "çº¿ä¸Ĭ": 3065,
      "æĪĲéĥ½": 3066,
      "åĨįæ¬¡": 3067,
      "ail": 3068,
      "çĲĨè®º": 3069,
      "ä¸¹": 3070,
      "é«ĺåº¦": 3071,
      "èĲ¥ä¸ļ": 3072,
      "Ġæľ¬": 3073,
      "çĽ®çļĦ": 3074,
      "ç»ĻäºĪ": 3075,
      "æĶ¶çĽĬ": 3076,
      "åĿ¦": 3077,
      "±ä¹Ĳ": 3078,
      "2014": 3079,
      "Ġtheir": 3080,
      "è®¤è¯Ĩ": 3081,
      "ä¸Ĭå¸Ĥåħ¬åı¸": 3082,
      "ä¾µ": 3083,
      "åĿĢ": 3084,
      "ä¼łæĴŃ": 3085,
      "å®¡è®®": 3086,
      "è°·": 3087,
      "è¯Ħè®º": 3088,
      "åĽ½åĬ¡éĻ¢": 3089,
      "åĴ¨è¯¢": 3090,
      "å®ĩ": 3091,
      "åºĶå¯¹": 3092,
      "æĪĳä»¬çļĦ": 3093,
      "so": 3094,
      "Ġcl": 3095,
      "åħ¬è·¯": 3096,
      "åı¦å¤ĸ": 3097,
      "æĿ¯": 3098,
      "è®Ńç»ĥ": 3099,
      "æĤ¨": 3100,
      "æľīäºĽ": 3101,
      "ç½ĳä¸Ĭ": 3102,
      "Ġthey": 3103,
      "å²ģçļĦ": 3104,
      "Ġ200": 3105,
      "å°Ĩåľ¨": 3106,
      "ood": 3107,
      "æĮ¯åħ´": 3108,
      "éĹŃ": 3109,
      "ong": 3110,
      "å¯¹æŃ¤": 3111,
      "æĩ": 3112,
      "å°¤åħ¶": 3113,
      "å¹¼": 3114,
      "ï¼ĮãĢĬ": 3115,
      "å¹³æĸ¹ç±³": 3116,
      "åĿı": 3117,
      "çĽ¸æ¯Ķ": 3118,
      "è¿¹": 3119,
      "ç«Ł": 3120,
      "å¦ĤæŃ¤": 3121,
      "å»ºæĪĲ": 3122,
      "è°ģ": 3123,
      "é«ĺæł¡": 3124,
      "åħ¼": 3125,
      "èŃ¦æĸ¹": 3126,
      "å²Ĺä½į": 3127,
      "è®¾ç«ĭ": 3128,
      "è´¢åĬ¡": 3129,
      "du": 3130,
      "åħ¨åĬĽ": 3131,
      "æ··": 3132,
      "å¤§åĬĽ": 3133,
      "ance": 3134,
      "éĤĢ": 3135,
      "ph": 3136,
      "å®£å¸ĥ": 3137,
      "æıĲäº¤": 3138,
      "æ°ĳçĶŁ": 3139,
      "ack": 3140,
      "æľīäºº": 3141,
      "èĤ¡æĿĥ": 3142,
      "ç¥ĸ": 3143,
      "çıł": 3144,
      "æĮĳæĪĺ": 3145,
      "æķ´æ²»": 3146,
      "æĶ¯æĴĳ": 3147,
      "è¾ī": 3148,
      "ç¿»": 3149,
      "åģļåĪ°": 3150,
      "æģ¢å¤į": 3151,
      "ç²¾åĩĨ": 3152,
      "åĲĮå¿Ĺ": 3153,
      "ib": 3154,
      "çĶĺ": 3155,
      "æķĻæİĪ": 3156,
      "åħ±äº«": 3157,
      "for": 3158,
      "åĶĲ": 3159,
      "è®¾ç½®": 3160,
      "ous": 3161,
      "è®¤å®ļ": 3162,
      "äºĮæĺ¯": 3163,
      "å®¹æĺĵ": 3164,
      "éĶĭ": 3165,
      "ll": 3166,
      "åĪ¶ä½ľ": 3167,
      "æ´Ľ": 3168,
      "ä¹īåĬ¡": 3169,
      "åĮĹäº¬å¸Ĥ": 3170,
      "åħĪè¿Ľ": 3171,
      "ĠTh": 3172,
      "æĭ¨": 3173,
      "æŃ¤åīį": 3174,
      "Ġ6": 3175,
      "iz": 3176,
      "æĢ»ç»Ł": 3177,
      "æĺ¯ä¸Ģä¸ª": 3178,
      "è¶£": 3179,
      "æ¬§æ´²": 3180,
      "åĭ¤": 3181,
      "ans": 3182,
      "'s": 3183,
      "æįŁå¤±": 3184,
      "éº¦": 3185,
      "åĬŀåħ¬å®¤": 3186,
      "éĶ¦": 3187,
      "å§ĭç»Ī": 3188,
      "ä¸įåı¯": 3189,
      "åĽŃåĮº": 3190,
      "æĸ°èĥ½æºĲ": 3191,
      "æ³ķæ²»": 3192,
      "è±ª": 3193,
      "æĸ°å¢ŀ": 3194,
      "å®«": 3195,
      "å¸ĥå±Ģ": 3196,
      "èĢĥæł¸": 3197,
      "å¥³å£«": 3198,
      "åħ¬çĽĬ": 3199,
      "æĹ¶æľŁ": 3200,
      "çĮª": 3201,
      "è¡¥è´´": 3202,
      "èµ´": 3203,
      "äº¿ç¾İåħĥ": 3204,
      "èĦ±è´«": 3205,
      "æģĲ": 3206,
      "å¤Ħäºİ": 3207,
      "å¤©æ´¥": 3208,
      "Ġone": 3209,
      "éĥ½æľī": 3210,
      "ä¸įè¶³": 3211,
      "Ġim": 3212,
      "ä¾Ŀæį®": 3213,
      "å±ı": 3214,
      "æģ¶": 3215,
      "èªī": 3216,
      "æĿ¥åĪ°": 3217,
      "ç¬¬åĽĽ": 3218,
      "Ġ10": 3219,
      "æĽ´å¥½": 3220,
      "çļĦæĸ¹å¼ı": 3221,
      "åĪ©äºļ": 3222,
      "é«ĺè´¨éĩıåıĳå±ķ": 3223,
      "éĻĲåĪ¶": 3224,
      "éŁ©åĽ½": 3225,
      "çªĹ": 3226,
      "è¾ĳ": 3227,
      "éĽĨä½ĵ": 3228,
      "äº§æĿĥ": 3229,
      "ä¼ĺè´¨": 3230,
      "act": 3231,
      "åı¥": 3232,
      "å¼ķé¢Ĩ": 3233,
      "åįĹäº¬": 3234,
      "å½ĵäºĭ": 3235,
      "èº«ä½ĵ": 3236,
      "çŃ¾è®¢": 3237,
      "æĻ¯åĮº": 3238,
      "äºĪä»¥": 3239,
      "çİ°è±¡": 3240,
      "å¹¿æ³Ľ": 3241,
      "æ¶Īéĺ²": 3242,
      "äºĭåĬ¡": 3243,
      "èħ¾": 3244,
      "ä¸Ģä½į": 3245,
      "ace": 3246,
      "300": 3247,
      "æī¿è¯º": 3248,
      "èĩªä¸»": 3249,
      "æľĢå¤§çļĦ": 3250,
      "æĸ°åĮº": 3251,
      "åĲĦçº§": 3252,
      "çī¹æ®Ĭ": 3253,
      "åķĨåĬ¡": 3254,
      "æ³ī": 3255,
      "æĶ¶è´¹": 3256,
      "åĬ©åĬĽ": 3257,
      "å»ī": 3258,
      "å¿Ļ": 3259,
      "ä¸»æĮģ": 3260,
      "åĪĽä½ľ": 3261,
      "å®ŀéªĮ": 3262,
      "èĤº": 3263,
      "Ġcont": 3264,
      "åĩºæĿ¥": 3265,
      "éĽħ": 3266,
      "ä¸įè¦ģ": 3267,
      "åįģåĪĨ": 3268,
      "åŁ¹èĤ²": 3269,
      "Ġun": 3270,
      "ä½Ľ": 3271,
      "çĵ¦": 3272,
      "çī©æµģ": 3273,
      "ĠU": 3274,
      "å¿ĥçĲĨ": 3275,
      "èį¯åĵģ": 3276,
      "å¼Ł": 3277,
      "è´§å¸ģ": 3278,
      "å°ıç»Ħ": 3279,
      "åħ¬åĽŃ": 3280,
      "ike": 3281,
      "å®¡æī¹": 3282,
      "è¶ĭåĬ¿": 3283,
      "ç¯ĩ": 3284,
      "è¾ĸ": 3285,
      "æĮĩæķ°": 3286,
      "æĸ¤": 3287,
      "åĮ»èį¯": 3288,
      "æĢ»ä½ĵ": 3289,
      "åħĪåĲİ": 3290,
      "èĬĤçĽ®": 3291,
      "ä¸ĸçºª": 3292,
      "åŁºç¡Ģè®¾æĸ½": 3293,
      "èģļçĦ¦": 3294,
      "çĦ¶èĢĮ": 3295,
      "æķĪçİĩ": 3296,
      "å¦Ĥä¸ĭ": 3297,
      "Ġman": 3298,
      "2000": 3299,
      "åĩºçīĪ": 3300,
      "çĬ¶åĨµ": 3301,
      "ç²®é£Ł": 3302,
      "éĢĲæŃ¥": 3303,
      "éĻķ": 3304,
      "å°ĳå¹´": 3305,
      "cl": 3306,
      "åŁİåĮº": 3307,
      "ap": 3308,
      "é¡¿": 3309,
      "çĽ¸å¯¹": 3310,
      "ä¹łè¿ĳå¹³æĢ»ä¹¦è®°": 3311,
      "è¿ĳæľŁ": 3312,
      "å¸¦åĬ¨": 3313,
      "å·¥èµĦ": 3314,
      "2013": 3315,
      "æµ·å¤ĸ": 3316,
      "ook": 3317,
      "éĥŃ": 3318,
      "å¾½": 3319,
      "çĽ¸åºĶ": 3320,
      "ç»ŁçŃ¹": 3321,
      "åį·": 3322,
      "å¤ļæ¬¡": 3323,
      "æ°ĳä¸»": 3324,
      "éķľ": 3325,
      "ä¸ļç»©": 3326,
      "åĩ¡": 3327,
      "ä½ĵçİ°": 3328,
      "æĮĩæĮ¥": 3329,
      "èĢģå¹´": 3330,
      "èĸª": 3331,
      "åĢ¼å¾Ĺ": 3332,
      "æĹ¥å¸¸": 3333,
      "ä¸ºä¸»": 3334,
      "ç»ıåİĨ": 3335,
      "æ¦ľ": 3336,
      "è¯ģæį®": 3337,
      "åĲĮæł·": 3338,
      "åĩŃ": 3339,
      "ä»ĵ": 3340,
      "åĮ»çĶŁ": 3341,
      "è¿ħéĢŁ": 3342,
      "å¹¸ç¦ı": 3343,
      "çī¹åĪ«æĺ¯": 3344,
      "åĲĪæ³ķ": 3345,
      "æĦŁè§ī": 3346,
      "é¦ĸåħĪ": 3347,
      "æŃ¦æ±ī": 3348,
      "æµģåĬ¨": 3349,
      "ire": 3350,
      "å½¢åĬ¿": 3351,
      "å®ĺæĸ¹": 3352,
      "reat": 3353,
      "çĽ¾": 3354,
      "åıĬåħ¶": 3355,
      "é¢ĦæľŁ": 3356,
      "æķı": 3357,
      "çļĦåĲĮæĹ¶": 3358,
      "äºĭæĥħ": 3359,
      "æł¹æľ¬": 3360,
      "å®¿": 3361,
      "å½ĵå¤©": 3362,
      "Ġä»İ": 3363,
      "éĩĮçļĦ": 3364,
      "ä»¥ä¸ĭç®Ģç§°": 3365,
      "æ¶²": 3366,
      "æ®ĸ": 3367,
      "åľĨ": 3368,
      "38": 3369,
      "ä¸īä¸ª": 3370,
      "å¯¹å¤ĸ": 3371,
      "èĪªç©º": 3372,
      "å°½ç®¡": 3373,
      "æĦŁæŁĵ": 3374,
      "æ²Ī": 3375,
      "æĢķ": 3376,
      "ç»ĦæĪĲ": 3377,
      "37": 3378,
      "æĹ¦": 3379,
      "ä¸Ģè·¯": 3380,
      "åĭŁéĽĨ": 3381,
      "Ġè®°èĢħ": 3382,
      "æī«": 3383,
      "é¥°": 3384,
      "Ġte": 3385,
      "ä¸ĭæĿ¥": 3386,
      "éĹ²": 3387,
      "åħ·å¤ĩ": 3388,
      "éĩįè¦ģçļĦ": 3389,
      "ç¨¿": 3390,
      "åĪĨäº«": 3391,
      "çķħ": 3392,
      "èĲ¨": 3393,
      "åĪĬ": 3394,
      "ĠIn": 3395,
      "æĪ´": 3396,
      "å¹¿åĳĬ": 3397,
      "åĪº": 3398,
      "åŁİä¹¡": 3399,
      "Ġfe": 3400,
      "ä¼ģä¸ļçļĦ": 3401,
      "åıªèĥ½": 3402,
      "åĬłå·¥": 3403,
      "å¹´åīį": 3404,
      "å¡ŀ": 3405,
      "éļıåĲİ": 3406,
      "æĶ»åĿļ": 3407,
      "å°Ĭ": 3408,
      "æĭĨ": 3409,
      "ç§ĳçłĶ": 3410,
      "Ġä¸Ń": 3411,
      "çĪ¶æ¯į": 3412,
      "Ġapp": 3413,
      "ãĢĭãĢĤ": 3414,
      "åĸľæ¬¢": 3415,
      "éħįåĲĪ": 3416,
      "å®ĭ": 3417,
      "ase": 3418,
      "ä¸ŃåĽ½çļĦ": 3419,
      "æĹłè®º": 3420,
      "ia": 3421,
      "å¤§å¹ħ": 3422,
      "é»ĺ": 3423,
      "æĲº": 3424,
      "éĿ©åĳ½": 3425,
      "Ġä¸ī": 3426,
      "åıĳæĶ¾": 3427,
      "48": 3428,
      "åŁºç¡Ģä¸Ĭ": 3429,
      "æ¿ĢåĬ±": 3430,
      "è·³": 3431,
      "æĪ¿å±ĭ": 3432,
      "æİī": 3433,
      "Ġæĸ°": 3434,
      "å¦»": 3435,
      "ven": 3436,
      "åĨħéĥ¨": 3437,
      "çļĦå°ı": 3438,
      "æ»¨": 3439,
      "çİ°å®ŀ": 3440,
      "ign": 3441,
      "æģ©": 3442,
      "å¾ª": 3443,
      "Ġqu": 3444,
      "åĨ³çŃĸ": 3445,
      "å¿ł": 3446,
      "å¤ļçļĦ": 3447,
      "æĸĩç«ł": 3448,
      "ult": 3449,
      "èī¯å¥½": 3450,
      "Ġabout": 3451,
      "Ġä¸º": 3452,
      "çº¯": 3453,
      "å¸ĤåľºçļĦ": 3454,
      "Ġwhich": 3455,
      "ru": 3456,
      "è®®æ¡Ī": 3457,
      "æµĵ": 3458,
      "è¡¨åĨ³": 3459,
      "å£°æĺİ": 3460,
      "å¤©æ°Ķ": 3461,
      "ep": 3462,
      "åĲĪæł¼": 3463,
      "è´Ŀ": 3464,
      "æĹ¥æĬ¥": 3465,
      "æĹ¥èĩ³": 3466,
      "ne": 3467,
      "æīĭæ®µ": 3468,
      "ç§»åĬ¨": 3469,
      "ä»ģ": 3470,
      "æŀª": 3471,
      "å£®": 3472,
      "åĿ¡": 3473,
      "æĿľ": 3474,
      "è¾ħ": 3475,
      "å±Ģéķ¿": 3476,
      "æıĲåīį": 3477,
      "æľĢè¿ĳ": 3478,
      "åĭĴ": 3479,
      "çī¹çĤ¹": 3480,
      "éĥ¨éķ¿": 3481,
      "èĢĮæĺ¯": 3482,
      "ass": 3483,
      "è°ĵ": 3484,
      "çº½": 3485,
      "èįĲ": 3486,
      "åĳĬè¯īè®°èĢħ": 3487,
      "å¾·åĽ½": 3488,
      "åģ¥åħ¨": 3489,
      "ç³ĸ": 3490,
      "ä¸Ĭåįĩ": 3491,
      "æŃ»äº¡": 3492,
      "çīĻ": 3493,
      "èĢĥè¯ķ": 3494,
      "und": 3495,
      "çº¦å®ļ": 3496,
      "å¾®åįļ": 3497,
      "éĺ»": 3498,
      "ä¸¾æİª": 3499,
      "Ġgo": 3500,
      "æķ¢": 3501,
      "Ġany": 3502,
      "ä¸Ĭè¯ī": 3503,
      "ç¡®è®¤": 3504,
      "Ġres": 3505,
      "åħ¨ä½ĵ": 3506,
      "åĬ¨è½¦": 3507,
      "æįĲ": 3508,
      "ç²¾å½©": 3509,
      "æ³½": 3510,
      "é©±": 3511,
      "å¥¥è¿Ĳ": 3512,
      "æ²³åĮĹ": 3513,
      "äºĮåįģ": 3514,
      "è¿Ļä¹Ī": 3515,
      "èĢķ": 3516,
      "èĤĥ": 3517,
      "èı²": 3518,
      "èĥŀ": 3519,
      "ä¸Ģæĺ¯": 3520,
      "å¤ļåħĥ": 3521,
      "Ġalso": 3522,
      "çĥ§": 3523,
      "Ġtime": 3524,
      "æįķ": 3525,
      "åħ±äº§": 3526,
      "å¼ķåıĳ": 3527,
      "åĶ¯": 3528,
      "æĺ¥èĬĤ": 3529,
      "æ²ŁéĢļ": 3530,
      "ree": 3531,
      "åİ¦": 3532,
      "èĩªçĶ±": 3533,
      "æĶ¿åºľéĩĩè´Ń": 3534,
      "èĩªæ²»åĮº": 3535,
      "èħĲ": 3536,
      "ä¸Ģæī¹": 3537,
      "æį·": 3538,
      "to": 3539,
      "åĲ§": 3540,
      "çĶŁæĢģçİ¯å¢ĥ": 3541,
      "å®¡æŁ¥": 3542,
      "æ¸¸æĪı": 3543,
      "åĨłåĨĽ": 3544,
      "æķ°æį®æĺ¾ç¤º": 3545,
      "éģ¿åħį": 3546,
      "ĠY": 3547,
      "æ¥ļ": 3548,
      "è·ĥ": 3549,
      "éº»": 3550,
      "æĽ´æĺ¯": 3551,
      "äººå·¥": 3552,
      "èĦ¸": 3553,
      "çĻ¾å§ĵ": 3554,
      "ical": 3555,
      "å°±ä¼ļ": 3556,
      "åĩĨç¡®": 3557,
      "éħįå¥Ĺ": 3558,
      "çĻ¾åĪĨ": 3559,
      "åıĤèĢĥ": 3560,
      "çĮ«": 3561,
      "çºłçº·": 3562,
      "èĻİ": 3563,
      "99": 3564,
      "å¤§åŀĭ": 3565,
      "éĢĲæ¸Ĳ": 3566,
      "éĥ½ä¼ļ": 3567,
      "ä½ľèĢħ": 3568,
      "æ¶µ": 3569,
      "èİ«": 3570,
      "çº³åħ¥": 3571,
      "Ġ7": 3572,
      "æĳĨ": 3573,
      "åįıåĲĮ": 3574,
      "æıĲä¾ĽäºĨ": 3575,
      "èĩªåĬ¨": 3576,
      "av": 3577,
      "Ġother": 3578,
      "æĸ°åĨł": 3579,
      "äººåľ¨": 3580,
      "ction": 3581,
      "ä¸ģ": 3582,
      "Ġper": 3583,
      "åĩĮ": 3584,
      "å¤º": 3585,
      "2024": 3586,
      "Ġoff": 3587,
      "åľºæĻ¯": 3588,
      "ä¹ı": 3589,
      "èµĶåģ¿": 3590,
      "å§Ĳ": 3591,
      "Ġwho": 3592,
      "çİ°ä»£åĮĸ": 3593,
      "æ¯«": 3594,
      "æĥ¯": 3595,
      "å¤ļæķ°": 3596,
      "æĳ©": 3597,
      "ãĢĤï¼Ī": 3598,
      "æĲľ": 3599,
      "ations": 3600,
      "æľīæīĢ": 3601,
      "çĺ": 3602,
      "erv": 3603,
      "ç¥Ŀ": 3604,
      "äººæķ°": 3605,
      "æµģç¨ĭ": 3606,
      "ä»ĸä»¬çļĦ": 3607,
      "æĢ»ç»ıçĲĨ": 3608,
      "æ¼«": 3609,
      "ç¯®": 3610,
      "æ°Ľ": 3611,
      "éĢļéģĵ": 3612,
      "äº«åıĹ": 3613,
      "çļĦè¯Ŀ": 3614,
      "æīĢåľ¨": 3615,
      "çº¢èī²": 3616,
      "ove": 3617,
      "æĭĴ": 3618,
      "æĬķç¥¨": 3619,
      "2012": 3620,
      "ç¦ıå»º": 3621,
      "34": 3622,
      "æĶ¿åįı": 3623,
      "åĨľäº§åĵģ": 3624,
      "å¤Ħç½®": 3625,
      "åıªè¦ģ": 3626,
      "ä½ĵåĪ¶": 3627,
      "éĢŁåº¦": 3628,
      "ä¿Ĺ": 3629,
      "æ£ĢéªĮ": 3630,
      "éĩįæĸ°": 3631,
      "æķ¬": 3632,
      "æľīäºĨ": 3633,
      "çĲĨè§£": 3634,
      "åįģäºĮ": 3635,
      "ä¾ĿçĦ¶": 3636,
      "å¿ħè¦ģ": 3637,
      "åĬ¨çī©": 3638,
      "ach": 3639,
      "æľŁéĻĲ": 3640,
      "ç»ıå¸¸": 3641,
      "çĹħæ¯Ĵ": 3642,
      "çĶµåĬĽ": 3643,
      "ç«ĭåį³": 3644,
      "å¢ŀéĢŁ": 3645,
      "éļĨ": 3646,
      "æ¢°": 3647,
      "å¯¹æĸ¹": 3648,
      "æĬ¥åĲį": 3649,
      "ents": 3650,
      "èµĭ": 3651,
      "èĲ½åľ°": 3652,
      "å¯¹æİ¥": 3653,
      "è£ħå¤ĩ": 3654,
      "ä¿¡å¿ĥ": 3655,
      "çĽ´æĴŃ": 3656,
      "æľºåľº": 3657,
      "çļĦå½±åĵį": 3658,
      "çĶµåķĨ": 3659,
      "çŁĽ": 3660,
      "åĢºåĪ¸": 3661,
      "äººæ°ĳæĶ¿åºľ": 3662,
      "çĽĪ": 3663,
      "é»Ħéĩĳ": 3664,
      "..": 3665,
      "æ¾³å¤§": 3666,
      "çĨĬ": 3667,
      "é«ĺçļĦ": 3668,
      "ĠK": 3669,
      "ä»¥åĲİ": 3670,
      "é«ĺæķĪ": 3671,
      "æ³ķåĽ½": 3672,
      "æĿ¡ä¾ĭ": 3673,
      "1000": 3674,
      "å½¢è±¡": 3675,
      "éħĴåºĹ": 3676,
      "å®ħ": 3677,
      "ä»ªå¼ı": 3678,
      "äººç±»": 3679,
      "åıįå¯¹": 3680,
      "å¼ķèµ·": 3681,
      "æ°Ķè±¡": 3682,
      "å¢Ļ": 3683,
      "Ġsp": 3684,
      "form": 3685,
      "æĭħä»»": 3686,
      "è®¸åı¯": 3687,
      "com": 3688,
      "åįļçī©": 3689,
      "æĪĲäº¤": 3690,
      "ays": 3691,
      "æĮĸ": 3692,
      "æĸĩçī©": 3693,
      "çĿĢåĬĽ": 3694,
      "ile": 3695,
      "ub": 3696,
      "æĬĢèĥ½": 3697,
      "ä½įç½®": 3698,
      "è¯ķéªĮ": 3699,
      "ä»ĸè¯´": 3700,
      "55": 3701,
      "éģµ": 3702,
      "åĳĪçİ°": 3703,
      "çīµ": 3704,
      "ç¾¤ä½ĵ": 3705,
      "æİ§èĤ¡": 3706,
      "ame": 3707,
      "è½¨": 3708,
      "åĪĨç±»": 3709,
      "ick": 3710,
      "å¹¶ä¸Ķ": 3711,
      "ä¸ľè¥¿": 3712,
      "å¡ĳ": 3713,
      "ä»įçĦ¶": 3714,
      "éĢıéľ²": 3715,
      "éĻķè¥¿": 3716,
      "ä¼łæī¿": 3717,
      "åĽ½æľī": 3718,
      "æŀĦæĪĲ": 3719,
      "ue": 3720,
      "çĶ³æĬ¥": 3721,
      "éĻµ": 3722,
      "æĹ¥åľ¨": 3723,
      "æĽ¿": 3724,
      "èĪį": 3725,
      "æĸ°åŀĭ": 3726,
      "å½ĵäºĭäºº": 3727,
      "è¯Ī": 3728,
      "æĢ§åĴĮ": 3729,
      "Ġnum": 3730,
      "è¿Ľåı£": 3731,
      "é¡¹çĽ®çļĦ": 3732,
      "Ġlike": 3733,
      "Ġ8": 3734,
      "è±Ĩ": 3735,
      "åĳ¨è¾¹": 3736,
      "å¥³åĦ¿": 3737,
      "Ġdis": 3738,
      "æĭ¼": 3739,
      "çİ°éĩĳ": 3740,
      "èĤ¯å®ļ": 3741,
      "Ġsome": 3742,
      "æ¯ıä¸ª": 3743,
      "èİ·åıĸ": 3744,
      "èİ±": 3745,
      "ä¼ı": 3746,
      "éĻĦè¿ĳ": 3747,
      "éĻ·": 3748,
      "æł¼å±Ģ": 3749,
      "åľ°çĤ¹": 3750,
      "ount": 3751,
      "åĩĿ": 3752,
      "çĪ¸": 3753,
      "åĬ²": 3754,
      "åĿļåĨ³": 3755,
      "åĩłä¹İ": 3756,
      "åĽ½éĻħåľ¨çº¿": 3757,
      "è´¦æĪ·": 3758,
      "çľģå§Ķ": 3759,
      "è§£éĩĬ": 3760,
      "è·Ŀç¦»": 3761,
      "åĩºè¡Į": 3762,
      "ç»ıæµİåıĳå±ķ": 3763,
      "åį±æľº": 3764,
      "å®īå¾½": 3765,
      "ak": 3766,
      "é¡µ": 3767,
      "Ġnew": 3768,
      "åĿļå®ļ": 3769,
      "æ°ĳäºĭ": 3770,
      "å¿ĺ": 3771,
      "åĬłåħ¥": 3772,
      "åĢºåĬ¡": 3773,
      "å¹´åºķ": 3774,
      "åħ¬åĬ¡": 3775,
      "åĪ©äºİ": 3776,
      "ary": 3777,
      "ä¾ĽåºĶåķĨ": 3778,
      "æĬ¼": 3779,
      "Ġ19": 3780,
      "è´µå·ŀ": 3781,
      "å¹¿è¥¿": 3782,
      "çī©ä¸ļ": 3783,
      "äº§ä¸ļéĵ¾": 3784,
      "æ¹ĸåĮĹ": 3785,
      "æĺ¨å¤©": 3786,
      "éĵº": 3787,
      "ç®Ģåįķ": 3788,
      "éļĲæĤ£": 3789,
      "ä¸ĵéĹ¨": 3790,
      "æĿŃå·ŀ": 3791,
      "èģĮè´£": 3792,
      "ĠIt": 3793,
      "çĸ¾çĹħ": 3794,
      "ff": 3795,
      "å®īåħ¨çĶŁäº§": 3796,
      "åĲĮæľŁ": 3797,
      "åĵģè´¨": 3798,
      "è¿ĺè¦ģ": 3799,
      "é¡ºåĪ©": 3800,
      "äºķ": 3801,
      "åľ£": 3802,
      "è§ĦåĪĻ": 3803,
      "è½¬åıĺ": 3804,
      "éĤĢè¯·": 3805,
      "Ġpart": 3806,
      "Ġneed": 3807,
      "ov": 3808,
      "ç»ıè´¹": 3809,
      "ä¹Łåľ¨": 3810,
      "Ġyear": 3811,
      "è¿Ŀè§Ħ": 3812,
      "æľīä¸Ģ": 3813,
      "ors": 3814,
      "32": 3815,
      "æ·±åº¦": 3816,
      "æ´ŀ": 3817,
      "æĶ¶è´Ń": 3818,
      "çĦ¶åĲİ": 3819,
      "ä¸»ç®¡": 3820,
      "46": 3821,
      "æıĲéĨĴ": 3822,
      "æĸ°çĸĨ": 3823,
      "åľºæīĢ": 3824,
      "å¡«": 3825,
      "Ġget": 3826,
      "å¿Ĩ": 3827,
      "åĭŁéĽĨèµĦéĩĳ": 3828,
      "ww": 3829,
      "ä¹Łä¼ļ": 3830,
      "ä¹¡æĿĳæĮ¯åħ´": 3831,
      "èĢ³": 3832,
      "39": 3833,
      "ĠV": 3834,
      "åĲįç§°": 3835,
      "éļ¾ä»¥": 3836,
      "75": 3837,
      "æ¬ł": 3838,
      "è´¢äº§": 3839,
      "æ¼ı": 3840,
      "å¹³å®ī": 3841,
      "åľ¨ä¸ŃåĽ½": 3842,
      "èĥĮæĻ¯": 3843,
      "ç¼ĺ": 3844,
      "çŁĽçĽ¾": 3845,
      "ä¸īå¹´": 3846,
      "vel": 3847,
      "è®²è¯Ŀ": 3848,
      "ä»İäºĭ": 3849,
      "åĪĽå»º": 3850,
      "è¿Ī": 3851,
      "ence": 3852,
      "çĴ": 3853,
      "è¿ĲçĶ¨": 3854,
      "now": 3855,
      "åĲįåįķ": 3856,
      "åħ»æ®ĸ": 3857,
      "çļĩ": 3858,
      "èĢħçļĦ": 3859,
      "å¯Ĵ": 3860,
      "èĢĮè¨Ģ": 3861,
      "äº§ä¸ļåıĳå±ķ": 3862,
      "ä¸Ģçº¿": 3863,
      "çī©è´¨": 3864,
      "æ³¥": 3865,
      "éĿŀæ³ķ": 3866,
      "Ġ-": 3867,
      "çī§": 3868,
      "æĸĩåŃ¦": 3869,
      "æ¹¿": 3870,
      "Ġro": 3871,
      "åħįè´¹": 3872,
      "åģľè½¦": 3873,
      "å®¡æł¸": 3874,
      "è½¯ä»¶": 3875,
      "èĢĹ": 3876,
      "è®¨è®º": 3877,
      "è§Ĥå¯Ł": 3878,
      "æ³ķå®ļ": 3879,
      "çļĦä¸Ģä¸ª": 3880,
      "äººçī©": 3881,
      "è¯·æ±Ĥ": 3882,
      "çļĦè§Ħå®ļ": 3883,
      "å±ķå¼Ģ": 3884,
      "çĤ¸": 3885,
      "æĪĲæķĪ": 3886,
      "Ġä»Ĭå¹´": 3887,
      "åĦ¿åŃĲ": 3888,
      "å·¥åķĨ": 3889,
      "æķ´åĲĪ": 3890,
      "åĴĮå¹³": 3891,
      "è§ĤçĤ¹": 3892,
      "æºª": 3893,
      "éĢĥ": 3894,
      "ä¼ļè®¡": 3895,
      "å¹´ä»£": 3896,
      "çĽ¸ä¿¡": 3897,
      "ä»İèĢĮ": 3898,
      "éĶģ": 3899,
      "å¤įæĿĤ": 3900,
      "å¯¿": 3901,
      "é«ĺçº§": 3902,
      "åĽ¾çīĩ": 3903,
      "è¡¥åħħ": 3904,
      "æģĴ": 3905,
      "æī¹åĩĨ": 3906,
      "Ġthem": 3907,
      "ï¼ŁâĢĿ": 3908,
      "æĽ´å¤ļçļĦ": 3909,
      "ark": 3910,
      "å®¡çĲĨ": 3911,
      "é»İ": 3912,
      "éĽ¶åĶ®": 3913,
      "çľģçº§": 3914,
      "å®ŀçİ°äºĨ": 3915,
      "å¸ĤæĶ¿åºľ": 3916,
      "çº·çº·": 3917,
      "åĪĨéħį": 3918,
      "åĢ¡": 3919,
      "åĩ¤": 3920,
      "æĬ¥è®°èĢħ": 3921,
      "åĽŀåºĶ": 3922,
      "æĽ¼": 3923,
      "07": 3924,
      "åľ¨äºİ": 3925,
      "è¢Ń": 3926,
      "æĹ¥ä¸ĬåįĪ": 3927,
      "æ¢¯": 3928,
      "éħįç½®": 3929,
      "è¿«": 3930,
      "éĺ´": 3931,
      "ä¸Ģå¸¦": 3932,
      "å·¥åħ·": 3933,
      "è¾ŀ": 3934,
      "åĢ¾": 3935,
      "èıĮ": 3936,
      "88": 3937,
      "ç¬¬ä¸Ģæ¬¡": 3938,
      "æĭĵå±ķ": 3939,
      "Ġhis": 3940,
      "Ġsa": 3941,
      "èĳ£äºĭéķ¿": 3942,
      "ä¼ĺæĥł": 3943,
      "çŁ¥åĲį": 3944,
      "æ·±åĪ»": 3945,
      "äºĨä¸Ģä¸ª": 3946,
      "ĠäºĮ": 3947,
      "çĽĲ": 3948,
      "Ġspe": 3949,
      "äº¤æĺĵæīĢ": 3950,
      "çļĦä¸»è¦ģ": 3951,
      "ä¾¨": 3952,
      "Ġover": 3953,
      "ä»¥åīį": 3954,
      "Ġif": 3955,
      "è¯¸": 3956,
      "åıĳè¨Ģ": 3957,
      "å¿ĹæĦ¿èĢħ": 3958,
      "åŁİéķĩ": 3959,
      "çħ§çīĩ": 3960,
      "ä¸¤å²¸": 3961,
      "è®©äºº": 3962,
      "ä¼¯": 3963,
      "äºļæ´²": 3964,
      "èµı": 3965,
      "æī¾åĪ°": 3966,
      "è¾½": 3967,
      "ä½©": 3968,
      "æĸ¹ä¾¿": 3969,
      "æĶ¶åĪ°": 3970,
      "ä¸¤åĽ½": 3971,
      "ç¬¬äºĶ": 3972,
      "æ±Łè¥¿": 3973,
      "æĬĬæı¡": 3974,
      "Ġwhen": 3975,
      "å¤ļç§į": 3976,
      "ä¹ĭæĹ¥èµ·": 3977,
      "éŀ": 3978,
      "è¾©": 3979,
      "ings": 3980,
      "æĦŁåıĹ": 3981,
      "éĤ¦": 3982,
      "éī´å®ļ": 3983,
      "æĦıåĳ³": 3984,
      "ition": 3985,
      "èĩ³ä»Ĭ": 3986,
      "æľºåĻ¨": 3987,
      "é¤Ĳé¥®": 3988,
      "æ·»": 3989,
      "åıĹçĲĨ": 3990,
      "Ġtra": 3991,
      "ç¾Ĭ": 3992,
      "çĽĳçĿ£ç®¡çĲĨ": 3993,
      "æīĵåĩ»": 3994,
      "å½ĵçĦ¶": 3995,
      "åŃķ": 3996,
      "ĠCh": 3997,
      "æĬ±": 3998,
      "èĩªè¡Į": 3999,
      "08": 4000,
      "ç§¦": 4001,
      "æľĢæĸ°": 4002,
      "47": 4003,
      "Ġæł¹æį®": 4004,
      "æķĳæı´": 4005,
      "éĺ²èĮĥ": 4006,
      "åī©": 4007,
      "ç¥¥": 4008,
      "âĢĿãĢģ": 4009,
      "ä¸ĬäºĨ": 4010,
      "æŃ£æĺ¯": 4011,
      "æİĺ": 4012,
      "æĹ¥ä¸ĭåįĪ": 4013,
      "**": 4014,
      "å®Įæķ´": 4015,
      "æĲ¬": 4016,
      "å°ıåŃ¦": 4017,
      "åľ°ä½į": 4018,
      "é«ĺç«¯": 4019,
      "è¥¿å®ī": 4020,
      "æĻ®éģį": 4021,
      "ä¸ĵé¢ĺ": 4022,
      "æłĩé¢ĺ": 4023,
      "èķ": 4024,
      "è¾Ľ": 4025,
      "æłı": 4026,
      "åħ³èģĶ": 4027,
      "çĽĳä¼ļ": 4028,
      "é£Łåĵģå®īåħ¨": 4029,
      "è¹": 4030,
      "ä¸Ģèĩ´": 4031,
      "æİĮæı¡": 4032,
      "å¢¨": 4033,
      "æĹħå®¢": 4034,
      "æķ°åŃĹåĮĸ": 4035,
      "åĲĽ": 4036,
      "å¹¼åĦ¿": 4037,
      "ough": 4038,
      "æ¨ª": 4039,
      "çļĦæĹ¶éĹ´": 4040,
      "æıŃ": 4041,
      "èĤ¡ä¸ľå¤§ä¼ļ": 4042,
      "åĸĿ": 4043,
      "è½¬ç§»": 4044,
      "å°¾": 4045,
      "Ġnumber": 4046,
      "äº¦": 4047,
      "å¥Ķ": 4048,
      "èµ°è¿Ľ": 4049,
      "æ´¾åĩº": 4050,
      "2010": 4051,
      "çĻ¾åĪĨçĤ¹": 4052,
      "é£ŀæľº": 4053,
      "ä¸Ģä¸ĭ": 4054,
      "æľºéģĩ": 4055,
      "æĪĳå¸Ĥ": 4056,
      "Ġthere": 4057,
      "èĲ¥éĢł": 4058,
      "ound": 4059,
      "ĠãĢĲ": 4060,
      "éĢ¾": 4061,
      "æĭľ": 4062,
      "ä¹ĭéĹ´çļĦ": 4063,
      "çĪ¶äº²": 4064,
      "65": 4065,
      "åĪ¶éĢłä¸ļ": 4066,
      "49": 4067,
      "æ°ĳä¼Ĺ": 4068,
      "ose": 4069,
      "å¿§": 4070,
      "åı¸æľº": 4071,
      "çĽ¸å½ĵ": 4072,
      "éĺ³å¸Ĥ": 4073,
      "ond": 4074,
      "æ£®æŀĹ": 4075,
      "åĩºçĶŁ": 4076,
      "åħ¬å¹³": 4077,
      "çĤ¼": 4078,
      "è¡¨æ¼Ķ": 4079,
      "2011": 4080,
      "æİĴåĲį": 4081,
      "ä¿Ĭ": 4082,
      "çıį": 4083,
      "ä¼ĺåħĪ": 4084,
      "è¯¾ç¨ĭ": 4085,
      "åĲĮåŃ¦": 4086,
      "æĴ¤": 4087,
      "å±ķçİ°": 4088,
      "çļĦä¸ŃåĽ½": 4089,
      "ä¸ªçĻ¾åĪĨçĤ¹": 4090,
      "ç»ıæµİç¤¾ä¼ļ": 4091,
      "æ¬¢è¿İ": 4092,
      "èĪĴ": 4093,
      "æİ¨èįĲ": 4094,
      "Ġwork": 4095,
      "ck": 4096,
      "èĩ³å°ĳ": 4097,
      "æ¯įäº²": 4098,
      "èį·": 4099,
      "Ġbeen": 4100,
      "è¡¨è¾¾": 4101,
      "ä¸įåĨį": 4102,
      "æĭħä¿Ŀ": 4103,
      "ç¼ĸåĪ¶": 4104,
      "åĵģç§į": 4105,
      "ens": 4106,
      "å¨±ä¹Ĳ": 4107,
      "å½¹": 4108,
      "ĠSt": 4109,
      "ress": 4110,
      "çŃ¾ç½²": 4111,
      "åĩ¯": 4112,
      "ç»ª": 4113,
      "çĻĮ": 4114,
      "ä¹¡éķĩ": 4115,
      "å¼ĢåĲ¯": 4116,
      "è½¦åŀĭ": 4117,
      "éĥ½åľ¨": 4118,
      "ob": 4119,
      "éĤ£äºĽ": 4120,
      "æĹ¥æĻļ": 4121,
      "è¡ĮçļĦ": 4122,
      "ä¸´æĹ¶": 4123,
      "èĶ¬": 4124,
      "çłĶç©¶éĻ¢": 4125,
      "Ġpe": 4126,
      "Ġimp": 4127,
      "åį°åº¦": 4128,
      "å®ŀåĬĽ": 4129,
      "æłĩçļĦ": 4130,
      "æĪ¿ä»·": 4131,
      "é¹ı": 4132,
      "Ġwhat": 4133,
      "æľŁå¾ħ": 4134,
      "è¯ģä¹¦": 4135,
      "éĹ®é¢ĺçļĦ": 4136,
      "æĹ¥åĨħ": 4137,
      "09": 4138,
      "åįļçī©é¦Ĩ": 4139,
      "Ġar": 4140,
      "ä¸Ģå¤©": 4141,
      "ake": 4142,
      "åŁºäºİ": 4143,
      "æķĪçĽĬ": 4144,
      "ord": 4145,
      "ä¹ĭå¤ĸ": 4146,
      "çĲĥåĳĺ": 4147,
      "æµ¦": 4148,
      "ä¸Ĭä¸ĭ": 4149,
      "æł·çļĦ": 4150,
      "ä½ľä¸ļ": 4151,
      "Ġam": 4152,
      "è§Ĵåº¦": 4153,
      "åħļç»Ħ": 4154,
      "ç©ºæ°Ķ": 4155,
      "Ġsc": 4156,
      "æĳĺ": 4157,
      "åīįå¾Ģ": 4158,
      "ä¾Ŀæīĺ": 4159,
      "å¸®æī¶": 4160,
      "å¾Īå¤§": 4161,
      "ä¸ĢçĤ¹": 4162,
      "Ġpre": 4163,
      "çī©èµĦ": 4164,
      "æĹłäºº": 4165,
      "å°¤åħ¶æĺ¯": 4166,
      "ãĢģãĢĬ": 4167,
      "è¿Ľå±ķ": 4168,
      "è½¬åĮĸ": 4169,
      "æĿĨ": 4170,
      "å°Ŀ": 4171,
      "åĪ·": 4172,
      "Ġag": 4173,
      "low": 4174,
      "çĲĥéĺŁ": 4175,
      "å«Įçĸĳ": 4176,
      "01": 4177,
      "æĺĨ": 4178,
      "æİĴæŁ¥": 4179,
      "è¿Ŀåıį": 4180,
      "è´¯å½»èĲ½å®ŀ": 4181,
      "æľīåºı": 4182,
      "æĲŀ": 4183,
      "æĭħå½ĵ": 4184,
      "æĢ»é¢Ŀ": 4185,
      "æĿĥåĪ©": 4186,
      "åıĳåĬ¨": 4187,
      "æŃ£ç¡®": 4188,
      "Ġthan": 4189,
      "æĢģåº¦": 4190,
      "Ġ9": 4191,
      "äºĨè§£åĪ°": 4192,
      "ä¸ĢæĿ¡": 4193,
      "èµĸ": 4194,
      "èĩªæĪĳ": 4195,
      "åĪ©æģ¯": 4196,
      "éĢīæīĭ": 4197,
      "æ²³åįĹ": 4198,
      "æ»¡æĦı": 4199,
      "åħħåĪĨåıĳæĮ¥": 4200,
      "å¹¶æ²¡æľī": 4201,
      "åĨĽäºĭ": 4202,
      "çľĭæĿ¥": 4203,
      "èĲ¥éĶĢ": 4204,
      "æ¡Īä¾ĭ": 4205,
      "ç´łè´¨": 4206,
      "äºı": 4207,
      "å®ļæľŁ": 4208,
      "æīĭç»Ń": 4209,
      "85": 4210,
      "oy": 4211,
      "éĢļæĬ¥": 4212,
      "ä»¬çļĦ": 4213,
      "æ¡ĥ": 4214,
      "æĶ¿åĬ¡": 4215,
      "èģĶçĽŁ": 4216,
      "ĠæŃ¤å¤ĸ": 4217,
      "å®¶çļĦ": 4218,
      "lp": 4219,
      "ish": 4220,
      "ä¸ĬåįĬå¹´": 4221,
      "å±±è¥¿": 4222,
      "ä¹łæĥ¯": 4223,
      "åħ¬ç¤º": 4224,
      "éĢĤåºĶ": 4225,
      "Ġ[": 4226,
      "åĨĴ": 4227,
      "åı¯æĮģç»Ń": 4228,
      "æĦıåĳ³çĿĢ": 4229,
      "éĥ¨éĺŁ": 4230,
      "æĸ¹éĿ¢çļĦ": 4231,
      "05": 4232,
      "Ġæį®äºĨè§£": 4233,
      "è°Ĳ": 4234,
      "é¢ĨåŁŁçļĦ": 4235,
      "åį±éĻ©": 4236,
      "å¤ļå¹´": 4237,
      "æłĩå¿Ĺ": 4238,
      "æ´»åĬĽ": 4239,
      "èī¾": 4240,
      "æİ¥è§¦": 4241,
      "èĪ°": 4242,
      "æ°§": 4243,
      "åħ±æľī": 4244,
      "03": 4245,
      "wn": 4246,
      "æµ·åįĹ": 4247,
      "æł¡åĽŃ": 4248,
      "æĬķè¯ī": 4249,
      "Ġwere": 4250,
      "ä½¿åĳ½": 4251,
      "èģĶåĬ¨": 4252,
      "éĢĤçĶ¨": 4253,
      "ä¸»åĬŀ": 4254,
      "å§Ĩ": 4255,
      "ild": 4256,
      "æĸ°åįİ": 4257,
      "æĻĭ": 4258,
      "Ġwould": 4259,
      "æľīåħ³éĥ¨éĹ¨": 4260,
      "æ¼Ķåĩº": 4261,
      "çĸ«èĭĹ": 4262,
      "ç¢į": 4263,
      "è½¬è®©": 4264,
      "èµģ": 4265,
      "å¤§éĥ¨åĪĨ": 4266,
      "é¢Ħéĺ²": 4267,
      "éĺħè¯»": 4268,
      "åŃ¦æľ¯": 4269,
      "åŁĥ": 4270,
      "ang": 4271,
      "åįłæ¯Ķ": 4272,
      "ĠĊ": 4273,
      "å¤§æķ°æį®": 4274,
      "ç§Łèµģ": 4275,
      "400": 4276,
      "åĵįåºĶ": 4277,
      "ç«¹": 4278,
      "èī°": 4279,
      "çºªå¿µ": 4280,
      "åħ¸åŀĭ": 4281,
      "Ġjust": 4282,
      "èĤºçĤİ": 4283,
      "èĢĥå¯Ł": 4284,
      "è¾ĥå¤§": 4285,
      "åĪĢ": 4286,
      "æ³¨éĩį": 4287,
      "ä¸¤å¹´": 4288,
      "åıĸæ¶Ī": 4289,
      "å¼ķè¿Ľ": 4290,
      "ä¼ļçļĦ": 4291,
      "æĹ¨": 4292,
      "çĿ¡": 4293,
      "åī¯ä¸»ä»»": 4294,
      "æ±Ľ": 4295,
      "æ°ĽåĽ´": 4296,
      "ä¾Ľç»Ļ": 4297,
      "Ġdes": 4298,
      "çļĦåīį": 4299,
      "é¢ĦèŃ¦": 4300,
      "åĴĮç¤¾ä¼ļ": 4301,
      "66": 4302,
      "è¸ª": 4303,
      "int": 4304,
      "æĽ¾ç»ı": 4305,
      "æ¬£": 4306,
      "éĵľ": 4307,
      "å°Ĩäºİ": 4308,
      "èĶ¡": 4309,
      "Ġ11": 4310,
      "å®ļä½į": 4311,
      "åħģ": 4312,
      "å¾Ĵ": 4313,
      "ç¡®å®ŀ": 4314,
      "ä¸Ģåľº": 4315,
      "ä¸ĭä¸ĢæŃ¥": 4316,
      "æ¡Ĥ": 4317,
      "ĠWe": 4318,
      "å¹¿æĴŃ": 4319,
      "åĢŁæ¬¾": 4320,
      "çĹħä¾ĭ": 4321,
      "éĿĴå²Ľ": 4322,
      "çŃīåľ°": 4323,
      "æ¶īå«Į": 4324,
      "åŃĶ": 4325,
      "åĬłéĢŁ": 4326,
      "åĩłä¸ª": 4327,
      "è¯¦ç»Ĩ": 4328,
      "èģĮèĥ½": 4329,
      "å¥³åŃĲ": 4330,
      "å²©": 4331,
      "æĭĽåķĨ": 4332,
      "Ġknow": 4333,
      "è¿Ł": 4334,
      "å¹¿åľº": 4335,
      "çļĦæĥħåĨµä¸ĭ": 4336,
      "å¤ĸäº¤": 4337,
      "Ġacc": 4338,
      "å¤©çĦ¶": 4339,
      "éĻª": 4340,
      "è¥¿éĥ¨": 4341,
      "æ§": 4342,
      "çīĪæĿĥ": 4343,
      "äº§èĥ½": 4344,
      "æķĳåĬ©": 4345,
      "ä½İäºİ": 4346,
      "èĴĻåı¤": 4347,
      "æĩĤ": 4348,
      "éĿ¢åĲĳ": 4349,
      "è¡¥åĬ©": 4350,
      "æĺ¾èĳĹ": 4351,
      "2008": 4352,
      "äººæ°ĳç¾¤ä¼Ĺ": 4353,
      "èĳĹåĲį": 4354,
      "çļĦè¦ģæ±Ĥ": 4355,
      "ä¼Ĺå¤ļ": 4356,
      "å±ħä½ı": 4357,
      "42": 4358,
      "æ¸ħåįķ": 4359,
      "çĽ¸äºĴ": 4360,
      "æļĹ": 4361,
      "èĤĸ": 4362,
      "ren": 4363,
      "é¸Ł": 4364,
      "è¿½æ±Ĥ": 4365,
      "Ġ|": 4366,
      "å·§": 4367,
      "æľīçĿĢ": 4368,
      "æĭįæĳĦ": 4369,
      "ä¼¸": 4370,
      "éĿ¢çļĦ": 4371,
      "ä»¤äºº": 4372,
      "åĮºçļĦ": 4373,
      "åĲİæĿ¥": 4374,
      "èĸĦ": 4375,
      "çĵ¶": 4376,
      "æĦ¿æĦı": 4377,
      "éĻ¢éķ¿": 4378,
      "éĢīä¸¾": 4379,
      "å¸¦é¢Ĩ": 4380,
      "å±Ĥæ¬¡": 4381,
      "ĠçĽ®åīį": 4382,
      "éĻ¶": 4383,
      "æ²ª": 4384,
      "Ġhad": 4385,
      "éĿĴå°ĳå¹´": 4386,
      "å¸¦æĿ¥çļĦ": 4387,
      "è¿İæĿ¥": 4388,
      "å¹´åĪĿ": 4389,
      "èµł": 4390,
      "å¤ļå°ĳ": 4391,
      "ä¸ŃåĽ½çī¹èī²": 4392,
      "æ¹ĸåįĹ": 4393,
      "æĴŀ": 4394,
      "åĽĽä¸ª": 4395,
      "çŁ¥è¯Ĩäº§æĿĥ": 4396,
      "æľ¬æ¡Ī": 4397,
      "æĢ»ç»ĵ": 4398,
      "æ°ĳéĹ´": 4399,
      "å¤§åŃ¦çĶŁ": 4400,
      "ç§ĺä¹¦": 4401,
      "æµ®": 4402,
      "éģĩåĪ°": 4403,
      "å·¨å¤§": 4404,
      "ç¾İä¸½": 4405,
      "é¢ĳéģĵ": 4406,
      "åĬŀäºĭ": 4407,
      "06": 4408,
      "åĨ³èµĽ": 4409,
      "æ¶Ľ": 4410,
      "åĴĮè°Ĳ": 4411,
      "éĺŁåĳĺ": 4412,
      "ä¸ºä»Ģä¹Ī": 4413,
      "Ġè¿Ļ": 4414,
      "åħ³å¿ĥ": 4415,
      "åı¦ä¸Ģæĸ¹éĿ¢": 4416,
      "åĤ¨å¤ĩ": 4417,
      "æĦŁè°¢": 4418,
      "ä¸Ģå¸¦ä¸Ģè·¯": 4419,
      "è¿ĽæŃ¥": 4420,
      "ä¸¾æĬ¥": 4421,
      "ç¨İæĶ¶": 4422,
      "æľĢä½İ": 4423,
      "åħļå»º": 4424,
      "Ġhow": 4425,
      "æİĴæĶ¾": 4426,
      "æ¡£æ¡Ī": 4427,
      "æµ·æ´ĭ": 4428,
      "åŃ¦ç§ĳ": 4429,
      "è¡¨æĺİ": 4430,
      "æļ¨": 4431,
      "åħ¬å®īå±Ģ": 4432,
      "58": 4433,
      "åĩ½": 4434,
      "å®ĺåĳĺ": 4435,
      "æĺ¨æĹ¥": 4436,
      "å£ģ": 4437,
      "é¢ģ": 4438,
      "é¢Ĺ": 4439,
      "åĳ¨æľŁ": 4440,
      "éĤ»": 4441,
      "çļĦä¼ģä¸ļ": 4442,
      "aus": 4443,
      "èļ": 4444,
      "å®īè£ħ": 4445,
      "è²": 4446,
      "è°ĥè§£": 4447,
      "èĲ¥åħ»": 4448,
      "ater": 4449,
      "æĥ³åĪ°": 4450,
      "2009": 4451,
      "åıĳå¸ĥçļĦ": 4452,
      "å¯ĨåĪĩ": 4453,
      "ç§Ĵ": 4454,
      "æ¼Ķåĳĺ": 4455,
      "èĥ¶": 4456,
      "å¸¸æĢģ": 4457,
      "æ£Ģå¯ŁéĻ¢": 4458,
      "æĸ°åħ´": 4459,
      "è¿ĺå°Ĩ": 4460,
      "ç¨İåĬ¡": 4461,
      "æĬĵå¥½": 4462,
      "çļĦä¸į": 4463,
      "æ·¡": 4464,
      "æľīåĬĽ": 4465,
      "æľĪåºķ": 4466,
      "Ġinto": 4467,
      "rough": 4468,
      "åħ±äº§åħļ": 4469,
      "æľįåĬ¡ä¸Ńå¿ĥ": 4470,
      "èĶ¬èıľ": 4471,
      "å¯Ħ": 4472,
      "å¹´é¾Ħ": 4473,
      "åįģåĽĽ": 4474,
      "Ġits": 4475,
      "åĽ¢ç»ĵ": 4476,
      "Ġmake": 4477,
      "é¢ľ": 4478,
      "çĸı": 4479,
      "æĿ¿åĿĹ": 4480,
      "æıı": 4481,
      "çĩķ": 4482,
      "ä¸īæĺ¯": 4483,
      "èĮĥåĽ´åĨħ": 4484,
      "ä¸ļåĨħ": 4485,
      "44": 4486,
      "ç»ĺ": 4487,
      "å²Ń": 4488,
      "åĽºå®ļ": 4489,
      "äºĭä¸ļåįķä½į": 4490,
      "ä¿¡æģ¯åĮĸ": 4491,
      "èº«ä»½è¯ģ": 4492,
      "è¾ĸåĮº": 4493,
      "èĦī": 4494,
      "éķ¿æ±Ł": 4495,
      "èŀįåħ¥": 4496,
      "ç§ĳæĬĢåĪĽæĸ°": 4497,
      "é¢ĨåħĪ": 4498,
      "åħħæ»¡": 4499,
      "è®¤åı¯": 4500,
      "éĺ²æ²»": 4501,
      "è²Į": 4502,
      "ä¾¿åĪ©": 4503,
      "ä¼Ļä¼´": 4504,
      "æī°": 4505,
      "å¥ĳ": 4506,
      "çĽ¸åħ³éĥ¨éĹ¨": 4507,
      "åĩºåħ·": 4508,
      "ä¹ĭè·¯": 4509,
      "æĶ¯éĥ¨": 4510,
      "åĽ½æ°ĳ": 4511,
      "å¹¶åľ¨": 4512,
      "å°±åľ¨": 4513,
      "åį°åıĳ": 4514,
      "æ¯ķä¸ļçĶŁ": 4515,
      "äºİæĺ¯": 4516,
      "æĹģ": 4517,
      "å®¶äºº": 4518,
      "å¸Ĥéķ¿": 4519,
      "æ°´åĪ©": 4520,
      "è¾¾æĪĲ": 4521,
      "Ġ12": 4522,
      "çº¿ä¸ĭ": 4523,
      "vers": 4524,
      "ning": 4525,
      "æ°ĶåĢĻ": 4526,
      "çºµ": 4527,
      "åįģä¸ī": 4528,
      "å¤§èµĽ": 4529,
      "å¥ĭæĸĹ": 4530,
      "Ġå¯¹äºİ": 4531,
      "ä¹Ļ": 4532,
      "æķ¦": 4533,
      "çķª": 4534,
      "çĽĳäºĭ": 4535,
      "æĭĽèģĺ": 4536,
      "å»ºè®¾çļĦ": 4537,
      "åģ¶": 4538,
      "çº¿è·¯": 4539,
      "å±±åĮº": 4540,
      "own": 4541,
      "å¸¸å§Ķä¼ļ": 4542,
      "04": 4543,
      "å¤ļå®¶": 4544,
      "æµģéĩı": 4545,
      "éĢĢä¼ĳ": 4546,
      "çģ¾å®³": 4547,
      "56": 4548,
      "æ®ĭçĸ¾": 4549,
      "åį¢": 4550,
      "èī¯å¥½çļĦ": 4551,
      "çĤĴ": 4552,
      "æĸ°ä¸Ģ": 4553,
      "èµĽäºĭ": 4554,
      "å¾Ģå¾Ģ": 4555,
      "åŁºåĽł": 4556,
      "02": 4557,
      "éĤĵ": 4558,
      "old": 4559,
      "äº§åĵģçļĦ": 4560,
      "æµĭè¯ķ": 4561,
      "ä¼ļåľ¨": 4562,
      "é¢Ħæµĭ": 4563,
      "éģĹäº§": 4564,
      "åĬłæ²¹": 4565,
      "Ġhelp": 4566,
      "Ġprov": 4567,
      "Ġpr": 4568,
      "åħ±è®¡": 4569,
      "Ġaf": 4570,
      "ä¾¦": 4571,
      "åĬłä¸Ĭ": 4572,
      "å°±èĥ½": 4573,
      "æľīåĪ©äºİ": 4574,
      "æ¸¡": 4575,
      "Ġrec": 4576,
      "),": 4577,
      "Ġ\"": 4578,
      "æ°ĳèĲ¥": 4579,
      "å¸Ŀ": 4580,
      "æŁ¥è¯¢": 4581,
      "âĢĿï¼ī": 4582,
      "æĮģæľī": 4583,
      "åį³å°Ĩ": 4584,
      "ãĢĤãĢĬ": 4585,
      "å¦¹": 4586,
      "åĶ¯ä¸Ģ": 4587,
      "æĭ³": 4588,
      "ç»Īäºİ": 4589,
      "æĥħç»ª": 4590,
      "æĹ¥çļĦ": 4591,
      "åģļåĩº": 4592,
      "ç®Ń": 4593,
      "æĽ´ä¸º": 4594,
      "lic": 4595,
      "åıĳåĩº": 4596,
      "æīİå®ŀ": 4597,
      "æĽĿ": 4598,
      "irst": 4599,
      "mer": 4600,
      "èĥİ": 4601,
      "Ġadd": 4602,
      "ä¸Ģå®ļè¦ģ": 4603,
      "è´Łæĭħ": 4604,
      "å¤®è¡Į": 4605,
      "è´º": 4606,
      "éĺ²æŃ¢": 4607,
      "æĳ¸": 4608,
      "æľºæ¢°": 4609,
      "å¼Ģå¹ķ": 4610,
      "æĦŁåĪ°": 4611,
      "ç¼ºä¹ı": 4612,
      "ople": 4613,
      "ä½łä»¬": 4614,
      "åĽ¾ä¹¦": 4615,
      "æ¤įçī©": 4616,
      "åĮ»åŃ¦": 4617,
      "ä¸ĩåĲ¨": 4618,
      "å®ŀä½ĵ": 4619,
      "æ£ĭ": 4620,
      "çļĦåľ°æĸ¹": 4621,
      "ç¾İå¥½": 4622,
      "æ¸ħæ¥ļ": 4623,
      "ç¼ĸè¾ĳ": 4624,
      "ä¹Łå°Ĩ": 4625,
      "çºªå§Ķ": 4626,
      "éļ¾é¢ĺ": 4627,
      "çĹĩçĬ¶": 4628,
      "çļĦçĶŁæ´»": 4629,
      "å¯¼æ¼Ķ": 4630,
      "ful": 4631,
      "åĽ½å®¶çļĦ": 4632,
      "æ¬§çĽŁ": 4633,
      "çĲĨçĶ±": 4634,
      "æīĢè°ĵ": 4635,
      "ram": 4636,
      "æ°ı": 4637,
      "æµ©": 4638,
      "æ±¤": 4639,
      "anc": 4640,
      "å¾Īéļ¾": 4641,
      "è¯Ńè¨Ģ": 4642,
      "ĠThis": 4643,
      "ft": 4644,
      "å¥³æĢ§": 4645,
      "ä¸ľåĮĹ": 4646,
      "ç¦»å¼Ģ": 4647,
      "çĲĨæĥ³": 4648,
      "éĢĨ": 4649,
      "rent": 4650,
      "å½ĵå¹´": 4651,
      "èĪŀåı°": 4652,
      "ĠæĽ´å¤ļ": 4653,
      "è¡¥åģ¿": 4654,
      "57": 4655,
      "åĬ¨æĢģ": 4656,
      "è¿ĺåľ¨": 4657,
      "ç»´æĮģ": 4658,
      "é£ŀè¡Į": 4659,
      "æĶ¾åľ¨": 4660,
      "tern": 4661,
      "ä¸ĢæĹ¦": 4662,
      "æĪĲå°±": 4663,
      "åıĤè§Ĥ": 4664,
      "æ²ĥ": 4665,
      "41": 4666,
      "èİ·æĤī": 4667,
      "çļĦçĽ¸åħ³": 4668,
      "æĽ¹": 4669,
      "èĬ³": 4670,
      "äººç¾¤": 4671,
      "åģļæ³ķ": 4672,
      "end": 4673,
      "å¯¹åħ¶": 4674,
      "åĲĦä¸ª": 4675,
      "åįıåķĨ": 4676,
      "åĩºåıĳ": 4677,
      "åĳ¨å¹´": 4678,
      "ç§©": 4679,
      "ï¼īãĢģ": 4680,
      "éªĳ": 4681,
      "çŁ³æ²¹": 4682,
      "Ġher": 4683,
      "ä½¿å¾Ĺ": 4684,
      "clud": 4685,
      "éĶħ": 4686,
      "å·¥èīº": 4687,
      "å¸¦çĿĢ": 4688,
      "Ġbec": 4689,
      "åİŁæłĩé¢ĺ": 4690,
      "åıĻ": 4691,
      "åĪĳäºĭ": 4692,
      "ory": 4693,
      "å«Įçĸĳäºº": 4694,
      "ç§©åºı": 4695,
      "åĪ°ä½į": 4696,
      "åĩĢåĪ©æ¶¦": 4697,
      "itt": 4698,
      "æĨ": 4699,
      "æĪĲçĨŁ": 4700,
      "è®¤è¯ģ": 4701,
      "åĩłå¹´": 4702,
      "åĽ½éĺ²": 4703,
      "æİ¥åĪ°": 4704,
      "èĢĥçĶŁ": 4705,
      "ĠåĽĽ": 4706,
      "å·²æľī": 4707,
      "æĹ¶æĬ¥": 4708,
      "ä½ıå®ħ": 4709,
      "æħİ": 4710,
      "çŁŃæľŁ": 4711,
      "å¦Īå¦Ī": 4712,
      "æĢĿç»´": 4713,
      "çļĦä¸Ń": 4714,
      "éĥ½ä¸į": 4715,
      "æ³¡": 4716,
      "çī¹æľĹ": 4717,
      "èµ°åĩº": 4718,
      "ç»ıåħ¸": 4719,
      "å¹³è¡¡": 4720,
      "çĵľ": 4721,
      "åīĳ": 4722,
      "èĦı": 4723,
      "å¼ºçļĦ": 4724,
      "Ġbu": 4725,
      "çģŃ": 4726,
      "æĢ»çĲĨ": 4727,
      "èį¡": 4728,
      "ÃĹÃĹ": 4729,
      "67": 4730,
      "æ·ĺ": 4731,
      "å¥¹çļĦ": 4732,
      "æĢĿè·¯": 4733,
      "ä¸Ģæĸ¹éĿ¢": 4734,
      "åĽ½å¤ĸ": 4735,
      "ç»ĵç®Ĺ": 4736,
      "ç¼ĸåı·": 4737,
      "åħ¬äº¤": 4738,
      "åįģåħ«": 4739,
      "Ġuse": 4740,
      "çĶµæ±ł": 4741,
      "æİ¥å¾ħ": 4742,
      "æħ°": 4743,
      "phone": 4744,
      "âĢĵ": 4745,
      "å½Ń": 4746,
      "Ġserv": 4747,
      "åįģå¹´": 4748,
      "ĠæĿİ": 4749,
      "åĲĦåĽ½": 4750,
      "ä¸»è¦ģæĺ¯": 4751,
      "æĪĺäºī": 4752,
      "ç±»ä¼¼": 4753,
      "å¥ī": 4754,
      "èĻ«": 4755,
      "æ¿Ģåıĳ": 4756,
      "43": 4757,
      "è¶³çĲĥ": 4758,
      "çĥŃæĥħ": 4759,
      "ç»ĵå©ļ": 4760,
      "æļĳ": 4761,
      "ä¸ĭäºĨ": 4762,
      "æĥħå½¢": 4763,
      "çŃ¾çº¦": 4764,
      "Ġçİĭ": 4765,
      "åĪĿæŃ¥": 4766,
      "è¯¥åħ¬åı¸": 4767,
      "å¢ĥå¤ĸ": 4768,
      "åłµ": 4769,
      "æħĪ": 4770,
      "å°ĺ": 4771,
      "æ¸Ķ": 4772,
      "Ġco": 4773,
      "æ³ķå¾ĭæ³ķè§Ħ": 4774,
      "æįŁå®³": 4775,
      "ä¸ĵåĪ©": 4776,
      "æĸ¯åĿ¦": 4777,
      "æĭħå¿ĥ": 4778,
      "èĤ¡å¸Ĥ": 4779,
      "æ¦Ĥå¿µ": 4780,
      "Ġï¼ī": 4781,
      "åĨ¯": 4782,
      "æľ¬èº«": 4783,
      "åľ°åĮºçļĦ": 4784,
      "èħ¹": 4785,
      "å½°": 4786,
      "ãĢĶ": 4787,
      "ç¬¬åħŃ": 4788,
      "çĪ·": 4789,
      "å¿«éĢĴ": 4790,
      "å·©": 4791,
      "æĹ¶åĪ»": 4792,
      "ä¹¦éĿ¢": 4793,
      "ious": 4794,
      "åĪĹè½¦": 4795,
      "çĽĳæİ§": 4796,
      "éĶĢéĩı": 4797,
      "çī¹æľĹæĻ®": 4798,
      "çĽĳå¯Ł": 4799,
      "èĪªå¤©": 4800,
      "æĪªæŃ¢": 4801,
      "ãĢķ": 4802,
      "Ġprodu": 4803,
      "Ġå¼ł": 4804,
      "å°¿": 4805,
      "ä¸ľæĸ¹": 4806,
      "ä¸Ģç³»åĪĹ": 4807,
      "åĮ»ä¿Ŀ": 4808,
      "éļĶç¦»": 4809,
      "ä¹³": 4810,
      "èĢĲ": 4811,
      "åĪ¤æĸŃ": 4812,
      "åĩī": 4813,
      "çªģçĦ¶": 4814,
      "å¤§éĻĨ": 4815,
      "æĮº": 4816,
      "äººå·¥æĻºèĥ½": 4817,
      "ä¸»å¼ł": 4818,
      "èµ·äºĨ": 4819,
      "Ġmay": 4820,
      "å¼ĺ": 4821,
      "æłĭ": 4822,
      "æŁĲæŁĲ": 4823,
      "ä¸īå¤§": 4824,
      "è§Ħå®ļçļĦ": 4825,
      "ä¿Ŀåģ¥": 4826,
      "åĽŀå®¶": 4827,
      "åłĨ": 4828,
      "æĦĪ": 4829,
      "ä¸įåĲĮçļĦ": 4830,
      "åĪĨåŃĲ": 4831,
      "çłĶç©¶æīĢ": 4832,
      "æıĲåĩºäºĨ": 4833,
      "ä¼¼ä¹İ": 4834,
      "å°Ĩä¼ļ": 4835,
      "èĢĢ": 4836,
      "åħ¨å¹´": 4837,
      "æĽ´æĸ°": 4838,
      "59": 4839,
      "Ġtr": 4840,
      "éĩĬæĶ¾": 4841,
      "æŁ´": 4842,
      "éĺ³åħī": 4843,
      "ä¸Ģè¾¹": 4844,
      "å§ľ": 4845,
      "æĸĩæĹħ": 4846,
      "ä¸ĢåĪĩ": 4847,
      "å°½å¿«": 4848,
      "å¤§ä¼Ĺ": 4849,
      "éĢļä¿¡": 4850,
      "çºªå½ķ": 4851,
      "çł´åĿı": 4852,
      "Ġtw": 4853,
      "æ»´": 4854,
      "Ġæį®æĤī": 4855,
      "ãĢĭï¼ĮãĢĬ": 4856,
      "åİ¦éĹ¨": 4857,
      "è´Ńçī©": 4858,
      "Ġcol": 4859,
      "å¯¹æīĭ": 4860,
      "æĺİæĺŁ": 4861,
      "ç£¨": 4862,
      "600": 4863,
      "èĩªè§ī": 4864,
      "çŃīéĹ®é¢ĺ": 4865,
      "èĭ¹": 4866,
      "ç±»åŀĭ": 4867,
      "æłĳç«ĭ": 4868,
      "æĪĺæĸĹ": 4869,
      "ä¸Ģä»½": 4870,
      "å´ĩ": 4871,
      "ink": 4872,
      "å¸ĤåľºçĽĳç®¡": 4873,
      "åıįåºĶ": 4874,
      "ä¸ŃåŃ¦": 4875,
      "å¤ĩæ¡Ī": 4876,
      "Ġonly": 4877,
      "å¹¶éĿŀ": 4878,
      "æĭĸ": 4879,
      "æ¾³å¤§åĪ©äºļ": 4880,
      "è¯ĪéªĹ": 4881,
      "app": 4882,
      "ual": 4883,
      "äººåĬĽ": 4884,
      "ç¬¬ä¸Ģä¸ª": 4885,
      "ian": 4886,
      "æĹ¶çļĦ": 4887,
      "è¢ĭ": 4888,
      "å¯¼åĲĳ": 4889,
      "ç»©æķĪ": 4890,
      "åĲĦæĸ¹": 4891,
      "åĽŀåĪ°": 4892,
      "äºīè®®": 4893,
      "è¢«åĳĬäºº": 4894,
      "äº§éĩı": 4895,
      "æĸĮ": 4896,
      "å°ļæľª": 4897,
      "ç§ĳæĻ®": 4898,
      "è§Ĵèī²": 4899,
      "éķ¿çļĦ": 4900,
      "å°ĸ": 4901,
      "89": 4902,
      "å¹¿ä¸ľçľģ": 4903,
      "52": 4904,
      "æĲŃå»º": 4905,
      "ç´§æĢ¥": 4906,
      "åľ°éľĩ": 4907,
      "ä¹Łè¦ģ": 4908,
      "æľīæľº": 4909,
      "åı¯èĥ½ä¼ļ": 4910,
      "Ġpeople": 4911,
      "51": 4912,
      "æĺ¯ä¸ŃåĽ½": 4913,
      "é«ĺéĵģ": 4914,
      "éĩįåºĨå¸Ĥ": 4915,
      "èģĶåĲĪåĽ½": 4916,
      "å¾Īå¿«": 4917,
      "è¡Ķ": 4918,
      "ç²¤": 4919,
      "æĸĩèīº": 4920,
      "æľĢä½³": 4921,
      "æľįåĬ¡çļĦ": 4922,
      "Ġmost": 4923,
      "Ġph": 4924,
      "Ġï¼Į": 4925,
      "çİ°æľī": 4926,
      "æŁ±": 4927,
      "åĪļåĪļ": 4928,
      "éĶ¡": 4929,
      "åĪ°åºķ": 4930,
      "Ġcomm": 4931,
      "æ±Ĺ": 4932,
      "å·®å¼Ĥ": 4933,
      "ons": 4934,
      "ç«ĭæ³ķ": 4935,
      "è´¨çĸĳ": 4936,
      "je": 4937,
      "çĭ¬çī¹": 4938,
      "å¯»æī¾": 4939,
      "åħģè®¸": 4940,
      "ä¸įåŃĺåľ¨": 4941,
      "èµĽåŃ£": 4942,
      "è¸ı": 4943,
      "èĭ¹æŀľ": 4944,
      "hed": 4945,
      "ä»²": 4946,
      "86": 4947,
      "å®ª": 4948,
      "éĢ»": 4949,
      "åĮĸåŃ¦": 4950,
      "éĺŁçļĦ": 4951,
      "æ¯ģ": 4952,
      ").": 4953,
      "çļĦå¿ĥ": 4954,
      "éĥ½è¦ģ": 4955,
      "çļĦåŁºç¡Ģä¸Ĭ": 4956,
      "æģĭ": 4957,
      "æ¹ĺ": 4958,
      "ä¿®è®¢": 4959,
      "åĨħåľ°": 4960,
      "æķĪåºĶ": 4961,
      "ä¸¤äºº": 4962,
      "å±ķè§Ī": 4963,
      "ä¸Ģä½ĵåĮĸ": 4964,
      "3000": 4965,
      "éĩĳèŀįæľºæŀĦ": 4966,
      "èµļ": 4967,
      "äººçĶŁ": 4968,
      "ä¸Ĭæµ·å¸Ĥ": 4969,
      "ä¸ĭè·Į": 4970,
      "çĶ¨åľ°": 4971,
      "æŁ¥çľĭ": 4972,
      "Ġevery": 4973,
      "å©Ĩ": 4974,
      "åĿĬ": 4975,
      "å¼ºçĥĪ": 4976,
      "å®ŀéĻħä¸Ĭ": 4977,
      "èĢģå¹´äºº": 4978,
      "çĽĹ": 4979,
      "ç¦»å©ļ": 4980,
      "Ġno": 4981,
      "æ¸Ŀ": 4982,
      "åķĬ": 4983,
      "5000": 4984,
      "73": 4985,
      "æ¸ħçĲĨ": 4986,
      "ç¢°": 4987,
      "ĠèĢĮ": 4988,
      "æĪĲå¹´": 4989,
      "èµ°åĲĳ": 4990,
      "ä»ĸåľ¨": 4991,
      "çļĦåİĨåı²": 4992,
      "ä¸ŃåĽ½çī¹èī²ç¤¾ä¼ļä¸»ä¹ī": 4993,
      "ç´§å¼ł": 4994,
      "èģĬ": 4995,
      "åĨ»": 4996,
      "åĪĨåĪ«ä¸º": 4997,
      "å·¥åİĤ": 4998,
      "amp": 4999,
      "æĭĴç»Ŀ": 5000,
      "æĮĩå®ļ": 5001,
      "ä¿®æĶ¹": 5002,
      "åģ¥èº«": 5003,
      "èį¯çī©": 5004,
      "éĺĶ": 5005,
      "çŃīæĸ¹å¼ı": 5006,
      "æ¬¡ä¼ļè®®": 5007,
      "çļĦè¡Įä¸º": 5008,
      "æĹº": 5009,
      "ç®¡æİ§": 5010,
      "éģĵå¾·": 5011,
      "èĲ¥åķĨ": 5012,
      "æĢĿèĢĥ": 5013,
      "åıĤä¸İäºĴåĬ¨": 5014,
      "å¥ı": 5015,
      "æ©": 5016,
      "å¾ªçİ¯": 5017,
      "æľīæľĽ": 5018,
      "åŃ¦èĢħ": 5019,
      "ä»ĬåĲİ": 5020,
      "è¯ģåĪ¸äº¤æĺĵæīĢ": 5021,
      "Ġwell": 5022,
      "Ġthrough": 5023,
      "å¼Ģå·¥": 5024,
      "å¤ĸåĽ½": 5025,
      "Ġind": 5026,
      "èĵĦ": 5027,
      "Ġbl": 5028,
      "åº§è°Ī": 5029,
      "æıĲä¾ĽçļĦ": 5030,
      "Ġ2019": 5031,
      "ä¸Ńåħ±": 5032,
      "é«ĺèĢĥ": 5033,
      "Ġcons": 5034,
      "æĳĩ": 5035,
      "éĩĩè®¿æĹ¶": 5036,
      "æĶ¾å¼ĥ": 5037,
      "ause": 5038,
      "ç¨»": 5039,
      "è°±": 5040,
      "åľ¨åĮĹäº¬": 5041,
      "æķĻç»ĥ": 5042,
      "æĹħè¡Į": 5043,
      "èħ¿": 5044,
      "éŃĤ": 5045,
      "éĩįç»Ħ": 5046,
      "è¯ģçĽĳä¼ļ": 5047,
      "åŃĲåħ¬åı¸": 5048,
      "åį³ä½¿": 5049,
      "èĦ±è´«æĶ»åĿļ": 5050,
      "äºīåıĸ": 5051,
      "èº«è¾¹": 5052,
      "ç§»æ°ĳ": 5053,
      "æĺ¯ä¸Ģç§į": 5054,
      "fect": 5055,
      "76": 5056,
      "èĻļåģĩ": 5057,
      "éĺ²æĬ¤": 5058,
      "åįļå£«": 5059,
      "å¦»åŃĲ": 5060,
      "Ľèµ·": 5061,
      "æĸ°æĬĢæľ¯": 5062,
      "ä»¿": 5063,
      "åıĳçĶµ": 5064,
      "åĮĸè§£": 5065,
      "åĨħèĴĻåı¤": 5066,
      "åıĹä¼¤": 5067,
      "åĩºç§Ł": 5068,
      "è¾Ī": 5069,
      "èµ°è®¿": 5070,
      "ä¸įä¹ħ": 5071,
      "ices": 5072,
      "æ®µæĹ¶éĹ´": 5073,
      "çľŁçļĦ": 5074,
      "cn": 5075,
      "èĭ±éĽĦ": 5076,
      "æĪĴ": 5077,
      "æĢ»è£ģ": 5078,
      "æ¼Ĥ": 5079,
      "è¶ħå¸Ĥ": 5080,
      "åī¯ä¹¦è®°": 5081,
      "æĽ´å¥½åľ°": 5082,
      "å¤§å¤ļæķ°": 5083,
      "hen": 5084,
      "çĽ¸åħ³è´Łè´£äºº": 5085,
      "æ°Ķæ¸©": 5086,
      "çĶĺèĤĥ": 5087,
      "ç»´ä¿®": 5088,
      "æĥ©": 5089,
      "åĪĨä¸º": 5090,
      "åħ±å»º": 5091,
      "è¯¢éĹ®": 5092,
      "çĲĨè´¢": 5093,
      "è§£éĻ¤": 5094,
      "åľ¨æŃ¤": 5095,
      "æľ¬äºº": 5096,
      "çªĹåı£": 5097,
      "æĻ¶": 5098,
      "æĬķæłĩäºº": 5099,
      "å§ļ": 5100,
      "è¦ģç´ł": 5101,
      "çļĦäºĭ": 5102,
      "ä¸įå¤Ł": 5103,
      "åĪĨå¸ĥ": 5104,
      "äºĳåįĹ": 5105,
      "round": 5106,
      "ates": 5107,
      "çİĽ": 5108,
      "Ġund": 5109,
      "53": 5110,
      "çļĦå¸Ĥåľº": 5111,
      "ating": 5112,
      "åħļä¸Ńå¤®": 5113,
      "è´§çī©": 5114,
      "ä¸´åºĬ": 5115,
      "çĻ¾ä¸ĩ": 5116,
      "èĲ¥åķĨçİ¯å¢ĥ": 5117,
      "ä¸Ĭå¹´": 5118,
      "ä½ľé£İ": 5119,
      "æıĲç¤º": 5120,
      "Ġinclud": 5121,
      "åį³åı¯": 5122,
      "åĮ¹": 5123,
      "å®¶éĩĮ": 5124,
      "æ¡Į": 5125,
      "æľįåĬ¡ä¸ļ": 5126,
      "åĵªäºĽ": 5127,
      "è¥¿æĸ¹": 5128,
      "ç¦ģæŃ¢": 5129,
      "è£Ĥ": 5130,
      "ç½©": 5131,
      "Ġbet": 5132,
      "åł¡": 5133,
      "æĻļä¸Ĭ": 5134,
      "åĨ²åĩ»": 5135,
      "ä»£çĲĨäºº": 5136,
      "å®ŀéªĮå®¤": 5137,
      "è£ķ": 5138,
      "èĬĤèĥ½": 5139,
      "ade": 5140,
      "é«ĺè¾¾": 5141,
      "çºªå¾ĭ": 5142,
      "ä¼Łå¤§": 5143,
      "éĻĨç»Ń": 5144,
      "åħĳ": 5145,
      "åĮĹäº¬æĹ¶éĹ´": 5146,
      "ç«ŀäºīåĬĽ": 5147,
      "Ġfirst": 5148,
      "èŃ¦å¯Ł": 5149,
      "è¿ĲåĬ¨åĳĺ": 5150,
      "ä¸Ńåįİæ°ĳæĹı": 5151,
      "è¾½å®ģ": 5152,
      "les": 5153,
      "åĲĪè®¡": 5154,
      "å¥ĸåĬ±": 5155,
      "æī¶æĮģ": 5156,
      "87": 5157,
      "æĹ¥æľŁ": 5158,
      "ç¡ķ": 5159,
      "è¿Ļä½į": 5160,
      "åĽŀè´Ń": 5161,
      "åıĺæĽ´": 5162,
      "èĥľåĪ©": 5163,
      "ç§°ä¸º": 5164,
      "æ¡Ĩ": 5165,
      "æĢ»éĩı": 5166,
      "ily": 5167,
      "ä»ĸäºº": 5168,
      "æ·®": 5169,
      "æĢ»å±Ģ": 5170,
      "é¦Ī": 5171,
      "è´¢å¯Į": 5172,
      "Ġra": 5173,
      "æ¯ħ": 5174,
      "è¿Ľç¨ĭ": 5175,
      "è°ĥæİ§": 5176,
      "æīĭæľ¯": 5177,
      "æ¶¨å¹ħ": 5178,
      "ä¸ŃåĽ½ç»ıæµİ": 5179,
      "ä¿®å¤į": 5180,
      "éĢĤåĲĪ": 5181,
      "ä¸İæŃ¤": 5182,
      "oth": 5183,
      "we": 5184,
      "çĿ£ä¿ĥ": 5185,
      "ĠHe": 5186,
      "ä¸Ńå°ıä¼ģä¸ļ": 5187,
      "çĤŃ": 5188,
      "é«ĺäºİ": 5189,
      "èĪĨ": 5190,
      "çĽĪåĪ©": 5191,
      "æł¡éķ¿": 5192,
      "95": 5193,
      "ise": 5194,
      "æ£ļ": 5195,
      "ä¸»ç®¡éĥ¨éĹ¨": 5196,
      "çİĩåħĪ": 5197,
      "åŃ©åŃĲä»¬": 5198,
      "å°±è¦ģ": 5199,
      "xt": 5200,
      "çļĦä¸»": 5201,
      "çļĦå¥½": 5202,
      "çĶ¨è½¦": 5203,
      "æĤ¬": 5204,
      "è®¿éĹ®": 5205,
      "å¹¼åĦ¿åĽŃ": 5206,
      "åıĺå¾Ĺ": 5207,
      "ĠâĢĵ": 5208,
      "ä¹ĥ": 5209,
      "åħ¨åĮº": 5210,
      "ä¼ļæľī": 5211,
      "é©±åĬ¨": 5212,
      "æ¬²": 5213,
      "å¦ĩå¥³": 5214,
      "æ´¾åĩºæīĢ": 5215,
      "Th": 5216,
      "å¤ļåĲį": 5217,
      "èģĮåĬ¡": 5218,
      "å¹´è½»äºº": 5219,
      "çī¹å¾ģ": 5220,
      "é¾Ļå¤´": 5221,
      "Ġact": 5222,
      "åľ°éĵģ": 5223,
      "Ġ15": 5224,
      "ä¸ºæŃ¤": 5225,
      "èĤł": 5226,
      "åĮĹéĥ¨": 5227,
      "é£İæł¼": 5228,
      "Ġthese": 5229,
      "å°±æľī": 5230,
      "åİŁæĿ¥": 5231,
      "æĸ¹ä½į": 5232,
      "åįĹéĥ¨": 5233,
      "å¹¶æľª": 5234,
      "å¨ľ": 5235,
      "ities": 5236,
      "æĪ¿åŃĲ": 5237,
      "æĹ¶å°ļ": 5238,
      "ç»Ĩèĥŀ": 5239,
      "Ġwant": 5240,
      "èī³": 5241,
      "å½±è§Ĩ": 5242,
      "è¯ĳ": 5243,
      "åľ¨è¿Ļ": 5244,
      "æĭ¨æ¬¾": 5245,
      "æĹ±": 5246,
      "éķ¿æ²Ļ": 5247,
      "ject": 5248,
      "Ġä½ľä¸º": 5249,
      "èĤ¤": 5250,
      "éĹ¹": 5251,
      "æĸĩåĮĸçļĦ": 5252,
      "iness": 5253,
      "å¤©çļĦ": 5254,
      "å¸¸å§Ķ": 5255,
      "åĲĮæŃ¥": 5256,
      "Ġem": 5257,
      "æ°¸è¿ľ": 5258,
      "å°Ĭéĩį": 5259,
      "ç¦ıåĪ©": 5260,
      "åįģä¹Ŀ": 5261,
      "çĥŃçĤ¹": 5262,
      "æīĵå¼Ģ": 5263,
      "å®ŀåľ°": 5264,
      "å£°éŁ³": 5265,
      "çļĦäº§åĵģ": 5266,
      "åħ¨æ°ĳ": 5267,
      "åĮħè£ħ": 5268,
      "è°ĪåĪ¤": 5269,
      "77": 5270,
      "ç®¡çĲĨåĬŀæ³ķ": 5271,
      "éĿĴæĺ¥": 5272,
      "åĩĮæĻ¨": 5273,
      "ç½ĳçº¢": 5274,
      "æ¢¦æĥ³": 5275,
      "ec": 5276,
      "ä¾ĭå¦Ĥ": 5277,
      "æľºåĻ¨äºº": 5278,
      "é«ĺå³°": 5279,
      "å°±åı¯ä»¥": 5280,
      "ĠYou": 5281,
      "å®ł": 5282,
      "éĽķ": 5283,
      "åŃĺæ¬¾": 5284,
      "çĭĤ": 5285,
      "äººåĿĩ": 5286,
      "åİ¨": 5287,
      "çĶµåĬ¨": 5288,
      "æģ°": 5289,
      "å³¡": 5290,
      "ç¿Ķ": 5291,
      "ç¼´çº³": 5292,
      "ä¸ĭè½½": 5293,
      "å±ĢéĿ¢": 5294,
      "å±±å¸Ĥ": 5295,
      "éģŃéģĩ": 5296,
      "åĿĿ": 5297,
      "Ġæľ¬æ¬¡": 5298,
      "Ġdif": 5299,
      "ä¸ĭä¸Ģ": 5300,
      "ä¹Łå°±æĺ¯": 5301,
      "å®ĥä»¬": 5302,
      "ä»Ķ": 5303,
      "åĬłæĭ¿": 5304,
      "é¦ĸéĥ½": 5305,
      "Ġexper": 5306,
      "äºĭåĬ¡æīĢ": 5307,
      "å¸ħ": 5308,
      "lect": 5309,
      "æľ¬åľ°": 5310,
      "ç»ĦåĲĪ": 5311,
      "å¡ĺ": 5312,
      "åĩºçİ°äºĨ": 5313,
      "98": 5314,
      "bs": 5315,
      "å·¥äºº": 5316,
      "68": 5317,
      "led": 5318,
      "é¡¹çĽ®å»ºè®¾": 5319,
      "æĭĺ": 5320,
      "å°Ĩç»§ç»Ń": 5321,
      "ä¿¡è´·": 5322,
      "è¾ĥä¸º": 5323,
      "ä¹ĺå®¢": 5324,
      "ç´«": 5325,
      "æİ¥è¿ĳ": 5326,
      "çĽ¸ç»ĵåĲĪ": 5327,
      "ict": 5328,
      "æłĩåĩĨåĮĸ": 5329,
      "Ġmany": 5330,
      "ç¢ĳ": 5331,
      "ä»½é¢Ŀ": 5332,
      "å®ıè§Ĥ": 5333,
      "åħļç»Ħç»ĩ": 5334,
      "çģ°": 5335,
      "çļĦéĢļçŁ¥": 5336,
      "çĲ´": 5337,
      "ç¾İæľ¯": 5338,
      "fore": 5339,
      "æĭĶ": 5340,
      "æŁ¥å¤Ħ": 5341,
      "èĥģ": 5342,
      "Ġreg": 5343,
      "åĤħ": 5344,
      "Ġunder": 5345,
      "éĽ¾": 5346,
      "day": 5347,
      "åīįæľŁ": 5348,
      "åĲĪä½ľç¤¾": 5349,
      "å¤§éĺŁ": 5350,
      "å®ĥçļĦ": 5351,
      "Ġsee": 5352,
      "æķĮ": 5353,
      "å¢ĵ": 5354,
      "éªĮæĶ¶": 5355,
      "âĢĻï¼Į": 5356,
      "ç¤¾äº¤": 5357,
      "æĶ¶éĽĨ": 5358,
      "æĽĿåħī": 5359,
      "æĹ¬": 5360,
      "åľ°ä¸ĭ": 5361,
      "æĻ®åıĬ": 5362,
      "å½¢æĪĲäºĨ": 5363,
      "åħĦ": 5364,
      "æ¶Į": 5365,
      "ä¸Ī": 5366,
      "å¾ĹåĪ°äºĨ": 5367,
      "Ġfl": 5368,
      "ä¸įèī¯": 5369,
      "Ġ2018": 5370,
      "æĮĸæİĺ": 5371,
      "ä¼Ĳ": 5372,
      "å¹´ä»¥æĿ¥": 5373,
      "åģ·": 5374,
      "æĭĽçĶŁ": 5375,
      "ä¹Łåı¯ä»¥": 5376,
      "ract": 5377,
      "cess": 5378,
      "åī²": 5379,
      "å¼ºåĪ¶": 5380,
      "als": 5381,
      "ä¼łéĢĴ": 5382,
      "çİ¯æ¯Ķ": 5383,
      "åįıåĬ©": 5384,
      "å¯¹è¯Ŀ": 5385,
      "ange": 5386,
      "åĲĪä¼Ļ": 5387,
      "é¢Ħæ¡Ī": 5388,
      "åĨħå¤ĸ": 5389,
      "æł¸éħ¸": 5390,
      "ments": 5391,
      "åĬ¨ä½ľ": 5392,
      "åįĵ": 5393,
      "å¯º": 5394,
      "ä¸īè§Ĵ": 5395,
      "çģ«ç®Ń": 5396,
      "æŃ¦åĻ¨": 5397,
      "æĢ§èĥ½": 5398,
      "åįıä½ľ": 5399,
      "å¿½": 5400,
      "èįĴ": 5401,
      "åĽ½å®¶çº§": 5402,
      "æĸ°åĨłèĤºçĤİ": 5403,
      "çĶ¨çĶµ": 5404,
      "åħ´è¶£": 5405,
      "æĽ´å¤§": 5406,
      "ç»ıæµİå¢ŀéķ¿": 5407,
      "èµ¢å¾Ĺ": 5408,
      "ï½": 5409,
      "åĨľæĪ·": 5410,
      "åİī": 5411,
      "çĽ¸åħ³çļĦ": 5412,
      "å®¡è®®éĢļè¿ĩ": 5413,
      "å·©åĽº": 5414,
      "ä¼ĳéĹ²": 5415,
      "ç»Ħå»º": 5416,
      "éħ¬": 5417,
      "78": 5418,
      "å¤ªéĺ³": 5419,
      "æĢģåĬ¿": 5420,
      "Ġrep": 5421,
      "å±ĤéĿ¢": 5422,
      "120": 5423,
      "åħĥçļĦ": 5424,
      "ty": 5425,
      "é¦ĸå¸Ń": 5426,
      "åıĤèµĽ": 5427,
      "åĨĽäºº": 5428,
      "çĮĽ": 5429,
      "54": 5430,
      "å¹¶ä¸įæĺ¯": 5431,
      "æ³³": 5432,
      "è·¯çº¿": 5433,
      "è¯Ħå®¡": 5434,
      "åŃ©åŃĲçļĦ": 5435,
      "enc": 5436,
      "åĽ¢ä½ĵ": 5437,
      "ä½łçļĦ": 5438,
      "åĪĽæĦı": 5439,
      "æľ¬ç½ĳ": 5440,
      "æĻ°": 5441,
      "å¨ĺ": 5442,
      "é¸£": 5443,
      "åĹ": 5444,
      "å·¥ä½ľä¸Ń": 5445,
      "Ġvery": 5446,
      "ife": 5447,
      "erson": 5448,
      "iew": 5449,
      "å¹»": 5450,
      "72": 5451,
      "Ġsy": 5452,
      "ç«ĭæ¡Ī": 5453,
      "ä½Ĩåľ¨": 5454,
      "èĤĿ": 5455,
      "çº¿ç´¢": 5456,
      "åħ¬åħ±æľįåĬ¡": 5457,
      "æĿ¥äºĨ": 5458,
      "çī¹å®ļ": 5459,
      "äº¤èŃ¦": 5460,
      "çļĦä½ľçĶ¨": 5461,
      "æľīåı¯èĥ½": 5462,
      "çĻ¾å¹´": 5463,
      "ç»ĨèĬĤ": 5464,
      "Ġsupp": 5465,
      "ont": 5466,
      "uch": 5467,
      "æī§è¡Įäºº": 5468,
      "è®¢åįķ": 5469,
      "äººå¤§å¸¸å§Ķä¼ļ": 5470,
      "å¼ĢéĢļ": 5471,
      "æĢª": 5472,
      "åıĸå¾ĹäºĨ": 5473,
      "è°¨": 5474,
      "å®ĺåħµ": 5475,
      "lephone": 5476,
      "Ġgreat": 5477,
      "éļıæĹ¶": 5478,
      "å¸¸åĬ¡": 5479,
      "éŀĭ": 5480,
      "åľ°è¯´": 5481,
      "å®īç½®": 5482,
      "éľį": 5483,
      "æ¯ıæľĪ": 5484,
      "èµ«": 5485,
      "æĸ°å»º": 5486,
      "åĪĨå±Ģ": 5487,
      "èŁ": 5488,
      "å¥³åŃ©": 5489,
      "åĬłæĭ¿å¤§": 5490,
      "é¢ĩ": 5491,
      "èµĦè´¨": 5492,
      "Ġbus": 5493,
      "æµĻæ±Łçľģ": 5494,
      "è¡°": 5495,
      "å¯¨": 5496,
      "alth": 5497,
      "æ²³åįĹçľģ": 5498,
      "åĲīæŀĹ": 5499,
      "åħ¬æ°ĳ": 5500,
      "å¥¥è¿Ĳä¼ļ": 5501,
      "å½±çīĩ": 5502,
      "åľ¨åħ¨åĽ½": 5503,
      "å´Ľèµ·": 5504,
      "åģļäºĨ": 5505,
      "åĪ«äºº": 5506,
      "åıĳåĬ¨æľº": 5507,
      "Ġway": 5508,
      "æ¸ħæ´ģ": 5509,
      "Ġtwo": 5510,
      "ts": 5511,
      "Ġeven": 5512,
      "é¥¼": 5513,
      "æĻĴ": 5514,
      "æµģéĢļ": 5515,
      "ä¸İæŃ¤åĲĮæĹ¶": 5516,
      "çĶľ": 5517,
      "ä¸įäºĨ": 5518,
      "æī¿åĮħ": 5519,
      "ä»¥ä¸ĬçļĦ": 5520,
      "è·¨å¢ĥ": 5521,
      "è§£æĶ¾": 5522,
      "Ġ2023": 5523,
      "çģĮ": 5524,
      "åĽŀæĶ¶": 5525,
      "'t": 5526,
      "çłĸ": 5527,
      "çĭĹ": 5528,
      "æĪ¿äº§": 5529,
      "row": 5530,
      "çĵ·": 5531,
      "ä¸ĭæ»ĳ": 5532,
      "ä»£çłģ": 5533,
      "å¢ŀæĶ¶": 5534,
      "any": 5535,
      "çļĦæĸĩåĮĸ": 5536,
      "å·¥ä¼ļ": 5537,
      "æŁľ": 5538,
      "å¼ĢåıĳåĮº": 5539,
      "ç¥ĸåĽ½": 5540,
      "åĲİç»Ń": 5541,
      "åĪĹåħ¥": 5542,
      "èµ·è¯ī": 5543,
      "çĪ±å¿ĥ": 5544,
      "çĶµä¿¡": 5545,
      "å®¡åĪ¤": 5546,
      "åĬłå¼ºå¯¹": 5547,
      "ä»£è¡¨äºº": 5548,
      "é¾Ļæ±Ł": 5549,
      "éŃħ": 5550,
      "----": 5551,
      "èģĶèµĽ": 5552,
      "è´ŃæĪ¿": 5553,
      "ible": 5554,
      "Ġshe": 5555,
      "æİ¨è¡Į": 5556,
      "çŃĸçķ¥": 5557,
      "Ġback": 5558,
      "Ġrel": 5559,
      "æ±¡æ°´": 5560,
      "å¸Ĥçº§": 5561,
      "ç«ĭè¶³": 5562,
      "å¨ģèĥģ": 5563,
      "æĪĳçľģ": 5564,
      "Ġins": 5565,
      "æ´»åĬ¨çļĦ": 5566,
      "ä¼ļåĳĺ": 5567,
      "åĪĨåħ¬åı¸": 5568,
      "Ġgood": 5569,
      "åĩĿèģļ": 5570,
      "èĢģçĻ¾å§ĵ": 5571,
      "åħ¬å®īæľºåħ³": 5572,
      "åħļåĳĺå¹²éĥ¨": 5573,
      "é£Łçī©": 5574,
      "Ġshould": 5575,
      "åįģäºĶ": 5576,
      "éĺ²æ±Ľ": 5577,
      "å»¶éķ¿": 5578,
      "åħ¨æĸ¹ä½į": 5579,
      "åŃ¦ä¼ļ": 5580,
      "éĤ£ä¸ª": 5581,
      "è¿Ŀçº¦": 5582,
      "èĨľ": 5583,
      "åķĨå®¶": 5584,
      "åľ°åĿĢ": 5585,
      "éĢļè®¯": 5586,
      "è¯´æ³ķ": 5587,
      "è§£è¯»": 5588,
      "éĺ²çĸ«": 5589,
      "åĨ²çªģ": 5590,
      "åıĳè¾¾": 5591,
      "å·¡è§Ĩ": 5592,
      "get": 5593,
      "ä¸Ńæľī": 5594,
      "telephone": 5595,
      "ç¼ĵè§£": 5596,
      "èĩ³äºİ": 5597,
      "ä¸ºä½ķ": 5598,
      "æ½ĺ": 5599,
      "çļĦç¤¾ä¼ļ": 5600,
      "å¤ļæł·": 5601,
      "çļĦè®®æ¡Ī": 5602,
      "èĬ¯": 5603,
      "åģľæŃ¢": 5604,
      "èĴĤ": 5605,
      "äºĭå®ŀä¸Ĭ": 5606,
      "ä¸įå¥½": 5607,
      "æĤ¦": 5608,
      "æľ¬å±Ĭ": 5609,
      "ç²¾åĵģ": 5610,
      "è¡Įä¸ļçļĦ": 5611,
      "2007": 5612,
      "åıĳå¸ĥä¼ļ": 5613,
      "ific": 5614,
      "è®°è½½": 5615,
      "æıĴ": 5616,
      "ä¸ĭåİ»": 5617,
      "æĦıå¤ĸ": 5618,
      "éĹ¨åı£": 5619,
      "èĪŁ": 5620,
      "èĻ¹": 5621,
      "åĴĮåħ¶ä»ĸ": 5622,
      "è½¦çļĦ": 5623,
      "ai": 5624,
      "éĩĳå±ŀ": 5625,
      "ãĢĭãĢģãĢĬ": 5626,
      "æĺİå¹´": 5627,
      "è¯ļä¿¡": 5628,
      "ss": 5629,
      "è¯ŀ": 5630,
      "ä¸ļä¸»": 5631,
      "ä½ľå®¶": 5632,
      "åįģä¸Ģ": 5633,
      "èĥĮåĲİ": 5634,
      "åĪºæ¿Ģ": 5635,
      "æľŁè´§": 5636,
      "èĥĢ": 5637,
      "150": 5638,
      "Ġac": 5639,
      "åĬ¨åĳĺ": 5640,
      "æĽ´æľī": 5641,
      "éļľç¢į": 5642,
      "å·®è·Ŀ": 5643,
      "çĤī": 5644,
      "åĪĻæĺ¯": 5645,
      "ç¾İé£Ł": 5646,
      "ä¸Ģå®¡": 5647,
      "79": 5648,
      "çļĦåİŁåĽł": 5649,
      "ä¸ĩäº©": 5650,
      "äººæ¬¡": 5651,
      "çĶ¨çļĦ": 5652,
      "å¹³ç¨³": 5653,
      "åĲĦèĩª": 5654,
      "aèĤ¡": 5655,
      "Ġ20": 5656,
      "é©°": 5657,
      "ä¸Ĭçº¿": 5658,
      "æŁ³": 5659,
      "ting": 5660,
      "å»Ĭ": 5661,
      "æĹĭ": 5662,
      "ä¸Ńèį¯": 5663,
      "èĮĤ": 5664,
      "ç§ĺä¹¦éķ¿": 5665,
      "ç³ķ": 5666,
      "oss": 5667,
      "éĥĳå·ŀ": 5668,
      "åĵĪå°Ķ": 5669,
      "èĥ½åĲ¦": 5670,
      "èĦĤ": 5671,
      "æĿ¡ä»¶çļĦ": 5672,
      "ä¿±ä¹Ĳ": 5673,
      "Ġcould": 5674,
      "æ¸©åº¦": 5675,
      "åĲĪæ³ķæĿĥçĽĬ": 5676,
      "ä¼ļéķ¿": 5677,
      "ä¹Łæ²¡æľī": 5678,
      "Ġinv": 5679,
      "ä¸Ńæĸ¹": 5680,
      "åıįé¦Ī": 5681,
      "å°Ŀè¯ķ": 5682,
      "Ġke": 5683,
      "èĢģæĿ¿": 5684,
      "è´¢ç»ı": 5685,
      "åį«æĺŁ": 5686,
      "ç»Ŀå¯¹": 5687,
      "ä¸įåĬ¨": 5688,
      "æĳĬ": 5689,
      "Ġyears": 5690,
      "è¿ĺä¼ļ": 5691,
      "åĲ¬åıĸ": 5692,
      "éŃı": 5693,
      "æĪªèĩ³çĽ®åīį": 5694,
      "æĺ¯ä¸ª": 5695,
      "æľªç»ı": 5696,
      "æľīä¸Ģä¸ª": 5697,
      "çĲĨäºĭ": 5698,
      "åħļæĶ¯éĥ¨": 5699,
      "__": 5700,
      "è´¤": 5701,
      "Ġbest": 5702,
      "ew": 5703,
      "ä¸įè¶ħè¿ĩ": 5704,
      "é¢ĸ": 5705,
      "èİ²": 5706,
      "éĦ": 5707,
      "ä¸ľéĥ¨": 5708,
      "çļĦåħ³éĶ®": 5709,
      "äººä¸º": 5710,
      "å¦¥": 5711,
      "ç¡®è¯Ĭ": 5712,
      "åıĺæĪĲ": 5713,
      "ä¿±ä¹Ĳéĥ¨": 5714,
      "çĶµèĦĳ": 5715,
      "å½ĵæĹ¥": 5716,
      "åĲĦéĥ¨éĹ¨": 5717,
      "æİ¥ç§į": 5718,
      "äº¤éĢļè¿Ĳè¾ĵ": 5719,
      "æ±Łèĭıçľģ": 5720,
      "ä¸ĩä½Ļ": 5721,
      "æīĢå¾Ĺ": 5722,
      "è·¨è¶Ĭ": 5723,
      "69": 5724,
      "its": 5725,
      "ä¸¤æ¬¡": 5726,
      "è¥¿èĹı": 5727,
      "ool": 5728,
      "åĸ·": 5729,
      "ility": 5730,
      "åĬ£": 5731,
      "iss": 5732,
      "Ġspec": 5733,
      "åŃŁ": 5734,
      "æ»ĭ": 5735,
      "åĮħåĲ«": 5736,
      "åľ¨ä¸Ģèµ·": 5737,
      "ä¹ĭä¸Ń": 5738,
      "ience": 5739,
      "âĢĿï¼Ī": 5740,
      "å½ĵä¸Ń": 5741,
      "è¿ŀæİ¥": 5742,
      "å®´": 5743,
      "æĹ¥çĽĬ": 5744,
      "å¿ĥçļĦ": 5745,
      "èº«ä¸Ĭ": 5746,
      "800": 5747,
      "Ġrem": 5748,
      "å°±åĥı": 5749,
      "åĳĬçŁ¥": 5750,
      "å°ĳæķ°": 5751,
      "ä¸ŃåĽ½äººæ°ĳ": 5752,
      "æĹłçĸĳ": 5753,
      "æľīåħ³è§Ħå®ļ": 5754,
      "èģļéĽĨ": 5755,
      "ç«ŀèµĽ": 5756,
      "èĴĭ": 5757,
      "è¯¦è§ģ": 5758,
      "åĬĿ": 5759,
      "çķľ": 5760,
      "æıĲåĪ°": 5761,
      "åĲįä¸º": 5762,
      "çĨĬçĮ«": 5763,
      "åĤ¬": 5764,
      "åĽĽå·Ŀçľģ": 5765,
      "å¤§åĪ©": 5766,
      "èħ°": 5767,
      "Ġä¼ļè®®": 5768,
      "çĶŁæķĪ": 5769,
      "Ġinst": 5770,
      "Ġloc": 5771,
      "æľīæķĪçļĦ": 5772,
      "84": 5773,
      "æĶ¶èİ·": 5774,
      "èĥĥ": 5775,
      "è§Ĥå¿µ": 5776,
      "æ¯ıä¸Ģä¸ª": 5777,
      "æĳĦå½±": 5778,
      "å¼Ĥè®®": 5779,
      "io": 5780,
      "çļĦçĽ®æłĩ": 5781,
      "63": 5782,
      "åħ¬æĸ¤": 5783,
      "æĹ¥åŃĲ": 5784,
      "çŃīå¤ļ": 5785,
      "å¸ĪèĮĥ": 5786,
      "elf": 5787,
      "64": 5788,
      "å°ıçļĦ": 5789,
      "å®¢è§Ĥ": 5790,
      "ä»Ļ": 5791,
      "å°Ĩåħ¶": 5792,
      "ç®¡çĲĨå±Ģ": 5793,
      "æĬĳ": 5794,
      "å·¨å¤§çļĦ": 5795,
      "çĶŁçļĦ": 5796,
      "çĶŁæ´»çļĦ": 5797,
      "å¼ĺæī¬": 5798,
      "Ġcar": 5799,
      "Ġinc": 5800,
      "Ġstud": 5801,
      "ï½ŀ": 5802,
      "ä¸Ĭä¸Ģ": 5803,
      "åŃĲå¥³": 5804,
      "Ġthen": 5805,
      "æł¸æŁ¥": 5806,
      "æ··åĲĪ": 5807,
      "å¹´åĨħ": 5808,
      "éĹª": 5809,
      "è·¯å¾Ħ": 5810,
      "ç¬¬ä¸ĢæĹ¶éĹ´": 5811,
      "Ġass": 5812,
      "ç½ļæ¬¾": 5813,
      "Ġ2020": 5814,
      "æ½ľåĬĽ": 5815,
      "æľ¬åľŁ": 5816,
      "æĿĥåĬĽ": 5817,
      "ç»ĨåĮĸ": 5818,
      "Ġ2016": 5819,
      "æĭįåįĸ": 5820,
      "çªģåıĳ": 5821,
      "åŃ¤": 5822,
      "å¾¡": 5823,
      "æŀ¢": 5824,
      "åĲĪèĤ¥": 5825,
      "ç§¯ç´¯": 5826,
      "eth": 5827,
      "ä¿¡åı·": 5828,
      "é¸¿": 5829,
      "pect": 5830,
      "è¿Ļä¹Łæĺ¯": 5831,
      "åĪĨè¡Į": 5832,
      "è·µè¡Į": 5833,
      "çļĦåİŁåĪĻ": 5834,
      "åľ¨åĨħçļĦ": 5835,
      "æ³ķå®ĺ": 5836,
      "æŁı": 5837,
      "è¡·": 5838,
      "æĬļ": 5839,
      "é«ĺåº¦éĩįè§Ĩ": 5840,
      "å»·": 5841,
      "çŃīçº§": 5842,
      "è°Ĭ": 5843,
      "ĠäºĶ": 5844,
      "è¾°": 5845,
      "Ġfind": 5846,
      "éĨī": 5847,
      "åĲĲ": 5848,
      "è¢ģ": 5849,
      "çĿ£å¯¼": 5850,
      "ular": 5851,
      "å°º": 5852,
      "åĽŀçŃĶ": 5853,
      "urn": 5854,
      "é¢Ĩå¯¼å°ıç»Ħ": 5855,
      "æĹłè®ºæĺ¯": 5856,
      "çļĦäºĭæĥħ": 5857,
      "æıĲèµ·": 5858,
      "éħįå¤ĩ": 5859,
      "å»¶ä¼¸": 5860,
      "å½ĵåľ°æĹ¶éĹ´": 5861,
      "è¿Ŀæ³ķè¡Įä¸º": 5862,
      "åħ¶å®ĥ": 5863,
      "ç«Ļåľ¨": 5864,
      "åħĥç´ł": 5865,
      "åĪ¶åĵģ": 5866,
      "äº¬ä¸ľ": 5867,
      "Ġev": 5868,
      "æĸ°èĥ½æºĲæ±½è½¦": 5869,
      "çĽ¸åºĶçļĦ": 5870,
      "éĥİ": 5871,
      "æ¡ĳ": 5872,
      "ä¿¡æģ¯æĬ«éľ²": 5873,
      "èµĦåĬ©": 5874,
      "æ°ĳæĶ¿": 5875,
      "Ġinform": 5876,
      "é¢Ĩå¯¼å¹²éĥ¨": 5877,
      "èĤ¿": 5878,
      "æĥľ": 5879,
      "å¿ĥéĩĮ": 5880,
      "å¦Ĩ": 5881,
      "æŀĿ": 5882,
      "æĹ¥çĶµ": 5883,
      "çĬ¬": 5884,
      "éĺ¿éĩĮ": 5885,
      "ms": 5886,
      "é¦ĸä¸ª": 5887,
      "å¢ŀåĬłäºĨ": 5888,
      "æ³ķå®ļä»£è¡¨äºº": 5889,
      "Ġafter": 5890,
      "tain": 5891,
      "åĲ¹": 5892,
      "çº²": 5893,
      "æ°´åºĵ": 5894,
      "éĢĶå¾Ħ": 5895,
      "è°ĥåº¦": 5896,
      "å£¤": 5897,
      "Ġstart": 5898,
      "ä¼ĳæģ¯": 5899,
      "åįĹæĸ¹": 5900,
      "åĨ³è®®": 5901,
      "ures": 5902,
      "aw": 5903,
      "åıĳèµ·": 5904,
      "äºıæįŁ": 5905,
      "åĬ©äºİ": 5906,
      "çıŃåŃĲ": 5907,
      "ç¤¾ä¿Ŀ": 5908,
      "èĩ´åĬĽ": 5909,
      "å±±ä¸ľçľģ": 5910,
      "æ¢³": 5911,
      "æī¿è®¤": 5912,
      "çŀ¬": 5913,
      "è¿Ĳä½ľ": 5914,
      "éĶĻè¯¯": 5915,
      "æľĿé²ľ": 5916,
      "å¼Ģå±ķäºĨ": 5917,
      "åĵ²": 5918,
      "çļĦåĨħå®¹": 5919,
      "Ġfin": 5920,
      "Ġsm": 5921,
      "å¾ħéģĩ": 5922,
      "ä¾Ŀçħ§": 5923,
      "ä»Ĭå¹´ä»¥æĿ¥": 5924,
      "ä¸Ĭæ¼Ķ": 5925,
      "å¦Ļ": 5926,
      "çĶ±æŃ¤": 5927,
      "ä¹Ķ": 5928,
      "å¤įåħ´": 5929,
      "éŁ¦": 5930,
      "ç¬¬ä¸īæĸ¹": 5931,
      "ä¹ĭæĹħ": 5932,
      "è§Ĩä¸º": 5933,
      "é©¬åħĭ": 5934,
      "èĭıå·ŀ": 5935,
      "æ¶īæ¡Ī": 5936,
      "é«ĺéĢŁåħ¬è·¯": 5937,
      "èµ¤": 5938,
      "Ġown": 5939,
      "åĲģ": 5940,
      "æĺ¯ä¸į": 5941,
      "è®²è¿°": 5942,
      "åĽ½å®¶åĴĮ": 5943,
      "æľªæĪĲå¹´": 5944,
      "èħĲè´¥": 5945,
      "å¤§éģĵ": 5946,
      "çĽ¸åĲĮ": 5947,
      "å®ŀåľ¨": 5948,
      "åĲĮä¸Ģ": 5949,
      "æ¯ıæ¬¡": 5950,
      "äº®çĽ¸": 5951,
      "èħ¾è®¯": 5952,
      "Ġç¾İåĽ½": 5953,
      "åľ¨è¿ĻéĩĮ": 5954,
      "æ³ķåºŃ": 5955,
      "åīįçļĦ": 5956,
      "è§Ħå¾ĭ": 5957,
      "åĨľä¸ļåĨľæĿĳ": 5958,
      "æĸĩåĮĸéģĹäº§": 5959,
      "Ġnow": 5960,
      "è¯ĨåĪ«": 5961,
      "ower": 5962,
      "ä¼¤å®³": 5963,
      "Ġå¹´": 5964,
      "å½¼": 5965,
      "Ġhigh": 5966,
      "åĩłå¤©": 5967,
      "å·´è¥¿": 5968,
      "åºĵåŃĺ": 5969,
      "line": 5970,
      "æ¡¶": 5971,
      "æĦıå¤§åĪ©": 5972,
      "èĳ¡": 5973,
      "èį£èªī": 5974,
      "rit": 5975,
      "âĢĿï¼Ľ": 5976,
      "æ£Ĵ": 5977,
      "èĿ": 5978,
      "ä»¥ä¸º": 5979,
      "æľªèĥ½": 5980,
      "62": 5981,
      "åıĳæĶ¹": 5982,
      "æĸĩåŃĹ": 5983,
      "æĤ²": 5984,
      "å½±åĵįåĬĽ": 5985,
      "æĪĳè§īå¾Ĺ": 5986,
      "å©´": 5987,
      "çļĦæĬĢæľ¯": 5988,
      "æľ´": 5989,
      "ä¹ĭä¸ĭ": 5990,
      "Ġmuch": 5991,
      "æ¿ĢçĥĪ": 5992,
      "å®¶å±ŀ": 5993,
      "ics": 5994,
      "æĶ¿çŃĸçļĦ": 5995,
      "Ġwhere": 5996,
      "ä¸ĩäººæ¬¡": 5997,
      "âĢĿï¼ļ": 5998,
      "æĺ¯å¯¹": 5999,
      "èĢĮåľ¨": 6000,
      "éĶĲ": 6001,
      "æĢ»æķ°": 6002,
      "å»ºè®¾é¡¹çĽ®": 6003,
      "âĳ": 6004,
      "éļ¾åº¦": 6005,
      "Ġ2021": 6006,
      "æ³ķäºº": 6007,
      "ational": 6008,
      "æħĪåĸĦ": 6009,
      "æĺĤ": 6010,
      "åĪ°è¾¾": 6011,
      "é£ŁçĶ¨": 6012,
      "ä¸ĸçķĮæĿ¯": 6013,
      "å®ģæ³¢": 6014,
      "å¢ŀåĢ¼": 6015,
      "åħ±è¯Ĩ": 6016,
      "ĠIf": 6017,
      "æµ·åħ³": 6018,
      "å½»åºķ": 6019,
      "ä¼ĬæľĹ": 6020,
      "åıĳè¨Ģäºº": 6021,
      "å¼Ħ": 6022,
      "ä»¥å¾Ģ": 6023,
      "çŃīçŃī": 6024,
      "ĠæĽ´å¤ļç²¾å½©": 6025,
      "ç¾½": 6026,
      "è´¾": 6027,
      "èĤ©": 6028,
      "ä¸ĩäº¿åħĥ": 6029,
      "è§Ĥçľĭ": 6030,
      "å®ĮæĪĲäºĨ": 6031,
      "åį°è±¡": 6032,
      "æĬĵä½ı": 6033,
      "æĿĤå¿Ĺ": 6034,
      "è¯¸å¤ļ": 6035,
      "æĶ¶åıĸ": 6036,
      "å²³": 6037,
      "åİ»äºĨ": 6038,
      "Ġsuch": 6039,
      "çĸ¼": 6040,
      "æ±ª": 6041,
      "ä¸ŃåĽ½åħ±äº§åħļ": 6042,
      "åĭĥ": 6043,
      "ĠéĻĪ": 6044,
      "çİ¯çĲĥ": 6045,
      "æĤŁ": 6046,
      "Ġ2017": 6047,
      "Ġç¬¬äºĮ": 6048,
      "æ¸ħæĻ°": 6049,
      "çļĦå®īåħ¨": 6050,
      "éĥ½èĥ½": 6051,
      "ä»İä¸ļ": 6052,
      "éĴ»": 6053,
      "åı£ç½©": 6054,
      "æĬ¤çĲĨ": 6055,
      "æĶ¹éĿ©å¼ĢæĶ¾": 6056,
      "ä¸ªæĢ§": 6057,
      "åħ¶æ¬¡": 6058,
      "ç¨Ģ": 6059,
      "æĭĽæłĩæĸĩä»¶": 6060,
      "Ġav": 6061,
      "åŁİå¸ĤçļĦ": 6062,
      "å»¶ç»Ń": 6063,
      "çº½çº¦": 6064,
      "82": 6065,
      "ä¸Ģé¡¹": 6066,
      "ä»ĬæĹ¥": 6067,
      "éĢĤå½ĵ": 6068,
      "è¯¾åłĤ": 6069,
      "åħ¨åİ¿": 6070,
      "èĪĨè®º": 6071,
      "ative": 6072,
      "è½¦ç«Ļ": 6073,
      "çľģæĶ¿åºľ": 6074,
      "ä¸Ģä¸ªæľĪ": 6075,
      "èĥ¸": 6076,
      "å¾Īå¤ļäºº": 6077,
      "åħħçĶµ": 6078,
      "ä¸°å¯ĮçļĦ": 6079,
      "Ġ&": 6080,
      "äºĭå®ľ": 6081,
      "èĩªä¿¡": 6082,
      "åħĪè¡Į": 6083,
      "è½¨éģĵ": 6084,
      "äºĮæīĭ": 6085,
      "ĠSh": 6086,
      "è´¢æĶ¿æĭ¨æ¬¾": 6087,
      "74": 6088,
      "Ġä¸į": 6089,
      "æĽ´é«ĺ": 6090,
      "ä¾ĽçĶµ": 6091,
      "å¾®ä¼ģä¸ļ": 6092,
      "éķ¿åŁİ": 6093,
      "å¢ĥåĨħ": 6094,
      "æī¹è¯Ħ": 6095,
      "çĮ´": 6096,
      "è¿½ç©¶": 6097,
      "èĭ¥å¹²": 6098,
      "åĨħå®¹è¯·": 6099,
      "Ġ2015": 6100,
      "ng": 6101,
      "ç´§å¯Ĩ": 6102,
      "ç¿¼": 6103,
      "Ġæľī": 6104,
      "Ġè¯¥": 6105,
      "æĪĸè®¸": 6106,
      "olog": 6107,
      "æ³¢åĬ¨": 6108,
      "Ġdec": 6109,
      "83": 6110,
      "äºŃ": 6111,
      "èĩªè´¸": 6112,
      "çĶµåĬ¨è½¦": 6113,
      "éĩıçļĦ": 6114,
      "åĸĬ": 6115,
      "åĿª": 6116,
      "ç©Ĩ": 6117,
      "å¿ĹæĦ¿æľįåĬ¡": 6118,
      "ä¸ļåĨħäººå£«": 6119,
      "ä¹Łèĥ½": 6120,
      "æĮģèĤ¡": 6121,
      "å¼ķåħ¥": 6122,
      "è¡ĮæĶ¿å¤Ħç½ļ": 6123,
      "gd": 6124,
      "çİ»": 6125,
      "æĻºèĥ½åĮĸ": 6126,
      "ä¸Ģåº¦": 6127,
      "ä¸ºä¸»é¢ĺ": 6128,
      "åħ¬å¼Ģåıĳ": 6129,
      "éĽĨåĽ¢æľīéĻĲåħ¬åı¸": 6130,
      "çļĦä»·æł¼": 6131,
      "ä¸Ģå¼ł": 6132,
      "æĢ»æĺ¯": 6133,
      "æ®ĭçĸ¾äºº": 6134,
      "çļĦç²¾ç¥ŀ": 6135,
      "å·²æĪĲä¸º": 6136,
      "éľŀ": 6137,
      "éĻ¢æł¡": 6138,
      "ç»ĻäºĨ": 6139,
      "æľĢå¥½": 6140,
      "Ġperson": 6141,
      "Ġdon": 6142,
      "åĽŀå½Ĵ": 6143,
      "ä¾ĿéĿł": 6144,
      "Ġsaid": 6145,
      "ä¸Īå¤«": 6146,
      "äº¤æīĢ": 6147,
      "è¿ĺæ²¡æľī": 6148,
      "äºĮçº§": 6149,
      "Ġgu": 6150,
      "æ±ĩæĬ¥": 6151,
      "åĨĢ": 6152,
      "hes": 6153,
      "çĻ»å½ķ": 6154,
      "æĮĩç¤º": 6155,
      "åĨĽéĺŁ": 6156,
      "åį±å®³": 6157,
      "ä¼ª": 6158,
      "Ġä¸įè¿ĩ": 6159,
      "Ġè¿ĳå¹´æĿ¥": 6160,
      "ä»İä¸¥": 6161,
      "æĥ³è¦ģ": 6162,
      "æĺ¾çĦ¶": 6163,
      "çİ²": 6164,
      "åľ°çļĦ": 6165,
      "æĬ¥èŃ¦": 6166,
      "æŃ¤æĹ¶": 6167,
      "çĨŁæĤī": 6168,
      "ä¸ŃéĹ´": 6169,
      "é»Ħæ²³": 6170,
      "Ġsec": 6171,
      "Ġplay": 6172,
      "Ġset": 6173,
      "Ġhome": 6174,
      "æīįæĺ¯": 6175,
      "ward": 6176,
      "æĶ¹è¿Ľ": 6177,
      "çħ¤çĤŃ": 6178,
      "æ¡Ĩæŀ¶": 6179,
      "å¯¸": 6180,
      "åħ¬æŃ£": 6181,
      "åĺ´": 6182,
      "çłĶç©¶ä¸Ńå¿ĥ": 6183,
      "uring": 6184,
      "çĶµè§Ĩåı°": 6185,
      "ç²īä¸Ŀ": 6186,
      "åĲĦçķĮ": 6187,
      "èī²çļĦ": 6188,
      "Ġread": 6189,
      "è°ĭåĪĴ": 6190,
      "æĲºæīĭ": 6191,
      "Ġent": 6192,
      "åĴĮæľįåĬ¡": 6193,
      "ç»ıæµİç¤¾ä¼ļåıĳå±ķ": 6194,
      "åŃ¦åİĨ": 6195,
      "çĥ¤": 6196,
      "ä¾¿æį·": 6197,
      "è¡Ķæİ¥": 6198,
      "ys": 6199,
      "æĹŃ": 6200,
      "å¹³æĹ¶": 6201,
      "èĥĮæĻ¯ä¸ĭ": 6202,
      "å®¶ä¸Ń": 6203,
      "å¿į": 6204,
      "åĽŀæĬ¥": 6205,
      "è¿ĺèĥ½": 6206,
      "çĽ´åĪ°": 6207,
      "ä¸Ģå®ļçļĦ": 6208,
      "æ¯ıæĹ¥": 6209,
      "Ġdesign": 6210,
      "åĮĸå·¥": 6211,
      "åľ°æĸ¹æĶ¿åºľ": 6212,
      "é»ĳé¾Ļæ±Ł": 6213,
      "éŃħåĬĽ": 6214,
      "åĨ³ç®Ĺ": 6215,
      "ash": 6216,
      "oint": 6217,
      "çĤ®": 6218,
      "è·¯ä¸Ĭ": 6219,
      "åħ¬å¸ĥçļĦ": 6220,
      "èµĭèĥ½": 6221,
      "äººåĬĽèµĦæºĲ": 6222,
      "Ġfam": 6223,
      "æĢ»éĥ¨": 6224,
      "é¥±": 6225,
      "è¯»ä¹¦": 6226,
      "ä½ľæĪĺ": 6227,
      "ä¸ĵçĶ¨": 6228,
      "åįİä¸º": 6229,
      "Ġbusiness": 6230,
      "æīĵçł´": 6231,
      "æ»ŀ": 6232,
      "é«ĺä¸Ń": 6233,
      "Ġche": 6234,
      "å½¢æĢģ": 6235,
      "çĽ²": 6236,
      "æ¶Ĥ": 6237,
      "åħĭåħ°": 6238,
      "æŃ¦è£ħ": 6239,
      "æıĲåĩºçļĦ": 6240,
      "åĽ½åĨħå¤ĸ": 6241,
      "www": 6242,
      "å¯ĵ": 6243,
      "åħ¥å¢ĥ": 6244,
      "åĭĺ": 6245,
      "ased": 6246,
      "Ġrequ": 6247,
      "èĪªçıŃ": 6248,
      "æ¢³çĲĨ": 6249,
      "å½ĵä»£": 6250,
      "å¤§è§Ħæ¨¡": 6251,
      "è¿Ľåº¦": 6252,
      "æľºåĬ¨è½¦": 6253,
      "çĥ¦": 6254,
      "åįİäºº": 6255,
      "èĥĨ": 6256,
      "åıĺéĿ©": 6257,
      "ï¼īï¼Ľ": 6258,
      "åĩºå¸Ńä¼ļè®®": 6259,
      "arket": 6260,
      "å¤§å¸Ī": 6261,
      "åħ¨æĸ°": 6262,
      "æ¨¡åŀĭ": 6263,
      "åĩŃåĢŁ": 6264,
      "ĠæĪĳ": 6265,
      "æŁĶ": 6266,
      "æĺİçļĦ": 6267,
      "æĿĥå¨ģ": 6268,
      "é¦ĸæī¹": 6269,
      "åĲķ": 6270,
      "åīįæĻ¯": 6271,
      "ä¿¡è®¿": 6272,
      "çłĶè®¨": 6273,
      "åħĦå¼Ł": 6274,
      "å§¿": 6275,
      "æĶ¶èĹı": 6276,
      "å·²è¢«": 6277,
      "Ġ2022": 6278,
      "æĺ¯ä»Ģä¹Ī": 6279,
      "å¤įåį°": 6280,
      "å®ŀè´¨": 6281,
      "ä¾ĽåºĶéĵ¾": 6282,
      "ä¸Ĭè¯īäºº": 6283,
      "åĨħå®¹è¯·è¿Ľåħ¥": 6284,
      "è¿Ļåľº": 6285,
      "åİ¿å§Ķ": 6286,
      "2006": 6287,
      "éĢļå¸¸": 6288,
      "äº§çĶŁçļĦ": 6289,
      "ç»Īç«¯": 6290,
      "å¤©çĦ¶æ°Ķ": 6291,
      "æĶĢ": 6292,
      "å¤§å¤§": 6293,
      "ä½Ļé¢Ŀ": 6294,
      "éĢĢåĩº": 6295,
      "çĽĴ": 6296,
      "èĪ±": 6297,
      "éĩĮéĿ¢": 6298,
      "åħ¨ç¨ĭ": 6299,
      "æĹ¨åľ¨": 6300,
      "Ġbecause": 6301,
      "æĺ¯åĽłä¸º": 6302,
      "åħ¬ç§¯": 6303,
      "åı¯è§ģ": 6304,
      "çĶŁåĬ¨": 6305,
      "èĮħ": 6306,
      "æ¶ĪéĻ¤": 6307,
      "çŃĽ": 6308,
      "é«ĺçŃī": 6309,
      "æ»©": 6310,
      "éĻĪè¿°": 6311,
      "æ¸©æļĸ": 6312,
      "åı¯ä»¥è¯´": 6313,
      "çīµå¤´": 6314,
      "ĠæĽ´å¤ļç²¾å½©åĨħå®¹è¯·è¿Ľåħ¥": 6315,
      "åľ¨æİ¥åıĹ": 6316,
      "ä¸Ĭåĳ¨": 6317,
      "åĲĮäºĭ": 6318,
      "èĲĦ": 6319,
      "éĿŀæ´²": 6320,
      "åĴĮåıĳå±ķ": 6321,
      "ç¬¬ä¸ĥ": 6322,
      "Ġright": 6323,
      "åĳ¼åĲģ": 6324,
      "èĳ¡èĲĦ": 6325,
      "å¥Ī": 6326,
      "éĶ»": 6327,
      "çĶ³è¯·äºº": 6328,
      "éŃĶ": 6329,
      "ç¾İçļĦ": 6330,
      "ç¾İèģĶ": 6331,
      "æı´åĬ©": 6332,
      "ç¤¾ä¼ļçļĦ": 6333,
      "äººåĳĺçļĦ": 6334,
      "velop": 6335,
      "åħ¥åı£": 6336,
      "åĬŀæ¡Ī": 6337,
      "åħīä¼ı": 6338,
      "æ·Ģ": 6339,
      "æ¶Īæ¯Ĵ": 6340,
      "åĽŀå¿Ĩ": 6341,
      "æ¥¼å¸Ĥ": 6342,
      "åĲ¦åĪĻ": 6343,
      "ock": 6344,
      "åİ¿çº§": 6345,
      "Ġdiffe": 6346,
      "ãĢģâĢľ": 6347,
      "ä¼ģä¸ļå®¶": 6348,
      "åħ¬åĬ¡åĳĺ": 6349,
      "ä¸»å¯¼": 6350,
      "è®©æĪĳ": 6351,
      "ç¤ºèĮĥåĮº": 6352,
      "åıł": 6353,
      "ä¸ĸçķĮä¸Ĭ": 6354,
      "åĨ¬å¥¥": 6355,
      "åıĳåĬĽ": 6356,
      "æ´»è·ĥ": 6357,
      "å¿ħçĦ¶": 6358,
      "è®²è§£": 6359,
      "è¢Ńåĩ»": 6360,
      "å¹¿å·ŀå¸Ĥ": 6361,
      "åĮ»çĸĹæľºæŀĦ": 6362,
      "å¸¦æĿ¥äºĨ": 6363,
      "ient": 6364,
      "éģ¥": 6365,
      "æľŁåĨħ": 6366,
      "æľīéĻĲè´£ä»»": 6367,
      "æ¤ħ": 6368,
      "è¦ģåľ¨": 6369,
      "Ġmed": 6370,
      "é¢Ĩå¯¼äºº": 6371,
      "èĴ¸": 6372,
      "åĵªéĩĮ": 6373,
      "çĥŃçº¿": 6374,
      "èĤ¡ä»·": 6375,
      "Ġday": 6376,
      "Ġdown": 6377,
      "èİī": 6378,
      "ble": 6379,
      "äººä½ĵ": 6380,
      "å§»": 6381,
      "å¸¸æĢģåĮĸ": 6382,
      "åıĳå°Ħ": 6383,
      "Ġtoo": 6384,
      "è¾ĥé«ĺ": 6385,
      "çģµæ´»": 6386,
      "çĴĥ": 6387,
      "çļĦæ°´": 6388,
      "ä¸įç®¡": 6389,
      "éĻ·åħ¥": 6390,
      "gdp": 6391,
      "çļĦæľįåĬ¡": 6392,
      "è¡Įé©¶": 6393,
      "åħļå§Ķä¹¦è®°": 6394,
      "Ġèĩª": 6395,
      "çĲ³": 6396,
      "çŃīå·¥ä½ľ": 6397,
      "çĶµç½ĳ": 6398,
      "ä¸ºæł¸å¿ĥ": 6399,
      "åŃ¦åĳĺ": 6400,
      "ç¢İ": 6401,
      "ä¸Ģçº§": 6402,
      "æ»ļ": 6403,
      "stem": 6404,
      "åı¯æĮģç»Ńåıĳå±ķ": 6405,
      "ç»µ": 6406,
      "ä¸ĢåŃ£åº¦": 6407,
      "äºĨä¸ŃåĽ½": 6408,
      "çŃīå¾ħ": 6409,
      "ç«ĭåľº": 6410,
      "Ġmin": 6411,
      "èĬĤæĹ¥": 6412,
      "æĬ¥éģĵç§°": 6413,
      "åŃĲçļĦ": 6414,
      "arch": 6415,
      "åħļåĴĮ": 6416,
      "ç»ıæµİçļĦ": 6417,
      "æĹĹä¸ĭ": 6418,
      "su": 6419,
      "åºĻ": 6420,
      "å¤§çº¦": 6421,
      "ĠWh": 6422,
      "åıĳçļĦ": 6423,
      "åľºåľ°": 6424,
      "è®¸åı¯è¯ģ": 6425,
      "ä¸ĩå¹³æĸ¹ç±³": 6426,
      "é©³": 6427,
      "çº³ç¨İ": 6428,
      "åı¯æĺ¯": 6429,
      "ath": 6430,
      "èīĩ": 6431,
      "æĤł": 6432,
      "åģĩæľŁ": 6433,
      "åĩºåĶ®": 6434,
      "ener": 6435,
      "åĽŀåĽ½": 6436,
      "åıĭå¥½": 6437,
      "æ¹ĸåįĹçľģ": 6438,
      "ä¸Ńçº§": 6439,
      "è¿Ļé¡¹": 6440,
      "ç®¡çĲĨçļĦ": 6441,
      "åĽ½äº§": 6442,
      "ä¸įéĶĻ": 6443,
      "å¤§ä½¿": 6444,
      "åŃ¦å®¶": 6445,
      "è¯ĦéĢī": 6446,
      "é©¬æĭī": 6447,
      "2005": 6448,
      "åĢŁåĬ©": 6449,
      "å¤ľéĹ´": 6450,
      "çļĦç»ıæµİ": 6451,
      "çļĦé£İéĻ©": 6452,
      "çļĦéľĢæ±Ĥ": 6453,
      "éĢ¼": 6454,
      "åĲįåŃĹ": 6455,
      "åİŁæĸĻ": 6456,
      "çºªæ£Ģ": 6457,
      "åºŀ": 6458,
      "åİŁæľ¬": 6459,
      "å¤įèĭı": 6460,
      "éĢģè¾¾": 6461,
      "æ±īæĹı": 6462,
      "ied": 6463,
      "è¿Ļä¸¤": 6464,
      "åĲĪåĬĽ": 6465,
      "æķĻèĤ²éĥ¨": 6466,
      "æī¿åĬŀ": 6467,
      "åĳ½è¿Ĳ": 6468,
      "çļĦç¬¬ä¸Ģ": 6469,
      "ç®¡éģĵ": 6470,
      "èĬ¬": 6471,
      "Ġbr": 6472,
      "ç¨ĭåº¦ä¸Ĭ": 6473,
      "éĻ¢å£«": 6474,
      "åĽ¾ä¸º": 6475,
      "åĳ¼åĲ¸": 6476,
      "åī¯å±Ģéķ¿": 6477,
      "ç»ĵæĿŁåĲİ": 6478,
      "ix": 6479,
      "å¼ºå¤§": 6480,
      "ç©·": 6481,
      "Ġinformation": 6482,
      "çŀ¬éĹ´": 6483,
      "In": 6484,
      "éĽĨç¾¤": 6485,
      "çłĶç©¶çĶŁ": 6486,
      "Ġbefore": 6487,
      "å¯ĨéĽĨ": 6488,
      "æİĪäºĪ": 6489,
      "ä¸ļæĢģ": 6490,
      "éĢĢå½¹": 6491,
      "èµĦæľ¬å¸Ĥåľº": 6492,
      "ä¸»æĮģäºº": 6493,
      "ality": 6494,
      "Ġinte": 6495,
      "äººå¤§ä»£è¡¨": 6496,
      "ä»°": 6497,
      "èĥ½éĩı": 6498,
      "è®°å¿Ĩ": 6499,
      "æĦŁåıĹåĪ°": 6500,
      "âĢĿãĢģâĢľ": 6501,
      "æľīéĻĲè´£ä»»åħ¬åı¸": 6502,
      "èĬĤçº¦": 6503,
      "å»ºç«ĭäºĨ": 6504,
      "æĮ¡": 6505,
      "æľĢå¤ļ": 6506,
      "èĬĿ": 6507,
      "æĮĩå¼ķ": 6508,
      "Ġlong": 6509,
      "hip": 6510,
      "çļĦçľŁå®ŀ": 6511,
      "æ¬§åħĥ": 6512,
      "å¤ĸçļĦ": 6513,
      "å®£è®²": 6514,
      "71": 6515,
      "é«ĺæĸ°åĮº": 6516,
      "å¤ĸèµĦ": 6517,
      "æį®æĤī": 6518,
      "Ġtake": 6519,
      "çĪ±æĥħ": 6520,
      "ç§ĳåŃ¦éĻ¢": 6521,
      "å¯¹ä¸ŃåĽ½": 6522,
      "çİ°çĬ¶": 6523,
      "å¤©ä¸ĭ": 6524,
      "è´¢æĶ¿éĥ¨": 6525,
      "æ³°åĽ½": 6526,
      "Ġåħ¬åı¸": 6527,
      "çļĦåŁºæľ¬": 6528,
      "å¤ķ": 6529,
      "äººæĸĩ": 6530,
      "Ġmade": 6531,
      "ä¼łåªĴ": 6532,
      "åįĥä¸ĩ": 6533,
      "æĢİæł·": 6534,
      "çİīç±³": 6535,
      "æĸ°åįİç¤¾": 6536,
      "çĶŁåŃĺ": 6537,
      "ç¼Ŀ": 6538,
      "Ġä»¥": 6539,
      "åĨ³å¿ĥ": 6540,
      "åĺīå®¾": 6541,
      "ç²Ĵ": 6542,
      "çħ§é¡¾": 6543,
      "æ±ĩçİĩ": 6544,
      "æĮĤçīĮ": 6545,
      "çĶ¨äºº": 6546,
      "ç»ıè´¸": 6547,
      "å³»": 6548,
      "èĩ´åĬĽäºİ": 6549,
      "ä¸įçŁ¥éģĵ": 6550,
      "è°Ń": 6551,
      "è¥¿äºļ": 6552,
      "Ġå¤§": 6553,
      "Ġä»ĸ": 6554,
      "çĶ¨æ°´": 6555,
      "åĨħæ¶µ": 6556,
      "åıĹçĽĬ": 6557,
      "gan": 6558,
      "è¯±": 6559,
      "ï¼ļ[": 6560,
      "æīĵåį°": 6561,
      "81": 6562,
      "æīŃ": 6563,
      "æłª": 6564,
      "äºĶå¹´": 6565,
      "çĥĪå£«": 6566,
      "ç¦ıå»ºçľģ": 6567,
      "ä¼łç»ŁæĸĩåĮĸ": 6568,
      "è¯ĬæĸŃ": 6569,
      "åĨľæ°ĳå·¥": 6570,
      "å®ªæ³ķ": 6571,
      "å·¥ä½ľèĢħ": 6572,
      "ited": 6573,
      "çļĦä¸ĢäºĽ": 6574,
      "çİ°åľ¨çļĦ": 6575,
      "ç»ıæµİåıĤèĢĥ": 6576,
      "åĪĿå¿ĥ": 6577,
      "è´¿": 6578,
      "ä¸įåĲĪæł¼": 6579,
      "æµİåįĹ": 6580,
      "å®īå¾½çľģ": 6581,
      "ax": 6582,
      "ç«łç¨ĭ": 6583,
      "æįĲèµł": 6584,
      "Ġproduct": 6585,
      "ĠåİŁæłĩé¢ĺ": 6586,
      "çī©åĵģ": 6587,
      "åľ¨ç¾İåĽ½": 6588,
      "çĽ¼": 6589,
      "ä¸įäºĪ": 6590,
      "Ġä½Ĩ": 6591,
      "éĽĨæĪĲ": 6592,
      "åĿļå®Ī": 6593,
      "ä¸Ģä»¶": 6594,
      "å¾ĹçŁ¥": 6595,
      "è¢«æī§è¡Įäºº": 6596,
      "ä½İç¢³": 6597,
      "ä¸¢": 6598,
      "ä¿ĿçķĻ": 6599,
      "èģĶéĤ¦": 6600,
      "èĩ´å¯Į": 6601,
      "è£ģå®ļ": 6602,
      "åĵĪå°Ķæ»¨": 6603,
      "çĶµç«Ļ": 6604,
      "å¤®è§Ĩ": 6605,
      "Ġå°ı": 6606,
      "å®ŀäºĭ": 6607,
      "æĢ§è´¨": 6608,
      "æĬĵèİ·": 6609,
      "æ·±åľ³å¸Ĥ": 6610,
      "åĴĸ": 6611,
      "çŃīçĽ¸åħ³": 6612,
      "å¤ļäºĨ": 6613,
      "å¼Ĥå¸¸": 6614,
      "åıįå¼¹": 6615,
      "å¼Ĺ": 6616,
      "å»ºè®¾åĴĮ": 6617,
      "å¹ħåº¦": 6618,
      "è½½ä½ĵ": 6619,
      "ä¸įå¼Ģ": 6620,
      "æĬ¥ä»·": 6621,
      "æ¯Ķäºļ": 6622,
      "æµ¸": 6623,
      "æµ·åĨĽ": 6624,
      "èħĶ": 6625,
      "åĬłå¿«æİ¨è¿Ľ": 6626,
      "éĳ": 6627,
      "æ£ī": 6628,
      "å°¼äºļ": 6629,
      "Ġshow": 6630,
      "ç¹ģèį£": 6631,
      "éģµå®Ī": 6632,
      "éĳ«": 6633,
      "61": 6634,
      "éĥ½å¸Ĥ": 6635,
      "æľįè£ħ": 6636,
      "Ġmod": 6637,
      "ner": 6638,
      "éĢīäºº": 6639,
      "çĻ¾åº¦": 6640,
      "é¡¾éĹ®": 6641,
      "åĨ¬åŃ£": 6642,
      "other": 6643,
      "æį®äºĨè§£": 6644,
      "ä¸Ģè¾Ĩ": 6645,
      "æľĪåĪĿ": 6646,
      "éħ·": 6647,
      "å¨ĥ": 6648,
      "ĠåĪĺ": 6649,
      "ä¸²": 6650,
      "Ġmon": 6651,
      "Ġsim": 6652,
      "å°ıè¯´": 6653,
      "éľ¸": 6654,
      "è¯ģå®ŀ": 6655,
      "åĵŃ": 6656,
      "éĿĴæµ·": 6657,
      "åĬŁå¤«": 6658,
      "ä¿ĿéĻ©åħ¬åı¸": 6659,
      "ĠRe": 6660,
      "Ġ09": 6661,
      "air": 6662,
      "å¤ĸæ±ĩ": 6663,
      "èĩªè¡Įè½¦": 6664,
      "å®łçī©": 6665,
      "çļĦåĽ½å®¶": 6666,
      "ä¸īåŃ£åº¦": 6667,
      "å¿«ä¹Ĳ": 6668,
      "ull": 6669,
      "æĵ¦": 6670,
      "ç¤¾ä¼ļä¿Ŀéļľ": 6671,
      "ä½ıéĻ¢": 6672,
      "ä¸ĩåħĥçļĦ": 6673,
      "éĻĦä»¶": 6674,
      "åŁĭ": 6675,
      "äº®çĤ¹": 6676,
      "å´Ķ": 6677,
      "èµĦè®¯": 6678,
      "ç¥Ń": 6679,
      "åħ¬ç§¯éĩĳ": 6680,
      "ä¸įç¬¦åĲĪ": 6681,
      "æĥ³è±¡": 6682,
      "çģ«çģ¾": 6683,
      "éĿŀéģĹ": 6684,
      "Ġdid": 6685,
      "Ġ2014": 6686,
      "ba": 6687,
      "ä¸Ģæµģ": 6688,
      "ä¸ªä½ĵ": 6689,
      "åĮºåĿĹ": 6690,
      "æĥħåĨµä¸ĭ": 6691,
      "æ¸ħåįİ": 6692,
      "åĨ°éĽª": 6693,
      "éĥģ": 6694,
      "ä¾µæĿĥ": 6695,
      "å®ļä»·": 6696,
      "ç¼´è´¹": 6697,
      "ĠåĮĹäº¬": 6698,
      "ĠéļıçĿĢ": 6699,
      "æľīåĬ©äºİ": 6700,
      "åħ¨è¦ĨçĽĸ": 6701,
      "åĲĪå¹¶": 6702,
      "åħ¬ä¼Ĺåı·": 6703,
      "è½¿": 6704,
      "åĢ¡è®®": 6705,
      "è´ª": 6706,
      "æ³Ĭ": 6707,
      "æµģè¡Į": 6708,
      "rest": 6709,
      "Ġ14": 6710,
      "æ°§åĮĸ": 6711,
      "å¼Ģæĭĵ": 6712,
      "ä½ĵæ£Ģ": 6713,
      "è´«åĽ°æĪ·": 6714,
      "åı¥è¯Ŀ": 6715,
      "éĺģ": 6716,
      "åıįå¤į": 6717,
      "éĩĳèŀįæľįåĬ¡": 6718,
      "ç»¿åĮĸ": 6719,
      "æľĢå¥½çļĦ": 6720,
      "æŀļ": 6721,
      "ç¨į": 6722,
      "æĭ¿åĪ°": 6723,
      "æľ¬é¡¹çĽ®": 6724,
      "æ¯Ķéĩį": 6725,
      "æł¸å®ŀ": 6726,
      "Ġused": 6727,
      "äººç¤¾": 6728,
      "çĪ±å¥½": 6729,
      "åľŁå£¤": 6730,
      "æĸĹäºī": 6731,
      "Ġdoes": 6732,
      "ä¸ºä¾ĭ": 6733,
      "åĮºå§Ķ": 6734,
      "æº¢": 6735,
      "è¯»èĢħ": 6736,
      "åľºçļĦ": 6737,
      "è¶ħçº§": 6738,
      "çĬ¹": 6739,
      "çłĶç©¶åĳĺ": 6740,
      "èħĬ": 6741,
      "Ġprovid": 6742,
      "åħ¬å¼Ģåıĳè¡Į": 6743,
      "ps": 6744,
      "Ġcre": 6745,
      "ç§ĳåĪĽ": 6746,
      "å··": 6747,
      "æ°¢": 6748,
      "èİİ": 6749,
      "æŀģå¤§": 6750,
      "çĹħäºº": 6751,
      "å½ķåıĸ": 6752,
      "Ġhand": 6753,
      "æī®": 6754,
      "å¼Ģè®¾": 6755,
      "æľĪèĩ³": 6756,
      "çĿĽ": 6757,
      "æĿ¡æ¬¾": 6758,
      "ä¸ªå·¥ä½ľ": 6759,
      "æ¯ĶèµĽä¸Ń": 6760,
      "éĢ¾æľŁ": 6761,
      "æŃ¥ä¼Ĳ": 6762,
      "åĩıè½»": 6763,
      "ä¹Įåħĭåħ°": 6764,
      "æł¸éħ¸æ£Ģæµĭ": 6765,
      "ä¸įåĩº": 6766,
      "æŀ¢çº½": 6767,
      "åŃµ": 6768,
      "åĬĽäºī": 6769,
      "åīįæĿ¥": 6770,
      "è·Łè¸ª": 6771,
      "ĠåĲĮæĹ¶": 6772,
      "çļĦèĥ½åĬĽ": 6773,
      "åħ¨ä¼ļ": 6774,
      "åĳ¨åĽ´": 6775,
      "è¯īæ±Ĥ": 6776,
      "èŃ¦ç¤º": 6777,
      "åº·å¤į": 6778,
      "åī¯ä¸»å¸Ń": 6779,
      "åŃĿ": 6780,
      "æĢĸ": 6781,
      "åĽŀæĿ¥": 6782,
      "åĽŀèĲ½": 6783,
      "Ġwee": 6784,
      "ä¸¾è¡ĮçļĦ": 6785,
      "å¼ĥæĿĥ": 6786,
      "èľĤ": 6787,
      "96": 6788,
      "mm": 6789,
      "å¤ĦåĪĨ": 6790,
      "æĪĳä»¬è¦ģ": 6791,
      "æĺ¾å¾Ĺ": 6792,
      "ç²Ĺ": 6793,
      "chn": 6794,
      "çļĦåŃ¦çĶŁ": 6795,
      "çļĦæĶ¿çŃĸ": 6796,
      "æĮ¤": 6797,
      "éĢļè¡Į": 6798,
      "ä¸¤ä½į": 6799,
      "è®©æĪĳä»¬": 6800,
      "æĬĢæľ¯çļĦ": 6801,
      "ç¥ŀç»ı": 6802,
      "è¿Ĳä¼ļ": 6803,
      "åı¯ä»¥åľ¨": 6804,
      "åĲĦé¡¹å·¥ä½ľ": 6805,
      "æģĲæĢĸ": 6806,
      "ident": 6807,
      "çİ»çĴĥ": 6808,
      "çĤ¹åĩ»": 6809,
      "ä¿¡ä»»": 6810,
      "è§£åĨ³æĸ¹æ¡Ī": 6811,
      "èĢķåľ°": 6812,
      "æĺ¯ä¸įæĺ¯": 6813,
      "æ³ª": 6814,
      "åľ°çĲĨ": 6815,
      "çĶ¨åĵģ": 6816,
      "èį·åħ°": 6817,
      "è¿Ļä¹Ł": 6818,
      "è¥¿çıŃ": 6819,
      "è½¬æį¢": 6820,
      "æĹ©åľ¨": 6821,
      "è½¬åŀĭåįĩçº§": 6822,
      "æľ¬åħ¬åı¸": 6823,
      "éĽĨèģļ": 6824,
      "æºĲå¤´": 6825,
      "åıĳå¸ĥäºĨ": 6826,
      "ç½ķ": 6827,
      "åŃ¦ä½į": 6828,
      "æĥħæĦŁ": 6829,
      "ç®¡çĲĨåĴĮ": 6830,
      "ç²¾å¿ĥ": 6831,
      "è´Ńç½®": 6832,
      "è¥¿çıŃçīĻ": 6833,
      "åħ¥éĢī": 6834,
      "è®©ä»ĸ": 6835,
      "pen": 6836,
      "çĶµæ¢¯": 6837,
      "æİ¢è®¨": 6838,
      "å¤įåį°ä»¶": 6839,
      "ä¸įçĶ¨": 6840,
      "çĶŁæĦı": 6841,
      "å¹¶å¯¹": 6842,
      "è¶³å¤Ł": 6843,
      "éĢĴäº¤": 6844,
      "Ġè¿ĳæĹ¥": 6845,
      "åĲĬ": 6846,
      "ork": 6847,
      "çŁŃæĿ¿": 6848,
      "çļ®èĤ¤": 6849,
      "å¤ļäºº": 6850,
      "æĦıæĢĿ": 6851,
      "çļĦé¡¹çĽ®": 6852,
      "åĿĳ": 6853,
      "æ¼Ķè®²": 6854,
      "ĠPro": 6855,
      "èľľ": 6856,
      "110": 6857,
      "å¸ķ": 6858,
      "åĩºçİ°åľ¨": 6859,
      "æ°´æŀľ": 6860,
      "ä¸ľåįĹ": 6861,
      "æĻ¯è§Ĥ": 6862,
      "å°½éĩı": 6863,
      "æµħ": 6864,
      "Ġworld": 6865,
      "å¹¶å°Ĩ": 6866,
      "æĶ»åĩ»": 6867,
      "èĩªçĦ¶èµĦæºĲ": 6868,
      "äººäºĭ": 6869,
      "åı¹": 6870,
      "éĽĩ": 6871,
      "ä¼ģä¸ļåĴĮ": 6872,
      "æĿĳéĩĮ": 6873,
      "çķħéĢļ": 6874,
      "éĢ¢": 6875,
      "åĲĦå¤§": 6876,
      "äº§ä¸ļåĽŃ": 6877,
      "çļĦæľºä¼ļ": 6878,
      "å®¶ä¹¡": 6879,
      "è¾£": 6880,
      "åĮºæĶ¿åºľ": 6881,
      "ä¸įæĸŃæıĲåįĩ": 6882,
      "èįīæ¡Ī": 6883,
      "èĲį": 6884,
      "é¢Ŀåº¦": 6885,
      "åį³ä¾¿": 6886,
      "ä¸ĢçĽ´åľ¨": 6887,
      "èĤĮ": 6888,
      "çŃĸåĪĴ": 6889,
      "å®ģå¤ı": 6890,
      "æĺ¯æĮĩ": 6891,
      "ä¸»æµģ": 6892,
      "ä¾Ŀèµĸ": 6893,
      "ä¹°åįĸ": 6894,
      "æļĤæĹ¶": 6895,
      "æĸ°çĶŁ": 6896,
      "å¾Īå¥½": 6897,
      "çªĥ": 6898,
      "å®ŀæĸ½æĸ¹æ¡Ī": 6899,
      "åıĳæĶ¹å§Ķ": 6900,
      "çĽ¯": 6901,
      "æ³Ħ": 6902,
      "ä¹ĭéĻħ": 6903,
      "å¸Ĥåľºä¸»ä½ĵ": 6904,
      "è®ºæĸĩ": 6905,
      "çļĦä¸Ģç§į": 6906,
      "é¹¿": 6907,
      "æĽ´å¥½çļĦ": 6908,
      "é¢Ħçº¦": 6909,
      "å¤įå·¥": 6910,
      "æ²¡æĥ³åĪ°": 6911,
      "Ġsur": 6912,
      "çħĮ": 6913,
      "æĶ¹éĿ©çļĦ": 6914,
      "ä¸įåľ¨": 6915,
      "ins": 6916,
      "éĿ¢åīį": 6917,
      "åĲįçļĦ": 6918,
      "è®¤çŁ¥": 6919,
      "æ°ĳä¸»åħļ": 6920,
      "éĵŃ": 6921,
      "æīĢæľīçļĦ": 6922,
      "å¸½": 6923,
      "æĬĽ": 6924,
      "å®ļåĪ¶": 6925,
      "å¯¼å¼¹": 6926,
      "è´ŁåĢº": 6927,
      "å®ŀæĹ¶": 6928,
      "éĹ¨åºĹ": 6929,
      "èİ·å¾ĹäºĨ": 6930,
      "æĦŁæĥħ": 6931,
      "Ġbeing": 6932,
      "åħ¬åħ±èµĦæºĲ": 6933,
      "Ġä¸ºäºĨ": 6934,
      "èĢĮä¸įæĺ¯": 6935,
      "æľĢåĲİä¸Ģ": 6936,
      "çļĦåħ·ä½ĵ": 6937,
      "äº§åĢ¼": 6938,
      "è¯¾é¢ĺ": 6939,
      "çĪĨçĤ¸": 6940,
      "æ²³åĮĹçľģ": 6941,
      "ĠåĽ½å®¶": 6942,
      "å¤§æ°Ķ": 6943,
      "ä¸ªåĪ«": 6944,
      "èĬĤçĤ¹": 6945,
      "å¤±ä¿¡": 6946,
      "æµģåĬ¨æĢ§": 6947,
      "æĲľç´¢": 6948,
      "ually": 6949,
      "ä¸Ĭçº§": 6950,
      "æĶ¯éĺŁ": 6951,
      "çĶŁäº§ç»ıèĲ¥": 6952,
      "çļĦè´£ä»»": 6953,
      "ä¸ĬéĹ¨": 6954,
      "ï¼īï¼ļ": 6955,
      "åłª": 6956,
      "Ġtrans": 6957,
      "åĬ©æİ¨": 6958,
      "æµģåŁŁ": 6959,
      "ç¦½": 6960,
      "æ³¨åħ¥": 6961,
      "ç¨³æŃ¥": 6962,
      "rib": 6963,
      "èī²åĪĹ": 6964,
      "ä»ĺæ¬¾": 6965,
      "Ġdevelop": 6966,
      "We": 6967,
      "çİĩä¸º": 6968,
      "çļĦå½¢å¼ı": 6969,
      "åīª": 6970,
      "Ġlove": 6971,
      "Ġeas": 6972,
      "Ġ30": 6973,
      "å¼¥": 6974,
      "atch": 6975,
      "å©ļå§»": 6976,
      "å¹´èĩ³": 6977,
      "å¥ł": 6978,
      "æī¹æ¬¡": 6979,
      "åķĨä¸ļéĵ¶è¡Į": 6980,
      "Ġdisc": 6981,
      "çº¹": 6982,
      "ç§ĳæĬĢæľīéĻĲåħ¬åı¸": 6983,
      "ä¸¤åĲį": 6984,
      "éªĮè¯ģ": 6985,
      "è¯īè®¼è¯·æ±Ĥ": 6986,
      "æ´»åĬ¨ä¸Ń": 6987,
      "çļĦåı¯èĥ½": 6988,
      "åħ¬åı¸åľ¨": 6989,
      "åİķ": 6990,
      "è¾Ĳ": 6991,
      "ather": 6992,
      "æµ·ä¸Ĭ": 6993,
      "è¥¿åįĹ": 6994,
      "é«ĺæ¸©": 6995,
      "çłĤ": 6996,
      "åĽĽå¤§": 6997,
      "ç¥¨æĪ¿": 6998,
      "ç»ĳ": 6999,
      "å¼ĢåºŃ": 7000,
      "Ġcur": 7001,
      "ç½ĳæł¼": 7002,
      "ä¸ĩç¾İåħĥ": 7003,
      "ĠAnd": 7004,
      "å¾ģæ±Ĥ": 7005,
      "åĪ°æĿ¥": 7006,
      "çº¦æĿŁ": 7007,
      "Ġlife": 7008,
      "åĩºæĿ¥çļĦ": 7009,
      "åľ°éĿ¢": 7010,
      "ĠCom": 7011,
      "åĲ¬åĪ°": 7012,
      "ä¹ĥèĩ³": 7013,
      "Ġå¯¹": 7014,
      "è¾ħå¯¼": 7015,
      "ĠæŃ¤æ¬¡": 7016,
      "çļĦä¿¡æģ¯": 7017,
      "éĥ½æ²¡æľī": 7018,
      "Ġend": 7019,
      "æıĲé«ĺäºĨ": 7020,
      "æī§çħ§": 7021,
      "çĭ¬ç«ĭèĳ£äºĭ": 7022,
      "æ²Īéĺ³": 7023,
      "çĺ¤": 7024,
      "åľ°è´¨": 7025,
      "åĶ®ä»·": 7026,
      "çļĦæĬķèµĦ": 7027,
      "åıĶ": 7028,
      "æ¾³éĹ¨": 7029,
      "çĪĨåıĳ": 7030,
      "åĲĪè§Ħ": 7031,
      "è¿ĩçļĦ": 7032,
      "æŃ¤åĲİ": 7033,
      "az": 7034,
      "å¤ļå¹´æĿ¥": 7035,
      "ä½¿çĶ¨çļĦ": 7036,
      "å¾ģæĶ¶": 7037,
      "Ġexp": 7038,
      "èįīåİŁ": 7039,
      "Ġ$": 7040,
      "ä¸ŃåĽ½äºº": 7041,
      "æĬķæĶ¾": 7042,
      "äº¬æ´¥": 7043,
      "è£ħä¿®": 7044,
      "4000": 7045,
      "åľ¨è¿Ļä¸ª": 7046,
      "ä½Ĩä¸į": 7047,
      "éĤ£æł·": 7048,
      "ç¾¤ä¼ĹçļĦ": 7049,
      "Ġvis": 7050,
      "æ½ľåľ¨": 7051,
      "gram": 7052,
      "çļĦæķħäºĭ": 7053,
      "æ¬º": 7054,
      "æķ°åįģ": 7055,
      "è§ģè¯ģ": 7056,
      "å±¥èģĮ": 7057,
      "å¤±ä¸ļ": 7058,
      "åįļä¼ļ": 7059,
      "PP": 7060,
      "åľ¨å¤§": 7061,
      "éĢĬ": 7062,
      "éĹ´çļĦ": 7063,
      "âĢ¦âĢ¦âĢĿ": 7064,
      "ä¸Ģçīĩ": 7065,
      "Ġhealth": 7066,
      "è¹Ī": 7067,
      "å·¥ä½ľä¼ļè®®": 7068,
      "å®ĪæĬ¤": 7069,
      "æ¶µçĽĸ": 7070,
      "éģµå¾ª": 7071,
      "æľĪçļĦ": 7072,
      "åı¯éĿł": 7073,
      "è½¦ä¸»": 7074,
      "Ġmarket": 7075,
      "ef": 7076,
      "æľĢä¸º": 7077,
      "ç«ĭæĸ¹ç±³": 7078,
      "åĢºæĿĥ": 7079,
      "ustom": 7080,
      "è¾¾åĪ°äºĨ": 7081,
      "å¼ĢåıĳåķĨ": 7082,
      "æī£éĻ¤": 7083,
      "äºĮåįģå¤§": 7084,
      "æĪĪ": 7085,
      "ä¸ŃåĮ»èį¯": 7086,
      "æĪĳæĥ³": 7087,
      "å½ĵä¸ĭ": 7088,
      "åİŁæ²¹": 7089,
      "æµªè´¹": 7090,
      "ä¸ĢæľŁ": 7091,
      "åĽ½åºĨ": 7092,
      "è¯´çļĦ": 7093,
      "Ġpres": 7094,
      "ank": 7095,
      "æĪ·ç±į": 7096,
      "ason": 7097,
      "å¤§å¤ļ": 7098,
      "æĥĳ": 7099,
      "Ġthose": 7100,
      "æĪĳæĺ¯": 7101,
      "Ġatt": 7102,
      "æ°ĳäºĭè¯īè®¼": 7103,
      "æĲ¬è¿ģ": 7104,
      "This": 7105,
      "é¢Ī": 7106,
      "ä¹Łè®¸": 7107,
      "Ġ2013": 7108,
      "ä»įåľ¨": 7109,
      "Ġcomple": 7110,
      "åĮºåĿĹéĵ¾": 7111,
      "97": 7112,
      "åĽŀå¤į": 7113,
      "èĻļæĭŁ": 7114,
      "å¥ĳæľº": 7115,
      "å±¡": 7116,
      "çŃīé¢ĨåŁŁ": 7117,
      "Ġcall": 7118,
      "è®°èĢħä»İ": 7119,
      "ç§ĳåŃ¦å®¶": 7120,
      "çļĦèĢģ": 7121,
      "åľ°çĲĥ": 7122,
      "éĴ¢éĵģ": 7123,
      "ä¸Ńä»ĭ": 7124,
      "åĿļå®ŀ": 7125,
      "æ¯ķç«Ł": 7126,
      "æĺİçĻ½": 7127,
      "åŃ¦çĶŁçļĦ": 7128,
      "Ġagain": 7129,
      "ä¹ĭæīĢä»¥": 7130,
      "cept": 7131,
      "çĲĨæĢ§": 7132,
      "æĥ³æ³ķ": 7133,
      "ä¸¥èĤĥ": 7134,
      "ä»Ĭå¹´çļĦ": 7135,
      "æľīçĤ¹": 7136,
      "å¤§å±Ģ": 7137,
      "ä¸ºåĩĨ": 7138,
      "ç»Ħç»ĩçļĦ": 7139,
      "çĶµè§Ĩåī§": 7140,
      "ĠåıĤä¸İäºĴåĬ¨": 7141,
      "åĲİæŀľ": 7142,
      "çĭ±": 7143,
      "å±Ĭèĳ£äºĭä¼ļ": 7144,
      "Ġhere": 7145,
      "æļ´åĬĽ": 7146,
      "ages": 7147,
      "çĪ¸çĪ¸": 7148,
      "èµ°åĬ¿": 7149,
      "çĪ±çļĦ": 7150,
      "åıĳçĶŁäºĨ": 7151,
      "è¶ĬæĿ¥è¶Ĭå¤ļ": 7152,
      "è¿Ľåĩºåı£": 7153,
      "arn": 7154,
      "æķĻèĤ²çļĦ": 7155,
      "è¾ĵåħ¥": 7156,
      "ä»·åĢ¼è§Ĥ": 7157,
      "ĠãĢĤ": 7158,
      "ouse": 7159,
      "æĬķæłĩæĸĩä»¶": 7160,
      "Ġart": 7161,
      "æĸľ": 7162,
      "è§Ĩè§ī": 7163,
      "æķĳæ²»": 7164,
      "der": 7165,
      "ä¸Ģè¡Į": 7166,
      "ä¼łæŁĵ": 7167,
      "éĻĲäºİ": 7168,
      "æ¼Ķç»ĥ": 7169,
      "è¯ģåĪ¸æĹ¶æĬ¥": 7170,
      "éĻķè¥¿çľģ": 7171,
      "å¥īçĮ®": 7172,
      "ä»²è£ģ": 7173,
      "Ġavail": 7174,
      "åħĨ": 7175,
      "å¼Ģæłĩ": 7176,
      "èĲ¥ä¸ļæĶ¶åħ¥": 7177,
      "åĽ¾ä¹¦é¦Ĩ": 7178,
      "åĬŀåŃ¦": 7179,
      "å¤§æ¦Ĥ": 7180,
      "Ġfree": 7181,
      "éĶĢåķĨ": 7182,
      "çļĦåĽ½éĻħ": 7183,
      "äº¤ä»ĺ": 7184,
      "æİ¨ä»ĭ": 7185,
      "äºĶå¤§": 7186,
      "èĵ¬": 7187,
      "æļĤåģľ": 7188,
      "çĽĳäºĭä¼ļ": 7189,
      "åŃµåĮĸ": 7190,
      "ä¸Ńç¾İ": 7191,
      "ional": 7192,
      "æĶ¿åºľçļĦ": 7193,
      "å®³äºº": 7194,
      "åĪĨæŀĲå¸Ī": 7195,
      "æľªæĪĲå¹´äºº": 7196,
      "ç¾İèģĶåĤ¨": 7197,
      "uc": 7198,
      "æĿĳçļĦ": 7199,
      "ç®¡çĲĨäººåĳĺ": 7200,
      "Ġstr": 7201,
      "æļ´éĽ¨": 7202,
      "çļĦåŁİå¸Ĥ": 7203,
      "å½¦": 7204,
      "è¿Ļä»½": 7205,
      "å°ıåº·": 7206,
      "chool": 7207,
      "Ġdifferent": 7208,
      "ata": 7209,
      "çľģå¸Ĥ": 7210,
      "çº¢åĪ©": 7211,
      "çļĦæīĢæľī": 7212,
      "é«ĺåħ´": 7213,
      "æīĢéľĢ": 7214,
      "olut": 7215,
      "åŁºéĩĳä¼ļ": 7216,
      "åıĤåĬłäºĨ": 7217,
      "Ġsystem": 7218,
      "é©¬ä¸Ĭ": 7219,
      "éĢģåĪ°": 7220,
      "è®¡ç®Ĺæľº": 7221,
      "åıĻåĪ©äºļ": 7222,
      "ä¸įçŁ¥": 7223,
      "å¼ºåĽ½": 7224,
      "æķ´çĲĨ": 7225,
      "éĢīæĭĶ": 7226,
      "ç£ĭ": 7227,
      "é¥²": 7228,
      "åºķçº¿": 7229,
      "ä¿¡æīĺ": 7230,
      "åºĨç¥Ŀ": 7231,
      "é¥®é£Ł": 7232,
      "ĠUn": 7233,
      "æłĩçŃ¾": 7234,
      "æĽ¿ä»£": 7235,
      "ä¸Ńæĸĩ": 7236,
      "æı½": 7237,
      "ä¾ĽåĽ¾": 7238,
      "çĬ¯ç½ªå«Įçĸĳäºº": 7239,
      "è¿ĩæĿ¥": 7240,
      "èŀįåĲĪåıĳå±ķ": 7241,
      "Ġreally": 7242,
      "éĢ»è¾ĳ": 7243,
      "ä¸Ģå¤§": 7244,
      "å¢ŀå¹ħ": 7245,
      "è¡ĮæĶ¿æī§æ³ķ": 7246,
      "Ġmem": 7247,
      "å¸ĤåľºåĮĸ": 7248,
      "å¸¦å¤´": 7249,
      "å¤ªå¹³": 7250,
      "æħ¢æħ¢": 7251,
      "èĢĥèĻĳåĪ°": 7252,
      "çĶŁéķ¿": 7253,
      "åĬ¨èĥ½": 7254,
      "è¿ĩäºĨ": 7255,
      "els": 7256,
      "ç´§ç´§": 7257,
      "åį«çĶŁåģ¥åº·": 7258,
      "oad": 7259,
      "Ġ----": 7260,
      "çľł": 7261,
      "åįģåħŃ": 7262,
      "ç¢Ĺ": 7263,
      "æ²¿çº¿": 7264,
      "éĶ»çĤ¼": 7265,
      "ier": 7266,
      "è¾Ł": 7267,
      "æĭīåħĭ": 7268,
      "å¤«å¦»": 7269,
      "ä¹Łå¾Ī": 7270,
      "äº¬åī§": 7271,
      "ä»ħä»ħ": 7272,
      "ince": 7273,
      "çŁ©": 7274,
      "è¯Ŀé¢ĺ": 7275,
      "ĠFor": 7276,
      "è¾Ĳå°Ħ": 7277,
      "iet": 7278,
      "ä¸§": 7279,
      "åıī": 7280,
      "åı¯èĥ½æĺ¯": 7281,
      "ä»įæľī": 7282,
      "ä¼¦æķ¦": 7283,
      "ah": 7284,
      "è¦ģæĬĬ": 7285,
      "çĩĥæ°Ķ": 7286,
      "èĢĮä¸į": 7287,
      "ä¸Ĭæµ·è¯ģåĪ¸äº¤æĺĵæīĢ": 7288,
      "çĩĥæĸĻ": 7289,
      "å»īæĶ¿": 7290,
      "çļĦåħ¬åı¸": 7291,
      "æīĳ": 7292,
      "åİĺ": 7293,
      "çĥĤ": 7294,
      "è½¬è½½": 7295,
      "å¤´éĥ¨": 7296,
      "è´ŁéĿ¢": 7297,
      "ä¸¥å³»": 7298,
      "åĩıæĮģ": 7299,
      "æķĳçģ¾": 7300,
      "Ġç¬¬ä¸ī": 7301,
      "ç»¸": 7302,
      "ç»Ħéķ¿": 7303,
      "éŁµ": 7304,
      "åİĨæĹ¶": 7305,
      "ever": 7306,
      "read": 7307,
      "æ½Ń": 7308,
      "èķ´": 7309,
      "92": 7310,
      "ple": 7311,
      "åı¯åľ¨": 7312,
      "è¿ĺåı¯ä»¥": 7313,
      "Ġlook": 7314,
      "ä¾ĿæĹ§": 7315,
      "çĦ¦çĤ¹": 7316,
      "éĦĤ": 7317,
      "ving": 7318,
      "åŃ¦ä¹łè´¯å½»": 7319,
      "åĬŀåħ¬åİħ": 7320,
      "Ġé¡¹çĽ®": 7321,
      "æĺ¯æľī": 7322,
      "çĸ²": 7323,
      "é©¾è½¦": 7324,
      "ä¼°åĢ¼": 7325,
      "æ£Ģå¯Łæľºåħ³": 7326,
      "å®¶çĶµ": 7327,
      "æĢ»æĬķèµĦ": 7328,
      "å¥¹ä»¬": 7329,
      "åħħè¶³": 7330,
      "éª¨å¹²": 7331,
      "å¤ĸåĩº": 7332,
      "è½»æĿ¾": 7333,
      "å³°ä¼ļ": 7334,
      "äººå¿ĥ": 7335,
      "åĲ¸æĶ¶": 7336,
      "æĬµæĬ¼": 7337,
      "çļĦæł¸å¿ĥ": 7338,
      "ä¸Ńæłĩ": 7339,
      "ä¸ĬçıŃ": 7340,
      "å¼ºåº¦": 7341,
      "å¸¸è§Ħ": 7342,
      "å®¢è¿Ĳ": 7343,
      "Ġ-----": 7344,
      "å¤§åĽ½": 7345,
      "ä»¥èī²åĪĹ": 7346,
      "è¢ĸ": 7347,
      "å¾Īå¤§çļĦ": 7348,
      "åıĺåĬ¨": 7349,
      "åĨįåº¦": 7350,
      "æŀĹä¸ļ": 7351,
      "åıĳçĶŁçļĦ": 7352,
      "cer": 7353,
      "æĸĳ": 7354,
      "èµĮ": 7355,
      "è½°": 7356,
      "Ġeach": 7357,
      "åŃĺåľ¨çļĦ": 7358,
      "åĿļæĮģä»¥": 7359,
      "Ġwhile": 7360,
      "Ġplace": 7361,
      "å£®å¤§": 7362,
      "land": 7363,
      "pr": 7364,
      "ways": 7365,
      "åĮł": 7366,
      "å®¶ä¼ģä¸ļ": 7367,
      "arm": 7368,
      "èŃ¦åĳĬ": 7369,
      "çĪ±åĽ½": 7370,
      "è´©": 7371,
      "Ġcare": 7372,
      "Ġ13": 7373,
      "åħ³æ³¨çļĦ": 7374,
      "å§ĳ": 7375,
      "Ġlist": 7376,
      "å·´é»İ": 7377,
      "ces": 7378,
      "é¼»": 7379,
      "ä¸įå¾Ĺä¸į": 7380,
      "ä½ĵçİ°äºĨ": 7381,
      "æĸ°ç¤¾": 7382,
      "å¾Ĺä»¥": 7383,
      "æĶ¯è¡Į": 7384,
      "æ¸¯åı£": 7385,
      "Ġ2009": 7386,
      "de": 7387,
      "æīĵç®Ĺ": 7388,
      "åĪ¸åķĨ": 7389,
      "å·´é©¬": 7390,
      "åħ¬åħ±é¢Ħç®Ĺ": 7391,
      "é¡¾å®¢": 7392,
      "è´µå·ŀçľģ": 7393,
      "æ¹¿åľ°": 7394,
      "éĹ¯": 7395,
      "è½´": 7396,
      "çŃīå¥ĸ": 7397,
      "æĶ¾å¿ĥ": 7398,
      "ç³»ç»ŁçļĦ": 7399,
      "åħ³éĹŃ": 7400,
      "åŀ«": 7401,
      "ç©¶ç«Ł": 7402,
      "å·²ç»ıæĪĲä¸º": 7403,
      "ç»´æĿĥ": 7404,
      "æĻ®æĥł": 7405,
      "æĴŃæĶ¾": 7406,
      "åĩ¸": 7407,
      "å¸Ĥåħ¬å®īå±Ģ": 7408,
      "ale": 7409,
      "å®Įç¾İ": 7410,
      "å¸ĪçĶŁ": 7411,
      "è£ħç½®": 7412,
      "ä¼ļè®¡å¸Ī": 7413,
      "ç¬¬åħ«": 7414,
      "ç§ĳéĻ¢": 7415,
      "çľĭçľĭ": 7416,
      "èĢĥåı¤": 7417,
      "çĥŃéĹ¨": 7418,
      "ced": 7419,
      "æĻ´": 7420,
      "ä¿¡å¿µ": 7421,
      "Ġdet": 7422,
      "åĶ¤": 7423,
      "ç©ºè°ĥ": 7424,
      "è¿ľç¨ĭ": 7425,
      "åıĳå±ķåĴĮ": 7426,
      "è¾ħåĬ©": 7427,
      "ä¹Łå°±": 7428,
      "ç¢§": 7429,
      "Ġprocess": 7430,
      "æħ°éĹ®": 7431,
      "å·¥å§Ķ": 7432,
      "åľ°ä¸Ĭ": 7433,
      "çĶŁæĢģæĸĩæĺİ": 7434,
      "ave": 7435,
      "çĶ¸": 7436,
      "å¸ĤåĮº": 7437,
      "Ġbo": 7438,
      "æº¯": 7439,
      "ä¸¤ä¼ļ": 7440,
      "æĮĩåįĹ": 7441,
      "çīĩåĮº": 7442,
      "åĲ«éĩı": 7443,
      "åİļçļĦ": 7444,
      "Ġadv": 7445,
      "åĢ¡å¯¼": 7446,
      "ness": 7447,
      "ĠâĢĶâĢĶ": 7448,
      "åĲİæľŁ": 7449,
      "èĢĥéªĮ": 7450,
      "ç¬¬äºĮæ¬¡": 7451,
      "ug": 7452,
      "Ġ/": 7453,
      "ä¸ĭåįĬå¹´": 7454,
      "äº§ä¸ļçļĦ": 7455,
      "æĵİ": 7456,
      "Ġsub": 7457,
      "å®¶åĽŃ": 7458,
      "å°ıéķĩ": 7459,
      "ä¸¤å¤§": 7460,
      "Ġ16": 7461,
      "ä½ĵç³»å»ºè®¾": 7462,
      "Ġaround": 7463,
      "çªĿ": 7464,
      "åħ¬åħ±èµĦæºĲäº¤æĺĵ": 7465,
      "å¤ĸéĥ¨": 7466,
      "æĪĳä»¬åľ¨": 7467,
      "èĪŀè¹Ī": 7468,
      "ä¹ĺåĿĲ": 7469,
      "Ġä¸İ": 7470,
      "åĽ½åľŁ": 7471,
      "çŃīéĥ¨éĹ¨": 7472,
      "éĢłåŀĭ": 7473,
      "æĸĩåĮĸåĴĮ": 7474,
      "Ġlast": 7475,
      "éģĹåĿĢ": 7476,
      "å·¡æŁ¥": 7477,
      "åĬłå¤§å¯¹": 7478,
      "å¾ĭå¸ĪäºĭåĬ¡æīĢ": 7479,
      "æŃī": 7480,
      "æĸ¯çī¹": 7481,
      "ĠAl": 7482,
      "æĲºå¸¦": 7483,
      "Ġed": 7484,
      "åĽ½èµĦ": 7485,
      "å¤ĸçķĮ": 7486,
      "ä¼ģä¸ļåľ¨": 7487,
      "èīºæľ¯å®¶": 7488,
      "93": 7489,
      "åĪ°æľŁ": 7490,
      "çľī": 7491,
      "åĩłåįģ": 7492,
      "ize": 7493,
      "ä¾¯": 7494,
      "åħ³çĪ±": 7495,
      "åĬłåĿ¡": 7496,
      "Ġsk": 7497,
      "ä¸īçº§": 7498,
      "çļĦæ¶Īæģ¯": 7499,
      "éģĤ": 7500,
      "æĦıæĦ¿": 7501,
      "åĪĽå§ĭ": 7502,
      "Ġcour": 7503,
      "Ġfol": 7504,
      "å¼ıçļĦ": 7505,
      "é£İæĻ¯": 7506,
      "å·¥ç¨ĭå¸Ī": 7507,
      "åı¤ä»£": 7508,
      "åĬ³åĬ¡": 7509,
      "ç£Ĭ": 7510,
      "91": 7511,
      "way": 7512,
      "åĪĨå·¥": 7513,
      "å¾ģç¨ĭ": 7514,
      "åįķä¸Ģ": 7515,
      "åĿĩä¸º": 7516,
      "æĿİæŁĲ": 7517,
      "é¤Ĳåİħ": 7518,
      "éĿ¢è¯ķ": 7519,
      "çľ¼çĿĽ": 7520,
      "åĢŁéī´": 7521,
      "å¼Ģå¿ĥ": 7522,
      "å£³": 7523,
      "æĪĲç«ĭäºĨ": 7524,
      "æĹłäººæľº": 7525,
      "æľīæĹ¶": 7526,
      "ital": 7527,
      "è¥¿åĮĹ": 7528,
      "å¸¸è§ģ": 7529,
      "æĭ¿åĩº": 7530,
      "éĩİçĶŁ": 7531,
      "çļĨ": 7532,
      "çļĦçłĶç©¶": 7533,
      "è¡Įæĥħ": 7534,
      "ä¸īåĪĨ": 7535,
      "Ġboth": 7536,
      "ä¸ľçĽŁ": 7537,
      "åįĹæĺĮ": 7538,
      "è®¤åĲĮ": 7539,
      "åı·çłģ": 7540,
      "ç»ıèĲ¥èĢħ": 7541,
      "çķĻåŃ¦": 7542,
      "åĪ¤åĨ³ä¹¦": 7543,
      "æĸ°æĹ¶ä»£ä¸ŃåĽ½çī¹èī²ç¤¾ä¼ļä¸»ä¹ī": 7544,
      "ä¸Ģäºº": 7545,
      "Ġfound": 7546,
      "Ġgra": 7547,
      "è£ģåĪ¤": 7548,
      "ä»¥æŃ¤": 7549,
      "è¿Ľä¸ĢæŃ¥åĬłå¼º": 7550,
      "Ġæį®ä»ĭç»į": 7551,
      "èĲ¥ä¸ļæī§çħ§": 7552,
      "æĦŁæŁĵèĢħ": 7553,
      "Ġpol": 7554,
      "çĿ£æŁ¥": 7555,
      "ç¡¬ä»¶": 7556,
      "æłĩè¯Ĩ": 7557,
      "åĽŀåįĩ": 7558,
      "åŁºåĩĨ": 7559,
      "å¤©æ´¥å¸Ĥ": 7560,
      "è´§å¸ģæĶ¿çŃĸ": 7561,
      "æ±Łè¥¿çľģ": 7562,
      "Ġ199": 7563,
      "ä¸įå¦Ĥ": 7564,
      "æĢĴ": 7565,
      "æĹ¶è®¸": 7566,
      "æ±°": 7567,
      "éĵĿ": 7568,
      "èµ·åĪ°": 7569,
      "è·¯æ®µ": 7570,
      "åįĥçĵ¦": 7571,
      "æ¹¾åĮº": 7572,
      "æĪıåī§": 7573,
      "éĻĲåĪ¶æĢ§": 7574,
      "Ġç»ı": 7575,
      "Ġäººæ°ĳ": 7576,
      "çļĦåŁºç¡Ģ": 7577,
      "ä¸İä¸ŃåĽ½": 7578,
      "è§£åĨ³äºĨ": 7579,
      "æķıæĦŁ": 7580,
      "åĽ½å®ī": 7581,
      "imes": 7582,
      "ä¸Ģéĥ¨": 7583,
      "Ġaut": 7584,
      "æľ¬ç§ĳ": 7585,
      "ç§Łéĩĳ": 7586,
      "è¿ĶåĽŀ": 7587,
      "é©¬åħĭæĢĿ": 7588,
      "ĠéĻ¤äºĨ": 7589,
      "æĪĲåĵģ": 7590,
      "Ġpay": 7591,
      "è±«": 7592,
      "å¯»æ±Ĥ": 7593,
      "çļĦåħ³ç³»": 7594,
      "å¹´èĸª": 7595,
      "å¯¹æ¯Ķ": 7596,
      "ines": 7597,
      "çľĭçĿĢ": 7598,
      "Ġloo": 7599,
      "æŀģç«¯": 7600,
      "åİ»å¹´åĲĮæľŁ": 7601,
      "å½¬": 7602,
      "Ġpost": 7603,
      "æİ¥ä¸ĭæĿ¥": 7604,
      "å¡Į": 7605,
      "ä¸Ńå°ıåŃ¦": 7606,
      "çļĦå»ºè®¾": 7607,
      "ç¼ħ": 7608,
      "Ġinter": 7609,
      "Ġprof": 7610,
      "è¡£æľį": 7611,
      "çļĦæĶ¿æ²»": 7612,
      "Ġhim": 7613,
      "erm": 7614,
      "éĩĳçīĮ": 7615,
      "è¿ĺæ¬¾": 7616,
      "ç®¡çĲĨåĪ¶åº¦": 7617,
      "æ³¨æĺİ": 7618,
      "çĶŁæ´»ä¸Ń": 7619,
      "çļĦè¿ĩç¨ĭ": 7620,
      "ä¸Ģåĳ¨": 7621,
      "éĢļçĶ¨": 7622,
      "èĲĮ": 7623,
      "èĤ¡æľ¬": 7624,
      "èĤĩ": 7625,
      "æľºç»Ħ": 7626,
      "è¯¥é¡¹çĽ®": 7627,
      "çĻ»éĻĨ": 7628,
      "ä¸Ńçº§äººæ°ĳæ³ķéĻ¢": 7629,
      "ç£ĭåķĨ": 7630,
      "åį§": 7631,
      "å°ĨæĪĲä¸º": 7632,
      "åıĹè®¿": 7633,
      "è§ģéĿ¢": 7634,
      "Ġ17": 7635,
      "ä¸Ģæ¬¡æĢ§": 7636,
      "åĲ¸å¼ķäºĨ": 7637,
      "ä¸ºæ°ĳ": 7638,
      "å¤ļå¹´çļĦ": 7639,
      "ä¸ĩè¾Ĩ": 7640,
      "æ¹ĸåĮĹçľģ": 7641,
      "èĬ¯çīĩ": 7642,
      "æķ²": 7643,
      "é«ĺæ°´å¹³": 7644,
      "åįļè§Ī": 7645,
      "æĹ©å·²": 7646,
      "è½¿è½¦": 7647,
      "Ġavailable": 7648,
      "åħ¹": 7649,
      "ä¸ŃåĮ»": 7650,
      "å¤§è¿ŀ": 7651,
      "ä¸ºä¸Ńå¿ĥ": 7652,
      "æĪĳåľ¨": 7653,
      "ç³Ĭ": 7654,
      "é¢ĺæĿĲ": 7655,
      "è¿Ľä¸ĢæŃ¥æıĲåįĩ": 7656,
      "äºĳåįĹçľģ": 7657,
      "è´¦åı·": 7658,
      "é³": 7659,
      "æ¼ł": 7660,
      "èĲ½æĪ·": 7661,
      "èĳ±": 7662,
      "ç¬¬ä¸ĢçĻ¾": 7663,
      "å¤±è´¥": 7664,
      "æĬĵæīĭ": 7665,
      "ç¬ĶèĢħ": 7666,
      "åıĳè¡¨è¯Ħè®º": 7667,
      "çļĦæĶ¯æĮģ": 7668,
      "æľ¬åħ¬åĳĬ": 7669,
      "Ġtop": 7670,
      "èĻ¾": 7671,
      "æĭĨéĻ¤": 7672,
      "æľ¬åĪ¤åĨ³": 7673,
      "äººæīįåŁ¹åħ»": 7674,
      "æĮĩæĮ¥éĥ¨": 7675,
      "è¾¨": 7676,
      "Ġthough": 7677,
      "äºĶä¸ª": 7678,
      "Ġcustom": 7679,
      "Ġpub": 7680,
      "ars": 7681,
      "åģĩæĹ¥": 7682,
      "åħ±åĲĮä½ĵ": 7683,
      "éĩįçļĦ": 7684,
      "æŃ£å½ĵ": 7685,
      "åįĹæµ·": 7686,
      "åŀĤ": 7687,
      "èĲ¥æĶ¶": 7688,
      "!!": 7689,
      "ä¸Ģä»£": 7690,
      "æŃ§": 7691,
      "åĩºèµĦ": 7692,
      "èĲ½åĲİ": 7693,
      "æĬµè¾¾": 7694,
      "å¤¯": 7695,
      "è´£ä»¤": 7696,
      "å»ºç«ĭåģ¥åħ¨": 7697,
      "å¾ģéĽĨ": 7698,
      "åħļçļĦäºĮåįģå¤§": 7699,
      "ä¸ĢèĪ¬åħ¬åħ±é¢Ħç®Ĺ": 7700,
      "æĥħèĬĤ": 7701,
      "æį®æŃ¤": 7702,
      "åģļçļĦ": 7703,
      "çĪ½": 7704,
      "é¼İ": 7705,
      "èĪĴéĢĤ": 7706,
      "å½°æĺ¾": 7707,
      "åħ¨ä¸ĸçķĮ": 7708,
      "åİŁåĪĽ": 7709,
      "åıįèĢĮ": 7710,
      "2004": 7711,
      "åĬ³åĬ¨åĬĽ": 7712,
      "åįĹå®ģ": 7713,
      "å¸Ĥåľºä¸Ĭ": 7714,
      "äº²èĩª": 7715,
      "Ġteam": 7716,
      "çļĦéĩįå¤§": 7717,
      "ç»Ħç»ĩå¼Ģå±ķ": 7718,
      "ä»£è¡¨åĽ¢": 7719,
      "ives": 7720,
      "çŃīéĩįçĤ¹": 7721,
      "éķ¿åº¦": 7722,
      "ç¬¼": 7723,
      "åķ¡": 7724,
      "åİ¿åŁİ": 7725,
      "èĳ¬": 7726,
      "å¥¹è¯´": 7727,
      "äº¤éĢļäºĭæķħ": 7728,
      "éķ¿è¿ľ": 7729,
      "ç»ıæµİåıĤèĢĥæĬ¥": 7730,
      "ric": 7731,
      "Ġcle": 7732,
      "æĶ¾æĿ¾": 7733,
      "æĦŁåĬ¨": 7734,
      "æ¸¯æ¾³": 7735,
      "less": 7736,
      "åĽĬ": 7737,
      "åĴ¸": 7738,
      "ç§ī": 7739,
      "åĩºåİ»": 7740,
      "è®°å¾Ĺ": 7741,
      "çİĭæŁĲ": 7742,
      "è¯¯å¯¼": 7743,
      "æĺĨæĺİ": 7744,
      "åħ¨è¿ĩç¨ĭ": 7745,
      "è½¦éĹ´": 7746,
      "åħ±èµ¢": 7747,
      "æĢ»çĽĳ": 7748,
      "éĹ®è´£": 7749,
      "å¯¼èĪª": 7750,
      "ä¸Ģä¸ªäºº": 7751,
      "äºĴéĢļ": 7752,
      "æĴ¤éĶĢ": 7753,
      "èĩ£": 7754,
      "ç«£": 7755,
      "èĩªæľī": 7756,
      "ç»ĨåĪĻ": 7757,
      "æĺŁæľŁ": 7758,
      "Ġcommun": 7759,
      "èµ£": 7760,
      "è¦ģæľī": 7761,
      "ina": 7762,
      "æ¸Ĺ": 7763,
      "æīĢéķ¿": 7764,
      "ç§įåŃĲ": 7765,
      "äºĴèģĶ": 7766,
      "Ġgoing": 7767,
      "ä¸įåı¯èĥ½": 7768,
      "ç¬¬ä¹Ŀ": 7769,
      "æŃ¤äºĭ": 7770,
      "åŀĦ": 7771,
      "æľºæŀĦçļĦ": 7772,
      "ç½ĳç»ľå®īåħ¨": 7773,
      "é£ĺ": 7774,
      "æĭīåĬ¨": 7775,
      "ĠAs": 7776,
      "å¥¥å·´é©¬": 7777,
      "è¯ķéªĮåĮº": 7778,
      "åĬŀäºĭå¤Ħ": 7779,
      "CA": 7780,
      "Ġ.": 7781,
      "ature": 7782,
      "åī§éĻ¢": 7783,
      "åĢĻéĢīäºº": 7784,
      "riend": 7785,
      "ç¡®è¯ĬçĹħä¾ĭ": 7786,
      "å°Ĩä»¥": 7787,
      "çĽĳçĿ£ç®¡çĲĨå±Ģ": 7788,
      "éķ¿æĹ¶éĹ´": 7789,
      "å¼ºå¤§çļĦ": 7790,
      "æ²»å®ī": 7791,
      "åŁºç¡Ģè®¾æĸ½å»ºè®¾": 7792,
      "ï¼īãĢĭ": 7793,
      "Ġchar": 7794,
      "ç«ŁçĦ¶": 7795,
      "éĢ¸": 7796,
      "è°£": 7797,
      "çĽ¸ç»§": 7798,
      "å¸ĪåĤħ": 7799,
      "æĻ®æŁ¥": 7800,
      "åıĳå¸ĥä¼ļä¸Ĭ": 7801,
      "æŃĮæĽ²": 7802,
      "æĺ¯çĶ±": 7803,
      "åĲĥé¥Ń": 7804,
      "æĸ°ä¸Ģè½®": 7805,
      "Ġå¸Ĥ": 7806,
      "è¢«åĽ°": 7807,
      "éª¤": 7808,
      "éĴĪå¯¹æĢ§": 7809,
      "çĶ²æĸ¹": 7810,
      "å¼Ģå¹ķå¼ı": 7811,
      "aut": 7812,
      "ten": 7813,
      "æĬ¬": 7814,
      "ä»ĸè¡¨ç¤º": 7815,
      "æīĵéĢļ": 7816,
      "æĤĶ": 7817,
      "ets": 7818,
      "ä¿Ŀè¯ģéĩĳ": 7819,
      "Ġimport": 7820,
      "åıĬçĽ¸åħ³": 7821,
      "å½±åĥı": 7822,
      "èĽĭçĻ½": 7823,
      "åľ¨åīį": 7824,
      "è¿ĩåº¦": 7825,
      "éĵ¸": 7826,
      "äºĮæ¬¡": 7827,
      "æĢĢçĸĳ": 7828,
      ")ãĢĤ": 7829,
      "Ġser": 7830,
      "Ġsom": 7831,
      "æī§æĶ¿": 7832,
      "äººåĴĮ": 7833,
      "å¹³æĸ¹": 7834,
      "lease": 7835,
      "æĭħå¿§": 7836,
      "å¤¹": 7837,
      "ä¸įå¤ļ": 7838,
      "ä¸įä½ı": 7839,
      "æ¶¯": 7840,
      "å°ıåŀĭ": 7841,
      "ä¸¤ç§į": 7842,
      "Ġdel": 7843,
      "è¯īè®¼ä»£çĲĨäºº": 7844,
      "ci": 7845,
      "Ġopt": 7846,
      "åħļåı²": 7847,
      "çº§åĪ«": 7848,
      "1500": 7849,
      "æĹ©æľŁ": 7850,
      "ĠçĶ±äºİ": 7851,
      "ä¸ºä¼ģä¸ļ": 7852,
      "åĲĳæľ¬éĻ¢": 7853,
      "éĻįéĽ¨": 7854,
      "ä¸ļåĬ¡çļĦ": 7855,
      "æ¯Ĵåĵģ": 7856,
      "åıĸå¾ĹçļĦ": 7857,
      "å¹³çŃī": 7858,
      "åĽ½å®¶å®īåħ¨": 7859,
      "ä¼ĺèī¯": 7860,
      "ä¹Ĳè§Ĥ": 7861,
      "Ġchild": 7862,
      "æĩĪ": 7863,
      "SD": 7864,
      "çļĦæķ°æį®": 7865,
      "æĿ¡è§Ħå®ļ": 7866,
      "èĬĤå¥ı": 7867,
      "è¶ħè¶Ĭ": 7868,
      "å®¤åĨħ": 7869,
      "åķĨåĵģæĪ¿": 7870,
      "irect": 7871,
      "äºĭåıĳ": 7872,
      "Ġcount": 7873,
      "åįģä¸ĥ": 7874,
      "éĩįè¦ģè®²è¯Ŀ": 7875,
      "åº§è°Īä¼ļ": 7876,
      "ä¸ĺ": 7877,
      "Ġfun": 7878,
      "æĭīå¼Ģ": 7879,
      "æĸ°æĹ¶ä»£ä¸ŃåĽ½çī¹èī²ç¤¾ä¼ļä¸»ä¹īæĢĿæĥ³": 7880,
      "ä¸Ģåº§": 7881,
      "ä¸Ĭä¸ĸçºª": 7882,
      "åħ¨ç¤¾ä¼ļ": 7883,
      "æ¤Ĵ": 7884,
      "éĻĦå±ŀ": 7885,
      "æ·»åĬł": 7886,
      "å®Ļ": 7887,
      "æĪĳå°±": 7888,
      "éķ¿æķĪ": 7889,
      "çĮİ": 7890,
      "ä½ĻåĲį": 7891,
      "ä¸įåıĺ": 7892,
      "æ¸¸æ³³": 7893,
      "éĢıæĺİ": 7894,
      "è°ĥèĬĤ": 7895,
      "èĪ¶": 7896,
      "ä¾Ľæ°´": 7897,
      "æĵħ": 7898,
      "que": 7899,
      "åģ¿è¿ĺ": 7900,
      "ä¼°è®¡": 7901,
      "åİŁåĽłæĺ¯": 7902,
      "ä¸įæľį": 7903,
      "å¤§åİħ": 7904,
      "ä½ľçī©": 7905,
      "çłĶåĪ¶": 7906,
      "å®Įæ¯ķ": 7907,
      "çİ¯å¢ĥä¿ĿæĬ¤": 7908,
      "åİĨåı²ä¸Ĭ": 7909,
      "åĺ±": 7910,
      "Ġcompany": 7911,
      "ä¸ĭè°ĥ": 7912,
      "éķ¿æĺ¥": 7913,
      "çĽ®å½ķ": 7914,
      "åįģå¤§": 7915,
      "æİĴéĻ¤": 7916,
      "ç¼ºå°ĳ": 7917,
      "å°±åĮ»": 7918,
      "èĭ±æĸĩ": 7919,
      "çķĻä¸ĭ": 7920,
      "2003": 7921,
      "é©¬æĭīæĿ¾": 7922,
      "è¿Ļå°±æĺ¯": 7923,
      "æį§": 7924,
      "éĢļèĥĢ": 7925,
      "oun": 7926,
      "çľģä»½": 7927,
      "å¼ķæĵİ": 7928,
      "é¦ĸå±Ĭ": 7929,
      "Ġret": 7930,
      "æĮīè§Ħå®ļ": 7931,
      "å®ŀéĻħæĥħåĨµ": 7932,
      "é¹°": 7933,
      "ä¹łè¿ĳå¹³æĸ°æĹ¶ä»£ä¸ŃåĽ½çī¹èī²ç¤¾ä¼ļä¸»ä¹īæĢĿæĥ³": 7934,
      "åľ°åĿĹ": 7935,
      "åĬ¡å®ŀ": 7936,
      "è¡¨éĿ¢": 7937,
      "åĢ¼çıŃ": 7938,
      "ä¼łç»ŁçļĦ": 7939,
      "æ§Ľ": 7940,
      "åĴĸåķ¡": 7941,
      "æ°´è´¨": 7942,
      "ç¾İåĽ½çļĦ": 7943,
      "ç±³çļĦ": 7944,
      "æ²¹ä»·": 7945,
      "å¼¯": 7946,
      "åĮ»æĬ¤": 7947,
      "è§Ĩéĩİ": 7948,
      "å®īåħ¨éļĲæĤ£": 7949,
      "æľªæĿ¥çļĦ": 7950,
      "è·ŁçĿĢ": 7951,
      "åĲĮæ¯Ķä¸ĭéĻį": 7952,
      "Ġlot": 7953,
      "åĨ³çŃĸéĥ¨ç½²": 7954,
      "ç¥Ŀç¦ı": 7955,
      "ä¾¦æŁ¥": 7956,
      "æĺ¯æľĢ": 7957,
      "æµ·åı£": 7958,
      "åĨľçĶ°": 7959,
      "åĳ¨æľ«": 7960,
      "çĽ®åīįçļĦ": 7961,
      "åĪĽæĸ°åĪĽä¸ļ": 7962,
      "Ġproject": 7963,
      "çĶµåŃĲåķĨåĬ¡": 7964,
      "çļĦåīįæıĲ": 7965,
      "çļĦè¿ĩç¨ĭä¸Ń": 7966,
      "è¦ģåĬłå¼º": 7967,
      "ĠCl": 7968,
      "é¸Ń": 7969,
      "å§Ķæīĺè¯īè®¼ä»£çĲĨäºº": 7970,
      "äººäºº": 7971,
      "åĽ½ä¼ģ": 7972,
      "å¯¹è¯¥": 7973,
      "å¼ºåĬ²": 7974,
      "Ġform": 7975,
      "ç§ĺå¯Ĩ": 7976,
      "Ġtechn": 7977,
      "å¹²åĩĢ": 7978,
      "æ¼ĶåĶ±": 7979,
      "å±ħå®¶": 7980,
      "çĭł": 7981,
      "æľĭåıĭåľĪ": 7982,
      "Ġfew": 7983,
      "çļĦçĥŃ": 7984,
      "åľ¨å®¶": 7985,
      "ining": 7986,
      "æıĲè´¨": 7987,
      "ç½ĳæ°ĳ": 7988,
      "æĦıåĲĳ": 7989,
      "åĬ©çĲĨ": 7990,
      "é«ĺåİŁ": 7991,
      "æĦģ": 7992,
      "æĽ´æį¢": 7993,
      "èĮ¨": 7994,
      "æĭ©": 7995,
      "ä¸»åĬĽ": 7996,
      "ç«£å·¥": 7997,
      "éĻĲåĪ¶æĢ§èĤ¡ç¥¨": 7998,
      "AI": 7999,
      "çī²": 8000,
      "ä½ĵä¼ļ": 8001,
      "Ġpur": 8002,
      "éĹ¨æ§Ľ": 8003,
      "è¿Ĳæ²³": 8004,
      "æīĭä¸Ń": 8005,
      "å¾Īæľī": 8006,
      "Ġthink": 8007,
      "å®ļäºĨ": 8008,
      "éĩįå¤į": 8009,
      "çĲĥè¿·": 8010,
      "æī¹åıĳ": 8011,
      "ä¸įä»ħæĺ¯": 8012,
      "æĹ¢æľī": 8013,
      "ä¿¡çĶ¨åį¡": 8014,
      "è¾¹å¢ĥ": 8015,
      "åħįçĸ«": 8016,
      "çŃĶæ¡Ī": 8017,
      "Ġsupport": 8018,
      "çļĦæ¯Ķä¾ĭ": 8019,
      "ä¸įä¸Ĭ": 8020,
      "ä¿©": 8021,
      "çĽĳå±Ģ": 8022,
      "çĪ¬": 8023,
      "èİŀ": 8024,
      "åī¯æĢ»ç»ıçĲĨ": 8025,
      "èĭ±è¯Ń": 8026,
      "å¾®ä¿¡åħ¬ä¼Ĺåı·": 8027,
      "Ġå½ĵ": 8028,
      "çļĦåıĺåĮĸ": 8029,
      "Ġprogram": 8030,
      "ä¸¥æł¼èĲ½å®ŀ": 8031,
      "åıĳå±ķæĶ¹éĿ©": 8032,
      "ç»ĵè®º": 8033,
      "èĢģåħ¬": 8034,
      "Ġext": 8035,
      "åľ¨æĸ°": 8036,
      "åĪ°çļĦ": 8037,
      "ç½ĳçĤ¹": 8038,
      "æµ·çļĦ": 8039,
      "æĹłæķĪ": 8040,
      "ç©ºä¸Ń": 8041,
      "qq": 8042,
      "ä¸ľäº¬": 8043,
      "åı£å²¸": 8044,
      "æ¯ıåĳ¨": 8045,
      "èĪ¹èĪ¶": 8046,
      "âĢķ": 8047,
      "å¸Ĩ": 8048,
      "ä¸ŃåįĪ": 8049,
      "æ³ķåĪ¶": 8050,
      "ç´łåħ»": 8051,
      "Ġfamily": 8052,
      "æĸ°åŁİ": 8053,
      "éĥ¨ä»¶": 8054,
      "ä¹Łä¸º": 8055,
      "çľĭåĪ°äºĨ": 8056,
      "é¼ł": 8057,
      "èģĶç³»æĸ¹å¼ı": 8058,
      "çĽ¸å½ĵäºİ": 8059,
      "å°Ĩæĺ¯": 8060,
      "åĲįä¹ī": 8061,
      "ç§°åı·": 8062,
      "Ġgl": 8063,
      "éħįéĢģ": 8064,
      "åħ´å¥ĭ": 8065,
      "é¢ĳç¹ģ": 8066,
      "ç¿»è¯ĳ": 8067,
      "ç¯ĩç«ł": 8068,
      "åĩºçīĪç¤¾": 8069,
      "çļĦåħ¶ä»ĸ": 8070,
      "åħ½": 8071,
      "ä¸Ģæĸ¹": 8072,
      "çºº": 8073,
      "æľ¬è´¨": 8074,
      "å¹¶äºİ": 8075,
      "éĩĩéĽĨ": 8076,
      "ä»ĭç»įäºĨ": 8077,
      "çĶ»éĿ¢": 8078,
      "æĬ½æŁ¥": 8079,
      "éĿ¢ä¸´çļĦ": 8080,
      "è¡į": 8081,
      "å¹´å¼Ģå§ĭ": 8082,
      "è¯ķåĽ¾": 8083,
      "Ġproper": 8084,
      "thing": 8085,
      "å¤¯å®ŀ": 8086,
      "åľ¨è¯¥": 8087,
      "é©¬æĿ¥": 8088,
      "Ġusing": 8089,
      "gg": 8090,
      "Ġpat": 8091,
      "åĲĦåİ¿": 8092,
      "æ¨¡èĮĥ": 8093,
      "èĳĽ": 8094,
      "èĩ´è¾ŀ": 8095,
      "ä¸¥éĩįçļĦ": 8096,
      "è¿ĲèĲ¥åķĨ": 8097,
      "æĭĵå®½": 8098,
      "æĸ°é«ĺ": 8099,
      "æĪ·å¤ĸ": 8100,
      "åĬłæ²¹ç«Ļ": 8101,
      "å·¥ä½ľæĬ¥åĳĬ": 8102,
      "æħ¨": 8103,
      "æ³ķå¾ĭè´£ä»»": 8104,
      "æī©å¼ł": 8105,
      "å¿ħè¦ģçļĦ": 8106,
      "iel": 8107,
      "æ²§": 8108,
      "å¤ĸè´¸": 8109,
      "è¯ĬçĸĹ": 8110,
      "æ·ĺæ±°": 8111,
      "ä¸Ģæ¡Ī": 8112,
      "è¾ĥä½İ": 8113,
      "åĩıæİĴ": 8114,
      "ä¸»ä½ĵè´£ä»»": 8115,
      "Ġlead": 8116,
      "Ġplan": 8117,
      "å¤ļåħĥåĮĸ": 8118,
      "ç»£": 8119,
      "ä¸¤åľ°": 8120,
      "ex": 8121,
      "æĿł": 8122,
      "æľ¬å¸Ĥ": 8123,
      "æ²³éģĵ": 8124,
      "åįłæį®": 8125,
      "ç»§æī¿": 8126,
      "Ġservice": 8127,
      "åĩºåĽ½": 8128,
      "å»ºéĢł": 8129,
      "ä¹Łè¢«": 8130,
      "è®¤è´Ń": 8131,
      "åµ": 8132,
      "Ġå¦Ĥæŀľ": 8133,
      "æľīå¾Īå¤ļ": 8134,
      "çĲ¼": 8135,
      "æĸ°åıĳå±ķ": 8136,
      "åı¯è°ĵ": 8137,
      "å½ĵå±Ģ": 8138,
      "åį«è§Ĩ": 8139,
      "å·¡å¯Ł": 8140,
      "åħ»èĢģéĩĳ": 8141,
      "ä¸Ŀç»¸": 8142,
      "Ġide": 8143,
      "å®ŀæķĪ": 8144,
      "éĥĬ": 8145,
      "åħ¶ä½Ļ": 8146,
      "åĪĽå§ĭäºº": 8147,
      "èģª": 8148,
      "éĩĳå±±": 8149,
      "æīĢå±ŀ": 8150,
      "äººæ°ĳæ£Ģå¯ŁéĻ¢": 8151,
      "åįģåĽĽäºĶ": 8152,
      "ĠåĢ¼å¾Ĺ": 8153,
      "ä¸Ģæ®µæĹ¶éĹ´": 8154,
      "åĬ¡å·¥": 8155,
      "æŁ¯": 8156,
      "è£Ķ": 8157,
      "åŁİä¹¡å»ºè®¾": 8158,
      "çŃīäºº": 8159,
      "æīĵçĶµè¯Ŀ": 8160,
      "æĸĩåĮĸæĹħæ¸¸": 8161,
      "éļıæĦı": 8162,
      "èĬ±åĽŃ": 8163,
      "ä¾¿æ°ĳ": 8164,
      "co": 8165,
      "çļĦåĲĪä½ľ": 8166,
      "åįľ": 8167,
      "æĢ¨": 8168,
      "ä¸ªèĤ¡": 8169,
      "æŀ£": 8170,
      "æīĵå·¥": 8171,
      "Ġgener": 8172,
      "æľĿéĺ³": 8173,
      "éĺµåľ°": 8174,
      "ä¸įå¤ª": 8175,
      "å®ļçĤ¹": 8176,
      "æĽ´å¤§çļĦ": 8177,
      "çī©çĲĨ": 8178,
      "çŁŃä¿¡": 8179,
      "åĮ¹éħį": 8180,
      "ĠåħŃ": 8181,
      "ä¸įå¤§": 8182,
      "å¤ļé¡¹": 8183,
      "ç®¡å§Ķä¼ļ": 8184,
      "94": 8185,
      "æĺ¯ä¸ºäºĨ": 8186,
      "å·¥ç¨ĭå»ºè®¾": 8187,
      "èĥ½åĬĽåĴĮ": 8188,
      "æķħæĦı": 8189,
      "Ġalways": 8190,
      "Ġä½ľèĢħ": 8191,
      "éĻįä»·": 8192,
      "ĠAn": 8193,
      "ä¸įä»ħä»ħ": 8194,
      "aking": 8195,
      "æĶ¿æ³ķ": 8196,
      "æıĲæ¡Ī": 8197,
      "åĿ¤": 8198,
      "å¾Īå°ĳ": 8199,
      "ç²¾éĢī": 8200,
      "ä¸¾åĬŀçļĦ": 8201,
      "äº§ä¸ļåĮĸ": 8202,
      "äºĴçĽ¸": 8203,
      "éĻ¤å¤ĸ": 8204,
      "ween": 8205,
      "æł½": 8206,
      "æĪĳä»¬å°Ĩ": 8207,
      "ä¿¡æģ¯æĬĢæľ¯": 8208,
      "æ¡¥æ¢ģ": 8209,
      "view": 8210,
      "çĽĨ": 8211,
      "åħļæĶ¿": 8212,
      "é¢Ĩåıĸ": 8213,
      "å¼łæŁĲ": 8214,
      "åĽ°å¢ĥ": 8215,
      "ved": 8216,
      "ä¸İä¼ļ": 8217,
      "çĸ¯": 8218,
      "Wh": 8219,
      "ä¸Ģå¤Ħ": 8220,
      "ä¸įä½Ĩ": 8221,
      "çŃīæĥħåĨµ": 8222,
      "ä½ĵåĨħ": 8223,
      "åķĨæłĩ": 8224,
      "åĩĨåħ¥": 8225,
      "çĶŁäº§çļĦ": 8226,
      "æĶ¿åĬ¡æľįåĬ¡": 8227,
      "éĿĸ": 8228,
      "çŃīå¤ļç§į": 8229,
      "æĥłæ°ĳ": 8230,
      "åįģåħ«å¤§": 8231,
      "æľīä»Ģä¹Ī": 8232,
      "å¯¹åºĶ": 8233,
      "å®ļçļĦ": 8234,
      "ä½Ļäºº": 8235,
      "è´§è½¦": 8236,
      "ç¿°": 8237,
      "å»īæ´ģ": 8238,
      "ittle": 8239,
      "ç¡ķå£«": 8240,
      "è°¨æħİ": 8241,
      "Ġfollow": 8242,
      "å¤ļä½į": 8243,
      "çī¹ç§į": 8244,
      "åĪ¶å®ļäºĨ": 8245,
      "å¸ĤåľºçĽĳç®¡å±Ģ": 8246,
      "æ°ĳäºĭè¯īè®¼æ³ķ": 8247,
      "å§¨": 8248,
      "åĪ¶çº¦": 8249,
      "èİ·å¥ĸ": 8250,
      "çªĳ": 8251,
      "Ġvar": 8252,
      "èĽĭç³ķ": 8253,
      "å¾ĴåĪĳ": 8254,
      "ä»Ķç»Ĩ": 8255,
      "ä¸ªå°ıæĹ¶": 8256,
      "è¿Ļéĥ¨": 8257,
      "éĩĮç¨ĭ": 8258,
      "Ġ2012": 8259,
      "èµĭäºĪ": 8260,
      "è¶ĬåįĹ": 8261,
      "æĪĲä¸ºäºĨ": 8262,
      "Ġkeep": 8263,
      "ä¸Ńå±±": 8264,
      "å¤ĸåľ°": 8265,
      "åħ°å·ŀ": 8266,
      "ĠæĿ¨": 8267,
      "èµ·çĤ¹": 8268,
      "æ»¥": 8269,
      "äººæ°ĳåĮ»éĻ¢": 8270,
      "ç¿ł": 8271,
      "ä¸Ĭè°ĥ": 8272,
      "å®¶æĹı": 8273,
      "åĸ»": 8274,
      "Ġstill": 8275,
      "åģ¥åº·åıĳå±ķ": 8276,
      "è´Ŀå°Ķ": 8277,
      "åħ³èģĶäº¤æĺĵ": 8278,
      "çļĦèµĦéĩĳ": 8279,
      "çļĦçİ°è±¡": 8280,
      "æĤĦ": 8281,
      "ç»ĪæŃ¢": 8282,
      "çºªæ£ĢçĽĳå¯Ł": 8283,
      "é¬": 8284,
      "çļĦç®¡çĲĨ": 8285,
      "éĹ½": 8286,
      "ä¿Ŀå®ī": 8287,
      "å¥½äºĨ": 8288,
      "å±Ģå±Ģéķ¿": 8289,
      "2025": 8290,
      "åĬ³åĬ¨èĢħ": 8291,
      "åĲĦä½į": 8292,
      "ç§ģäºº": 8293,
      "éģŃåĪ°": 8294,
      "é¹¤": 8295,
      "å°ģéĹŃ": 8296,
      "éĹ²ç½®": 8297,
      "åľºæ¯ĶèµĽ": 8298,
      "æĶ¿åįıå§Ķåĳĺ": 8299,
      "åĴĮä¸ŃåĽ½": 8300,
      "é«ĺæłĩåĩĨ": 8301,
      "Ġsure": 8302,
      "6000": 8303,
      "pm": 8304,
      "å°ıéº¦": 8305,
      "æİ¨åĩºäºĨ": 8306,
      "åĪ¤å¤Ħ": 8307,
      "ä¸Ńåħ±ä¸Ńå¤®": 8308,
      "ients": 8309,
      "æľĢæĹ©": 8310,
      "å±Ģéĥ¨": 8311,
      "åŁİç®¡": 8312,
      "èĭĳ": 8313,
      "æĳ©æīĺ": 8314,
      "ä¸ĳ": 8315,
      "ä¸ļçļĦ": 8316,
      "åºĶåľ¨": 8317,
      "ç»ĻæĪĳ": 8318,
      "ç§¯æŀģæĢ§": 8319,
      "äº¬æ´¥åĨĢ": 8320,
      "å·¾": 8321,
      "æľīæĿĥ": 8322,
      "ä¸įä¸Ģæł·": 8323,
      "åİ¢": 8324,
      "åĽĽæĺ¯": 8325,
      "æĹ©ä¸Ĭ": 8326,
      "iving": 8327,
      "å®ĩå®Ļ": 8328,
      "æĪĲçļĦ": 8329,
      "è¿ĽèĢĮ": 8330,
      "åĩĨåĪĻ": 8331,
      "èĤ¿çĺ¤": 8332,
      "éĺĲ": 8333,
      "Ġint": 8334,
      "ç¡®ç«ĭ": 8335,
      "æĨ¾": 8336,
      "700": 8337,
      "åıĬä»¥ä¸Ĭ": 8338,
      "å¸¸å¸¸": 8339,
      "åħ³ç³»çļĦ": 8340,
      "Ġhapp": 8341,
      "æĭĨè¿ģ": 8342,
      "åĬ«": 8343,
      "æĭ¦": 8344,
      "åŀĥåľ¾åĪĨç±»": 8345,
      "ized": 8346,
      "ä¾ł": 8347,
      "åīįåĲİ": 8348,
      "åıĬåħ¶ä»ĸ": 8349,
      "èµ¶åĪ°": 8350,
      "åıĳéĢģ": 8351,
      "åĬłåī§": 8352,
      "Ġsame": 8353,
      "åº¦åģĩ": 8354,
      "Ġopen": 8355,
      "Ġlar": 8356,
      "æ°ĳèĲ¥ä¼ģä¸ļ": 8357,
      "ä½Ĳ": 8358,
      "åĪĨçº¢": 8359,
      "éģı": 8360,
      "æľŁå¾ĴåĪĳ": 8361,
      "ross": 8362,
      "Ġfeel": 8363,
      "ivers": 8364,
      "çļĦèī¯å¥½": 8365,
      "æĢ¡": 8366,
      "èĤ¾": 8367,
      "Ġsign": 8368,
      "å°ıå¾®ä¼ģä¸ļ": 8369,
      "èīĺ": 8370,
      "é¦¨": 8371,
      "å¹¿ç½ĳ": 8372,
      "åħĭæľį": 8373,
      "è®²åº§": 8374,
      "æĸ°éĹ»ç½ĳ": 8375,
      "ĠBut": 8376,
      "è§ĦèĮĥåĮĸ": 8377,
      "çļĦæĦıè§ģ": 8378,
      "ç©ºåĨĽ": 8379,
      "æŁĲäºĽ": 8380,
      "ç»Īç»ĵ": 8381,
      "éĤ®æĶ¿": 8382,
      "è½¬åĮĸä¸º": 8383,
      "åŀĴ": 8384,
      "ä¿¡æģ¯åħ¬å¼Ģ": 8385,
      "èģĶåĲĪä½ĵ": 8386,
      "Ġappro": 8387,
      "Ġbuild": 8388,
      "æľµ": 8389,
      "åľ¨åħ¨çĲĥ": 8390,
      "ä¿ĿåŃĺ": 8391,
      "åĮĹæĸ¹": 8392,
      "çłĶåĪ¤": 8393,
      "å«ģ": 8394,
      "çº¤": 8395,
      "é«ĺæĸ°æĬĢæľ¯": 8396,
      "éķ¿ä¸īè§Ĵ": 8397,
      "å©·": 8398,
      "åĪĽä¸ļæĿ¿": 8399,
      "å»ºçŃĳéĿ¢ç§¯": 8400,
      "å®ŀä½ĵç»ıæµİ": 8401,
      "ware": 8402,
      "æĹ¥åĩĮæĻ¨": 8403,
      "æĢ¥æķĳ": 8404,
      "çŃīå¤ļä¸ª": 8405,
      "çº¦ä¸º": 8406,
      "èĬ±è´¹": 8407,
      "ç§ŁæĪ¿": 8408,
      "æĬĹçĸ«": 8409,
      "Ġve": 8410,
      "æĬ¥èĢĥ": 8411,
      "æĴĴ": 8412,
      "åİĨç¨ĭ": 8413,
      "ç½Ĳ": 8414,
      "æ¡Ĳ": 8415,
      "æī¿è½½": 8416,
      "åĿĲåľ¨": 8417,
      "Ġexperience": 8418,
      "me": 8419,
      "ĠæĪªèĩ³": 8420,
      "æľĪä¸Ń": 8421,
      "æ¶ĪåĮĸ": 8422,
      "åħĪéĶĭ": 8423,
      "è½¬åĲĳ": 8424,
      "æ¬¾é¡¹": 8425,
      "éĩįè¦ģçļĦæĺ¯": 8426,
      "Ġinterest": 8427,
      "åĩ¸æĺ¾": 8428,
      "åŀĦæĸŃ": 8429,
      "å¤¸": 8430,
      "è§Ħç«ł": 8431,
      "ä¸įæĸŃæıĲé«ĺ": 8432,
      "Ġrun": 8433,
      "be": 8434,
      "é«ĺå±Ĥ": 8435,
      "ering": 8436,
      "å°Ĩä¸º": 8437,
      "è®©ä»ĸä»¬": 8438,
      "äººæ°ĳçļĦ": 8439,
      "çļĦä¸Ģæ¬¡": 8440,
      "å®£ä¼łéĥ¨": 8441,
      "ç»ĵæŀĦæĢ§": 8442,
      "å®¢æĪ·ç«¯": 8443,
      "ä¸Ģå¥Ĺ": 8444,
      "æĭ¾": 8445,
      "å»ºè®¾å·¥ç¨ĭ": 8446,
      "éĿŀçī©è´¨": 8447,
      "è£ħé¥°": 8448,
      "æııè¿°": 8449,
      "Ġbetween": 8450,
      "èĢ¶": 8451,
      "è¦ģåĿļæĮģ": 8452,
      "ä»ĸè®¤ä¸º": 8453,
      "å°Ĩå¯¹": 8454,
      "åĽ½éĻħåĮĸ": 8455,
      "ä»ĭç»įè¯´": 8456,
      "ĠThey": 8457,
      "è¿ĻæĿ¡": 8458,
      "åīįè¿Ľ": 8459,
      "Ġdata": 8460,
      "æĲı": 8461,
      "åĬ³åĬ¨åĲĪåĲĮ": 8462,
      "æī§æ³ķäººåĳĺ": 8463,
      "èī²å½©": 8464,
      "æī¹å¤į": 8465,
      "äºļå¤ª": 8466,
      "çĻ½å¤©": 8467,
      "é©¬æĿ¥è¥¿äºļ": 8468,
      "ä¸Ģéģĵ": 8469,
      "æ¿ĢåĬ¨": 8470,
      "ä¹Ļæĸ¹": 8471,
      "ology": 8472,
      "çĶ¨äººåįķä½į": 8473,
      "ä¸ĢæıĲ": 8474,
      "åľºä¸Ĭ": 8475,
      "æľĢåĪĿ": 8476,
      "æĹłæķ°": 8477,
      "ç»ıæµİä½ĵ": 8478,
      "æ®¿": 8479,
      "æ·±åħ¥æİ¨è¿Ľ": 8480,
      "Ġval": 8481,
      "æĭĺçķĻ": 8482,
      "æıĲåıĸ": 8483,
      "ä¸ŃåĽ½ç»ıèĲ¥": 8484,
      "äº¤åıī": 8485,
      "ä»»èģĮ": 8486,
      "ä¸ľèİŀ": 8487,
      "å¤Ħå¤Ħ": 8488,
      "çĶ·äºº": 8489,
      "åħħåĪĨåĪ©çĶ¨": 8490,
      "åħ»èĢģä¿ĿéĻ©": 8491,
      "Ġthings": 8492,
      "çĽ®åīįå·²": 8493,
      "Ġwithout": 8494,
      "è¡Ģç®¡": 8495,
      "ody": 8496,
      ">>": 8497,
      "æĸ°åĬłåĿ¡": 8498,
      "aron": 8499,
      "åĨįçĶŁ": 8500,
      "çĭ®": 8501,
      "çľŁæŃ£çļĦ": 8502,
      "Ġåı¦å¤ĸ": 8503,
      "ç®¡çĲĨéĥ¨éĹ¨": 8504,
      "æ¯ıä¸ªäºº": 8505,
      "åŃĺéĩı": 8506,
      "å¼Ĥåľ°": 8507,
      "åı¬å¼ĢçļĦ": 8508,
      "ST": 8509,
      "ä¸ĢæĬĬ": 8510,
      "ä¸Ĭä¼ł": 8511,
      "æĪĳè¯´": 8512,
      "è¾¾å·ŀ": 8513,
      "çĨĻ": 8514,
      "æĪĺçķ¥åĲĪä½ľ": 8515,
      "åī©ä½Ļ": 8516,
      "åĩºç§Łè½¦": 8517,
      "å¤§æ¡¥": 8518,
      "åīįæ²¿": 8519,
      "ä¸ŃåĽ½åĽ½éĻħ": 8520,
      "ä»£è¡¨å¤§ä¼ļ": 8521,
      "Ġ2008": 8522,
      "ER": 8523,
      "å±Ī": 8524,
      "æĪĲåĪĨ": 8525,
      "ç«ĭä½ĵ": 8526,
      "åı°é£İ": 8527,
      "éħ¿": 8528,
      "Ġonline": 8529,
      "å¤±åİ»": 8530,
      "æĺİç¡®äºĨ": 8531,
      "æ³¨æĦıçļĦæĺ¯": 8532,
      "ä¸įæķ¢": 8533,
      "ä»ĸè¿ĺ": 8534,
      "Ġposs": 8535,
      "çī©ä»·": 8536,
      "Ġmonth": 8537,
      "IP": 8538,
      "ger": 8539,
      "ä¸įèµ·": 8540,
      "å¤§åİ¦": 8541,
      "å¯¹å¾ħ": 8542,
      "ä¸İåħ¶": 8543,
      "Ġwater": 8544,
      "æĺ¥è¿Ĳ": 8545,
      "éĽĨåĽ¢åħ¬åı¸": 8546,
      "å±Ĭåħ¨åĽ½": 8547,
      "åªĴä½ĵæĬ¥éģĵ": 8548,
      "è¡Ģåİĭ": 8549,
      "åħ»èĢģæľįåĬ¡": 8550,
      "æ³¨æĦıåĪ°": 8551,
      "çļĦæĢģåº¦": 8552,
      "æĹ¥åĩºçĶŁ": 8553,
      "åĬĽåĴĮ": 8554,
      "æıĲåıĬ": 8555,
      "Ġmus": 8556,
      "ä¹¦æ³ķ": 8557,
      "æ¨¡æĭŁ": 8558,
      "ä»ĭåħ¥": 8559,
      "çīĪæľ¬": 8560,
      "ä¸ĵä¸ļæĬĢæľ¯": 8561,
      "å¤§éĩıçļĦ": 8562,
      "èµļéĴ±": 8563,
      "ä¸Ģåı·": 8564,
      "Ġty": 8565,
      "åľ¨åĽ½åĨħ": 8566,
      "ä¸įç¡®å®ļ": 8567,
      "ä¸ŃåĽ½è¯ģçĽĳä¼ļ": 8568,
      "æ¼Ĩ": 8569,
      "å±ıå¹ķ": 8570,
      "ä»İä¸¥æ²»": 8571,
      "ä¸Ģæ®µ": 8572,
      "âĢĿ,": 8573,
      "åĽ½ä¼ļ": 8574,
      "the": 8575,
      "åĽŀé¡¾": 8576,
      "Ġreal": 8577,
      "ç§¯æŀģåıĤä¸İ": 8578,
      "çļĦä¸Ģé¡¹": 8579,
      "æĬĸ": 8580,
      "è¡¨å½°": 8581,
      "æĬķäº§": 8582,
      "æł¸åĩĨ": 8583,
      "ä¸ªæľĪåĨħ": 8584,
      "å·¡éĢ»": 8585,
      "èŁ¹": 8586,
      "å¸ĤæĶ¿": 8587,
      "åĮĸå¦Ĩ": 8588,
      "éĴ©": 8589,
      "åĬ¿å¤´": 8590,
      "çĦ¦èĻĳ": 8591,
      "éĢłæĪĲçļĦ": 8592,
      "ä¹ĭå£°": 8593,
      "æħķ": 8594,
      "æ´½": 8595,
      "è¿ĺæ²¡": 8596,
      "æ°´æ³¥": 8597,
      "å¾ĭå®¾": 8598,
      "æĸ°éĹ»åıĳå¸ĥä¼ļ": 8599,
      "èı²å¾ĭå®¾": 8600,
      "bers": 8601,
      "èįĨ": 8602,
      "èµ°çº¢": 8603,
      "å´©": 8604,
      "åĲĪéĢĤ": 8605,
      "Ġbetter": 8606,
      "%ãĢģ": 8607,
      "xx": 8608,
      "âĢ¢": 8609,
      "ä¸ĢåĿĹ": 8610,
      "åĴĮä¸ªäºº": 8611,
      "æİ©": 8612,
      "æĥ¨": 8613,
      "ç¾İåĨĽ": 8614,
      "åŃĺåĤ¨": 8615,
      "çĮľ": 8616,
      "æ±ĩèģļ": 8617,
      "è¡Ģæ¶²": 8618,
      "ç£ģ": 8619,
      "man": 8620,
      "Ġé«ĺ": 8621,
      "æĥħæĢĢ": 8622,
      "éļıæľº": 8623,
      "çķĻåľ¨": 8624,
      "ants": 8625,
      "åįķåħĥ": 8626,
      "å¤ĩåıĹ": 8627,
      "Ġlittle": 8628,
      "ä¸Ńåįİäººæ°ĳåħ±åĴĮåĽ½æ°ĳäºĭè¯īè®¼æ³ķ": 8629,
      "çļĦä½ľåĵģ": 8630,
      "ä¸Ĭæľī": 8631,
      "åħ¬ç«ł": 8632,
      "è¿Ļç±»": 8633,
      "ä¸ĩåĲį": 8634,
      "ä¸ĩæĪ·": 8635,
      "åı°åĮĹ": 8636,
      "ä¸¥åİī": 8637,
      "èĩªå¾ĭ": 8638,
      "äº¤å¾Ģ": 8639,
      "Ġpri": 8640,
      "ç§įç±»": 8641,
      "çļĦé«ĺåº¦": 8642,
      "çī¢è®°": 8643,
      "ĠçĦ¶èĢĮ": 8644,
      "åħ¨å±Ģ": 8645,
      "æĿĳåºĦ": 8646,
      "å¤įåĪ¶": 8647,
      "éī´äºİ": 8648,
      "æ¯«ç±³": 8649,
      "ä¸ºæľŁ": 8650,
      "å·¥ä¼¤": 8651,
      "æĸĩä¹¦": 8652,
      "æķ°é¢Ŀ": 8653,
      "åİŁä»¶": 8654,
      "ä¸¤å¤©": 8655,
      "åħ¬åĳĬç¼ĸåı·": 8656,
      "å¹³æĸ¹åħ¬éĩĮ": 8657,
      "ared": 8658,
      "éĤ£éĩĮ": 8659,
      "æ¾Ħ": 8660,
      "ä¸ºä¸ŃåĽ½": 8661,
      "å¸ĤçļĦ": 8662,
      "å¸ĤåĢ¼": 8663,
      "çĶ¨éĢĶ": 8664,
      "ä¸ľé£İ": 8665,
      "arly": 8666,
      "æķĪèĥ½": 8667,
      "æĬĢæľ¯åĪĽæĸ°": 8668,
      "rol": 8669,
      "åĲĪä½ľçļĦ": 8670,
      "å±ĬæĹ¶": 8671,
      "åıĳçĶŁåľ¨": 8672,
      "ĠNew": 8673,
      "éĿŀçī©è´¨æĸĩåĮĸéģĹäº§": 8674,
      "ä¸ºåħ¶": 8675,
      "ä¹Łæ²¡": 8676,
      "éĥ½åı¯ä»¥": 8677,
      "èŀº": 8678,
      "åĲĮæĹ¶ä¹Ł": 8679,
      "åħīæĺİ": 8680,
      "uss": 8681,
      "å¸ĮèħĬ": 8682,
      "æİ§èĤ¡èĤ¡ä¸ľ": 8683,
      "åĬłçĽŁ": 8684,
      "éļ§": 8685,
      "æİĴæ°´": 8686,
      "çŁ³åĮĸ": 8687,
      "å¤«å¦ĩ": 8688,
      "æĪªæŃ¢æĹ¶éĹ´": 8689,
      "au": 8690,
      "ĠéĴĪå¯¹": 8691,
      "ä¸Ĭåİ»": 8692,
      "è¿ĽæĶ»": 8693,
      "åĪĨçº§": 8694,
      "åĵģçļĦ": 8695,
      "æµ·å³¡": 8696,
      "åĨľåľº": 8697,
      "èĢģå¹²éĥ¨": 8698,
      "å¸ĸ": 8699,
      "æĺ¯æĪĳä»¬": 8700,
      "ä¸ĬéĿ¢": 8701,
      "ç»ıéĶĢåķĨ": 8702,
      "éĶĢåĶ®é¢Ŀ": 8703,
      "è·Įå¹ħ": 8704,
      "Ġpartic": 8705,
      "æĹħè¡Įç¤¾": 8706,
      "å·¢": 8707,
      "è¡Įä½¿": 8708,
      "ä½ľäºĨ": 8709,
      "éĹ¨ç¥¨": 8710,
      "å±±åİ¿": 8711,
      "è¾ĥå¤§çļĦ": 8712,
      "ç»Łè®¡å±Ģ": 8713,
      "ç»ĦæĪĲéĥ¨åĪĨ": 8714,
      "ä¸Ľ": 8715,
      "åıĳç¥¨": 8716,
      "åĬ¨çĶ»": 8717,
      "æµ·åįĹçľģ": 8718,
      "ç§ĳçĽ®": 8719,
      "åĲĳç¤¾ä¼ļ": 8720,
      "å¹¿éĺĶ": 8721,
      "å¹²é¢Ħ": 8722,
      "åĿĩè¡¡": 8723,
      "åıĪæľī": 8724,
      "å¤ªè´µ": 8725,
      "åŁºæľ¬ä¸Ĭ": 8726,
      "ä»£çĲĨæľºæŀĦ": 8727,
      "kes": 8728,
      "å®ŀä¹ł": 8729,
      "èĦĨ": 8730,
      "ä¸Ģéĥ¨åĪĨ": 8731,
      "åīĬ": 8732,
      "æ±ģ": 8733,
      "ä»İæľª": 8734,
      "Ġmust": 8735,
      "ä¼łè¾¾": 8736,
      "çªĦ": 8737,
      "ä¸ĵä¸ļçļĦ": 8738,
      "åı¦ä¸Ģä¸ª": 8739,
      "Ġwebs": 8740,
      "è°¢è°¢": 8741,
      "Ġåĳ¨": 8742,
      "å°ıå§Ĳ": 8743,
      "åıĳå±ķæĪĺçķ¥": 8744,
      "å¹³åı°çļĦ": 8745,
      "å¤ªå¤ļ": 8746,
      "åĨĻä½ľ": 8747,
      "ä¸įåģľ": 8748,
      "çİ°å·²": 8749,
      "æľ¬æĿ¥": 8750,
      "ç¡ħ": 8751,
      "Ġbook": 8752,
      "alk": 8753,
      "èħº": 8754,
      "åĻ¨æ¢°": 8755,
      "æĽ¾åľ¨": 8756,
      "éĢĿ": 8757,
      "ä¸ĩä¸ª": 8758,
      "çĦķ": 8759,
      "Ġduring": 8760,
      "å±±æ°´": 8761,
      "åħļç»Ħä¹¦è®°": 8762,
      "çĭ¬çī¹çļĦ": 8763,
      "çĶŁèĤ²": 8764,
      "éķ¿å®ī": 8765,
      "åįķçĭ¬": 8766,
      "éĺ²çģ«": 8767,
      "å¼łå®¶": 8768,
      "çİĩéĻį": 8769,
      "Ġrest": 8770,
      "åıĮåĲĳ": 8771,
      "åł¤": 8772,
      "æ±¡æŁĵéĺ²æ²»": 8773,
      "å¿łè¯ļ": 8774,
      "rist": 8775,
      "tt": 8776,
      "Ġåħ³äºİ": 8777,
      "ç»İ": 8778,
      "è¾¾æłĩ": 8779,
      "Ġä¸Ģæĺ¯": 8780,
      "çļĦè¡¨çİ°": 8781,
      "ä¼ļåĲĮ": 8782,
      "æĮ£": 8783,
      "åĽ¢ä¼Ļ": 8784,
      "Ġthree": 8785,
      "ä¸ĵé¡¹è¡ĮåĬ¨": 8786,
      "éģıåĪ¶": 8787,
      "It": 8788,
      "ä¼ļè°Ī": 8789,
      "çŃīåĽłç´ł": 8790,
      "è¿ĺéľĢè¦ģ": 8791,
      "æłĩåĩĨçļĦ": 8792,
      "éģĹæ¼ı": 8793,
      "é©¾é©¶åĳĺ": 8794,
      "å¹´èµ·": 8795,
      "åıĳæĺİ": 8796,
      "éªĤ": 8797,
      "é»Ķ": 8798,
      "åĨįåĪ°": 8799,
      "æ¼ĶçļĦ": 8800,
      "èĪªçº¿": 8801,
      "Ġ18": 8802,
      "è¶ĬæĿ¥è¶Ĭå¤ļçļĦ": 8803,
      "è¾±": 8804,
      "é£ŁåłĤ": 8805,
      "ä»£è¡¨çļĦ": 8806,
      "èį£èİ·": 8807,
      "ä¸ĬæĬ¥": 8808,
      "åľ°åŁŁ": 8809,
      "å°ĨæĿ¥": 8810,
      "Ġob": 8811,
      "çł¸": 8812,
      "å¹¶è´Ń": 8813,
      "æ±ŁåįĹ": 8814,
      "Ġbel": 8815,
      "url": 8816,
      "ä»ĺåĩº": 8817,
      "Ġstand": 8818,
      "çĽĳç®¡éĥ¨éĹ¨": 8819,
      "âĢĿï¼Ł": 8820,
      "æķ°åŃĹç»ıæµİ": 8821,
      "Ġsmall": 8822,
      "Ġtry": 8823,
      "æłĩæ³¨": 8824,
      "ç²ª": 8825,
      "éĻĲåº¦": 8826,
      "åĿļå¼º": 8827,
      "Ġresult": 8828,
      "é©¬åħĭæĢĿä¸»ä¹ī": 8829,
      "çļĦç»ĵæŀľ": 8830,
      "å®¶åºĦ": 8831,
      "å·¥ä½ľæľºåĪ¶": 8832,
      "æĪĺå£«": 8833,
      "ĠAd": 8834,
      "åĪĽéĢłäºĨ": 8835,
      "çļĦé¦ĸ": 8836,
      "æĬ¹": 8837,
      "æŃ¤ç±»": 8838,
      "åķĨè´¸": 8839,
      "Ġmain": 8840,
      "åŃ£èĬĤ": 8841,
      "åŁĥåıĬ": 8842,
      "ton": 8843,
      "è´¬": 8844,
      "äºĭåĲİ": 8845,
      "å®īå¸Ĥ": 8846,
      "æĢ§æł¼": 8847,
      "æĪĺèĥľ": 8848,
      "äºĶä¸Ģ": 8849,
      "æĬ¢æķĳ": 8850,
      "roup": 8851,
      "åį¸": 8852,
      "æĺ¯çĭ¬ç«ĭ": 8853,
      "ä¸ĭæ¸¸": 8854,
      "Ġsay": 8855,
      "é¢ľèī²": 8856,
      "åįģåĩł": 8857,
      "åĳ³éģĵ": 8858,
      "ffect": 8859,
      "Ġi": 8860,
      "è¿Ļå°±": 8861,
      "å°ıå¿ĥ": 8862,
      "Ġref": 8863,
      "åĪĿä¸Ń": 8864,
      "åĤ²": 8865,
      "çĽĳçĿ£æ£ĢæŁ¥": 8866,
      "èĸªéħ¬": 8867,
      "pi": 8868,
      "ç°": 8869,
      "åľ¨ä¸Ĭæµ·": 8870,
      "æľīæ²¡æľī": 8871,
      "å¥¢": 8872,
      "Ġcor": 8873,
      "æĪĸæĺ¯": 8874,
      "äº§åĵģè´¨éĩı": 8875,
      "å¹½": 8876,
      "å¸Ĳ": 8877,
      "åħ¬å¯ĵ": 8878,
      "å¢ŀå¤ļ": 8879,
      "åıĺæĪĲäºĨ": 8880,
      "åı·åı¬": 8881,
      "æıĲåįĩäºĨ": 8882,
      "å¯Įè£ķ": 8883,
      "æķħå®«": 8884,
      "çī¹èī²çļĦ": 8885,
      "ä¸Ĭæ¸¸": 8886,
      "æĸ°é²ľ": 8887,
      "åķ¥": 8888,
      "çģ«è½¦": 8889,
      "èĵī": 8890,
      "ä¸»é¢ĺæķĻèĤ²": 8891,
      "éķľå¤´": 8892,
      "ä½ĵåĪ¶æĶ¹éĿ©": 8893,
      "sh": 8894,
      "è¿ĩäºİ": 8895,
      "èĩªæĦ¿": 8896,
      "Ġpoint": 8897,
      "æµ·åŁŁ": 8898,
      "äºĮäºº": 8899,
      "èģĮç§°": 8900,
      "è¯Ħçº§": 8901,
      "éĿĴå±±": 8902,
      "åıĭè°Ĭ": 8903,
      "ç¦»ä¸įå¼Ģ": 8904,
      "æĶ¶çĽĬçİĩ": 8905,
      "æłĩå¿ĹçĿĢ": 8906,
      "åĽºå®ļèµĦäº§": 8907,
      "çļĦéĥ¨åĪĨ": 8908,
      "åĲ¦è®¤": 8909,
      "æĿ¥è®²": 8910,
      "æĸ¹éĴĪ": 8911,
      "ç¨³åģ¥": 8912,
      "ä¹īåĬ¡æķĻèĤ²": 8913,
      "åĩ¶": 8914,
      "éĺ¿æĭī": 8915,
      "é»ĳèī²": 8916,
      "çĮªèĤī": 8917,
      "æµ´": 8918,
      "æ¡©": 8919,
      "å¢ŀæķĪ": 8920,
      "ä½Ĩä»ĸ": 8921,
      "æİ¥çĿĢ": 8922,
      "æĶ¾ç¼ĵ": 8923,
      "çīº": 8924,
      "å®¶å±ħ": 8925,
      "æ°ĳä¿Ĺ": 8926,
      "ically": 8927,
      "éģĹæĨ¾": 8928,
      "Ġallow": 8929,
      "åĨħå¿ĥ": 8930,
      "åħ¥åŃ¦": 8931,
      "ä½ıæīĢ": 8932,
      "éĶ¦èµĽ": 8933,
      "æ¿ĢåĬ±è®¡åĪĴ": 8934,
      "çīºçī²": 8935,
      "åķĨåľº": 8936,
      "å¾Īå¥½çļĦ": 8937,
      "åī¯éĥ¨éķ¿": 8938,
      "Ġ2010": 8939,
      "æ»ĳéĽª": 8940,
      "éĺŁä¼įå»ºè®¾": 8941,
      "èªĵ": 8942,
      "ä¸ĢæıĲçļĦæĺ¯": 8943,
      "Ġç»ĵå©ļ": 8944,
      "ä¸Ĭç½ĳ": 8945,
      "éĴ¦": 8946,
      "æ»¡æĦıåº¦": 8947,
      "çļĦæłĩåĩĨ": 8948,
      "çļĦæľīæķĪ": 8949,
      "çķı": 8950,
      "è®®åĳĺ": 8951,
      "äº¿åħĥçļĦ": 8952,
      "çł´è§£": 8953,
      "å®½æĿ¾": 8954,
      "åĿ¦è¨Ģ": 8955,
      "æĮª": 8956,
      "æĸ°æ¨¡å¼ı": 8957,
      "åħ¨åŁŁ": 8958,
      "ä½įçļĦ": 8959,
      "æĺ¥æĻļ": 8960,
      "é«ĺè´¨éĩıåıĳå±ķçļĦ": 8961,
      "ä¼ļä¸įä¼ļ": 8962,
      "æĹ¶æ®µ": 8963,
      "æ°ĳåĪĿ": 8964,
      "åĪĨç®¡": 8965,
      "ä¸»åľº": 8966,
      "ä»İæĿ¥": 8967,
      "æĿĥçļĦ": 8968,
      "å·ŀåĮº": 8969,
      "stand": 8970,
      "éĢļçŁ¥ä¹¦": 8971,
      "Ġimportant": 8972,
      "æľīæľŁå¾ĴåĪĳ": 8973,
      "ä¸ºæŃ¢": 8974,
      "å°Ĩè¿Ľä¸ĢæŃ¥": 8975,
      "åħ¥é©»": 8976,
      "è°ĪåĪ°": 8977,
      "éĨĩ": 8978,
      "è¡¨åĨ³ç»ĵæŀľ": 8979,
      "åĨ¬å¥¥ä¼ļ": 8980,
      "of": 8981,
      "æĶ¶çĽĺ": 8982,
      "çī©èģĶç½ĳ": 8983,
      "Ġmight": 8984,
      "æĶ¿åºľéĥ¨éĹ¨": 8985,
      "ç¬¬ä¸Ģæ¬¾": 8986,
      "è¿ľè¿ľ": 8987,
      "å¤ıåŃ£": 8988,
      "é©³åĽŀ": 8989,
      "çļĦçĶŁäº§": 8990,
      "ä¸įåºĶ": 8991,
      "çĶµæ°Ķ": 8992,
      "åķĨæĪ·": 8993,
      "è¯ģä»¶": 8994,
      "çŃ¾åŃĹ": 8995,
      "Ġconf": 8996,
      "æ²¿æµ·": 8997,
      "Ġclass": 8998,
      "å¤ĸäº¤éĥ¨": 8999,
      "çļĦçİ¯å¢ĥ": 9000,
      "å¹´æľ«": 9001,
      "ined": 9002,
      "å°ĨæĮģç»Ń": 9003,
      "åįģæĿ¡": 9004,
      "ä»ħæľī": 9005,
      "ç¦»å©ļçİĩ": 9006,
      "æľīå¤ļ": 9007,
      "ä¸įæ»¡": 9008,
      "æĻĸ": 9009,
      "ames": 9010,
      "ĠDe": 9011,
      "å¸ĪèĮĥå¤§åŃ¦": 9012,
      "ä¸ĢæĶ¯": 9013,
      "çĶ¨äºĨ": 9014,
      "å¤ļå½©": 9015,
      "åĬłæģ¯": 9016,
      "åĲĳè®°èĢħ": 9017,
      "åįİä¾¨": 9018,
      "æķĻèĤ²å±Ģ": 9019,
      "æĸ¯ç§ĳ": 9020,
      "ural": 9021,
      "æĸ°åĨłèĤºçĤİçĸ«æĥħ": 9022,
      "âĢĿâĢĶâĢĶ": 9023,
      "å®¢æľį": 9024,
      "æ¸©å·ŀ": 9025,
      "èµĦäº§ç®¡çĲĨ": 9026,
      "æĺİæĺ¾çļĦ": 9027,
      "åķĨåĬ¡éĥ¨": 9028,
      "Ġç½ĳçº¢": 9029,
      "Ġbra": 9030,
      "å£¶": 9031,
      "Ġdri": 9032,
      "æħĮ": 9033,
      "äº¤æĺĵæĹ¥": 9034,
      "æľĢé«ĺäººæ°ĳæ³ķéĻ¢": 9035,
      "æŁ´æ²¹": 9036,
      "å¾ģæ±ĤæĦıè§ģ": 9037,
      "æİĢ": 9038,
      "å·¥ä¿¡": 9039,
      "éĩįå»º": 9040,
      "å¿ĥèĦı": 9041,
      "å¾ĹçĽĬ": 9042,
      "åįıå®ļ": 9043,
      "åī¯æĢ»è£ģ": 9044,
      "è¿Ļä¸ĢçĤ¹": 9045,
      "é²ľæĺİ": 9046,
      "æłĩçļĦåħ¬åı¸": 9047,
      "å¬": 9048,
      "åĩºè®©": 9049,
      "æĸ°åªĴä½ĵ": 9050,
      "ä¹ĭå¤Ħ": 9051,
      "åī¯å¸Ĥéķ¿": 9052,
      "Ġcome": 9053,
      "Ġdef": 9054,
      "åºĶè¯¥æĺ¯": 9055,
      "å¡ĳéĢł": 9056,
      "åŁİéķĩåĮĸ": 9057,
      "æ°ĶåĢĻåıĺåĮĸ": 9058,
      "åıĳå±ķæĶ¹éĿ©å§Ķ": 9059,
      "joy": 9060,
      "âħ": 9061,
      "ä¸ĩèĤ¡": 9062,
      "æĥħåĨµçļĦ": 9063,
      "åĭ¾": 9064,
      "çıĬ": 9065,
      "åįķä½įçļĦ": 9066,
      "è´Łè´£åĲĮå¿Ĺ": 9067,
      "éĻĦåĬł": 9068,
      "æ¦ľåįķ": 9069,
      "æĹ¥æĬ¥éģĵ": 9070,
      "å¤ļæĸ¹": 9071,
      "æľ¬éĩĳ": 9072,
      "èĬĪ": 9073,
      "Ġput": 9074,
      "Ġpass": 9075,
      "ç»Ļä»ĸ": 9076,
      "æľŁéĹ´çļĦ": 9077,
      "çŃĶå¤į": 9078,
      "åľ¨å¤ĸ": 9079,
      "å°Ĩæľī": 9080,
      "åħ¬åı¸ç«łç¨ĭ": 9081,
      "éĥ½å¾Ī": 9082,
      "çľĭåĩº": 9083,
      "æĹłéĻĲ": 9084,
      "èµ°äºĨ": 9085,
      "ç¼©çŁŃ": 9086,
      "Ġprovide": 9087,
      "èĲ§": 9088,
      "æ°´æºĲ": 9089,
      "è®®ä¼ļ": 9090,
      "æ±ĤèģĮ": 9091,
      "æĻ¯çĤ¹": 9092,
      "èµ°åĩºåİ»": 9093,
      "Ġservices": 9094,
      "ä¸ºåŁºç¡Ģ": 9095,
      "è®®é¢ĺ": 9096,
      "æĹ¶éĹ´åĨħ": 9097,
      "è§ģåĪ°": 9098,
      "åŃ¦æł¡çļĦ": 9099,
      "åį´æĺ¯": 9100,
      "å¡ĳæĸĻ": 9101,
      "æįŀ": 9102,
      "æĢ§æĸĩä»¶": 9103,
      "æ£Ģçĸ«": 9104,
      "ç§ĳåŃ¦æĬĢæľ¯": 9105,
      "ä¸ªæľĪçļĦ": 9106,
      "Ġç¬¬åįģ": 9107,
      "ä¹Ĵ": 9108,
      "äººä¸İ": 9109,
      "æĹ¶èĩ³": 9110,
      "çĶ¨å¥½": 9111,
      "å¦¨": 9112,
      "æ°Ķæ°Ľ": 9113,
      "è¨Ģè®º": 9114,
      "æŃĮæīĭ": 9115,
      "ĠæľĪ": 9116,
      "æµı": 9117,
      "å·¥åľ°": 9118,
      "å¯¹åħ¬åı¸": 9119,
      "Ġfact": 9120,
      "æĢ»åĢ¼": 9121,
      "å¯¼å¸Ī": 9122,
      "éĩĳèŀįåį±æľº": 9123,
      "çĶŁæĢģä¿ĿæĬ¤": 9124,
      "æĪ¿ä»·å¤ªè´µ": 9125,
      "æĸ°åħ´äº§ä¸ļ": 9126,
      "130": 9127,
      "Ġåİ»å¹´": 9128,
      "çļĦè§Ĵåº¦": 9129,
      "ä¸įæĥ³": 9130,
      "ä¸įéľĢè¦ģ": 9131,
      "åħ¬è¯ī": 9132,
      "ä¸ĭè¡Į": 9133,
      "èģĶç»ľ": 9134,
      "ä¸ĵä¸ļåĮĸ": 9135,
      "æĦıè¯Ĩå´Ľèµ·": 9136,
      "éĢĢå½¹åĨĽäºº": 9137,
      "éļ§éģĵ": 9138,
      "self": 9139,
      "åĪĨæķ£": 9140,
      "æıĲéĹ®": 9141,
      "Ġwin": 9142,
      "å·²åľ¨": 9143,
      "éĴĵ": 9144,
      "åĮ»å¸Ī": 9145,
      "åįĩæĺ¯çĭ¬ç«ĭ": 9146,
      "åı·çº¿": 9147,
      "ç¦ıå·ŀ": 9148,
      "å¯Įæ±Ĺ": 9149,
      "éĻĪæŁĲ": 9150,
      "è¿ĺæĺ¯æĪ¿ä»·å¤ªè´µ": 9151,
      "éĺ¿å¯Įæ±Ĺ": 9152,
      "éĵ¾æĿ¡": 9153,
      "ruct": 9154,
      "èĮħåı°": 9155,
      "ä¼łæŁĵçĹħ": 9156,
      "å¹´èĸªçĻ¾ä¸ĩ": 9157,
      "çİĩéĻįç¦»å©ļçİĩ": 9158,
      "Ġç»ĵå©ļçİĩéĻįç¦»å©ļçİĩ": 9159,
      "æĦıè¯Ĩå´Ľèµ·è¿ĺæĺ¯æĪ¿ä»·å¤ªè´µ": 9160,
      "åįĩæĺ¯çĭ¬ç«ĭæĦıè¯Ĩå´Ľèµ·è¿ĺæĺ¯æĪ¿ä»·å¤ªè´µ": 9161,
      "Ġç»ĵå©ļçİĩéĻįç¦»å©ļçİĩåįĩæĺ¯çĭ¬ç«ĭæĦıè¯Ĩå´Ľèµ·è¿ĺæĺ¯æĪ¿ä»·å¤ªè´µ": 9162,
      "ds": 9163,
      "çļĦè®¾è®¡": 9164,
      "ä¸ĭåĪĹ": 9165,
      "è¢«ç§°ä¸º": 9166,
      "æķħéļľ": 9167,
      "æī¾åĪ°äºĨ": 9168,
      "ists": 9169,
      "å¤§åĬĽåıĳå±ķ": 9170,
      "ä¸ŃçŃī": 9171,
      "åĪĴåĪĨ": 9172,
      "åı¯ä»¥éĢļè¿ĩ": 9173,
      "å·¨å¤´": 9174,
      "éĽ·éĶĭ": 9175,
      "éĤ®ä»¶": 9176,
      "å¡«åĨĻ": 9177,
      "åĲĮåŃ¦ä»¬": 9178,
      "ething": 9179,
      "å¢ŀåĢ¼ç¨İ": 9180,
      "é¬¼": 9181,
      "Ġç½ĳçº¢å¹´èĸªçĻ¾ä¸ĩ": 9182,
      "äºĨå¾Īå¤ļ": 9183,
      "ä¸ĩäº¿": 9184,
      "æĢĢåŃķ": 9185,
      "åľĨæ»¡": 9186,
      "åħļç»ĦæĪĲåĳĺ": 9187,
      "ä¸ĢåįĬ": 9188,
      "åĩºäºİ": 9189,
      "åħ¨æĸ°çļĦ": 9190,
      "è¿Ļå¯¹": 9191,
      "çĶ¨æĿ¥": 9192,
      "éĵ¶è¡Įä¸ļ": 9193,
      "ç¬¬äºĮä¸ª": 9194,
      "ĠThere": 9195,
      "æĸ°ä¸Ģä»£": 9196,
      ")ãĢģ": 9197,
      "è¶Ł": 9198,
      "äº¤æį¢": 9199,
      "å¼ķèµĦ": 9200,
      "åı·æ¥¼": 9201,
      "å¤ªæŀģ": 9202,
      "ĠäºĮæĺ¯": 9203,
      "æĿī": 9204,
      "åĨĪ": 9205,
      "åĽ½å¹¿": 9206,
      "åĪĨç¦»": 9207,
      "æľ¬åĳ¨": 9208,
      "ä¸ŃåĽ½éĺŁ": 9209,
      "çĶµåı°": 9210,
      "æŃ£å¦Ĥ": 9211,
      "è·¯åı£": 9212,
      "æĶ¯æı´": 9213,
      "éĻµåĽŃ": 9214,
      "Ġcurrent": 9215,
      "Ġå¯¹æŃ¤": 9216,
      "ä»Ĺ": 9217,
      "å®ŀä¸ļ": 9218,
      "è¿Ļåº§": 9219,
      "å¼ĢåĪĽ": 9220,
      "è°ĥåĬ¨": 9221,
      "ç¼Ķ": 9222,
      "æİ¥æĶ¶": 9223,
      "éĺŁéķ¿": 9224,
      "åı¦æľī": 9225,
      "æľ¬æ¬¡äº¤æĺĵ": 9226,
      "é¾Ļå¤´ä¼ģä¸ļ": 9227,
      "çļĦæĥħå½¢": 9228,
      "ä¸įä½İäºİ": 9229,
      "å¯¹æĬĹ": 9230,
      "ä¸ĭè¾¾": 9231,
      "åħ¬åı¸èĳ£äºĭä¼ļ": 9232,
      "æ¯Ķä¸Ĭå¹´": 9233,
      "æĹłéľĢ": 9234,
      "ĠHow": 9235,
      "èµĦæł¼è¦ģæ±Ĥ": 9236,
      "åĩŃè¯ģ": 9237,
      "æĬĳåĪ¶": 9238,
      "ä¸Ģç«Ļ": 9239,
      "æĺ¯ä»¥": 9240,
      "ä¿±": 9241,
      "éĤ±": 9242,
      "ç»Ļä»ĺ": 9243,
      "è¿İæİ¥": 9244,
      "èľĢ": 9245,
      "æ¬£èµı": 9246,
      "çļĦé£İ": 9247,
      "æĬ¥éĢģ": 9248,
      "ä»İä¸Ń": 9249,
      "çľĭå¥½": 9250,
      "åıĤä¿Ŀ": 9251,
      "2002": 9252,
      "ploy": 9253,
      "ves": 9254,
      "å°¹": 9255,
      "Ġwr": 9256,
      "åħļåĨħ": 9257,
      "é¢ĦæĬ¥": 9258,
      "ute": 9259,
      "Ġnext": 9260,
      "é©»æĿĳ": 9261,
      "Ġincluding": 9262,
      "ä¹ĭæĹ¥": 9263,
      "æľĢéĩįè¦ģçļĦ": 9264,
      "Ġeffect": 9265,
      "äº«æľī": 9266,
      "ĠèĻ½çĦ¶": 9267,
      "åĮºåĪ«": 9268,
      "Ġschool": 9269,
      "å¿ĥä¸Ń": 9270,
      "æľįåĬ¡å¹³åı°": 9271,
      "åĽ½éĻħåľ¨çº¿ç½ĳç»ľ": 9272,
      "åĽ½å¹¿åĽ½éĻħåľ¨çº¿ç½ĳç»ľ": 9273,
      "å¹´éĹ´": 9274,
      "ä¸įåĪ©": 9275,
      "çĶŁæ¶¯": 9276,
      "å¢ŀåĬłåĢ¼": 9277,
      "èģĮä¸ļæķĻèĤ²": 9278,
      "çļĦéĤ£": 9279,
      "éĩįçĹĩ": 9280,
      "éļ¾çĤ¹": 9281,
      "æĲŃè½½": 9282,
      "å¹´æĬ¥": 9283,
      "åı¯éĢļè¿ĩ": 9284,
      "Ġsince": 9285,
      "å®īåħ¨çļĦ": 9286,
      "å®¹éĩı": 9287,
      "æĹıèĩªæ²»": 9288,
      "å±ķç¤ºäºĨ": 9289,
      "ccess": 9290,
      "éģĵæŃī": 9291,
      "çī¹æŃ¤": 9292,
      "ç®¡çĲĨå·¥ä½ľ": 9293,
      "æĺ¾çİ°": 9294,
      "æĴŃåĩº": 9295,
      "ted": 9296,
      "éĹ¸": 9297,
      "å¤ĸåįĸ": 9298,
      "Ġfriend": 9299,
      "æµģè½¬": 9300,
      "çĹķ": 9301,
      "Ġrece": 9302,
      "åĿĩä»·": 9303,
      "Ġroom": 9304,
      "çļĦçľŁå®ŀæĢ§": 9305,
      "å®ŀçĶ¨": 9306,
      "æ´Ĵ": 9307,
      "éħ±": 9308,
      "åĳ¨åĪĬ": 9309,
      "ä½ıå»º": 9310,
      "åıĪæĺ¯": 9311,
      "çĻ½éħĴ": 9312,
      "çŁŃçŁŃ": 9313,
      "oney": 9314,
      "ä¾µçĬ¯": 9315,
      "éĩĩè®¿æĹ¶è¡¨ç¤º": 9316,
      "Ġè¿Ļæĺ¯": 9317,
      "å·²äºİ": 9318,
      "çº§çļĦ": 9319,
      "æĹłå¥Ī": 9320,
      "æĴ°": 9321,
      "çļĦåı¯èĥ½æĢ§": 9322,
      "If": 9323,
      "æĸ¥": 9324,
      "èĥ½åľ¨": 9325,
      "å°ıåŃ©": 9326,
      "éĵĥ": 9327,
      "å±ĢåĬ¿": 9328,
      "è¿Ŀçºª": 9329,
      "åİĭå®ŀ": 9330,
      "çĶ»ä½ľ": 9331,
      "Ġorgan": 9332,
      "Ġphot": 9333,
      "ues": 9334,
      "æĸ°æĿĲæĸĻ": 9335,
      "æİĴéĺŁ": 9336,
      "çĥŃçĥĪ": 9337,
      "å®ŀéĻħè¡ĮåĬ¨": 9338,
      "éĺ¿å°Ķ": 9339,
      "æĪĺçķ¥æĢ§": 9340,
      "å¿«éĢŁåıĳå±ķ": 9341,
      "gy": 9342,
      "æŃĩ": 9343,
      "æ°ĳå®¿": 9344,
      "åħ³ç¨İ": 9345,
      "èĸ¯": 9346,
      "Ġquest": 9347,
      "èī°éļ¾": 9348,
      "çļĦæķĻèĤ²": 9349,
      "Ġcent": 9350,
      "åī¯éĻ¢éķ¿": 9351,
      "çŃ¾è¯ģ": 9352,
      "è¡Ĺå¤´": 9353,
      "ç¼©å°ı": 9354,
      "å®ĹæķĻ": 9355,
      "è¯ķè¡Į": 9356,
      "æĻ®æ³ķ": 9357,
      "åĪ¶åº¦çļĦ": 9358,
      "ä¸ĵé¡¹æķ´æ²»": 9359,
      "Ġeng": 9360,
      "ç»ĦæĪĲçļĦ": 9361,
      "cent": 9362,
      "ĠéĢļè¿ĩ": 9363,
      "Ġå¦Ĥä»Ĭ": 9364,
      "çŃīæ´»åĬ¨": 9365,
      "æĪĳè®¤ä¸º": 9366,
      "å¥½åıĭ": 9367,
      "éľ¾": 9368,
      "æĹłéĶ¡": 9369,
      "ä¸°æĶ¶": 9370,
      "é¥®æĸĻ": 9371,
      "Ġquality": 9372,
      "èī°èĭ¦": 9373,
      "åĽ½çļĦ": 9374,
      "éĤµ": 9375,
      "æ²¡æľīä»»ä½ķ": 9376,
      "åı¤åŁİ": 9377,
      "ately": 9378,
      "éĵ¾æİ¥": 9379,
      "æĬ½æ£Ģ": 9380,
      "çĪ±å¥½èĢħ": 9381,
      "çļĦä¸ĸçķĮ": 9382,
      "äºĨå¯¹": 9383,
      "è¢«äºº": 9384,
      "åºŃå®¡": 9385,
      "Ġresp": 9386,
      "åĲ¾": 9387,
      "åĴĮæĬĢæľ¯": 9388,
      "ä¸Ĭçľĭ": 9389,
      "é©¿": 9390,
      "åĭī": 9391,
      "åĪĽæĸ°åıĳå±ķ": 9392,
      "ĠLe": 9393,
      "éľĩèį¡": 9394,
      "æ§½": 9395,
      "ï¼ĮâĢĿ": 9396,
      "æĪļ": 9397,
      "é«ĺåİĭ": 9398,
      "Ġintern": 9399,
      "å¤ĦçļĦ": 9400,
      "âĢĿãĢĤâĢľ": 9401,
      "èģĬå¤©": 9402,
      "ĠçļĦ": 9403,
      "å¼ĢäºĨ": 9404,
      "åĬłçĽĸ": 9405,
      "éĢļè½¦": 9406,
      "çľĭæ³ķ": 9407,
      "æµģåħ¥": 9408,
      "ç²¾åĬĽ": 9409,
      "ä»ħä¾Ľ": 9410,
      "ĠBl": 9411,
      "ä¸¥æł¼æĮīçħ§": 9412,
      "åĽ½æľīä¼ģä¸ļ": 9413,
      "åĮºåĨħ": 9414,
      "è¯´è¯Ŀ": 9415,
      "åķ¦": 9416,
[...]
