{
  "version": "1.0",
  "truncation": null,
  "padding": null,
  "added_tokens": [
    {
      "id": 0,
      "content": "</s>",
      "single_word": false,
      "lstrip": false,
      "rstrip": false,
      "normalized": false,
      "special": true
    }
  ],
  "normalizer": null,
  "pre_tokenizer": {
    "type": "ByteLevel",
    "add_prefix_space": false,
    "trim_offsets": true,
    "use_regex": true
  },
  "post_processor": {
    "type": "ByteLevel",
    "add_prefix_space": true,
    "trim_offsets": false,
    "use_regex": true
  },
  "decoder": {
    "type": "ByteLevel",
    "add_prefix_space": true,
    "trim_offsets": true,
    "use_regex": true
  },
  "model": {
    "type": "BPE",
    "dropout": null,
    "unk_token": null,
    "continuing_subword_prefix": null,
    "end_of_word_suffix": null,
    "fuse_unk": false,
    "byte_fallback": false,
    "ignore_merges": false,
    "vocab": {
      "</s>": 0,
      "!": 1,
      "\"": 2,
      "#": 3,
      "$": 4,
      "%": 5,
      "&": 6,
      "'": 7,
      "(": 8,
      ")": 9,
      "*": 10,
      "+": 11,
      ",": 12,
      "-": 13,
      ".": 14,
      "/": 15,
      "0": 16,
      "1": 17,
      "2": 18,
      "3": 19,
      "4": 20,
      "5": 21,
      "6": 22,
      "7": 23,
      "8": 24,
      "9": 25,
      ":": 26,
      ";": 27,
      "<": 28,
      "=": 29,
      ">": 30,
      "?": 31,
      "@": 32,
      "A": 33,
      "B": 34,
      "C": 35,
      "D": 36,
      "E": 37,
      "F": 38,
      "G": 39,
      "H": 40,
      "I": 41,
      "J": 42,
      "K": 43,
      "L": 44,
      "M": 45,
      "N": 46,
      "O": 47,
      "P": 48,
      "Q": 49,
      "R": 50,
      "S": 51,
      "T": 52,
      "U": 53,
      "V": 54,
      "W": 55,
      "X": 56,
      "Y": 57,
      "Z": 58,
      "[": 59,
      "\\": 60,
      "]": 61,
      "^": 62,
      "_": 63,
      "`": 64,
      "a": 65,
      "b": 66,
      "c": 67,
      "d": 68,
      "e": 69,
      "f": 70,
      "g": 71,
      "h": 72,
      "i": 73,
      "j": 74,
      "k": 75,
      "l": 76,
      "m": 77,
      "n": 78,
      "o": 79,
      "p": 80,
      "q": 81,
      "r": 82,
      "s": 83,
      "t": 84,
      "u": 85,
      "v": 86,
      "w": 87,
      "x": 88,
      "y": 89,
      "z": 90,
      "{": 91,
      "|": 92,
      "}": 93,
      "~": 94,
      "¡": 95,
      "¢": 96,
      "£": 97,
      "¤": 98,
      "¥": 99,
      "¦": 100,
      "§": 101,
      "¨": 102,
      "©": 103,
      "ª": 104,
      "«": 105,
      "¬": 106,
      "®": 107,
      "¯": 108,
      "°": 109,
      "±": 110,
      "²": 111,
      "³": 112,
      "´": 113,
      "µ": 114,
      "¶": 115,
      "·": 116,
      "¸": 117,
      "¹": 118,
      "º": 119,
      "»": 120,
      "¼": 121,
      "½": 122,
      "¾": 123,
      "¿": 124,
      "Â": 125,
      "Ã": 126,
      "Ä": 127,
      "Å": 128,
      "Æ": 129,
      "Ç": 130,
      "È": 131,
      "É": 132,
      "Ê": 133,
      "Ë": 134,
      "Ì": 135,
      "Î": 136,
      "Ï": 137,
      "Ð": 138,
      "Ñ": 139,
      "Ô": 140,
      "Õ": 141,
      "Ø": 142,
      "Ù": 143,
      "Û": 144,
      "ß": 145,
      "à": 146,
      "á": 147,
      "â": 148,
      "ã": 149,
      "ä": 150,
      "å": 151,
      "æ": 152,
      "ç": 153,
      "è": 154,
      "é": 155,
      "ê": 156,
      "ë": 157,
      "ì": 158,
      "í": 159,
      "î": 160,
      "ï": 161,
      "ð": 162,
      "Ġ": 163,
      "ġ": 164,
      "Ģ": 165,
      "ģ": 166,
      "Ĥ": 167,
      "ĥ": 168,
      "Ħ": 169,
      "ħ": 170,
      "Ĩ": 171,
      "ĩ": 172,
      "Ī": 173,
      "ī": 174,
      "Ĭ": 175,
      "ĭ": 176,
      "Į": 177,
      "į": 178,
      "İ": 179,
      "ı": 180,
      "Ĳ": 181,
      "ĳ": 182,
      "Ĵ": 183,
      "ĵ": 184,
      "Ķ": 185,
      "ķ": 186,
      "ĸ": 187,
      "Ĺ": 188,
      "ĺ": 189,
      "Ļ": 190,
      "ļ": 191,
      "Ľ": 192,
      "ľ": 193,
      "Ŀ": 194,
      "ŀ": 195,
      "Ł": 196,
      "ł": 197,
      "Ń": 198,
      "ä¸": 199,
      "ï¼": 200,
      "ï¼Į": 201,
      "ãĢ": 202,
      "çļ": 203,
      "çļĦ": 204,
      "äº": 205,
      "åı": 206,
      "æľ": 207,
      "åħ": 208,
      "ä»": 209,
      "ãĢĤ": 210,
      "å¤": 211,
      "å®": 212,
      "åĪ": 213,
      "è¿": 214,
      "ä½": 215,
      "ãĢģ": 216,
      "åľ": 217,
      "çĶ": 218,
      "åĲ": 219,
      "åĬ": 220,
      "æĺ": 221,
      "æĪ": 222,
      "ç»": 223,
      "æĸ": 224,
      "åĽ": 225,
      "ä¹": 226,
      "è®": 227,
      "ä¼": 228,
      "ä¸Ģ": 229,
      "å¹": 230,
      "å°": 231,
      "æĹ": 232,
      "è¯": 233,
      "æĺ¯": 234,
      "âĢ": 235,
      "åį": 236,
      "æĿ": 237,
      "åľ¨": 238,
      "æľī": 239,
      "éĩ": 240,
      "å¸": 241,
      "å·": 242,
      "åŃ": 243,
      "åº": 244,
      "æī": 245,
      "å¼": 246,
      "ä¸į": 247,
      "éĢ": 248,
      "åĨ": 249,
      "åĮ": 250,
      "äºº": 251,
      "è¡": 252,
      "è´": 253,
      "ä¸Ń": 254,
      "åĩ": 255,
      "äºĨ": 256,
      "èĢ": 257,
      "çĽ": 258,
      "å¯": 259,
      "æĬ": 260,
      "æķ": 261,
      "ĥ½": 262,
      "å¾": 263,
      "åĴ": 264,
      "ä¸º": 265,
      "å¤§": 266,
      "è§": 267,
      "åĴĮ": 268,
      "æł": 269,
      "å±": 270,
      "èµ": 271,
      "æĢ": 272,
      "çİ": 273,
      "ç§": 274,
      "ä¸ļ": 275,
      "åĽ½": 276,
      "æĶ": 277,
      "çī": 278,
      "ä»¥": 279,
      "éĻ": 280,
      "çĶ¨": 281,
      "ä¿": 282,
      "æ°": 283,
      "å¥": 284,
      "¦ģ": 285,
      "æİ": 286,
      "éĹ": 287,
      "ä¼ļ": 288,
      "å¿": 289,
      "åİ": 290,
      "è¦ģ": 291,
      "éĿ": 292,
      "çº": 293,
      "ä¸Ĭ": 294,
      "å½": 295,
      "æ³": 296,
      "æŃ": 297,
      "åıĳ": 298,
      "å¹´": 299,
      "èĩ": 300,
      "æµ": 301,
      "çĶŁ": 302,
      "ä¸ª": 303,
      "çŃ": 304,
      "èĥ½": 305,
      "åĳ": 306,
      "æĹ¶": 307,
      "âĢľ": 308,
      "çĲ": 309,
      "æŀ": 310,
      "âĢĿ": 311,
      "åĵ": 312,
      "è¡Į": 313,
      "ä½ľ": 314,
      "é¢": 315,
      "å·¥": 316,
      "è¿Ļ": 317,
      "è½": 318,
      "æĪĳ": 319,
      "ç½": 320,
      "åĪ°": 321,
      "åı¯": 322,
      "ç«": 323,
      "å¯¹": 324,
      "æĿ¥": 325,
      "æĪĲ": 326,
      "æ²": 327,
      "åŃ¦": 328,
      "åħ¬": 329,
      "æĮ": 330,
      "äºİ": 331,
      "æĭ": 332,
      "è¾": 333,
      "åĩº": 334,
      "åŁ": 335,
      "å®¶": 336,
      "äº§": 337,
      "æ¯": 338,
      "æĥ": 339,
      "çľ": 340,
      "æĸ°": 341,
      "éĺ": 342,
      "ä¾": 343,
      "å¤ļ": 344,
      "æĸ¹": 345,
      "åī": 346,
      "çĲĨ": 347,
      "é«": 348,
      "æ±": 349,
      "åľ°": 350,
      "é«ĺ": 351,
      "åĬ¨": 352,
      "ç®": 353,
      "æ¸": 354,
      "èĤ": 355,
      "ä»¬": 356,
      "åĪĨ": 357,
      "è¿Ľ": 358,
      "æĦ": 359,
      "åħ¨": 360,
      "æľº": 361,
      "ä¸ĭ": 362,
      "è¿ĩ": 363,
      "çŃī": 364,
      "åĮĸ": 365,
      "èĩª": 366,
      "å®ŀ": 367,
      "æı": 368,
      "æ¬": 369,
      "çİ°": 370,
      "ä½ĵ": 371,
      "åĬĽ": 372,
      "ä¹Ł": 373,
      "ç»ı": 374,
      "åĵģ": 375,
      "å°±": 376,
      "åĲİ": 377,
      "ç¨": 378,
      "åĲĪ": 379,
      "æľ¬": 380,
      "å¦": 381,
      "å¼Ģ": 382,
      "ä¸İ": 383,
      "æ´": 384,
      "éĿ¢": 385,
      "å¸Ĥ": 386,
      "å»": 387,
      "åĲĮ": 388,
      "è®¾": 389,
      "æĽ": 390,
      "éĥ": 391,
      "å®ļ": 392,
      "é¡": 393,
      "éģ": 394,
      "20": 395,
      "ç½ĳ": 396,
      "åģ": 397,
      "ä»ĸ": 398,
      "ä¸»": 399,
      "éķ": 400,
      "æ³ķ": 401,
      "æĢ§": 402,
      "åĬ¡": 403,
      "çĤ": 404,
      "èģ": 405,
      "åº¦": 406,
      "å±ķ": 407,
      "çĶµ": 408,
      "åı¸": 409,
      "èµĦ": 410,
      "ï¼ļ": 411,
      "æıĲ": 412,
      "æį": 413,
      "åĬł": 414,
      "åıĬ": 415,
      "å¥½": 416,
      "åħ¶": 417,
      "ä¹ĭ": 418,
      "éĥ¨": 419,
      "åĨħ": 420,
      "ç¤": 421,
      "èĢĮ": 422,
      "æĹ¥": 423,
      "å»º": 424,
      "çŁ": 425,
      "éĩį": 426,
      "åħ¬åı¸": 427,
      "åĪ¶": 428,
      "è¶": 429,
      "åħ³": 430,
      "éĽ": 431,
      "ç¾": 432,
      "åĿ": 433,
      "è·": 434,
      "æīĢ": 435,
      "éĢļ": 436,
      "è°": 437,
      "äºĭ": 438,
      "å¾Ĺ": 439,
      "å¿ĥ": 440,
      "æ¶": 441,
      "åīį": 442,
      "èī": 443,
      "åľº": 444,
      "éĩı": 445,
      "ç¬": 446,
      "å¢": 447,
      "å¦Ĥ": 448,
      "ä¿Ŀ": 449,
      "åºĶ": 450,
      "èĢħ": 451,
      "ç³": 452,
      "æĻ": 453,
      "åĢ": 454,
      "éķ¿": 455,
      "éĥ½": 456,
      "éĶ": 457,
      "åŃĲ": 458,
      "å°ı": 459,
      "éļ": 460,
      "æľĢ": 461,
      "å°Ĩ": 462,
      "çł": 463,
      "æ°´": 464,
      "ç®¡": 465,
      "ç¨ĭ": 466,
      "ï¼ī": 467,
      "æĽ´": 468,
      "ç©": 469,
      "é£": 470,
      "çĿ": 471,
      "éĹ´": 472,
      "ä¿¡": 473,
      "æľĪ": 474,
      "å¤ĸ": 475,
      "ï¼Ī": 476,
      "éľ": 477,
      "ç³»": 478,
      "çĤ¹": 479,
      "å¹³": 480,
      "éĩĳ": 481,
      "æĸĩ": 482,
      "èĲ": 483,
      "æķ°": 484,
      "çĦ": 485,
      "ç§į": 486,
      "çĽ®": 487,
      "æĪĸ": 488,
      "æģ": 489,
      "è®¡": 490,
      "åĮº": 491,
      "çĻ": 492,
      "å¹¶": 493,
      "åħ¥": 494,
      "æĥħ": 495,
      "å§": 496,
      "çī©": 497,
      "å¤©": 498,
      "ä½¿": 499,
      "æŁ": 500,
      "èĬ": 501,
      "æĬĢ": 502,
      "çĽ¸": 503,
      "æľŁ": 504,
      "è¡¨": 505,
      "ç±": 506,
      "æĪĳä»¬": 507,
      "éĴ": 508,
      "ï¼Ľ": 509,
      "åĳĺ": 510,
      "å½ĵ": 511,
      "ç¡": 512,
      "è¯´": 513,
      "å¼ı": 514,
      "è¿ĺ": 515,
      "æľį": 516,
      "çķ": 517,
      "ä½į": 518,
      "åķ": 519,
      "æ¯Ķ": 520,
      "å®ī": 521,
      "æĦı": 522,
      "åĽł": 523,
      "éĵ": 524,
      "éģĵ": 525,
      "æķĻ": 526,
      "çĥ": 527,
      "ç¾İ": 528,
      "åĪ©": 529,
      "ç¬¬": 530,
      "ç²": 531,
      "åı¯ä»¥": 532,
      "æĺİ": 533,
      "å¾Ī": 534,
      "ä¼ģ": 535,
      "éħ": 536,
      "æľ¯": 537,
      "ä¸ī": 538,
      "çĦ¶": 539,
      "æ¡": 540,
      "ä»İ": 541,
      "çĿĢ": 542,
      "çĸ": 543,
      "è´¨": 544,
      "ä½ł": 545,
      "é¢ĺ": 546,
      "ä¸Ģä¸ª": 547,
      "åŁº": 548,
      "éĤ": 549,
      "ä»£": 550,
      "æ°ĳ": 551,
      "çī¹": 552,
      "ä¸ŃåĽ½": 553,
      "æ·": 554,
      "æĹł": 555,
      "æŀľ": 556,
      "ä»¶": 557,
      "æ¬¡": 558,
      "è£": 559,
      "è½¦": 560,
      "å·¥ä½ľ": 561,
      "æŃ¤": 562,
      "æĶ¿": 563,
      "ç¼": 564,
      "æİ¥": 565,
      "ä½Ĩ": 566,
      "å¸¸": 567,
      "æį®": 568,
      "èĭ": 569,
      "åŀ": 570,
      "å¼º": 571,
      "ç¥": 572,
      "ä¼ģä¸ļ": 573,
      "æĮģ": 574,
      "èµ·": 575,
      "ä¸ĵ": 576,
      "å£": 577,
      "åı°": 578,
      "åĲĦ": 579,
      "åĲį": 580,
      "æīĭ": 581,
      "çľĭ": 582,
      "éľĢ": 583,
      "åıĳå±ķ": 584,
      "ä»»": 585,
      "æŃ£": 586,
      "åķĨ": 587,
      "è§Ħ": 588,
      "ç»Ł": 589,
      "æ´»": 590,
      "æĤ": 591,
      "ç´": 592,
      "è§£": 593,
      "ä»·": 594,
      "äºĽ": 595,
      "æµģ": 596,
      "æľįåĬ¡": 597,
      "ç§ĳ": 598,
      "ä¹Ī": 599,
      "äº¤": 600,
      "æ±Ĥ": 601,
      "è¢": 602,
      "ç»ĵ": 603,
      "åħĥ": 604,
      "è¿Ĳ": 605,
      "é¦": 606,
      "åĪĽ": 607,
      "ä¾Ľ": 608,
      "éĩĮ": 609,
      "æłĩ": 610,
      "éĹ®": 611,
      "éĢł": 612,
      "çĶ±": 613,
      "çģ": 614,
      "æĸĻ": 615,
      "ç«ĭ": 616,
      "æĪ·": 617,
      "èĪ": 618,
      "éª": 619,
      "çº¿": 620,
      "èį": 621,
      "æº": 622,
      "ãĢĭ": 623,
      "ãĢĬ": 624,
      "é¡¹": 625,
      "å¤ĩ": 626,
      "æ²¡": 627,
      "ä¸ľ": 628,
      "åģļ": 629,
      "åħ·": 630,
      "æł¼": 631,
      "å¯¼": 632,
      "ç«Ļ": 633,
      "éĹ¨": 634,
      "æł·": 635,
      "èĥ": 636,
      "æĶ¶": 637,
      "åĻ": 638,
      "10": 639,
      "åĲĳ": 640,
      "èģĶ": 641,
      "èº": 642,
      "æĬ¥": 643,
      "åįķ": 644,
      "åŀĭ": 645,
      "å¤Ħ": 646,
      "å·²": 647,
      "è¯ģ": 648,
      "æķĪ": 649,
      "æ»": 650,
      "çŁ¥": 651,
      "æĥ³": 652,
      "ï¼Ł": 653,
      "çĪ": 654,
      "è£ħ": 655,
      "çłĶ": 656,
      "æ°Ķ": 657,
      "éĢī": 658,
      "æİ¨": 659,
      "æµ·": 660,
      "è¢«": 661,
      "é£İ": 662,
      "èĤ¡": 663,
      "æĢ»": 664,
      "åİ»": 665,
      "ç¤¾": 666,
      "çĹ": 667,
      "åĻ¨": 668,
      "äº§åĵģ": 669,
      "èĢĥ": 670,
      "ä¼ł": 671,
      "èº«": 672,
      "è´¹": 673,
      "å¢ŀ": 674,
      "ç»Ħ": 675,
      "è¿Ľè¡Į": 676,
      "éĽĨ": 677,
      "åİŁ": 678,
      "äºĮ": 679,
      "æĦŁ": 680,
      "åĸ": 681,
      "åįģ": 682,
      "ç¤º": 683,
      "åıĺ": 684,
      "åıĹ": 685,
      "è®©": 686,
      "çº§": 687,
      "èĦ": 688,
      "å®¹": 689,
      "æģ¯": 690,
      "ä¼ĺ": 691,
      "ä¸¤": 692,
      "ä¸ĩ": 693,
      "æĬĢæľ¯": 694,
      "è°ĥ": 695,
      "éĻ¢": 696,
      "èī²": 697,
      "éĤ£": 698,
      "èĤ²": 699,
      "çİ¯": 700,
      "åħļ": 701,
      "å®Į": 702,
      "æĬķ": 703,
      "æĿĥ": 704,
      "å¹¿": 705,
      "èĲ¥": 706,
      "æºĲ": 707,
      "åıª": 708,
      "æŀĦ": 709,
      "åħ±": 710,
      "æ£": 711,
      "åĽŀ": 712,
      "æķ´": 713,
      "é©": 714,
      "ä½¿çĶ¨": 715,
      "é¢Ĩ": 716,
      "è®¤": 717,
      "èİ": 718,
      "èĩ³": 719,
      "è¾¾": 720,
      "è·¯": 721,
      "å·±": 722,
      "åħĪ": 723,
      "å½¢": 724,
      "åĨ³": 725,
      "æĶ¹": 726,
      "åŁİ": 727,
      "æĮĩ": 728,
      "åı£": 729,
      "å°ĳ": 730,
      "å¸Ĥåľº": 731,
      "ç±»": 732,
      "å¸Ī": 733,
      "ç¡®": 734,
      "åĮħ": 735,
      "ç©º": 736,
      "éĺ²": 737,
      "ç®¡çĲĨ": 738,
      "èĮ": 739,
      "å½±": 740,
      "æīĵ": 741,
      "èĩªå·±": 742,
      "çĽ´": 743,
      "æ¸¸": 744,
      "åĶ": 745,
      "å®¢": 746,
      "æ¨": 747,
      "æ³¨": 748,
      "åĩĨ": 749,
      "è®®": 750,
      "ç¦": 751,
      "å¸¦": 752,
      "åĪ«": 753,
      "ä½ķ": 754,
      "ç²¾": 755,
      "è®°": 756,
      "ç»Ļ": 757,
      "è¾ĥ": 758,
      "åıĸ": 759,
      "æĺĵ": 760,
      "201": 761,
      "è¿ĳ": 762,
      "å¸ĥ": 763,
      "èĬĤ": 764,
      "æĶ¾": 765,
      "æ²»": 766,
      "çĲĥ": 767,
      "è¥": 768,
      "è¯¥": 769,
      "éĿŀ": 770,
      "è§Ĩ": 771,
      "åĬŀ": 772,
      "ä¹¦": 773,
      "è½¬": 774,
      "è¥¿": 775,
      "ï¼ģ": 776,
      "æĶ¯": 777,
      "æ·±": 778,
      "æ¯ı": 779,
      "æ¶Ī": 780,
      "åĮ»": 781,
      "æ®": 782,
      "åĽ¢": 783,
      "éĹ®é¢ĺ": 784,
      "èĢģ": 785,
      "æ²¡æľī": 786,
      "æł¡": 787,
      "éªĮ": 788,
      "ä¸ĸ": 789,
      "æıĲä¾Ľ": 790,
      "æİ§": 791,
      "æĪĺ": 792,
      "çľŁ": 793,
      "æĸ½": 794,
      "çľģ": 795,
      "éĢļè¿ĩ": 796,
      "çħ": 797,
      "éĻĲ": 798,
      "çĥŃ": 799,
      "èĻ": 800,
      "æĿ¡": 801,
      "ä½İ": 802,
      "æĬ¤": 803,
      "åĮĹ": 804,
      "å¿«": 805,
      "æ¨¡": 806,
      "æīį": 807,
      "ä»Ĭ": 808,
      "åįĹ": 809,
      "å±±": 810,
      "æ¸ħ": 811,
      "é»": 812,
      "éĻħ": 813,
      "æ¼": 814,
      "è¯ķ": 815,
      "éĢŁ": 816,
      "åĬŁ": 817,
      "æ¡Ī": 818,
      "åħī": 819,
      "çķĮ": 820,
      "æĪ¿": 821,
      "æŃ¥": 822,
      "ç»Ń": 823,
      "åįĩ": 824,
      "åĳĬ": 825,
      "å¤´": 826,
      "ä¹ł": 827,
      "çİĩ": 828,
      "æĿĲ": 829,
      "åįİ": 830,
      "è§Ĥ": 831,
      "éĺŁ": 832,
      "å²": 833,
      "æ¢": 834,
      "åıĤ": 835,
      "éħį": 836,
      "æŁ¥": 837,
      "ä¿¡æģ¯": 838,
      "éŁ": 839,
      "åĽĽ": 840,
      "çĶŁäº§": 841,
      "å»ºè®¾": 842,
      "åĨį": 843,
      "ç³»ç»Ł": 844,
      "å¢ĥ": 845,
      "åĨµ": 846,
      "éľĢè¦ģ": 847,
      "æµĭ": 848,
      "æĹ¶éĹ´": 849,
      "éĩĩ": 850,
      "å¤į": 851,
      "éĶĢ": 852,
      "çĭ": 853,
      "åİĭ": 854,
      "åĽ½å®¶": 855,
      "æĢģ": 856,
      "æ¹": 857,
      "è®º": 858,
      "æĿ¿": 859,
      "æĬĬ": 860,
      "èĳ": 861,
      "åĢ¼": 862,
      "ç¤¾ä¼ļ": 863,
      "è´£": 864,
      "æł¹": 865,
      "è®¾è®¡": 866,
      "æĤ¨": 867,
      "å¼ķ": 868,
      "å°±æĺ¯": 869,
      "æľª": 870,
      "å±Ģ": 871,
      "ç©¶": 872,
      "æµİ": 873,
      "è§ģ": 874,
      "çĬ": 875,
      "ç½ĳç«Ļ": 876,
      "é¥": 877,
      "èģĮ": 878,
      "è±": 879,
      "åıį": 880,
      "åĬ©": 881,
      "ç¥ŀ": 882,
      "ç±³": 883,
      "å®ĥ": 884,
      "è¯Ĩ": 885,
      "è¯Ŀ": 886,
      "å§Ķ": 887,
      "åŃĺ": 888,
      "èµĽ": 889,
      "ç»´": 890,
      "å¿ħ": 891,
      "è¶ħ": 892,
      "ç½®": 893,
      "ä¸Ķ": 894,
      "ä¹ī": 895,
      "æĲ": 896,
      "ä¹Ĳ": 897,
      "éĻ¤": 898,
      "èŀ": 899,
      "æĴ": 900,
      "å¥³": 901,
      "è¯·": 902,
      "åĪĻ": 903,
      "çĹħ": 904,
      "çĽĳ": 905,
      "æ¬¾": 906,
      "è¶Ĭ": 907,
      "åĬ¿": 908,
      "é¦ĸ": 909,
      "ä¿®": 910,
      "æĢĿ": 911,
      "åı·": 912,
      "åĳ¨": 913,
      "ä»Ģ": 914,
      "ç§¯": 915,
      "åĪĴ": 916,
      "èİ·": 917,
      "çīĮ": 918,
      "ç»ıæµİ": 919,
      "æĺ¾": 920,
      "æĳ": 921,
      "çīĩ": 922,
      "ä¾¿": 923,
      "é¡¹çĽ®": 924,
      "æ£Ģ": 925,
      "æĸŃ": 926,
      "ä»ĸä»¬": 927,
      "00": 928,
      "å®īåħ¨": 929,
      "çĻ½": 930,
      "æŀģ": 931,
      "æķĻèĤ²": 932,
      "åŁŁ": 933,
      "åĽ¾": 934,
      "è®¾å¤ĩ": 935,
      "å§ĭ": 936,
      "è¡Įä¸ļ": 937,
      "ä»Ģä¹Ī": 938,
      "å¹²": 939,
      "ä¼Ĺ": 940,
      "ä¸ĵä¸ļ": 941,
      "çĻ¾": 942,
      "çº¦": 943,
      "åĵį": 944,
      "æ¸©": 945,
      "ç§°": 946,
      "éļ¾": 947,
      "èĩ´": 948,
      "çª": 949,
      "æİĴ": 950,
      "è¶³": 951,
      "é¢Ħ": 952,
      "çłĶç©¶": 953,
      "å¦Ĥæŀľ": 954,
      "å¥¹": 955,
      "èĮĥ": 956,
      "äºĶ": 957,
      "æĸ¯": 958,
      "å·ŀ": 959,
      "éļı": 960,
      "åį³": 961,
      "éĩįè¦ģ": 962,
      "åİĨ": 963,
      "ä¸»è¦ģ": 964,
      "åŃĹ": 965,
      "æĻº": 966,
      "å¡": 967,
      "éĢĤ": 968,
      "å¨": 969,
      "åįı": 970,
      "âĢĿï¼Į": 971,
      "èīº": 972,
      "åħ»": 973,
      "ç¢": 974,
      "ç®Ĺ": 975,
      "åıĪ": 976,
      "åĩł": 977,
      "çħ§": 978,
      "è¿Ļä¸ª": 979,
      "åı¯èĥ½": 980,
      "æĥħåĨµ": 981,
      "è¿ŀ": 982,
      "ä»¥åıĬ": 983,
      "èĲ½": 984,
      "éĻ©": 985,
      "å¹³åı°": 986,
      "åĲĮæĹ¶": 987,
      "ä»½": 988,
      "ä¾ĭ": 989,
      "åĶ®": 990,
      "è´Ń": 991,
      "è¦ģæ±Ĥ": 992,
      "æĸ¹éĿ¢": 993,
      "æĬķèµĦ": 994,
      "è®¸": 995,
      "æķ°æį®": 996,
      "å±Ĥ": 997,
      "è´§": 998,
      "çĪ±": 999,
      "åĳ½": 1000,
      "èŀį": 1001,
      "åĪĹ": 1002,
      "çŃĸ": 1003,
      "åĽłä¸º": 1004,
      "æ²¹": 1005,
      "æī¿": 1006,
      "èħ": 1007,
      "æħ": 1008,
      "äºĴ": 1009,
      "åĦ": 1010,
      "å±ŀ": 1011,
      "æļ": 1012,
      "åĨľ": 1013,
      "éĴ¢": 1014,
      "åĢĻ": 1015,
      "è¯Ħ": 1016,
      "ä»ħ": 1017,
      "çı": 1018,
      "æ»¡": 1019,
      "å¾·": 1020,
      "åĨħå®¹": 1021,
      "çĶŁæ´»": 1022,
      "äº¿": 1023,
      "èĬ±": 1024,
      "é£Ł": 1025,
      "ä¾Ŀ": 1026,
      "äº¬": 1027,
      "å¤Ł": 1028,
      "ç¦»": 1029,
      "é©¬": 1030,
      "èµ°": 1031,
      "ï¿": 1032,
      "æ®µ": 1033,
      "å¼ł": 1034,
      "éŁ³": 1035,
      "æ´»åĬ¨": 1036,
      "ç»Ĩ": 1037,
      "çĽ¸åħ³": 1038,
      "åıĭ": 1039,
      "åĦ¿": 1040,
      "ï¿½": 1041,
      "çĽĬ": 1042,
      "åĿĩ": 1043,
      "ç¬¬ä¸Ģ": 1044,
      "åĿļ": 1045,
      "çĮ": 1046,
      "åĪĩ": 1047,
      "çīĪ": 1048,
      "çİ¯å¢ĥ": 1049,
      "èį¯": 1050,
      "é¾": 1051,
      "ä¸ĸçķĮ": 1052,
      "æĵ": 1053,
      "æĭ©": 1054,
      "æł¸": 1055,
      "å¤ª": 1056,
      "æĸ¹å¼ı": 1057,
      "å£«": 1058,
      "èĭ±": 1059,
      "åĥ": 1060,
      "éĻį": 1061,
      "ãĢĤâĢĿ": 1062,
      "å¥½çļĦ": 1063,
      "çŁ³": 1064,
      "çİĭ": 1065,
      "æľĽ": 1066,
      "æĻ¯": 1067,
      "å½±åĵį": 1068,
      "ç´ł": 1069,
      "ä¸¥": 1070,
      "åı²": 1071,
      "å·¥ç¨ĭ": 1072,
      "ä¸įåĲĮ": 1073,
      "è´¨éĩı": 1074,
      "äººåĳĺ": 1075,
      "çļĦä¸Ģ": 1076,
      "åģ¥": 1077,
      "æ±Ł": 1078,
      "ä½ľä¸º": 1079,
      "ä½ı": 1080,
      "åħ¶ä»ĸ": 1081,
      "äº§ä¸ļ": 1082,
      "è´Ł": 1083,
      "åĨĽ": 1084,
      "ç»ľ": 1085,
      "å·²ç»ı": 1086,
      "ä¸Ńå¿ĥ": 1087,
      "åŁ¹": 1088,
      "æŀĹ": 1089,
      "å¾Īå¤ļ": 1090,
      "åħĭ": 1091,
      "åħħ": 1092,
      "åŃ¦ä¹ł": 1093,
      "éĢīæĭ©": 1094,
      "åİĤ": 1095,
      "ç»ĩ": 1096,
      "æĪĲä¸º": 1097,
      "å¤§å®¶": 1098,
      "åĽŃ": 1099,
      "ç¾¤": 1100,
      "ç®Ģ": 1101,
      "åħį": 1102,
      "åĽ½éĻħ": 1103,
      "çĸĹ": 1104,
      "19": 1105,
      "çĶ¨æĪ·": 1106,
      "å¾®": 1107,
      "çĬ¶": 1108,
      "æĮī": 1109,
      "æĺ¯ä¸Ģ": 1110,
      "ç»Ī": 1111,
      "èĥ½åĬĽ": 1112,
      "æĪı": 1113,
      "åºľ": 1114,
      "éĿĴ": 1115,
      "åĽ´": 1116,
      "ä¹°": 1117,
      "è§ī": 1118,
      "äºļ": 1119,
      "å°Ķ": 1120,
      "å£°": 1121,
      "ä¸¾": 1122,
      "çģ«": 1123,
      "éĥ¨åĪĨ": 1124,
      "çĸ«": 1125,
      "è¿ĻäºĽ": 1126,
      "çļĦäºº": 1127,
      "åıĮ": 1128,
      "è¨": 1129,
      "è¨Ģ": 1130,
      "åºĹ": 1131,
      "å®¤": 1132,
      "å¾ĭ": 1133,
      "è±¡": 1134,
      "å¯Ĩ": 1135,
      "æĭī": 1136,
      "å¤§çļĦ": 1137,
      "æīĢä»¥": 1138,
      "æĿĳ": 1139,
      "è½½": 1140,
      "å¯¹äºİ": 1141,
      "åľŁ": 1142,
      "åĭ": 1143,
      "å®ŀçİ°": 1144,
      "åº·": 1145,
      "åĥı": 1146,
      "ç§ĳæĬĢ": 1147,
      "æ¼Ķ": 1148,
      "è¾¹": 1149,
      "å¤ĦçĲĨ": 1150,
      "å¤±": 1151,
      "å®¢æĪ·": 1152,
      "åĩı": 1153,
      "ç½ĳç»ľ": 1154,
      "äººæ°ĳ": 1155,
      "äºī": 1156,
      "12": 1157,
      "è´¢": 1158,
      "çº¢": 1159,
      "å¾Ģ": 1160,
      "åŃ¦çĶŁ": 1161,
      "åħ·æľī": 1162,
      "èı": 1163,
      "æł¹æį®": 1164,
      "åĪĽæĸ°": 1165,
      "åºķ": 1166,
      "åºĶçĶ¨": 1167,
      "ä¸įæĺ¯": 1168,
      "å®Ŀ": 1169,
      "çĽ®åīį": 1170,
      "è¯Ń": 1171,
      "å¿µ": 1172,
      "å½ķ": 1173,
      "è®²": 1174,
      "ä¸ªäºº": 1175,
      "å®ĺ": 1176,
      "éĿŀå¸¸": 1177,
      "æĸĩåĮĸ": 1178,
      "æľīéĻĲ": 1179,
      "æĹ¶åĢĻ": 1180,
      "è¿Ļæł·": 1181,
      "éĺ³": 1182,
      "åĲĪä½ľ": 1183,
      "åĸĦ": 1184,
      "çİ°åľ¨": 1185,
      "30": 1186,
      "ä»ĭ": 1187,
      "åĵģçīĮ": 1188,
      "è¾ĵ": 1189,
      "ä¸ŃçļĦ": 1190,
      "ç¾İåĽ½": 1191,
      "è¿ĩç¨ĭ": 1192,
      "ä»·æł¼": 1193,
      "er": 1194,
      "æĭ¬": 1195,
      "æıĲé«ĺ": 1196,
      "æĭħ": 1197,
      "å¿Ĺ": 1198,
      "å¼Ģå§ĭ": 1199,
      "è½»": 1200,
      "è¯¾": 1201,
      "æĶ¿åºľ": 1202,
      "ç»Ħç»ĩ": 1203,
      "11": 1204,
      "è§Ĵ": 1205,
      "é¢ĳ": 1206,
      "ä¹Łæĺ¯": 1207,
      "éĵ¶": 1208,
      "ç¨³": 1209,
      "åİ¿": 1210,
      "çĭ¬": 1211,
      "éĢģ": 1212,
      "èĥ½å¤Ł": 1213,
      "å¯Į": 1214,
      "æłĩåĩĨ": 1215,
      "è½¯": 1216,
      "äºĳ": 1217,
      "æīĢæľī": 1218,
      "è®Ń": 1219,
      "åĮħæĭ¬": 1220,
      "æĿĲæĸĻ": 1221,
      "ç«¯": 1222,
      "ä½Ĩæĺ¯": 1223,
      "æŃ¢": 1224,
      "ç¼ĸ": 1225,
      "æ¥": 1226,
      "åĩ»": 1227,
      "é¡»": 1228,
      "èĪ¬": 1229,
      "ä»»ä½ķ": 1230,
      "æī¾": 1231,
      "æ¶Īè´¹": 1232,
      "æķħ": 1233,
      "è¡¨ç¤º": 1234,
      "é¾Ļ": 1235,
      "çł´": 1236,
      "æĺŁ": 1237,
      "ä¸ĢäºĽ": 1238,
      "in": 1239,
      "ç«ł": 1240,
      "åħ´": 1241,
      "éĿ©": 1242,
      "åł": 1243,
      "å¼Ģåıĳ": 1244,
      "è¿ľ": 1245,
      "åºı": 1246,
      "æī¹": 1247,
      "åĤ": 1248,
      "21": 1249,
      "æ¸¯": 1250,
      "æ¸¸æĪı": 1251,
      "æĻ®": 1252,
      "åį¡": 1253,
      "åĽ½åĨħ": 1254,
      "å®¡": 1255,
      "åį´": 1256,
      "åĪ°äºĨ": 1257,
      "é¢Ŀ": 1258,
      "åĵª": 1259,
      "åĩºçİ°": 1260,
      "åŃ©": 1261,
      "èī¯": 1262,
      "åĪĿ": 1263,
      "æĹ©": 1264,
      "æį¢": 1265,
      "åı¤": 1266,
      "åįļ": 1267,
      "äººçļĦ": 1268,
      "æ²³": 1269,
      "äº«": 1270,
      "âĢĿãĢĤ": 1271,
      "éľĢæ±Ĥ": 1272,
      "éĥ½æĺ¯": 1273,
      "çļĦæĺ¯": 1274,
      "ä¸Ģå®ļ": 1275,
      "50": 1276,
      "åĬŁèĥ½": 1277,
      "ç£": 1278,
      "æ±½": 1279,
      "æľºæŀĦ": 1280,
      "åŁİå¸Ĥ": 1281,
      "ç¥¨": 1282,
      "éĵģ": 1283,
      "é»Ħ": 1284,
      "å±ħ": 1285,
      "èĳ£": 1286,
      "åįĬ": 1287,
      "å·®": 1288,
      "èµĦæºĲ": 1289,
      "å¤§åŃ¦": 1290,
      "åŁºç¡": 1291,
      "æŀĲ": 1292,
      "åŃ£": 1293,
      "åĲ¦": 1294,
      "éĴ±": 1295,
      "æĪĸèĢħ": 1296,
      "200": 1297,
      "å°½": 1298,
      "åŁºç¡Ģ": 1299,
      "æĴŃ": 1300,
      "è§£åĨ³": 1301,
      "é¦Ļ": 1302,
      "çĻ»": 1303,
      "è¯»": 1304,
      "èĩªå·±çļĦ": 1305,
      "è¿ĺæĺ¯": 1306,
      "ä¸ĬçļĦ": 1307,
      "æĹħ": 1308,
      "å¥ĸ": 1309,
      "ä¸įæĸŃ": 1310,
      "éĽĨåĽ¢": 1311,
      "çŃĳ": 1312,
      "çķ¥": 1313,
      "éļľ": 1314,
      "æıĲåįĩ": 1315,
      "æ¬¢": 1316,
      "æİ§åĪ¶": 1317,
      "åĨĻ": 1318,
      "å¸®": 1319,
      "æľīéĻĲåħ¬åı¸": 1320,
      "ï¼ļâĢľ": 1321,
      "å¦Ĥä½ķ": 1322,
      "å®£": 1323,
      "åħ¨åĽ½": 1324,
      "åı¦": 1325,
      "æĢİ": 1326,
      "çªģ": 1327,
      "ãĢĤâĢľ": 1328,
      "å¼Ģå±ķ": 1329,
      "è´£ä»»": 1330,
      "ç«ŀ": 1331,
      "çľ¼": 1332,
      "å®³": 1333,
      "on": 1334,
      "ç¦ı": 1335,
      "ä¸ļåĬ¡": 1336,
      "äº¤æĺĵ": 1337,
      "äº²": 1338,
      "çķĻ": 1339,
      "æī§": 1340,
      "äºĨè§£": 1341,
      "åĽłæŃ¤": 1342,
      "æĹı": 1343,
      "çİ©": 1344,
      "åĲ«": 1345,
      "å®ĮæĪĲ": 1346,
      "åħ¶ä¸Ń": 1347,
      "è¡¥": 1348,
      "çĽĺ": 1349,
      "ä¸įèĥ½": 1350,
      "æĸ¹æ³ķ": 1351,
      "æĵį": 1352,
      "æĻºèĥ½": 1353,
      "çĨ": 1354,
      "åįł": 1355,
      "æ¦": 1356,
      "çºª": 1357,
      "å·¥ä¸ļ": 1358,
      "éĩĩçĶ¨": 1359,
      "æ½": 1360,
      "çĶ±äºİ": 1361,
      "âĢ¦": 1362,
      "ç»ĵæŀĦ": 1363,
      "åĮĹäº¬": 1364,
      "ç»§": 1365,
      "è¿Ļç§į": 1366,
      "æ¿": 1367,
      "åıĳçĶŁ": 1368,
      "å¸Į": 1369,
      "æ¯Ķè¾ĥ": 1370,
      "ä½ľçĶ¨": 1371,
      "ç´§": 1372,
      "èİ·å¾Ĺ": 1373,
      "ä¸ĢèĪ¬": 1374,
      "ä¸´": 1375,
      "èĳ£äºĭ": 1376,
      "è®¯": 1377,
      "ç»Ŀ": 1378,
      "åĸľ": 1379,
      "åī¯": 1380,
      "åĲ¸": 1381,
      "å©": 1382,
      "é¢ĨåŁŁ": 1383,
      "èĤ¡ä¸ľ": 1384,
      "è¿°": 1385,
      "è·Ł": 1386,
      "åį°": 1387,
      "ä¸ºäºĨ": 1388,
      "ç§»": 1389,
      "ç´¢": 1390,
      "åĽº": 1391,
      "éĥ¨éĹ¨": 1392,
      "æĶ¯æĮģ": 1393,
      "æįŁ": 1394,
      "åĨ·": 1395,
      "æĿ¥çļĦ": 1396,
      "ä¸įä¼ļ": 1397,
      "ä»£è¡¨": 1398,
      "æĶ¿çŃĸ": 1399,
      "çĵ": 1400,
      "çıŃ": 1401,
      "åŃ¦æł¡": 1402,
      "è§Ħå®ļ": 1403,
      "ä¿ĿæĬ¤": 1404,
      "åĪĨæŀĲ": 1405,
      "åĲĦç§į": 1406,
      "åį«": 1407,
      "æĿİ": 1408,
      "æ¬§": 1409,
      "å¢ŀéķ¿": 1410,
      "åįķä½į": 1411,
      "ç¿": 1412,
      "æĭĽ": 1413,
      "éĵ¾": 1414,
      "ä¸ĢæŃ¥": 1415,
      "åħŃ": 1416,
      "æ¿Ģ": 1417,
      "åĲĥ": 1418,
      "ãĢĢ": 1419,
      "åĿĹ": 1420,
      "çĶ»": 1421,
      "çĶ·": 1422,
      "åľ°åĮº": 1423,
      "éĤ£ä¹Ī": 1424,
      "åĲ¬": 1425,
      "å¸ģ": 1426,
      "å¼Ĥ": 1427,
      "åª": 1428,
      "éĶ®": 1429,
      "çŁŃ": 1430,
      "å¥Ĺ": 1431,
      "æ±¡": 1432,
      "éħĴ": 1433,
      "æľ¨": 1434,
      "ä»ĺ": 1435,
      "æĭ¥": 1436,
      "å¿ħé¡»": 1437,
      "ä½Ļ": 1438,
      "ä¼ļè®®": 1439,
      "ç²¾ç¥ŀ": 1440,
      "éĶĢåĶ®": 1441,
      "å¾ħ": 1442,
      "é¸": 1443,
      "åĳ³": 1444,
      "æĬĹ": 1445,
      "æ³¢": 1446,
      "ï¼ĮâĢľ": 1447,
      "an": 1448,
      "æĸ¹æ¡Ī": 1449,
      "æ¤": 1450,
      "å½©": 1451,
      "èģļ": 1452,
      "èµĦæĸĻ": 1453,
      "åıĳçİ°": 1454,
      "å»ºçŃĳ": 1455,
      "åĪ©çĶ¨": 1456,
      "åģ¥åº·": 1457,
      "åħ¨çĲĥ": 1458,
      "å¹´çļĦ": 1459,
      "æĸ°çļĦ": 1460,
      "çŁ¥éģĵ": 1461,
      "ç§ĳåŃ¦": 1462,
      "é²": 1463,
      "éĹ»": 1464,
      "åŁºæľ¬": 1465,
      "åºĵ": 1466,
      "è¡Ģ": 1467,
      "15": 1468,
      "å¯Ł": 1469,
      "åįĥ": 1470,
      "æ´Ĺ": 1471,
      "çº³": 1472,
      "åĳ¢": 1473,
      "æĽ´å¤ļ": 1474,
      "è®¡åĪĴ": 1475,
      "ç½Ĺ": 1476,
      "åİĨåı²": 1477,
      "æ¹ĸ": 1478,
      "æľīæķĪ": 1479,
      "çĶ³": 1480,
      "åĪ»": 1481,
      "éĿł": 1482,
      "éĴĪ": 1483,
      "ç¬¬äºĮ": 1484,
      "è®¤ä¸º": 1485,
      "åī§": 1486,
      "ä»¥ä¸Ĭ": 1487,
      "æ¶²": 1488,
      "åħ¨éĿ¢": 1489,
      "å¢ŀåĬł": 1490,
      "ç»¼": 1491,
      "è½®": 1492,
      "åŃ©åŃĲ": 1493,
      "è¿Ļä¸Ģ": 1494,
      "æĽ¾": 1495,
      "ç³»åĪĹ": 1496,
      "çĶ¨äºİ": 1497,
      "äºĨä¸Ģ": 1498,
      "ä»į": 1499,
      "ä¹ĭåĲİ": 1500,
      "èĴ": 1501,
      "èĻ½": 1502,
      "èģĶç½ĳ": 1503,
      "æŁĲ": 1504,
      "æ°´å¹³": 1505,
      "åıĳå¸ĥ": 1506,
      "ç»ıèĲ¥": 1507,
      "ä¿ĥ": 1508,
      "ç»¿": 1509,
      "å·´": 1510,
      "æīĺ": 1511,
      "æİĪ": 1512,
      "éĢı": 1513,
      "çĶµåŃĲ": 1514,
      "åĪ¶éĢł": 1515,
      "æ±½è½¦": 1516,
      "åģľ": 1517,
      "è¯ī": 1518,
      "èĢĮä¸Ķ": 1519,
      "æĮģç»Ń": 1520,
      "éĺ¶": 1521,
      "é»ĳ": 1522,
      "çļ®": 1523,
      "å®ŀéĻħ": 1524,
      "çĩ": 1525,
      "åªĴ": 1526,
      "æŁĵ": 1527,
      "ç¨İ": 1528,
      "ä»¤": 1529,
      "åŃĺåľ¨": 1530,
      "ä¸°": 1531,
      "ç§¯æŀģ": 1532,
      "æŃ¦": 1533,
      "åħ³ç³»": 1534,
      "æŃ»": 1535,
      "åħ«": 1536,
      "çļĦæĹ¶åĢĻ": 1537,
      "å¾ģ": 1538,
      "çĸ«æĥħ": 1539,
      "åĲ¯": 1540,
      "çĽ´æİ¥": 1541,
      "æĢİä¹Ī": 1542,
      "ä¹Ŀ": 1543,
      "åĬłå¼º": 1544,
      "éĶĻ": 1545,
      "ä¹¡": 1546,
      "æĭ¥æľī": 1547,
      "çī¹åĪ«": 1548,
      "ä½ĵç³»": 1549,
      "äº¿åħĥ": 1550,
      "åģĩ": 1551,
      "äº§çĶŁ": 1552,
      "æķĪæŀľ": 1553,
      "å¤®": 1554,
      "æľīåħ³": 1555,
      "ä¿Ŀè¯ģ": 1556,
      "åĩĢ": 1557,
      "æĸĹ": 1558,
      "è¿ĺæľī": 1559,
      "çłģ": 1560,
      "èĪª": 1561,
      "æĦ¿": 1562,
      "åº§": 1563,
      "æĤ£": 1564,
      "éĺ¿": 1565,
      "ç»į": 1566,
      "Â·": 1567,
      "å¸ĮæľĽ": 1568,
      "èŃ": 1569,
      "èĹ": 1570,
      "é¼": 1571,
      "%ï¼Į": 1572,
      "èĩªåĬ¨": 1573,
      "å¨ģ": 1574,
      "é¢Ĩå¯¼": 1575,
      "çĽ®æłĩ": 1576,
      "æ¹¾": 1577,
      "åĨ²": 1578,
      "çŁ¥è¯Ĩ": 1579,
      "çģµ": 1580,
      "èĨ": 1581,
      "éģĩ": 1582,
      "æłĳ": 1583,
      "é¡µ": 1584,
      "éĽ¶": 1585,
      "18": 1586,
      "åīĤ": 1587,
      "æŀ¶": 1588,
      "åĺ": 1589,
      "åĨł": 1590,
      "éĵ¶è¡Į": 1591,
      "æĺ¥": 1592,
      "æĵįä½ľ": 1593,
      "æ¯į": 1594,
      "ä»·åĢ¼": 1595,
      "åĲĹ": 1596,
      "èŃ¦": 1597,
      "åħ³äºİ": 1598,
      "è¾¾åĪ°": 1599,
      "é£ŀ": 1600,
      "æ³ķå¾ĭ": 1601,
      "æ¨¡å¼ı": 1602,
      "éĻĪ": 1603,
      "ä¸»ä¹ī": 1604,
      "æīĭæľº": 1605,
      "æ¯Ĵ": 1606,
      "æĪĳåĽ½": 1607,
      "éĩįçĤ¹": 1608,
      "è®¿": 1609,
      "é£İéĻ©": 1610,
      "åħ°": 1611,
      "2020": 1612,
      "å¥ĩ": 1613,
      "ç²ī": 1614,
      "è¯¢": 1615,
      "ï¼īï¼Į": 1616,
      "ç¼º": 1617,
      "å¤§ä¼ļ": 1618,
      "è¿Ļæĺ¯": 1619,
      "æĺ¾ç¤º": 1620,
      "å»ºç«ĭ": 1621,
      "è¿Ľåħ¥": 1622,
      "èĭ¥": 1623,
      "ä¸Ĭæµ·": 1624,
      "éĩĳèŀį": 1625,
      "ä¼¤": 1626,
      "ç©ºéĹ´": 1627,
      "æĹ¶ä»£": 1628,
      "è½¯ä»¶": 1629,
      "è¿Ľä¸ĢæŃ¥": 1630,
      "ä»Ĭå¹´": 1631,
      "ç¯": 1632,
      "èĭı": 1633,
      "17": 1634,
      "èĳĹ": 1635,
      "æİ¨åĬ¨": 1636,
      "åŁ¹è®Ń": 1637,
      "æİ¢": 1638,
      "ç¬¬ä¸ī": 1639,
      "æĬ¥åĳĬ": 1640,
      "ä¸Ģèµ·": 1641,
      "èīºæľ¯": 1642,
      "ç»¼åĲĪ": 1643,
      "ç»ĥ": 1644,
      "æ´²": 1645,
      "ä»ĭç»į": 1646,
      "è¿½": 1647,
      "å®ŀæĸ½": 1648,
      "éĢĲ": 1649,
      "ä¸ĥ": 1650,
      "16": 1651,
      "éļıçĿĢ": 1652,
      "æİ¨è¿Ľ": 1653,
      "æ¥¼": 1654,
      "åħ¸": 1655,
      "åĢŁ": 1656,
      "æ±ĩ": 1657,
      "åľ°æĸ¹": 1658,
      "å½¢æĪĲ": 1659,
      "ä¼łç»Ł": 1660,
      "è´Łè´£": 1661,
      "ä¹ĭéĹ´": 1662,
      "å°¼": 1663,
      "ä»ª": 1664,
      "åĿļæĮģ": 1665,
      "åŁºéĩĳ": 1666,
      "é¡º": 1667,
      "å¸Ń": 1668,
      "é¡¾": 1669,
      "äºĴèģĶç½ĳ": 1670,
      "æľĭ": 1671,
      "åĲ§": 1672,
      "æĮ¥": 1673,
      "å®ģ": 1674,
      "æķĻåŃ¦": 1675,
      "ç§Ł": 1676,
      "ç»ĵåĲĪ": 1677,
      "æıĲåĩº": 1678,
      "2021": 1679,
      "å³": 1680,
      "åĨĮ": 1681,
      "åºŃ": 1682,
      "25": 1683,
      "ç»©": 1684,
      "¤Ĳ": 1685,
      "çŃ¾": 1686,
      "éĢłæĪĲ": 1687,
      "åºĶè¯¥": 1688,
      "æĿ¥è¯´": 1689,
      "åĪ¶åº¦": 1690,
      "ç§Ģ": 1691,
      "çĽŁ": 1692,
      "å²ģ": 1693,
      "en": 1694,
      "ä¿Ŀéļľ": 1695,
      "ç¨³å®ļ": 1696,
      "çĶļ": 1697,
      "èĻ½çĦ¶": 1698,
      "è¿Ŀ": 1699,
      "éŃ": 1700,
      "éķĩ": 1701,
      "åĪļ": 1702,
      "åĤ¨": 1703,
      "åħ³éĶ®": 1704,
      "èĩªçĦ¶": 1705,
      "æĿ¡ä»¶": 1706,
      "å±Ĭ": 1707,
      "æľªæĿ¥": 1708,
      "å®Ī": 1709,
      "çĶŁæĢģ": 1710,
      "or": 1711,
      "åįĸ": 1712,
      "æĽ´åĬł": 1713,
      "è¡Įä¸º": 1714,
      "çłĶåıĳ": 1715,
      "ç®±": 1716,
      "èµĦéĩĳ": 1717,
      "è®¢": 1718,
      "éĨ": 1719,
      "æĶ¹éĿ©": 1720,
      "ä¹ħ": 1721,
      "æĪĳä»¬çļĦ": 1722,
      "ä¸įä»ħ": 1723,
      "ç»ıéªĮ": 1724,
      "é¤Ĳ": 1725,
      "èĦĳ": 1726,
      "èĥĮ": 1727,
      "åĬ³": 1728,
      "å¹ħ": 1729,
      "çĽĸ": 1730,
      "è¶ħè¿ĩ": 1731,
      "æ¢°": 1732,
      "å¸®åĬ©": 1733,
      "ç»§ç»Ń": 1734,
      "13": 1735,
      "ä½ĵèĤ²": 1736,
      "å®īè£ħ": 1737,
      "ç»ĵæŀľ": 1738,
      "æĿ¾": 1739,
      "14": 1740,
      "æİª": 1741,
      "æĺ¯åĲ¦": 1742,
      "æĶ»": 1743,
      "è°Ī": 1744,
      "æ³¨æĦı": 1745,
      "è¿İ": 1746,
      "åĮ»éĻ¢": 1747,
      "è´µ": 1748,
      "æĹłæ³ķ": 1749,
      "æĸ°éĹ»": 1750,
      "æ¶¦": 1751,
      "åĪ¸": 1752,
      "èĦ±": 1753,
      "ar": 1754,
      "é¦Ĩ": 1755,
      "èĵ": 1756,
      "èĥľ": 1757,
      "äººæīį": 1758,
      "çŁ¿": 1759,
      "æľĭåıĭ": 1760,
      "åį±": 1761,
      "æŃ£åľ¨": 1762,
      "ä¼¼": 1763,
      "æ¾": 1764,
      "æ¶¨": 1765,
      "æī©": 1766,
      "æ¶ī": 1767,
      "éĢĢ": 1768,
      "åĽ°": 1769,
      "éĻĦ": 1770,
      "é½": 1771,
      "è®¸å¤ļ": 1772,
      "æĭ¿": 1773,
      "èĢĲ": 1774,
      "ç¨ĭåºı": 1775,
      "æĪĲåĬŁ": 1776,
      "éħ¸": 1777,
      "å¤«": 1778,
      "åŃ¦éĻ¢": 1779,
      "è¯ļ": 1780,
      "å°ģ": 1781,
      "äºĪ": 1782,
      "æĢ¥": 1783,
      "è¿ĩç¨ĭä¸Ń": 1784,
      "èµĦäº§": 1785,
      "ä¸ĢçĽ´": 1786,
      "èĥ¶": 1787,
      "æĢ§èĥ½": 1788,
      "åħ±åĲĮ": 1789,
      "é¥°": 1790,
      "åıĤä¸İ": 1791,
      "èĮĥåĽ´": 1792,
      "co": 1793,
      "æķ°åŃĹ": 1794,
      "è®°èĢħ": 1795,
      "å®¹æĺĵ": 1796,
      "100": 1797,
      "éģ¿": 1798,
      "è´¦": 1799,
      "çĿ£": 1800,
      "ç¡¬": 1801,
      "å·¦": 1802,
      "æĪĲæľ¬": 1803,
      "èµ·æĿ¥": 1804,
      "å»¶": 1805,
      "çļĦå¤§": 1806,
      "æ²Ļ": 1807,
      "éľ²": 1808,
      "å°Ħ": 1809,
      "åªĴä½ĵ": 1810,
      "æĶ¿æ²»": 1811,
      "å¯¼èĩ´": 1812,
      "åı³": 1813,
      "æĻļ": 1814,
      "æ±ī": 1815,
      "ä¸Ŀ": 1816,
      "è§ĦåĪĴ": 1817,
      "è®¨": 1818,
      "è§Ĩé¢ĳ": 1819,
      "æ¯ķ": 1820,
      "çİ°ä»£": 1821,
      "ä¹ĭä¸Ģ": 1822,
      "èĽ": 1823,
      "æ¤į": 1824,
      "æ··": 1825,
      "ä¸Ńå¤®": 1826,
      "çİ°åľº": 1827,
      "ä¸įè¿ĩ": 1828,
      "èĻĳ": 1829,
      "60": 1830,
      "æĢ§çļĦ": 1831,
      "åĬłå·¥": 1832,
      "ä¹¦è®°": 1833,
      "æ£Ģæµĭ": 1834,
      "è§Ħæ¨¡": 1835,
      "çŃĶ": 1836,
      "ä¸Ģæ¬¡": 1837,
      "åĽ¢éĺŁ": 1838,
      "éĴŁ": 1839,
      "ä¸¤ä¸ª": 1840,
      "èĹı": 1841,
      "æ²»çĸĹ": 1842,
      "é¥®": 1843,
      "æĹħæ¸¸": 1844,
      "ä½ĵéªĮ": 1845,
      "æĮīçħ§": 1846,
      "æł¸å¿ĥ": 1847,
      "ä¸Ģæł·": 1848,
      "åĪ¤": 1849,
      "æĪĲç«ĭ": 1850,
      "ä¹İ": 1851,
      "èĢĥè¯ķ": 1852,
      "çĶļèĩ³": 1853,
      "åıĤåĬł": 1854,
      "æĸ½å·¥": 1855,
      "å¡ĳ": 1856,
      "èģĮä¸ļ": 1857,
      "ä½³": 1858,
      "æľºæ¢°": 1859,
      "æĿĤ": 1860,
      "å¾ĹåĪ°": 1861,
      "éº": 1862,
      "è§Ī": 1863,
      "al": 1864,
      "çĳ": 1865,
      "è´·": 1866,
      "åıĸå¾Ĺ": 1867,
      "ä½łçļĦ": 1868,
      "ç»ıè¿ĩ": 1869,
      "ä¼ĺåĬ¿": 1870,
      "éĻĨ": 1871,
      "è¿ĲåĬ¨": 1872,
      "åºĨ": 1873,
      "è§¦": 1874,
      "ç¬¦": 1875,
      "ç®Ģåįķ": 1876,
      "åı¬": 1877,
      "èĸ": 1878,
      "åİŁåĽł": 1879,
      "æľĢåĲİ": 1880,
      "åıªæľī": 1881,
      "2019": 1882,
      "å¿«éĢŁ": 1883,
      "æķ£": 1884,
      "ä»ĸçļĦ": 1885,
      "èį£": 1886,
      "é¡¶": 1887,
      "%ãĢĤ": 1888,
      "ĠC": 1889,
      "åĮ»çĸĹ": 1890,
      "åı°æ¹¾": 1891,
      "ä¿ĿæĮģ": 1892,
      "å¹¶ä¸Ķ": 1893,
      "çľĭåĪ°": 1894,
      "åİħ": 1895,
      "24": 1896,
      "ĠS": 1897,
      "äº®": 1898,
      "æĪĺçķ¥": 1899,
      "åĬª": 1900,
      "åºĬ": 1901,
      "æĪĳçļĦ": 1902,
      "äº¤æµģ": 1903,
      "åħ¶å®ŀ": 1904,
      "éĴĪå¯¹": 1905,
      "æĢĿæĥ³": 1906,
      "å»ºè®®": 1907,
      "å¤ľ": 1908,
      "è¸": 1909,
      "è¯į": 1910,
      "åħ³æ³¨": 1911,
      "çī©æµģ": 1912,
      "èıľ": 1913,
      "è®¡ç®Ĺ": 1914,
      "å¦Ī": 1915,
      "äººä»¬": 1916,
      "ä¼ĺåĮĸ": 1917,
      "èĤ¡ä»½": 1918,
      "æ°¸": 1919,
      "èĥ½æºĲ": 1920,
      "ä¸ĩåħĥ": 1921,
      "åıĺåĮĸ": 1922,
      "åºŁ": 1923,
      "æ´¾": 1924,
      "es": 1925,
      "ä»¥ä¸ĭ": 1926,
      "æ¶Īè´¹èĢħ": 1927,
      "ä»¥æĿ¥": 1928,
      "æ´ģ": 1929,
      "ç©¿": 1930,
      "æ³Ľ": 1931,
      "ç¾İåħĥ": 1932,
      "æħ¢": 1933,
      "å·¨": 1934,
      "è°¢": 1935,
      "ä¸įå¾Ĺ": 1936,
      "èĲ½å®ŀ": 1937,
      "åħħåĪĨ": 1938,
      "æ±ł": 1939,
      "çĸĳ": 1940,
      "çī¹èī²": 1941,
      "æľīçļĦ": 1942,
      "æ°§": 1943,
      "æ³¨åĨĮ": 1944,
      "åĪ¶ä½ľ": 1945,
      "æ£ĢæŁ¥": 1946,
      "ç¡®ä¿Ŀ": 1947,
      "åİĭåĬĽ": 1948,
      "è´¸": 1949,
      "å®Įåħ¨": 1950,
      "æĭį": 1951,
      "åĨ³å®ļ": 1952,
      "å®ĮåĸĦ": 1953,
      "éĺ¶æ®µ": 1954,
      "æĬĵ": 1955,
      "è¿ĻéĩĮ": 1956,
      "åĬªåĬĽ": 1957,
      "è·µ": 1958,
      "çĮ®": 1959,
      "æŃĮ": 1960,
      "æī§è¡Į": 1961,
      "å¸¦æĿ¥": 1962,
      "åıĹåĪ°": 1963,
      "æ¡¥": 1964,
      "éļĶ": 1965,
      "ä¸Ģç§į": 1966,
      "âĢĿãĢģ": 1967,
      "æ¸Ĳ": 1968,
      "èĢģå¸Ī": 1969,
      "ç¼©": 1970,
      "æīĵéĢł": 1971,
      "å½Ĵ": 1972,
      "å©ļ": 1973,
      "åĳĺå·¥": 1974,
      "çĦ¶åĲİ": 1975,
      "æ»ĳ": 1976,
      "èįī": 1977,
      "åıĬæĹ¶": 1978,
      "ç§ģ": 1979,
      "çĨŁ": 1980,
      "å½¢å¼ı": 1981,
      "å·¥èīº": 1982,
      "æīįèĥ½": 1983,
      "è¡£": 1984,
      "æ¦Ĥ": 1985,
      "40": 1986,
      "ãĢĲ": 1987,
      "é¦Ļæ¸¯": 1988,
      "åĩıå°ĳ": 1989,
      "å£¹": 1990,
      "ä¾ĽåºĶ": 1991,
      "æĶ¶åħ¥": 1992,
      "éĢĶ": 1993,
      "ä¸ĵå®¶": 1994,
      "ä¼´": 1995,
      "æĹ¢": 1996,
      "ä¸½": 1997,
      "èģĶç³»": 1998,
      "åĿĢ": 1999,
      "çĶ³è¯·": 2000,
      "ĠA": 2001,
      "ãĢĳ": 2002,
      "çº¸": 2003,
      "et": 2004,
      "çĶ²": 2005,
      "æķĳ": 2006,
      "èģĬ": 2007,
      "2018": 2008,
      "å°ļ": 2009,
      "è´´": 2010,
      "ä½ĵçļĦ": 2011,
      "é¹": 2012,
      "åİļ": 2013,
      "çĪ¶": 2014,
      "åĬ±": 2015,
      "ä»Ĭå¤©": 2016,
      "æĥł": 2017,
      "çīĽ": 2018,
      "èģĶåĲĪ": 2019,
      "æĲľ": 2020,
      "ç«ŀäºī": 2021,
      "è¶ĭ": 2022,
      "æĦıè§ģ": 2023,
      "äº¤éĢļ": 2024,
      "çļĦéĹ®é¢ĺ": 2025,
      "æľĢæĸ°": 2026,
      "å®Ĺ": 2027,
      "å¥¥": 2028,
      "éĽ¨": 2029,
      "ç´¯": 2030,
      "åłĤ": 2031,
      "at": 2032,
      "it": 2033,
      "éĿĻ": 2034,
      "å¹´æĿ¥": 2035,
      "Ġï¼Ī": 2036,
      "çļĦåıĳå±ķ": 2037,
      "çļĦäºĭ": 2038,
      "çĴ": 2039,
      "èĲ¥éĶĢ": 2040,
      "æĺ¯åľ¨": 2041,
      "çĩĥ": 2042,
      "æĿĢ": 2043,
      "å±ĭ": 2044,
      "åķĨä¸ļ": 2045,
      "åı¶": 2046,
      "åĢº": 2047,
      "è§ĦèĮĥ": 2048,
      "æİªæĸ½": 2049,
      "æĲŃ": 2050,
      "ç¬ĳ": 2051,
      "80": 2052,
      "åįĪ": 2053,
      "éĢļçŁ¥": 2054,
      "è¿ĲèĲ¥": 2055,
      "æľŁéĹ´": 2056,
      "ä½ľåĵģ": 2057,
      "22": 2058,
      "éĩĬ": 2059,
      "ç¤¼": 2060,
      "éĻ¤äºĨ": 2061,
      "æĮĳ": 2062,
      "ä¿ĥè¿Ľ": 2063,
      "ä¹Łä¸į": 2064,
      "åĬŀåħ¬": 2065,
      "çļĦæĸ°": 2066,
      "ä½Ľ": 2067,
      "æĹ¥æľ¬": 2068,
      "èĮ¶": 2069,
      "ç¦ģ": 2070,
      "ä¼°": 2071,
      "æ¯Ľ": 2072,
      "éĽ·": 2073,
      "çģ¯": 2074,
      "pp": 2075,
      "çĶŁçī©": 2076,
      "æ»¡è¶³": 2077,
      "ç£¨": 2078,
      "çļĦé«ĺ": 2079,
      "æĽ²": 2080,
      "åĪĺ": 2081,
      "å¹ķ": 2082,
      "è°ĥæķ´": 2083,
      "ä¿ĿéĻ©": 2084,
      "æķĻå¸Ī": 2085,
      "è¿Ĳè¡Į": 2086,
      "æĳĦ": 2087,
      "å°¤": 2088,
      "è¡¨çİ°": 2089,
      "æİ¥åıĹ": 2090,
      "æİĮ": 2091,
      "çļĦæĥħåĨµ": 2092,
      "è´«": 2093,
      "æ¢¦": 2094,
      "çĹĩ": 2095,
      "èª": 2096,
      "ç«¥": 2097,
      "åıĳæĮ¥": 2098,
      "çĥŁ": 2099,
      "å§Ķåĳĺ": 2100,
      "åķĨåĵģ": 2101,
      "åĪĨåĪ«": 2102,
      "çĥĪ": 2103,
      "ä¹ĭåīį": 2104,
      "çĪĨ": 2105,
      "æĭŁ": 2106,
      "èĤī": 2107,
      "éĻįä½İ": 2108,
      "ç¬Ķ": 2109,
      "æĮĩå¯¼": 2110,
      "èĢĥèĻĳ": 2111,
      "è´Ńä¹°": 2112,
      "åºĶå½ĵ": 2113,
      "åĮºåŁŁ": 2114,
      "æľºåĪ¶": 2115,
      "å¼¹": 2116,
      "é²ľ": 2117,
      "å¾Ħ": 2118,
      "çĬ¯": 2119,
      "åĸľæ¬¢": 2120,
      "è¯¯": 2121,
      "å®ľ": 2122,
      "ä»»åĬ¡": 2123,
      "åĿı": 2124,
      "æ¡£": 2125,
      "å¯»": 2126,
      "èļ": 2127,
      "åĪĽéĢł": 2128,
      "ä¸įè¦ģ": 2129,
      "300": 2130,
      "çİ¯ä¿Ŀ": 2131,
      "çļĦè¯Ŀ": 2132,
      "å½»": 2133,
      "çĽ®çļĦ": 2134,
      "åģļå¥½": 2135,
      "å¼ĢæĶ¾": 2136,
      "±ä¹Ĳ": 2137,
      "çĽĽ": 2138,
      "é±": 2139,
      "åħ¬åı¸çļĦ": 2140,
      "è¶£": 2141,
      "åĩºäºĨ": 2142,
      "å®¶åºŃ": 2143,
      "ä¸ĭè½½": 2144,
      "éķ¿æľŁ": 2145,
      "ä¸°å¯Į": 2146,
      "ç»´æĬ¤": 2147,
      "æı¡": 2148,
      "å®£ä¼ł": 2149,
      "æĺİç¡®": 2150,
      "çĶ°": 2151,
      "çĸ¾": 2152,
      "è¡ĮåĬ¨": 2153,
      "æľĿ": 2154,
      "åı«": 2155,
      "é±¼": 2156,
      "æ¸©åº¦": 2157,
      "å¹¸": 2158,
      "èĭ¦": 2159,
      "çļĦéĩįè¦ģ": 2160,
      "æĤ¨çļĦ": 2161,
      "ä¸»é¢ĺ": 2162,
      "éŁ³ä¹Ĳ": 2163,
      "åĬĽéĩı": 2164,
      "åıªæĺ¯": 2165,
      "çº·": 2166,
      "å¤ı": 2167,
      "è·Ŀ": 2168,
      "æĿ¥è¶Ĭ": 2169,
      "èĶ": 2170,
      "èľ": 2171,
      "çĶµè¯Ŀ": 2172,
      "è¶ĬæĿ¥è¶Ĭ": 2173,
      "æĸ¹åĲĳ": 2174,
      "è¡ĮæĶ¿": 2175,
      "ä¸Ģä¸ĭ": 2176,
      "å¢Ļ": 2177,
      "è§īå¾Ĺ": 2178,
      "å®½": 2179,
      "éļĲ": 2180,
      "æ·±åħ¥": 2181,
      "çĲĨå¿µ": 2182,
      "æķ´ä½ĵ": 2183,
      "éĩįå¤§": 2184,
      "å¹¶ä¸į": 2185,
      "åĲĪçĲĨ": 2186,
      "çħ¤": 2187,
      "æµĭè¯ķ": 2188,
      "åŁ¹åħ»": 2189,
      "åĮĸçļĦ": 2190,
      "æ¾³": 2191,
      "å¹¿æ³Ľ": 2192,
      "èĩªèº«": 2193,
      "éĿ¢ç§¯": 2194,
      "ç½ª": 2195,
      "å±ŀäºİ": 2196,
      "åĩĿ": 2197,
      "é«ĺçļĦ": 2198,
      "è¡Ĺ": 2199,
      "éĺ»": 2200,
      "å¤ļå°ĳ": 2201,
      "é½Ĳ": 2202,
      "éĽĦ": 2203,
      "è·Į": 2204,
      "è´¯": 2205,
      "éĢŁåº¦": 2206,
      "æħ§": 2207,
      "ä¹Łæľī": 2208,
      "åľ¨çº¿": 2209,
      "ä¸įåı¯": 2210,
      "çĶµå½±": 2211,
      "æĸĩä»¶": 2212,
      "ä¸Ńåįİ": 2213,
      "è¯¦": 2214,
      "é£Łåĵģ": 2215,
      "æķ´ä¸ª": 2216,
      "ä¸¥éĩį": 2217,
      "çĤİ": 2218,
      "è¯Ĭ": 2219,
      "åħ·ä½ĵ": 2220,
      "æĿ¨": 2221,
      "æĿŁ": 2222,
      "æľºä¼ļ": 2223,
      "èħĲ": 2224,
      "ä¼Ł": 2225,
      "æĤ£èĢħ": 2226,
      "å®ŀè·µ": 2227,
      "åħĪè¿Ľ": 2228,
      "éĺħ": 2229,
      "èĨľ": 2230,
      "æİ¨å¹¿": 2231,
      "éĩĳå±ŀ": 2232,
      "å´": 2233,
      "ï¼īãĢĤ": 2234,
      "æ¢ģ": 2235,
      "èµĦæľ¬": 2236,
      "æĢĢ": 2237,
      "åįģåĪĨ": 2238,
      "åĪĽä¸ļ": 2239,
      "åıĳå±ķçļĦ": 2240,
      "æĮ¯": 2241,
      "å¥ĭ": 2242,
      "äºĭä¸ļ": 2243,
      "èĪŀ": 2244,
      "çİ»": 2245,
      "ãĢĭï¼Į": 2246,
      "æĺ¯ä¸Ģä¸ª": 2247,
      "ä¼Ļ": 2248,
      "å·Ŀ": 2249,
      "åĲ¨": 2250,
      "æĹ§": 2251,
      "çī¹çĤ¹": 2252,
      "ç½²": 2253,
      "çĬ¶æĢģ": 2254,
      "èĦļ": 2255,
      "å¤§éĩı": 2256,
      "ç«Ł": 2257,
      "æŃ£å¸¸": 2258,
      "è¿ŀæİ¥": 2259,
      "æķĪçİĩ": 2260,
      "å³°": 2261,
      "ä¸ªæľĪ": 2262,
      "ç»ıçĲĨ": 2263,
      "åĲİçļĦ": 2264,
      "å¹¿åĳĬ": 2265,
      "åĨľä¸ļ": 2266,
      "ç¾¤ä¼Ĺ": 2267,
      "æī¬": 2268,
      "éŁ©": 2269,
      "çĹĽ": 2270,
      "ç¢³": 2271,
      "åľĪ": 2272,
      "ç¬¦åĲĪ": 2273,
      "å°ıæĹ¶": 2274,
      "åĩºçļĦ": 2275,
      "å²Ľ": 2276,
      "ä¸įåĲĮçļĦ": 2277,
      "æĪª": 2278,
      "åľĨ": 2279,
      "æ¯ĶèµĽ": 2280,
      "è´¹çĶ¨": 2281,
      "åħļçļĦ": 2282,
      "ic": 2283,
      "çĭ¬ç«ĭ": 2284,
      "è¿Ĳè¾ĵ": 2285,
      "æĿ¥èĩª": 2286,
      "å±ı": 2287,
      "åĪ·": 2288,
      "çĴĥ": 2289,
      "ä¸Ĭå¸Ĥ": 2290,
      "le": 2291,
      "é¼ĵ": 2292,
      "ç¨ĭåº¦": 2293,
      "çĥ§": 2294,
      "çªĹ": 2295,
      "æ»¤": 2296,
      "st": 2297,
      "ä»İèĢĮ": 2298,
      "å·¥åħ·": 2299,
      "ç»¿èī²": 2300,
      "æĩ": 2301,
      "ç»ĦæĪĲ": 2302,
      "è¯¾ç¨ĭ": 2303,
      "æ¶Ĥ": 2304,
      "åĵģè´¨": 2305,
      "æķħäºĭ": 2306,
      "ä¼ĳ": 2307,
      "ç¼ĵ": 2308,
      "am": 2309,
      "æİī": 2310,
      "âĢĿãĢģâĢľ": 2311,
      "èªī": 2312,
      "èĻļ": 2313,
      "è¾Ĩ": 2314,
      "è°ĥæŁ¥": 2315,
      "å¸Ŀ": 2316,
      "éĵĿ": 2317,
      "åĢĴ": 2318,
      "æ³°": 2319,
      "23": 2320,
      "èįĲ": 2321,
      "âĢ¦âĢ¦": 2322,
      "è®¾æĸ½": 2323,
      "æĹĹ": 2324,
      "æ±¡æŁĵ": 2325,
      "åĳĪ": 2326,
      "ç¿»": 2327,
      "æĮĩåĩº": 2328,
      "æĿ¥çľĭ": 2329,
      "éģ¿åħį": 2330,
      "å·¦åı³": 2331,
      "çİ»çĴĥ": 2332,
      "ä¸¥æł¼": 2333,
      "åĢį": 2334,
      "è·¨": 2335,
      "çļĦå·¥ä½ľ": 2336,
      "åħįè´¹": 2337,
      "çº¯": 2338,
      "å°±ä¼ļ": 2339,
      "éĽª": 2340,
      "åĽłç´ł": 2341,
      "æ½®": 2342,
      "è½´": 2343,
      "æ°ĳæĹı": 2344,
      "åħ¨éĥ¨": 2345,
      "æľĢç»Ī": 2346,
      "ç¡®å®ļ": 2347,
      "çļĩ": 2348,
      "æĺİæĺ¾": 2349,
      "é¦ĸåħĪ": 2350,
      "åĿĲ": 2351,
      "æĿ¯": 2352,
      "ro": 2353,
      "çľŁæŃ£": 2354,
      "å²Ĺ": 2355,
      "åı¦å¤ĸ": 2356,
      "è®¾ç½®": 2357,
      "éĥ½æľī": 2358,
      "æĶ¹åıĺ": 2359,
      "æĸ¹ä¾¿": 2360,
      "çĲĨè®º": 2361,
      "æģ¶": 2362,
      "è¯º": 2363,
      "è¾ĳ": 2364,
      "åįĩçº§": 2365,
      "å°ĺ": 2366,
      "éĹŃ": 2367,
      "è¡¨éĿ¢": 2368,
      "çĶŁåĳ½": 2369,
      "è¯´æĺİ": 2370,
      "ä¼ĺç§Ģ": 2371,
      "åģı": 2372,
      "å«": 2373,
      "äº¦": 2374,
      "èĤ¡ä¸ľå¤§ä¼ļ": 2375,
      "åĴ¨": 2376,
      "åĵ¥": 2377,
      "è·ĳ": 2378,
      "æĦıè¯Ĩ": 2379,
      "ï¼īãĢģ": 2380,
      "éĢĤåĲĪ": 2381,
      "70": 2382,
      "æī¶": 2383,
      "è¿ĩåİ»": 2384,
      "æŃ£å¼ı": 2385,
      "çİī": 2386,
      "æ³¥": 2387,
      "ĠP": 2388,
      "åħļåĳĺ": 2389,
      "æŃ¤å¤ĸ": 2390,
      "çĦ¦": 2391,
      "æľºåĻ¨": 2392,
      "åĲī": 2393,
      "æĦıä¹ī": 2394,
      "è¶ĭåĬ¿": 2395,
      "åıªè¦ģ": 2396,
      "å¢ŀå¼º": 2397,
      "æµ·å¤ĸ": 2398,
      "å¼±": 2399,
      "åĩºæĿ¥": 2400,
      "éģĹ": 2401,
      "åįıè®®": 2402,
      "æľ«": 2403,
      "æ¹¿": 2404,
      "æļ´": 2405,
      "ç§»åĬ¨": 2406,
      "è®¤è¯ģ": 2407,
      "éĥ½ä¼ļ": 2408,
      "èĢĹ": 2409,
      "åĴ¨è¯¢": 2410,
      "com": 2411,
      "æĻ®éĢļ": 2412,
      "28": 2413,
      "çĶµè§Ĩ": 2414,
      "åħ¬åħ±": 2415,
      "åŃĶ": 2416,
      "ä¾§": 2417,
      "æĺ¯ä¸Ģç§į": 2418,
      "ä¾µ": 2419,
      "å¦ĤæŃ¤": 2420,
      "åĩĨå¤ĩ": 2421,
      "æ²ī": 2422,
      "æĥĬ": 2423,
      "å¹²éĥ¨": 2424,
      "ç©ºæ°Ķ": 2425,
      "éª¨": 2426,
      "è¿Ļæł·çļĦ": 2427,
      "æĸĩç«ł": 2428,
      "ç§ĺ": 2429,
      "åĬ¨åĬĽ": 2430,
      "çīĻ": 2431,
      "å®ŀéªĮ": 2432,
      "å®ĺæĸ¹": 2433,
      "èµĦè®¯": 2434,
      "2017": 2435,
      "ä¸įå°ĳ": 2436,
      "å°¤åħ¶": 2437,
      "å½ĵçĦ¶": 2438,
      "ç»Łä¸Ģ": 2439,
      "æ¯Ķå¦Ĥ": 2440,
      "è´¥": 2441,
      "åİĤå®¶": 2442,
      "el": 2443,
      "å¹¼": 2444,
      "èĭĹ": 2445,
      "ç¤¾åĮº": 2446,
      "èµ¢": 2447,
      "Ġ3": 2448,
      "åĵĪ": 2449,
      "èº«ä½ĵ": 2450,
      "èĵĿ": 2451,
      "åĪĨäº«": 2452,
      "çĽĳç®¡": 2453,
      "åį«çĶŁ": 2454,
      "åħµ": 2455,
      "åŁºåľ°": 2456,
      "æ®Ĭ": 2457,
      "è¾ħ": 2458,
      "å¡Ķ": 2459,
      "éģį": 2460,
      "æ²»çĲĨ": 2461,
      "å¨±ä¹Ĳ": 2462,
      "éĽĨä¸Ń": 2463,
      "ç»ıå¸¸": 2464,
      "è¯ģåĪ¸": 2465,
      "æĻºæħ§": 2466,
      "é¢ľ": 2467,
      "éĩįè¦ģçļĦ": 2468,
      "è¦": 2469,
      "æĬĺ": 2470,
      "ä¸ľè¥¿": 2471,
      "çĤ¼": 2472,
      "ç¯ĩ": 2473,
      "åħ¬å¼Ģ": 2474,
      "æ£®": 2475,
      "çŀ": 2476,
      "èĦ¸": 2477,
      "éĩİ": 2478,
      "æĭĵ": 2479,
      "ä¸ĭçļĦ": 2480,
      "èĤ¯": 2481,
      "åĪ©æ¶¦": 2482,
      "è°ģ": 2483,
      "èģĺ": 2484,
      "åĨ°": 2485,
      "ä¹±": 2486,
      "æ´ĭ": 2487,
      "éĢĴ": 2488,
      "éĿ¢å¯¹": 2489,
      "å¹´åº¦": 2490,
      "ãĢĤï¼Ī": 2491,
      "ä½įç½®": 2492,
      "èĽĭ": 2493,
      "æĺł": 2494,
      "åĨ¬": 2495,
      "æİ¨èįĲ": 2496,
      "åģļåĪ°": 2497,
      "çĽĳçĿ£": 2498,
      "æĦŁè§ī": 2499,
      "è¡¡": 2500,
      "èĤ¤": 2501,
      "ç¼ĺ": 2502,
      "æ¯ķä¸ļ": 2503,
      "æµª": 2504,
      "ä»ĵ": 2505,
      "æ²Ł": 2506,
      "ä¼ĺè´¨": 2507,
      "è®¤è¯Ĩ": 2508,
      "90": 2509,
      "éĺµ": 2510,
      "æľīäºĽ": 2511,
      "æĪĲæŀľ": 2512,
      "æĿĨ": 2513,
      "æĢķ": 2514,
      "éĤ®": 2515,
      "æļĸ": 2516,
      "åĳ¼": 2517,
      "æ¬¢è¿İ": 2518,
      "éĶĪ": 2519,
      "éľĩ": 2520,
      "å±ķç¤º": 2521,
      "åĮħè£ħ": 2522,
      "åı¥": 2523,
      "æį·": 2524,
      "åĬŀæ³ķ": 2525,
      "è¯ģæĺİ": 2526,
      "ä¸ĭéĻį": 2527,
      "èĩªçĶ±": 2528,
      "åľ³": 2529,
      "è¦Ĩ": 2530,
      "çļĦå°ı": 2531,
      "éķľ": 2532,
      "åĨħéĥ¨": 2533,
      "ç»ķ": 2534,
      "Ġ2": 2535,
      "åĬĽçļĦ": 2536,
      "æ¶īåıĬ": 2537,
      "æĥ³è¦ģ": 2538,
      "åģ¿": 2539,
      "çľŁå®ŀ": 2540,
      "åĪĨéĴŁ": 2541,
      "ç¢İ": 2542,
      "æĪĲç»©": 2543,
      "å±±ä¸ľ": 2544,
      "æł·çļĦ": 2545,
      "çĽ¸å¯¹": 2546,
      "åĬłå¿«": 2547,
      "âĢĻ": 2548,
      "å¡ŀ": 2549,
      "å·§": 2550,
      "ac": 2551,
      "åı¬å¼Ģ": 2552,
      "æ·±åľ³": 2553,
      "å¤ļçļĦ": 2554,
      "åįıä¼ļ": 2555,
      "æŃ¤æ¬¡": 2556,
      "åĸ·": 2557,
      "å¾ª": 2558,
      "å½ĵåľ°": 2559,
      "ä¸»ä»»": 2560,
      "éĽħ": 2561,
      "ä¸¾è¡Į": 2562,
      "æĪĲéķ¿": 2563,
      "æľīä¸Ģ": 2564,
      "åħ¼": 2565,
      "ä¼Ĭ": 2566,
      "çģ¾": 2567,
      "èĳ£äºĭä¼ļ": 2568,
      "çŃ¹": 2569,
      "æı´": 2570,
      "å°±ä¸ļ": 2571,
      "äº§åĵģçļĦ": 2572,
      "å½ĵæĹ¶": 2573,
      "çĦĬ": 2574,
      "ä½įäºİ": 2575,
      "ç¥ĸ": 2576,
      "å°Ĭ": 2577,
      "åİŁåĪĻ": 2578,
      "æī¿æĭħ": 2579,
      "éĺĢ": 2580,
      "æ³µ": 2581,
      "æĳĺ": 2582,
      "ä¸ºä»Ģä¹Ī": 2583,
      "è¿·": 2584,
      "æķ°éĩı": 2585,
      "oo": 2586,
      "èµŀ": 2587,
      "æ½ľ": 2588,
      "åĪº": 2589,
      "å®ĺç½ĳ": 2590,
      "èĪ¹": 2591,
      "çļĦäº§åĵģ": 2592,
      "æ¥ļ": 2593,
      "åĳĬè¯ī": 2594,
      "éģŃ": 2595,
      "å¼Ł": 2596,
      "æģ©": 2597,
      "éĩĩåıĸ": 2598,
      "çıł": 2599,
      "ä»£çĲĨ": 2600,
      "26": 2601,
      "æľĢå¤§": 2602,
      "ä¾ĭå¦Ĥ": 2603,
      "æĬµ": 2604,
      "çİ©å®¶": 2605,
      "çº¿ä¸Ĭ": 2606,
      "è±Ĩ": 2607,
      "èĦĤ": 2608,
      "æłı": 2609,
      "å¹¿å¤§": 2610,
      "çĶ¨çļĦ": 2611,
      "åľ£": 2612,
      "åĩºåı£": 2613,
      "æľ¬æ¬¡": 2614,
      "éĤ£äºĽ": 2615,
      "âĢĺ": 2616,
      "èŀįåĲĪ": 2617,
      "åĲĮæ¯Ķ": 2618,
      "ç¤¾ä¼ļä¸»ä¹ī": 2619,
      "Ġ1": 2620,
      "çĽ´æĴŃ": 2621,
      "æľ¬æĸĩ": 2622,
      "é©±": 2623,
      "çĺ": 2624,
      "æ¶Īæģ¯": 2625,
      "çĲĨè§£": 2626,
      "åĲĪåĲĮ": 2627,
      "æĬĢèĥ½": 2628,
      "ç¹": 2629,
      "ä¸¾åĬŀ": 2630,
      "éĨĴ": 2631,
      "AP": 2632,
      "å®īæİĴ": 2633,
      "æĴĳ": 2634,
      "å¤§åŀĭ": 2635,
      "æĮĤ": 2636,
      "ä¸ĭæĿ¥": 2637,
      "åĵªäºĽ": 2638,
      "åĨħçļĦ": 2639,
      "ç¹ģ": 2640,
      "æĤī": 2641,
      "ä¸»åĬ¨": 2642,
      "åĭĩ": 2643,
      "ä¸įåĪ°": 2644,
      "ä¹Łä¼ļ": 2645,
      "çĽ¸ä¿¡": 2646,
      "æĹłè®º": 2647,
      "å¿ħè¦ģ": 2648,
      "éĿĴå¹´": 2649,
      "ä½ľèĢħ": 2650,
      "åĲĦç±»": 2651,
      "åĺī": 2652,
      "åĪ¶å®ļ": 2653,
      "æĽ´æĸ°": 2654,
      "è¿ŀç»Ń": 2655,
      "èĤ¡ç¥¨": 2656,
      "åĨįæ¬¡": 2657,
      "çĳŀ": 2658,
      "åķĬ": 2659,
      "is": 2660,
      "å°º": 2661,
      "å¼ºè°ĥ": 2662,
      "å¤ļä¸ª": 2663,
      "è¿ĳå¹³": 2664,
      "æŁľ": 2665,
      "å¡«": 2666,
      "æģĴ": 2667,
      "ĠçļĦ": 2668,
      "å¯¸": 2669,
      "ç½ļ": 2670,
      "æĽ¿": 2671,
      "ä¹łè¿ĳå¹³": 2672,
      "å§Ķåĳĺä¼ļ": 2673,
      "åĨľæĿĳ": 2674,
      "è´·æ¬¾": 2675,
      "æ¯ıå¤©": 2676,
      "æ¯ıä¸ª": 2677,
      "èĤ¥": 2678,
      "å¥¶": 2679,
      "è¿ĲçĶ¨": 2680,
      "æµģéĩı": 2681,
      "åħ·å¤ĩ": 2682,
      "èĴĻ": 2683,
      "è¯Ħä»·": 2684,
      "æĬ¥éģĵ": 2685,
      "âĢĿâĢľ": 2686,
      "éĿ¢çļĦ": 2687,
      "è´¡": 2688,
      "ä¼ļåĳĺ": 2689,
      "å¤ļç§į": 2690,
      "ĠM": 2691,
      "ä¼ģä¸ļçļĦ": 2692,
      "å®«": 2693,
      "å¯¿": 2694,
      "åį·": 2695,
      "ç£ģ": 2696,
      "é©¾": 2697,
      "çĸ¾çĹħ": 2698,
      "åĩ¡": 2699,
      "ä»¥åĲİ": 2700,
      "æł¹æľ¬": 2701,
      "åĦ¿ç«¥": 2702,
      "æĶ¯ä»ĺ": 2703,
      "èº«ä»½": 2704,
      "åĬłåħ¥": 2705,
      "åºĦ": 2706,
      "åĩŃ": 2707,
      "åĶ¯": 2708,
      "çĤī": 2709,
      "æ´¥": 2710,
      "å¿ĺ": 2711,
      "è¿Ļä¹Ī": 2712,
      "åħĪçĶŁ": 2713,
      "å§ĵ": 2714,
      "æµģç¨ĭ": 2715,
      "è¿ħ": 2716,
      "è¿Ľè¡ĮäºĨ": 2717,
      "ç§ĭ": 2718,
      "è®¤çľŁ": 2719,
      "åı¯éĿł": 2720,
      "è´¸æĺĵ": 2721,
      "çī¹æ®Ĭ": 2722,
      "çĬ¶åĨµ": 2723,
      "27": 2724,
      "æ§": 2725,
      "åĲ´": 2726,
      "å¼ºåĮĸ": 2727,
      "èĪĴ": 2728,
      "æµĵ": 2729,
      "Ġ(": 2730,
      "æ¯Ķä¾ĭ": 2731,
      "éĵº": 2732,
      "åħ¬å¸ĥ": 2733,
      "æĬķåħ¥": 2734,
      "åıĤèĢĥ": 2735,
      "å¹³åĿĩ": 2736,
      "éĺ²æİ§": 2737,
      "è£ħä¿®": 2738,
      "è£ģ": 2739,
      "ç±»åŀĭ": 2740,
      "ä¼į": 2741,
      "åĲĮæĦı": 2742,
      "äº¡": 2743,
      "æ³¡": 2744,
      "å±ķå¼Ģ": 2745,
      "åħļå§Ķ": 2746,
      "åıĬåħ¶": 2747,
      "æ©": 2748,
      "è®°å½ķ": 2749,
      "åĶĲ": 2750,
      "é¥Ń": 2751,
      "èıĮ": 2752,
      "çļĦæĸ¹å¼ı": 2753,
      "è¯¦ç»Ĩ": 2754,
      "èŀº": 2755,
      "å¹´è½»": 2756,
      "çĶµèĦĳ": 2757,
      "æĲľç´¢": 2758,
      "æĬķèµĦèĢħ": 2759,
      "å¼ķèµ·": 2760,
      "è°·": 2761,
      "è£ħç½®": 2762,
      "2016": 2763,
      "èģĬåŁİ": 2764,
      "äººç±»": 2765,
      "çİ°è±¡": 2766,
      "æŃ£ç¡®": 2767,
      "èĥŀ": 2768,
      "å±¥": 2769,
      "äººå£«": 2770,
      "ç²Ĵ": 2771,
      "é«ĺåº¦": 2772,
      "ä»ĸä»¬çļĦ": 2773,
      "å®ĩ": 2774,
      "æķĻæİĪ": 2775,
      "æĳĨ": 2776,
      "èĭ±åĽ½": 2777,
      "æĿ¥æºĲ": 2778,
      "ç»Łè®¡": 2779,
      "æĲ¬": 2780,
      "å¼ĥ": 2781,
      "åŁºäºİ": 2782,
      "é¸¡": 2783,
      "èī¯å¥½çļĦ": 2784,
      "åĪ©çĽĬ": 2785,
      "æ¼ı": 2786,
      "åĿĽ": 2787,
      "éĺ´": 2788,
      "æĬ½": 2789,
      "åĪĢ": 2790,
      "å¤ļæķ°": 2791,
      "åĩĨç¡®": 2792,
      "ä¸ºä¸»": 2793,
      "åľ°äº§": 2794,
      "æĸĩæĺİ": 2795,
      "ä¸Ńå°ı": 2796,
      "æĹĭ": 2797,
      "å°±åı¯ä»¥": 2798,
      "éī": 2799,
      "æľºåħ³": 2800,
      "éī´": 2801,
      "ä¼¦": 2802,
      "åĲĦåľ°": 2803,
      "æľīæīĢ": 2804,
      "æļĹ": 2805,
      "çĦ¶èĢĮ": 2806,
      "å¿ĥçĲĨ": 2807,
      "ä¹Łåı¯ä»¥": 2808,
      "ä½łä»¬": 2809,
      "å£ģ": 2810,
      "è®¨è®º": 2811,
      "æ¸ł": 2812,
      "å¦ĩ": 2813,
      "åħ±äº§": 2814,
      "æģ¢": 2815,
      "åĬ³åĬ¨": 2816,
      "ä¸ĢåĪĩ": 2817,
      "åĮĸåŃ¦": 2818,
      "å·¥ä½ľçļĦ": 2819,
      "éĢļå¸¸": 2820,
      "35": 2821,
      "è°ĵ": 2822,
      ")ï¼Į": 2823,
      "äºĭä»¶": 2824,
      "èĤº": 2825,
      "æ²¿": 2826,
      "æķı": 2827,
      "çº¤": 2828,
      "æ¬§æ´²": 2829,
      "è´¯å½»": 2830,
      "å®ĥçļĦ": 2831,
      "æİĪæĿĥ": 2832,
      "è£Ĥ": 2833,
      "æľĹ": 2834,
      "æľĢé«ĺ": 2835,
      "æĪĲäºĨ": 2836,
      "éĶģ": 2837,
      "mm": 2838,
      "æķ¢": 2839,
      "åĲĮåŃ¦": 2840,
      "åĽ°éļ¾": 2841,
      "æĳ©": 2842,
      "æĿ°": 2843,
      "åĪĨä¸º": 2844,
      "æĭĴ": 2845,
      "re": 2846,
      "è¿ª": 2847,
      "æĮĩæķ°": 2848,
      "å¦Ĥä»Ĭ": 2849,
      "å§ĭç»Ī": 2850,
      "æĶ¯æĴĳ": 2851,
      "çĽ¸å½ĵ": 2852,
      "é¡¿": 2853,
      "åıªèĥ½": 2854,
      "æī©å¤§": 2855,
      "èĢĮæĺ¯": 2856,
      "æ¼«": 2857,
      "èĬ¯": 2858,
      "è´¡çĮ®": 2859,
      "çİ¯èĬĤ": 2860,
      "æľºçļĦ": 2861,
      "å¾®ä¿¡": 2862,
      "çĻ»è®°": 2863,
      "ä»İäºĭ": 2864,
      "æİ¨åĩº": 2865,
      "æĹ¶æľŁ": 2866,
      "çī©è´¨": 2867,
      "èµĸ": 2868,
      "çģ°": 2869,
      "éģĵè·¯": 2870,
      "åľŁåľ°": 2871,
      "éĩįè§Ĩ": 2872,
      "è½¨": 2873,
      "åİ»å¹´": 2874,
      "æ°§åĮĸ": 2875,
      "åĲ¯åĬ¨": 2876,
      "åĬŀçĲĨ": 2877,
      "ç³ĸ": 2878,
      "åı¦ä¸Ģ": 2879,
      "è¯ķéªĮ": 2880,
      "æĢ§åĴĮ": 2881,
      "æ·»": 2882,
      "å²¸": 2883,
      "æľĢè¿ĳ": 2884,
      "ç»ĵæĿŁ": 2885,
      "æī¾åĪ°": 2886,
      "çªģçł´": 2887,
      "æıı": 2888,
      "è¿Ķ": 2889,
      "æ³ķè§Ħ": 2890,
      "éĤĢ": 2891,
      "æŀĦå»º": 2892,
      "âĢĶ": 2893,
      "åĲ¸å¼ķ": 2894,
      "éº»": 2895,
      "è°ĭ": 2896,
      "ä¸Ģä½ĵ": 2897,
      "å½ĵåīį": 2898,
      "æĮĳæĪĺ": 2899,
      "ä¿¡çĶ¨": 2900,
      "è¯Ĺ": 2901,
      "èĲ¨": 2902,
      "åıĮæĸ¹": 2903,
      "æĶ¹åĸĦ": 2904,
      "çļĦæĹ¶éĹ´": 2905,
      "éħĴåºĹ": 2906,
      "æīİ": 2907,
      "çī¢": 2908,
      "èĢĥçĶŁ": 2909,
      "å¹¿å·ŀ": 2910,
      "éģµ": 2911,
      "æģ¢å¤į": 2912,
      "ï½": 2913,
      "éĩįæĸ°": 2914,
      "æİ¢ç´¢": 2915,
      "æĹ¥å¸¸": 2916,
      "ä¹ĭéĹ´çļĦ": 2917,
      "æĪĲåĳĺ": 2918,
      "äººå·¥": 2919,
      "å§Ĳ": 2920,
      "éĢĲæ¸Ĳ": 2921,
      "çŃīçŃī": 2922,
      "åĽ¾çīĩ": 2923,
      "å®ŀåĬĽ": 2924,
      "åıįåºĶ": 2925,
      "ch": 2926,
      "500": 2927,
      "å¼ķå¯¼": 2928,
      "è·³": 2929,
      "èļĢ": 2930,
      "çŁ¥åĲį": 2931,
      "ä¾Ŀæ³ķ": 2932,
      "çĹħæ¯Ĵ": 2933,
      "æ¯«": 2934,
      "çľŁçļĦ": 2935,
      "ä¸Ĭè¿°": 2936,
      "ç»´ä¿®": 2937,
      "éĿ©åĳ½": 2938,
      "æİ¥è§¦": 2939,
      "å¹¿ä¸ľ": 2940,
      "è¿¹": 2941,
      "é«ĺæł¡": 2942,
      "æĽ´å¥½": 2943,
      "è´¢åĬ¡": 2944,
      "åº¦çļĦ": 2945,
      "åĢ¼å¾Ĺ": 2946,
      "åıĳè¡¨": 2947,
      "èµµ": 2948,
      "æģĲ": 2949,
      "éĥĳ": 2950,
      "åŃĻ": 2951,
      "çº¹": 2952,
      "29": 2953,
      "èĤ¯å®ļ": 2954,
      "ä¸įè¶³": 2955,
      "å®¶éķ¿": 2956,
      "çĮª": 2957,
      "æļĤ": 2958,
      "æĮĩæłĩ": 2959,
      "ä¸¹": 2960,
      "æľ¬èº«": 2961,
      "ç§ĳçłĶ": 2962,
      "èĢ³": 2963,
      "çĪ¸": 2964,
      "é£İæł¼": 2965,
      "é²ģ": 2966,
      "æµı": 2967,
      "è±ª": 2968,
      "æµĻ": 2969,
      "ä¸īä¸ª": 2970,
      "æĢ»ç»ĵ": 2971,
      "é¾Ħ": 2972,
      "ä¸Ģå®ļè¦ģ": 2973,
      "æī£": 2974,
      "çĶµæ±ł": 2975,
      "çĮ«": 2976,
      "éĩĮçļĦ": 2977,
      "éĶħ": 2978,
      "èħ¾": 2979,
      "æĿĥåĪ©": 2980,
      "èĩªä¸»": 2981,
      "å¢¨": 2982,
      "ht": 2983,
      "è°±": 2984,
      "è½¬åŀĭ": 2985,
      "ä¸įéĶĪ": 2986,
      "æĸ¹éĿ¢çļĦ": 2987,
      "å®Įæķ´": 2988,
      "ed": 2989,
      "ç»ıåİĨ": 2990,
      "çĵ¦": 2991,
      "ä¹ĺ": 2992,
      "ä½ľä¸ļ": 2993,
      "ä¸ĵä¸ļçļĦ": 2994,
      "æľ¬ç½ĳç«Ļ": 2995,
      "åĲĦé¡¹": 2996,
      "ä¸Ģå¹´": 2997,
      "èĦī": 2998,
      "å¤Ħäºİ": 2999,
      "éĺħè¯»": 3000,
      "éħįåĲĪ": 3001,
      "æ´ŀ": 3002,
      "è¿Ļæ¬¡": 3003,
      "æĢª": 3004,
      "æĻ¶": 3005,
      "åı¯èĥ½ä¼ļ": 3006,
      "çĶµåĬ¨": 3007,
      "æľīäºº": 3008,
      "ion": 3009,
      "æľīäºĨ": 3010,
      "æµ®": 3011,
      "éĻĲåĪ¶": 3012,
      "è¿«": 3013,
      "æŁ±": 3014,
      "ç½ĳä¸Ĭ": 3015,
      "çĶµåĬĽ": 3016,
      "åĵªéĩĮ": 3017,
      "éħįç½®": 3018,
      "å¤įæĿĤ": 3019,
      "æ´Ľ": 3020,
      "çĽ¸æ¯Ķ": 3021,
      "æĶ¶çĽĬ": 3022,
      "èĢĮè¨Ģ": 3023,
      "ä¸»æĮģ": 3024,
      "è´Ŀ": 3025,
      "æµıè§Ī": 3026,
      "èĸĦ": 3027,
      "36": 3028,
      "ä¸įéĶĪéĴ¢": 3029,
      "åĮħåĲ«": 3030,
      "ä¼¸": 3031,
      "çĽ¸åºĶ": 3032,
      "éŃĶ": 3033,
      "åī²": 3034,
      "çīĪæĿĥ": 3035,
      "é¢Ĺ": 3036,
      "ãĢĭãĢģ": 3037,
      "æ³½": 3038,
      "ç¯®": 3039,
      "åħ¬åĳĬ": 3040,
      "æ¸łéģĵ": 3041,
      "æľĪä»½": 3042,
      "è¯¸": 3043,
      "æİĴåĲį": 3044,
      "è§£åĨ³æĸ¹æ¡Ī": 3045,
      "åĽºå®ļ": 3046,
      "ä¸ĢçĤ¹": 3047,
      "ç¨¿": 3048,
      "å®ļåĪ¶": 3049,
      "çģŃ": 3050,
      "æ¸ħæ´Ĺ": 3051,
      "ä¾Ŀæį®": 3052,
      "as": 3053,
      "æĺ¯ä»Ģä¹Ī": 3054,
      "æľīçĿĢ": 3055,
      "æĥ¯": 3056,
      "2015": 3057,
      "æİĮæı¡": 3058,
      "éĵľ": 3059,
      "é©¶": 3060,
      "å¼ºåº¦": 3061,
      "é¢Ħè®¡": 3062,
      "ou": 3063,
      "æĭĨ": 3064,
      "ä»įçĦ¶": 3065,
      "èģĮå·¥": 3066,
      "ç¼´": 3067,
      "è¢ĭ": 3068,
      "åĬłçĽŁ": 3069,
      "è´§å¸ģ": 3070,
      "å®ļä½į": 3071,
      "çĻ»å½ķ": 3072,
      "éĿ¢ä¸´": 3073,
      "é«ĺè´¨éĩı": 3074,
      "é»ĺ": 3075,
      "å®£å¸ĥ": 3076,
      "å®ı": 3077,
      "åĳĪçİ°": 3078,
      "æº¶": 3079,
      "é«ĺçº§": 3080,
      "æľĢå¤§çļĦ": 3081,
      "app": 3082,
      "è½¦è¾Ĩ": 3083,
      "æ¨ª": 3084,
      "æķ¬": 3085,
      "éĺ²æŃ¢": 3086,
      "è´¢æĶ¿": 3087,
      "èŀįèµĦ": 3088,
      "å®ĥä»¬": 3089,
      "çĽĳäºĭ": 3090,
      "éĤ¦": 3091,
      "ä¸Ĭæ¶¨": 3092,
      "æ¦ľ": 3093,
      "è¿Ľåı£": 3094,
      "äºĭé¡¹": 3095,
      "ç¼Ŀ": 3096,
      "ä½ĵçİ°": 3097,
      "Ġï¼Į": 3098,
      "æ³ķéĻ¢": 3099,
      "æ®ĭ": 3100,
      "éĩĩè´Ń": 3101,
      "è¦ĨçĽĸ": 3102,
      "çļĦåľ°æĸ¹": 3103,
      "å½¢è±¡": 3104,
      "é«ĺæķĪ": 3105,
      "å¸ĤåľºçļĦ": 3106,
      "åĶ±": 3107,
      "åīĳ": 3108,
      "æĢĿç»´": 3109,
      "ä¿Ħ": 3110,
      "åĪĬ": 3111,
      "æ¶Īéĺ²": 3112,
      "æĸ°åĨł": 3113,
      "åĩłä¸ª": 3114,
      "ä¹ĭå¤ĸ": 3115,
      "è´Łè´£äºº": 3116,
      "çĭĹ": 3117,
      "æĸ°åŀĭ": 3118,
      "å®¾": 3119,
      "çĽĪ": 3120,
      "å£°æĺİ": 3121,
      "éļĨ": 3122,
      "ä¸ĸçºª": 3123,
      "åķĨåĬ¡": 3124,
      "æĽ´å¤ļçļĦ": 3125,
      "45": 3126,
      "å¸ĥå±Ģ": 3127,
      "æĶ¹éĢł": 3128,
      "éĺŁä¼į": 3129,
      "åĮ»èį¯": 3130,
      "ä¸Ģå®ļçļĦ": 3131,
      "ing": 3132,
      "æĹ¨": 3133,
      "åħģ": 3134,
      "ĠT": 3135,
      "ï¼ģâĢĿ": 3136,
      "èĢħçļĦ": 3137,
      "ä»¿": 3138,
      "æ¯ıä¸Ģ": 3139,
      "å¿Ĩ": 3140,
      "ä¼łæĴŃ": 3141,
      "ä¼Ļä¼´": 3142,
      "çĿ¡": 3143,
      "è£ħå¤ĩ": 3144,
      "è¿ħéĢŁ": 3145,
      "èµ¶": 3146,
      "å¹³æĸ¹": 3147,
      "åŃ£åº¦": 3148,
      "æĹ¦": 3149,
      "æĭ¼": 3150,
      "è®¿éĹ®": 3151,
      "çİ°å®ŀ": 3152,
      "è¯Ħä¼°": 3153,
      "æ¶µ": 3154,
      "è¯ļä¿¡": 3155,
      "éĹ²": 3156,
      "è®Ńç»ĥ": 3157,
      "çļĦæĥħåĨµä¸ĭ": 3158,
      "æĽ¼": 3159,
      "æľ¬ç«Ļ": 3160,
      "éĥ¨ç½²": 3161,
      "åĪĳ": 3162,
      "31": 3163,
      "çļĦæľįåĬ¡": 3164,
      "æ¢ħ": 3165,
      "ĠL": 3166,
      "è¿ģ": 3167,
      "æĪ´": 3168,
      "æĦĪ": 3169,
      "ĠB": 3170,
      "NA": 3171,
      "è¿ĽæŃ¥": 3172,
      "ç¬¬åĽĽ": 3173,
      "ä¸ĭéĿ¢": 3174,
      "è·ĥ": 3175,
      "ĠG": 3176,
      "åįĬå¹´": 3177,
      "ä¹Ļ": 3178,
      "id": 3179,
      "äºĭæĥħ": 3180,
      "çī©çļĦ": 3181,
      "æ²ŁéĢļ": 3182,
      "æµĻæ±Ł": 3183,
      "å°¾": 3184,
      "æī«": 3185,
      "æĸ°æĹ¶ä»£": 3186,
      "çĲĨæĥ³": 3187,
      "æ¡Ĩ": 3188,
      "è¯Ńè¨Ģ": 3189,
      "ä½¿å¾Ĺ": 3190,
      "çķħ": 3191,
      "æįŁå¤±": 3192,
      "åĽŀæĶ¶": 3193,
      "éŀ": 3194,
      "é»Ħéĩĳ": 3195,
      "IP": 3196,
      "åĮĸå·¥": 3197,
      "å®¶çļĦ": 3198,
      "å¯Ĵ": 3199,
      "èµĦæł¼": 3200,
      "çĻ¾åº¦": 3201,
      "ol": 3202,
      "æĬ¢": 3203,
      "åħ±äº«": 3204,
      "äºķ": 3205,
      "äºĭå®ŀ": 3206,
      "ä¿Ĺ": 3207,
      "ç©ºè°ĥ": 3208,
      "çļĦåŁºç¡Ģ": 3209,
      "ä¸Ĭåįĩ": 3210,
      "é©»": 3211,
      "åĩłä¹İ": 3212,
      "é«ĺéĢŁ": 3213,
      "Ġåħ¬åı¸": 3214,
      "æĻĵ": 3215,
      "è¿½æ±Ĥ": 3216,
      "æľīæľº": 3217,
      "çĽĳæµĭ": 3218,
      "èİ«": 3219,
      "æĳĺè¦ģ": 3220,
      "Ġåľ¨": 3221,
      "åĬłå¤§": 3222,
      "åŃĲçļĦ": 3223,
      "åľºæĻ¯": 3224,
      "åĪĨéħį": 3225,
      "æĭľ": 3226,
      "ç½ĳé¡µ": 3227,
      "æľĢä½³": 3228,
      "ä¿®æĶ¹": 3229,
      "199": 3230,
      "ä¸Ģå®¶": 3231,
      "åĢ¾": 3232,
      "å±ħæ°ĳ": 3233,
      "çĻĮ": 3234,
      "åĻ¨çļĦ": 3235,
      "ç¤ºèĮĥ": 3236,
      "æĮĸ": 3237,
      "æ³ī": 3238,
      "ĠâĢľ": 3239,
      "éªĹ": 3240,
      "ç»Ĩèĥŀ": 3241,
      "åıĳè¡Į": 3242,
      "éĵ¸": 3243,
      "è·Ŀç¦»": 3244,
      "éĴ»": 3245,
      "åį³åı¯": 3246,
      "ç®¡éģĵ": 3247,
      "æ¸ħæ¥ļ": 3248,
      "ç«łç¨ĭ": 3249,
      "çłĤ": 3250,
      "æĽ´æĺ¯": 3251,
      "å±ķçİ°": 3252,
      "ç²ĺ": 3253,
      "çļĦä¼ģä¸ļ": 3254,
      "èĬĤçĽ®": 3255,
      "åľ¾": 3256,
      "åħ¨ä½ĵ": 3257,
      "åŀĥ": 3258,
      "åı¯æĺ¯": 3259,
      "æıĴ": 3260,
      "ãĢĤãĢĬ": 3261,
      "åŀĥåľ¾": 3262,
      "èĥ¡": 3263,
      "éĩıçļĦ": 3264,
      "èµļ": 3265,
      "ç¥Ŀ": 3266,
      "è®©äºº": 3267,
      "å¿Ļ": 3268,
      "ä¸»ä½ĵ": 3269,
      "è¾ī": 3270,
      "æĲº": 3271,
      "é¼ĵåĬ±": 3272,
      "è£ħé¥°": 3273,
      "åĨ³çŃĸ": 3274,
      "çļ®èĤ¤": 3275,
      "éĻ·": 3276,
      "åĲĮæł·": 3277,
      "æĢ»ç»ıçĲĨ": 3278,
      "èµı": 3279,
      "è¿ĳæĹ¥": 3280,
      "æĭĴç»Ŀ": 3281,
      "èİ±": 3282,
      "æ®ĸ": 3283,
      "ä¼ļæľī": 3284,
      "å¦»": 3285,
      "éĶĭ": 3286,
      "åĽ´ç»ķ": 3287,
      "äºĨä¸Ģä¸ª": 3288,
      "åĲĦä¸ª": 3289,
      "èİ·åıĸ": 3290,
      "çĶŁçļĦ": 3291,
      "å¾Ģå¾Ģ": 3292,
      "å¤º": 3293,
      "ay": 3294,
      "ä¸įéĶĻ": 3295,
      "çļĦå½±åĵį": 3296,
      "æĩĤ": 3297,
      "åĩºå¸Ń": 3298,
      "å¹¼åĦ¿": 3299,
      "é¡ºåĪ©": 3300,
      "ä½ľåĩº": 3301,
      "ä¿¡åı·": 3302,
      "æŁĶ": 3303,
      "é¢ĦæľŁ": 3304,
      "åĪ°åºķ": 3305,
      "å°ºå¯¸": 3306,
      "ad": 3307,
      "ç¡®è®¤": 3308,
      "å®ħ": 3309,
      "ç±į": 3310,
      "å²Ĺä½į": 3311,
      "åĿ¡": 3312,
      "æ·¡": 3313,
      "ä»ģ": 3314,
      "å®¿": 3315,
      "æ±Łèĭı": 3316,
      "åĭ¤": 3317,
      "æĦıåĳ³": 3318,
      "ä¹ı": 3319,
      "æ¸ħæ´ģ": 3320,
      "ä¼¯": 3321,
      "ä¸»å¸Ń": 3322,
      "èį·": 3323,
      "æĪ¿å±ĭ": 3324,
      "èĩ´åĬĽ": 3325,
      "çıį": 3326,
      "æ¯ıå¹´": 3327,
      "ç§°ä¸º": 3328,
      "å¡ĳæĸĻ": 3329,
      "å·¡": 3330,
      "éģĩåĪ°": 3331,
      "è¶³çĲĥ": 3332,
      "å¤§éĥ¨åĪĨ": 3333,
      "å®ļçļĦ": 3334,
      "æĶ¶éĽĨ": 3335,
      "å£®": 3336,
      "ä¹³": 3337,
      "äº«åıĹ": 3338,
      "ï½ŀ": 3339,
      "çĶĺ": 3340,
      "å¿ł": 3341,
      "èĴ¸": 3342,
      "ä»Ļ": 3343,
      "åĸĿ": 3344,
      "ä¸ģ": 3345,
      "åĬ²": 3346,
      "èĻİ": 3347,
      "å¤§å¹ħ": 3348,
      "æīĭæ®µ": 3349,
      "çļĦåĨħå®¹": 3350,
      "è§Ĵåº¦": 3351,
      "ĠI": 3352,
      "è§ĦåĪĻ": 3353,
      "è§Ĥä¼Ĺ": 3354,
      "åĽŃåĮº": 3355,
      "è®ºåĿĽ": 3356,
      "å·¥åİĤ": 3357,
      "èĩªè¡Į": 3358,
      "éĢĤåºĶ": 3359,
      "å¹¸ç¦ı": 3360,
      "ç»ĻäºĪ": 3361,
      "Ġç¬¬ä¸Ģ": 3362,
      "å®ŀè¡Į": 3363,
      "æīĵå¼Ģ": 3364,
      "æĽ¾ç»ı": 3365,
      "è¡¨è¾¾": 3366,
      "åľ°åĿĢ": 3367,
      "éĥ½ä¸į": 3368,
      "Ġ4": 3369,
      "å°ıç¼ĸ": 3370,
      "å¤©çĦ¶": 3371,
      "å®¤åĨħ": 3372,
      "å¦Īå¦Ī": 3373,
      "æľŁå¾ħ": 3374,
      "ĠN": 3375,
      "é©±åĬ¨": 3376,
      "åįģå¹´": 3377,
      "æŀĦæĪĲ": 3378,
      "èĥĮæĻ¯": 3379,
      "å¾ªçİ¯": 3380,
      "è¯ĳ": 3381,
      "éĩįåºĨ": 3382,
      "äºİæĺ¯": 3383,
      "å°Ĩåľ¨": 3384,
      "å¥³æĢ§": 3385,
      "ç»ĦåĲĪ": 3386,
      "å¾Ĳ": 3387,
      "ä½¿åĳ½": 3388,
      "ä»¥åīį": 3389,
      "å¤ļå¹´": 3390,
      "åĨĴ": 3391,
      "ä»¤äºº": 3392,
      "ä¼ļè®¡": 3393,
      "çłĸ": 3394,
      "ä¼ĺæĥł": 3395,
      "æ¢¯": 3396,
      "å°¤åħ¶æĺ¯": 3397,
      "ãĢĭãĢģãĢĬ": 3398,
      "é¢ĨåħĪ": 3399,
      "ï¼İ": 3400,
      "åľ°ä½į": 3401,
      "æ°ı": 3402,
      "åĲĮå¿Ĺ": 3403,
      "æĭĶ": 3404,
      "è¿ĳæľŁ": 3405,
      "çī¹åĪ«æĺ¯": 3406,
      "éº¦": 3407,
      "Ġ5": 3408,
      "il": 3409,
      "âĦ": 3410,
      "ç¢ĳ": 3411,
      "åħ±äº§åħļ": 3412,
      "Ġ-": 3413,
      "å¯¹å¤ĸ": 3414,
      "ç³»ç»ŁçļĦ": 3415,
      "çĸ«èĭĹ": 3416,
      "çļĦå¥½": 3417,
      "åįıè°ĥ": 3418,
      "åĲĪéĩĳ": 3419,
      "åıĺå¾Ĺ": 3420,
      "åıįæĺł": 3421,
      "è§ĤçĤ¹": 3422,
      "å®ĭ": 3423,
      "åľ¨ä¸ŃåĽ½": 3424,
      "ï¿½ï¿½": 3425,
      "æĪ¿åľ°äº§": 3426,
      "TE": 3427,
      "å¤§å¤§": 3428,
      "åĴĸ": 3429,
      "é«ĺç«¯": 3430,
      "å¥¹çļĦ": 3431,
      "un": 3432,
      "Ġå¹´": 3433,
      "å¿½": 3434,
      "åħ¬éĩĮ": 3435,
      "èĭ¹": 3436,
      "ç«ĭåį³": 3437,
      "ĠD": 3438,
      "æµĨ": 3439,
      "åŃ¦ç§ĳ": 3440,
      "åĪĨç±»": 3441,
      "ï¼ŁâĢĿ": 3442,
      "åı¯ä»¥åľ¨": 3443,
      "è¡Įä¸ļçļĦ": 3444,
      "çļĦåĲĮæĹ¶": 3445,
      "ç´«": 3446,
      "å°½ç®¡": 3447,
      "ç¼ĸè¾ĳ": 3448,
      "åĨ³è®®": 3449,
      "æ²Ī": 3450,
      "æµĭéĩı": 3451,
      "è§Ĵèī²": 3452,
      "ow": 3453,
      "åħ´è¶£": 3454,
      "åįĵ": 3455,
      "çĽĲ": 3456,
      "åĬłä¸Ĭ": 3457,
      "äººæ°ĳå¸ģ": 3458,
      "åľ¨äºİ": 3459,
      "åĽ½çļĦ": 3460,
      "å·ŀå¸Ĥ": 3461,
      "æĹ¥èµ·": 3462,
      "æ¬²": 3463,
      "å¼ĢåĲ¯": 3464,
      "èĭ¹æŀľ": 3465,
      "åĪĽå»º": 3466,
      "çªģçĦ¶": 3467,
      "å®¶åħ·": 3468,
      "éļıæĹ¶": 3469,
      "åĲĽ": 3470,
      "è¿ĺè¦ģ": 3471,
      "æĿĥçĽĬ": 3472,
      "æĦıåĳ³çĿĢ": 3473,
      "éĹª": 3474,
      "çļĦä¸Ģä¸ª": 3475,
      "æ¦Ĥå¿µ": 3476,
      "æĺĮ": 3477,
      "æıĲä¾ĽäºĨ": 3478,
      "æ±¡æ°´": 3479,
      "åĬŀåħ¬å®¤": 3480,
      "ä¸Ģèĩ´": 3481,
      "ä¼ļä¸Ĭ": 3482,
      "ç®Ģç§°": 3483,
      "æ¤įçī©": 3484,
      "æī°": 3485,
      "èĲ¥ä¸ļ": 3486,
      "äº§æĿĥ": 3487,
      "ç½ĳç«Ļå»ºè®¾": 3488,
      "åĲĬ": 3489,
      "æ·±åº¦": 3490,
      "æ²³åįĹ": 3491,
      "éĥ½åľ¨": 3492,
      "å²©": 3493,
      "æķĮ": 3494,
      "åĮ»çĶŁ": 3495,
      "èĭ±è¯Ń": 3496,
      "ç»ª": 3497,
      "çĶŁéķ¿": 3498,
      "æĭħä»»": 3499,
      "çļĦä¸»è¦ģ": 3500,
      "æĬ±": 3501,
      "èģĶçĽŁ": 3502,
      "å¥ĭæĸĹ": 3503,
      "åŃ¦æľ¯": 3504,
      "æŁ¥è¯¢": 3505,
      "ä¾ĿçĦ¶": 3506,
      "èĬĤèĥ½": 3507,
      "ĠE": 3508,
      "äººåı£": 3509,
      "ä¸ºæĤ¨": 3510,
      "åĲĪæ³ķ": 3511,
      "çĶµæľº": 3512,
      "åĮ»åŃ¦": 3513,
      "å¯¹è±¡": 3514,
      "èĩªæĪĳ": 3515,
      "ä¼Ĺå¤ļ": 3516,
      "é¢ľèī²": 3517,
      "çĻ½çĻ": 3518,
      "ä¹łæĥ¯": 3519,
      "èĪªç©º": 3520,
      "ľé£İ": 3521,
      "äºĴåĬ¨": 3522,
      "åĽ½æľī": 3523,
      "å¸¸è§ģ": 3524,
      "èĪį": 3525,
      "çļĦä¸Ģç§į": 3526,
      "äººæķ°": 3527,
      "åĪĨåŃĲ": 3528,
      "å¿ĥçļĦ": 3529,
      "çĵ¶": 3530,
      "ĠR": 3531,
      "æ°ĳä¸»": 3532,
      "æŃ¦æ±ī": 3533,
      "è¡¨åĨ³": 3534,
      "è¿Ŀæ³ķ": 3535,
      "ä¸ĵåĪ©": 3536,
      "å¿§": 3537,
      "å¤§åĬĽ": 3538,
      "æĹ¶åĪ»": 3539,
      "å¤§å¤ļæķ°": 3540,
      "åİ¨": 3541,
      "è®¸åı¯": 3542,
      "59": 3543,
      "éĢĥ": 3544,
      "æ·±åĮĸ": 3545,
      "çĸ«æĥħéĺ²æİ§": 3546,
      "è¾Ľ": 3547,
      "å°Ĩä¼ļ": 3548,
      "æĢ»ä¹¦è®°": 3549,
      "ç»ĺ": 3550,
      "åıĳåĬ¨": 3551,
      "åŁºå±Ĥ": 3552,
      "çº¤ç»´": 3553,
      "å°±èĥ½": 3554,
      "å£°éŁ³": 3555,
      "è¿ĳå¹´æĿ¥": 3556,
      "åĳ¨æľŁ": 3557,
      "åľ¨è¿Ļ": 3558,
      "çŃĸçķ¥": 3559,
      "äº¿ç¾İåħĥ": 3560,
      "æ´ª": 3561,
      "èī¯å¥½": 3562,
      "ç§¦": 3563,
      "çĻ½çĻľé£İ": 3564,
      "è¡¨æĺİ": 3565,
      "è§Ĥå¯Ł": 3566,
      "ç½ĳåıĭ": 3567,
      "åįģäºĮ": 3568,
      "çºł": 3569,
      "æĽ´å¥½çļĦ": 3570,
      "æĽ´ä¸º": 3571,
      "å¼ºçļĦ": 3572,
      "æĪªèĩ³": 3573,
      "è®¾ç«ĭ": 3574,
      "å¹¶æ²¡æľī": 3575,
      "çĽ¸åĲĮ": 3576,
      "éĢĲæŃ¥": 3577,
      "åį³ä½¿": 3578,
      "âĦĥ": 3579,
      "è½»æĿ¾": 3580,
      "åĪĽä½ľ": 3581,
      "ç»ıåħ¸": 3582,
      "è¯´éģĵ": 3583,
      "åįģåĽĽ": 3584,
      "ç´¯è®¡": 3585,
      "æ¼Ĩ": 3586,
      "åģļåĩº": 3587,
      "æľ±": 3588,
      "ä¹Łå°±æĺ¯": 3589,
      "æĺ¯ä¸ŃåĽ½": 3590,
      "ä¸įåĨį": 3591,
      "æ»¡æĦı": 3592,
      "å¼¯": 3593,
      "çļĦè¦ģæ±Ĥ": 3594,
      "æ£ĢéªĮ": 3595,
      "å¾Īå¤§": 3596,
      "æĥ³åĪ°": 3597,
      "çĬ¯ç½ª": 3598,
      "å¯¿åĳ½": 3599,
      "å°Ŀ": 3600,
      "åħħæ»¡": 3601,
      "çªģåĩº": 3602,
      "èµĶ": 3603,
      "çĪ¶æ¯į": 3604,
      "æłĩå¿Ĺ": 3605,
      "æĲŀ": 3606,
      "ç§Ĵ": 3607,
      "æĹ¶çļĦ": 3608,
      "ç«¹": 3609,
      "æ°Ľ": 3610,
      "åĬłçĥŃ": 3611,
      "æĵİ": 3612,
      "èī¾": 3613,
      "èĩ´åĬĽäºİ": 3614,
      "çģĮ": 3615,
      "åħģè®¸": 3616,
      "èı²": 3617,
      "éĢıè¿ĩ": 3618,
      "ä¸´åºĬ": 3619,
      "åĲİæĿ¥": 3620,
      "èĳ£äºĭéķ¿": 3621,
      "åĪĽæĦı": 3622,
      "çºµ": 3623,
      "éĥŃ": 3624,
      "æĺ¯æĮĩ": 3625,
      "ä¹īåĬ¡": 3626,
      "å¾Īå¤ļäºº": 3627,
      "é¦ĸæ¬¡": 3628,
      "çĶµåķĨ": 3629,
      "è¿Ī": 3630,
      "å»ī": 3631,
      "å¹»": 3632,
      "ç¢°": 3633,
      "38": 3634,
      "åħ¬ä¼Ĺ": 3635,
      "æĦŁåıĹ": 3636,
      "èħĲèļĢ": 3637,
      "75": 3638,
      "éķĢ": 3639,
      "çīĪæľ¬": 3640,
      "å¾·åĽ½": 3641,
      "æĵ¦": 3642,
      "çĭ¬çī¹": 3643,
      "åĶ¯ä¸Ģ": 3644,
      "å¤¹": 3645,
      "æīĢè°ĵ": 3646,
      "çĽ¸äºĴ": 3647,
      "å¤įåĲĪ": 3648,
      "èĤĮ": 3649,
      "æ·±åĪ»": 3650,
      "èĲ¥åħ»": 3651,
      "åºĶå¯¹": 3652,
      "å°±è¦ģ": 3653,
      "å¦¹": 3654,
      "ç»Ŀå¯¹": 3655,
      "ç²¾åĩĨ": 3656,
      "çĽĴ": 3657,
      "ä¸¤ç§į": 3658,
      "æķ´åĲĪ": 3659,
      "âĳ": 3660,
      "åŃķ": 3661,
      "ä»¥ä¸º": 3662,
      "åĬĽåº¦": 3663,
      "éĤ£ä¸ª": 3664,
      "æĸĩåŃĹ": 3665,
      "ç²®": 3666,
      "è¹": 3667,
      "çļĦæĬĢæľ¯": 3668,
      "ä¸Ģæĺ¯": 3669,
      "èĩ³å°ĳ": 3670,
      "ä¹¡æĿĳ": 3671,
      "åĩ¯": 3672,
      "éĢĤçĶ¨äºİ": 3673,
      "è¸ª": 3674,
      "éĽķ": 3675,
      "ç½©": 3676,
      "æĻ®éģį": 3677,
      "çļĨ": 3678,
      "æ¡Īä»¶": 3679,
      "ent": 3680,
      "éĩĳé¢Ŀ": 3681,
      "ä¼ı": 3682,
      "èķ": 3683,
      "è´¦æĪ·": 3684,
      "è¿ĩæ»¤": 3685,
      "æĬ¥åĲį": 3686,
      "éĽ¶åĶ®": 3687,
      "åĩºçīĪ": 3688,
      "æĭĽçĶŁ": 3689,
      "å¿ĹæĦ¿": 3690,
      "æĪĸæĺ¯": 3691,
      "çĥ¦": 3692,
      "å§Ĩ": 3693,
      "èĭ±éĽĦ": 3694,
      "èĥİ": 3695,
      "æĸĳ": 3696,
      "ä¸ļç»©": 3697,
      "åģ¶": 3698,
      "æĢģåº¦": 3699,
      "å¾½": 3700,
      "ä¸ĭåįĪ": 3701,
      "æĶ¾åľ¨": 3702,
      "åį±éĻ©": 3703,
      "æıĲä¾ĽçļĦ": 3704,
      "æĢ»ä½ĵ": 3705,
      "çĽ¾": 3706,
      "æĦŁæŁĵ": 3707,
      "åĬłéĢŁ": 3708,
      "éĻĦè¿ĳ": 3709,
      "ä¹Į": 3710,
      "å¤§åĪ©": 3711,
      "æĪĲå°±": 3712,
      "æ·ĺ": 3713,
      "çĽĳæİ§": 3714,
      "åĪ¤æĸŃ": 3715,
      "è¸ı": 3716,
      "çļĦæĸ¹æ³ķ": 3717,
      "äºĭæķħ": 3718,
      "é½¿": 3719,
      "è®¡ç®Ĺæľº": 3720,
      "æĹ¶å°ļ": 3721,
      "å¤ļæ¬¡": 3722,
      "åĪĩå®ŀ": 3723,
      "ï¼ĮãĢĬ": 3724,
      "æĺ¨": 3725,
      "æīĭæľ¯": 3726,
      "æĿ¥äºĨ": 3727,
      "ç½ĳåĿĢ": 3728,
      "ç¼Ĩ": 3729,
      "å¤ªéĺ³": 3730,
      "ä¸ĵéĹ¨": 3731,
      "2014": 3732,
      "è¯ĨåĪ«": 3733,
      "åĽ½å¤ĸ": 3734,
      "å¥ī": 3735,
      "æĶ¶åĪ°": 3736,
      "çĵ·": 3737,
      "æĬ¼": 3738,
      "åħ¶å®ĥ": 3739,
      "äºĮæĺ¯": 3740,
      "åĨ²åĩ»": 3741,
      "æħİ": 3742,
      "å±¥è¡Į": 3743,
      "çļĦä¸į": 3744,
      "æ»ļ": 3745,
      "åĽŀåºĶ": 3746,
      "æ§½": 3747,
      "æģĭ": 3748,
      "æĿ¥åĪ°": 3749,
      "é¡µéĿ¢": 3750,
      "ĠF": 3751,
      "æ³¨éĩį": 3752,
      "è¯ģä¹¦": 3753,
      "éŁ©åĽ½": 3754,
      "åĪ©äºİ": 3755,
      "åįıåĬ©": 3756,
      "ç»´æĮģ": 3757,
      "çĻ¾å¹´": 3758,
      "å·®å¼Ĥ": 3759,
      "å¾ĭå¸Ī": 3760,
      "åī©": 3761,
      "è®²è¯Ŀ": 3762,
      "æĦıæĢĿ": 3763,
      "æľīä¸Ģä¸ª": 3764,
      "ä¸»è¦ģæĺ¯": 3765,
      "è½¬åĮĸ": 3766,
      "éĶ¦": 3767,
      "ä½¿çĶ¨çļĦ": 3768,
      "çļĦäºĭæĥħ": 3769,
      "å¹¶ä¸įæĺ¯": 3770,
      "æĢĿèĢĥ": 3771,
      "çīµ": 3772,
      "æµģåĬ¨": 3773,
      "æīĢåľ¨": 3774,
      "è§£éĩĬ": 3775,
      "å°ĳå¹´": 3776,
      "å¼ķé¢Ĩ": 3777,
      "çŃīæĸ¹éĿ¢": 3778,
      "éĩĮéĿ¢": 3779,
      "ä¼¼ä¹İ": 3780,
      "çļĦåīį": 3781,
      "çļĦå¿ĥ": 3782,
      "å°ĸ": 3783,
      "åĽĽä¸ª": 3784,
      "ä¹ĭä¸Ń": 3785,
      "ä¹ĥ": 3786,
      "éĢļä¿¡": 3787,
      "ä¸Ĭä¸ĭ": 3788,
      "èĩ³ä»Ĭ": 3789,
      "æ©¡": 3790,
      "ĠH": 3791,
      "äººåľ¨": 3792,
      "éļ¾ä»¥": 3793,
      "ç¢į": 3794,
      "é©¾é©¶": 3795,
      "æĹģ": 3796,
      "æĥħåĨµä¸ĭ": 3797,
      "å¹³è¡¡": 3798,
      "äºı": 3799,
      "æĸ°èĥ½æºĲ": 3800,
      "åįģä¸ī": 3801,
      "ç¡®å®ŀ": 3802,
      "æĺ¾èĳĹ": 3803,
      "Ġ10": 3804,
      "çļĦè®¾è®¡": 3805,
      "%ï¼Ľ": 3806,
      "åĪ©çİĩ": 3807,
      "è®¤åı¯": 3808,
      "éĢĨ": 3809,
      "èµĭ": 3810,
      "éĺ²æĬ¤": 3811,
      "å¸¦çĿĢ": 3812,
      "ç´łè´¨": 3813,
      "èĤºçĤİ": 3814,
      "çĶľ": 3815,
      "ï¼ħ": 3816,
      "åĿ¦": 3817,
      "åĪł": 3818,
      "åħ¬è·¯": 3819,
      "åĽ½åĬ¡": 3820,
      "æĮ¡": 3821,
      "æ»´": 3822,
      "éħįå¥Ĺ": 3823,
      "æ±¤": 3824,
      "çĤŃ": 3825,
      "éĵģè·¯": 3826,
      "ä¸įçŁ¥éģĵ": 3827,
      "ç¬¬ä¸īæĸ¹": 3828,
      "éĹ®é¢ĺçļĦ": 3829,
      "ä¹Łåľ¨": 3830,
      "æķħéļľ": 3831,
      "æ··åĩĿ": 3832,
      "å¯¹æĸ¹": 3833,
      "å¾Ĵ": 3834,
      "æĦŁè°¢": 3835,
      "éĻ¶": 3836,
      "æĪĲçĨŁ": 3837,
      "å½ĵä¸Ń": 3838,
      "ä¸ĵé¡¹": 3839,
      "å°ıçļĦ": 3840,
      "åĪ«äºº": 3841,
      "ED": 3842,
      "åįģä¹Ŀ": 3843,
      "æ¯ıä¸Ģä¸ª": 3844,
      "å¤©æ´¥": 3845,
      "åķ¡": 3846,
      "å¯Ĩå°ģ": 3847,
      "å¹³æĸ¹ç±³": 3848,
      "æ¬£": 3849,
      "æ£Ĵ": 3850,
      "çĽ¸åħ³çļĦ": 3851,
      "éĤĢè¯·": 3852,
      "çī¹å¾ģ": 3853,
      "æī¿è¯º": 3854,
      "æĬ«": 3855,
      "é«ĺæ¸©": 3856,
      "ç»Īäºİ": 3857,
      "å¼ķæĵİ": 3858,
      "å®ŀéªĮå®¤": 3859,
      "Ġç¬¬": 3860,
      "æĹ¥åīį": 3861,
      "æķ°åŃĹåĮĸ": 3862,
      "æ··åĲĪ": 3863,
      "åĩĮ": 3864,
      "ç¾Ĭ": 3865,
      "çļĦä½¿çĶ¨": 3866,
      "çĭĤ": 3867,
      "ç¾½": 3868,
      "è¿ĺåı¯ä»¥": 3869,
      "æľĢå¥½": 3870,
      "æ¡ĥ": 3871,
      "åħĪåĲİ": 3872,
      "åĴĸåķ¡": 3873,
      "è¾ŀ": 3874,
      "çĲĥéĺŁ": 3875,
      "ç¦»å¼Ģ": 3876,
      "é¡¾å®¢": 3877,
      "åİŁæĸĻ": 3878,
      "çĩ¥": 3879,
      "è²": 3880,
      "åĭĴ": 3881,
      "å¯»æī¾": 3882,
      "çļĦçĶŁæ´»": 3883,
      "å¾Īéļ¾": 3884,
      "åŃĺåĤ¨": 3885,
      "37": 3886,
      "èĩªåĬ¨åĮĸ": 3887,
      ")ãĢĤ": 3888,
      "åĬ¨æĢģ": 3889,
      "è°ĥèĬĤ": 3890,
      "æİĴæĶ¾": 3891,
      "åľ¨æŃ¤": 3892,
      "æľ¬äºº": 3893,
      "éĶĻè¯¯": 3894,
      "åĲ¹": 3895,
      "æŀª": 3896,
      "ç¡ħ": 3897,
      "é£Łçī©": 3898,
      "88": 3899,
      "æıŃ": 3900,
      "æŃ£æĺ¯": 3901,
      "èĻ«": 3902,
      "çĦĬæİ¥": 3903,
      "æľ¬æĸĩæĳĺè¦ģ": 3904,
      "ä¸Ģä»£": 3905,
      "æ¨¡åŀĭ": 3906,
      "//": 3907,
      "ä»Ķ": 3908,
      "åĲĪæł¼": 3909,
      "æĬĳ": 3910,
      "èī°": 3911,
      "ç±»ä¼¼": 3912,
      "çº½": 3913,
      "IS": 3914,
      "çļĦä½ľçĶ¨": 3915,
      "ä½İäºİ": 3916,
      "ä¿Ŀæ¸©": 3917,
      "æľīåı¯èĥ½": 3918,
      "çİ°éĩĳ": 3919,
      "ä½ıæĪ¿": 3920,
      "é¸Ł": 3921,
      "ç¾İçļĦ": 3922,
      "å§Ķä¼ļ": 3923,
      "çŃĭ": 3924,
      "æĪĲéĥ½": 3925,
      "åįļå£«": 3926,
      "é¤Ĳé¥®": 3927,
      "ä¸Ģä½į": 3928,
      "ä¸ĢæĹ¦": 3929,
      "æĺ¯ä¸į": 3930,
      "ä¸ĩäºº": 3931,
      "è½¬è½½": 3932,
      "æĺ¯çĶ±": 3933,
      "ä»ĬæĹ¥": 3934,
      "å¦Ĥæŀľä½ł": 3935,
      "å¯Ħ": 3936,
      "åĵģç§į": 3937,
      "åħĦ": 3938,
      "æĬ¥ä»·": 3939,
      "èį¯çī©": 3940,
      "çŃĽ": 3941,
      "åľºæīĢ": 3942,
      "ç¤¾äº¤": 3943,
      "æĪĺæĸĹ": 3944,
      "çŁ³æ²¹": 3945,
      "çļĦä¸»": 3946,
      "æĦŁåĪ°": 3947,
      "è½¬åıĺ": 3948,
      "åłĨ": 3949,
      "åĽĽå·Ŀ": 3950,
      "åħ¬åĽŃ": 3951,
      "æĥħç»ª": 3952,
      "çļĦéľĢæ±Ĥ": 3953,
      "çĶ¨éĢĶ": 3954,
      "èį¡": 3955,
      "us": 3956,
      "è¿Ŀåıį": 3957,
      "æĿŃ": 3958,
      "éĶĮ": 3959,
      "å·¥ä½ľäººåĳĺ": 3960,
      "æĸ¹ä½į": 3961,
      "ä¸Ģæ®µ": 3962,
      "ä¸ĬäºĨ": 3963,
      "é¢Ħæµĭ": 3964,
      "æĹ©å·²": 3965,
      "2011": 3966,
      "æĿľ": 3967,
      "æĭĵå±ķ": 3968,
      "åħĥç´ł": 3969,
      "å¿į": 3970,
      "ä¸°å¯ĮçļĦ": 3971,
      "åĿļå®ļ": 3972,
      "æ··åĩĿåľŁ": 3973,
      "th": 3974,
      "çģµæ´»": 3975,
      "æľºåĻ¨äºº": 3976,
      "åĲĪéĢĤ": 3977,
      "è§Ħæł¼": 3978,
      "ä¸ĢåĲį": 3979,
      "éĽĨæĪĲ": 3980,
      "é»İ": 3981,
      "æľįåĬ¡çļĦ": 3982,
      "ä¼ļåľ¨": 3983,
      "éĽ¾": 3984,
      "æŃ»äº¡": 3985,
      "èĤ¡ä»½æľīéĻĲåħ¬åı¸": 3986,
      "Ġç¬¬ä¸ĢçĻ¾": 3987,
      "ä¸ĢæĿ¡": 3988,
      "æıĲåīį": 3989,
      "è¾ĥä¸º": 3990,
      "ç¡ķ": 3991,
      "èĥ½éĩı": 3992,
      "ä¼Łå¤§": 3993,
      "ä¸įçĶ¨": 3994,
      "åºĶçĶ¨äºİ": 3995,
      "åĽ½åĬ¡éĻ¢": 3996,
      "å¸¦é¢Ĩ": 3997,
      "è´¢äº§": 3998,
      "æĶ¶è´Ń": 3999,
      "ag": 4000,
      "å±ķè§Ī": 4001,
      "è°ĥçłĶ": 4002,
      "åħ»èĢģ": 4003,
      "å°ıç¨ĭåºı": 4004,
      "ç½Ĺæĸ¯": 4005,
      "æ³ķåĽ½": 4006,
      "äºĭåĬ¡": 4007,
      "å§Ķæīĺ": 4008,
      "éĵ¾æİ¥": 4009,
      "ä¸Ńåħ±": 4010,
      "éĻª": 4011,
      "å¦Ļ": 4012,
      "åŃ¦ä¼ļ": 4013,
      "èĤ¡æĿĥ": 4014,
      "è¾ĵåħ¥": 4015,
      "è¾½": 4016,
      "2010": 4017,
      "æĻ¨": 4018,
      "çī¹æĢ§": 4019,
      "æĶ¶è´¹": 4020,
      "çİ°ä»£åĮĸ": 4021,
      "çĤ¸": 4022,
      "å¸¦æĿ¥çļĦ": 4023,
      "åĩłå¹´": 4024,
      "åĺ´": 4025,
      "å¤§æķ°æį®": 4026,
      "éĻķ": 4027,
      "ä¸ªæĢ§": 4028,
      "ä¸ŃéĹ´": 4029,
      "ä»ªåĻ¨": 4030,
      "33": 4031,
      "æ¡Į": 4032,
      "å¤ļåħĥ": 4033,
      "å®ļæľŁ": 4034,
      "åģľæŃ¢": 4035,
      "æĮģæľī": 4036,
      "è´Ńçī©": 4037,
      "åİŁçĲĨ": 4038,
      "äºļæ´²": 4039,
      "æĶ»åĩ»": 4040,
      "åĨ»": 4041,
      "åĹ": 4042,
      "ä¸īå¹´": 4043,
      "ig": 4044,
      "éĥ¨ä»¶": 4045,
      "è®¾å¤ĩçļĦ": 4046,
      "è²Į": 4047,
      "çĸĨ": 4048,
      "çĪ·": 4049,
      "åįıåĲĮ": 4050,
      "æķĪçĽĬ": 4051,
      "åĤ¬": 4052,
      "æł¡åĽŃ": 4053,
      "95": 4054,
      "APP": 4055,
      "åĬ¨çī©": 4056,
      "åĪĨå¸ĥ": 4057,
      "çħ§çīĩ": 4058,
      "æĻĭ": 4059,
      "æ¸Ĺ": 4060,
      "èĦı": 4061,
      "åħ¨æĸ°": 4062,
      "æľīæķĪçļĦ": 4063,
      "èĳĹåĲį": 4064,
      "æ¹ĸåįĹ": 4065,
      "è°¨": 4066,
      "è¾ĥå¤§": 4067,
      "é¢Ħéĺ²": 4068,
      "éĥ½èĥ½": 4069,
      "çĹĩçĬ¶": 4070,
      "å¤§éĻĨ": 4071,
      "å¸¦åĬ¨": 4072,
      "é¬": 4073,
      "åĽŀåĪ°": 4074,
      "ä¸įç®¡": 4075,
      "AR": 4076,
      "ä¹Łèĥ½": 4077,
      "æ°Ķä½ĵ": 4078,
      "æ·»åĬł": 4079,
      "çº¢èī²": 4080,
      "æī¹åĩĨ": 4081,
      "è¡ĮçļĦ": 4082,
      "åĩºæĿ¥çļĦ": 4083,
      "ä»ĸäºº": 4084,
      "æĺ¯ä¸Ģå®¶": 4085,
      "å°ıç»Ħ": 4086,
      "åĨłåĨĽ": 4087,
      "æĶ¯éĥ¨": 4088,
      "å¼ķåıĳ": 4089,
      "tp": 4090,
      "å°±åľ¨": 4091,
      "ç²Ĺ": 4092,
      "èµł": 4093,
      "ä¹Łè¦ģ": 4094,
      "èµĽåŃ£": 4095,
      "çĶµæºĲ": 4096,
      "å¹¶åľ¨": 4097,
      "32": 4098,
      "å¯¹æŃ¤": 4099,
      "åĪ¶åĵģ": 4100,
      "çł´åĿı": 4101,
      "æ¡Īä¾ĭ": 4102,
      "åĮĢ": 4103,
      "äººçī©": 4104,
      "65": 4105,
      "èĬ¯çīĩ": 4106,
      "im": 4107,
      "è¾Ī": 4108,
      "çļĦæ°´": 4109,
      "ä¸įçŁ¥": 4110,
      "ä¸ŃåĽ½çī¹èī²": 4111,
      "èĪ°": 4112,
      "34": 4113,
      "èµģ": 4114,
      "çĥ¯": 4115,
      "ä¿¡æģ¯åĮĸ": 4116,
      "åįĹäº¬": 4117,
      "ä¸įå¤Ł": 4118,
      "éĿ¢åĲĳ": 4119,
      "æĤ¬": 4120,
      "ãĢĭï¼Ī": 4121,
      "ç¾İä¸½": 4122,
      "æĳ¸": 4123,
      "åŁ¹èĤ²": 4124,
      "å°¿": 4125,
      "æĺ¯ä¸ª": 4126,
      "æĪĲåĪĨ": 4127,
      "èĩªæ²»": 4128,
      "æĦ¿æĦı": 4129,
      "ç§Łèµģ": 4130,
      "åħ¨åĬĽ": 4131,
      "é¢ĨåŁŁçļĦ": 4132,
      "æĸ°æĬĢæľ¯": 4133,
      "ä¾ĽåºĶåķĨ": 4134,
      "æľīå¾Īå¤ļ": 4135,
      "çĥŃéĹ¨": 4136,
      "æ¾³éĹ¨": 4137,
      "å±Ĥæ¬¡": 4138,
      "èĢĢ": 4139,
      "çļĦåİŁåĽł": 4140,
      "èĤĥ": 4141,
      "æľĢä½İ": 4142,
      "æľŁè´§": 4143,
      "åľ°æĿ¿": 4144,
      "å½¢åĬ¿": 4145,
      "æĭįæĳĦ": 4146,
      "å«Į": 4147,
      "åĴĮåĽ½": 4148,
      "èĥĢ": 4149,
      "èĢĥæł¸": 4150,
      "æ¯įäº²": 4151,
      "eb": 4152,
      "èİ²": 4153,
      "æĺĨ": 4154,
      "æīĢæľīçļĦ": 4155,
      "85": 4156,
      "ter": 4157,
      "æĢİæł·": 4158,
      "äººçĶŁ": 4159,
      "æ¨¡åĿĹ": 4160,
      "æĬĬæı¡": 4161,
      "å®¡æł¸": 4162,
      "å¾Īå¥½çļĦ": 4163,
      "99": 4164,
      "åħļåı²": 4165,
      "è¾ĵåĩº": 4166,
      "éľ¸": 4167,
      "å¹´ä»£": 4168,
      "æĸĩåŃ¦": 4169,
      "ä¸Ģè·¯": 4170,
      "åİ¦": 4171,
      "éĢĤå½ĵ": 4172,
      "éĥ½åı¯ä»¥": 4173,
      "åŁĥ": 4174,
      "åĲįç§°": 4175,
      "åķĨæłĩ": 4176,
      "è´¦åı·": 4177,
      "æĥľ": 4178,
      "æıĲäº¤": 4179,
      "æ²³åĮĹ": 4180,
      "èº«ä¸Ĭ": 4181,
      "åĪ°çļĦ": 4182,
      "è®ºæĸĩ": 4183,
      "èĤ¿": 4184,
      "æľ¬ç½ĳ": 4185,
      "åı¸æ³ķ": 4186,
      "åľ¨ä¸Ģèµ·": 4187,
      "çĪ¶äº²": 4188,
      "æİ§èĤ¡": 4189,
      "ç²¾å½©": 4190,
      "æĳĩ": 4191,
      "æĭĸ": 4192,
      "ä¸ĵé¢ĺ": 4193,
      "è®¼": 4194,
      "æ¯Ķçī¹": 4195,
      "å´ĩ": 4196,
      "æĬĽ": 4197,
      "ä¸»ç®¡": 4198,
      "æ¡£æ¡Ī": 4199,
      "çļĦå¤ĸ": 4200,
      "ãĢĤ(": 4201,
      "æĸ°å¢ŀ": 4202,
      "æıĲéĨĴ": 4203,
      "éħ·": 4204,
      "å°±åĥı": 4205,
      "äº§ä¸ļéĵ¾": 4206,
      "åį±æľº": 4207,
      "å¤§ä¼Ĺ": 4208,
      "ä¸ĩåĲ¨": 4209,
      "èĸª": 4210,
      "é¦Ī": 4211,
      "èģĶèµĽ": 4212,
      "ç¼ºä¹ı": 4213,
      "åħ¬å®ī": 4214,
      "çĤ¹åĩ»": 4215,
      "ç¬¬ä¸Ģæ¬¡": 4216,
      "å¤©ä¸ĭ": 4217,
      "ä¼łæĦŁ": 4218,
      "iv": 4219,
      "Ġ6": 4220,
      "éĺĶ": 4221,
      "å¤ļæł·": 4222,
      "ä¸ĵæ³¨": 4223,
      "è¾¨": 4224,
      "è°Ĳ": 4225,
      "æĿĲè´¨": 4226,
      "http": 4227,
      "æĸ¤": 4228,
      "ä¸įäºĨ": 4229,
      "å£³": 4230,
      "éļıåĲİ": 4231,
      "çĶŁæ´»ä¸Ń": 4232,
      "å¾Īå¤§çļĦ": 4233,
      "é¢ĺåºĵ": 4234,
      "è§Ĩè§ī": 4235,
      "èµĽäºĭ": 4236,
      "åĪĻæĺ¯": 4237,
      "å»ºæĪĲ": 4238,
      "æĺİçĻ½": 4239,
      "å¼ķè¿Ľ": 4240,
      "æĭĽèģĺ": 4241,
      "å½¼": 4242,
      "2013": 4243,
      "å®ŀæĹ¶": 4244,
      "ä»ªå¼ı": 4245,
      "ä¿¡å¿ĥ": 4246,
      "çº·çº·": 4247,
      "ook": 4248,
      "åĬ¨ä½ľ": 4249,
      "æįķ": 4250,
      "åĲĮæ¯Ķå¢ŀéķ¿": 4251,
      "å°ıè¯´": 4252,
      "ot": 4253,
      "æĺ¯ä¸įæĺ¯": 4254,
      "æİĺ": 4255,
      "åĲįåŃĹ": 4256,
      "ä¸ĬåįĪ": 4257,
      "éĽĨä½ĵ": 4258,
      "æ¯ıä¸ªäºº": 4259,
      "åīįçļĦ": 4260,
      "çī§": 4261,
      "åĲ¦åĪĻ": 4262,
      "ä¸Ģå¤©": 4263,
      "æĪĸè®¸": 4264,
      "èĢĥåı¤": 4265,
      "ä¾¿åĪ©": 4266,
      "é¬¼": 4267,
      "è¡Įæĥħ": 4268,
      "ç½Ĳ": 4269,
      "ä»¬çļĦ": 4270,
      "åºĶæĢ¥": 4271,
      "æĢ»æĺ¯": 4272,
      "çĶ³æĬ¥": 4273,
      "å¿«ä¹Ĳ": 4274,
      "åĬ©åĬĽ": 4275,
      "ĠW": 4276,
      "ç¡«": 4277,
      "é«ĺåİĭ": 4278,
      "è´§è¿Ĳ": 4279,
      "æĲŃéħį": 4280,
      "çĽĹ": 4281,
      "é«ĺèĢĥ": 4282,
      "å¦Ĩ": 4283,
      "ä¸ŃåĽ½çļĦ": 4284,
      "æķ´çĲĨ": 4285,
      "çŃĴ": 4286,
      "çĲ´": 4287,
      "å¸Ĥæ°ĳ": 4288,
      "çĥĺ": 4289,
      "å¤Ħç½®": 4290,
      "åĨľæ°ĳ": 4291,
      "ä¸²": 4292,
      "ä¸Ńæĸĩ": 4293,
      "é«ĺçŃī": 4294,
      "æĪ¿åŃĲ": 4295,
      "ä¹łè¿ĳå¹³æĢ»ä¹¦è®°": 4296,
      "ä¼ĺçĤ¹": 4297,
      "åį³å°Ĩ": 4298,
      "æ¹ĸåĮĹ": 4299,
      "å®ŀéĻħä¸Ĭ": 4300,
      "æĺ¯æľĢ": 4301,
      "ç§įæ¤į": 4302,
      "åĶ®åĲİ": 4303,
      "ï¼ı": 4304,
      "å¥ı": 4305,
      "ç»ĨèĬĤ": 4306,
      "åĩºçİ°äºĨ": 4307,
      "åľ¨è¿ĻéĩĮ": 4308,
      "éĺģ": 4309,
      "åĵ²": 4310,
      "éĥ½è¦ģ": 4311,
      "è¯īè®¼": 4312,
      "äººå·¥æĻºèĥ½": 4313,
      "æįĲ": 4314,
      "OS": 4315,
      "çİĽ": 4316,
      "çī©çĲĨ": 4317,
      "æĭħå¿ĥ": 4318,
      "å®ł": 4319,
      "èĥ¸": 4320,
      ")ãĢģ": 4321,
      "AI": 4322,
      "ä»¥ä¸ĬçļĦ": 4323,
      "äºĮåįģ": 4324,
      "è®©æĪĳä»¬": 4325,
      "éĻ¢éķ¿": 4326,
      "2012": 4327,
      "è¯·æ±Ĥ": 4328,
      "é¢ģ": 4329,
      "åĪĨåħ¬åı¸": 4330,
      "æľ¬åħ¬åı¸": 4331,
      "éļ¾é¢ĺ": 4332,
      "ç¾¤ä½ĵ": 4333,
      "åıĳåĩº": 4334,
      "è®©æĪĳ": 4335,
      "å¹²çĩ¥": 4336,
      "éŃĤ": 4337,
      "åĿļåĨ³": 4338,
      "05": 4339,
      "æĪĲäº¤": 4340,
      "æĹłäºº": 4341,
      "åŀĤ": 4342,
      "æ¨¡æĭŁ": 4343,
      "åĪłéĻ¤": 4344,
      "ä¸įå¥½": 4345,
      "çľĭçľĭ": 4346,
      "åĽ¢ç»ĵ": 4347,
      "å¾Īå¥½": 4348,
      "æĶ¹è¿Ľ": 4349,
      "å¥³äºº": 4350,
      "äº§çĶŁçļĦ": 4351,
      "://": 4352,
      "è¿Ł": 4353,
      "åıĺæĪĲ": 4354,
      "æĪĺäºī": 4355,
      "å¤§å°ı": 4356,
      "åĳ¨å¹´": 4357,
      "æ³Ħ": 4358,
      "æĴŀ": 4359,
      "èĽĭçĻ½": 4360,
      "åĭŁ": 4361,
      "åĽ½åĨħå¤ĸ": 4362,
      "çĽĪåĪ©": 4363,
      "åħ½": 4364,
      "æĺ¯åĽłä¸º": 4365,
      "ä¸ŃåĽ½åħ±äº§åħļ": 4366,
      "è¾ĵéĢģ": 4367,
      "æī§æ³ķ": 4368,
      "å©Ĩ": 4369,
      "èĿ": 4370,
      "æ±Ĺ": 4371,
      "ç¨Ģ": 4372,
      "éĢļéģĵ": 4373,
      "æĮº": 4374,
      "èĢĥå¯Ł": 4375,
      "çī©æĸĻ": 4376,
      "ä½ĵåĪ¶": 4377,
      "ç¨į": 4378,
      "éĢĤçĶ¨": 4379,
      "åĽ½æ°ĳ": 4380,
      "æ²ĥ": 4381,
      "åĲĦçº§": 4382,
      "æĻ°": 4383,
      "æĬĢå·§": 4384,
      "çłĶç©¶éĻ¢": 4385,
      "ä¸¤äºº": 4386,
      "åīª": 4387,
      "åį±å®³": 4388,
      "å®Ŀå®Ŀ": 4389,
      "åĴĮå¹³": 4390,
      "å¤©ç©º": 4391,
      "ä¿Ħç½Ĺæĸ¯": 4392,
      "åħ¨çľģ": 4393,
      "if": 4394,
      "çĶµåĻ¨": 4395,
      "åłµ": 4396,
      "IT": 4397,
      "éķ¿çļĦ": 4398,
      "è¯ķçĤ¹": 4399,
      "ç²īä¸Ŀ": 4400,
      "éĻ¢æł¡": 4401,
      "èħĶ": 4402,
      "çĤĴ": 4403,
      "éĤ»": 4404,
      "çĹħä¾ĭ": 4405,
      "æĻ¯åĮº": 4406,
      "å®¡æŁ¥": 4407,
      "èĪĴéĢĤ": 4408,
      "æĮ¤": 4409,
      "ãĢĭãĢĬ": 4410,
      "ä¼łæī¿": 4411,
      "äºĳåįĹ": 4412,
      "éŀĭ": 4413,
      "çĻ¾åĪĨ": 4414,
      "èĲ½åľ°": 4415,
      "èĮĥåĽ´åĨħ": 4416,
      "ç¦ıå»º": 4417,
      "æĪĴ": 4418,
      "æĬĢæľ¯çļĦ": 4419,
      "çĥŃæĥħ": 4420,
      "çĨĶ": 4421,
      "çĺ¤": 4422,
      "åľ°ä¸ĭ": 4423,
      "æľ¬ç§ĳ": 4424,
      "å¾ĹåĪ°äºĨ": 4425,
      "48": 4426,
      "ct": 4427,
      "æ°ĳä¼Ĺ": 4428,
      "çľĭçĿĢ": 4429,
      "åĻª": 4430,
      "ä¼łè¾ĵ": 4431,
      "ä¾¿æį·": 4432,
      "éĢļè®¯": 4433,
      "éĢīçĶ¨": 4434,
      "åĪºæ¿Ģ": 4435,
      "400": 4436,
      "å®īå¾½": 4437,
      "è¡¥åħħ": 4438,
      "HA": 4439,
      "èįĴ": 4440,
      "ä¸¤å¹´": 4441,
      "æľīä»Ģä¹Ī": 4442,
      "çĶµç¼Ĩ": 4443,
      "åĳ¨è¾¹": 4444,
      "å®īåħ¨æĢ§": 4445,
      "æĨ": 4446,
      "å®ŀä½ĵ": 4447,
      "æ°´æ³¥": 4448,
      "éĿŀæ³ķ": 4449,
      "ur": 4450,
      "åŁºåĽł": 4451,
      "çļĦæķ°æį®": 4452,
      "æŃ£è§Ħ": 4453,
      "æįŁå®³": 4454,
      "åħ¥åı£": 4455,
      "ä½©": 4456,
      "äººä½ĵ": 4457,
      "æ¯ģ": 4458,
      "åħ³èģĶ": 4459,
      "èī²çļĦ": 4460,
      "åĿĬ": 4461,
      "ä¿ĿçķĻ": 4462,
      "æĽ´æľī": 4463,
      "CO": 4464,
      "ç§ī": 4465,
      "çŃīçº§": 4466,
      "åıįå¯¹": 4467,
      "ä¸ĭè·Į": 4468,
      "ç¬¬ä¸Ģä¸ª": 4469,
      "ä¸Ģæī¹": 4470,
      "æķ´æĶ¹": 4471,
      "çİ°æľī": 4472,
      "å®ļä¹ī": 4473,
      "éĥ¨èĲ½": 4474,
      "æĿ¡æ¬¾": 4475,
      "åĪ¶éĢłä¸ļ": 4476,
      "æµ·åįĹ": 4477,
      "èģļçĦ¦": 4478,
      "ä¸ŃåĽ½çī¹èī²ç¤¾ä¼ļä¸»ä¹ī": 4479,
      "åŃ¦åĳĺ": 4480,
      "é«ĺè¾¾": 4481,
      "æ£ī": 4482,
      "ä¼¤å®³": 4483,
      "ä¸ĬéĿ¢": 4484,
      "åİĤåķĨ": 4485,
      "è¢Ń": 4486,
      "âĹ": 4487,
      "æ¼Ĥ": 4488,
      "æ¢¦æĥ³": 4489,
      "æĪĲçļĦ": 4490,
      "å¹¿è¥¿": 4491,
      "åĩ½": 4492,
      "èĢģå¹´": 4493,
      "çºªå¿µ": 4494,
      "èĢĮåľ¨": 4495,
      "ç¦»åŃĲ": 4496,
      "æľīåĵªäºĽ": 4497,
      "åĲĮæŃ¥": 4498,
      "èµĦè´¨": 4499,
      "åı£ç¢ĳ": 4500,
      "è½¬æį¢": 4501,
      "èĶ¬": 4502,
      "å¥ĳ": 4503,
      "å¾Īå¿«": 4504,
      "æĤ²": 4505,
      "ä¸´æĹ¶": 4506,
      "åĲ¸æĶ¶": 4507,
      "åĢ¡": 4508,
      "æĢ»ç»Ł": 4509,
      "äº§éĩı": 4510,
      "æľºåľº": 4511,
      "éģ¥": 4512,
      "æ»¨": 4513,
      "çĲĥåĳĺ": 4514,
      "ab": 4515,
      "çļĦçĶŁäº§": 4516,
      "ä¸īå¤§": 4517,
      "æī¶è´«": 4518,
      "åı¥è¯Ŀ": 4519,
      "çºº": 4520,
      "em": 4521,
      "çŁ©": 4522,
      "èį¯åĵģ": 4523,
      "å®ŀçİ°äºĨ": 4524,
      "è¿ĺèĥ½": 4525,
      "çļĦä¿¡æģ¯": 4526,
      "åŀ«": 4527,
      "æĽ´æį¢": 4528,
      "åģ¥åħ¨": 4529,
      "åĩī": 4530,
      "èµ´": 4531,
      "å¤ĸæ±ĩ": 4532,
      "éĩĩè®¿": 4533,
      "å£¤": 4534,
      "åİ»äºĨ": 4535,
      "çĸı": 4536,
      "æĭħä¿Ŀ": 4537,
      "äº©": 4538,
      "ç§įç±»": 4539,
      "èĭ±æĸĩ": 4540,
      "æĪĳä»¬åľ¨": 4541,
      "ä¼łéĢĴ": 4542,
      "é¥±": 4543,
      "æ©¡èĥ¶": 4544,
      "PS": 4545,
      "æľīçĤ¹": 4546,
      "åģ·": 4547,
      "æ¸¸å®¢": 4548,
      "çłĶç©¶çĶŁ": 4549,
      "çļĦåħ³éĶ®": 4550,
      "è¿ĺåľ¨": 4551,
      "æĿ¿åĿĹ": 4552,
      "åĩ¤": 4553,
      "å¨ĺ": 4554,
      "è½¬ç§»": 4555,
      "è§Ĥçľĭ": 4556,
      "è¾ħåĬ©": 4557,
      "ä¸Ī": 4558,
      "åķĨå®¶": 4559,
      "çł´ç¢İ": 4560,
      "èģĮè´£": 4561,
      "çº¿ä¸ĭ": 4562,
      "å½»åºķ": 4563,
      "èĻļæĭŁ": 4564,
      "å¹´é¾Ħ": 4565,
      "åģļäºĨ": 4566,
      "âĸ": 4567,
      "ĠU": 4568,
      "è¯ŀ": 4569,
      "æµ©": 4570,
      "ä¸Ģåľº": 4571,
      "ç¥¥": 4572,
      "å¥³åĦ¿": 4573,
      "åĲįåįķ": 4574,
      "ä¾¿æĺ¯": 4575,
      "éĻķè¥¿": 4576,
      "éģĵå¾·": 4577,
      "æľºéģĩ": 4578,
      "å¹¶éĿŀ": 4579,
      "æŁ¥çľĭ": 4580,
      "ä½ıå®ħ": 4581,
      "æĭ¨": 4582,
      "åŁĭ": 4583,
      "è®©ä½ł": 4584,
      "æĴ¤": 4585,
      "55": 4586,
      "èµ·åĪ°": 4587,
      "å·¨å¤§": 4588,
      "åĮºçļĦ": 4589,
      "è´«åĽ°": 4590,
      "86": 4591,
      "åħ¬çĽĬ": 4592,
      "æīĵåį°": 4593,
      "å²ģçļĦ": 4594,
      "è´µå·ŀ": 4595,
      "è¶³å¤Ł": 4596,
      "éĴ¢éĵģ": 4597,
      "å©´": 4598,
      "éĶ¡": 4599,
      "åįķåħĥ": 4600,
      "åľ°çļĦ": 4601,
      "æł¼å±Ģ": 4602,
      "ĠæĹ¥": 4603,
      "åħ±åĴĮåĽ½": 4604,
      "PC": 4605,
      "åıĺæĽ´": 4606,
      "æ¯Ķçī¹å¸ģ": 4607,
      "39": 4608,
      "çĨĬ": 4609,
      "åĮºåĿĹ": 4610,
      "é¥®é£Ł": 4611,
      "æıĲç¤º": 4612,
      "çļĦç¾İ": 4613,
      "åİĭç¼©": 4614,
      "èĳ¡": 4615,
      "çĮĽ": 4616,
      "æ°¸è¿ľ": 4617,
      "çļĦå¸Ĥåľº": 4618,
      "å¥Ķ": 4619,
      "åİŁåĪĽ": 4620,
      "è¯Ħè®º": 4621,
      "çĩĥçĥ§": 4622,
      "å¤©æ°Ķ": 4623,
      "åį°åº¦": 4624,
      "è§Ħå®ļçļĦ": 4625,
      "æĬ«éľ²": 4626,
      "è¾©": 4627,
      "åĮºåĪ«": 4628,
      "çľģçº§": 4629,
      "åĬŁçİĩ": 4630,
      "ç®Ģä»ĭ": 4631,
      "ä¸Ģç³»åĪĹ": 4632,
      "ä¹Łè®¸": 4633,
      "æĤŁ": 4634,
      "one": 4635,
      "LED": 4636,
      "çİĦ": 4637,
      "éĶ»": 4638,
      "å¤Ħç½ļ": 4639,
      "çŃ¾è®¢": 4640,
      "è¾ĥé«ĺ": 4641,
      "èĥľåĪ©": 4642,
      "æµ¸": 4643,
      "ä¹Łå°±": 4644,
      "å¤©çļĦ": 4645,
      "èº«è¾¹": 4646,
      "åįģåħ«": 4647,
      "åĨ·åį´": 4648,
      "è¶ħçº§": 4649,
      "46": 4650,
      "å¾¡": 4651,
      "åı¯æĮģç»Ń": 4652,
      "è¿Ľå±ķ": 4653,
      "åħ³å¿ĥ": 4654,
      "ç»ıæµİåıĳå±ķ": 4655,
      "çĵľ": 4656,
      "åĦ¿åŃĲ": 4657,
      "ç¦ģæŃ¢": 4658,
      "éĺ²çģ«": 4659,
      "åıĤæķ°": 4660,
      "çŁ¥è¯Ĩäº§æĿĥ": 4661,
      "èµ¢å¾Ĺ": 4662,
      "çĶŁåŃĺ": 4663,
      "ce": 4664,
      "ä¸Ģçº¿": 4665,
      "å½°": 4666,
      "è¡¨æ¼Ķ": 4667,
      "çŁŃæľŁ": 4668,
      "æ¯ķç«Ł": 4669,
      "åį¸": 4670,
      "æ¸ħçĲĨ": 4671,
      "çĨŁæĤī": 4672,
      "of": 4673,
      "åľ¨è¿Ļä¸ª": 4674,
      "æºª": 4675,
      "GB": 4676,
      "ä¹Łæ²¡æľī": 4677,
      "æİ¥è¿ĳ": 4678,
      "720": 4679,
      "èħ¿": 4680,
      "å®¡è®¡": 4681,
      "æııè¿°": 4682,
      "åıĳçĶµ": 4683,
      "æŃ¤åīį": 4684,
      "èĥĨ": 4685,
      "æĦŁæĥħ": 4686,
      "åĿĩåĮĢ": 4687,
      "æµħ": 4688,
      "çļĦä»·æł¼": 4689,
      "äººç¾¤": 4690,
      "åİŁæĿ¥": 4691,
      "çĶŁäº§çļĦ": 4692,
      "and": 4693,
      "çļĦéĢīæĭ©": 4694,
      "ä¿Ŀåħ»": 4695,
      "è¿ĺä¼ļ": 4696,
      "æĿĥå¨ģ": 4697,
      "çĽ´åĪ°": 4698,
      "æµıè§ĪåĻ¨": 4699,
      "å¯¹æ¯Ķ": 4700,
      "åĩºåĶ®": 4701,
      "èĤł": 4702,
      "å¿ĥéĩĮ": 4703,
      "æŃ¤æĹ¶": 4704,
      "åĪĩåī²": 4705,
      "åĩĢåĮĸ": 4706,
      "äººåĬĽ": 4707,
      "å°½éĩı": 4708,
      "èĴĤ": 4709,
      "èĥĥ": 4710,
      "150": 4711,
      "çĻ«": 4712,
      "æĢ»éĥ¨": 4713,
      "å¤§èµĽ": 4714,
      "èĩ³äºİ": 4715,
      "2008": 4716,
      "ä¹Ķ": 4717,
      "çķª": 4718,
      "é¢Ħç®Ĺ": 4719,
      "ä¸Ģæµģ": 4720,
      "ç»ŁçŃ¹": 4721,
      "èī²å½©": 4722,
      "åįİäºº": 4723,
      "é¦ĸé¡µ": 4724,
      "ind": 4725,
      "æ¶²åİĭ": 4726,
      "éĺ³åħī": 4727,
      "ãĢĭãĢĤ": 4728,
      "æ¡¥æ¢ģ": 4729,
      "æľ¬æľįåĬ¡": 4730,
      "çĪ±çļĦ": 4731,
      "è¯¾åłĤ": 4732,
      "æĪĲæķĪ": 4733,
      "åľ°éĿ¢": 4734,
      "ä¼ĺèī¯": 4735,
      "çī©åĵģ": 4736,
      "å½±çīĩ": 4737,
      "ç¡¬ä»¶": 4738,
      "æł¡éķ¿": 4739,
      "åıĤè§Ĥ": 4740,
      "ç§¯ç´¯": 4741,
      "åıĳçļĦ": 4742,
      "æĶ¾å¼ĥ": 4743,
      "æŁĲäºĽ": 4744,
      "å¼¥": 4745,
      "å®¶äºº": 4746,
      "çĿĽ": 4747,
      "ä¾Ľç»Ļ": 4748,
      "åĮĹäº¬å¸Ĥ": 4749,
      "å¼Ĥå¸¸": 4750,
      "è®¢åįķ": 4751,
      "é¤Ĳåİħ": 4752,
      "æ¼Ķåĳĺ": 4753,
      "æ¯ķä¸ļçĶŁ": 4754,
      "ä¿®å¤į": 4755,
      "åĲĮæľŁ": 4756,
      "çĶ¨æĿ¥": 4757,
      "å·¥äºº": 4758,
      "åģļçļĦ": 4759,
      "éªĳ": 4760,
      "çļĦä¸ĢäºĽ": 4761,
      "çŁĽ": 4762,
      "åŃ¦çĶŁçļĦ": 4763,
      "åĴĮç¤¾ä¼ļ": 4764,
      "åĽŀçŃĶ": 4765,
      "æĭĮ": 4766,
      "ä»£çłģ": 4767,
      "åİī": 4768,
      "æīįæĺ¯": 4769,
      "åĬ£": 4770,
      "åħ»æ®ĸ": 4771,
      "ç©Ĩ": 4772,
      "æ¡¶": 4773,
      "æĥ³æ³ķ": 4774,
      "ä¸»åĬŀ": 4775,
      "se": 4776,
      "ä¿Ĭ": 4777,
      "ç²¾åº¦": 4778,
      "åºĵåŃĺ": 4779,
      "ä¸Ńåįİæ°ĳæĹı": 4780,
      "ä¼ª": 4781,
      "éĢ»": 4782,
      "åīįå¾Ģ": 4783,
      "æ£®æŀĹ": 4784,
      "ä¼łæĦŁåĻ¨": 4785,
      "åĴĮåħ¶ä»ĸ": 4786,
      "å®ŀçĶ¨": 4787,
      "åŀĭçļĦ": 4788,
      "è¡°": 4789,
      "æľªç»ı": 4790,
      "æ¯ıæ¬¡": 4791,
      "éĩĬæĶ¾": 4792,
      "é¢Ĺç²Ĵ": 4793,
      "å½ĵå¹´": 4794,
      "ä¸ªäººèµĦæĸĻ": 4795,
      "äºĪä»¥": 4796,
      "æ²¦": 4797,
      "éĺ²æ°´": 4798,
      "æ¸ħæĻ°": 4799,
      "æĹłè®ºæĺ¯": 4800,
      "æĹº": 4801,
      "æĸ°åįİ": 4802,
      "æĪĳä»¬å°Ĩ": 4803,
      "åĲ«éĩı": 4804,
      "å¸ħ": 4805,
      "æ¡Ĩæŀ¶": 4806,
      "ph": 4807,
      "sh": 4808,
      "åĴ±": 4809,
      "åħ³éĹŃ": 4810,
      "ç»Īç«¯": 4811,
      "é¹ı": 4812,
      "æĤ¦": 4813,
      "è¯»èĢħ": 4814,
      "æİ¥ç§į": 4815,
      "é©¬åħĭ": 4816,
      "è´¢å¯Į": 4817,
      "ç®ĢåįķçļĦ": 4818,
      "é£İæľº": 4819,
      "æĶ»åĿļ": 4820,
      "ä¼ļçļĦ": 4821,
      "å®ŀåľ¨": 4822,
      "å¸Ĥåľºä¸Ĭ": 4823,
      "é¼»": 4824,
      "ä¼łç»ŁçļĦ": 4825,
      "æĻļä¸Ĭ": 4826,
      "è¾ĸ": 4827,
      "çľĭæĿ¥": 4828,
      "æ¸¡": 4829,
      "è¯ģæį®": 4830,
      "è´§çī©": 4831,
      "æĺ¯éĿŀå¸¸": 4832,
      "åĩŃåĢŁ": 4833,
      "åıł": 4834,
      "å½¹": 4835,
      "ç¥ŀç»ı": 4836,
      "åı°åĮĹ": 4837,
      "èľĤ": 4838,
      "è®¾å®ļ": 4839,
      "å·¥ä½ľä¸Ń": 4840,
      "å®¡æī¹": 4841,
      "78": 4842,
      "åħ¬å¹³": 4843,
      "éħįå¤ĩ": 4844,
      "æŁ´": 4845,
      "ä¸ĵçĶ¨": 4846,
      "ä»°": 4847,
      "æ°ĽåĽ´": 4848,
      "ĠO": 4849,
      "æĺ¯ä»¥": 4850,
      "å¹´åºķ": 4851,
      "éĢıéľ²": 4852,
      "410": 4853,
      "åħ¶æ¬¡": 4854,
      "å°Ĩäºİ": 4855,
      "åħįçĸ«": 4856,
      "éŃħ": 4857,
      "ä»ĸåľ¨": 4858,
      "æĥħæĦŁ": 4859,
      "åĪĿå¿ĥ": 4860,
      "åı¦ä¸Ģæĸ¹éĿ¢": 4861,
      "éģµå®Ī": 4862,
      "lo": 4863,
      "èĲĦ": 4864,
      "åħļå»º": 4865,
      "éĶĢéĩı": 4866,
      "æĢ§è´¨": 4867,
      "æľĢå¥½çļĦ": 4868,
      "æıĲåĩºäºĨ": 4869,
      "èľľ": 4870,
      "çĽ¸åºĶçļĦ": 4871,
      "App": 4872,
      "åĮ¹": 4873,
      "æµ¦": 4874,
      "è¿Ļæ¬¾": 4875,
      "æĺİæĺŁ": 4876,
      "ä¾Ŀæīĺ": 4877,
      "åħħåĪĨåıĳæĮ¥": 4878,
      "äººä¸º": 4879,
      "å¯¹åħ¶": 4880,
      "åĳ¨åĽ´": 4881,
      "èĢ¶": 4882,
      "çĹ«": 4883,
      "æħĪ": 4884,
      "èĲ¥éĢł": 4885,
      "èĢķ": 4886,
      "åŃ¦èĢħ": 4887,
      "åĩºåıĳ": 4888,
      "ç¾İæľ¯": 4889,
      "av": 4890,
      "çļĦåİĨåı²": 4891,
      "æĽ´é«ĺ": 4892,
      "å·¥ç¨ĭå¸Ī": 4893,
      "åį°åĪ·": 4894,
      "è¿Ļç±»": 4895,
      "ä¸ĭäºĨ": 4896,
      "ä»ĸè¯´": 4897,
      "èį£èªī": 4898,
      "éĤ®ä»¶": 4899,
      "éĢ¼": 4900,
      "çĶµåİĭ": 4901,
      "éķ¿æĹ¶éĹ´": 4902,
      "å±±è¥¿": 4903,
      "AC": 4904,
      "è®²è§£": 4905,
      "æĲŃå»º": 4906,
      "è®¤å®ļ": 4907,
      "çĶŁæĢģçİ¯å¢ĥ": 4908,
      "ä¸Ģæĸ¹éĿ¢": 4909,
      "ir": 4910,
      "æ¬ł": 4911,
      "æĥħå½¢": 4912,
      "äº§èĥ½": 4913,
      "èĢĮä¸į": 4914,
      "èĬ³": 4915,
      "å¼ºå¤§çļĦ": 4916,
      "EO": 4917,
      "Ġ0": 4918,
      "ĠæľĪ": 4919,
      "çļĦèĥ½åĬĽ": 4920,
      "å¯¹æİ¥": 4921,
      "éĹ´çļĦ": 4922,
      "æĪĸåħ¶ä»ĸ": 4923,
      "æµ·æ´ĭ": 4924,
      "å°Ĩåħ¶": 4925,
      "åı¯è§ģ": 4926,
      "å®¶éĩĮ": 4927,
      "æīĢéľĢ": 4928,
      "å¼Ħ": 4929,
      "åŃ¦åİĨ": 4930,
      "éĢīä¸¾": 4931,
      "å®Įç¾İ": 4932,
      "åĵįåºĶ": 4933,
      "æ¿ĢåĬ±": 4934,
      "600": 4935,
      "åīįè¿Ľ": 4936,
      "å¼ºçĥĪ": 4937,
      "éª¤": 4938,
      "åľŁå£¤": 4939,
      "å¼ºå¤§": 4940,
      "å°Ŀè¯ķ": 4941,
      "é«ĺäºİ": 4942,
      "äºĶå¹´": 4943,
      "ä¹Łå¾Ī": 4944,
      "çļĦè§Ħå®ļ": 4945,
      "è´¤": 4946,
      "çī©ä¸ļ": 4947,
      "ä¼ĳéĹ²": 4948,
      "æ¸£": 4949,
      "è¾¾æĪĲ": 4950,
      "æĮ¯åħ´": 4951,
      "æĿŃå·ŀ": 4952,
      "å¥¹ä»¬": 4953,
      "å°¼æĸ¯": 4954,
      "om": 4955,
      "è¾ĥä½İ": 4956,
      "èĢģäºº": 4957,
      "49": 4958,
      "åĪ°è¾¾": 4959,
      "æĿ¡ä¾ĭ": 4960,
      "çļĦåŁºæľ¬": 4961,
      "åĪĨç¦»": 4962,
      "æĦıå¤ĸ": 4963,
      "çº¿è·¯": 4964,
      "ç«ŀäºīåĬĽ": 4965,
      "è¾ħå¯¼": 4966,
      "æĸ°åĨłèĤºçĤİ": 4967,
      "æķ¦": 4968,
      "çĶ¨æĪ·çļĦ": 4969,
      "éĿĴæĺ¥": 4970,
      "æĭħå½ĵ": 4971,
      "ä¹ĭä¸ĭ": 4972,
      "è¯´çļĦ": 4973,
      "æīĵåĩ»": 4974,
      "ong": 4975,
      "å¤ļå®¶": 4976,
      "ä¸ĭåİ»": 4977,
      "åįłæ¯Ķ": 4978,
      "çĵ£": 4979,
      "æĺ¯æľī": 4980,
      "åŃ¤": 4981,
      "æ¡Ĥ": 4982,
      "æľįåĬ¡åĻ¨": 4983,
      "é¥²": 4984,
      "å¤§éĩıçļĦ": 4985,
      "TEC": 4986,
      "çŁĽçĽ¾": 4987,
      "ä¼ĺåħĪ": 4988,
      "æĪ¿äº§": 4989,
      "åĵªå®¶": 4990,
      "è¡¥è´´": 4991,
      "åıĸå¾ĹäºĨ": 4992,
      "æĺ¯æĪĳ": 4993,
      "é¡¹çĽ®çļĦ": 4994,
      "å®¢æĪ·çļĦ": 4995,
      "èĵĦ": 4996,
      "å°Ĭéĩį": 4997,
      "åıĳåĬ¨æľº": 4998,
      "å§ľ": 4999,
      "å½¢æĢģ": 5000,
      "å·¨å¤§çļĦ": 5001,
      "åĢºåĬ¡": 5002,
      "ç«ŁçĦ¶": 5003,
      "ip": 5004,
      "å®¶å±ħ": 5005,
      "è£ķ": 5006,
      "ç§ĳæĬĢæľīéĻĲåħ¬åı¸": 5007,
      "æķ´è½¦": 5008,
      "æĮĩæĮ¥": 5009,
      "åŁºç¡Ģè®¾æĸ½": 5010,
      "æīĭç»Ń": 5011,
      "èİ·å¾ĹäºĨ": 5012,
      "èĦ±è´«": 5013,
      "æħ¢æħ¢": 5014,
      "ie": 5015,
      "ä¸Ģä½ĵåĮĸ": 5016,
      "æĽ´å¥½åľ°": 5017,
      "åĴĮè°Ĳ": 5018,
      "åħ¨å¸Ĥ": 5019,
      "æľįè£ħ": 5020,
      "å½±è§Ĩ": 5021,
      "çº³åħ¥": 5022,
      "åħ¨æĸ¹ä½į": 5023,
      "éĢłåŀĭ": 5024,
      "å¹²åĩĢ": 5025,
      "å®ĹæĹ¨": 5026,
      "å·¥èµĦ": 5027,
      "é«ĺä¸Ń": 5028,
      "æľ¬ç«łç¨ĭ": 5029,
      "æĹ¥æĬ¥": 5030,
      "ä¸įèī¯": 5031,
      "äº¤æĺĵæīĢ": 5032,
      "è¿Ļå°±æĺ¯": 5033,
      "äº¤æį¢": 5034,
      "çĪ±æĥħ": 5035,
      "è¿ĩçļĦ": 5036,
      "çĿĢåĬĽ": 5037,
      "ä½Ĩåľ¨": 5038,
      "å±ħä½ı": 5039,
      "éĺ¶çº§": 5040,
      "å¤§æ¦Ĥ": 5041,
      "ä¹ĭè·¯": 5042,
      "å§¿": 5043,
      "èħ¾è®¯": 5044,
      "å¹¿åľº": 5045,
      "ç½ĳç«ĻçļĦ": 5046,
      "èģĮåĬ¡": 5047,
      "è¿Ĳä½ľ": 5048,
      "æĢĴ": 5049,
      "æĪĳæĥ³": 5050,
      "åĲĦèĩª": 5051,
      "æłĳç«ĭ": 5052,
      "ET": 5053,
      "åıĳè¨Ģ": 5054,
      "2009": 5055,
      "ä»¥ä¸ĭç®Ģç§°": 5056,
      "åĲĦä½į": 5057,
      "æĻºèĥ½åĮĸ": 5058,
      "æľīæĹ¶": 5059,
      "åįİä¸º": 5060,
      "çĶŁæ´»çļĦ": 5061,
      "å¾®åįļ": 5062,
      "éĺ¿éĩĮ": 5063,
      "åĢºåĪ¸": 5064,
      "æľŁçļĦ": 5065,
      "çļĦåŁºç¡Ģä¸Ĭ": 5066,
      "é¸£": 5067,
      "åĩºåİ»": 5068,
      "æĬķç¥¨": 5069,
      "å¦ĤæŀľæĤ¨": 5070,
      "åŀĭåı·": 5071,
      "èĩ£": 5072,
      "éĥ¨ä½į": 5073,
      "æĶ¯åĩº": 5074,
      "è®¾è®¡å¸Ī": 5075,
      "èħ¹": 5076,
      "çŃĶæ¡Ī": 5077,
      "å¤ļå°ĳéĴ±": 5078,
      "å¯ĨåĪĩ": 5079,
      "èĤ©": 5080,
      "çŃīå¥ĸ": 5081,
      "èĥģ": 5082,
      "èŀįåħ¥": 5083,
      "iP": 5084,
      "æĸľ": 5085,
      "å¼Ģåħ³": 5086,
      "çļĦåħ¬åı¸": 5087,
      "å¯¹æīĭ": 5088,
      "éĶĲ": 5089,
      "æĤł": 5090,
      "ä¸Ģä½ĵçļĦ": 5091,
      "åıĺå½¢": 5092,
      "å¤§çº¦": 5093,
      "åĨħå¤ĸ": 5094,
      "æĽĿ": 5095,
      "æ»ĭ": 5096,
      "åįıä½ľ": 5097,
      "å±ĤéĿ¢": 5098,
      "çļĦä¸ĵä¸ļ": 5099,
      "ãĢĤï¼Į": 5100,
      "ä¸įéľĢè¦ģ": 5101,
      "ä¸Ĭå¸Ĥåħ¬åı¸": 5102,
      "ID": 5103,
      "åĮºåĿĹéĵ¾": 5104,
      "ä¸¢": 5105,
      "éĤ£æł·": 5106,
      "æµģè¡Į": 5107,
      "éĺ²æ²»": 5108,
      "è¡¥åģ¿": 5109,
      "æĳĦå½±": 5110,
      "ä»¥å¤ĸ": 5111,
      "åĽłèĢĮ": 5112,
      "èĢĥåı¤é¢ĺ": 5113,
      "æ¶Į": 5114,
      "ç®¡çĲĨäººåĳĺ": 5115,
      "æĲħ": 5116,
      "å¯º": 5117,
      "ä¸īæĺ¯": 5118,
      "ç«ŀèµĽ": 5119,
      "çºªå½ķ": 5120,
      "é«ĺè´¨éĩıåıĳå±ķ": 5121,
      "åľ°çĤ¹": 5122,
      "æłĳèĦĤ": 5123,
      "æĹĹä¸ĭ": 5124,
      "çļĦè¿ĩç¨ĭä¸Ń": 5125,
      "çĻ«çĹ«": 5126,
      "åĴĮæľįåĬ¡": 5127,
      "ç»Ļå¤§å®¶": 5128,
      "ä¸Ńåįİäººæ°ĳ": 5129,
      "ç°": 5130,
      "çļĦä¸Ń": 5131,
      "ä¸įä½Ĩ": 5132,
      "åĬłæĭ¿": 5133,
      "ä¿ĿåŃĺ": 5134,
      "æ°ĶåĢĻ": 5135,
      "æīŃ": 5136,
      "ç§©": 5137,
      "éħįä»¶": 5138,
      "è¯±": 5139,
      "å§»": 5140,
      "è¥¿å®ī": 5141,
      "åĲ«æľī": 5142,
      "å¹½": 5143,
      "æľªæĿ¥çļĦ": 5144,
      "æ¶ĤæĸĻ": 5145,
      "èĳ¡èĲĦ": 5146,
      "ä¿¡ä»»": 5147,
      "ä¸įä¸Ģæł·": 5148,
      "éĥ¨éķ¿": 5149,
      "ç»Ļä½ł": 5150,
      "ç©·": 5151,
      "ä¸ľæĸ¹": 5152,
      "æ£ĭ": 5153,
      "HANA": 5154,
      "çĶ»éĿ¢": 5155,
      "äº§çī©": 5156,
      "å¯¼åĲĳ": 5157,
      "è¢«åĳĬ": 5158,
      "çľģå§Ķ": 5159,
      "çļĦè´¨éĩı": 5160,
      "æĢ»è£ģ": 5161,
      "åĨ³èµĽ": 5162,
      "HANATEC": 5163,
      "æĥĳ": 5164,
      "ä¹¦éĿ¢": 5165,
      "åį°è±¡": 5166,
      "æī©å±ķ": 5167,
      "å¯ĵ": 5168,
      "æģ°": 5169,
      "è§Ĥå¿µ": 5170,
      "å¤±è´¥": 5171,
      "èĶ¡": 5172,
      "æ¶Īæ¯Ĵ": 5173,
      "çĬ¹": 5174,
      "ç§©åºı": 5175,
      "è¯Ī": 5176,
      "è¿Ŀè§Ħ": 5177,
      "åı¯ä»¥è¯´": 5178,
      "çĶ±æŃ¤": 5179,
      "åįĥä¸ĩ": 5180,
      "çĪ¸çĪ¸": 5181,
      "çĲĨçĶ±": 5182,
      "æĢĿè·¯": 5183,
      "éĢıæĺİ": 5184,
      "Ġ7": 5185,
      "æİ¥ä¸ĭæĿ¥": 5186,
      "çľ¼çĿĽ": 5187,
      "çĪ½": 5188,
      "BA": 5189,
      "å¼ĺ": 5190,
      "è¾£": 5191,
      "åıĸæ¶Ī": 5192,
      "éĹ¹": 5193,
      "éĥģ": 5194,
      "æ·Ģ": 5195,
      "è§Ħå¾ĭ": 5196,
      "å¯¼æ¼Ķ": 5197,
      "å¿ħçĦ¶": 5198,
      "çĶ·åŃĲ": 5199,
      "ap": 5200,
      "å°ıåŃ¦": 5201,
      "ç®Ĺæĺ¯": 5202,
      "åł¡": 5203,
      "æľīåĪ©äºİ": 5204,
      "ub": 5205,
      "ä¸ºå¤§å®¶": 5206,
      "åĿĳ": 5207,
      "ä¼łå¥ĩ": 5208,
      "çĲĨè´¢": 5209,
      "èĤĿ": 5210,
      "èĶ¬èıľ": 5211,
      "07": 5212,
      "æŀĿ": 5213,
      "æľ¬åľ°": 5214,
      "æľŁéĻĲ": 5215,
      "éļĶç¦»": 5216,
      "å¤§åŃ¦çĶŁ": 5217,
      "äºĮæīĭ": 5218,
      "èħ°": 5219,
      "åįļçī©": 5220,
      "è¿Ļä¹Łæĺ¯": 5221,
      "è½¬è®©": 5222,
      "ç¼ĸåĪ¶": 5223,
      "æľ¬ä¹¦": 5224,
      "æ¿Ģåħī": 5225,
      "ĠV": 5226,
      "è®²è¿°": 5227,
      "æ°¨": 5228,
      "ä¹Łå°Ĩ": 5229,
      "æ³ķå®ļ": 5230,
      "çľĭè§ģ": 5231,
      "åľ°çĲĥ": 5232,
      "åĪ«çļĦ": 5233,
      "åĿĩä¸º": 5234,
      "ç§ĺä¹¦": 5235,
      "æĺĤ": 5236,
      "åĲįä¸º": 5237,
      "åħļä¸Ńå¤®": 5238,
      "å¥ĸåĬ±": 5239,
      "éī´å®ļ": 5240,
      "åĩºçĶŁ": 5241,
      "èĩªè§ī": 5242,
      "èĪŁ": 5243,
      "éĩįéĩı": 5244,
      "å¤ĸè§Ĥ": 5245,
      "æĬ¤çĲĨ": 5246,
      "å¯Ĩçłģ": 5247,
      "çľŁæŃ£çļĦ": 5248,
      "ĠãĢĤ": 5249,
      "ä¸Ļ": 5250,
      "ç¡®è¯Ĭ": 5251,
      "è¡£æľį": 5252,
      "ä¸Ńåįİäººæ°ĳåħ±åĴĮåĽ½": 5253,
      "çĶµç«ŀ": 5254,
      "ç¿¼": 5255,
      "æĸĹäºī": 5256,
      "åİ¢": 5257,
      "æļ¨": 5258,
      "æĪĲç«ĭäºİ": 5259,
      "58": 5260,
      "åĨ¶": 5261,
      "åīĬ": 5262,
      "åĲĪå¹¶": 5263,
      "ä¸ªäººä¿¡æģ¯": 5264,
      "ç´§å¼ł": 5265,
      "éĢĬ": 5266,
      "æ³¢åĬ¨": 5267,
      "å§ĵåĲį": 5268,
      "è¿Ľç¨ĭ": 5269,
      "ä¹Łåı¯": 5270,
      "å¸Ĥå§Ķ": 5271,
      "çĶµè·¯": 5272,
      "æķ´æ²»": 5273,
      "åıī": 5274,
      "çĤ¹çļĦ": 5275,
      "åĮ»å¸Ī": 5276,
      "æ¨¡åħ·": 5277,
      "um": 5278,
      "æĪĳåħ¬åı¸": 5279,
      "è®°å¿Ĩ": 5280,
      "æĻ¯è§Ĥ": 5281,
      "åģ¥èº«": 5282,
      "åĲĪä½ľä¼Ļä¼´": 5283,
      "ä¸ºå®¢æĪ·": 5284,
      "æ³ķæ²»": 5285,
      "ä¸īè§Ĵ": 5286,
      "è´¯å½»èĲ½å®ŀ": 5287,
      "èŁ": 5288,
      "èĬĤçº¦": 5289,
      "æıĲé«ĺäºĨ": 5290,
      "çŀ¬": 5291,
      "ä¸Ģä»½": 5292,
      "2022": 5293,
      "éĩįçļĦ": 5294,
      "æĮĳéĢī": 5295,
      "å¤ļäºĨ": 5296,
      "ç®Ń": 5297,
      "éªĮè¯ģ": 5298,
      "PP": 5299,
      "æľīåºı": 5300,
      "éĩįå¤į": 5301,
      "æ°´çļĦ": 5302,
      "è¯ĬæĸŃ": 5303,
      "68": 5304,
      "çľł": 5305,
      "çĶµæµģ": 5306,
      "èī³": 5307,
      "çĽ¸ç»ĵåĲĪ": 5308,
      "æľŁæľĽ": 5309,
      "åįģä¸Ģ": 5310,
      "æľīæĿĥ": 5311,
      "åŃ¦ä½į": 5312,
      "çļĦç®¡çĲĨ": 5313,
      "å¯¹åºĶ": 5314,
      "ç³Ĭ": 5315,
      "èĲ§": 5316,
      "ï¼į": 5317,
      "æĽ¹": 5318,
      "çĶµæ°Ķ": 5319,
      "ä¿¡èªī": 5320,
      "æķĪåºĶ": 5321,
      "ä¸įå®¹æĺĵ": 5322,
      "åįģäºĶ": 5323,
      "åĽ½å®¶çļĦ": 5324,
      "ä¸ĬåįĬå¹´": 5325,
      "æĸ¹çļĦ": 5326,
      "è¦ģç´ł": 5327,
      "å»Ĭ": 5328,
      "åģļæ³ķ": 5329,
      "æŀ¶æŀĦ": 5330,
      "è¾½å®ģ": 5331,
      "od": 5332,
      "è§Ĩä¸º": 5333,
      "ä¸Ńæľī": 5334,
      "å°ıåĮº": 5335,
      "æĹłéľĢ": 5336,
      "éĤ£éĩĮ": 5337,
      "æ¼Ķåĩº": 5338,
      "æįŁåĿı": 5339,
      "ä¸įå¿ĺ": 5340,
      "æĸ°çĸĨ": 5341,
      "åĲĦå¤§": 5342,
      "èĪŀåı°": 5343,
      "çļĦæķĪæŀľ": 5344,
      "å½ĵå¤©": 5345,
      "åĵªä¸ª": 5346,
      "åĨĽäºĭ": 5347,
      "éĢĶå¾Ħ": 5348,
      "yam": 5349,
      "å¢ŀéĢŁ": 5350,
      "å±ıå¹ķ": 5351,
      "åıįé¦Ī": 5352,
      "æĪĲä¸ºäºĨ": 5353,
      "éĢ»è¾ĳ": 5354,
      "ä¸ļä¸»": 5355,
      "çĶ¨åĵģ": 5356,
      "å¢ŀåĬłäºĨ": 5357,
      "%ãĢģ": 5358,
      "ä¸Ĭçº¿": 5359,
      "âĢĿï¼Ī": 5360,
      "æĹ¥èĩ³": 5361,
      "å¼ıçļĦ": 5362,
      "çĸ¯": 5363,
      "ç¼¸": 5364,
      "èµ°åĲĳ": 5365,
      "å¦Ĥä¸ĭ": 5366,
      "çľŁç©º": 5367,
      "ä¾ĽåºĶéĵ¾": 5368,
      "çļĦç²¾ç¥ŀ": 5369,
      "å¾Īå®¹æĺĵ": 5370,
      "èĪªå¤©": 5371,
      "ut": 5372,
      "çŃīå¾ħ": 5373,
      "çī©èµĦ": 5374,
      "æ°ĳéĹ´": 5375,
      "æĹħè¡Į": 5376,
      "ç¨İåĬ¡": 5377,
      "å¹¼åĦ¿åĽŃ": 5378,
      "çļĦçĽ¸åħ³": 5379,
      "åħĳ": 5380,
      "åĲĲ": 5381,
      "éĢ¾": 5382,
      "çħ§æĺİ": 5383,
      "åħħçĶµ": 5384,
      "èĩŃ": 5385,
      "çļĦä¸ľè¥¿": 5386,
      "æĺ¯å¯¹": 5387,
      "ä¾Ŀèµĸ": 5388,
      "åłª": 5389,
      "å±±ä¸ľçľģ": 5390,
      "ä¸Ģä¸ªäºº": 5391,
      "è·¯çº¿": 5392,
      "æĪ¿éĹ´": 5393,
      "å©ļå§»": 5394,
      "çļĦçİ¯å¢ĥ": 5395,
      "äºŃ": 5396,
      "å¨ľ": 5397,
      "op": 5398,
      "åĩºåı°": 5399,
      "æķĻç»ĥ": 5400,
      "ç©¶ç«Ł": 5401,
      "æķ°æį®æĺ¾ç¤º": 5402,
      "ation": 5403,
      "47": 5404,
      "éļĲç§ģ": 5405,
      "ç¬¬äºĶ": 5406,
      "å¾ģæ±Ĥ": 5407,
      "èµĶåģ¿": 5408,
      "çĥŃçĤ¹": 5409,
      "ä¾¿å®ľ": 5410,
      "æī¿åĮħ": 5411,
      "ä¸ĸçķĮä¸Ĭ": 5412,
      "ç¿»è¯ĳ": 5413,
      "ï¼Įî": 5414,
      "æī®": 5415,
      "äººå¤§": 5416,
      "é¢ĸ": 5417,
      "éĿ¢åīį": 5418,
      "æ¬º": 5419,
      "åĳ½è¿Ĳ": 5420,
      "56": 5421,
      "æ°®": 5422,
      "å¿Į": 5423,
      "ä¾ĿéĿł": 5424,
      "03": 5425,
      "ĠãĢĲ": 5426,
      "å°±æľī": 5427,
      "å¯Ĩåº¦": 5428,
      "éĻµ": 5429,
      "å¤ĸéĥ¨": 5430,
      "åĲĦåĽ½": 5431,
      "åİŁæľ¬": 5432,
      "åĽ¾ä¹¦": 5433,
      "ç§ĳæĬĢåĪĽæĸ°": 5434,
      "åĢŁæ¬¾": 5435,
      "å¤ļå¹´çļĦ": 5436,
      "è½¦åŀĭ": 5437,
      "è¡Ĺéģĵ": 5438,
      "å¥³å£«": 5439,
      "éļľç¢į": 5440,
      "çĩķ": 5441,
      "å¨ģèĥģ": 5442,
      "é¢Ī": 5443,
      "æĸ°åħ´": 5444,
      "çĹķ": 5445,
      "æİ¥åı£": 5446,
      "åĽ¾åĥı": 5447,
      "çĶŁæĦı": 5448,
      "èĤ¡ä»·": 5449,
      "éĺ²çĸ«": 5450,
      "èĢģæĿ¿": 5451,
      "æĭĽæłĩ": 5452,
      "åĬłæĭ¿å¤§": 5453,
      "åħ¨ä¼ļ": 5454,
      "åı¯ä»¥éĢļè¿ĩ": 5455,
      "å¸¸å¸¸": 5456,
      "éĻĲäºİ": 5457,
      "çİ°åľ¨çļĦ": 5458,
      "çĭ¬ç«ĭèĳ£äºĭ": 5459,
      "èµļéĴ±": 5460,
      "å¼Ĺ": 5461,
      "å¤§å¸Ī": 5462,
      "ä¸Ĭä¸Ģ": 5463,
      "æĦıå¤§åĪ©": 5464,
      "å¿«éĢĴ": 5465,
      "å²Ń": 5466,
      "120": 5467,
      "èµ«": 5468,
      "æĹ¥åŃĲ": 5469,
      "æĲľç´¢å¼ķæĵİ": 5470,
      "åĴ±ä»¬": 5471,
      "ä¸¸": 5472,
      "åĲĮä¸Ģ": 5473,
      "éļĻ": 5474,
      "èµ°åĬ¿": 5475,
      "åŃ¦ä¹łæķĻèĤ²": 5476,
      "äºĭå®ŀä¸Ĭ": 5477,
      "çļĦçłĶç©¶": 5478,
      "åĵŃ": 5479,
      "åīįæĻ¯": 5480,
      "äºıæįŁ": 5481,
      "çŃĸåĪĴ": 5482,
      "æ¶¦æ»ĳ": 5483,
      "åĪĨåĪ«ä¸º": 5484,
      "å¹´è½»äºº": 5485,
      "é©¬åħĭæĢĿ": 5486,
      "ä¼Ĳ": 5487,
      "çĽ²": 5488,
      "éĿĴå²Ľ": 5489,
      "æĲ¬å®¶": 5490,
      "æĭ³": 5491,
      "ĠK": 5492,
      "01": 5493,
      "å·¥åķĨ": 5494,
      "æĹłçĸĳ": 5495,
      "çłĶè®¨": 5496,
      "åĬŀåŃ¦": 5497,
      "ç´§å¯Ĩ": 5498,
      "43": 5499,
      "çº²": 5500,
      "èµ·äºĨ": 5501,
      "å°ĳæķ°": 5502,
      "å¥³åŃ©": 5503,
      "åİĨç¨ĭ": 5504,
      "å®¡è®®": 5505,
      "éĨĩ": 5506,
      "ä¸įå¾Ĺä¸į": 5507,
      "éļĲæĤ£": 5508,
      "å¹³æĹ¶": 5509,
      "æĺ¾çĦ¶": 5510,
      "çĻ¾å§ĵ": 5511,
      "çĽĳäºĭä¼ļ": 5512,
      "æĪĳåľ¨": 5513,
      "é¼ł": 5514,
      "æĬĵä½ı": 5515,
      "98": 5516,
      "æīĩ": 5517,
      "å¸¦æĿ¥äºĨ": 5518,
      "åı£ç½©": 5519,
      "å³¡": 5520,
      "ä¸ļåĨħ": 5521,
      "åŁŁåĲį": 5522,
      "æ¤ħ": 5523,
      "ian": 5524,
      "æħ°": 5525,
      "åķ¦": 5526,
      "åĨįçĶŁ": 5527,
      "çłĶç©¶æīĢ": 5528,
      "æĽ¿ä»£": 5529,
      "éļ¾åº¦": 5530,
      "çķĮéĿ¢": 5531,
      "åħ³éĶ®è¯į": 5532,
      "ä»¥ä¾¿": 5533,
      "åĲİæľŁ": 5534,
      "å¼Ģæĭĵ": 5535,
      "åĬłå¯Ĩ": 5536,
      "æ°ĳçĶŁ": 5537,
      "è½¦éĹ´": 5538,
      "æ´»æĢ§": 5539,
      "æłĩçŃ¾": 5540,
      "ä¸ľåĮĹ": 5541,
      "åĽŀæĬ¥": 5542,
      "åį¢": 5543,
      "æŁı": 5544,
      "ç¾İå®¹": 5545,
      "æĶ¶èİ·": 5546,
      "åĽ¢ä½ĵ": 5547,
      "æ°¯": 5548,
      "äºĮæ¬¡": 5549,
      "å¸ĪçĶŁ": 5550,
      "å½ķåıĸ": 5551,
      "åĤħ": 5552,
      "ä¸įå¼Ģ": 5553,
      "æĪĳä»¬è¦ģ": 5554,
      "æ´»åĬĽ": 5555,
      "ç²¾åĵģ": 5556,
      "çĶ·äºº": 5557,
      "ob": 5558,
      "å®¶æĹı": 5559,
      "è§£æĶ¾": 5560,
      "é¥¼": 5561,
      "åģľè½¦": 5562,
      "AS": 5563,
      "åĲİç»Ń": 5564,
      "å¹³å®ī": 5565,
      "çĥ¤": 5566,
      "çĶŁäº§çº¿": 5567,
      "è½´æī¿": 5568,
      "ä¸§": 5569,
      "åı¹": 5570,
      "ç»³": 5571,
      "æ°¢": 5572,
      "æľĢéĩįè¦ģ": 5573,
      "æ³¨æĺİ": 5574,
      "é¸Ń": 5575,
      "åįļçī©é¦Ĩ": 5576,
      "æĪĳæĺ¯": 5577,
      "çĪ¬": 5578,
      "ä¸ºä½ķ": 5579,
      "åİĮ": 5580,
      "ä¸İæŃ¤": 5581,
      "å¾Īæľī": 5582,
      "è¯¥åħ¬åı¸": 5583,
      "ä¾Ŀçħ§": 5584,
      "é¢ĩ": 5585,
      "æ¡ĳ": 5586,
      "ç¨³å®ļæĢ§": 5587,
      "ul": 5588,
      "ä¿±ä¹Ĳ": 5589,
      "å®¹éĩı": 5590,
      "è®¾è®¡çļĦ": 5591,
      "ä¸¾æİª": 5592,
      "åħĦå¼Ł": 5593,
      "èĤĸ": 5594,
      "æĹ¥çĽĬ": 5595,
      "åİŁæĿĲæĸĻ": 5596,
      "æ¶ĪèĢĹ": 5597,
      "é¾Ļå¤´": 5598,
      "å°½å¿«": 5599,
      "æµ´": 5600,
      "æ£Ģå¯Ł": 5601,
      "äº§ä¸ļåıĳå±ķ": 5602,
      "ä¿±ä¹Ĳéĥ¨": 5603,
      "æĹłéĻĲ": 5604,
      "ç¢±": 5605,
      "åģĩå¦Ĥ": 5606,
      "åħ±æľī": 5607,
      "è´º": 5608,
      "æĬĸ": 5609,
      "çİ°çĬ¶": 5610,
      "å®¢æľį": 5611,
      "æĴŃæĶ¾": 5612,
      "æ¿ĢçĥĪ": 5613,
      "åıĳå¸ĥçļĦ": 5614,
      "ç«Ļåľ¨": 5615,
      "åĽŀæĿ¥": 5616,
      "åŁİä¹¡": 5617,
      "ç»ĻäºĨ": 5618,
      "âĢķ": 5619,
      "èĩªä¿¡": 5620,
      "å¥¥è¿Ĳ": 5621,
      "æĮĸæİĺ": 5622,
      "åĲĪçº¦": 5623,
      "æ¨¡æĿ¿": 5624,
      "Ġm": 5625,
      "åĿª": 5626,
      "çī¹å®ļ": 5627,
      "ia": 5628,
      "å¥Ī": 5629,
      "å§ĳ": 5630,
      "åŁİéķĩ": 5631,
      "èĩªæ²»åĮº": 5632,
      "ä¹Łä¸įä¼ļ": 5633,
      "åµ": 5634,
      "ä¸įå¤ļ": 5635,
      "æ´»åĬ¨çļĦ": 5636,
      "ä»ĭè´¨": 5637,
      "åĪļåĪļ": 5638,
      "çĽĨ": 5639,
      "198": 5640,
      "åŃ©åŃĲçļĦ": 5641,
      "å½¢æĪĲäºĨ": 5642,
      "ä¸ºæŃ¤": 5643,
      "åĬ©äºİ": 5644,
      "éĴ¢ç®¡": 5645,
      "US": 5646,
      "æĮĩç¤º": 5647,
      "çĸ¼": 5648,
      "å·®è·Ŀ": 5649,
      "å½©ç¥¨": 5650,
      "ä»Ķç»Ĩ": 5651,
      "64": 5652,
      "èĤ¾": 5653,
      "æľ¬è´¨": 5654,
      "è¿ľç¨ĭ": 5655,
      "åħĪè¿ĽçļĦ": 5656,
      "ä¸įæĥ³": 5657,
      "æĹ¥æľŁ": 5658,
      "çĸ²": 5659,
      "æŃ¥éª¤": 5660,
      "çĽĳå¯Ł": 5661,
      "æĢ»é¢Ŀ": 5662,
      "çļĦåıĺåĮĸ": 5663,
      "è½¨éģĵ": 5664,
      "ä¿¡å¿µ": 5665,
      "ä½Ĩä¸į": 5666,
      "åŁºæľ¬ä¸Ĭ": 5667,
      "çľĭèµ·æĿ¥": 5668,
      "é©°": 5669,
      "æĲħæĭĮ": 5670,
      "èĦĨ": 5671,
      "ç¡ķå£«": 5672,
      "çļĦç¤¾ä¼ļ": 5673,
      "å®¢è§Ĥ": 5674,
      "åĭĥ": 5675,
      "æĺ¥èĬĤ": 5676,
      "å¸¸è§ģçļĦ": 5677,
      "åľ°çĲĨ": 5678,
      "è´§è½¦": 5679,
      "é¼İ": 5680,
      "çħ¤çĤŃ": 5681,
      "te": 5682,
      "èģª": 5683,
      "ç¾İå¥½": 5684,
      "é¸¿": 5685,
      "çļĦçĽ®çļĦ": 5686,
      "åıĳéĢģ": 5687,
      "æĹ¥çĶµ": 5688,
      "åıįå¤į": 5689,
      "æĺ¾å¾Ĺ": 5690,
      "åĳ¼åĲ¸": 5691,
      "å¤©ç©ºéĥ¨èĲ½": 5692,
      "yamå¤©ç©ºéĥ¨èĲ½": 5693,
      "ä¸ŃåŃ¦": 5694,
      "æĻĴ": 5695,
      "éľį": 5696,
      "èĤ¡å¸Ĥ": 5697,
      "åĽŀå®¶": 5698,
      "å®īåħ¨çĶŁäº§": 5699,
      "åľ°åĮºçļĦ": 5700,
      "æıĲåĪ°": 5701,
      "ç»ĳ": 5702,
      "å¦¥": 5703,
      "æĪĳä»¬åı¯ä»¥": 5704,
      "æīĭæ¸¸": 5705,
      "ä»ħä»ħ": 5706,
      "å·©": 5707,
      "æ£ļ": 5708,
      "ĠIn": 5709,
      "åľ¨ä½¿çĶ¨": 5710,
      "åŃŁ": 5711,
      "æĪĳæł¡": 5712,
      "å®ĥæĺ¯": 5713,
      "ä¸įå¦Ĥ": 5714,
      "åĽĬ": 5715,
      "å¿ĥä¸Ń": 5716,
      "æ¶µçĽĸ": 5717,
      "çĤ®": 5718,
      "æŃ¦åĻ¨": 5719,
      "ov": 5720,
      "èµĮ": 5721,
      "çĶµä¿¡": 5722,
      "äº§åĵģè´¨éĩı": 5723,
      "èĮ¨": 5724,
      "è·ŁçĿĢ": 5725,
      "å»¶éķ¿": 5726,
      "76": 5727,
      "çļĦè¡Įä¸º": 5728,
      "å±Ī": 5729,
      "ä½¿åħ¶": 5730,
      "èĤ¿çĺ¤": 5731,
      "TO": 5732,
      "Ġf": 5733,
      "æĸ°åĮº": 5734,
      "he": 5735,
      "å¯¹è¯Ŀ": 5736,
      "çŃīéĹ®é¢ĺ": 5737,
      "éħ¬": 5738,
      "éĺĲ": 5739,
      "å¤ĸåĽ½": 5740,
      "æ·ĭ": 5741,
      "åĲįçļĦ": 5742,
      "åıĺéĿ©": 5743,
      "åĤ²": 5744,
      "Ġ8": 5745,
      "å¤§åľ°": 5746,
      "åĴĮåıĳå±ķ": 5747,
      "ï¼īï¼Ľ": 5748,
      "å¸½": 5749,
      "æĹ¥çļĦ": 5750,
      "åħ¬åı¸åľ¨": 5751,
      "å¹³ç¨³": 5752,
      "å¤ĩæ¡Ī": 5753,
      "çĽĳä¼ļ": 5754,
      "å¹´åīį": 5755,
      "æĪĳä¹Ł": 5756,
      "æ¯ħ": 5757,
      "æłĩåĩĨåĮĸ": 5758,
      "æīİå®ŀ": 5759,
      "åİ¨æĪ¿": 5760,
      "éķĢéĶĮ": 5761,
      "æľ´": 5762,
      "å¤§äºİ": 5763,
      "éķ¿åº¦": 5764,
      "ç¾İè§Ĥ": 5765,
      "ä»İä¸ļ": 5766,
      "åįķçĭ¬": 5767,
      "æ»ŀ": 5768,
      "äº¬ä¸ľ": 5769,
      "æ±Łè¥¿": 5770,
      "åĬ¨çĶ»": 5771,
      "è¿ĽèĢĮ": 5772,
      "æ°´æŀľ": 5773,
      "æŁ³": 5774,
      "èĢĮä¸įæĺ¯": 5775,
      "è¿ĺæ²¡æľī": 5776,
      "é¹¿": 5777,
      "èĩªèº«çļĦ": 5778,
      "IN": 5779,
      "ä¸įä¹ħ": 5780,
      "åıĳè¾¾": 5781,
      "ä»¶äºĭ": 5782,
      "åĽŃæŀĹ": 5783,
      "ãĢĤãĢĲ": 5784,
      "è¿Ļä½į": 5785,
      "ç²ª": 5786,
      "æķĻèĤ²éĥ¨": 5787,
      "ä¸ŃåĽ½äººæ°ĳ": 5788,
      "åĲĮæĹ¶ä¹Ł": 5789,
      "IC": 5790,
      "ãĢģâĢľ": 5791,
      "ä¾ł": 5792,
      "å®ĮæĪĲäºĨ": 5793,
      "å®ĹæķĻ": 5794,
      "å·¢": 5795,
      "åĵ¦": 5796,
      "æ¶ĪéĻ¤": 5797,
      "å±Ģéķ¿": 5798,
      "èħº": 5799,
      "å¼¹æĢ§": 5800,
      "æ²«": 5801,
      "æ¶¯": 5802,
      "ç´§æĢ¥": 5803,
      "ä¸Ńä»ĭ": 5804,
      "å¤§æ°Ķ": 5805,
      "è¥¿éĥ¨": 5806,
      "æĶ¯æı´": 5807,
      "åºŀ": 5808,
      "è¾Ĳ": 5809,
      "æĮĩå®ļ": 5810,
      "å¤įåĪ¶": 5811,
      "åı¯èĥ½æĺ¯": 5812,
      "æ¶²ä½ĵ": 5813,
      "æķ°æį®åºĵ": 5814,
      "åī¯ä¹¦è®°": 5815,
      "è·Łè¸ª": 5816,
      "ä¸»æµģ": 5817,
      "åĩĢåĪ©æ¶¦": 5818,
      "è¿Ļä¹Ł": 5819,
      "ine": 5820,
      "èĳĹä½ľ": 5821,
      "éĥ½æ²¡æľī": 5822,
      "æµģéĢļ": 5823,
      "è¿Ĳè´¹": 5824,
      "è¿Ĳè½¬": 5825,
      "æ®¿": 5826,
      "æĹ©æľŁ": 5827,
      "èĥĮåĲİ": 5828,
      "42": 5829,
      "AN": 5830,
      "åįµ": 5831,
      "æıĲæ¡Ī": 5832,
      "æĹ¥ä¸ĭåįĪ": 5833,
      "çºªå¾ĭ": 5834,
      "å¹¿ä¸ľçľģ": 5835,
      "åĽ½äº§": 5836,
      "å¥½äºĨ": 5837,
      "ä¸įåĬ¨": 5838,
      "æ³ª": 5839,
      "åıĳæĺİ": 5840,
      "æī¹åıĳ": 5841,
      "é¡¾éĹ®": 5842,
      "åİ¦éĹ¨": 5843,
      "å»ºæĿĲ": 5844,
      "éķ¿æ±Ł": 5845,
      "éĹ¨çªĹ": 5846,
      "å·²æľī": 5847,
      "æĬķæłĩ": 5848,
      "è¥¿æĸ¹": 5849,
      "å¤įåħ´": 5850,
      "å¦ĩå¥³": 5851,
      "66": 5852,
      "å®Ļ": 5853,
      "å»ºéĢł": 5854,
      "å¦Ĥæľī": 5855,
      "å¢ŀåĢ¼": 5856,
      "æµĵåº¦": 5857,
      "çĥĺå¹²": 5858,
      "æľºåºĬ": 5859,
      "è¯´è¿ĩ": 5860,
      "æĻ®åıĬ": 5861,
      "æİ¢è®¨": 5862,
      "ä¸Ģè¾¹": 5863,
      "æĦŁåıĹåĪ°": 5864,
      "æĹĭè½¬": 5865,
      "PE": 5866,
      "åįģå¤§": 5867,
      "æĿĥåĬĽ": 5868,
      "ä¼ļéķ¿": 5869,
      "èĩĤ": 5870,
      "éĶ¤": 5871,
      "æĥ©": 5872,
      "è¿ĩæĿ¥": 5873,
      "å¦ĸ": 5874,
      "å¥½åĥı": 5875,
      "ä¸īåĪĨ": 5876,
      "ç»ıæµİç¤¾ä¼ļ": 5877,
      "åĨħå®¹çļĦ": 5878,
      "çĭ¬çī¹çļĦ": 5879,
      "ä¾¦": 5880,
      "éĤª": 5881,
      "æĺ¯ä¸Ģæ¬¾": 5882,
      "ä¸ºæł¸å¿ĥ": 5883,
      "æīĢå¾Ĺ": 5884,
      "ä¿¡èµĸ": 5885,
      "å½ĵä»£": 5886,
      "æĿĥçļĦ": 5887,
      "æİĴæ°´": 5888,
      "ç®Ĺæ³ķ": 5889,
      "ä¸įè®º": 5890,
      "è¡¬": 5891,
      "ä¸Ĭåİ»": 5892,
      "æĪĳå°±": 5893,
      "å¤ļå¹´æĿ¥": 5894,
      "æķ°æİ§": 5895,
      "æĶ¶èĹı": 5896,
      "è®¤çŁ¥": 5897,
      "å»ºè®¾çļĦ": 5898,
      "æİ¥æĶ¶": 5899,
      "å°ıåŀĭ": 5900,
      "ç¾İé£Ł": 5901,
      "äºīåıĸ": 5902,
      "ä¸įåľ¨": 5903,
      "æĿ¥è®²": 5904,
      "çĲĨäºĭ": 5905,
      "åºĶçĶ¨ç¨ĭåºı": 5906,
      "åŃĲåħ¬åı¸": 5907,
      "è¯¸å¤ļ": 5908,
      "qu": 5909,
      "å®´": 5910,
      "éĢīæīĭ": 5911,
      "è¯ŃéŁ³": 5912,
      "ç¿Ķ": 5913,
      "593": 5914,
      "çĶ¨æ°´": 5915,
      "ç¨»": 5916,
      "çĻ½èī²": 5917,
      "èº«ä»½è¯ģ": 5918,
      "In": 5919,
      "çļĦè¿ĩç¨ĭ": 5920,
      "ä½łåı¯ä»¥": 5921,
      "èĬĤçľģ": 5922,
      "æ¿Ģåıĳ": 5923,
      "åī§æĥħ": 5924,
      "ä»¥å¾Ģ": 5925,
      "æ¶Ľ": 5926,
      "æ¯ıæĹ¥": 5927,
      "åıįèĢĮ": 5928,
      "åı¦ä¸Ģä¸ª": 5929,
      "ç«ŀæĬĢ": 5930,
      "éĻĨç»Ń": 5931,
      "åİļåº¦": 5932,
      "ç½ķ": 5933,
      "æĽ´å¤§": 5934,
      "è®°å¾Ĺ": 5935,
      "çľŁå®ŀæĢ§": 5936,
      "èĴĻåı¤": 5937,
      "å¼ķåħ¥": 5938,
      "ãĢĤâĢĿâĢľ": 5939,
      "äººæ°ĳæĶ¿åºľ": 5940,
      "é¢ĳçİĩ": 5941,
      "ä¸Ģæ®µæĹ¶éĹ´": 5942,
      "ÃĹ": 5943,
      "çļĦç¬¬ä¸Ģ": 5944,
      "æĹ¥åľ¨": 5945,
      "æĥ³è±¡": 5946,
      "é»ĳèī²": 5947,
      "æĹ¢çĦ¶": 5948,
      "ä¾µçĬ¯": 5949,
      "è±Ĩçĵ£": 5950,
      "åīįæľŁ": 5951,
      "ä¹°åįĸ": 5952,
      "åıĻ": 5953,
      "å¤ļé¡¹": 5954,
      "è£ħéħį": 5955,
      "éĺ²èĮĥ": 5956,
      "ess": 5957,
      "41": 5958,
      "åķĨåľº": 5959,
      "æīĵçł´": 5960,
      "oc": 5961,
      "ä¸Ģå¸¦": 5962,
      "å¾Īé«ĺ": 5963,
      "åķĨåŁİ": 5964,
      "ç®¡çĲĨä½ĵç³»": 5965,
      "éľĢè¦ģçļĦ": 5966,
      "æ¯Ķäºļ": 5967,
      "ä¸ľåįĹ": 5968,
      "Ġ9": 5969,
      "ä¸Ģéĥ¨åĪĨ": 5970,
      "æīĢè¿°": 5971,
      "ç«ĭåľº": 5972,
      "ç«ĭè¶³": 5973,
      "çĪĨåıĳ": 5974,
      "ĠåĴĮ": 5975,
      "æ²¡æĥ³åĪ°": 5976,
      "æ¶¨å¹ħ": 5977,
      "--": 5978,
      "ç²¤": 5979,
      "åħļæĶ¯éĥ¨": 5980,
      "è¡Ģç®¡": 5981,
      "èĥ½åĲ¦": 5982,
      "åįģåħŃ": 5983,
      "åĽŀå½Ĵ": 5984,
      "åĲĪçĲĨçļĦ": 5985,
      "æµªè´¹": 5986,
      "ä¸įåºĶ": 5987,
      "æľĪåºķ": 5988,
      "åį§": 5989,
      "åħ¨ä¸ĸçķĮ": 5990,
      "çĥĤ": 5991,
      "ä»ªè¡¨": 5992,
      "æ³ķäºº": 5993,
      "æĪ·å¤ĸ": 5994,
      "åĢŁåĬ©": 5995,
      "æł½": 5996,
      "æİ¥çĿĢ": 5997,
      "å¨ģå°¼æĸ¯": 5998,
      "é£ŀæľº": 5999,
      "çº½çº¦": 6000,
      "ï¼ĳ": 6001,
      "æŁ¯": 6002,
      "å¸¸è§Ħ": 6003,
      "éĻ¶çĵ·": 6004,
      "ä¸įåıĹ": 6005,
      "éĻ¤å°ĺ": 6006,
      "çħ§é¡¾": 6007,
      "èµ°è¿Ľ": 6008,
      "åĲ¬åĪ°": 6009,
      "ä¸Ģçº§": 6010,
      "åĬĽåĴĮ": 6011,
      "æķ°åŃ¦": 6012,
      "åĨĽéĺŁ": 6013,
      "åĲĮåŃ¦ä»¬": 6014,
      "åĪ©äºļ": 6015,
      "æĹłæķ°": 6016,
      "å·²æĪĲä¸º": 6017,
      "å½¢çĬ¶": 6018,
      "æ³ķå¾ĭæ³ķè§Ħ": 6019,
      "å¾Īå°ĳ": 6020,
      "å®ĩå®Ļ": 6021,
      "çĶµç£ģ": 6022,
      "æĿĤå¿Ĺ": 6023,
      "çļĦæľºä¼ļ": 6024,
      "çļĦæķħäºĭ": 6025,
      "åİĺ": 6026,
      "å°ĨæĿ¥": 6027,
      "æ°´åĪ©": 6028,
      "å»ºç«ĭäºĨ": 6029,
      "çº±": 6030,
      "åĪĨæķ°": 6031,
      "åħ¨å¹´": 6032,
      "æ°ĳèĲ¥": 6033,
      "è¶ħè¶Ĭ": 6034,
      "å»¶ä¼¸": 6035,
      "éĵĿåĲĪéĩĳ": 6036,
      "åĶ®åĲİæľįåĬ¡": 6037,
      "51": 6038,
      "æīįä¼ļ": 6039,
      "åĽ½å®¶çº§": 6040,
      "åİļçļĦ": 6041,
      "åĩłå¤©": 6042,
      "æĺ¯æĪĳä»¬": 6043,
      "éĿ¢ä¸Ĭ": 6044,
      "å±ŀæĢ§": 6045,
      "çľī": 6046,
      "æº¢": 6047,
      "å»¶ç»Ń": 6048,
      "å°ļæľª": 6049,
      "è¿ĩäºĨ": 6050,
      "éĥİ": 6051,
      "æİĴéĻ¤": 6052,
      "å¿ħè¦ģçļĦ": 6053,
      "çļĦæł¸å¿ĥ": 6054,
      "åıĳæĶ¾": 6055,
      "æĹłçº¿": 6056,
      "åŃ©åŃĲä»¬": 6057,
      "Ġd": 6058,
      "è¡Ķ": 6059,
      "åĩ¸": 6060,
      "æľ¬åľŁ": 6061,
      "è¾Ĳå°Ħ": 6062,
      "çŃ¾çº¦": 6063,
      "ä¼°è®¡": 6064,
      "ä¼ĳæģ¯": 6065,
      "çļĦåĬĽéĩı": 6066,
      "è¿ĻæĹ¶": 6067,
      "æī¿è®¤": 6068,
      "äºĭä¸ļåįķä½į": 6069,
      "åĨ¬åŃ£": 6070,
      "ç»µ": 6071,
      "éĹ¸": 6072,
      "äºĮçº§": 6073,
      "æĲı": 6074,
      "ä»ħæľī": 6075,
      "2006": 6076,
      "çī©èģĶç½ĳ": 6077,
      "æ²ª": 6078,
      "å¥½è¯Ħ": 6079,
      "å½¼æŃ¤": 6080,
      "æĶĢ": 6081,
      "ä½ľé£İ": 6082,
      "ä¿Ŀåģ¥": 6083,
      "åįłåľ°": 6084,
      "èģĶåĲĪåĽ½": 6085,
      "åıĬåħ¶ä»ĸ": 6086,
      "ä»¶çļĦ": 6087,
      "åĳĬçŁ¥": 6088,
      "ang": 6089,
      "éĶ»çĤ¼": 6090,
      "å°¸": 6091,
      "èµ¤": 6092,
      "æ´Ĵ": 6093,
      "æľĪçļĦ": 6094,
      "çĪ±å¥½": 6095,
      "èĢĥèĻĳåĪ°": 6096,
      "bet": 6097,
      "äººåĴĮ": 6098,
      "åĩºçİ°åľ¨": 6099,
      "éĢļçĶ¨": 6100,
      "æ¸ħç®Ĺ": 6101,
      "ç²®é£Ł": 6102,
      "os": 6103,
      "éĩĩéĽĨ": 6104,
      "ç§Łå®¢": 6105,
      "éĶħçĤī": 6106,
      "ä¸İæŃ¤åĲĮæĹ¶": 6107,
      "éĴī": 6108,
      "å®¹åĻ¨": 6109,
      "ç»ĥä¹ł": 6110,
      "åħ¸åŀĭ": 6111,
      "åı¬éĽĨ": 6112,
      "å¦»åŃĲ": 6113,
      "é©¬ä¸Ĭ": 6114,
      "TV": 6115,
      "åľ¨åħ¨åĽ½": 6116,
      "éĥ½çŁ¥éģĵ": 6117,
      "éĤĵ": 6118,
      "åħļç»Ħç»ĩ": 6119,
      "è¯Ħå®¡": 6120,
      "éĩĳèŀįæľºæŀĦ": 6121,
      "æľīåĬĽ": 6122,
      "æĽ´å¤§çļĦ": 6123,
      "çĮľ": 6124,
      "æµĩ": 6125,
      "è½¦çļĦ": 6126,
      "éĿłè°±": 6127,
      "éĢłæĪĲçļĦ": 6128,
      "ä¿¡çĶ¨åį¡": 6129,
      "æ¸Ķ": 6130,
      "éĢļæĬ¥": 6131,
      "å¹¿æĴŃ": 6132,
      "è¿Ļä¸ªéĹ®é¢ĺ": 6133,
      "åŁºç¡Ģä¸Ĭ": 6134,
      "æĲºæīĭ": 6135,
      "çºłçº·": 6136,
      "è¿ĩäºİ": 6137,
      "èģĮä¸ļæķĻèĤ²": 6138,
      "cn": 6139,
      "æĸ¥": 6140,
      "æĪĳä»¬ä¼ļ": 6141,
      "åĪĽç«ĭ": 6142,
      "èİī": 6143,
      "çħ®": 6144,
      "å¿ħéľĢ": 6145,
      "æĿĳæ°ĳ": 6146,
      "æ´»è·ĥ": 6147,
      "æľįåĬ¡åķĨ": 6148,
      "ç»¿åĮĸ": 6149,
      "æľīæ²¡æľī": 6150,
      "éļıæĦı": 6151,
      "èĨ¨": 6152,
      "æķıæĦŁ": 6153,
      "ä¸įæĺĵ": 6154,
      "æ°Ł": 6155,
      "å¸¸æĢģ": 6156,
      "ne": 6157,
      "è´ª": 6158,
      "éĥ½å¸Ĥ": 6159,
      "çĽ¸ä¼¼": 6160,
      "ä»½é¢Ŀ": 6161,
      "æī¹è¯Ħ": 6162,
      "çŃ¾ç½²": 6163,
      "æ¸ĹéĢı": 6164,
      "72": 6165,
      "å®ª": 6166,
      "æĬ¹": 6167,
      "è§£è¯»": 6168,
      "åĸĬ": 6169,
      "éģµå¾ª": 6170,
      "çļĦä¸ŃåĽ½": 6171,
      "ä½ĵä¼ļ": 6172,
      "æĹ¥ä¸ĬåįĪ": 6173,
      "æī¿åıĹ": 6174,
      "ç¦ıåĪ©": 6175,
      "åºŁæ°Ķ": 6176,
      "æĬĳåĪ¶": 6177,
      "ç³ķ": 6178,
      "ç®¡æİ§": 6179,
      "æļĳ": 6180,
      "äººæ°ĳæ³ķéĻ¢": 6181,
      "hone": 6182,
      "çļĦçī¹çĤ¹": 6183,
      "åĲĪæĪĲ": 6184,
      "indow": 6185,
      "çļĦæľĭåıĭ": 6186,
      "ç»ĵå©ļ": 6187,
      "åĬŀäºĭ": 6188,
      "çĭ®": 6189,
      "èħĬ": 6190,
      "è´Łæĭħ": 6191,
      "éĢļé£İ": 6192,
      "åĲīæŀĹ": 6193,
      "å·©åĽº": 6194,
      "äºĴçĽ¸": 6195,
      "æĮ¯åĬ¨": 6196,
      "åĩºè¡Į": 6197,
      "åħīä¼ı": 6198,
      "è¶ĬæĿ¥è¶Ĭå¤ļ": 6199,
      "å¥īçĮ®": 6200,
      "yamå¤©ç©ºéĥ¨èĲ½æł¼": 6201,
      "äº«æľī": 6202,
      "åĳ³éģĵ": 6203,
      "åħļåı²åŃ¦ä¹łæķĻèĤ²": 6204,
      "è¦ģæľī": 6205,
      "åľ°éĵģ": 6206,
      "è¯´æ³ķ": 6207,
      "å¼ºåĪ¶": 6208,
      "ç«ĭåĪ»": 6209,
      "ç±»çļĦ": 6210,
      "çħĮ": 6211,
      "éĿĴå°ĳå¹´": 6212,
      "æĩĪ": 6213,
      "æĪĲåŀĭ": 6214,
      "æĬ¥èŃ¦": 6215,
      "è¦ģåľ¨": 6216,
      "ä¸Ĭæľī": 6217,
      "æıĲåıĸ": 6218,
      "ä¾ĿæĹ§": 6219,
      "Ġ300": 6220,
      "åĮł": 6221,
      "è¿Ļå°±": 6222,
      "ç²¾å¿ĥ": 6223,
      "çķĻä¸ĭ": 6224,
      "è¡ĮæĶ¿æ³ķè§Ħ": 6225,
      "æłª": 6226,
      "å¢ĵ": 6227,
      "æĶ¾å¿ĥ": 6228,
      "å·®åĪ«": 6229,
      "éĨī": 6230,
      "æĬ¥èĢĥ": 6231,
      "åİŁå§ĭ": 6232,
      "éĴ¢çŃĭ": 6233,
      "çıŃåŃĲ": 6234,
      "èĩªåŃ¦": 6235,
      "è®¾æľī": 6236,
      "åį«æĺŁ": 6237,
      "æĢİä¹Īæł·": 6238,
      "æľ¬æĿ¥": 6239,
      "æį®æĤī": 6240,
      "çº¿çļĦ": 6241,
      "åįģä¸ĥ": 6242,
      "åĬŁæķĪ": 6243,
      "æĬ¥å¯¼": 6244,
      "ä»ĬåĲİ": 6245,
      "çĭ±": 6246,
      "ç§»æ°ĳ": 6247,
      "ç¼ĵè§£": 6248,
      "ç§īæī¿": 6249,
      "800": 6250,
      "NS": 6251,
      "åı¯åľ¨": 6252,
      "æĴĴ": 6253,
      "åħħè¶³": 6254,
      "æ±¡æ°´å¤ĦçĲĨ": 6255,
      "ä¸ŃåĮ»": 6256,
      "çĶŁæĪĲ": 6257,
      "è´¢ç»ı": 6258,
      "åĨ²çªģ": 6259,
      "åįľ": 6260,
      "è´¾": 6261,
      "å®¢æĪ·ç«¯": 6262,
      "è¿Ļä¸ĢçĤ¹": 6263,
      "èŃ¦å¯Ł": 6264,
      "44": 6265,
      "å¸ĤæĶ¿": 6266,
      "è¯¾é¢ĺ": 6267,
      "åĩĿèģļ": 6268,
      "ist": 6269,
      "å¥³åŃĲ": 6270,
      "çİ©æ³ķ": 6271,
      "æŃ£ç¡®çļĦ": 6272,
      "åľ¨ä¸Ģ": 6273,
      "å°ıç±³": 6274,
      "æĸĩçī©": 6275,
      "åįıåķĨ": 6276,
      "æĵħ": 6277,
      "åħĭæĸ¯": 6278,
      "äººæīįåŁ¹åħ»": 6279,
      "åĤ¬åĮĸ": 6280,
      "tr": 6281,
      "ä¸įä½ı": 6282,
      "å·¥ä¼ļ": 6283,
      "åĭĺ": 6284,
      "å¤±åİ»": 6285,
      "çļĦå®īåħ¨": 6286,
      "å®ŀè´¨": 6287,
      "æ¸ħåįķ": 6288,
      "éŁ¦": 6289,
      "ç¬¼": 6290,
      "åı¤ä»£": 6291,
      "ç¼´çº³": 6292,
      "ä¸ºæŃ¢": 6293,
      "å¹¶æľª": 6294,
      "èĬ¬": 6295,
      "èĢĥé¢ĺ": 6296,
      "çº§çļĦ": 6297,
      "ç²¾å¯Ĩ": 6298,
      "æ¸©æļĸ": 6299,
      "æŁĲç§į": 6300,
      "iPhone": 6301,
      "79": 6302,
      "æĺ¯å¾Ī": 6303,
      "åºĻ": 6304,
      "å±ĢéĿ¢": 6305,
      "æĪªæŃ¢": 6306,
      "è¿Ļä¸¤": 6307,
      "ç»ĻæĪĳ": 6308,
      "è¾ĥé«ĺçļĦ": 6309,
      "é¦ĸå¸Ń": 6310,
      "åĪĿæŃ¥": 6311,
      "çĻ»éĻĨ": 6312,
      "çļĦçĥŃ": 6313,
      "åĩ¶": 6314,
      "è¦ģæĥ³": 6315,
      "æ±ģ": 6316,
      "çĹħäºº": 6317,
      "å¹³åı°çļĦ": 6318,
      "èį£èİ·": 6319,
      "åħļå§Ķä¹¦è®°": 6320,
      "çººç»ĩ": 6321,
      "èİİ": 6322,
      "ç¨ĭåº¦ä¸Ĭ": 6323,
      "DP": 6324,
      "ä¹ĭå¤Ħ": 6325,
      "å¸ĤåľºéľĢæ±Ĥ": 6326,
      "å¤ªå¤ļ": 6327,
      "æľĢå¤ļ": 6328,
      "åıĤèµĽ": 6329,
      "æį®äºĨè§£": 6330,
      "åī¯ä¸»ä»»": 6331,
      "å«ģ": 6332,
      "pl": 6333,
      "è¿Ļåľº": 6334,
      "æĪĳè§īå¾Ĺ": 6335,
      "æ¬§åħĥ": 6336,
      "ork": 6337,
      "ä¼ĺç§ĢçļĦ": 6338,
      "ä¸įåıĬ": 6339,
      "ä¸ºä½ł": 6340,
      "ä¹ĭä¸º": 6341,
      "çĭĲ": 6342,
      "æĪĸèĢħæĺ¯": 6343,
      "åĬĿ": 6344,
      "æīĳ": 6345,
      "æĥ§": 6346,
      "ç½ĳåĬł": 6347,
      "ä½İç¢³": 6348,
      "é¢ĳéģĵ": 6349,
      "éŃı": 6350,
      "åħ¬äº¤": 6351,
      "éĿ¢è¯ķ": 6352,
      "è¯ģå®ŀ": 6353,
      "çĻ¾ä¸ĩ": 6354,
      "52": 6355,
      "ER": 6356,
      "MA": 6357,
      "âĶ": 6358,
      "è¦ģæ³¨æĦı": 6359,
      "éĿĸ": 6360,
      "æĪĲå¹´": 6361,
      "è¾°": 6362,
      "æ¶Īå¤±": 6363,
      "å½±åĵįåĬĽ": 6364,
      "å¾®è½¯": 6365,
      "æĹ¨åľ¨": 6366,
      "çļĦåħ¨": 6367,
      "åıĶ": 6368,
      "åħĨ": 6369,
      "ä¹ĭæĹ¥èµ·": 6370,
      "é£ŁçĶ¨": 6371,
      "2007": 6372,
      "çļĦåºĶçĶ¨": 6373,
      "å¤ķ": 6374,
      "ä¸Ńèį¯": 6375,
      "åĮĸå¦Ĩ": 6376,
      "çĭ¼": 6377,
      "ç¥ŀç§ĺ": 6378,
      "69": 6379,
      "åĪ®": 6380,
      "å®¶çĶµ": 6381,
      "èĮĤ": 6382,
      "åº·å¤į": 6383,
      "ä¸Īå¤«": 6384,
      "çļĦåħ³ç³»": 6385,
      "æľµ": 6386,
      "å¹³æĿ¿": 6387,
      "åĨįåº¦": 6388,
      "æľīéĻĲè´£ä»»": 6389,
      "æĬĵå¥½": 6390,
      "åĵģçīĮçļĦ": 6391,
      "æĺŁæľŁ": 6392,
      "ä»ĭç»įäºĨ": 6393,
      "åı¯éĿłçļĦ": 6394,
      "çŀ¬éĹ´": 6395,
      "å®ŀä¹ł": 6396,
      "ä¸¤æ¬¡": 6397,
      "ä¸Ńå°ıä¼ģä¸ļ": 6398,
      "çŃīå¤ļç§į": 6399,
      "çĶµç½ĳ": 6400,
      "æłĩé¢ĺ": 6401,
      "ç¼ºçĤ¹": 6402,
      "63": 6403,
      "å®¶ä¸Ń": 6404,
      "æĬĢæľ¯åĴĮ": 6405,
      "ç§°åı·": 6406,
      "è¯»ä¹¦": 6407,
      "ä¾µæĿĥ": 6408,
      "çļĦåĬŁèĥ½": 6409,
      "ç¢§": 6410,
      "åıĳçĶŁäºĨ": 6411,
      "èĽĩ": 6412,
      "çļĦé«ĺåº¦": 6413,
      "è°¨æħİ": 6414,
      "53": 6415,
      "éĵŃ": 6416,
      "è¿ĲåĬ¨åĳĺ": 6417,
      "çĻ¾åĪĨçĤ¹": 6418,
      "08": 6419,
      "åįķä¸Ģ": 6420,
      "ä½¿çĶ¨å¯¿åĳ½": 6421,
      "æ¼Ķè®²": 6422,
      "æĭĽåķĨ": 6423,
      "åº§è°Ī": 6424,
      "éĺĢéĹ¨": 6425,
      "åĵªéĩĮæľī": 6426,
      "çī²": 6427,
      "ä½ĵç§¯": 6428,
      "æĽ´é«ĺçļĦ": 6429,
      "å¼ºåĬ²": 6430,
      "ä¼ĺå¼Ĥ": 6431,
      "ç£·": 6432,
      "èĢĮæĪĲ": 6433,
      "æģ¼": 6434,
      "èĬĿ": 6435,
      "ä¾Ľæ°´": 6436,
      "æ»©": 6437,
      "æĢ»æķ°": 6438,
      "ç¤¾ä¼ļçļĦ": 6439,
      "æ±°": 6440,
      "åĬ¨çļĦ": 6441,
      "ç¬¬ä¸ĢæĹ¶éĹ´": 6442,
      "è®¸åı¯è¯ģ": 6443,
      "ok": 6444,
      "äººéĥ½": 6445,
      "éĻĮ": 6446,
      "ä¸Ĭä¼ł": 6447,
      "æ³³": 6448,
      "å¼Ģå¹ķ": 6449,
      "èİŀ": 6450,
      "äºīè®®": 6451,
      "æ¤Ĵ": 6452,
      "çļĦåİŁåĪĻ": 6453,
      "ä¸¤å²¸": 6454,
      "è®¤åĲĮ": 6455,
      "57": 6456,
      "nd": 6457,
      "çĶ¨åľ°": 6458,
      "è¡Įä½¿": 6459,
      "è½§": 6460,
      "åħ¨æĸ°çļĦ": 6461,
      "æĢ§ä»·": 6462,
      "åĪĽå§ĭ": 6463,
      "ç½ĳåĬłæĢĿç»´": 6464,
      "çļĦçĽ®æłĩ": 6465,
      "æīĵç®Ĺ": 6466,
      "å¸¦æľī": 6467,
      "ä¹ĥèĩ³": 6468,
      "æĸ¹éĴĪ": 6469,
      "éªĮæĶ¶": 6470,
      "èĢĲç£¨": 6471,
      "æ³¡æ²«": 6472,
      "éĥĳå·ŀ": 6473,
      "æ²¦ä¸º": 6474,
      "ä¸įå¤ª": 6475,
      "æĬļ": 6476,
      "èĥ½åľ¨": 6477,
      "æ·®": 6478,
      "ä½İæ¸©": 6479,
      "æ±ĩæĬ¥": 6480,
      "éĢĢåĩº": 6481,
      "54": 6482,
      "å¹´åĪĿ": 6483,
      "ç»ıéĶĢ": 6484,
      "éĨĽ": 6485,
      "åıĳèµ·": 6486,
      "è¿Ľåº¦": 6487,
      "ç¡¬çĽĺ": 6488,
      "ä¸»æĮģäºº": 6489,
      "indows": 6490,
      "çļĦå½¢å¼ı": 6491,
      "åħ¬æĸ¤": 6492,
      "é«ĺæĸ°æĬĢæľ¯": 6493,
      "åĨħæ¶µ": 6494,
      "èħ»": 6495,
      "éģŃéģĩ": 6496,
      "CC": 6497,
      "ä»ĩ": 6498,
      "ä¸»è§Ĵ": 6499,
      "æĹ¥åĨħ": 6500,
      "å¹²æī°": 6501,
      "æ½ľåľ¨": 6502,
      "éĳ": 6503,
      "æľīæľĽ": 6504,
      "è¾Ł": 6505,
      "æĸ¯çī¹": 6506,
      "éĳ«": 6507,
      "ä¸įåıĺ": 6508,
      "ä¸ºä¾ĭ": 6509,
      "æĥ¨": 6510,
      "çŃīé¢ĨåŁŁ": 6511,
      "æľĢä¸º": 6512,
      "çĶµåŃĲåķĨåĬ¡": 6513,
      "æľīåħ³éĥ¨éĹ¨": 6514,
      "åįĵè¶Ĭ": 6515,
      "æ´½": 6516,
      "éĴĻ": 6517,
      "åıªéľĢ": 6518,
      "åĽĽå¤§": 6519,
      "å¦Ĥæŀľæĺ¯": 6520,
      "å¨ĥ": 6521,
      "äººåĬĽèµĦæºĲ": 6522,
      "æĪĲåĵģ": 6523,
      "ä¸»æľº": 6524,
      "å½ĵä¸ĭ": 6525,
      "åĨĻä½ľ": 6526,
      "è¿İæĿ¥": 6527,
      "PV": 6528,
      "çļĦé£İéĻ©": 6529,
      "é«ĺåĵģè´¨": 6530,
      "åıįå¼¹": 6531,
      "æ¾³å¤§åĪ©": 6532,
      "åľ°åĽ¾": 6533,
      "åĲĦçķĮ": 6534,
      "è¯ģçħ§": 6535,
      "å¢ĥå¤ĸ": 6536,
      "èģĮèĥ½": 6537,
      "åı¯èĥ½æĢ§": 6538,
      "åºĹéĵº": 6539,
      "çļĦæīĢæľī": 6540,
      "ä»¥æŃ¤": 6541,
      "åħ¬æ°ĳ": 6542,
      "ä¸ĭæ»ĳ": 6543,
      "éħ¿": 6544,
      "æĢģåĬ¿": 6545,
      "çĮİ": 6546,
      "åĸľçĪ±": 6547,
      "æ¾³å¤§åĪ©äºļ": 6548,
      "çļĦéĢļçŁ¥": 6549,
      "è®©ä»ĸ": 6550,
      "åĭ¾": 6551,
      "åĤ¨å¤ĩ": 6552,
      "ĠãĢĬ": 6553,
      "å¸ķ": 6554,
      "ä¸ªçĻ¾åĪĨçĤ¹": 6555,
      "ä¸ĭä¸Ģ": 6556,
      "çĶµæ¢¯": 6557,
      "èĲĮ": 6558,
      "æģ¨": 6559,
      "èģļéĽĨ": 6560,
      "æ½ľåĬĽ": 6561,
      "çļĦç½ĳç«Ļ": 6562,
      "æľīå¤ļ": 6563,
      "ä¸ºä¸Ńå¿ĥ": 6564,
      "èĪĨ": 6565,
      "æĪ¿ä»·": 6566,
      "ä»·åĢ¼è§Ĥ": 6567,
      "å¯»æ±Ĥ": 6568,
      "pe": 6569,
      "æĢ¨": 6570,
      "ç«Ń": 6571,
      "æ¹ĺ": 6572,
      "æĶ¹éĿ©å¼ĢæĶ¾": 6573,
      "æļĤæĹ¶": 6574,
      "ĠãĢģ": 6575,
      "çļĦæ°Ķ": 6576,
      "åĲĮäºĭ": 6577,
      "åįĹæĸ¹": 6578,
      "éŃħåĬĽ": 6579,
      "æ³Ĭ": 6580,
      "åİŁæ²¹": 6581,
      "åºŁæ°´": 6582,
      "åħ¨æ°ĳ": 6583,
      "ä¿®è®¢": 6584,
      "å¤®è¡Į": 6585,
      "ä¸Ĭæµ·å¸Ĥ": 6586,
      "è½°": 6587,
      "éĥ¨çļĦ": 6588,
      "æķĻæĿĲ": 6589,
      "ä½łè¦ģ": 6590,
      "çº¦æĿŁ": 6591,
      "çıŃçīĻ": 6592,
      "åĤ¨åŃĺ": 6593,
      "å¾ģæ±ĤæĦıè§ģ": 6594,
      "è¡·": 6595,
      "å¥¢": 6596,
      "åľºåľ°": 6597,
      "å¹¶å°Ĩ": 6598,
      "éħµ": 6599,
      "é¢ĺçĽ®": 6600,
      "æµ·å¤ĸåįİäºº": 6601,
      "æĸ°é²ľ": 6602,
      "æĿ¿çļĦ": 6603,
      "è¶ħå£°": 6604,
      "åĩºç§Ł": 6605,
      "å»·": 6606,
      "éģ®": 6607,
      "è¿ĺå°Ĩ": 6608,
      "è°ĥæİ§": 6609,
      "è¥¿çıŃçīĻ": 6610,
      "09": 6611,
      "ä¸Ģæ¬¾": 6612,
      "ä¿±": 6613,
      "æĬķæĶ¾": 6614,
      "æ´Ĺè¡£": 6615,
      "Ġ11": 6616,
      "ä¸įåı¯èĥ½": 6617,
      "è¯´è¯Ŀ": 6618,
      "æłĩè¯Ĩ": 6619,
      "2005": 6620,
      "éº»çĥ¦": 6621,
      "ĠJ": 6622,
      "å¤¸": 6623,
      "åĨ¯": 6624,
      "åı¯çĶ¨": 6625,
      "å¡ĺ": 6626,
      "åĩıè½»": 6627,
      "Ġ2020": 6628,
      "å½Ń": 6629,
      "çłĶåĪ¶": 6630,
      "ç¨İæĶ¶": 6631,
      "æķĳæı´": 6632,
      "éĢ¢": 6633,
      "äºĨå¾Īå¤ļ": 6634,
      "åħ¬ç§¯": 6635,
      "ç»ıçºª": 6636,
      "åĭ¿": 6637,
      "æ±¡æ³¥": 6638,
      "æ±Łèĭıçľģ": 6639,
      "ex": 6640,
      "ä¸įæķ¢": 6641,
      "åľºçļĦ": 6642,
      "å¿«æį·": 6643,
      "åĨľäº§åĵģ": 6644,
      "çģ«çģ¾": 6645,
      "åįłæį®": 6646,
      "æĢİä¹ĪåĬŀ": 6647,
      "èŃ¦æĸ¹": 6648,
      "ä¸įä»ħä»ħ": 6649,
      "è·µè¡Į": 6650,
      "å¹ħåº¦": 6651,
      "ES": 6652,
      "up": 6653,
      "åĬ¡å¿ħ": 6654,
      "åı·çłģ": 6655,
      "æħķ": 6656,
      "æŃ§": 6657,
      "æĸ°çĶŁ": 6658,
      "ä¸ĭåĪĹ": 6659,
      "æľªèĥ½": 6660,
      "æĿĲæĸĻçļĦ": 6661,
      "å¤©çĦ¶æ°Ķ": 6662,
      "æĺ¯è¦ģ": 6663,
      "çĶŁç´ł": 6664,
      "æĢ§æł¼": 6665,
      "éĴ¢ç»ĵæŀĦ": 6666,
      "äº²èĩª": 6667,
      "ä»²": 6668,
      "ä¸Ģå¼ł": 6669,
      "æľīåĬ©äºİ": 6670,
      "âĢĿï¼ī": 6671,
      "åĪ°ä½į": 6672,
      "å¤ĦçļĦ": 6673,
      "æ¼Ĥäº®": 6674,
      "è¡į": 6675,
      "è°Ĭ": 6676,
      "å½ĵäºĭ": 6677,
      "æľ¨æĿĲ": 6678,
      "ä¸Ģåº¦": 6679,
      "æĶ¶å½ķ": 6680,
      "çªĿ": 6681,
      "èĨı": 6682,
      "æĺ¯ä¸ºäºĨ": 6683,
      "åľ¨ç¾İåĽ½": 6684,
      "è¾ĥå¤§çļĦ": 6685,
      "ä»ħä¾Ľ": 6686,
      "åŀĤçĽ´": 6687,
      "110": 6688,
      "çļĦåĽŀ": 6689,
      "æĹ¬": 6690,
      "ä¸Ĭåĳ¨": 6691,
      "è¾¾åĪ°äºĨ": 6692,
      "è¥¿äºļ": 6693,
      "éŁ§": 6694,
      "åį³æĹ¶": 6695,
      "è¾¹ç¼ĺ": 6696,
      "å¼ĺæī¬": 6697,
      "å±¡": 6698,
      "æĹ¶åħī": 6699,
      "åħ¨ç¨ĭ": 6700,
      "åĬłåĿ¡": 6701,
      "æľĢéĩįè¦ģçļĦ": 6702,
      "æ¬§çĽŁ": 6703,
      "çİīç±³": 6704,
      "å¤§å¤ļ": 6705,
      "çĥŃæ°´": 6706,
      "çº³ç¨İ": 6707,
      "å³»": 6708,
      "æ¸Ĳæ¸Ĳ": 6709,
      "åĴĮæĬĢæľ¯": 6710,
      "å¿ĥçģµ": 6711,
      "éĥ½å¾Ī": 6712,
      "åħĥä»¶": 6713,
      "è·¯ä¸Ĭ": 6714,
      "äºĭåĬ¡æīĢ": 6715,
      "æķ²": 6716,
      "ä¹ĭæīĢä»¥": 6717,
      "éĹ¨åºĹ": 6718,
      "å®ŀåľ°": 6719,
      "ç«ĭæĸ¹": 6720,
      "éĢĢä¼ĳ": 6721,
      "èªĵ": 6722,
      "ĠUn": 6723,
      "èĬĤå¥ı": 6724,
      "çļĦä¸ĢåĪĩ": 6725,
      "ĠPro": 6726,
      "çī¢è®°": 6727,
      "AM": 6728,
      "éĦ": 6729,
      "åľ¨å¤§": 6730,
      "å¸ĪèĮĥ": 6731,
      "AD": 6732,
      "éĢ¸": 6733,
      "ä¸ĬéĹ¨": 6734,
      "å¥½å¥½": 6735,
      "CP": 6736,
      "åŃ¦çļĦ": 6737,
      "è¢ĸ": 6738,
      "ä¸ľèİŀ": 6739,
      "åŁİåĮº": 6740,
      "èĻ¹": 6741,
      "ç¦»å©ļ": 6742,
      "çĮ´": 6743,
      "æĸĩèīº": 6744,
      "ä½¿çĶ¨èĢħ": 6745,
      "è·¯å¾Ħ": 6746,
      "æ·±åıĹ": 6747,
      "AèĤ¡": 6748,
      "åħ¹": 6749,
      "åŃ¦å®¶": 6750,
      "ç²¾èĭ±": 6751,
      "æĬ¤æłı": 6752,
      "å¿«éĢŁå¢ŀéķ¿": 6753,
      "æĢ§ä»·æ¯Ķ": 6754,
      "åĪ°æĿ¥": 6755,
      "å¯¹å¾ħ": 6756,
      "ä¸ĭä¸ĢæŃ¥": 6757,
      "åĲİæŀľ": 6758,
      "æĺİçļĦ": 6759,
      "æľįåĬ¡å¹³åı°": 6760,
      "æİĴæŁ¥": 6761,
      "Ġæµ·": 6762,
      "åĲķ": 6763,
      "å¸ĤæĶ¿åºľ": 6764,
      "ort": 6765,
      "è´µçļĦ": 6766,
      "åĩºèµĦ": 6767,
      "å¹¶å¯¹": 6768,
      "æĶ¿åĬ¡": 6769,
      "é£İæĻ¯": 6770,
      "æĬķè¯ī": 6771,
      "è§£åĨ³äºĨ": 6772,
      "ç±»åŀĭçļĦ": 6773,
      "äººæĸĩ": 6774,
      "çľŁæĺ¯": 6775,
      "ç»§æī¿": 6776,
      "å¤«å¦»": 6777,
      "ate": 6778,
      "æĸ°æĹ¶ä»£ä¸ŃåĽ½çī¹èī²ç¤¾ä¼ļä¸»ä¹ī": 6779,
      "ak": 6780,
      "çļĦåŃ¦ä¹ł": 6781,
      "æł·åŃĲ": 6782,
      "çŁ¿å±±": 6783,
      "çļĦç»ĵæŀľ": 6784,
      "ä¸Ģå¥Ĺ": 6785,
      "åīĸ": 6786,
      "ä¿¡æģ¯çļĦ": 6787,
      "ä¸įåĩº": 6788,
      "é¦¨": 6789,
      "åħ±è®¡": 6790,
      "çľŁäºº": 6791,
      "åĪ¶éĢłåķĨ": 6792,
      "ä¸ºæĤ¨æıĲä¾Ľ": 6793,
      "å°ıäºİ": 6794,
      "ç²¾ç»Ĩ": 6795,
      "å¤´çļĦ": 6796,
      "ä»ĺæ¬¾": 6797,
      "åĪĳäºĭ": 6798,
      "åľ¨åľ°": 6799,
      "æľīè¶£": 6800,
      "éķ¿æ²Ļ": 6801,
      "ç®¡çĲĨçļĦ": 6802,
      "äºĨè§£åĪ°": 6803,
      "æĭ¿åĪ°": 6804,
      "å¤§æī¹": 6805,
      "ç½¢": 6806,
      "çłĶç©¶ä¸Ńå¿ĥ": 6807,
      "æĸĩåĮĸçļĦ": 6808,
      "è¾±": 6809,
      "éĻ¤æŃ¤": 6810,
      "ä»ĸä»¬åľ¨": 6811,
      "æĪĳè¦ģ": 6812,
      "äºĶä¸ª": 6813,
      "æ¶īå«Į": 6814,
      "è¹Ī": 6815,
      "net": 6816,
      "åħ¬åĬ¡": 6817,
      "åĨħåľ°": 6818,
      "ä¸¤å¤§": 6819,
      "éĺŁçļĦ": 6820,
      "æµİåįĹ": 6821,
      "çĹĽèĭ¦": 6822,
      "ISO": 6823,
      "åĮ¹éħį": 6824,
      "é©¬åħĭæĢĿä¸»ä¹ī": 6825,
      "Ġb": 6826,
      "çķľ": 6827,
      "åįģåĽĽäºĶ": 6828,
      "å¸Ĳ": 6829,
      "æ²¸": 6830,
      "ç»ıè´¹": 6831,
      "å¤ĸäº¤": 6832,
      "åħļåĴĮ": 6833,
      "åħ±è¯Ĩ": 6834,
      "åĽ½å®¶åĴĮ": 6835,
      "ä¸¥éĩįçļĦ": 6836,
      "åħ¬ç§¯éĩĳ": 6837,
      "èĤª": 6838,
      "å¼Ģå¿ĥ": 6839,
      "å¸ĥç½®": 6840,
      "æłĩåĩĨçļĦ": 6841,
      "æĿ¡ä»¶ä¸ĭ": 6842,
      "æĸ°åĬłåĿ¡": 6843,
      "çŃīåľ°": 6844,
      "éĤ£ç§į": 6845,
      "åħĭæľį": 6846,
      "åį´æĺ¯": 6847,
      "æ·ĺå®Ŀ": 6848,
      "æĺ¨å¤©": 6849,
      "ä¼ļåĩºçİ°": 6850,
      "éĽĩ": 6851,
      "åĢĻéĢī": 6852,
      "åŃĺåľ¨çļĦ": 6853,
      "ç½ĳåĬłæĢĿç»´èģĬåŁİ": 6854,
      "Ġp": 6855,
      "ä¸ĬçıŃ": 6856,
      "ä¼ģä¸ļåľ¨": 6857,
      "æİ¨è¡Į": 6858,
      "èĮħ": 6859,
      "ä¸ĵæ³¨äºİ": 6860,
      "ä¸Ģé¡¹": 6861,
      "ç»ıæµİçļĦ": 6862,
      "éĽĨåĽ¢åħ¬åı¸": 6863,
      "ç¼ºéĻ·": 6864,
      "æĽĿåħī": 6865,
      "æĪĳä»¬å°±": 6866,
      "åĶ¤": 6867,
      "è¯Ŀé¢ĺ": 6868,
      "åŃ£èĬĤ": 6869,
      "èĦĤèĤª": 6870,
      "è¿ĶåĽŀ": 6871,
      "VR": 6872,
      "å°ıåŃ©": 6873,
      "å¯¼å¸Ī": 6874,
      "æĢ»çĽĳ": 6875,
      "äººæ°ĳç¾¤ä¼Ĺ": 6876,
      "ert": 6877,
      "çĩĥæ°Ķ": 6878,
      "ä¼°åĢ¼": 6879,
      "âĨ": 6880,
      "ä¸Ģè¡Į": 6881,
      "æľīå®³": 6882,
      "åĳĢ": 6883,
      "éĶĤ": 6884,
      "åŃĲå¥³": 6885,
      "åŀ¢": 6886,
      "ä¼łåªĴ": 6887,
      "ç²¾ç¡®": 6888,
      "ç§ĺå¯Ĩ": 6889,
      "å¢ħ": 6890,
      "çĿĲ": 6891,
      "éľī": 6892,
      "æº¯": 6893,
      "å¯¼èĪª": 6894,
      "éĴ¢æĿ¿": 6895,
      "æĪĲåĬŁçļĦ": 6896,
      "ç½ĳåĬłæĢĿç»´èģĬåŁİåĪĨåħ¬åı¸": 6897,
      "åŃĿ": 6898,
      "ä¸ªä½ĵ": 6899,
      "æľĢåħ·": 6900,
      "ç§įåŃĲ": 6901,
      "å°ıå¿ĥ": 6902,
      "æ¯Ķéĩį": 6903,
      "åħ±å»º": 6904,
      "é½Ĳåħ¨": 6905,
      "å®łçī©": 6906,
      "02": 6907,
      "ue": 6908,
      "æĹ¥æĻļ": 6909,
      "åĪ¶èį¯": 6910,
      "ä¸īæĺŁ": 6911,
      "çĽ´å¾Ħ": 6912,
      "æ¶ĪåĮĸ": 6913,
      "çŁ³åĮĸ": 6914,
      "äººåĳĺçļĦ": 6915,
      "ä¸ªæĢ§åĮĸ": 6916,
      "67": 6917,
      "äººä¸İ": 6918,
      "æĢ»å±Ģ": 6919,
      "èĲ¥æĶ¶": 6920,
      "ä¸ĸçķĮæĿ¯": 6921,
      "æ¸¯æ¾³": 6922,
      "åĲ¸éĻĦ": 6923,
      "og": 6924,
      "ä¸Ģä¸ªæľĪ": 6925,
      "ç¥Ń": 6926,
      "æĹ©å°±": 6927,
      "é£ŀè¡Į": 6928,
      "çĩĥæĸĻ": 6929,
      "å®ıè§Ĥ": 6930,
      "åµĮ": 6931,
      "Ch": 6932,
      "è¿ĩåº¦": 6933,
      "éĩįç»Ħ": 6934,
      "å·´é»İ": 6935,
      "ä¹Ļçĥ¯": 6936,
      "çļĦå°±æĺ¯": 6937,
      "çļĦä»»ä½ķ": 6938,
      "ä¸ļçķĮ": 6939,
      "å¥ł": 6940,
      "é£ĺ": 6941,
      "æĢ»éĩı": 6942,
      "ç¦»å¿ĥ": 6943,
      "æ½®æµģ": 6944,
      "å¼ŁåŃĲ": 6945,
      "åĳĨ": 6946,
      "å¼Ģè®¾": 6947,
      "çĽ®å½ķ": 6948,
      "å±Ģéĥ¨": 6949,
      "å±ĤçļĦ": 6950,
      "å¾®çĶŁçī©": 6951,
      "æ³ķå¾ĭè´£ä»»": 6952,
      "æ±ĩçİĩ": 6953,
      "ä¸Ńåħ¨ä¼ļ": 6954,
      "æĸ°å»º": 6955,
      "é«ĺæ¸ħ": 6956,
      "ä¸īç§į": 6957,
      "ä¼ģä¸ļåĴĮ": 6958,
      "ç¢Ĺ": 6959,
      "éĽ¶ä»¶": 6960,
      "ç¼ºå°ĳ": 6961,
      "Ġw": 6962,
      "åľ¨åĮĹäº¬": 6963,
      "éģĵçĲĨ": 6964,
      "éĩįè¦ģè®²è¯Ŀ": 6965,
      "èĬ±åĽŃ": 6966,
      "èĴ¸æ±½": 6967,
      "æĬ¬": 6968,
      "æłĭ": 6969,
      "æĢ¡": 6970,
      "ä¸ļçļĦ": 6971,
      "çĦ°": 6972,
      "ä»İæĿ¥": 6973,
      "ç»Ħå»º": 6974,
      "éĺ²èħĲ": 6975,
      "åıĤåĬłäºĨ": 6976,
      "å¤ıåŃ£": 6977,
      "èķ´": 6978,
      "é½¿è½®": 6979,
      "å¤ļäºº": 6980,
      "æĺİå¹´": 6981,
      "ç®¡çĲĨå±Ģ": 6982,
      "çļĦä¸Ģéĥ¨åĪĨ": 6983,
      "æ·ĺæ±°": 6984,
      "çĲĨæĢ§": 6985,
      "å¸Ĥéķ¿": 6986,
      "å¤ĸçķĮ": 6987,
      "ä»İæŃ¤": 6988,
      "å¯¼ä½ĵ": 6989,
      "å°ģéĹŃ": 6990,
      "çļĦæĦŁè§ī": 6991,
      "åĪĨæķ£": 6992,
      "ä¿¡ä»°": 6993,
      "æĦıå¿Ĺ": 6994,
      "éªĤ": 6995,
      "ä¼łåĬ¨": 6996,
      "æĳĬ": 6997,
      "å¹¸è¿Ĳ": 6998,
      "Ġä¸Ģ": 6999,
      "å¾Ĺä»¥": 7000,
      "è¿ĺéľĢè¦ģ": 7001,
      "åĨ³å¿ĥ": 7002,
      "ä»·åĢ¼çļĦ": 7003,
      "åĢºæĿĥ": 7004,
      "çĻ¾åº¦å°ıç¨ĭåºı": 7005,
      "éħ¯": 7006,
      "éĽ¶éĥ¨ä»¶": 7007,
      "ĠX": 7008,
      "ç³»æķ°": 7009,
      "å²³": 7010,
      "è¿ŀéĶģ": 7011,
      "è¯¢éĹ®": 7012,
      "æĿ¡ä»¶çļĦ": 7013,
      "ĦĢ": 7014,
      "åĪĽåĬŀ": 7015,
      "çº¦å®ļ": 7016,
      "æľīæķĪåľ°": 7017,
      "é¹°": 7018,
      "ç¥ĸåĽ½": 7019,
      "æŁ´æ²¹": 7020,
      "æľīéĻĲè´£ä»»åħ¬åı¸": 7021,
      "çļĦé¦ĸ": 7022,
      "æįī": 7023,
      "è®¡éĩı": 7024,
      "èĥĸ": 7025,
      "èīºæľ¯å®¶": 7026,
      "ä¹¡æĿĳæĮ¯åħ´": 7027,
      "å¿ĹæĦ¿èĢħ": 7028,
      "åı¯è¾¾": 7029,
      "åħ·ä½ĵçļĦ": 7030,
      "éĴ¢æĿĲ": 7031,
      "æĺ¯åĲ¦æľī": 7032,
      "ä¼´éļıçĿĢ": 7033,
      "ï¼Ľï¼Ī": 7034,
      "æīĭæľºçīĪ": 7035,
      "çļĦåıĳ": 7036,
      "æŀļ": 7037,
      "ä¸»äºº": 7038,
      "å±ķä¼ļ": 7039,
      "æľĢåĪĿ": 7040,
      "åıĺé¢ĳ": 7041,
      "ä¸¤ä½į": 7042,
      "ç»ĪæŃ¢": 7043,
      "æ³°åĽ½": 7044,
      "ĠèĤ¡ä¸ľå¤§ä¼ļ": 7045,
      "çļĦæĬķèµĦ": 7046,
      "å¤§è§Ħæ¨¡": 7047,
      "æİ¥åĪ°": 7048,
      "è¡¥åĬ©": 7049,
      "å¹¿æ³ĽåºĶçĶ¨äºİ": 7050,
      "åħļåĳĺå¹²éĥ¨": 7051,
      "çĺ¦": 7052,
      "Ġ12": 7053,
      "çļĦåħī": 7054,
      "ä¾¨": 7055,
      "æīĭåĬ¨": 7056,
      "æĦŁåĬ¨": 7057,
      "çŃīæĸ¹å¼ı": 7058,
      "è½¦ç«Ļ": 7059,
      "å¸®æī¶": 7060,
      "Ġs": 7061,
      "æĹ¶ç©º": 7062,
      "å°Ĩç»§ç»Ń": 7063,
      "çķı": 7064,
      "æĶ¶åıĸ": 7065,
      "è´ŃæĪ¿": 7066,
      "Â°": 7067,
      "é¢ł": 7068,
      "å¯¹æĪĳ": 7069,
      "åĲĪçī©": 7070,
      "çĶµç«Ļ": 7071,
      "ç§įç§į": 7072,
      "è§Ħç«ł": 7073,
      "èµ°äºĨ": 7074,
      "æļĤåģľ": 7075,
      "ä¹Łå°±æĺ¯è¯´": 7076,
      "62": 7077,
      "ä¸įä¸Ĭ": 7078,
      "çĶ¨çĶµ": 7079,
      "éħ±": 7080,
      "èºº": 7081,
      "æ°ĶçļĦ": 7082,
      "éħįéĢģ": 7083,
      "ç½ĳç»ľèĲ¥éĶĢ": 7084,
      "ç»ĵæĿŁåĲİ": 7085,
      "æľīä¸ª": 7086,
      "çŃīçļĦ": 7087,
      "åıĳå±ķè¶ĭåĬ¿": 7088,
      "ä¾ĽçĶµ": 7089,
      "åıĹçĽĬ": 7090,
      "è¦ģæ±ĤçļĦ": 7091,
      "è°¢è°¢": 7092,
      "åĴ¬": 7093,
      "ä¸įéĶĻçļĦ": 7094,
      "æ°´åĪĨ": 7095,
      "çľĭåĪ°äºĨ": 7096,
      "èĬĤçĤ¹": 7097,
      "å·´è¥¿": 7098,
      "æ²Īéĺ³": 7099,
      "97": 7100,
      "ä¸įèµ·": 7101,
      "æ³ķçļĦ": 7102,
      "ä¹ĭéĻħ": 7103,
      "art": 7104,
      "çªĹåı£": 7105,
      "æ·±åľ³å¸Ĥ": 7106,
      "åı¯éĿłæĢ§": 7107,
      "èĢĮæĿ¥": 7108,
      "åİ»éĻ¤": 7109,
      "åħ¨éĿ¢çļĦ": 7110,
      "ell": 7111,
      "ä»ĸæĺ¯": 7112,
      "åĪ¶åĨ·": 7113,
      "ç¥¸": 7114,
      "çľĭåĩº": 7115,
      "å¸¦ç»Ļ": 7116,
      "é¢Ħçº¦": 7117,
      "ers": 7118,
      "TC": 7119,
      "ç¼ł": 7120,
      "åĸĤ": 7121,
      "åºĨç¥Ŀ": 7122,
      "360": 7123,
      "çļĦèĢģ": 7124,
      "å½ĵä»Ĭ": 7125,
      "çľĭäºĨ": 7126,
      "äº¤ä»ĺ": 7127,
      "èģĶåĬ¨": 7128,
      "ä»ĺåĩº": 7129,
      "æĪĪ": 7130,
      "åº¦åĴĮ": 7131,
      "å¿ĥæĥħ": 7132,
      "åĲįçīĩ": 7133,
      "ä»»æĦı": 7134,
      "æ²¡æľīä»»ä½ķ": 7135,
      "æ¢³": 7136,
      "å°½åı¯èĥ½": 7137,
      "ç¬Ķè®°": 7138,
      "ĪĻ": 7139,
      "åŃĺæ¬¾": 7140,
      "æľīä¸ĢäºĽ": 7141,
      "æ³ķåħ°": 7142,
      "éĺŁåĳĺ": 7143,
      "è¡Ģæ¶²": 7144,
      "çİ»çĴĥéĴ¢": 7145,
      "61": 7146,
      "ä¸ºä¸»é¢ĺ": 7147,
      "è¿Ļé¡¹": 7148,
      "å®ŀäºĭ": 7149,
      "å¡«åĨĻ": 7150,
      "å®Įæķ´çļĦ": 7151,
      "å°±ä¸į": 7152,
      "ä¹ĭä¸Ĭ": 7153,
      "éľľ": 7154,
      "éĤ£å°±æĺ¯": 7155,
      "çİĩä¸º": 7156,
      "æĿ¿æĿĲ": 7157,
      "è®²åº§": 7158,
      "ç»Ŀç¼ĺ": 7159,
      "è¿½ç©¶": 7160,
      "ç¯®çĲĥ": 7161,
      "å¦¨": 7162,
      "å¼Ģå·¥": 7163,
      "èĢĥéªĮ": 7164,
      "ä¾¿äºİ": 7165,
      "èĥ½åĬĽçļĦ": 7166,
      "åºĶè¯¥æĺ¯": 7167,
      "å¢ŀè¿Ľ": 7168,
      "çĶ·æĢ§": 7169,
      "çŃīå¤ļ": 7170,
      "çľĭæ³ķ": 7171,
      "èĦ¾": 7172,
      "çİĩåħĪ": 7173,
      "è¶ħå¸Ĥ": 7174,
      "åħļçļĦåįģä¹Ŀ": 7175,
      "éģŃåıĹ": 7176,
      "é³": 7177,
      "ä¸»å¯¼": 7178,
      "èĭ¯": 7179,
      "èĻ¾": 7180,
      "åĮĹæĸ¹": 7181,
      "äºĴèģĶ": 7182,
      "çİ¯å¢ĥä¿ĿæĬ¤": 7183,
      "è½½ä½ĵ": 7184,
      "åŁİå¸ĤçļĦ": 7185,
      "èĶ½": 7186,
      "æ¬§æ´²æĿ¯": 7187,
      "CD": 7188,
      "ra": 7189,
      "ä»¥åħį": 7190,
      "ä»Ģä¹Īæĺ¯": 7191,
      "çªĦ": 7192,
      "è¿Ļæĺ¯ä¸Ģä¸ª": 7193,
      "ä»ĵåĤ¨": 7194,
      "ä¼¦æķ¦": 7195,
      "åĻªéŁ³": 7196,
      "84": 7197,
      "900": 7198,
      "äººå¿ĥ": 7199,
      "BB": 7200,
      "gle": 7201,
      "çļĦå¤ļ": 7202,
      "åľ¨ä¸Ģä¸ª": 7203,
      "æłĵ": 7204,
      "æĢĸ": 7205,
      "è°ľ": 7206,
      "æ¡©": 7207,
      "ç§°ä¹ĭä¸º": 7208,
      "æľºæ¢°è®¾å¤ĩ": 7209,
      "ä¿¡è´·": 7210,
      "æ³¨åħ¥": 7211,
      "æ¯ıæľĪ": 7212,
      "77": 7213,
      "å¹³éĿ¢": 7214,
      "å®īåħ¨çļĦ": 7215,
      "æĹħå®¢": 7216,
      "ä¸Ģæ¬¡æĢ§": 7217,
      "åĽ½æľīä¼ģä¸ļ": 7218,
      "åĲĪéĢĤçļĦ": 7219,
      "ä¾¯": 7220,
      "æĶ¾ç½®": 7221,
      "2003": 7222,
      "å·¾": 7223,
      "çĭł": 7224,
      "é¢ĦèŃ¦": 7225,
      "åįłæľī": 7226,
      "è¿Ļéĥ¨": 7227,
      "åľ°åŁŁ": 7228,
      "ä¸ĭæ¸¸": 7229,
      "æĦŁåħ´è¶£": 7230,
      "åĦĴ": 7231,
      "éĿĴçĿĲ": 7232,
      "å¼Ģå±ķäºĨ": 7233,
      "æįŁä¼¤": 7234,
      "ä½Ļäºº": 7235,
      "ç¨³å®ļçļĦ": 7236,
      "å®ĺæĸ¹ç½ĳç«Ļ": 7237,
      "SEO": 7238,
      "çļĦåħ¶ä»ĸ": 7239,
      "åľ¨æĪĳ": 7240,
      "ä¸ºåĩĨ": 7241,
      "çĶŁæ¶¯": 7242,
      "èĬĴ": 7243,
      "æİ¥å¾ħ": 7244,
      "æ¸ħéĻ¤": 7245,
      "çļĦæīĭ": 7246,
      "ä¸įè§ģ": 7247,
      "ä¸įåģľ": 7248,
      "ä¼łè¾¾": 7249,
      "åĪ«å¢ħ": 7250,
      "èĬĤæĹ¥": 7251,
      "æ½ĺ": 7252,
      "Ġt": 7253,
      "åĬ«": 7254,
      "å¤©å¤©": 7255,
      "åİĭåĻ¨": 7256,
      "æļ®": 7257,
      "é¸¡èĽĭ": 7258,
      "ä½ľå®¶": 7259,
      "èĥ½åĬĽåĴĮ": 7260,
      "å´©": 7261,
      "è°ĭåĪĴ": 7262,
      "çĶĺèĤĥ": 7263,
      "é¥²æĸĻ": 7264,
      "ä¸ĢåĲĮ": 7265,
      "åľ¨åĽ½åĨħ": 7266,
      "æĦī": 7267,
      "éĥ¨éĺŁ": 7268,
      "ä¼ģä¸ļå®¶": 7269,
      "ç§ģäºº": 7270,
      "æĸ°æĹ¶ä»£ä¸ŃåĽ½çī¹èī²ç¤¾ä¼ļä¸»ä¹īæĢĿæĥ³": 7271,
      "Al": 7272,
      "ç«£": 7273,
      "åı¯ä»¥è®©": 7274,
      "é¾Ļæ±Ł": 7275,
      "éĩĩçĶ¨äºĨ": 7276,
      "æĺİå¤©": 7277,
      "æĶ¾æĿ¾": 7278,
      "æ°´å¹³çļĦ": 7279,
      "04": 7280,
      "çĽ¼": 7281,
      "åħ¬å¯ĵ": 7282,
      "æ°´è´¨": 7283,
      "æĦŁåºĶ": 7284,
      "åıĪæĺ¯": 7285,
      "å®ĺåĳĺ": 7286,
      "ä»ĵåºĵ": 7287,
      "oogle": 7288,
      "çļĦåīįæıĲ": 7289,
      "åĵªå®¶å¥½": 7290,
      "ng": 7291,
      "ä½£": 7292,
      "åĲģ": 7293,
      "ä¸įå¤§": 7294,
      "ä¸Ĭç½ĳ": 7295,
      "æł¼å¼ı": 7296,
      "å®ĮåĸĦçļĦ": 7297,
      "æŃĮæĽ²": 7298,
      "èĪŀè¹Ī": 7299,
      "ive": 7300,
      "æĭ¦": 7301,
      "åĪĨè§£": 7302,
      "æĽ´æĶ¹": 7303,
      "éĻ¤æŃ¤ä¹ĭå¤ĸ": 7304,
      "ä¸ªåĪ«": 7305,
      "æĪĳä¸į": 7306,
      "è¯ģçĽĳä¼ļ": 7307,
      "éĿŀæ´²": 7308,
      "è§Ĩéĩİ": 7309,
      "æŃ¥ä¼Ĳ": 7310,
      "ä¿¡æģ¯æĬĢæľ¯": 7311,
      "æĻ¯çĤ¹": 7312,
      "æ¶Īè´¹èĢħçļĦ": 7313,
      "æģĲæĢĸ": 7314,
      "çļĦæ¸¸æĪı": 7315,
      "æľīæĹ¶åĢĻ": 7316,
      "å¸Ĩ": 7317,
      "isco": 7318,
      "Ġ30": 7319,
      "çļĦç¡®": 7320,
      "åľ¨åĨħçļĦ": 7321,
      "åħ¬ç¤º": 7322,
      "èĭį": 7323,
      "åĩłåįģ": 7324,
      "çķĻè¨Ģ": 7325,
      "çºªå§Ķ": 7326,
      "ity": 7327,
      "è¦ģæĬĬ": 7328,
      "åį³ä¾¿": 7329,
      "ä¸¥èĤĥ": 7330,
      "ä¸ĢçĽ´åľ¨": 7331,
      "è·¨å¢ĥ": 7332,
      "å©´åĦ¿": 7333,
      "ï¼Ĳ": 7334,
      "æĸĮ": 7335,
      "ä¸įè¶ħè¿ĩ": 7336,
      "è¢«ç§°ä¸º": 7337,
      "å¥³çĶŁ": 7338,
      "å¼ĢåıĳåĮº": 7339,
      "çĸĳéĹ®": 7340,
      "æī¶æĮģ": 7341,
      "åľ¨æľ¬": 7342,
      "ä¸ºä¼ģä¸ļ": 7343,
      "æºĲäºİ": 7344,
      "æĮĩåįĹ": 7345,
      "è¥¿åĮĹ": 7346,
      "çķĻåŃ¦": 7347,
      "åį°åıĳ": 7348,
      "æī©å¼ł": 7349,
      "çĶµè§Ĩåī§": 7350,
      "å¤ªéĺ³èĥ½": 7351,
      "åĪĽå§ĭäºº": 7352,
      "çļĦç»ıèĲ¥": 7353,
      "æİ©": 7354,
      "æĮ£": 7355,
      "ä¸īåįģ": 7356,
      "åĽŀå¤į": 7357,
      "ç®¡çĲĨåĴĮ": 7358,
      "æ´»åĬ¨ä¸Ń": 7359,
      "èĭ¥å¹²": 7360,
      "èĢģå¹´äºº": 7361,
      "06": 7362,
      "çĶŁåĬ¨": 7363,
      "éĩĳæ²Ļ": 7364,
      "ä¾ĭåŃĲ": 7365,
      "æĳ©æĵ¦": 7366,
      "71": 7367,
      "Ľ§": 7368,
      "çļĦç©ºéĹ´": 7369,
      "å¼§": 7370,
      "ä¹Łæ²¡": 7371,
      "åķ¥": 7372,
      "ç«ĭä½ĵ": 7373,
      "é¥°æ¼Ķ": 7374,
      "æī®æ¼Ķ": 7375,
      "Ġ/": 7376,
      "ä½ľæĪĺ": 7377,
      "æľĢæĸ°çļĦ": 7378,
      "ç»ĵç®Ĺ": 7379,
      "è½¬åĲĳ": 7380,
      "æī¿è½½": 7381,
      "ç½Ĺé©¬": 7382,
      "çĪĨçĤ¸": 7383,
      "åľ¨å®¶": 7384,
      "ä¸ºåŁºç¡Ģ": 7385,
      "è¿Ľåĩºåı£": 7386,
      "çŃīè¡Įä¸ļ": 7387,
      "å¾ĹçŁ¥": 7388,
      "æľŁåĨħ": 7389,
      "çİ¯çĲĥ": 7390,
      "åįĩéĻį": 7391,
      "çļĦç»ıæµİ": 7392,
      "çļĦåĲĦç§į": 7393,
      "å°ıå§Ĳ": 7394,
      "ç«ĭæ³ķ": 7395,
      "æĤ¨åı¯ä»¥": 7396,
      "çº¦ä¸º": 7397,
      "çļĦæĢģåº¦": 7398,
      "åĨħå¿ĥ": 7399,
      "åľºåĲĪ": 7400,
      "èº²": 7401,
      "éĢīè´Ń": 7402,
      "åĬŁå¤«": 7403,
      "çĪ±åĽ½": 7404,
      "Ġä¸Ń": 7405,
      "éĿ¢æĿ¿": 7406,
      "ä¸ĩå¹³æĸ¹ç±³": 7407,
      "æķ£çĥŃ": 7408,
      "æ¬£èµı": 7409,
      "ç»ıéĶĢåķĨ": 7410,
      "CN": 7411,
      "ä¸ĺ": 7412,
      "ä¸»æ¼Ķ": 7413,
      "åħ¨åĽ½åĲĦåľ°": 7414,
      "https": 7415,
      "çļĦåĵģçīĮ": 7416,
      "ä¸ĵç§ĳ": 7417,
      "ä¸ĢèĪ¬æĿ¥è¯´": 7418,
      "åı¯æĮģç»Ńåıĳå±ķ": 7419,
      "cm": 7420,
      "æĤĶ": 7421,
      "ç±»åĪ«": 7422,
      "éŁµ": 7423,
      "çļĩå¸Ŀ": 7424,
      "çļĦåŃ¦çĶŁ": 7425,
      "åľ¨æĸ°": 7426,
      "âĢĿï¼Ľ": 7427,
      "è¾ĥå¤ļ": 7428,
      "éĻ·åħ¥": 7429,
      "73": 7430,
      "åĪĨè¾¨": 7431,
      "æľĢæĹ©": 7432,
      "ç¾İå¥½çļĦ": 7433,
      "åıĪæľī": 7434,
      "ç¼ĸç¨ĭ": 7435,
      "258": 7436,
      "å°±ç®Ĺ": 7437,
      "å¢ĥåĨħ": 7438,
      "èĬ±è´¹": 7439,
      "èĴĭ": 7440,
      "ç²īç¢İ": 7441,
      "æĩĴ": 7442,
      "ä¸Ģå¸¦ä¸Ģè·¯": 7443,
      "èĨ¨èĥĢ": 7444,
      "åı¸æľº": 7445,
      "éĹ´æİ¥": 7446,
      "è¯´æĺ¯": 7447,
      "æ»¥": 7448,
      "è§ģè¯ģ": 7449,
      "æĴ°": 7450,
      "çĽ¸åħ³éĥ¨éĹ¨": 7451,
      "èĻļåģĩ": 7452,
      "èĴ¸åıĳ": 7453,
      "è½¬åĮĸä¸º": 7454,
      "94": 7455,
      "ä¸Ģå¯¹": 7456,
      "è®®é¢ĺ": 7457,
      "æ¯ıåĳ¨": 7458,
      "ä¸įæĸŃçļĦ": 7459,
      "ç»©æķĪ": 7460,
      "éĻĦåĬł": 7461,
      "è¾īçħĮ": 7462,
      "Ray": 7463,
      "åıĹçĲĨ": 7464,
      "äººä»¬çļĦ": 7465,
      "æ§Ľ": 7466,
      "96": 7467,
      "ä¸Ģçīĩ": 7468,
      "åħ¶ä½Ļ": 7469,
      "éĵħ": 7470,
      "åįĬå¯¼ä½ĵ": 7471,
      "ç§ŁæĪ¿": 7472,
      "èĵ¬": 7473,
      "æ¯«ç±³": 7474,
      "çļĦæľī": 7475,
      "åīįåĲİ": 7476,
      "çī¹æĸ¯": 7477,
      "çĹħæĥħ": 7478,
      "èħķ": 7479,
      "æİĪäºĪ": 7480,
      "ark": 7481,
      "ç©¿è¶Ĭ": 7482,
      "æĬµæĬ¼": 7483,
      "ç§ĺä¹¦éķ¿": 7484,
      "çļĦä¸ī": 7485,
      "æĿł": 7486,
      "çŃīäºº": 7487,
      "105": 7488,
      "æŀĦéĢł": 7489,
      "åıĳå¸ĥäºĨ": 7490,
      "åĲŀ": 7491,
      "åĬłä»¥": 7492,
      "åĨħèĴĻåı¤": 7493,
      "å½±åĥı": 7494,
      "åİĨç»ı": 7495,
      "ç»ĨèıĮ": 7496,
      "é¥®æĸĻ": 7497,
      "âĢ¢": 7498,
      "æłħ": 7499,
      "åĲĪè®¡": 7500,
      "èº«å¿ĥ": 7501,
      "æł¸éħ¸": 7502,
      "çļĦäººçĶŁ": 7503,
      "æ¸¯åı£": 7504,
      "SC": 7505,
      "ud": 7506,
      "ä¸įå¿ħ": 7507,
      "çīº": 7508,
      "åĿİ": 7509,
      "ç¬¬åħŃ": 7510,
      "èĪ±": 7511,
      "ç£¨æįŁ": 7512,
      "Ġof": 7513,
      "çļĦä¸ĸçķĮ": 7514,
      "ä¸ºçĶ¨æĪ·": 7515,
      "erv": 7516,
      "é»Ħæ²³": 7517,
      "ç°§": 7518,
      "pr": 7519,
      "åľ¨äºĨ": 7520,
      "åĿĿ": 7521,
      "å¦ĤåĲĮ": 7522,
      "æĥħèĬĤ": 7523,
      "ä¸ľäº¬": 7524,
      "åģļä¸º": 7525,
      "æµĻæ±Łçľģ": 7526,
      "æī«æıı": 7527,
      "å¿½è§Ĩ": 7528,
      "æĪĲäºº": 7529,
      "çī¹æľĹ": 7530,
      "æ®µæĹ¶éĹ´": 7531,
      "è§£åĨ³éĹ®é¢ĺ": 7532,
      "è¯ŀçĶŁ": 7533,
      "ax": 7534,
      "ä¸Ľ": 7535,
      "çļĦæ¯Ķä¾ĭ": 7536,
      "åº¦åģĩ": 7537,
      "æľįåĬ¡ä¸ļ": 7538,
      "éĹ¨æ§Ľ": 7539,
      "ç»´çĶŁç´ł": 7540,
      "æł¸å®ŀ": 7541,
      "é¢ĳç¹ģ": 7542,
      "æľºç»Ħ": 7543,
      "æ°´ä¸Ń": 7544,
      "èĬ½": 7545,
      "å¸¸åĬ¡": 7546,
      "åıĹæ¬¢è¿İ": 7547,
      "çŁ³æĿĲ": 7548,
      "åıĳçĶŁçļĦ": 7549,
      "çģ¾å®³": 7550,
      "é«ĺåº¦éĩįè§Ĩ": 7551,
      "ä½ľçī©": 7552,
      "èµĦåĬ©": 7553,
      "2004": 7554,
      "éĻĦå±ŀ": 7555,
      "èģĬå¤©": 7556,
      "åĨ¶éĩĳ": 7557,
      "çīºçī²": 7558,
      "TA": 7559,
      "åĪ¶è®¢": 7560,
      "ä¸ĵå±ŀ": 7561,
      "åĲĦæĸ¹": 7562,
      "ä¿¡æģ¯éĥ¨": 7563,
      "è§ģåĪ°": 7564,
      "æ´¾åĩº": 7565,
      "çĦ¦çĤ¹": 7566,
      "çī¢åĽº": 7567,
      "ä¼Ĺäºº": 7568,
      "åĪ¤åĨ³": 7569,
      "æĿ¥çľĭçľĭ": 7570,
      "åħ¬ä¼Ĺåı·": 7571,
      "work": 7572,
      "çļĦå£°éŁ³": 7573,
      "æĬĦ": 7574,
      "æŀ¢": 7575,
      "éĴ®": 7576,
      "å¿«çļĦ": 7577,
      "å¤ĦçĲĨåĻ¨": 7578,
      "ard": 7579,
      "æ¾³æ´²": 7580,
      "çļĦåıĳçĶŁ": 7581,
      "è£ħç®±": 7582,
      "åĽŀé¡¾": 7583,
      "æ·±æ·±": 7584,
      "è¯ĦéĢī": 7585,
      "ç¼ĸåĨĻ": 7586,
      "Ġ\"": 7587,
      "æĬĢæľ¯äººåĳĺ": 7588,
      "ç²¾èĩ´": 7589,
      "å»ºè®¾åĴĮ": 7590,
      "ä»Ģä¹Īæł·çļĦ": 7591,
      "åĶ®ä»·": 7592,
      "åĿļæĮģä»¥": 7593,
      "æµģåĬ¨æĢ§": 7594,
      "çļĦéĥ¨åĪĨ": 7595,
      "åĽ½éĺ²": 7596,
      "ä¼ļå¯¹": 7597,
      "å¼ĢåĪĽ": 7598,
      "æ³¨å°Ħ": 7599,
      "ä»Ĭå¹´çļĦ": 7600,
      "åİĤæĪ¿": 7601,
      "èĥĮæĻ¯ä¸ĭ": 7602,
      "ç§ĳåŃ¦éĻ¢": 7603,
      "æĲľéĽĨ": 7604,
      "æĺİæĺ¾çļĦ": 7605,
      "Ġé¥°": 7606,
      "çĶ¨å¿ĥ": 7607,
      "é«ĺå±Ĥ": 7608,
      "åīįæ²¿": 7609,
      "éģĹäº§": 7610,
      "äºĮæ°§åĮĸ": 7611,
      "åıªéľĢè¦ģ": 7612,
      "ev": 7613,
      "ä¿©": 7614,
      "è¾Ĭ": 7615,
      "çİ°éĺ¶æ®µ": 7616,
      "ä¹Łä¸įæĺ¯": 7617,
      "ä¼łéĢģ": 7618,
      "åįģåĩł": 7619,
      "çĪ±å¿ĥ": 7620,
      "ç£ħ": 7621,
      "æĶ¿çŃĸçļĦ": 7622,
      "éĿĻçĶµ": 7623,
      "åĸľæ¬¢çļĦ": 7624,
      "æĤĦ": 7625,
      "ä¿®æŃ£": 7626,
      "å¤ªå¹³": 7627,
      "ç¿°": 7628,
      "å®ŀéĻħæĥħåĨµ": 7629,
      "éľĩèį¡": 7630,
      "æīĢè°ĵçļĦ": 7631,
      "çł´ç¢İæľº": 7632,
      "74": 7633,
      "Ġ20": 7634,
      "æĹ¶æľº": 7635,
      "èģĶç»ľ": 7636,
      "åįķçº¯": 7637,
      "çİ¯æ¯Ķ": 7638,
      "éĢīæĭ©äºĨ": 7639,
      "çĶ·åŃ©": 7640,
      "æĲºå¸¦": 7641,
      "åłµå¡ŀ": 7642,
      "SD": 7643,
      "âī": 7644,
      "ä¸»åĬĽ": 7645,
      "å¢ŀå¤§": 7646,
      "åħ±èµ¢": 7647,
      "å¨ĩ": 7648,
      "è´Łèį·": 7649,
      "ç¬¬äºĮæ¬¡": 7650,
      "ç¹ģèį£": 7651,
      "è¯ĪéªĹ": 7652,
      "æĹŃ": 7653,
      "åľ¨å¤ĸ": 7654,
      "éĢĿ": 7655,
      "å®¶çĶ¨": 7656,
      "æĶ¿åįı": 7657,
      "èĢģåĮĸ": 7658,
      "ä¹łè¿ĳå¹³æĸ°æĹ¶ä»£ä¸ŃåĽ½çī¹èī²ç¤¾ä¼ļä¸»ä¹īæĢĿæĥ³": 7659,
      "æĸ°èĥ½æºĲæ±½è½¦": 7660,
      "å½ĵäºĭäºº": 7661,
      "çļĦåı¯": 7662,
      "ä¸Ģè½®": 7663,
      "èµĦæ·±": 7664,
      "çĽ®çļĦæĺ¯": 7665,
      "çĽ¸åıį": 7666,
      "æķ´å½¢": 7667,
      "åıĸåĨ³": 7668,
      "çľŁçĽ¸": 7669,
      "ç´¯ç§¯": 7670,
      "åħ¬æŃ£": 7671,
      "ç²¾åĬĽ": 7672,
      "ä¹¦ç±į": 7673,
      "ä¸»è¦ģæľī": 7674,
      "èĦ±è´«æĶ»åĿļ": 7675,
      "ĠUnit": 7676,
      "Ġç¬¬äºĮ": 7677,
      "æ¶¤": 7678,
      "ç®¡çĲĨç³»ç»Ł": 7679,
      "åĬ©çĲĨ": 7680,
      "åī¯æĢ»ç»ıçĲĨ": 7681,
      "èĭ¥æĺ¯": 7682,
      "èĭıå·ŀ": 7683,
      "est": 7684,
      "ib": 7685,
      "äººäºº": 7686,
      "éĹ¨åı£": 7687,
      "èģĮç§°": 7688,
      "ç»Ĩèĩ´": 7689,
      "äº§çĶŁäºĨ": 7690,
      "çģµéŃĤ": 7691,
      "ç¬ĶèĢħ": 7692,
      "âĶĢ": 7693,
      "çī¹æľĹæĻ®": 7694,
      "çļĦåĽ½å®¶": 7695,
      "çļĦä½įç½®": 7696,
      "ä¸įç¦ģ": 7697,
      "å¯¨": 7698,
      "å®ļäºĨ": 7699,
      "åıĬçĽ¸åħ³": 7700,
      "åīįæĿ¥": 7701,
      "åıĺæĪĲäºĨ": 7702,
      "è¥¿åįĹ": 7703,
      "äºĴéĢļ": 7704,
      "çĶ²éĨĽ": 7705,
      "å¤ıå¤©": 7706,
      "èº«ä½ĵåģ¥åº·": 7707,
      "ä»£çĲĨäºº": 7708,
      "å¼¥è¡¥": 7709,
      "Rayong": 7710,
      "GDP": 7711,
      "ä¸Ģä»¶": 7712,
      "è¿ĽæĶ»": 7713,
      "ä¸»å¼ł": 7714,
      "èµ·çĤ¹": 7715,
      "ç¿ł": 7716,
      "çļĦèĤ¡ä¸ľ": 7717,
      "é«ĺå³°": 7718,
      "æİ¥åľ°": 7719,
      "åıĸä»£": 7720,
      "ç¼©çŁŃ": 7721,
      "èµĭäºĪ": 7722,
      "LO": 7723,
      "Ġc": 7724,
      "å¸ĺ": 7725,
      "æ³Į": 7726,
      "åī¥": 7727,
      "çĲĨå·¥": 7728,
      "çĶµéĺ»": 7729,
      "å¥½åıĭ": 7730,
      "æĦŁæģ©": 7731,
      "åĲ¬åıĸ": 7732,
      "çĶµè§Ĩåı°": 7733,
      "èī°éļ¾": 7734,
      "MP": 7735,
      "åĲĦéĥ¨éĹ¨": 7736,
      "çº§åĪ«": 7737,
      "èĲ¥åķĨ": 7738,
      "åĩıéĢŁ": 7739,
      "åĵĪå°Ķ": 7740,
      "æ¯ıä¸Ģä½į": 7741,
      "RO": 7742,
      "ies": 7743,
      "çİ²": 7744,
      "å¹´å¤ľ": 7745,
      "ä¸İåħ¶ä»ĸ": 7746,
      "åıªä¸įè¿ĩ": 7747,
      "éĺ²å¾¡": 7748,
      "æĹ¶ä»£çļĦ": 7749,
      "æĹĹèĪ°": 7750,
      "æįĲèµł": 7751,
      "åħ¨èĩªåĬ¨": 7752,
      "çŃīäºİ": 7753,
      "æĹłç¼Ŀ": 7754,
      "ç§ĳåŃ¦å®¶": 7755,
      "ç§¯æŀģå¼Ģå±ķ": 7756,
      "åľ°è´¨": 7757,
      "ä¸»èĲ¥": 7758,
      "åħ³èĬĤ": 7759,
      "èīĩ": 7760,
      "æµģåŁŁ": 7761,
      "åıĺåĬ¨": 7762,
      "è¯ķåĽ¾": 7763,
      "åĳ½ä»¤": 7764,
      "è¿ľè¿ľ": 7765,
      "å¤įæĿĤçļĦ": 7766,
      "åİĺç±³": 7767,
      "æĺ¯ä»İ": 7768,
      "æĭĺ": 7769,
      "åĵģçļĦ": 7770,
      "åĲĪä¼Ļ": 7771,
      "é»ĳé¾Ļæ±Ł": 7772,
      "180": 7773,
      "åľ¨åħ¨çĲĥ": 7774,
      "å¦®": 7775,
      "çĥŃçĪ±": 7776,
      "æĹ©ä¸Ĭ": 7777,
      "ä¸įæĸŃæıĲé«ĺ": 7778,
      "åĬłå¼ºå¯¹": 7779,
      "åĵ²åŃ¦": 7780,
      "çļĦçİ°è±¡": 7781,
      "çĲ³": 7782,
      "å¤ĸåĮħ": 7783,
      "ç»Łæ²»": 7784,
      "è¢ģ": 7785,
      "åĲĳä¸Ĭ": 7786,
      "å·²å®ĮæĪĲ": 7787,
      "æ°Ķè±¡": 7788,
      "å±±å¸Ĥ": 7789,
      "å¤§å®¶éĥ½": 7790,
      "ä¸Ģåıª": 7791,
      "çĽ¸æľº": 7792,
      "å¾ģç¨ĭ": 7793,
      "å¿łè¯ļ": 7794,
      "åıĸåĨ³äºİ": 7795,
      "ä¸Ģåĳ¨": 7796,
      "ä¸įçĦ¶": 7797,
      "çİ°è´§": 7798,
      "èĢĮå·²": 7799,
      "å¤©åľ°": 7800,
      "è£¤": 7801,
      "ç¾İåĽ½çļĦ": 7802,
      "éģŃåĪ°": 7803,
      "åĩĳ": 7804,
      "æ±ª": 7805,
      "çŃīçĽ¸åħ³": 7806,
      "éķ¿åŁİ": 7807,
      "åĻ¨æ¢°": 7808,
      "æŁĲä¸ª": 7809,
      "ç»¼åĲĪæĢ§": 7810,
      "é¡ºåºı": 7811,
      "äº¤éĢļè¿Ĳè¾ĵ": 7812,
      "åľĨæ»¡": 7813,
      "åĪ©æ¶¦åĪĨéħį": 7814,
      "åĲİéĿ¢": 7815,
      "å¥½å¤Ħ": 7816,
      "åĪ¶çļĦ": 7817,
      "çľŁè¯ļ": 7818,
      "çĥŃçº¿": 7819,
      "åĬ¿åĬĽ": 7820,
      "å¿ħé¡»è¦ģ": 7821,
      "äº®çĤ¹": 7822,
      "åĲĪæ³ķæĿĥçĽĬ": 7823,
      "ä¸Ńæĸ¹": 7824,
      "ä½ľäºĨ": 7825,
      "å¼ĢäºĨ": 7826,
      "åīįæıĲ": 7827,
      "æ¡Ĳ": 7828,
      "æľįåĬ¡ä¸Ńå¿ĥ": 7829,
      "ç§ĳåĪĽ": 7830,
      "å¹¿éĺĶ": 7831,
      "ç½ĳç«Ļä¼ĺåĮĸ": 7832,
      "åĲĥé¥Ń": 7833,
      "èŀºæĹĭ": 7834,
      "æĿ¥æºĲäºİ": 7835,
      "åĩºå¸Ńä¼ļè®®": 7836,
      "æķĮäºº": 7837,
      "æĺ¯æĢİä¹Ī": 7838,
      "æŃ¤ç±»": 7839,
      "åĽŀå¿Ĩ": 7840,
      "ç¡®ç«ĭ": 7841,
      "æ¸ħåįİ": 7842,
      "åĥµ": 7843,
      "ä¸Ģå®ļä¼ļ": 7844,
      "ord": 7845,
      "ĠApp": 7846,
      "çĻĮçĹĩ": 7847,
      "ï¼ĮâĢĿ": 7848,
      "çļĦçĲĨå¿µ": 7849,
      "åŃ¦æľŁ": 7850,
      "è§£éĻ¤": 7851,
      "äº¤æīĢ": 7852,
      "äº¤äºĴ": 7853,
      "èµ°åĩº": 7854,
      "æ°¸ä¹ħ": 7855,
      "æĤ£èĢħçļĦ": 7856,
      "æĩĤå¾Ĺ": 7857,
      "EC": 7858,
      "åºĶåĬĽ": 7859,
      "è¿ĺåĮħæĭ¬": 7860,
      "è®©ä»ĸä»¬": 7861,
      "æĪĺèĥľ": 7862,
      "ç¦»ä¸įå¼Ģ": 7863,
      "å¤ªç©º": 7864,
      "ä½ıäºĨ": 7865,
      "å·²ç»ıæĪĲä¸º": 7866,
      "å¸ĮèħĬ": 7867,
      "ä¼ĺè´¨çļĦ": 7868,
      "çļĦçĬ¶æĢģ": 7869,
      "è¯¥å¦Ĥä½ķ": 7870,
      "åĪĿæľŁ": 7871,
      "æ¹¾åĮº": 7872,
      "çļĦæłĩåĩĨ": 7873,
      "æ¸´": 7874,
      "æľ¬å±Ĭ": 7875,
      "èİ·å¥ĸ": 7876,
      "äºĶå¤§": 7877,
      "åĿļå®ŀ": 7878,
      "åĪĨæŀĲå¸Ī": 7879,
      "éķľå¤´": 7880,
      "åĪ¶æĪĲ": 7881,
      "æĹłåħ³": 7882,
      "åĲįä¹ī": 7883,
      "ä¸ĩç¾İåħĥ": 7884,
      "æ¹Ľ": 7885,
      "èĳĽ": 7886,
      "æĳĦåĥı": 7887,
      "éļĲèĹı": 7888,
      "æĬĸéŁ³": 7889,
      "âĨĴ": 7890,
      "åļ": 7891,
      "äººå®¶": 7892,
      "åĩºåħ·": 7893,
      "åĪ©çļĦ": 7894,
      "çĭŃ": 7895,
      "äºļé©¬": 7896,
      "èį£èĢĢ": 7897,
      "æģĲæĢķ": 7898,
      "ä¸ĢæľŁ": 7899,
      "æĺ¯å¤ļå°ĳ": 7900,
      "åľ¨åīį": 7901,
      "åĴĮç®¡çĲĨ": 7902,
      "çŃīå·¥ä½ľ": 7903,
      "ä»·éĴ±": 7904,
      "ç»ĵè®º": 7905,
      "è·¯éĿ¢": 7906,
      "æĹ¶éĹ´åĨħ": 7907,
      "ä¹°åħ¥": 7908,
      "å¯ĨéĽĨ": 7909,
      "è¸©": 7910,
      "æ²īæ·Ģ": 7911,
      "ä½ĵçİ°äºĨ": 7912,
      "è¶ħå£°æ³¢": 7913,
      "UV": 7914,
      "ä¸ŃåĮ»èį¯": 7915,
      "å¯¹åħ¬åı¸": 7916,
      "åĩºäºİ": 7917,
      "åĮºåĪĨ": 7918,
      "çī¹ç§į": 7919,
      "å·¥ä½ľèĢħ": 7920,
      "éĹ¯": 7921,
      "ä½ľæĸĩ": 7922,
      "ä¸ŃåĽ½äºº": 7923,
      "è§£çŃĶ": 7924,
      "åĽºä½ĵ": 7925,
      "âĳł": 7926,
      "éĺģä¸ĭ": 7927,
      "å¼Ĭ": 7928,
      "éĢīé¡¹": 7929,
      "ä¹¦æ³ķ": 7930,
      "è¥¿èĹı": 7931,
      "åŃ¦æł¡çļĦ": 7932,
      "å®ĪæĬ¤": 7933,
      "å½¢å¼ıçļĦ": 7934,
      "å£¹ä¸ª": 7935,
      "æº¶åīĤ": 7936,
      "åĽ¾ä¹¦é¦Ĩ": 7937,
      "ä¸Ĭå¹´": 7938,
      "åŀĭä¼ģä¸ļ": 7939,
      "æĹ¶éĹ´çļĦ": 7940,
      "å®Ŀåħ¸": 7941,
      "ä»įåľ¨": 7942,
      "èŃ¦åĳĬ": 7943,
      "all": 7944,
      "æĢĢçĸĳ": 7945,
      "éĵ¸éĢł": 7946,
      "æĸ°åĨłèĤºçĤİçĸ«æĥħ": 7947,
      "ä¸ºå®¢æĪ·æıĲä¾Ľ": 7948,
      "ç»Ĵ": 7949,
      "éĹ·": 7950,
      "åıĳæī¬": 7951,
      "æĮ½": 7952,
      "åºĶåľ¨": 7953,
      "æĽ´å®¹æĺĵ": 7954,
      "å½ĵæĹ¥": 7955,
      "è¾ĥå¥½çļĦ": 7956,
      "å±±åĮº": 7957,
      "é¡¹çĽ®å»ºè®¾": 7958,
      "çĻ½æĸĳ": 7959,
      "é¡¶çº§": 7960,
      "æº¶æ¶²": 7961,
      "AB": 7962,
      "QQ": 7963,
      "St": 7964,
      "ä¸įåŃĺåľ¨": 7965,
      "äººäºĭ": 7966,
      "ä¸İåħ¶": 7967,
      "éĹ¨çļĦ": 7968,
      "åıĺåİĭåĻ¨": 7969,
      "ç²¾éĢī": 7970,
      "æ¼ł": 7971,
      "æŀģä¸º": 7972,
      "å¼ĢåıĳèĢħ": 7973,
      "èĮ¶åı¶": 7974,
      "å«©": 7975,
      "æ®ĭçĸ¾": 7976,
      "ä»¿ä½Ľ": 7977,
      "æ²³åįĹçľģ": 7978,
      "è¤": 7979,
      "æĸ°åıĳå±ķ": 7980,
      "æľ¬åĳ¨": 7981,
      "åĲĮè¡Į": 7982,
      "æłĩçļĦ": 7983,
      "ä¼łè¯´": 7984,
      "çİ¯å¢ĥçļĦ": 7985,
      "ä½ľä¸ºä¸Ģä¸ª": 7986,
      "èĲ¥ä¸ļæĶ¶åħ¥": 7987,
      "åĢ¡å¯¼": 7988,
      "å¿ĥæĢģ": 7989,
      "å¹¶éĢļè¿ĩ": 7990,
      "æ¬¡æķ°": 7991,
      "å¤ĩåıĹ": 7992,
      "éĻ¢å£«": 7993,
      "è¾ĥå°ı": 7994,
      "æĹ©åľ¨": 7995,
      "2002": 7996,
      "å··": 7997,
      "æ¿Ģæĥħ": 7998,
      "çļĦç»Ħç»ĩ": 7999,
      "ä¹ĭåľ°": 8000,
      "éĵĥ": 8001,
      "ä»£è°¢": 8002,
      "åķĨåºĹ": 8003,
      "æºĥ": 8004,
      "åĽŀåİ»": 8005,
      "çĥŃçĥĪ": 8006,
      "åĪĩæį¢": 8007,
      "å¸ĸ": 8008,
      "å°ĳçļĦ": 8009,
      "ç¬¬äºĮä¸ª": 8010,
      "èļģ": 8011,
      "è¶ĬæĿ¥è¶Ĭå¤ļçļĦ": 8012,
      "å¿ĺè®°": 8013,
      "æĺ¨æĹ¥": 8014,
      "åİķ": 8015,
      "åĨħåŃĺ": 8016,
      "èĢĮåĩº": 8017,
      "å½ĵä½ł": 8018,
      "éħ¶": 8019,
      "æ°ĳäºĭ": 8020,
      "æİ¥åħ¥": 8021,
      "åıĳå±ķåĴĮ": 8022,
      "ç»Ħä»¶": 8023,
      "è´ŁéĿ¢": 8024,
      "é¢Ŀå¤ĸ": 8025,
      "çī¹åĪ«æĺ¯åľ¨": 8026,
      "ik": 8027,
      "ml": 8028,
      "ä¸Ģéģĵ": 8029,
      "äºĨåĲĹ": 8030,
      "å±ĳ": 8031,
      "åĲĪèĤ¥": 8032,
      "åħ¥åŃ¦": 8033,
      "å¸¸è¯Ĩ": 8034,
      "çĲĥè¿·": 8035,
      "æŀģå¤§": 8036,
      "æŀģåħ¶": 8037,
      "æĭħå¿§": 8038,
      "çŁ¿çŁ³": 8039,
      "ç©¿çĿĢ": 8040,
      "èĤĮèĤ¤": 8041,
      "åıĳèĤ²": 8042,
      "çŃīæĸ¹éĿ¢çļĦ": 8043,
      "éĥ¡": 8044,
      "æµĭå®ļ": 8045,
      "ä¹Ĳè§Ĥ": 8046,
      "å®£åĳĬ": 8047,
      "çķĻåľ¨": 8048,
      "ä½ĽæķĻ": 8049,
      "ä¼ļè®¡å¸Ī": 8050,
      "å¤ļåħĥåĮĸ": 8051,
      "ä¸įå¯¹": 8052,
      "ä¹ĭåĨħ": 8053,
      "æģŃ": 8054,
      "ä»İå°ı": 8055,
      "ä»£æĽ¿": 8056,
      "èģĶåĤ¨": 8057,
      "å¸¦å¤´": 8058,
      "åĨįåĬłä¸Ĭ": 8059,
      "éĺ³å¸Ĥ": 8060,
      "åįļè§Ī": 8061,
      "1500": 8062,
      "å°¼äºļ": 8063,
      "åĺīå®¾": 8064,
      "æĭĨéĻ¤": 8065,
      "Ġ=": 8066,
      "çļĦé¡¹çĽ®": 8067,
      "åıĳç¥¨": 8068,
      "æĦ¤": 8069,
      "éķ¿æĺ¥": 8070,
      "å°Ĩæĺ¯": 8071,
      "éĴł": 8072,
      "åĽ¾å½¢": 8073,
      "çļĦä»·åĢ¼": 8074,
      "çļĦä¼ĺåĬ¿": 8075,
      "åľ¨æĪĳåĽ½": 8076,
      "åĴĮä¿¡æģ¯åĮĸ": 8077,
      "ä½įçļĦ": 8078,
      "ç²¹": 8079,
      "ä¼łæŁĵ": 8080,
      "åħĪéĶĭ": 8081,
      "å¤įèĭı": 8082,
      "çŁ¿ä¸ļ": 8083,
      "è½¬åŀĭåįĩçº§": 8084,
      "æª": 8085,
      "å½ĵå±Ģ": 8086,
      "ç«Ļå¼ı": 8087,
      "åĿĩåı¯": 8088,
      "ä¿ĿæĬ¤åĮº": 8089,
      "éª¨å¹²": 8090,
      "åĢ¾åĲĳ": 8091,
      "ight": 8092,
      "çļĦé£İ": 8093,
      "é«ĺéĵģ": 8094,
      "è¿ĩå¤ļ": 8095,
      "åĪ©æģ¯": 8096,
      "æĮģèĤ¡": 8097,
      "æŃ£å½ĵ": 8098,
      "äº¤åıī": 8099,
      "ä¸¥å³»": 8100,
      "å®¤å¤ĸ": 8101,
      "åľŁèĢ³": 8102,
      "çİ©åħ·": 8103,
      "åľŁèĢ³åħ¶": 8104,
      "å¹´å¼Ģå§ĭ": 8105,
      "åĬ¨åĳĺ": 8106,
      "èĬ¦": 8107,
      "ä½łä¼ļ": 8108,
      "åı¦æľī": 8109,
      "ç»ĦæĪĲéĥ¨åĪĨ": 8110,
      "ãĢĤï¼ĮãĢĤ": 8111,
      "250": 8112,
      "NT": 8113,
      "çĶ¨äºĨ": 8114,
      "ç¨³æŃ¥": 8115,
      "æľºæŀĦçļĦ": 8116,
      "ä¹¡éķĩ": 8117,
      "é¢Ĩå¯¼å¹²éĥ¨": 8118,
      "ä¸Ģäºº": 8119,
      "è¿ĺæ²¡": 8120,
      "é¢Ŀåº¦": 8121,
      "çķĻæĦı": 8122,
      "è¡Ģåİĭ": 8123,
      "å¡ĳéĢł": 8124,
      "èĲ¥éĶĢå®Ŀ": 8125,
      "Ľèµ·": 8126,
      "æŃ£å¦Ĥ": 8127,
      "ç§Łéĩĳ": 8128,
      "æ³¨åĨĮèµĦæľ¬": 8129,
      "ace": 8130,
      "æ¢³çĲĨ": 8131,
      "ä¸įæĩĪ": 8132,
      "åı¯çĪ±": 8133,
      "åĬłæ²¹": 8134,
      "è¿ĺä¸į": 8135,
      "è´¨çĸĳ": 8136,
      "è¾ĥå¥½": 8137,
      "ä¸ĸçķĮçļĦ": 8138,
      "çĽ®åīįçļĦ": 8139,
      "å¯Įæľī": 8140,
      "éĽĨåĽ¢æľīéĻĲåħ¬åı¸": 8141,
      "å¾ħéģĩ": 8142,
      "é«ĺéĢŁåħ¬è·¯": 8143,
      "èĽĭçĻ½è´¨": 8144,
      "ç¡®è¯ĬçĹħä¾ĭ": 8145,
      "âĺ": 8146,
      "å¹´åĨħ": 8147,
      "æĪĳåĴĮ": 8148,
      "æľºçĶµ": 8149,
      "éľŀ": 8150,
      "å¹³å¸¸": 8151,
      "çĿ¡çľł": 8152,
      "92": 8153,
      "æĺ¯åı¯ä»¥": 8154,
      "ä¸įå½ĵ": 8155,
      "åıĳåĶ®": 8156,
      "æĭ¾": 8157,
      "ç¤¾ç¾¤": 8158,
      "é»ı": 8159,
      "åĽ½éĻħåĮĸ": 8160,
      "çº¢å¤ĸ": 8161,
      "åĨłçĬ¶": 8162,
      "çīµå¤´": 8163,
      "ebook": 8164,
      "åħ¬å¼Ģåıĳ": 8165,
      "æ°Ķæ¸©": 8166,
      "ä¼ĺè¶Ĭ": 8167,
      "æĶ¾å¤§": 8168,
      "åĪĹåħ¥": 8169,
      "è¾¹çļĦ": 8170,
      "äº®çĽ¸": 8171,
      "ãĢķ": 8172,
      "äºĨå¯¹": 8173,
      "ç¡Ŀ": 8174,
      "å¸¸å§Ķ": 8175,
      "èĥº": 8176,
      "éĽĨè£ħç®±": 8177,
      "æŀģå¤§çļĦ": 8178,
      "âĢĿï¼ĮâĢľ": 8179,
      "ä¿ĥéĶĢ": 8180,
      "åıĸå¾ĹçļĦ": 8181,
      "è¡Ķæİ¥": 8182,
      "ãĢĶ": 8183,
      "åıĽ": 8184,
      "ä¸ºä¸Ģä½ĵçļĦ": 8185,
      "èĤĨ": 8186,
      "çłį": 8187,
      "å¸¸çĶ¨": 8188,
      "çļĦéĩįè¦ģæĢ§": 8189,
      "éĵ¸éĵģ": 8190,
      "Ġ.": 8191,
      "Ġ2019": 8192,
      "å¤§æ¥¼": 8193,
      "åıĳå°Ħ": 8194,
      "åı¯æĥľ": 8195,
      "å¼ĢæĪ·": 8196,
      "å¿ĥèĦı": 8197,
      "éĥ½éľĢè¦ģ": 8198,
      "åıĹä¼¤": 8199,
      "è°ĥè¯ķ": 8200,
      "æĬķæ³¨": 8201,
      "åĨįè¡Į": 8202,
      "åĨ·èĹı": 8203,
      "çĿ£ä¿ĥ": 8204,
      "æļ´åĬĽ": 8205,
      "æ¯«æĹł": 8206,
      "ä¸Ģå¼Ģå§ĭ": 8207,
      "äººæ°Ķ": 8208,
      "ä¸Ńç¾İ": 8209,
      "çĶ¨äºº": 8210,
      "å¸ĤåĢ¼": 8211,
      "æĿĥéĻĲ": 8212,
      "ç¤¾ä¼ļè´£ä»»": 8213,
      "çĹħçļĦ": 8214,
      "ä¿®çĤ¼": 8215,
      "å®³æĢķ": 8216,
      "æ¬§ç¾İ": 8217,
      "æıĲåĩºçļĦ": 8218,
      "åĲĵ": 8219,
      "åĳµ": 8220,
      "æĸĩæľ¬": 8221,
      "åĸ»": 8222,
      "ç®¡çĲĨåĬŀæ³ķ": 8223,
      "è±«": 8224,
      "ill": 8225,
      "èŁ¹": 8226,
      ");": 8227,
      "ci": 8228,
      "çļĦä¸įåĲĮ": 8229,
      "çļĦæĶ¯æĮģ": 8230,
      "å¥´": 8231,
      "å°ıåº·": 8232,
      "æİ¨åĩºçļĦ": 8233,
      "ä¸¾æĬ¥": 8234,
      "ç§Łè½¦": 8235,
      "åĪ¸åķĨ": 8236,
      "é¹ħ": 8237,
      "å¹´ä»¥æĿ¥": 8238,
      "è¡Įç¨ĭ": 8239,
      "åľ°è¯´": 8240,
      "æľºåĬ¨": 8241,
      "æĻ´": 8242,
      "è¿Ľè¡ĮçļĦ": 8243,
      "ä¸¤åĽ½": 8244,
      "ä½Ļé¢Ŀ": 8245,
      "åĩĢèµĦäº§": 8246,
      "ç²īå°ĺ": 8247,
      "LC": 8248,
      "è´©": 8249,
      "åĨħåľ¨": 8250,
      "ä»ĺè´¹": 8251,
      "ç¥ĸåĽ½çļĦ": 8252,
      "æ°´éĩı": 8253,
      "ä¸ĵçº¿": 8254,
      "èģĶéĤ¦": 8255,
      "éľĢè¦ģæ³¨æĦı": 8256,
      "è§ģçļĦ": 8257,
      "è¶ħåĩº": 8258,
      "äºĶéĩĳ": 8259,
      "æ¹¿åº¦": 8260,
      "èķ¾": 8261,
      "åľ¨åħ¶": 8262,
      "ä¸ªèĤ¡": 8263,
      "æĪĳè®¤ä¸º": 8264,
      "å¯¹çħ§": 8265,
      "å¯¹æĬĹ": 8266,
      "åŁºåĩĨ": 8267,
      "ç»Ļä»ĸ": 8268,
      "çĶŁäº§åİĤå®¶": 8269,
      "ä¸ĳ": 8270,
      "ä¸ĢæĶ¯": 8271,
      "å¤§åħ¨": 8272,
      "ä½ĵåĨħ": 8273,
      "æĬ¥è®°èĢħ": 8274,
      "åĩĨåĪĻ": 8275,
      "çŁ³å¢¨": 8276,
      "å½°æĺ¾": 8277,
      "åı¯æł¹æį®": 8278,
      "æĸ°ä¸Ģä»£": 8279,
      "ä¸ĭåįĬå¹´": 8280,
      "å¤ĸèµĦ": 8281,
      "è§Ĩè§Ĵ": 8282,
      "åħįè´£": 8283,
      "ice": 8284,
      "èĭĽ": 8285,
      "æķ°æį®çļĦ": 8286,
      "æī¿åĬŀ": 8287,
      "åĿļå®Ī": 8288,
      "çĶµåŃĲéĤ®ä»¶": 8289,
      "èĹ¤": 8290,
      "å±ķçİ°åĩº": 8291,
      "èµĭèĥ½": 8292,
      "ä¸»ç®¡éĥ¨éĹ¨": 8293,
      "ä¸įè´Ł": 8294,
      "å·¥åľ°": 8295,
      "æĸ°æĿĲæĸĻ": 8296,
      "å°±æ²¡æľī": 8297,
      "æ°ĳåĽ½": 8298,
      "å·¥ä½ľå®¤": 8299,
      "æĮĩå¼ķ": 8300,
      "ç¦½": 8301,
      "é¦ĸæī¹": 8302,
      "åİĨåı²ä¸Ĭ": 8303,
      "çĳ°": 8304,
      "æīĢå±ŀ": 8305,
      "å®Įæ¯ķ": 8306,
      "æĪĺåľº": 8307,
      "åŁºéĩĳä¼ļ": 8308,
      "ä¸ºä¸ŃåĽ½": 8309,
      "éķ¿è¿ľ": 8310,
      "å°Ĩä»¥": 8311,
      "æ·±æĢĿ": 8312,
      "çĭ¬å®¶": 8313,
      "æİ§åĪ¶åĻ¨": 8314,
      "æĭįåįĸ": 8315,
      "æĲŃè½½": 8316,
      "æ±¡æŁĵçī©": 8317,
      "ç¨¿ä»¶": 8318,
      "çĸ¯çĭĤ": 8319,
      "93": 8320,
      "çļĦä½ľåĵģ": 8321,
      "å®°": 8322,
      "åıĳéħµ": 8323,
      "ï¼īãĢĭ": 8324,
      "æĸĩçĮ®": 8325,
      "å¹¶äºİ": 8326,
      "åĮ»ä¿Ŀ": 8327,
      "éĴ±åĮħ": 8328,
      "æĵįæİ§": 8329,
      "å®ŀè·µä¸Ń": 8330,
      "çŃīçī¹çĤ¹": 8331,
      "éļ§": 8332,
      "çłĶç©¶åĳĺ": 8333,
      "æī§æĶ¿": 8334,
      "ĠSt": 8335,
      "éĻįä½İäºĨ": 8336,
      "acebook": 8337,
      "è¿Ļåı¥è¯Ŀ": 8338,
      "åľ°éľĩ": 8339,
      "ä¸ĭæĿ¥çļĦ": 8340,
      "åĬĽäºī": 8341,
      "ä¹Łè¢«": 8342,
      "æıĲèµ·": 8343,
      "æıĲè®®": 8344,
      "éĴ©": 8345,
      "æĪĺå£«": 8346,
      "çľģå¸Ĥ": 8347,
      "åıĳå¸ĥä¼ļ": 8348,
      "åģĩæľŁ": 8349,
      "700": 8350,
      "çļĦéĤ£": 8351,
      "ä½ĵæ£Ģ": 8352,
      "é¡½": 8353,
      "éķģ": 8354,
      "èº«ä¸º": 8355,
      "ç»¼èīº": 8356,
      "èĸĽ": 8357,
      "æ´ģåĩĢ": 8358,
      "éĺ»åĬĽ": 8359,
      "ä¼Łå¤§å¤įåħ´": 8360,
      "èĢĥé¢ĺå®Ŀåħ¸": 8361,
      "åĪĨçļĦ": 8362,
      "éħįçĶµ": 8363,
      "çĶŁäº§ç»ıèĲ¥": 8364,
      "åĭī": 8365,
      "åºķéĥ¨": 8366,
      "ä»įæľī": 8367,
      "åĳĺå·¥çļĦ": 8368,
      "çıłå®Ŀ": 8369,
      "èµ¶ç´§": 8370,
      "82": 8371,
      "Fi": 8372,
      "me": 8373,
      "å¤´åıĳ": 8374,
      "ç§ĳåŃ¦æĬĢæľ¯": 8375,
      "è¸¢": 8376,
      "çĽ¸å½ĵäºİ": 8377,
      "appä¸ĭè½½": 8378,
      "åħ¬åĬ¡åĳĺ": 8379,
      "å·¥ä»¶": 8380,
      "èĤļ": 8381,
      "æĦ§": 8382,
      "æı½": 8383,
      "è°£": 8384,
      "è¯´äºĨ": 8385,
      "åŀĦ": 8386,
      "æķĻèĤ²çļĦ": 8387,
      "è¿ŀç»ĵ": 8388,
      "è±¡å¾ģ": 8389,
      "æīĢä»¥åľ¨": 8390,
      "èı©": 8391,
      "çªģåıĳ": 8392,
      "åĸ·æ¶Ĥ": 8393,
      "èĪĨè®º": 8394,
      "äºļé©¬éĢĬ": 8395,
      "æĮ«": 8396,
      "åıĹè®¿": 8397,
      "è®°è½½": 8398,
      "ä¸»è¦ģçĶ¨äºİ": 8399,
      "æ¸¸æĪıçļĦ": 8400,
      "Ġæĺ¯": 8401,
      "ä¸ŃåĴĮ": 8402,
      "äºĨä¸ŃåĽ½": 8403,
      "æĪĳçľģ": 8404,
      "éĴĵ": 8405,
      "åĽŀå¤´": 8406,
      "å¸ĪåĤħ": 8407,
      "åĲĦé¡¹å·¥ä½ľ": 8408,
      "ä¸ŃæīĢ": 8409,
      "ä¹Łä¸º": 8410,
      "å®ļæĹ¶": 8411,
      "ç»ĻæĪĳä»¬": 8412,
      "ä½ıå®¿": 8413,
      "ore": 8414,
      "è°ĪåĪ¤": 8415,
      "åĿĲåľ¨": 8416,
      "ä¸Ļçĥ¯": 8417,
      "ff": 8418,
      "ä¸ĢåĿĹ": 8419,
      "åĴª": 8420,
      "å®ļä»·": 8421,
      "åħ³æĢĢ": 8422,
      "ç³Ł": 8423,
      "è£¹": 8424,
      "èµ·è¯ī": 8425,
      "éĢłä»·": 8426,
      "æ¢¨": 8427,
      "éħįè´§": 8428,
      "è´ŁåĢº": 8429,
      "çł´äº§": 8430,
      "çĶ·å¥³": 8431,
      "éĺµå®¹": 8432,
      "å¥¶èĮ¶": 8433,
      "php": 8434,
      "ĠæĪĳä»¬": 8435,
      "çļĦè´£ä»»": 8436,
      "ä¸ºäºº": 8437,
      "åĽ½åºĨ": 8438,
      "é«ĺæīĭ": 8439,
      "æł¼åħ°": 8440,
      "åĽ¾æ¡Ī": 8441,
      "éļıä¹ĭ": 8442,
      "èĵī": 8443,
      "æľĭåıĭä»¬": 8444,
      "æľīä¸Ģå¤©": 8445,
      "é«ĺçº§ç®¡çĲĨäººåĳĺ": 8446,
      "Windows": 8447,
      "ãĢĤ[": 8448,
      "æĸ©": 8449,
      "ä¸įåĲ«": 8450,
      "åĴ¸": 8451,
      "åĬ¨æ¼«": 8452,
      "ä»ĸå¯¹": 8453,
      "é¢ĺæĿĲ": 8454,
      "èºģ": 8455,
      "ä¸¤èĢħ": 8456,
      "å¢ĥçķĮ": 8457,
      "å½±åĵįåĪ°": 8458,
      "åħ´å¥ĭ": 8459,
      "èĪĴæľį": 8460,
      "çī¹æĸ¯æĭī": 8461,
      "IM": 8462,
      "ï¼Ĵ": 8463,
      "å¤ļåĲį": 8464,
      "å¹¶ä¸İ": 8465,
      "åıĹåĪ°äºĨ": 8466,
      "è¯Ħçº§": 8467,
      "è·¨è¶Ĭ": 8468,
      "åĳ¼åĲģ": 8469,
      "ç»ıåİĨäºĨ": 8470,
      "åĨĴéĻ©": 8471,
      "çļĦçĶ¨æĪ·": 8472,
      "ä¼ļè¢«": 8473,
      "åĮĸåĴĮ": 8474,
      "éļ¶": 8475,
      "åħ¥éĢī": 8476,
      "åįĹå®ģ": 8477,
      "åĢ¼çļĦ": 8478,
      "æ¸¸æĪıä¸Ń": 8479,
      "æİĮæİ§": 8480,
      "éĤ®ç®±": 8481,
      "87": 8482,
      "ä¿¡æīĺ": 8483,
      "æīĭè¡¨": 8484,
      "éĻĦä»¶": 8485,
      "èĢĲå¿ĥ": 8486,
      "ĠAl": 8487,
      "çĿ¡è§ī": 8488,
      "æīģ": 8489,
      "éĻĢ": 8490,
      "æİĢ": 8491,
      "è½©": 8492,
      "ä¸»åľº": 8493,
      "æĶ¶çĽĺ": 8494,
      "çĪµ": 8495,
      "å¤§å®¶çļĦ": 8496,
      "éĤ®æĶ¿": 8497,
      "è±ªåįİ": 8498,
      "ç¥Ŀç¦ı": 8499,
      "91": 8500,
      "ä¸ļæĢģ": 8501,
      "åĽ½åº¦": 8502,
      "è¿Ļä¸¤ä¸ª": 8503,
      "èĦĸ": 8504,
      "è½¬åħ¥": 8505,
      "æĬµè¾¾": 8506,
      "åĪĬçĻ»": 8507,
      "æĺĨæĺİ": 8508,
      "è¿Ļä»½": 8509,
      "ä»£ä»·": 8510,
      "åıįå°Ħ": 8511,
      "ç»ĵæŀĦçļĦ": 8512,
      "æĸ°åįİç¤¾": 8513,
      "æľīä¸Ģå®ļçļĦ": 8514,
      "å¤§æĪĺ": 8515,
      "æŀ¯": 8516,
      "è¡Įé©¶": 8517,
      "è¿Ļæĺ¯ä¸Ģ": 8518,
      "è½¿": 8519,
      "åħ¶æīĢ": 8520,
      "æķĻä¼ļ": 8521,
      "ä»İä¸¥": 8522,
      "åŁºçĿ£": 8523,
      "ä½Ĩä¹Ł": 8524,
      "åŀĴ": 8525,
      "æ²¡æ³ķ": 8526,
      "ä¸ĩäº¿åħĥ": 8527,
      "æĬĢæľ¯åĪĽæĸ°": 8528,
      "åħĪè¡Į": 8529,
      "æ±ŁåįĹ": 8530,
      "åŃ¦ä¹łè´¯å½»": 8531,
      "æĮīéĴ®": 8532,
      "çļĦäººæīį": 8533,
      "ç³»åĪĹäº§åĵģ": 8534,
      "è¾Ľèĭ¦": 8535,
      "çĥ¦æģ¼": 8536,
      "åĩºèī²": 8537,
      "åĪĨçº¢": 8538,
      "å®īåįĵ": 8539,
      "ä½ĨæĪĳ": 8540,
      "æİ¨åĩºäºĨ": 8541,
      "åĥıæĺ¯": 8542,
      "åĺĽ": 8543,
      "ä¿ĿéĻ©åħ¬åı¸": 8544,
      "æĬµæĬĹ": 8545,
      "éĻªä¼´": 8546,
      "?ï¼Ł": 8547,
      "Ġä¸º": 8548,
      "çļĦæ´»åĬ¨": 8549,
      "ä¸įé«ĺ": 8550,
      "è¿Ļå¯¹": 8551,
      "è¿Ļå®¶": 8552,
      "åĪĨå·¥": 8553,
      "æīĭå·¥": 8554,
      "ç§ĳçĽ®": 8555,
      "åıĮéĩį": 8556,
      "æ¼ĶåĶ±": 8557,
      "èıĬ": 8558,
      "ç§ĳåŃ¦çłĶç©¶": 8559,
      "ä¿ĥä½¿": 8560,
      "æľĿé²ľ": 8561,
      "PVC": 8562,
      "ä»»èģĮ": 8563,
      "æ¨¡èĮĥ": 8564,
      "æħĮ": 8565,
      "éĺ³åı°": 8566,
      "å¼ĢåıĳåķĨ": 8567,
      "éĺ¿å°Ķ": 8568,
      "åĿĲèĲ½": 8569,
      "çļĦæĹł": 8570,
      "çļĦåħ·ä½ĵ": 8571,
      "èĥ½èĢĹ": 8572,
      "æĸ°æµª": 8573,
      "åıĤå±ķ": 8574,
      "é¦ĸä¸ª": 8575,
      "çģ«éĶħ": 8576,
      "æİ§åĪ¶ç³»ç»Ł": 8577,
      "æĢĢåŃķ": 8578,
      "åĨ¬å¤©": 8579,
      "è°·æŃĮ": 8580,
      "å¯¹å¤ĸå¼ĢæĶ¾": 8581,
      "ï¹": 8582,
      "ç¾ŀ": 8583,
      "æķ°åįģ": 8584,
      "ä»İä¸Ń": 8585,
      "åĽŀèĲ½": 8586,
      "ä¹Ĳè¶£": 8587,
      "äºĨä¸Ģç§į": 8588,
      "è¿ĻéĩĮçļĦ": 8589,
      "é¹¤": 8590,
      "åī©ä½Ļ": 8591,
      "æ²³åĮĹçľģ": 8592,
      "ç«ĭæĸ¹ç±³": 8593,
      "åĲ¾": 8594,
      "åĮºéĹ´": 8595,
      "åĻ¨ä»¶": 8596,
      "éĩįè¦ģçļĦæĺ¯": 8597,
      "ç»ĨåĪĨ": 8598,
      "äº²åŃĲ": 8599,
      "éģĹä¼ł": 8600,
      "åĩŃè¯ģ": 8601,
      "83": 8602,
      "AG": 8603,
      "çļĦè§Ĵåº¦": 8604,
      "ä¸Ģåı°": 8605,
      "ä¼ļå¯¼èĩ´": 8606,
      "å¤ļè¾¾": 8607,
      "å¼ĢéĢļ": 8608,
      "ç«ĻçĤ¹": 8609,
      "è®©æĤ¨": 8610,
      "æĴķ": 8611,
      "å¥ĩæĢª": 8612,
      "çļĦå¤§åŀĭ": 8613,
      "æŃ£å¸¸çļĦ": 8614,
      "å®īå¾½çľģ": 8615,
      "TM": 8616,
      "å¾Īæĺ¯": 8617,
      "å¸¸å§Ķä¼ļ": 8618,
      "æ°Ķæ°Ľ": 8619,
      "æĬĹçĸ«": 8620,
      "åħ¼å®¹": 8621,
      "è¶³å¤ŁçļĦ": 8622,
      "æħĪåĸĦ": 8623,
      "ee": 8624,
      "ä¸Ģå¤§": 8625,
      "æľīæľºä¼ļ": 8626,
      "å·¥åºı": 8627,
      "ç½ĳçº¢": 8628,
      "çķ´": 8629,
      "æ¸©é¦¨": 8630,
      "çľ¼åīį": 8631,
      "çŃ¾åĲį": 8632,
      "ç»ıéªĮçļĦ": 8633,
      "è´®": 8634,
      "å¦ĥ": 8635,
      "å·²è¢«": 8636,
      "æİĴè¡Į": 8637,
      "è®¯æģ¯": 8638,
      "åĳ³çļĦ": 8639,
      "åĵ¥åĵ¥": 8640,
      "ava": 8641,
      "å¤¯": 8642,
      "æĿī": 8643,
      "åıĳçĶµæľº": 8644,
      "æ¶¡": 8645,
      "å¹³çŃī": 8646,
      "ä»İæľª": 8647,
      "å¸¸çĶ¨çļĦ": 8648,
      "åĻ¨æĿĲ": 8649,
      "è¨Ģè®º": 8650,
      "æī©æķ£": 8651,
      "ç»ıæµİç¤¾ä¼ļåıĳå±ķ": 8652,
      "å¯¹ä¸ŃåĽ½": 8653,
      "è¿Ľåıĸ": 8654,
      "ä½łæĺ¯": 8655,
      "çĶ³è¯·äºº": 8656,
      "âĢĻï¼Į": 8657,
      "èģªæĺİ": 8658,
      "å¤ļä¹ħ": 8659,
      "å°±è¿Ļæł·": 8660,
      "å°ĨæĪĲä¸º": 8661,
      "æľĪåĪĿ": 8662,
      "æµ·åħ³": 8663,
      "çĽ´èĩ³": 8664,
      "èĥ½å¤Łåľ¨": 8665,
      "èĢĲèħĲèļĢ": 8666,
      "æľĿçĿĢ": 8667,
      "ç»ĦæĪĲçļĦ": 8668,
      "è¾ĸåĮº": 8669,
      "ä½Ĩä¸įéĻĲäºİ": 8670,
      "EM": 8671,
      "mg": 8672,
      "åĽ½èµĦ": 8673,
      "åŃ¦éĹ®": 8674,
      "éĵĤ": 8675,
      "ç¾İèģĶåĤ¨": 8676,
      "æĹłæ¯Ķ": 8677,
      "åĲĦæĸ¹éĿ¢": 8678,
      "åı£èħĶ": 8679,
      "æł¡åıĭ": 8680,
      "åıĭå¥½": 8681,
      "ç»Ħç»ĩçļĦ": 8682,
      "ç¼ĵæħ¢": 8683,
      "æµªæ¼«": 8684,
      "æ¼«çĶ»": 8685,
      "é¢ĨåħĪçļĦ": 8686,
      "æĹłäººæľº": 8687,
      "89": 8688,
      "çļĦæĿĥåĪ©": 8689,
      "åľ¨ä¸Ń": 8690,
      "ä¸įåĲĥ": 8691,
      "æĪĳè¯´": 8692,
      "åĮĸçĸĹ": 8693,
      "åĲĪè§Ħ": 8694,
      "å¤©çĮ«": 8695,
      "ç¬¬ä¸ĥ": 8696,
      "è§Ĥåħī": 8697,
      "åĪĿä¸Ń": 8698,
      "æħ¢æĢ§": 8699,
      "ç¢°æĴŀ": 8700,
      "åĨłçĬ¶çĹħæ¯Ĵ": 8701,
      "éļ§éģĵ": 8702,
      "\"ï¼Į": 8703,
      "Ġ15": 8704,
      "åľ¨åĵªéĩĮ": 8705,
      "è°ĥåº¦": 8706,
      "åĽĽå¹´": 8707,
      "åİĭæľº": 8708,
      "è´Łè½½": 8709,
      "çŁŃè§Ĩé¢ĳ": 8710,
      "å»ºçŃĳçī©": 8711,
      "éĻĪè¿°": 8712,
      "æ¹¿åľ°": 8713,
      "å·¡è§Ĩ": 8714,
      "æĺ¯æĪĳåĽ½": 8715,
      "æ²¥": 8716,
      "æĢ§å¥½": 8717,
      "æ°´åĩĨ": 8718,
      "æľįé¥°": 8719,
      "è½¦ä¸»": 8720,
      "æĴ¼": 8721,
      "ä¸»è¦ģçļĦ": 8722,
      "è¾¹çķĮ": 8723,
      "éľĢæ±ĤçļĦ": 8724,
      "æıĲåįĩäºĨ": 8725,
      "ç´§ç´§": 8726,
      "æ¾Ħ": 8727,
      "å¼¹ç°§": 8728,
      "sp": 8729,
      "åı¯è°ĵ": 8730,
      "å¯¹èĩªå·±": 8731,
      "åĲİèĢħ": 8732,
      "è°Ń": 8733,
      "è¿ĺæ¬¾": 8734,
      "éĢĤå®ľ": 8735,
      "ç£Ĭ": 8736,
      "è¿½è¸ª": 8737,
      "åħ¨è¿ĩç¨ĭ": 8738,
      "ä¹Łè®©": 8739,
      "è¶ģ": 8740,
      "æ°´çĶµ": 8741,
      "æĸĩæĹħ": 8742,
      "è¿ĺåİŁ": 8743,
      "ä½Ĩä»ĸ": 8744,
      "èĲ½åĲİ": 8745,
      "è§ĴéĢĲ": 8746,
      "ä»¤æĪĳ": 8747,
      "è¯¦æĥħ": 8748,
      "è¯ĬçĸĹ": 8749,
      "è®¤è¯ģèĢĥè¯ķ": 8750,
      "âĹı": 8751,
      "ma": 8752,
      "ä¸Ģçľĭ": 8753,
      "ä¸ĬæĿ¥": 8754,
      "è¿Ľåİ»": 8755,
      "æıĲåıĬ": 8756,
      "éĩĳéĴ±": 8757,
      "å§¨": 8758,
      "è¯´åĪ°": 8759,
      "è¶ĬåįĹ": 8760,
      "åĿĩè¡¡": 8761,
      "æĪıåī§": 8762,
      "éļĶçĥŃ": 8763,
      "ä¸¥æł¼çļĦ": 8764,
      "å¿ĹæĦ¿æľįåĬ¡": 8765,
      "èĳĹåĲįçļĦ": 8766,
      "åĢĻéĢīäºº": 8767,
      "çļĦæĹ¶ä»£": 8768,
      "å°±éľĢè¦ģ": 8769,
      "ï¼īï¼ļ": 8770,
      "åģļäºĭ": 8771,
      "åģļä»Ģä¹Ī": 8772,
      "èģĮåľº": 8773,
      "æ³¨æĦıäºĭé¡¹": 8774,
      "é¡¶å°ĸ": 8775,
      "çĶµåĬ¨è½¦": 8776,
      "æº¶è§£": 8777,
      "åŀĦæĸŃ": 8778,
      "HR": 8779,
      "Ġ2021": 8780,
      "åıĳçĹħ": 8781,
      "çĶŁæķĪ": 8782,
      "ä¸»æĴŃ": 8783,
      "å¤ĸè´¸": 8784,
      "æīĭä¸Ń": 8785,
      "éªĦ": 8786,
      "ä¸ľéĥ¨": 8787,
      "ç®¡çĲĨå·¥ä½ľ": 8788,
      "è®®åĳĺ": 8789,
      "çļĦä¸Ģæ¬¡": 8790,
      "è´£ä»»ç¼ĸè¾ĳ": 8791,
      "ä¸ļåĬ¡çļĦ": 8792,
      "ä»Ĺ": 8793,
      "å®¶ä¹¡": 8794,
      "è¿ĩæ¸¡": 8795,
      "æĦıæĦ¿": 8796,
      "éļıæľº": 8797,
      "å·¥ç¨ĭå»ºè®¾": 8798,
      "ä¸ĢèĪ¬çļĦ": 8799,
      "æľīåħ³è§Ħå®ļ": 8800,
      "æŃĮæīĭ": 8801,
      "ix": 8802,
      "çĶŁæĹ¥": 8803,
      "ä¸İä¸ŃåĽ½": 8804,
      "åħ¶ä¸ŃçļĦ": 8805,
      "å¾Ĺå¤ļ": 8806,
      "çĽ¸ç»§": 8807,
      "æĶ¾åħ¥": 8808,
      "èĮĥçķ´": 8809,
      "å±ħçĦ¶": 8810,
      "å®ģæ³¢": 8811,
      "è®¸å¤ļäºº": 8812,
      "è¯¦ç»ĨçļĦ": 8813,
      "å¼ķèµ·çļĦ": 8814,
      "ç´«å¤ĸ": 8815,
      "çļĦæķĻèĤ²": 8816,
      "æĺŃ": 8817,
      "äº§åĢ¼": 8818,
      "èĩªåĬ©": 8819,
      "æį§": 8820,
      "éĻ¤éĿŀ": 8821,
      "éļ¾éģĵ": 8822,
      "é©¬æĿ¥": 8823,
      "äº§ä¸ļåĮĸ": 8824,
      "è¿ĻäºĽéĹ®é¢ĺ": 8825,
      "å½ķéŁ³": 8826,
      "å¥ĸé¡¹": 8827,
      "æĪĲç«ĭäºĨ": 8828,
      "åºŁçī©": 8829,
      "ä¹ĭåīįçļĦ": 8830,
      "èľ¡": 8831,
      "âħ": 8832,
      "Ġä¸ª": 8833,
      "ä½Ĳ": 8834,
      "è¯µ": 8835,
      "æĺ¯çĶ¨": 8836,
      "ä¸ºåħ¶": 8837,
      "æĪĳåı¸": 8838,
      "åľºæ¯ĶèµĽ": 8839,
      "å½ĵæĤ¨": 8840,
      "æµģæ°´": 8841,
      "ç«Ļéķ¿": 8842,
      "åħ»æĬ¤": 8843,
      "äº§ä¸ļçļĦ": 8844,
      "å¤±ä¸ļ": 8845,
      "äºĳè®¡ç®Ĺ": 8846,
      "å¼ĢåıĳçļĦ": 8847,
      "å±ħå®¶": 8848,
      "2001": 8849,
      "åľ¨æł¡": 8850,
      "æĪĳä¼ļ": 8851,
      "æĸ°é«ĺ": 8852,
      "èĩ³åħ³": 8853,
      "çĬ¬": 8854,
      "åĩłç§į": 8855,
      "å¥ĩè¿¹": 8856,
      "æĸ°éĹ»ç½ĳ": 8857,
      "åĽ°å¢ĥ": 8858,
      "åħĶ": 8859,
      "çŃīå¤ļä¸ª": 8860,
      "å°±è¢«": 8861,
      "éĢļèĥĢ": 8862,
      "æ¯ĶåĪĨ": 8863,
      "åįĩé«ĺ": 8864,
      "è¶³ä»¥": 8865,
      "æŃ¦è£ħ": 8866,
      "è¿Ŀçº¦": 8867,
      "èī°èĭ¦": 8868,
      "èµ¢å¾ĹäºĨ": 8869,
      "æł¸éħ¸æ£Ģæµĭ": 8870,
      "çļĦæľĢ": 8871,
      "æĿ¥è¿Ľè¡Į": 8872,
      "å°ıéķĩ": 8873,
      "å¤ĸç§ĳ": 8874,
      "æİ¨æĭī": 8875,
      "è¥¿åħ°": 8876,
      "å¤´éĥ¨": 8877,
      "èĭ±è¶ħ": 8878,
      "ä¸įä»ħæĺ¯": 8879,
      "çģ¯åħī": 8880,
      "éĻĮçĶŁ": 8881,
      "åĴĮé«ĺ": 8882,
      "æĪĳå¸Ĥ": 8883,
      "èĩªå¾ĭ": 8884,
      "ï¼ļãĢĬ": 8885,
      "äºĭå®ľ": 8886,
      "å®īéĺ²": 8887,
      "èµ·éĩį": 8888,
      "ä¸ľé£İ": 8889,
      "è¾ĥå°ĳ": 8890,
      "å°±æĺ¯è¦ģ": 8891,
      "åĭĩäºİ": 8892,
      "éĴ»çŁ³": 8893,
      "ç«£å·¥": 8894,
      "çĶ¨è½¦": 8895,
      "åĪĨä¼ļ": 8896,
      "çİ°ä»»": 8897,
      "éĴ¦": 8898,
      "åı¯ä»¥çĶ¨": 8899,
      "èĪĮ": 8900,
      "å®¢åİħ": 8901,
      "ä¸Ńå¿ĥçļĦ": 8902,
      "åİ¿çº§": 8903,
      "ĠCh": 8904,
      "ç¯ĩæĸĩç«ł": 8905,
      "åĻªå£°": 8906,
      "FT": 8907,
      "ãĢĪ": 8908,
      "åĬłåĽº": 8909,
      "æµ·åĨĽ": 8910,
      "å°ĳå¥³": 8911,
      "èģĮä½į": 8912,
      "é¦ĸè¦ģ": 8913,
      "äºļåįļ": 8914,
      "åĲĪä½ľçļĦ": 8915,
      "åĩºçİ°çļĦ": 8916,
      "åįļå®¢": 8917,
      "è·Łéļı": 8918,
      "åĨ·éĵ¾": 8919,
      "æ³½ä¸ľ": 8920,
      "è¡¨åĨ³æĿĥ": 8921,
      "SO": 8922,
      "ãĢī": 8923,
      "æĺ¯æ²¡æľī": 8924,
      "åŃµ": 8925,
      "ä¸įå®ľ": 8926,
      "åĲİåĨį": 8927,
      "åĬ¡å®ŀ": 8928,
      "çŁ«": 8929,
      "æĮģæľīçļĦ": 8930,
      "èİ·æĤī": 8931,
      "ä¸ªäººçļĦ": 8932,
      "å¯Įè£ķ": 8933,
      "æĹ¢æľī": 8934,
      "æĽ²çº¿": 8935,
      "é²ľæĺİ": 8936,
      "åı«åģļ": 8937,
      "å«Įçĸĳ": 8938,
      "éĩĩè®¿æĹ¶": 8939,
      "åĩºä¸Ģ": 8940,
      "æĢ§å¼º": 8941,
      "å§ļ": 8942,
      "è§£æŀĲ": 8943,
      "åĶĩ": 8944,
      "èģĮæĿĥ": 8945,
      "çŁŃä¿¡": 8946,
      "çĶŁæĢģæĸĩæĺİ": 8947,
      "ä¹ħçļĦ": 8948,
      "åĩıå°ĳäºĨ": 8949,
      "è¿ĩåİ»çļĦ": 8950,
      "ç»ĺçĶ»": 8951,
      "ä¸įç®¡æĺ¯": 8952,
      "çļĦåīįæıĲä¸ĭ": 8953,
      "Ġèĳ£äºĭä¼ļ": 8954,
      "éĥ½è¢«": 8955,
      "çĽ®åħī": 8956,
      "éĴ¥": 8957,
      "æµģåħ¥": 8958,
      "æĪ¿æºĲ": 8959,
      "ä¸ĵä¸ļåĮĸ": 8960,
      "æĸ¯åĿ¦": 8961,
      "ç»Īèº«": 8962,
      "åī¯éĻ¢éķ¿": 8963,
      "éĶĢåĶ®é¢Ŀ": 8964,
      "å·´å·´": 8965,
      "ç¡¬åº¦": 8966,
      "æĥĬåĸľ": 8967,
      "æ¶īåıĬåĪ°": 8968,
      "æĨ¾": 8969,
      "éĺĲè¿°": 8970,
      "81": 8971,
      "cr": 8972,
      "ä¸ºæĪĳä»¬": 8973,
      "å¤§è¿ŀ": 8974,
      "çİ«": 8975,
      "ä¸Ĭæ¸¸": 8976,
      "å¤ļå¤ļ": 8977,
      "æľ¬çĿĢ": 8978,
      "æ³ķå¸Ī": 8979,
      "éĤ£æĹ¶": 8980,
      "è¯Ńæĸĩ": 8981,
      "å»ºçŃĳå·¥ç¨ĭ": 8982,
      "æ±ĩæĢ»": 8983,
      "æ¦Ĥçİĩ": 8984,
      "éĺ»æŃ¢": 8985,
      "èĵĿèī²": 8986,
      "åįłåľ°éĿ¢ç§¯": 8987,
      "</": 8988,
      "ç»İ": 8989,
      "æĥŁ": 8990,
      "æŁ¥æī¾": 8991,
      "çªĥ": 8992,
      "çİ¯å¢ĥä¸ĭ": 8993,
      "ç¾İä¸½çļĦ": 8994,
      "å¥ĳæľº": 8995,
      "Hz": 8996,
      "Ġin": 8997,
      "çļĦè¡Įä¸ļ": 8998,
      "åĴĮä½¿çĶ¨": 8999,
      "éĿ¢æĸĻ": 9000,
      "å¤įå·¥": 9001,
      "è§ģéĿ¢": 9002,
      "çªĳ": 9003,
      "äº§ä¸ļåĽŃ": 9004,
      "å¼Ģå§ĭäºĨ": 9005,
      "çĨĻ": 9006,
      "èµĦæľ¬å¸Ĥåľº": 9007,
      "âĳ¡": 9008,
      "æŃī": 9009,
      "éĶ¥": 9010,
      "éĩĮç¨ĭ": 9011,
      "åı·åı¬": 9012,
      "è¿Ļç§įæĥħåĨµ": 9013,
      "é¢Ĩå¯¼å°ıç»Ħ": 9014,
      "çļĩåĨł": 9015,
      "æĦıè¯ĨåĪ°": 9016,
      "ä¸¾åĬŀçļĦ": 9017,
      "åĭĩæ°Ķ": 9018,
      "èĲ¥åķĨçİ¯å¢ĥ": 9019,
      "ä¸ĢçĶŁ": 9020,
      "ä¸ºæľ¬": 9021,
      "ä¸Ĭå¸Ŀ": 9022,
      "çĶŁçĲĨ": 9023,
      "æĸ°äº§åĵģ": 9024,
      "åŃĲéĩĮ": 9025,
      "æľĪä¸Ń": 9026,
      "æŃ£éĿ¢": 9027,
      "æł·æľ¬": 9028,
      "ç®¡çĲĨåĪ¶åº¦": 9029,
      "ä¸ºäºĨè®©": 9030,
      "çŁ¥è¯ĨçĤ¹": 9031,
      "ç¤¼åĵģ": 9032,
      "ç¤¼çī©": 9033,
      "è¯¯å·®": 9034,
      "å¸ĿåĽ½": 9035,
      "æļ´éľ²": 9036,
      "é¥ŃåºĹ": 9037,
      "ĠY": 9038,
      "ä¸Ģæĸ¹": 9039,
      "åıĳä½ľ": 9040,
      "çŃīåĬŁèĥ½": 9041,
      "èĢħåĴĮ": 9042,
      "æķ°ä½į": 9043,
      "éĤ£å°±": 9044,
      "åĲĦç§įåĲĦ": 9045,
      "åħ³ç³»çļĦ": 9046,
      "çħ¤çŁ¿": 9047,
      "èĩªçĶ±éĢīæĭ©": 9048,
      "æĲ¬è¿Ĳ": 9049,
      "çºłæŃ£": 9050,
      "èĤĮèĤī": 9051,
      "å¸¸æĢģåĮĸ": 9052,
      "åįĳ": 9053,
      "ä¸Ńæĸ°": 9054,
      "è¿Ļä»¶äºĭ": 9055,
      "å½ĵåĪĿ": 9056,
      "æĢ»çĲĨ": 9057,
      "æĦŁçļĦ": 9058,
      "èĭ±å¯¸": 9059,
      "å·®ä¸įå¤ļ": 9060,
      "å©·": 9061,
      "æ¯Ľæ³½ä¸ľ": 9062,
      "èĶĵ": 9063,
      "MB": 9064,
      "åĪĥ": 9065,
      "æĮļ": 9066,
      "å»ºçŃĳéĿ¢ç§¯": 9067,
      "æīĺç®¡": 9068,
      "åĽ°æī°": 9069,
      "io": 9070,
      "çĶĦ": 9071,
      "èĥ½è®©": 9072,
      "åħ¬ä¸»": 9073,
      "ä¾£": 9074,
      "é«ĺåħ´": 9075,
      "åĮĸè§£": 9076,
      "çĶµçº¿": 9077,
      "æĻķ": 9078,
      "æľįåĬ¡äºİ": 9079,
      "èįĨ": 9080,
      "æŁ¥å¤Ħ": 9081,
      "ç±³é«ĺ": 9082,
      "ç»´åº¦": 9083,
      "åĪĴåĪĨ": 9084,
      "ç´łåħ»": 9085,
      "æī¾åĪ°äºĨ": 9086,
      "çľŁå®ŀçļĦ": 9087,
      "ä¸Ńå°ıåŃ¦": 9088,
      "365": 9089,
      "èĿ¶": 9090,
      "è¿Ń": 9091,
      "åľ¨æĪĳä»¬": 9092,
      "å¤§éģĵ": 9093,
      "è¦ģçĤ¹": 9094,
      "æµĳ": 9095,
      "ä¹Łä¸įèĥ½": 9096,
      "åĿ¤": 9097,
      "åı¯ä»¥æł¹æį®": 9098,
      "æ²¡æľīäºº": 9099,
      "ä½İçļĦ": 9100,
      "åĿļå¼º": 9101,
      "å¥ĸéĩĳ": 9102,
      "æĻºèĥ½æīĭæľº": 9103,
      "æŃ»äºĨ": 9104,
      "å§Ĳå§Ĳ": 9105,
      "åĵĪå°Ķæ»¨": 9106,
      "çĢ": 9107,
      "çļĦç¥ŀ": 9108,
      "æľīèī²": 9109,
      "äºĨä¸ĢäºĽ": 9110,
      "å°±ä¸įä¼ļ": 9111,
      "å·¥ä½ľä¼ļè®®": 9112,
      "ç½ĳç«Ļä¸Ĭ": 9113,
      "éĻ¤å¤ĸ": 9114,
      "ç½ĳç»ľä¸Ĭ": 9115,
      "çĳ¶": 9116,
      "åħ¼èģĮ": 9117,
      "çī¹æ®ĬçļĦ": 9118,
      "ä¸Ģå±Ĥ": 9119,
      "ä¸įæĩĤ": 9120,
      "ç¨£": 9121,
      "åįĹéĢļ": 9122,
      "åĬ©æīĭ": 9123,
      "æ¦Ĩ": 9124,
      "åĢŁéī´": 9125,
      "è¿ĲèĲ¥åķĨ": 9126,
      "ä¸Ńåįİæ°ĳæĹıä¼Łå¤§å¤įåħ´": 9127,
      "Ġæľ¬": 9128,
      "åĴĮä¸ŃåĽ½": 9129,
      "è¿ĽäºĨ": 9130,
      "éģ£": 9131,
      "åīįéĿ¢": 9132,
      "è¡¨å½°": 9133,
      "æŃ£ä¹ī": 9134,
      "æ¸¸æ³³": 9135,
      "ç«¯çļĦ": 9136,
      "æ¯Ķè¾ĥå¥½": 9137,
      "çŀ©": 9138,
      "æģĴå¤§": 9139,
      "ux": 9140,
      "ä¸Ģç«Ļå¼ı": 9141,
      "åıĳæĶ¹": 9142,
      "å¼Ģéĩĩ": 9143,
      "å¼ºåĽ½": 9144,
      "åĤ»": 9145,
      "éĿłè¿ĳ": 9146,
      "è¿İæİ¥": 9147,
      "å®½åº¦": 9148,
      "ç³ĸå°¿": 9149,
      "åįģä¸īæĿ¡": 9150,
      "æ¹ĸåįĹçľģ": 9151,
      "æĸ°åįİç½ĳ": 9152,
      "æĺĶ": 9153,
      "çŃīåĽłç´ł": 9154,
      "å¼Ģä¸ļ": 9155,
      "çĥ«": 9156,
      "å¤Ħåľ¨": 9157,
      "ç¤¾ä¿Ŀ": 9158,
      "æĦŁçŁ¥": 9159,
      "åıªä¼ļ": 9160,
      "çĶŁäº§åĴĮ": 9161,
      "ä¸¥è°¨": 9162,
      "è´¯ç©¿": 9163,
      "ä¼ĬæľĹ": 9164,
      "çıłæµ·": 9165,
      "è¾ĪåŃĲ": 9166,
      "æ¹ĸåĮĹçľģ": 9167,
      "çļĦä¸¤": 9168,
      "å¤§èĦĳ": 9169,
      "æ³¼": 9170,
      "åħ¨èº«": 9171,
      "åĲĮæł·çļĦ": 9172,
      "å»ºç«Ļ": 9173,
      "ç§¯åĪĨ": 9174,
      "ä»ħæ¬¡": 9175,
      "çļĦä¸Ģé¡¹": 9176,
      "è¿ĩç¨ĭä¸ŃçļĦ": 9177,
      "æķħæĦı": 9178,
      "èĹ»": 9179,
      "æĺ¾ç¤ºå±ı": 9180,
      "èĢ¶ç¨£": 9181,
      "æĺ¯ä¸º": 9182,
      "èµĲ": 9183,
      "é«ĺç§ĳæĬĢ": 9184,
      "åīįåĪĹ": 9185,
      "æľŁåĪĬ": 9186,
      "çģ«ç®Ń": 9187,
      "éĢģåĪ°": 9188,
      "èµĦæºĲçļĦ": 9189,
      "èĢĲçĶ¨": 9190,
      "èĸ¯": 9191,
      "æĿ¥èĩªäºİ": 9192,
      "å¡«åħħ": 9193,
      "åĩĮæĻ¨": 9194,
      "åĮĸå¦Ĩåĵģ": 9195,
      "é«ĺéĽĦ": 9196,
      "æıĲåĲį": 9197,
      "çĽ¸è¿ŀ": 9198,
      "å½ĵéĢī": 9199,
      "æºĲå¤´": 9200,
      "èĮ«": 9201,
      "èĢģå©Ĩ": 9202,
      "æĳĶ": 9203,
      "å¹²é¢Ħ": 9204,
      "ä¸Ńåħ±ä¸Ńå¤®": 9205,
      "åİīå®³": 9206,
      "å¥¥è¿Ĳä¼ļ": 9207,
      "éĿłè°±çļĦ": 9208,
      "ey": 9209,
      "äººå¯¹": 9210,
      "æĦģ": 9211,
      "æł·åĵģ": 9212,
      "æ¨±": 9213,
      "åıįæĢĿ": 9214,
      "åıĳçĶŁåľ¨": 9215,
      "çŀ»": 9216,
      "æīĶ": 9217,
      "ä¸ŃèĢĥ": 9218,
      "åĲİåı°": 9219,
      "æĪĸä¸į": 9220,
      "æķĻå®¤": 9221,
      "æµģä¼ł": 9222,
      "åİ»åģļ": 9223,
      "èĳ¬": 9224,
      "è¶Ĭå¤§": 9225,
      "æŀĹæļ®": 9226,
      "ä¹°æĪ¿": 9227,
      "åºķçº¿": 9228,
      "çıŃçº§": 9229,
      "æĦ¿æĻ¯": 9230,
      "å·¨å¤´": 9231,
      "æĦŁè§īåĪ°": 9232,
      "Ġand": 9233,
      "çļĦéĢŁåº¦": 9234,
      "å¤§èĩªçĦ¶": 9235,
      "æĽ°": 9236,
      "ä¹ĭæĹħ": 9237,
      "è¿ĺåı¯": 9238,
      "ä¸ĵè¾ĳ": 9239,
      "äº¤å¾Ģ": 9240,
      "åĲĳåīį": 9241,
      "åİŁæľī": 9242,
      "æĦŁåĴĮ": 9243,
      "é¢Ĩåıĸ": 9244,
      "è·Įå¹ħ": 9245,
      "ä¸ĭæĸ¹": 9246,
      "éĥ½å°Ĩ": 9247,
      "æĽ´å¿«": 9248,
      "ä¸īçº§": 9249,
      "è§£æķ£": 9250,
      "é¢Ĩè¢ĸ": 9251,
      "æĶ¹ç¼ĸ": 9252,
      "è§Ĥèµı": 9253,
      "åĳ¨æľ«": 9254,
      "æİ¢æµĭ": 9255,
      "åĪĨåĪ«æĺ¯": 9256,
      "ä¾µå®³": 9257,
      "è¿ĩæ»¤åĻ¨": 9258,
      "ä¸įå¿ĺåĪĿå¿ĥ": 9259,
      "æ°ĳèĲ¥ä¼ģä¸ļ": 9260,
      "Ġth": 9261,
      "æĺ¯éĢļè¿ĩ": 9262,
      "2025": 9263,
      "ç½ĳæ°ĳ": 9264,
      "æĹ¥åĲİ": 9265,
      "æľĢé«ĺçļĦ": 9266,
      "å¼ºåĬ¿": 9267,
      "æŀĦä»¶": 9268,
      "ç»Ļäºº": 9269,
      "è½¬åĬ¨": 9270,
      "é¦ĸéĥ½": 9271,
      "èĦ±ç¦»": 9272,
      "ä¸ªæľĪåĨħ": 9273,
      "CA": 9274,
      "ps": 9275,
      "ä¸Ģéĥ¨": 9276,
      "ä¸įç¡®å®ļ": 9277,
      "åīįä¸ī": 9278,
      "èĤ¡ä¸ľçļĦ": 9279,
      "æĿĤè´¨": 9280,
      "ack": 9281,
      "æ¯«ä¸į": 9282,
      "ĠNS": 9283,
      "å¿½çķ¥": 9284,
      "è¯ģçħ§èµĦè®¯": 9285,
      "Cisco": 9286,
      "SP": 9287,
      "çļĦéķ¿": 9288,
      "çļĦåĲĪä½ľ": 9289,
      "åľ¨ä»ĸ": 9290,
      "æĹ¶æĬ¥": 9291,
      "èĩªä»İ": 9292,
      "å°±æĿ¥": 9293,
      "åı°ä¸Ń": 9294,
      "å¢ŀæ·»": 9295,
      "æŁ¥éĺħ": 9296,
      "éļıä¾¿": 9297,
      "ä¸įæĸŃåľ°": 9298,
      "æ±ĩèģļ": 9299,
      "æĪĲç«ĭä»¥æĿ¥": 9300,
      "åºŁå¼ĥ": 9301,
      "åĪĽéĢłäºĨ": 9302,
      "æĳĨèĦ±": 9303,
      "æ¼ıæ´ŀ": 9304,
      "å£®å¤§": 9305,
      "åĽĽå·Ŀçľģ": 9306,
      "æ³Ħæ¼ı": 9307,
      "éĻķè¥¿çľģ": 9308,
      "ck": 9309,
      "xt": 9310,
      "ä¸įåĪ©": 9311,
      "éħįæĸ¹": 9312,
      "é¥¶": 9313,
      "é¥¿": 9314,
      "éĿĴæµ·": 9315,
      "å½¢æĪĲçļĦ": 9316,
      "é¥®åĵģ": 9317,
      "ä»ħä¾ĽåıĤèĢĥ": 9318,
      "æĴ°åĨĻ": 9319,
      "åħįè´£å£°æĺİ": 9320,
      "çļĦè®¾å¤ĩ": 9321,
      "ä¼ŀ": 9322,
      "ä¸įå®¹": 9323,
      "ä¹ĭæĹ¶": 9324,
      "éĽĨç¾¤": 9325,
      "åħļç»Ħ": 9326,
      "æ½Ń": 9327,
      "ç»ıå¸¸åĩºçİ°": 9328,
      "ç«ĸ": 9329,
      "çĿ¿": 9330,
      "éĢīæĭĶ": 9331,
      "åıĺéĢŁ": 9332,
      "çľ¼éķľ": 9333,
      "åĮĹäº¬æĹ¶éĹ´": 9334,
      "æİĪè¯¾": 9335,
      "ç²īæľ«": 9336,
      "çļĦäºĭå®ŀ": 9337,
      "çĵ·çłĸ": 9338,
      "ĠèĢĥé¢ĺå®Ŀåħ¸": 9339,
      "çļĦæĸ¹åĲĳ": 9340,
      "åŁĶ": 9341,
      "åħ¥ä¾µ": 9342,
      "å½ĵåľº": 9343,
      "å®¢äºº": 9344,
      "éĺ¿æĭī": 9345,
      "æ¾ľ": 9346,
      "åħ¬å¸ĥçļĦ": 9347,
      "é©¬æĿ¥è¥¿äºļ": 9348,
      "æĸ°ä¸ŃåĽ½": 9349,
      "ç®¡çļĦ": 9350,
      "èĲį": 9351,
      "éĴĽ": 9352,
      "è¿Ļä¸ªæĹ¶åĢĻ": 9353,
      "å¹³åı°ä¸Ĭ": 9354,
      "åĪĽæĸ°åĪĽä¸ļ": 9355,
      "æĶ¿åºľçļĦ": 9356,
      "è¿ľç¦»": 9357,
      "ç¥¨æĪ¿": 9358,
      "åįĬåľº": 9359,
      "æ´Ĺæ¶¤": 9360,
      "åĪļå¼Ģå§ĭ": 9361,
      "å´Ľèµ·": 9362,
      "æľīäºĽäºº": 9363,
      "çĥŃéĹ¨èĢĥåı¤é¢ĺ": 9364,
      "äººæĢ§": 9365,
      "åıĳåħī": 9366,
      "åĪĨæ³Į": 9367,
      "å°Ĩè¿ĳ": 9368,
      "æĽ´è¿Ľä¸ĢæŃ¥": 9369,
      "æĪĸæľįåĬ¡": 9370,
      "åįģè¶³": 9371,
      "è®°ä½ı": 9372,
      "è¯¥é¡¹çĽ®": 9373,
      "åĽ¾è¡¨": 9374,
      "åī¯æĢ»è£ģ": 9375,
      "èĽ®": 9376,
      "éĴĪå¯¹æĢ§": 9377,
      "èĢĥåı¤é¢ĺä»ĭç»į": 9378,
      "æľīåĬĽçļĦ": 9379,
      "è¡ĮäºĨ": 9380,
      "æĸ°åªĴä½ĵ": 9381,
      "èĩªåªĴä½ĵ": 9382,
      "éķ¿è¾¾": 9383,
      "å°ĨåĨĽ": 9384,
      "è¯¥çŃī": 9385,
      "æĶ¯æŀ¶": 9386,
      "æ¼³": 9387,
      "åħīåŃ¦": 9388,
      "æŃ¥åħ¥": 9389,
      "åĩıèĤ¥": 9390,
      "éĵ¾æĿ¡": 9391,
      "èµŀåĲĮ": 9392,
      "DM": 9393,
      "çļĦç½ĳç»ľ": 9394,
      "æĭŃ": 9395,
      "ä¿Ŀå¯Ĩ": 9396,
      "æĹłéĶ¡": 9397,
      "åħĥçļĦ": 9398,
      "æ³¨çĽ®": 9399,
      "åĩłæ¬¡": 9400,
      "èµ°è®¿": 9401,
      "çŁŃæĿ¿": 9402,
      "ä»Ĭå¤©çļĦ": 9403,
      "å¢ĻéĿ¢": 9404,
      "é£Łåĵģå®īåħ¨": 9405,
      "èĦļæŃ¥": 9406,
      "ash": 9407,
      "äººåĿĩ": 9408,
      "åĽºæĢģ": 9409,
      "éĢłæĪĲäºĨ": 9410,
      "åħħåĪĨåĪ©çĶ¨": 9411,
      "é¦ĸåħĪè¦ģ": 9412,
      "åĢ¼å¾Ĺä¸Ģ": 9413,
      "ust": 9414,
      "ä¸ĢçĻ¾": 9415,
      "ä¸Ģåº§": 9416,
      "å±ķæľĽ": 9417,
      "å®īå¿ĥ": 9418,
      "æīĭæ³ķ": 9419,
      "å¦Ĥæŀľæľī": 9420,
      "å¦Ĥæŀľæ²¡æľī": 9421,
      "é£ŁæĿĲ": 9422,
      "éŁ³é¢ĳ": 9423,
      "ä¸Ģèµ·æĿ¥": 9424,
[...]
